#version: 0.2 - Trained by `huggingface/tokenizers`
Ġ t
Ġ a
e r
i n
Ġt h
Ġ o
Ġ s
Ġth e
Ġ f
r e
Ġ c
e n
o n
i s
a n
Ġ w
n e
a t
Ġo f
Ġ p
Ġ b
Ġ m
i t
e s
e d
o r
o u
a l
Ġ h
Ġ in
Ġ n
Ġo ne
Ġa n
a r
Ġ e
i c
Ġ z
Ġ d
er o
Ġz ero
Ġ l
Ġan d
in g
v e
Ġt o
i on
a s
i g
in e
o m
Ġt w
Ġtw o
Ġn ine
i l
ig h
Ġs e
i ve
Ġ g
Ġ is
l e
igh t
ou r
en t
Ġ re
u s
re e
r o
Ġs i
a m
Ġe ight
o l
Ġth ree
Ġf our
Ġf ive
a c
t h
v er
l y
Ġsi x
v en
u n
Ġb e
Ġf or
at ion
Ġ r
a d
Ġs t
s t
g e
Ġse ven
Ġw h
t er
Ġa s
c t
i d
u r
s e
c h
u l
i m
Ġa re
Ġa l
i r
u t
o w
Ġ k
e l
it h
e m
Ġf r
Ġw as
o p
Ġ j
o t
c e
Ġo r
an d
Ġo n
Ġ un
Ġw ith
a y
is t
Ġ it
Ġc on
Ġ v
Ġc h
er e
Ġd e
Ġb y
ou n
a p
i an
Ġfr om
i es
it y
Ġm o
Ġc om
d er
u m
i v
Ġth at
e t
Ġa t
Ġp ro
i f
er s
Ġh e
a in
es t
Ġ y
Ġe x
Ġ ne
re s
Ġs u
o c
a b
Ġs h
il l
om e
at e
i p
o s
ic h
th er
q u
i a
Ġa r
Ġh is
Ġs p
a ve
o d
Ġt r
a k
i al
ar t
a ge
is h
Ġ us
o g
at ed
m ent
a g
Ġl e
al l
an t
Ġ en
ar d
b er
u d
Ġin c
or t
l d
Ġh ave
Ġwh ich
en s
es s
Ġa m
Ġp l
ic al
i e
e ar
oun t
g h
u re
Ġth is
Ġ u
Ġp op
Ġth ere
p p
Ġn ot
Ġh ou
am e
w n
Ġp r
i b
Ġpop ul
ar y
Ġw or
s o
as t
ol d
Ġ ro
k s
Ġa ge
e ct
Ġal so
Ġm an
Ġcom p
c c
Ġc l
el l
on g
ou gh
Ġb r
Ġa f
Ġf am
ic an
o ver
Ġal l
i re
Ġm ar
Ġhou se
us t
Ġc ount
Ġy ear
Ġh as
Ġwh o
a v
Ġpopul ation
at h
ou s
Ġa d
Ġg r
al es
Ġb o
p er
Ġn o
re n
Ġne w
ion s
oun d
p t
Ġw ere
p l
Ġo ut
or d
Ġc an
l and
Ġa b
Ġfam il
Ġcon t
en d
u al
u b
ter n
o re
on e
an s
at er
Ġp art
ver s
Ġun der
Ġin t
Ġcom m
Ġhouse h
Ġin d
Ġ im
Ġt e
it e
Ġb ut
Ġo ther
Ġp er
Ġre s
i z
Ġh ad
r y
Ġm ed
ac t
Ġam er
or y
ac h
Ġm e
Ġs ome
at es
ac k
Ġto wn
ac e
Ġ i
as s
en ce
Ġs c
Ġp e
f er
l ow
i ed
ul t
o se
Ġyear s
Ġm i
u c
k e
Ġk m
Ġun it
a re
iv ing
Ġp res
Ġf ir
ation s
Ġn or
Ġthe ir
id e
Ġhouseh old
m an
Ġc ity
an g
ow n
u e
Ġmo re
Ġamer ican
Ġp h
ou ld
ou t
Ġd is
im e
Ġfir st
ct ion
ic e
r a
Ġc ol
Ġbe c
ic t
Ġit s
Ġs er
Ġa pp
it ion
ig n
Ġs y
Ġcount y
Ġthe y
ver y
ic s
e c
Ġl oc
Ġl iving
Ġf em
ap h
Ġu p
ad e
Ġo ver
Ġw e
on d
Ġfor m
l es
o k
Ġg en
Ġd es
Ġ qu
Ġre c
ab le
t al
Ġa g
Ġc o
Ġs o
f f
Ġc ent
r u
p h
an ce
Ġp o
Ġmo st
t s
Ġinc ome
Ġb l
Ġf e
a il
ak e
Ġp ol
Ġaf ter
c es
Ġa ct
ve l
Ġmed ian
Ġl in
s h
Ġa cc
r it
a w
Ġbe en
Ġto tal
at ive
Ġp re
Ġh er
r aph
Ġk n
Ġw ar
ub l
Ġj o
Ġre p
il e
il d
o od
Ġm ay
ation al
l ud
og raph
am p
t y
Ġen g
t e
Ġe m
Ġof f
Ġcon s
f or
Ġwh en
Ġpe op
Ġo l
Ġunit ed
t w
Ġst ates
al ly
Ġman y
Ġthe m
Ġp ar
Ġse e
as e
or s
Ġm in
a u
Ġs ch
Ġpeop le
Ġinc lud
ent s
Ġe le
Ġc ar
Ġc ens
Ġe ar
Ġt ime
Ġm us
Ġr ac
Ġde c
if ic
Ġcens us
Ġg re
Ġin ter
ol og
Ġch ar
Ġint o
Ġ ed
Ġre l
Ġus ed
Ġsu ch
Ġm a
Ġf l
on s
Ġa ver
Ġl i
Ġc ap
Ġw ill
Ġat t
Ġh ow
i o
Ġpl ay
is m
Ġh ist
Ġaver age
Ġd o
Ġl ine
res s
or n
Ġol der
Ġg e
Ġt er
Ġare a
Ġfamil ies
Ġre g
t en
ing s
Ġh igh
is s
v ed
ne d
Ġon ly
Ġs ou
i ous
t on
ur ing
Ġan y
a us
Ġfamil y
Ġwor ld
Ġth ose
Ġm ales
al e
Ġfem ales
z e
e en
Ġhousehold s
Ġgen er
Ġnor th
it ies
Ġse c
Ġe very
Ġm ade
t ed
Ġsu b
Ġim p
Ġl o
Ġun i
in d
ic k
p e
ter s
Ġm on
Ġth an
Ġe v
Ġa ir
Ġar t
Ġl ar
Ġthe se
Ġp ubl
tern al
Ġw ould
as ed
d u
Ġh im
s s
Ġn um
g r
Ġc all
for m
l l
el d
Ġc re
Ġa c
w ay
Ġtr ans
st em
Ġd em
Ġst r
Ġd r
Ġth r
Ġw ater
Ġsh e
Ġf il
in ce
f t
Ġd uring
Ġd ist
l ish
Ġg over
Ġsy stem
a h
g an
j ect
Ġs m
id ent
sh ip
w ard
Ġde f
em ber
Ġex ternal
Ġa u
Ġgover n
Ġkn own
Ġab out
Ġb ro
Ġl and
Ġas s
Ġwor k
Ġ x
Ġb u
y s
Ġlin ks
e ver
Ġbe low
m s
Ġg u
t le
Ġsi ze
ual ly
Ġin st
ou p
Ġsi m
u p
Ġre m
ist s
in al
Ġwh ere
o ol
Ġbe tw
am es
Ġbetw een
Ġst ate
Ġhow ever
Ġloc ated
Ġuni vers
i et
Ġis land
ut ion
i er
Ġex p
e p
Ġjo h
se l
Ġk ing
re d
Ġ vers
ur y
ow er
Ġf ol
Ġsp ec
Ġo b
Ġsou th
in t
Ġp os
Ġg er
r al
i k
Ġw est
a z
Ġn ame
at ing
if e
Ġ ent
Ġin v
Ġ if
Ġus e
Ġd if
or k
Ġthr ough
r ib
ens ity
Ġch ild
an c
is e
Ġs ur
Ġd ensity
Ġhist ory
Ġbr it
ul ar
Ġjoh n
Ġw ell
Ġen d
Ġcall ed
Ġsu pp
in es
Ġrac es
Ġthe n
i ent
Ġd ay
Ġst ud
Ġm ain
Ġs w
Ġor ig
in s
al s
t ain
Ġgr oup
Ġsch ool
Ġp over
Ġpover ty
aus e
Ġag ain
Ġn on
Ġc r
Ġl ater
Ġbe l
Ġpro v
iv id
Ġf ound
Ġv ar
Ġin f
Ġl at
Ġse t
n ing
Ġpres ent
Ġj u
ath er
Ġbe ing
a ir
Ġli ke
u res
Ġfol low
Ġwh ite
Ġs oc
Ġch r
Ġele ct
Ġm il
ord ing
Ġre fer
Ġt y
Ġn ational
at ure
f ore
im es
Ġp ers
Ġw rit
Ġwh ile
Ġm ake
Ġgovern ment
o st
Ġl ong
in o
olog y
is ion
Ġmus ic
d uc
ce pt
an k
Ġcon st
ograph y
re ad
Ġc or
an ge
Ġe l
Ġex t
Ġad d
Ġde p
Ġof ten
Ġtown ship
vel op
ag es
ic a
Ġunivers ity
Ġm em
Ġger man
Ġnum ber
Ġ est
Ġg o
Ġbo th
Ġre t
i ver
Ġe u
ib le
Ġcol le
Ġse ver
ical ly
Ġaf r
id er
c ess
Ġv ill
Ġde velop
Ġbec ame
Ġ ir
en c
Ġl aw
Ġle ad
Ġcap it
Ġdis c
Ġc ur
Ġs ing
Ġo p
Ġoff ic
Ġd ire
Ġa p
Ġh ar
Ġmar r
Ġl a
ro w
Ġs a
Ġl ang
Ġsh ow
g er
Ġpol it
Ġo per
i am
i eld
Ġcomm un
ian s
Ġm u
f ul
Ġchild ren
c k
b ers
Ġde ath
Ġs l
in a
Ġacc ording
Ġv al
le y
ie w
Ġpubl ic
Ġl ist
Ġc al
ment s
Ġl it
Ġar m
Ġb ar
Ġdif fer
Ġsec ond
Ġgre at
Ġma j
l ed
Ġe ff
oc k
Ġser v
Ġcl ass
Ġm y
un d
Ġlang u
Ġfil m
Ġb at
ren t
b le
x t
Ġy ou
Ġind ivid
Ġs ince
Ġmo d
Ġle g
ur n
Ġear ly
Ġgener al
Ġi i
Ġk e
Ġcomm on
s on
Ġchar ac
Ġf in
Ġp ower
iz ed
ar ch
us s
Ġh um
Ġlar ge
Ġindivid ual
Ġbrit ish
Ġcent ury
it s
ial ly
on om
Ġeng lish
iv es
Ġn ow
Ġpro du
Ġl ife
Ġe c
r i
Ġbec ause
om an
Ġm et
ur al
iv ed
ge ther
Ġsever al
Ġmaj or
on t
Ġal b
Ġre le
Ġ es
Ġc our
Ġbe fore
Ġeu ro
Ġb ir
Ġs ame
ur ch
Ġinclud ing
Ġto gether
Ġsm all
Ġp ort
Ġdire ct
Ġst e
Ġe ven
Ġb ack
Ġser ies
Ġj e
Ġth ough
il ity
Ġt re
Ġcont ro
en ces
pl es
Ġr ight
Ġg l
o y
i um
Ġchr ist
t ing
Ġa ust
en n
Ġcomp le
Ġst ar
p ort
Ġe ach
Ġo wn
Ġrec ord
Ġ very
ul l
ain s
Ġph il
sel f
Ġor der
o v
Ġter m
am m
Ġcont in
Ġp at
Ġcons ider
u es
ion al
Ġo cc
o b
as h
ish ed
Ġs ign
Ġpart ic
Ġmarr ied
op h
Ġres id
Ġun t
Ġj an
Ġf re
Ġal th
Ġre v
Ġp a
Ġw ay
Ġs k
Ġalth ough
ren ch
Ġafr ican
in ed
Ġeuro pe
r ic
am ed
Ġ er
o ther
n er
y l
Ġdes c
Ġmar k
p an
Ġsp e
Ġp ac
Ġfem ale
ar k
Ġy ork
it ed
b s
Ġvill age
Ġhou s
Ġcon c
Ġf act
Ġb orn
v ent
ant s
Ġst and
Ġmu ch
Ġagain st
Ġn ative
Ġm ag
Ġcon f
Ġin s
Ġc ould
ch n
amp le
d e
ber t
Ġor gan
Ġr ace
Ġf rench
Ġa v
Ġc ro
Ġdes ign
Ġm id
Ġcomp an
Ġr ad
ak ing
Ġpro t
Ġj ust
Ġwh at
Ġunt il
are d
Ġo ld
Ġpers on
h ip
Ġne ar
Ġc d
t t
th s
Ġtr ad
Ġpres ident
Ġpro gr
b r
cc ess
at or
ut e
Ġunit s
ire d
Ġg ame
Ġb ased
i us
g est
Ġan other
os ed
b and
ru ct
Ġres ult
Ġbl ack
Ġh us
Ġe qu
er g
Ġm at
i ence
in c
Ġd own
Ġh and
Ġc over
is ter
oun c
Ġpac ific
Ġpart y
a im
p or
Ġau th
Ġre f
Ġb or
Ġm iss
Ġb as
Ġp ass
Ġte chn
Ġwor d
y n
Ġch urch
Ġdiffer ent
Ġst ill
Ġsp read
Ġop en
Ġpopul ar
Ġex ample
an e
ther n
as on
Ġr un
Ġw in
Ġcan ad
Ġs ol
om in
ie f
Ġres p
g in
on y
at ic
Ġan t
Ġmo der
Ġr iver
Ġart ic
Ġte le
Ġe ast
od e
v es
Ġd id
Ġindividual s
Ġin tern
Ġsu ccess
ne s
il le
Ġm ill
Ġb and
Ġc ult
Ġg od
Ġf o
Ġh ome
Ġf ar
Ġb re
Ġsupp ort
Ġb us
Ġh ol
i or
a i
Ġb est
Ġal one
Ġhus band
Ġs ong
ent ly
en se
Ġge or
st r
Ġimp ort
duc ed
Ġge ography
Ġh el
Ġb ure
Ġc ou
Ġpos s
Ġhe ad
ap an
om et
Ġar ch
Ġsome one
Ġd el
Ġe p
Ġbo ok
Ġintern ational
Ġec onom
u g
il y
Ġj apan
Ġpl ace
Ġ ve
n a
Ġas ian
Ġalb um
Ġf un
Ġar ound
en e
ne ss
b o
al ity
ain ed
is c
Ġhous ing
Ġl ast
c l
Ġle ft
Ġbure au
Ġcharac ter
Ġd u
er t
ro p
i ven
Ġt it
ic es
Ġmoder n
Ġdem ograph
Ġrep res
Ġt em
Ġv ol
a x
Ġex pl
Ġhist or
Ġlangu age
Ġf ree
Ġsh ort
qu e
is ed
if ied
Ġre qu
Ġrac ial
Ġeff ect
Ġst at
Ġmem bers
Ġfollow ing
ol der
re t
Ġc amp
m in
Ġpro f
b y
Ġoffic ial
m e
m b
Ġf ore
Ġdemograph ics
Ġo pp
i ation
Ġre d
Ġcount ry
ot t
Ġmil it
Ġvers us
Ġhis pan
Ġr oman
Ġwill iam
Ġh y
Ġin form
Ġcur rent
is on
er v
Ġau g
Ġc rit
ak es
Ġmo ve
r on
Ġt ur
i x
Ġad v
Ġcapit a
Ġst art
Ġe as
am s
Ġcou ples
at s
Ġauth or
i od
Ġus ually
Ġpo int
th ers
b all
al k
es e
Ġl ight
Ġhispan ic
Ġapp ear
Ġv i
Ġmake up
Ġro ck
Ġn amed
Ġall ow
l ing
Ġs on
Ġo ct
Ġmar ch
Ġam ong
ate ly
Ġform er
le t
Ġim age
Ġresid ing
Ġpolit ical
Ġinclud e
Ġlat ino
en g
Ġm or
ap p
u ed
Ġhouseh older
Ġ ver
u ary
Ġwith in
d ay
Ġpro cess
iz ation
Ġcd p
Ġhum an
Ġisland er
Ġsu per
Ġto p
od y
at a
Ġty p
Ġb ur
r ies
iet y
uc k
il ar
Ġrepres ent
et s
av ing
Ġorig in
l u
Ġd ue
Ġpl an
Ġan n
end ed
ab ly
Ġpo st
it ions
Ġv ir
Ġbu ild
Ġaug ust
ab lish
Ġdist r
Ġpres s
Ġinc re
Ġm ich
Ġmo v
Ġm en
Ġl ab
a e
Ġsim ilar
Ġper iod
er c
Ġs our
Ġc le
Ġre al
Ġest ablish
Ġg ood
Ġv iew
ac ed
Ġn at
Ġbat tle
Ġass oc
Ġcl aim
Ġm ount
ig ned
Ġjan uary
Ġt imes
f ord
Ġth ir
Ġaust ral
Ġorig inal
Ġw es
Ġm ass
Ġrep ubl
Ġr ich
ip p
ir c
Ġdistr ict
el s
Ġpar k
Ġv is
r ing
Ġapp ro
Ġmilit ary
as es
u ter
Ġd iv
Ġap r
Ġs um
Ġl ess
Ġex per
Ġus ing
Ġph ys
Ġme an
Ġb i
in k
e ad
Ġre ce
Ġr a
Ġk ill
Ġb er
Ġcompan y
il t
Ġh al
ard s
Ġc ities
er tain
Ġl ond
Ġp al
b ur
Ġpartic ular
Ġde v
Ġl im
Ġar g
Ġsoc ial
Ġlond on
ward s
au gh
Ġse pt
Ġf ield
s c
Ġfe w
id ge
Ġbe gan
l er
Ġal ong
ol ution
l ine
or ies
o ks
iv al
Ġg iven
th ing
Ġconsider ed
Ġb c
p ar
ac es
Ġc irc
Ġre ad
Ġtrad ition
th od
un g
r ip
ac ks
r act
d om
Ġartic le
Ġnew s
Ġfe b
ct ed
ed er
Ġcent er
Ġs omet
Ġrel ig
Ġsp ace
Ġvers ion
Ġle vel
as ter
Ġwith out
Ġinform ation
Ġl et
Ġf ur
Ġloc al
Ġimport ant
Ġp ur
Ġs ite
Ġeng land
ot s
o ber
Ġrele ased
l o
Ġc iv
Ġdo es
os s
Ġcolle ge
Ġg ree
Ġcour t
Ġne ver
Ġloc ation
Ġit al
um ent
Ġju ne
st er
enc y
Ġde t
Ġoct ober
Ġfr ance
Ġre se
Ġbec ome
Ġc are
p s
Ġr u
Ġsept ember
m er
iz e
Ġev ent
Ġ ill
Ġarm y
em pt
y r
Ġsh ould
Ġs al
Ġ ide
Ġdec ember
Ġa ut
Ġy oun
Ġspec ial
Ġsomet imes
Ġju ly
ne t
Ġch ang
Ġind ust
Ġcontro l
ict ion
ra ft
Ġd av
Ġre st
Ġr uss
ep end
g ress
Ġinf lu
ith er
ing ton
Ġis s
id es
v ision
al d
Ġen c
ain ing
ough t
Ġwes tern
Ġind epend
b e
m ber
Ġadd ition
y al
ay s
Ġdesc rib
Ġserv ice
Ġs it
way s
Ġpr act
Ġl ed
Ġvar ious
Ġeng ine
it ch
ort s
Ġaf f
Ġs an
om en
Ġcent ral
Ġciv il
Ġc op
ne y
ar s
Ġcon ne
on es
Ġv ict
Ġex ist
Ġapr il
Ġc ast
l in
Ġno ve
Ġpro p
id ed
Ġu k
Ġfo ot
Ġje w
v ille
Ġsing le
Ġne ed
Ġun ion
Ġnove mber
Ġd en
w e
Ġpr im
Ġt est
Ġm ult
Ġgeor ge
Ġd est
Ġpro ject
Ġc ase
Ġd er
Ġd ied
Ġno vel
Ġm ust
Ġn av
Ġj ames
Ġfeb ru
Ġfebru ary
Ġbel ie
Ġm ath
Ġcom b
y le
Ġed uc
Ġte x
Ġm ot
ne l
al th
Ġt our
Ġl ate
g es
Ġpro ble
Ġear th
ac y
Ġm ap
b n
Ġwor ks
Ġd on
Ġl ou
Ġim m
Ġo thers
Ġar r
Ġfor ce
ag ue
Ġfam ous
Ġapp l
Ġg ames
Ġint ro
Ġatt empt
Ġh en
o ve
Ġto ok
Ġc ath
m a
Ġamer ica
Ġthe ory
an n
m it
an ia
Ġear l
Ġsa id
Ġr ail
Ġc am
Ġsh ip
Ġst ory
Ġt ake
Ġsi de
Ġlit er
Ġan im
Ġtele vision
Ġc at
Ġking dom
a f
Ġth us
oc r
in ess
ct ions
Ġpubl ished
Ġre pl
Ġdevelop ment
iss ion
Ġr ul
Ġw on
c ed
Ġlit tle
Ġte am
Ġcomm and
Ġph ot
Ġc ounc
Ġs at
ak en
Ġes p
Ġthir d
k a
Ġchrist ian
ch es
p le
Ġe t
Ġj ud
Ġis bn
Ġcre ated
Ġbu ilt
Ġinter est
Ġsc ience
Ġbe h
Ġcomp uter
Ġm un
Ġwrit ten
ive ly
Ġfur ther
Ġb ill
Ġem p
rip t
ut ed
Ġre n
Ġplay er
Ġs ound
Ġob ject
Ġd i
Ġf ather
Ġsy n
Ġg old
Ġt en
Ġc ame
am a
Ġsystem s
olog ical
ain t
ad ed
Ġl ow
p ect
Ġf all
Ġcounc il
Ġinv ol
Ġc y
Ġh eld
ent ion
Ġpro per
r ation
d le
Ġkn ow
Ġw ind
Ġcommun ity
Ġbro ad
Ġw ide
g ed
os oph
Ġ ur
ist ic
ure d
x im
us h
Ġd ou
Ġh ard
Ġeurope an
y ing
Ġgroup s
Ġgener ally
Ġc e
ap e
ed ia
Ġtre at
Ġc aus
b or
Ġbir ths
Ġwe bs
op s
ot e
Ġcanad a
Ġb ody
end s
m ost
Ġrad io
Ġan c
Ġb ase
Ġl ake
Ġmin ister
Ġs en
Ġhim self
Ġper form
Ġ q
ct or
Ġphil osoph
Ġcal if
Ġr ather
Ġgre en
h am
Ġp s
Ġn one
o th
em ent
Ġcon d
Ġcalif orn
Ġl ib
Ġg row
Ġh or
le x
Ġ ident
a ff
ot a
Ġ ut
Ġs qu
Ġf ull
Ġe ither
Ġpre v
Ġwh e
Ġfr i
Ġprof ess
Ġro yal
Ġro ad
Ġrese arch
Ġstand ard
Ġnor thern
Ġh aving
Ġhel p
an ish
Ġp age
Ġd om
it ution
Ġpr om
Ġon ce
g y
Ġm ember
Ġbo oks
Ġf ight
Ġme thod
Ġt ro
t a
Ġf ire
Ġm ater
Ġatt ack
Ġto day
Ġm al
ru ction
Ġstr ong
an a
c o
Ġpa ul
Ġl og
w h
i ke
Ġse en
Ġgr and
it al
an ces
Ġcaliforn ia
c raft
Ġro le
Ġrefer ences
Ġs old
Ġst ruct
Ġwas h
Ġs un
Ġl ive
Ġgerman y
Ġty pe
Ġf eder
Ġj er
Ġcover ed
Ġplay ed
g o
Ġchar les
Ġst ree
Ġcapit al
Ġm art
Ġfor ces
Ġcro ss
i ated
Ġsoc iety
Ġse x
Ġs il
Ġwebs ite
Ġf inal
Ġm ac
Ġmill ion
l ess
Ġp ap
Ġse par
Ġse a
Ġr h
Ġbus iness
Ġjapan ese
Ġs ent
Ġreg ion
Ġg et
Ġcomple te
Ġsu g
Ġth om
Ġtit le
Ġv o
Ġw ik
ent al
om b
Ġh ere
Ġf ind
Ġare as
Ġtown s
Ġro bert
Ġne xt
ol ic
ore d
re w
Ġs am
Ġne tw
og n
ag ed
Ġcount ries
er y
Ġlo ve
Ġesp ec
Ġact iv
der s
Ġbe gin
Ġm ic
Ġprodu ct
Ġsour ce
Ġocc ur
Ġup on
s ide
Ġyoun g
st on
Ġespec ially
ar a
ic ip
bur g
Ġmid dle
Ġrep ort
Ġind ian
Ġav ail
Ġdem ocr
Ġch ina
Ġmater ial
Ġb ig
u el
Ġc a
Ġrel ations
um b
Ġl u
ens ive
Ġfre qu
Ġh ill
Ġn ight
l s
Ġse ason
Ġpr iv
Ġin it
Ġapp e
Ġdav id
Ġdeath s
Ġcomp os
Ġme ans
Ġw ood
Ġday s
Ġan g
Ġp enn
Ġl ord
Ġde b
Ġli ber
Ġm er
Ġsec ret
Ġc ertain
d s
at ures
in ation
Ġmark et
Ġlar gest
Ġprodu ction
Ġan al
ines e
Ġh om
Ġs n
id s
Ġm ach
Ġrepubl ic
Ġst yle
Ġtex as
Ġh on
Ġp ot
d en
ar ies
pl oy
Ġair port
is ing
Ġm ur
re me
Ġa ward
Ġle ague
Ġch inese
Ġte xt
Ġad min
Ġe th
Ġh all
Ġdevelop ed
Ġposs ible
Ġab ove
Ġcl ose
ic o
ic ation
Ġch amp
Ġf a
Ġal most
Ġse l
Ġnat ural
Ġprot ect
Ġpro duced
Ġsc ient
Ġh old
Ġev ents
Ġestablish ed
Ġh am
ific ation
Ġre ach
Ġoff ice
Ġm aking
Ġob s
Ġd ata
Ġlin k
e k
Ġlou is
Ġit self
y ch
Ġfun ction
Ġt urn
Ġtrans l
Ġsub ject
Ġinclud ed
Ġhal f
Ġgree k
Ġb en
t o
Ġpos ition
ab ility
g en
pl o
Ġp ut
Ġsou thern
Ġexp ress
f ield
Ġw omen
Ġemp ire
ap s
Ġwash ington
Ġmun icip
Ġdep art
Ġst ation
Ġw r
ra w
Ġpr inc
Ġavail able
h er
se qu
Ġf ac
Ġw w
Ġprinc ip
Ġbe t
Ġep is
ent ial
Ġhen ry
a el
Ġt aken
Ġv ide
end ing
Ġb all
Ġf ail
Ġcol l
Ġdisc over
Ġmove ment
or m
Ġmov ie
Ġac ad
erg y
Ġpro b
Ġorigin ally
us ed
Ġcult ure
ud e
Ġfe ature
Ġant i
in ted
em y
Ġr out
Ġnor m
Ġent er
it ive
Ġp en
Ġfor t
Ġco ast
Ġme as
Ġbec om
Ġco st
i i
c om
Ġke y
it z
Ġj our
em s
Ġlo st
Ġdif f
Ġm c
Ġh it
k y
Ġa ud
Ġb al
Ġhe av
an ch
Ġprogr am
Ġfr anc
Ġc ell
Ġlangu ages
Ġter rit
Ġh o
Ġem per
Ġd ut
Ġcl ub
Ġn ames
Ġaustral ia
Ġd oc
ro ss
Ġu plo
Ġo x
Ġsw ed
ra el
at ors
le ct
Ġp ain
w ood
Ġt ar
Ġc ode
Ġpol ic
ad es
Ġret urn
Ġqu est
Ġreg ard
Ġcomp et
Ġmod el
Ġy our
Ġex ec
Ġprev ious
Ġact or
Ġwe b
Ġtr ave
Ġw at
Ġinst ead
Ġeduc ation
p r
Ġw ent
un ch
Ġeas tern
Ġs ay
Ġpro duc
u f
Ġmath em
Ġw il
Ġpr ince
Ġent ire
Ġz e
Ġso v
Ġrel ated
Ġstree t
r or
ic ations
k i
yl v
Ġdec l
se y
Ġac cept
Ġfil ms
Ġgr ound
Ġform ed
Ġinst it
ar ian
ge t
Ġro b
Ġis rael
Ġsov iet
Ġlib r
Ġpar l
Ġspec ies
Ġpl aces
Ġf low
Ġus er
ce ed
one y
Ġe ver
Ġex am
Ġch ange
Ġh ost
Ġso f
Ġrece ived
Ġbuild ing
ru g
Ġh u
Ġcharac ters
ylv ania
ow s
Ġf ig
Ġf ut
f ace
Ġd am
Ġf er
ific ant
Ġpart s
o x
a ut
Ġm ary
Ġvi ol
Ġeconom ic
Ġd ig
Ġt or
h e
Ġrec ogn
Ġch e
Ġfr ank
Ġcon cept
Ġw all
Ġ ven
Ġch em
Ġrich ard
Ġnetw ork
Ġright s
in ts
av es
Ġr ange
Ġret ur
re am
Ġthom as
Ġfr ont
Ġstud ents
Ġf le
Ġsp anish
ul a
Ġcomm it
Ġp ast
Ġl ower
Ġadmin ist
Ġa lex
Ġanc ient
Ġfound ed
Ġsign ificant
Ġmon t
Ġex cept
Ġm el
ver se
Ġcol or
Ġtr ib
Ġter ms
Ġp an
Ġpenn s
Ġfoot ball
ro te
Ġo h
Ġrev olution
Ġb an
Ġpo et
Ġevent ually
om s
Ġnot e
Ġps ych
Ġg ar
Ġ ire
Ġh tt
ed i
as ing
m on
Ġle ast
Ġspe ed
Ġdes p
Ġh op
Ġp ict
Ġcom e
Ġt v
Ġc ard
Ġto o
Ġdef e
Ġparl iam
Ġne g
Ġmus e
Ġword s
Ġprogr amm
Ġch o
Ġf ood
Ġpenns ylvania
id a
Ġc it
Ġm ight
Ġmean ing
Ġpr ime
Ġcanad ian
Ġcontin ued
b an
Ġt alk
Ġde ter
Ġa ch
Ġwik ip
Ġg un
Ġhtt p
c ul
Ġb ud
id ence
Ġwho se
Ġair craft
Ġch ief
u it
Ġtradition al
Ġmo ther
Ġrecord s
Ġsug gest
Ġcol on
Ġsuccess ful
Ġd omin
Ġal ways
Ġan ge
Ġen ergy
Ġbor ough
Ġemper or
Ġvir gin
Ġf und
c le
Ġb ay
Ġ ess
Ġparliam ent
Ġrelig ious
ut ions
Ġfore ign
Ġen v
er ing
Ġfeder al
ke y
Ġlo ok
am b
Ġbl ue
Ġcare er
ar ily
Ġde g
m p
it or
Ġm ad
Ġacc ess
i ers
Ġse at
Ġb ank
Ġf air
Ġs aint
o f
Ġvide o
Ġo s
Ġal tern
Ġt im
Ġw rote
Ġcle ar
Ġa th
Ġp et
Ġper for
Ġsel f
ut es
n al
Ġf av
Ġsof tw
ate g
Ġte ach
Ġuplo aded
Ġnum bers
Ġr om
Ġar ab
r ia
h a
Ġsp ir
Ġo pt
Ġinv est
Ġtr ade
ir on
g a
Ġo ur
Ġmuse um
Ġsoftw are
Ġimp ro
Ġde le
Ġme x
Ġconst itution
Ġqu een
ic ult
if f
Ġrele ase
Ġtrans port
it es
Ġcath olic
Ġhistor ical
Ġso on
Ġacc ount
Ġcont rib
um e
Ġser ved
Ġperfor man
our s
Ġind ia
Ġus es
Ġthough t
Ġa ction
Ġs us
Ġcan n
ect ed
Ġre b
Ġthrough out
Ġmo ved
Ġex c
Ġdef in
ing u
i j
Ġh un
Ġn ature
Ġa way
Ġww w
Ġform s
c ast
Ġe y
Ġh a
Ġl os
Ġschool s
ch an
Ġstud y
er ous
Ġpre d
Ġab s
land s
Ġof fer
Ġpe ter
augh ter
b c
ag o
u ation
as ion
Ġsy mb
Ġrec ent
Ġcap t
Ġdis p
ant ed
Ġj ose
Ġindepend ent
Ġf ish
Ġw ife
sel ves
ro y
as c
Ġlead er
Ġcar ol
an i
Ġtechn ology
Ġn ar
ber g
Ġp ie
Ġopp os
Ġparticular ly
Ġdesp ite
Ġab le
Ġch an
Ġconc er
Ġruss ian
Ġstart ed
ig an
Ġplay ers
Ġjew ish
Ġg al
Ġital ian
Ġcomm erc
Ġdescrib ed
Ġisland s
Ġc ut
uc le
w er
Ġto m
um p
v ing
Ġgr ad
Ġcrit ic
Ġire land
Ġserv ices
Ġenv iron
Ġpe ace
Ġele ction
Ġfut ure
Ġd yn
Ġr ap
enc ed
Ġii i
Ġsc ott
Ġmin or
im ate
Ġfl ag
Ġo w
st and
Ġcomple x
Ġdiff icult
v al
ight s
Ġmich ael
Ġem ploy
Ġdist rib
od es
on ic
Ġmic ro
Ġsur v
Ġcommon ly
Ġinclud es
i res
m en
Ġelect ed
Ġkill ed
Ġthem selves
Ġdesign ated
Ġcar r
Ġh ot
Ġg ir
Ġpar is
Ġtr ue
ot ed
Ġme et
Ġw al
Ġperson al
Ġk h
Ġle ar
se t
Ġre form
Ġdiv ision
c ol
re g
Ġwikip edia
Ġact ually
Ġr ound
Ġhe alth
Ġsim p
Ġn ucle
m ing
is l
Ġt ax
Ġbl ood
Ġappe ared
Ġp ow
Ġout side
Ġmin nes
Ġv an
um ents
Ġ iv
Ġlead ers
Ġbo ard
ounc ed
Ġmil es
Ġlat in
or por
e th
ak er
Ġrel ative
Ġcurrent ly
Ġfollow ed
Ġrefer red
Ġapp o
Ġminnes ota
Ġru le
et ic
Ġinst r
o le
ul ation
Ġr i
Ġmus ical
and er
Ġp un
w est
Ġcont r
Ġwe ap
Ġcon gress
Ġg ro
Ġcamp a
Ġgu it
Ġassoc iation
Ġmult ip
is es
Ġhe art
Ġdist in
Ġhigh er
b it
Ġac ross
ell ow
Ġtem per
Ġm ess
en ed
Ġint e
Ġcons ist
ip s
Ġconst ant
Ġde ad
Ġindust ry
Ġc ases
Ġp u
Ġval ue
Ġre ason
ol s
Ġir ish
Ġpur p
Ġbegin ning
oun ter
Ġfe atures
ic ated
Ġmag az
re st
t ic
Ġl ay
v iew
Ġus a
Ġprov ince
m ar
at ory
Ġmed ia
Ġwrit er
Ġcomm ission
Ġdet ail
Ġproble m
ol l
ou se
Ġmy th
Ġwork ing
Ġretur ned
Ġocc up
uf act
Ġes c
us ion
Ġl eng
Ġman ufact
Ġs aw
Ġcon vent
Ġcons erv
Ġbro ther
ur ity
Ġc ause
ch e
Ġj un
Ġintro duced
Ġam ount
Ġb ul
ans as
Ġleg al
Ġde al
ap t
Ġmain tain
Ġcontro vers
Ġsi r
Ġresp ons
Ġinflu ence
Ġthere fore
ol f
Ġgovern or
o ff
Ġafr ica
Ġcampa ign
ist an
Ġb it
Ġcommerc ial
n s
il ities
Ġmathem at
l am
qu es
Ġbir th
Ġdes igned
Ġbr idge
it ect
Ġfri end
Ġenviron ment
Ġre act
Ġlead ing
Ġcor por
Ġdisc uss
Ġme chan
Ġval ley
Ġind e
Ġsub st
Ġh app
Ġach ie
Ġk en
Ġl ic
Ġb ad
a q
Ġbre ak
Ġarch itect
Ġad op
id ing
Ġsm ith
Ġwhe ther
Ġas se
Ġke ep
Ġbo x
Ġresp ect
Ġp ay
Ġqu e
Ġan th
Ġd ark
Ġqu ick
Ġstruct ure
Ġbr ought
y m
Ġfl or
it ing
ar i
Ġpriv ate
Ġreg ular
n am
Ġbet ter
Ġla unch
Ġbrit ain
Ġpo ints
Ġdest roy
Ġtyp ically
Ġpract ice
Ġproble ms
Ġepis ode
Ġappro xim
Ġbro wn
Ġsc ot
Ġassoc iated
an o
Ġat l
u k
Ġr ate
Ġact ress
Ġf iction
gr ound
h ib
Ġne cess
o on
pl ay
Ġsi d
Ġb ab
Ġlin es
Ġsing er
Ġchan nel
Ġs and
w or
Ġd aughter
im ent
Ġjour nal
Ġspec ific
Ġg ave
Ġm oney
e e
w ell
Ġal le
ant ic
Ġset t
Ġgr aph
ies t
Ġsong s
at ives
Ġmich igan
Ġn ations
o o
Ġv oc
Ġd ate
Ġy et
i que
os p
Ġvirgin ia
f fer
ist ics
age ment
if t
Ġf oc
Ġch ap
Ġrelations hip
Ġdirect or
Ġvict or
Ġdepart ment
Ġcent re
Ġext reme
Ġn ation
Ġcount ies
ers on
du ction
Ġse qu
Ġpol ice
Ġguit ar
Ġshow s
Ġse ction
ag on
Ġpolic y
v a
Ġb ound
Ġtyp es
Ġk ar
Ġwrit ing
Ġleng th
i en
Ġlaw s
Ġliter ature
Ġinter p
Ġc and
Ġrem ained
k n
Ġperforman ce
Ġsimp ly
Ġwe ek
Ġnav y
ll ing
Ġsu p
Ġse m
Ġno b
Ġsy m
ib ility
gy pt
Ġbo y
Ġmon ths
Ġl ad
Ġc art
Ġlar ger
Ġd ie
Ġprob ably
Ġg ard
Ġo il
Ġaustral ian
Ġital y
Ġdu ke
ic ian
Ġwide ly
Ġg ive
Ġlibr ary
Ġoh io
Ġrefer ence
ens ion
Ġb ow
Ġe gypt
Ġne igh
Ġf ly
Ġele ment
Ġelect ron
Ġwar s
Ġspir it
st e
Ġearl ier
Ġbor der
as k
d r
Ġbe g
Ġsum mer
b our
Ġfore st
Ġsqu are
Ġst age
Ġp le
Ġcon du
Ġele ments
Ġpl at
Ġev idence
Ġorgan ization
us e
Ġm ale
Ġrequ ired
Ġun l
Ġgeor g
Ġ ult
Ġlim ited
Ġallow ed
pp er
Ġc orn
h ood
o res
u ne
Ġr at
Ġplay ing
Ġleg isl
Ġd one
Ġd ivid
Ġw isc
Ġmount ain
Ġsec urity
ul f
h ab
Ġt al
Ġphys ical
Ġjose ph
Ġsub sequ
Ġsch ol
Ġconst ruction
Ġm r
Ġrem ains
Ġst op
Ġeconom y
Ġchang es
Ġwisc ons
Ġ id
Ġprov ide
r is
Ġchamp ions
Ġsp ain
Ġappro ach
read y
Ġfin ally
Ġlong er
Ġc ry
f ect
Ġk ind
Ġdoc ument
Ġsur face
y a
Ġag ree
Ġm aster
led ge
Ġw oman
air s
Ġpl ant
Ġo d
Ġpubl ish
Ġmost ly
Ġtr ack
Ġwh om
l ines
Ġdis e
Ġaut om
fer ence
Ġm akes
Ġgre ater
Ġd og
Ġmajor ity
Ġnot able
Ġal ready
Ġg all
Ġwiscons in
l ict
Ġce le
Ġelect ric
Ġen ough
r ay
Ġc ust
Ġcour se
le ment
ag er
Ġdom ain
re en
Ġsa f
Ġrecord ed
Ġinter net
Ġ ib
n ers
b a
Ġim per
Ġcompan ies
Ġstud ies
Ġacc om
m ark
Ġbelie ved
Ġmiss ion
Ġdut ch
Ġj ack
Ġpre c
Ġexam ples
if y
Ġed ward
Ġc ab
t ar
Ġk ore
ot es
Ġdele ted
it ude
Ġcont ains
Ġcaus ed
Ġprim ary
Ġt a
Ġcol umb
e ast
Ġchang ed
Ġoper ation
Ġsp ring
Ġatt ract
Ġth ings
o id
r ian
Ġpap er
r ial
Ġmagaz ine
Ġrepl aced
Ġpartic ip
Ġs ant
Ġcom ed
Ġwho le
Ġed ition
Ġruss ia
Ġpre vent
Ġterrit ory
Ġincre asing
Ġd a
on a
anc ed
ish op
Ġadd ed
Ġn d
Ġg as
Ġb omb
Ġinvol ved
Ġide a
t ies
w are
Ġ ic
p ut
Ġf if
Ġet c
Ġb ene
c y
Ġs ense
Ġd im
r ound
Ġcre d
Ġper h
Ġh ero
ian t
Ġjer sey
Ġl oss
Ġperh aps
as ons
Ġj es
Ġheav y
b on
Ġfl o
ur s
in ary
Ġqu ant
l a
Ġpop e
Ġr ank
Ġmin d
Ġir aq
Ġappear s
Ġh aw
Ġse le
c ent
Ġmart in
Ġr ome
ys is
Ġd rug
Ġsepar ate
Ġem b
Ġsp orts
Ġbas ic
Ġas k
Ġw alk
Ġpro gress
Ġs ac
and s
ru pt
ist ry
Ġcarol ina
Ġphilosoph y
Ġrev iew
Ġasse mb
Ġc as
Ġon line
Ġis lam
Ġcann ot
Ġw ild
Ġquest ion
Ġp il
Ġde ep
Ġth ink
Ġr are
Ġgl ob
Ġlab or
Ġd ial
Ġprov ided
Ġres our
ad a
g l
om a
n y
op e
Ġor g
Ġmach ine
Ġsur round
os h
Ġsim ple
Ġlet ter
Ġinc orpor
o e
is ions
Ġcor re
Ġsour ces
ig r
Ġeffect s
Ġbroad cast
Ġo ce
Ġto wards
Ġimm edi
Ġth er
re at
Ġch ic
Ġst ories
Ġpolit ics
Ġindepend ence
Ġl ack
Ġrout e
Ġpr in
Ġass ist
or ial
Ġmet al
Ġbeh ind
Ġpr ison
Ġpr ior
Ġcast le
Ġpre m
Ġl ived
Ġt ell
Ġer a
Ġrequ ire
Ġrec ently
Ġst ock
Ġbecom es
Ġmed ical
Ġman agement
Ġcolle ction
Ġcontin u
Ġindust rial
Ġiss ue
d a
p ap
Ġfre ed
Ġflor ida
Ġcit iz
os ph
ar ing
p g
Ġnucle ar
Ġl uc
ell ed
l im
Ġar ts
Ġprot est
Ġcon ver
Ġlarge ly
Ġpr ize
Ġbelie ve
Ġacad emy
Ġr an
ic ient
k en
ro s
Ġinte gr
ict ed
Ġo ly
Ġauthor ity
Ġrul es
Ġrun ning
Ġmi x
Ġjo ined
al and
Ġsmall er
Ġs low
Ġpol y
ec k
Ġj ul
Ġmunicip al
Ġl es
ad o
Ġst ra
Ġun c
Ġmex ico
Ġdeg ree
Ġm ir
Ġj im
Ġsu ffer
Ġhigh ly
Ġtr u
Ġrelig ion
a rent
Ġm ention
Ġdemocr atic
Ġt aking
l or
Ġac qu
Ġt akes
Ġmarr ia
ll ed
Ġir on
Ġoly mp
ou th
Ġadd ress
Ġstat us
Ġlike ly
Ġclass ical
Ġvar i
Ġtro ops
Ġr ay
Ġw el
Ġgrow th
Ġf est
m y
Ġdeter m
Ġag ric
er ve
Ġconne ct
Ġiss ues
Ġw ing
ino is
ous ly
Ġset tle
Ġthe at
Ġd raw
Ġartic les
Ġc ounter
Ġreport ed
Ġr ing
Ġcult ural
Ġem erg
Ġinstit ute
ell ig
c er
ol a
Ġpo or
Ġw a
sh ire
Ġill inois
Ġvir t
Ġbe at
Ġc ateg
Ġconf lict
Ġprodu ce
Ġdirect ly
Ġstar s
Ġdef ined
az z
Ġch am
o ch
ren ce
Ġad m
Ġelect r
Ġnews pap
Ġind ic
Ġnear ly
Ġperform ed
Ġmo on
Ġve h
ript ion
Ġal ph
Ġk r
Ġbe ach
Ġcele br
Ġcon v
Ġh ung
i ences
Ġam b
e ch
es is
Ġnum erous
Ġdem on
ress ion
Ġs av
Ġwork ed
iz ing
Ġcre ate
Ġsu c
Ġse arch
Ġresult s
s u
Ġoper ations
Ġqu ar
Ġv on
Ġbel ief
Ġhy d
Ġmur der
Ġscient ific
ro ad
Ġm is
Ġcommit te
Ġagric ult
Ġproper ty
th e
Ġad j
in i
Ġr and
Ġc up
el ess
Ġpr on
Ġro t
Ġrepubl ican
t own
Ġact ive
Ġs ens
Ġprofess ional
Ġclaim ed
Ġlat ter
Ġcont ract
Ġsu ff
Ġrem ain
Ġsp l
Ġport ug
Ġfor ced
Ġknow ledge
Ġpart ies
b ury
Ġtr aining
il es
Ġh und
Ġrail way
w ise
Ġl ie
ste in
Ġint ellig
Ġst one
Ġconst ruct
ian ce
Ġm m
at t
Ġinv ent
Ġst ep
ab les
Ġappo inted
Ġs ar
Ġbe ll
Ġopen ed
er ved
Ġor d
Ġth ous
Ġbeh av
Ġvar iety
Ġproduct s
Ġsome thing
Ġc ub
por ary
Ġchic ago
Ġliber al
Ġres ist
Ġhigh est
ur ies
Ġu pper
l ight
ter ed
Ġo k
ut ive
Ġfeature d
Ġin n
Ġveh ic
v in
Ġtreat y
Ġg h
Ġv ia
Ġfl ight
Ġp ath
w in
Ġpl aced
Ġsex ual
Ġhund red
em e
Ġa x
h ead
um n
er a
ou l
i os
Ġpress ure
z a
Ġd ia
Ġchem ical
Ġspe ak
Ġbud d
Ġunder stand
Ġdivid ed
Ġins p
br idge
Ġcons um
Ġdr um
Ġscot land
Ġd ar
Ġp ack
Ġfin anc
n g
Ġswed en
Ġex ch
se c
am ent
Ġbr ief
Ġapproxim ately
Ġr is
Ġeth n
Ġma xim
Ġship s
ab b
ot ing
Ġb on
Ġhol y
mit ted
Ġdec ided
Ġk ent
ast ic
Ġm erc
Ġpr omin
Ġcont ent
Ġphot ograph
Ġaltern ative
Ġsuc ceed
Ġnorm al
Ġje an
Ġalbum s
Ġbo b
Ġsh own
Ġprogr ams
Ġincre ased
Ġc er
Ġleg end
Ġpass ed
Ġa st
Ġf ict
Ġse em
Ġg ot
Ġquick ly
Ġj acks
Ġze aland
Ġunl ike
Ġdistin ct
Ġdou ble
ian a
Ġb ass
Ġmarria ge
Ġchampions hip
Ġm as
ib ly
al ed
Ġcommun ities
Ġ il
Ġmed ic
u x
Ġstud ent
Ġim ages
y th
y cl
Ġf ast
on ents
r ison
Ġcont em
Ġsecret ary
Ġf el
res p
Ġgu ard
Ġob tain
os es
Ġs in
Ġqu ite
Ġapp arent
Ġsymb ol
Ġmem ory
Ġthe ore
Ġa str
Ġmeas ure
Ġr ang
Ġdig ital
Ġb bc
bo ard
Ġpow ers
Ġar ms
g or
Ġf ans
Ġox ford
Ġfrequ ently
b ack
Ġas ia
Ġoce an
Ġle e
Ġst an
Ġtw ent
w an
Ġadminist ration
Ġfe el
Ġclaim s
Ġad vent
Ġreg ional
Ġne t
Ġcar ry
Ġanal ysis
Ġcar l
Ġvo ice
m ed
it a
Ġf ace
ast y
Ġcompos er
Ġg a
Ġcand id
Ġn ick
t r
Ġj ac
Ġas h
Ġdirect ed
Ġref ers
s p
Ġdef ense
Ġmain ly
Ġt able
Ġmat ter
Ġbl ock
i ents
t m
Ġpict ure
Ġl y
ill a
Ġsc reen
Ġobs erv
iz ations
Ġmar sh
Ġhy p
z z
Ġhon or
Ġsc ale
Ġqu ality
Ġrepresent ative
Ġjacks on
Ġass um
Ġbas is
Ġn a
Ġfe et
Ġd ro
as ka
en a
ur a
Ġcom es
Ġcommitte e
Ġb a
Ġbuild ings
Ġdiscover ed
Ġtur ned
g ar
Ġvis it
Ġsh ot
it er
Ġgo ing
Ġwin ter
Ġo tt
Ġcond itions
Ġlet ters
Ġaddition al
g n
ag ing
Ġro se
Ġt ree
Ġin hab
Ġtrans fer
Ġnot es
Ġengine ering
Ġact ors
i as
Ġsp ect
ter y
Ġbase ball
Ġm ut
Ġincre ase
Ġmunicip ality
Ġnot ed
Ġdis s
Ġc ru
g s
Ġcre ation
Ġdec ision
Ġimp lement
Ġn ap
Ġfour th
Ġtrans form
Ġart ists
Ġbr ing
d on
Ġfri ends
Ġc os
Ġimper ial
Ġhigh way
Ġn omin
Ġprogramm ing
o ke
Ġfa ith
Ġar th
Ġmon arch
Ġr d
Ġsome wh
Ġbr anch
h ol
Ġur ban
Ġt end
Ġr am
Ġrelative ly
Ġw ave
Ġh ind
Ġrep e
Ġalex ander
Ġa wards
Ġw ales
Ġmat ch
Ġ ice
Ġs ail
f l
Ġab ility
Ġgeorg ia
et t
Ġe g
Ġre str
Ġvol ume
Ġreach ed
Ġjew s
Ġfict ional
Ġcor resp
Ġsc ene
Ġprim arily
ul ated
Ġcorresp ond
ent h
Ġk il
Ġper man
Ġf al
Ġjust ice
Ġinter view
Ġpat tern
Ġweap ons
Ġtr ial
l i
Ġser ious
w s
Ġexper ience
Ġe ll
Ġfr ac
m ission
Ġn az
Ġdise ase
or ation
Ġinstr ument
Ġl if
Ġvers ions
Ġint ended
on ia
c a
Ġre ve
Ġuni verse
Ġappear ance
Ġm cc
Ġl l
Ġj pg
on se
k er
our i
Ġmus lim
Ġth reat
Ġposs ess
Ġcap tain
Ġro s
Ġwrit ers
Ġplan et
ort un
Ġc old
Ġr ain
Ġcomp l
Ġst aff
iv ity
Ġp ier
Ġcl os
b re
Ġc row
Ġoper ating
Ġappl ied
Ġfig ure
Ġpurp ose
Ġatt rib
Ġan s
Ġsh o
ony m
Ġcolle ct
u ated
Ġa k
Ġf at
Ġp ul
Ġadop ted
Ġfreed om
Ġsh ar
Ġb ond
ch er
Ġt u
Ġfun ctions
Ġins ide
it ation
ed s
Ġb ol
re y
Ġbr az
Ġmon th
Ġv iet
Ġpower ful
Ġpol ish
Ġp urch
Ġr ise
Ġor ient
Ġart ist
Ġal bert
Ġanim als
Ġrap id
Ġt ou
Ġh an
g ers
Ġmod ified
Ġmiss ouri
is ation
Ġcon qu
Ġst ren
Ġend ed
Ġh ur
Ġbr and
Ġprevious ly
Ġh ours
Ġsw e
Ġfoc us
Ġtr ip
i ber
Ġlevel s
Ġmethod s
Ġne ther
Ġdo ct
u a
Ġd ed
Ġbecom ing
ian g
Ġexp and
Ġbene f
Ġcal cul
m ond
Ġgold en
Ġwind ows
Ġd ip
Ġfle et
Ġair lines
Ġt un
Ġread ing
isc o
Ġco al
Ġmot or
Ġhor se
Ġf ill
Ġter ror
augh t
Ġmount ains
Ġmultip le
Ġbus h
Ġf ul
i ate
Ġan ne
Ġdire ction
Ġk ings
Ġcons ists
Ġdist ance
Ġinvest ig
Ġp ng
ren ts
r ative
Ġhyd ro
Ġbe y
Ġprofess or
Ġv ote
Ġest im
Ġresp onse
Ġcust om
Ġor ch
Ġscott ish
Ġh ab
m ore
Ġgir l
Ġvill ages
it an
Ġcont ain
Ġdis play
Ġelect ions
Ġder ived
Ġdist ingu
us c
ab eth
Ġassemb ly
Ġs igned
Ġdyn asty
a ur
o ved
Ġcomple ted
Ġgreat est
Ġsupport ed
Ġtreat ment
Ġspe ech
Ġd ur
Ġann ounced
Ġamerican s
am i
man n
in ing
Ġh ell
Ġcomplete ly
Ġfound ation
Ġp ian
Ġfail ed
Ġd ance
Ġtrave l
Ġswed ish
ow a
Ġf oun
al a
Ġch all
Ġwh y
ach us
Ġaccept ed
Ġgu ide
ve y
Ġm om
ad s
Ġf an
Ġdefin ition
Ġcomp ar
Ġhand s
Ġas pect
g ing
Ġw ear
pt ion
Ġk ong
r ich
ic ks
Ġact ual
is ters
Ġstren g
Ġcrit ical
Ġh osp
i ro
Ġste ph
Ġange les
i ques
Ġcont act
Ġcom ment
Ġtem ple
Ġfinanc ial
Ġw it
e v
on ent
er ed
Ġl ives
Ġuni que
r ated
Ġobject s
Ġj ones
Ġbi ography
Ġenc ycl
op er
Ġnether lands
Ġex act
p ed
ol ved
Ġmo b
g ian
Ġt an
Ġbraz il
Ġf ant
Ġb ib
Ġanim al
Ġst ations
Ġfar m
Ġun f
Ġb od
Ġje ff
Ġf ell
Ġdo ctor
Ġgr amm
Ġconc ent
Ġar k
Ġequ al
Ġim pl
Ġb ishop
Ġjes us
o h
Ġin j
Ġbe aut
Ġro om
Ġprop osed
Ġdemon str
Ġk er
m as
Ġform at
Ġm and
Ġbat t
Ġcitiz ens
Ġmot ion
Ġg ives
Ġun kn
Ġplay s
Ġjohn son
Ġd an
k ins
m et
Ġprov ides
Ġun d
Ġreg ions
Ġp ick
Ġk ansas
Ġwe ight
Ġcolumb ia
Ġsa x
Ġarth ur
ism s
aw a
Ġf ix
Ġway s
Ġnecess ary
e y
Ġfav or
Ġel iz
Ġequ ival
Ġc el
w a
Ġcomp r
Ġtr ain
Ġcrit ics
Ġchar l
Ġact s
Ġcom ic
Ġh tm
Ġsup reme
se e
Ġmag n
Ġconserv ative
Ġd ang
Ġcarr ied
Ġcent uries
Ġpr ice
Ġcamp us
Ġinit ial
ig er
Ġey e
Ġneed ed
et ts
Ġencycl op
Ġd at
Ġrec on
Ġexist ence
Ġch air
Ġimmedi ately
Ġcommun ist
Ġresour ces
Ġf ile
Ġber n
Ġstart ing
Ġatt acks
Ġdestroy ed
Ġcond ition
Ġno v
Ġsil ver
Ġro ll
m ont
Ġsign al
ro l
Ġcro wn
Ġaf gh
Ġcl in
Ġform al
Ġp it
ine t
Ġse ems
Ġoppos ition
g u
Ġdr ive
Ġfl u
Ġsl ight
Ġbey ond
ches ter
Ġexch ange
Ġregard ed
Ġactiv ities
thod ox
Ġbar b
w rit
Ġd ail
and a
Ġtemper ature
Ġmar c
Ġph en
Ġsk y
Ġpot ential
a res
Ġsh are
Ġunkn own
Ġte ams
Ġill ust
Ġmay or
Ġs le
Ġj azz
Ġmass achus
Ġocc asion
Ġsp r
Ġcr im
Ġstreng th
Ġon tar
Ġethn ic
Ġow ned
Ġmassachus etts
Ġequ ip
Ġsold iers
ut ing
Ġdistrib ution
Ġinst ance
Ġconvent ion
Ġel se
st one
Ġbel ong
Ġgener ation
Ġextreme ly
Ġide as
Ġc oup
Ġontar io
Ġvict ory
Ġwilliam s
Ġen s
Ġs ister
Ġnav al
Ġmyth ology
Ġtr aff
Ġgrow ing
Ġdem and
Ġy ellow
Ġfest ival
Ġrespons ible
anc y
Ġhar ry
in y
Ġre ject
i h
Ġglob al
Ġcon ference
Ġintro duction
em ic
Ġr ub
Ġent ertain
Ġcont e
Ġmo s
Ġdail y
Ġsomewh at
ing er
Ġd or
Ġsk ill
Ġc ree
Ġexec utive
Ġa z
Ġproduc er
at o
as y
te en
Ġmod els
Ġh ong
Ġcon sequ
Ġfol k
Ġmo le
Ġpar al
b ra
en ing
av a
om p
Ġeliz abeth
Ġg iving
Ġcontin ue
Ġst ated
Ġinit ially
Ġin ternal
Ġor thodox
Ġr ough
Ġdr am
Ġd ra
Ġno thing
Ġsen ate
Ġf ame
Ġpolit ician
Ġco ok
act ion
Ġmention ed
Ġrec ording
Ġcl osed
Ġbr ain
Ġch art
Ġcontr ast
k h
Ġoffic er
Ġallow s
Ġed itor
Ġlab our
Ġto wer
Ġbro thers
Ġclass ic
Ġafgh an
Ġwin ning
Ġactiv ity
Ġlad y
Ġd un
Ġimpro ve
k et
enc ies
Ġrun s
Ġev olution
Ġenter ed
Ġu ne
Ġphil ip
Ġsit es
Ġopen ing
ver t
Ġoffic ially
Ġhistor ic
Ġequip ment
os is
Ġfield s
ion e
Ġgen e
Ġper cent
Ġj ur
ag an
p o
Ġtransl ation
Ġnot ably
Ġopp osed
Ġadv ant
Ġl ists
Ġph r
Ġpromin ent
Ġformer ly
Ġi owa
Ġdefe ated
a ult
Ġphys ics
il ly
wor th
Ġw id
Ġincorpor ated
Ġf t
Ġtheat re
Ġpol and
Ġf it
Ġre ign
Ġsp ok
Ġmin im
Ġrem aining
uck y
un t
Ġspl it
Ġsp ent
Ġtr a
Ġk a
ress ed
Ġcam bridge
Ġcorpor ation
Ġfranc isco
Ġt ub
Ġle aving
Ġcat al
Ġw ant
Ġal f
Ġconst it
h ouse
Ġcell s
Ġf uel
Ġint el
Ġcontem porary
i vers
Ġspe aking
Ġcr ime
Ġa im
Ġl as
Ġback ground
Ġpre fer
Ġhe at
Ġber lin
Ġri vers
Ġb ott
Ġhous es
Ġlaunch ed
Ġchar ge
Ġpie ce
Ġmov ing
Ġcommand er
Ġneigh bor
Ġposs ibly
Ġsp ort
Ġgr ant
g al
Ġinv asion
Ġv es
y an
Ġresid ents
Ġprotect ion
rop ol
Ġnewspap er
Ġac id
Ġeas ily
ul s
Ġadv anced
r am
Ġintellig ence
Ġsit uation
Ġper fect
Ġatt ention
Ġwork ers
Ġmathemat ics
Ġle w
Ġ ign
i ar
Ġfight ing
Ġj r
Ġp ages
Ġcl a
or ter
Ġcop yr
Ġatl antic
Ġoper a
Ġo sc
Ġser ve
Ġl ot
du ce
Ġad ult
Ġt s
Ġfr an
at ch
Ġv ac
t ical
Ġcham ber
Ġst ay
ic ed
Ġsu it
Ġv ice
Ġre tain
Ġwat ch
Ġdecl ared
Ġmedic ine
Ġlab el
Ġachie ve
Ġrem oved
ell ing
Ġf u
Ġdou b
Ġbo ston
il s
Ġspec if
or ph
Ġwr ite
Ġfo x
Ġinterp ret
Ġcorre ct
Ġb ed
Ġapp le
Ġnorth west
id ers
w ar
Ġcomb ined
Ġus s
Ġap art
Ġphil ipp
Ġhum ans
ert o
Ġfre der
Ġbeg ins
ic ial
Ġappl ications
Ġpresident ial
Ġnear by
Ġre asons
re es
Ġresult ing
j o
Ġt el
r ie
Ġagree ment
ap ed
b ed
Ġtechn iques
Ġpal est
Ġval ues
in n
Ġf ear
qu ar
Ġnor way
Ġarchitect ure
Ġn om
ut ation
Ġpl ot
Ġoffer ed
Ġext ended
Ġd v
u ff
ad or
Ġnob el
Ġcomed y
i el
Ġorgan izations
r ine
or ks
Ġmap s
Ġrail road
ne w
Ġhelp ed
Ġcomb at
Ġut c
Ġpl ants
Ġcons c
Ġir an
Ġus ers
Ġmag net
Ġar rest
Ġtechn ical
Ġp c
ad d
Ġwe e
om m
Ġb ac
Ġne ut
Ġle ave
Ġunivers al
Ġan ton
Ġma h
Ġsw itch
Ġmin utes
Ġg ained
Ġattempt s
f r
Ġex cl
Ġaff airs
Ġent ry
p ing
Ġann ual
Ġsh all
Ġfl at
id ae
Ġc ore
Ġinhab it
Ġnovel s
Ġmaterial s
Ġfoun der
u ters
Ġp ak
Ġs ays
Ġfig ures
Ġc ant
u le
Ġcaus es
og y
Ġexp ected
Ġsc en
Ġsn ow
Ġcomp osed
Ġsupp ly
Ġke pt
Ġeff orts
Ġtraff ic
ic it
Ġhill s
in ated
Ġpre p
Ġtr ust
Ġav oid
Ġse ts
Ġcopyr ight
Ġstr ing
Ġstand ards
ou d
Ġuse ful
Ġdefe at
b l
Ġfollow s
Ġb urn
Ġr on
Ġexper im
Ġstr ip
Ġsat ell
Ġd ak
Ġinf ant
Ġtyp ical
Ġastr onom
Ġstud io
Ġdam age
Ġgre w
Ġext ra
Ġen emy
Ġimp act
Ġsant a
res h
Ġ vel
Ġliter ary
Ġdial ect
olog ist
Ġaust ria
Ġbudd h
Ġn y
Ġm ort
Ġphot o
ar m
et y
re ed
Ġk u
Ġma x
Ġdet ect
Ġrequ est
Ġm ist
Ġd ry
Ġconne cted
Ġb ible
Ġsettle ment
Ġadv oc
Ġelectron ic
Ġt ai
Ġmeet ing
w ick
j a
Ġenc our
pp ed
Ġentire ly
Ġgo es
ound s
ut s
r im
Ġrec over
Ġcre w
Ġm ail
ph as
Ġmov ies
Ġappl ication
Ġal t
Ġpres ence
Ġco oper
Ġra ised
Ġp itch
Ġdev ice
Ġtr ied
Ġd oll
u ate
Ġris k
ipp ed
Ġask ed
Ġtwent y
Ġcho ice
Ġsever e
Ġorch est
Ġexp ans
Ġadm ir
in ity
Ġprin cess
Ġh em
Ġconne ction
Ġsk in
ent ially
ad el
Ġtownship s
ot y
and on
Ġbatt les
Ġpr int
Ġacc ur
an y
Ġinflu enced
Ġto ld
Ġtur k
Ġcap ac
Ġgo al
Ġop in
w ide
Ġ ip
Ġhol ly
x ual
Ġpro te
Ġfe at
Ġeffect ive
Ġcomp ared
Ġchamp ion
Ġaud io
Ġand rew
Ġwe alth
Ġdistrict s
Ġdep end
Ġrepresent ed
r ain
m o
Ġme ant
c an
Ġn as
h i
ab or
Ġfall s
Ġpa rents
Ġsyn th
Ġext ensive
Ġmar g
ed d
er al
er n
ic i
Ġc ards
Ġc ow
Ġw anted
Ġproper ties
Ġcirc um
oc ks
Ġh our
Ġoper ated
Ġband s
Ġview s
Ġinde ed
Ġphen omen
ith m
Ġgl ass
Ġshort ly
Ġcontrovers y
em ents
Ġcomp il
Ġfr ame
Ġneg ative
est ic
Ġk ir
Ġg ay
in ian
Ġindian a
ani el
og ue
Ġpl ans
y er
Ġmark ed
itz er
Ġm ere
Ġdescrib e
Ġs om
Ġlim it
Ġsid es
Ġed ge
Ġfrequ ency
Ġcontro lled
Ġorder ed
Ġsu d
Ġcrim inal
Ġful ly
Ġone s
Ġt on
Ġb es
Ġtit les
Ġex hib
Ġmy ster
ach ed
Ġre duced
Ġmusic ian
et te
Ġsubsequ ently
Ġsett led
Ġst or
Ġt ay
Ġcar bon
Ġal gor
Ġcom ing
iz es
Ġmusic ians
pt on
r ick
Ġab andon
Ġpro ved
Ġgard en
a ven
b ec
wh ere
Ġident ity
Ġr um
Ġkore a
ot ic
Ġr us
j oy
Ġepis odes
Ġa id
Ġsuggest ed
Ġsc ript
Ġl yr
Ġother wise
ict ions
Ġpict ures
m ans
Ġquar ter
Ġcapt ured
Ġp ure
Ġsurround ing
if orm
Ġth ing
oc ol
Ġequival ent
bur gh
so ft
Ġt ail
Ġunivers ities
Ġqu al
Ġparal le
se ll
Ġref used
Ġv ary
z y
Ġo ak
Ġexist ing
l ah
Ġdiffer ence
rop ri
Ġattempt ed
Ġste el
Ġconte xt
Ġfor d
Ġor ange
Ġhe b
Ġsus p
Ġst ore
Ġinst all
th eless
l ers
Ġsol id
in ces
Ġem phas
Ġinsp ired
Ġrecogn ized
Ġar c
Ġpopular ity
Ġconf eder
w ork
Ġse g
Ġleaders hip
Ġh air
Ġmiss iss
in ate
Ġat m
k o
Ġpl ane
ac ing
Ġthem e
st ate
re l
il ton
Ġpe ak
Ġcr is
Ġinhabit ants
Ġsh er
Ġsee k
Ġarm ed
Ġdetail s
Ġmet ropol
Ġbehav ior
Ġvict im
Ġcont est
Ġst ad
Ġpal ace
Ġsele cted
el and
ed ral
Ġcontrovers ial
Ġa h
b i
Ġcon vers
ic ians
Ġgree ce
Ġle on
Ġallow ing
Ġwee ks
ven ue
Ġd ream
Ġtr y
Ġmem orial
Ġdesc ription
Ġpie ces
Ġtransport ation
Ġz one
Ġstud ied
Ġsucceed ed
Ġfact or
Ġsteph en
Ġg n
Ġcompet ition
Ġprop os
Ġus age
Ġpol l
Ġcree k
Ġact ions
Ġp ed
Ġoccur red
Ġf ellow
f are
Ġpat ri
ipp i
Ġdis or
Ġchurch es
Ġl ies
ly ing
Ġarr ived
Ġcont aining
Ġfor ward
Ġass ass
Ġhosp ital
Ġeff ort
Ġslight ly
ri x
at i
Ġsupp l
Ġsub ur
j i
Ġk id
Ġdak ota
Ġmunicipal ities
Ġsh op
Ġsim pl
Ġc m
Ġz h
Ġlin col
Ġph ase
Ġc od
Ġtr ail
Ġcl ar
Ġse ll
Ġsol ar
Ġpresent ed
Ġw olf
Ġaward ed
Ġvictor ia
ul ate
st ream
Ġlincol n
p a
am in
Ġdat ab
Ġin her
Ġd iction
Ġjud ge
Ġreact ion
am ing
Ġsen ator
Ġok lah
Ġwor th
e z
Ġcritic ism
v i
Ġaff ect
ang ed
Ġdip l
Ġjo e
os en
Ġen joy
Ġpoet ry
Ġresist ance
im b
Ġoklah oma
ell a
ip e
Ġall iance
Ġprov inces
Ġp p
Ġbr u
Ġdec ades
Ġch a
Ġoffic ers
Ġold est
Ġc u
Ġstra ight
Ġsequ ence
Ġtru th
Ġfail ure
Ġcom ics
Ġland s
Ġh ence
Ġdou gl
Ġviet nam
Ġpos itive
Ġn ic
Ġprincip le
Ġmed al
Ġcar s
Ġst rug
m un
Ġgod s
Ġcor ps
Ġprincip al
Ġtou ch
Ġorgan ized
Ġheb rew
Ġwhe el
Ġm es
Ġm ol
Ġbe ar
Ġl ingu
Ġj on
Ġsou l
Ġport ion
Ġcre ating
Ġsupp osed
Ġexpans ion
Ġco ol
Ġge ograph
Ġsol o
Ġoccur s
Ġf ine
Ġjo int
Ġsubsequ ent
al ing
Ġla ure
Ġthe ories
Ġse vent
en ger
Ġplat form
Ġc av
Ġspecif ically
w ater
Ġele v
Ġcommun ications
Ġyou th
Ġm s
iet ies
Ġs ales
Ġsh ape
Ġmississ ippi
Ġf ro
ut en
ant e
Ġco ach
Ġcan al
Ġev il
Ġcontin ues
Ġfif th
Ġp ush
or a
Ġdel iver
r id
Ġheav ily
Ġ ul
Ġpro s
Ġb apt
Ġsch ed
Ġten nes
us al
Ġcl imate
Ġpar ish
Ġstrug g
Ġag reed
Ġs ort
Ġhar v
or al
Ġre ality
Ġman ager
Ġsi e
ins on
ab et
Ġlic ense
Ġsouth east
Ġhop e
Ġark ansas
Ġmom ent
Ġgr anted
Ġcath edral
Ġque bec
Ġc ra
Ġiss ued
Ġto ward
Ġg ain
it led
Ġtechn ique
Ġstruct ures
Ġdiscuss ion
Ġmicro soft
e x
Ġn ich
Ġden mark
Ġm orn
Ġwith d
enn is
Ġyoun ger
Ġtennes see
Ġschol ar
il a
Ġclass es
Ġd ub
Ġexper iment
Ġey es
ess ion
Ġorder s
Ġf ash
Ġch osen
Ġp ione
Ġch ain
Ġresult ed
Ġfix ed
Ġimport ance
Ġcomp uters
Ġrand om
Ġgr av
pr ise
ol k
Ġst y
is er
Ġisrael i
Ġshow ing
Ġwe ather
Ġalle ged
Ġarg ent
Ġlew is
Ġex erc
Ġre ally
Ġtre es
Ġs s
Ġown ers
Ġnorm ally
Ġthous ands
Ġbir d
Ġinstr uments
Ġgen us
Ġal ge
Ġcateg ory
ad ing
Ġe at
Ġcer em
Ġatm osph
Ġencyclop edia
Ġmed ie
Ġsuffer ed
Ġex ists
Ġm it
Ġpos itions
Ġcy cle
Ġmathemat ical
Ġfin land
Ġf ought
Ġadminist rative
Ġthr one
Ġult im
il i
Ġeas y
Ġwil son
Ġh ay
u an
Ġkent ucky
Ġmedie val
Ġpres id
Ġk o
Ġim ag
Ġat om
Ġs und
Ġout put
Ġch eck
Ġbill ion
cept ion
Ġsouth west
Ġfeat uring
un der
k es
Ġcondu ct
Ġmess age
Ġenvironment al
Ġsc iences
Ġsupport ing
Ġhu ge
Ġnar row
Ġp d
Ġportug ues
Ġneg ot
Ġb ag
Ġadvant age
Ġro d
Ġfranc is
Ġstr ateg
bo ok
Ġas c
Ġsac r
Ġco ord
Ġclose ly
Ġmag ic
Ġplan ned
Ġconstruct ed
if ul
Ġb om
Ġset ting
Ġtar get
w art
Ġfr ied
Ġt all
Ġexpl os
Ġcolor ado
Ġrevolution ary
Ġspok en
Ġkill ing
Ġbr ig
Ġholly wood
Ġal ab
Ġsc r
Ġdougl as
Ġdeb ate
Ġlook ing
Ġlist ed
Ġweap on
Ġal co
it ors
Ġaccom pan
Ġspirit ual
Ġo m
Ġro w
Ġcal end
Ġpian o
or ters
Ġm erg
Ġtw el
Ġjo b
Ġportugues e
Ġd in
Ġcirc le
Ġlear ning
Ġb ot
ag a
Ġsol ution
Ġl yn
Ġrul ed
Ġle aves
Ġproject s
Ġd aniel
id ay
Ġbr ight
Ġrep orts
Ġpar ad
Ġrequ ires
Ġrece ive
Ġconc ert
Ġv ent
Ġd c
Ġre in
id den
Ġhead quar
Ġstat ement
Ġman ner
Ġun p
Ġform ation
Ġdep ending
Ġvoc als
ac ent
Ġse ats
Ġapparent ly
Ġislam ic
Ġbl ues
Ġlyr ics
ir ing
Ġpers ons
Ġdiffer ences
Ġdev ices
Ġchristian ity
Ġact ing
Ġauthor ities
Ġend s
Ġfant asy
Ġs ons
ont o
Ġref lect
Ġcomb ination
Ġaust in
Ġdis ney
Ġsubst ant
Ġterm inal
h ire
Ġtransl ated
Ġbo ys
Ġinde x
Ġconf ir
Ġaud ience
Ġtai wan
Ġfel t
Ġearl iest
Ġw ish
or ing
Ġpro ph
Ġpro ceed
Ġfly ing
ay er
Ġdom estic
ak a
Ġp in
Ġhy per
Ġher it
Ġfash ion
Ġmaxim um
Ġsaf ety
Ġopp ortun
Ġh oc
Ġlog ic
Ġsc and
Ġk ur
Ġarg ued
Ġsub s
Ġmanufact ur
Ġd iver
Ġtr ou
m outh
Ġreg ister
re al
Ġad apt
Ġsay ing
Ġbir ds
Ġschol ars
Ġun us
Ġhow ard
Ġm ine
Ġbas ket
Ġstat istics
Ġb ull
Ġtr acks
Ġfreder ick
Ġacc ident
Ġvis ual
Ġtradition ally
Ġ ille
ord s
Ġbott om
Ġded icated
Ġtay lor
Ġdisc ip
Ġa w
Ġident ified
ro ll
Ġsh el
Ġalab ama
Ġmix ed
Ġfav our
Ġchr onic
Ġstar ring
Ġmary land
Ġperman ent
iv ia
Ġhtm l
Ġsecond ary
Ġconsider able
i at
Ġpl ate
Ġr ig
Ġwe ak
Ġsatell ite
ful ly
Ġcr ash
ed ing
Ġtele ph
Ġincreasing ly
Ġnick n
Ġestim ated
h an
Ġprincip les
in der
Ġsp ot
Ġdipl om
Ġacad emic
am ental
Ġor bit
Ġmar ine
Ġcandid ate
h r
Ġpro ced
Ġeng ines
ar ia
Ġcolon ial
Ġg ather
Ġsing les
Ġdo ing
Ġrepe ated
Ġserv ing
Ġdyn am
Ġdeterm ined
Ġs ab
un k
Ġpurp oses
Ġch ess
Ġpa id
Ġneed s
olog ists
Ġany thing
Ġg il
Ġdiscover y
Ġli qu
ic ide
Ġoccasion ally
el ine
at ically
ing ly
Ġbr on
Ġste ve
Ġjo in
o ir
Ġagricult ure
Ġdown town
og en
k in
Ġgod d
Ġanc est
Ġfin n
Ġchrist mas
Ġatt end
dr ome
Ġcry st
Ġad vert
Ġcirc uit
Ġnorth east
Ġmove ments
Ġhar m
Ġhold s
Ġrev ol
z o
i ac
Ġhe ight
Ġafghan istan
Ġk g
adel ph
Ġh art
Ġcris is
Ġnaz i
Ġves sel
Ġl is
u ge
ic ate
Ġcont ained
Ġth or
Ġfund amental
Ġdr ink
Ġmetropol itan
Ġexp os
Ġr ival
Ġs ed
Ġtop ics
Ġfrank lin
Ġoccup ied
oc a
Ġg ulf
ou red
ig en
Ġcl ock
Ġob l
Ġarg ument
Ġapp ropri
Ġsim on
es c
Ġbr ad
Ġrad ical
Ġexcl us
s en
app ed
Ġparalle l
Ġsaf e
Ġmorn ing
Ġham let
Ġdeg rees
Ġel im
Ġman aged
Ġpen ins
Ġcan cer
Ġham ilton
Ġdatab ase
are t
Ġloc k
ens ions
Ġherit age
ir a
o ven
Ġro c
Ġo reg
Ġmor al
Ġinstit utions
Ġcard inal
Ġmex ican
Ġf red
Ġt act
Ġhe aven
Ġmach ines
Ġp ear
f ort
Ġent itled
o is
Ġstr ike
Ġpak istan
Ġatt ended
Ġeconom ics
u ct
h amm
Ġst orm
Ġa ero
Ġcab inet
Ġsum m
is f
Ġg ib
Ġtw ice
Ġline ar
Ġrec ip
Ġscient ists
Ġsc ul
Ġwat ers
Ġphil adelph
Ġren amed
Ġstand ing
ze ch
Ġg ang
Ġa le
Ġlouis iana
Ġabs ol
Ġorig ins
Ġport ray
v ant
Ġwh it
Ġgun s
Ġoreg on
Ġadj acent
b ro
Ġmod e
Ġp air
Ġg ate
Ġar ist
Ġt ank
Ġsal t
Ġstad ium
ian ts
Ġmar s
Ġun cle
Ġoppos ite
Ġdra wn
Ġunderstand ing
Ġk el
Ġcapac ity
Ġexp ed
Ġstr ict
ig ration
Ġsyn drome
t es
Ġp ig
Ġd ol
os l
Ġib m
d o
Ġsqu ad
Ġachie ved
Ġreve aled
Ġlaw rence
Ġpu erto
Ġb os
Ġrough ly
d own
Ġolymp ic
Ġdv d
Ġh at
Ġl un
Ġpublish ing
olog ies
Ġsh ad
Ġcomm ons
Ġshow ed
Ġinvol ve
Ġphr ase
Ġstr ik
Ġcour ts
Ġquest ions
Ġsp in
Ġesc ape
Ġgovernment s
h ar
Ġs over
Ġsc ore
Ġbur ied
ot o
Ġfor um
Ġintel lect
Ġc zech
Ġform ula
Ġag es
Ġrep utation
in us
an es
Ġprov iding
Ġdel ta
Ġentertain ment
Ġtor onto
if ying
Ġosc ar
Ġdav is
Ġcommun ication
r as
Ġfil es
Ġsh ell
e ign
Ġb ang
Ġser b
Ġhind u
Ġbro ke
Ġbod ies
Ġsover eign
Ġun able
Ġchap ter
Ġhe ard
Ġmass ive
Ġsem i
Ġaspect s
ac ement
Ġw y
Ġne u
us ter
Ġsam uel
Ġalge bra
Ġsh ut
Ġv ow
Ġne ither
Ġbu ff
im a
Ġpar ks
Ġwal ter
Ġf ab
un s
Ġgre y
Ġdiction ary
Ġt ask
ce ived
Ġcol ony
Ġworld wide
it o
Ġcy cl
Ġcalend ar
Ġengine er
Ġevery thing
Ġagricult ural
Ġn g
Ġviol ence
Ġv ic
Ġcap e
Ġd rop
Ġinter act
Ġpro of
ch ar
ke e
Ġinter state
Ġphiladelph ia
Ġwrit ings
Ġmed ium
Ġexpress ion
Ġr abb
Ġvehic les
i ations
om y
Ġgreat ly
Ġvehic le
Ġwin ner
Ġv ast
Ġd ick
Ġt am
Ġgood s
Ġro ot
Ġt ony
Ġultim ately
Ġm ental
Ġres ident
Ġman if
r ad
Ġsle ep
Ġsub mar
Ġrem ember
Ġbo at
Ġrac ing
Ġproduc ing
Ġso le
Ġquant um
Ġs or
Ġcontrib utions
av ia
ik a
Ġk al
Ġinst ruct
Ġpr uss
Ġfact ors
Ġkore an
m od
Ġw ire
Ġjur is
Ġobtain ed
Ġroad s
Ġkn ight
Ġag ent
Ġath let
Ġam end
Ġfir m
Ġdes ert
Ġdescrib es
Ġhaw ai
Ġfal se
Ġpl ain
Ġhyp oth
Ġwor ship
Ġexpand ed
Ġal ign
Ġsocial ist
Ġen for
e es
Ġl am
Ġstr ate
Ġrem ov
Ġdis m
Ġfl ood
Ġconstitution al
v ious
b ir
Ġfac ilities
he im
Ġad am
Ġrest aur
t ime
Ġag ency
Ġbel g
Ġste ven
Ġdest ruction
Ġend ing
Ġmar ia
um ber
ro ph
c ome
ap es
Ġterrit ories
Ġpier re
Ġalex and
Ġve get
i y
Ġgodd ess
Ġp se
Ġtr ying
Ġbro ken
Ġsen ior
enn a
Ġret ired
Ġh amm
Ġr ural
Ġpre ced
Ġsuper ior
Ġmathem atic
Ġa qu
Ġinc ident
Ġrec omm
Ġgu est
Ġpublic ation
Ġpur s
Ġd al
Ġnap ole
Ġge omet
Ġext ent
Ġm ong
Ġarch ae
b ell
Ġmi ke
Ġcre ative
Ġprem ier
Ġb art
Ġscul pt
Ġrepresent atives
Ġlibr aries
Ġcall s
Ġstrate gy
Ġad ams
Ġwr ong
Ġcorn er
Ġs ought
Ġk l
Ġdr agon
Ġide al
Ġpron ounced
usal em
Ġse lling
Ġadmir al
Ġconsc ious
Ġinst itution
Ġcle an
Ġv otes
Ġaust rian
Ġarab ic
Ġtheore m
u its
Ġpl us
Ġacqu ired
Ġcos m
Ġcan c
Ġexcept ion
Ġdoct rine
bo x
Ġmer ch
Ġh its
Ġad ap
Ġteach ing
Ġro ger
ak ers
Ġserv es
Ġcl ark
Ġover all
Ġdesc end
Ġpain ter
Ġc able
us es
el a
Ġl akes
Ġrespect ively
Ġob vious
t ion
Ġjer usalem
Ġb uck
Ġregard ing
Ġch anc
Ġp ir
Ġanal y
Ġpse ud
Ġtre k
Ġbasket ball
Ġf resh
Ġb ah
Ġauth ors
Ġrepresent ation
Ġsug ar
r ight
Ġpolic ies
Ġprocess es
ne ll
Ġre duce
Ġso ft
Ġsuff icient
Ġwit ness
d ale
Ġth in
ly n
Ġnor we
el le
Ġsh ared
Ġres olution
Ġpract ical
Ġelectr ical
Ġc p
m at
Ġcap able
d y
Ġdoc uments
Ġal an
Ġfr uit
Ġloc ations
Ġcharacter istics
Ġclear ly
l ical
Ġd ates
Ġin ner
Ġk at
um es
Ġchair man
in ite
Ġt ren
Ġl ith
Ġg ent
Ġma ine
Ġvoc al
Ġpenins ula
Ġd anish
ac le
Ġsym ph
Ġhold ing
Ġbab y
r um
ag u
Ġheadquar ters
Ġfin ished
Ġw rest
Ġdesign s
Ġans wer
Ġall en
Ġexpress ed
Ġal aska
Ġrare ly
b u
Ġbeaut iful
Ġtwel ve
Ġhoc key
Ġc c
Ġpers ian
Ġofficial s
Ġp ic
Ġon to
Ġne br
Ġange l
Ġdef ence
ot ion
Ġsc ar
Ġimp oss
Ġtex ts
Ġestablish ment
Ġref le
Ġelement ary
Ġarr ange
o en
ain ts
ol is
Ġdr ama
Ġh ub
Ġken ned
z en
ak i
Ġunder ground
Ġpeop les
Ġcaus ing
Ġcommon we
Ġp aint
p ir
Ġj ump
Ġpro hib
g on
m es
Ġstrong ly
Ġjac ob
Ġanim ated
Ġpro port
Ġtrans c
Ġresp ond
Ġcommonwe alth
ay a
Ġabsol ute
un c
Ġg or
Ġmo ore
Ġport ra
Ġmagnet ic
Ġportug al
Ġque ens
Ġh amp
te enth
Ġmob ile
Ġb ach
Ġcomm er
f all
Ġcart oon
Ġcompos ition
Ġchrist ians
Ġprocess ing
Ġres c
Ġm ile
Ġh orn
es y
Ġk y
Ġtre as
Ġhu gh
Ġalf red
Ġal i
Ġall ied
Ġfeder ation
Ġro ots
Ġban ks
Ġis ol
Ġpil ot
Ġsy d
Ġsupp orters
Ġprotest ant
Ġorchest ra
Ġd anc
Ġgu y
Ġca es
Ġpr a
Ġtrib es
ren cy
ct s
ent ed
Ġsh ore
Ġcolle ges
Ġgir ls
Ġw ides
Ġmar x
Ġph on
Ġab ol
aim ed
Ġlog o
il ed
Ġj ord
e f
Ġs ig
der ed
Ġab d
v is
re h
Ġhot el
Ġun s
Ġt ang
Ġb ath
Ġgre g
Ġst amp
Ġcon n
Ġalph abet
Ġm outh
ig ation
Ġr y
g reg
Ġstand s
Ġh ob
Ġchar ter
Ġmaintain ed
ero s
Ġreb ell
Ġin put
Ġd ies
Ġobs erved
Ġro y
Ġnorwe gian
Ġe ag
Ġbar on
Ġrep ro
Ġv ision
iss ance
Ġt aught
Ġr ud
Ġdeter min
Ġwhere as
ens es
ak h
Ġhigh light
Ġse lect
Ġopin ion
Ġv a
c on
ia h
Ġle ct
Ġlegisl ative
r ate
Ġcontin ental
le ts
Ġdevelop ing
Ġinflu ential
Ġb low
ar n
Ġl en
Ġgen etic
Ġattack ed
Ġvis ible
Ġdrug s
Ġbr ian
Ġprof it
Ġcommer ce
Ġem pt
Ġw ound
u ous
Ġsimilar ly
Ġcoal ition
Ġsu icide
Ġexp ect
Ġpre par
Ġg ord
Ġb in
es ter
Ġexpl an
Ġd iet
on ian
Ġphilosoph er
Ġkar l
Ġdec re
Ġdro pped
Ġr ush
Ġbro ok
Ġfl av
Ġdid n
Ġmin istry
Ġthous and
Ġco at
Ġrad iation
app ing
Ġd iam
Ġsw itzer
na issance
Ġarg ue
i ot
Ġcl o
Ġgr an
Ġt ab
Ġpo ems
Ġinf l
Ġmult i
Ġkenned y
Ġnew ly
Ġhistor ian
Ġdeterm ine
Ġdemocr acy
el er
Ġt rop
Ġabs or
Ġv ul
Ġreg ul
Ġchanc ell
Ġar n
Ġro ss
Ġhung ary
os a
Ġfr ag
Ġcondu cted
Ġlie uten
Ġr id
Ġocc as
Ġabandon ed
Ġan at
Ġste am
Ġm p
Ġhard ware
Ġser ver
Ġinfant ry
at us
Ġm ent
Ġdetail ed
t i
Ġsi z
Ġexc ell
Ġafter wards
Ġess entially
Ġar iz
Ġtur key
Ġswitzer land
Ġhistor ians
Ġbelg ium
Ġis a
Ġs ave
Ġbow l
ish ing
Ġro les
Ġs ke
Ġv s
Ġup d
Ġgall ery
i ology
ph al
p age
Ġr it
in th
Ġinterpret ation
r an
Ġd na
Ġpo em
Ġinterest s
Ġv it
Ġtrad itions
ol as
Ġpart ners
Ġsal v
Ġp ent
Ġclin ton
Ġo t
Ġnomin ated
Ġjeff erson
Ġown er
Ġhon our
Ġmeas ures
Ġg iant
Ġimpro ved
Ġlead s
Ġshar p
Ġh ans
Ġcomp onents
Ġest ate
Ġpat ients
Ġemploy ed
Ġla id
Ġhun ting
Ġtour ism
Ġth ro
Ġinvent ed
Ġdiv ine
Ġphilipp ines
Ġimposs ible
z er
Ġcan on
Ġintellect ual
Ġl em
Ġre ar
Ġdis app
Ġsign s
Ġto ols
Ġland ing
Ġnetw orks
Ġpro cl
duc ing
Ġaut onom
p read
Ġcop y
en h
Ġw ap
Ġinterp re
Ġdistingu ished
r ant
Ġm amm
al o
Ġqu ad
Ġinf ect
Ġchrist oph
Ġexper i
il ing
Ġass igned
Ġgo th
Ġtem pl
Ġp el
Ġrem ark
Ġlink ed
Ġcarr ier
Ġl t
c ap
Ġtw in
Ġch ance
Ġwides pread
Ġd ir
ick et
Ġnever theless
Ġple as
Ġgen re
Ġlo yal
c les
Ġprot ocol
Ġassum ed
z h
Ġphot os
Ġdo or
Ġrapid ly
Ġprotect ed
Ġm t
ak ed
se x
Ġr ates
Ġplan ning
Ġsubject s
Ġer ic
Ġmain stream
Ġsold ier
Ġli ver
um in
iz on
Ġpart ly
Ġs ad
re te
Ġcl ay
Ġref uge
Ġdu ch
Ġcapt ure
Ġ ion
Ġprof ile
Ġinter ior
Ġsur vey
Ġed ited
Ġdang erous
Ġmole c
Ġpun k
Ġconsist ing
ac c
Ġariz ona
Ġc ine
om ing
ur ally
Ġst ream
Ġsw iss
Ġ um
ach e
Ġins ur
Ġt at
Ġsyd ney
s a
Ġit ems
Ġsym pt
Ġv oy
Ġvis ited
Ġpain ting
Ġver b
Ġalph a
Ġk im
Ġart ific
Ġlay er
Ġp ip
Ġer ror
Ġnebr aska
Ġs oph
n i
Ġstree ts
Ġhead ed
Ġconc lud
Ġjord an
Ġmere ly
Ġj d
ast s
Ġteach er
Ġunus ual
Ġimm igr
Ġsepar ated
Ġgraph ics
Ġsit uated
il it
Ġind o
Ġres erve
Ġdecl ar
Ġflo or
Ġh ip
in ations
w ers
Ġeffect ively
Ġchr is
Ġswe et
w ich
Ġoccup ation
Ġinterest ing
c r
Ġpr iest
Ġexpl or
Ġjuris d
Ġsur f
Ġalco hol
Ġsuccess or
g ate
Ġpass ing
Ġbor ders
Ġh az
Ġve ctor
Ġsh ock
Ġcost s
ag en
Ġcred it
e ing
Ġany one
Ġlieuten ant
Ġfight er
in er
Ġbru ce
Ġval id
Ġdistrib uted
Ġrecogn ition
Ġcol our
Ġthe ater
Ġw ins
ne st
Ġn it
Ġwall s
Ġfl ash
Ġegypt ian
Ġexact ly
Ġjan e
Ġjud a
en burg
ane ous
Ġarch b
ic ut
Ġess ential
Ġsound s
Ġc ad
Ġext in
Ġw ard
Ġl ud
Ġse ctions
Ġcry pt
ap y
b b
Ġd ict
Ġbr an
Ġmin isters
Ġchang ing
Ġaccount s
Ġall ies
er ic
Ġchem istry
Ġindic ate
Ġte en
ist ed
ant ine
Ġrus sell
Ġcover s
pect ive
Ġgal ax
Ġadv ance
Ġun iform
Ġby z
Ġso il
Ġoff ers
Ġlu ther
ge l
Ġmar ie
Ġmill er
Ġcor rupt
Ġfor b
Ġma ur
Ġliter ally
Ġs v
Ġinvol ving
Ġmo ves
Ġex cess
Ġindust ries
Ġcat ch
Ġa ware
Ġcr us
Ġinn ov
ant ly
Ġalgor ithm
Ġdiam ond
Ġthe od
Ġperform ing
Ġw ine
Ġatt ached
Ġpract ices
Ġdec line
Ġtar ge
Ġview ed
Ġg ab
Ġwel sh
Ġhundred s
Ġneut ral
Ġhit ler
Ġbelief s
Ġb our
j an
Ġmat rix
Ġprop ag
Ġfill ed
ici ency
Ġres erv
Ġsuccessful ly
Ġturk ish
Ġt as
Ġdis pl
Ġcircum st
Ġd od
Ġmiss ile
Ġmechan ical
Ġdistin ction
Ġeduc ational
Ġtun nel
Ġag o
Ġrepres ents
Ġj et
ame ter
Ġdr ag
ro se
Ġliqu id
Ġan arch
ant a
Ġsw im
Ġrese mb
Ġexec uted
b f
re c
Ġj am
ath an
Ġinvol ves
Ġb g
Ġexp ensive
Ġpun ish
Ġspr ings
Ġexped ition
Ġcol umn
Ġconver ted
Ġext ension
Ġconcept s
Ġnor man
Ġacc used
ch en
Ġgr ass
Ġfinn ish
ph y
Ġrock et
Ġdeb ut
Ġgrad ually
f e
n ie
Ġlear n
Ġmerg ed
Ġrel ation
Ġtell s
Ġwind s
Ġget ting
Ġfac ult
Ġju an
Ġab be
Ġmanufact uring
Ġst re
Ġc ass
Ġlin ux
Ġap ol
Ġcoup le
Ġhe ar
or ous
h em
ipp ing
Ġab bre
Ġconc l
Ġsk i
Ġcommit ted
Ġbl ind
ost er
Ġhar bor
Ġt ag
Ġtour nam
Ġclub s
Ġman s
Ġminor ity
Ġvirt ual
Ġsignificant ly
enn y
writ er
Ġteleph one
Ġk it
Ġhistor ically
Ġhor izon
Ġc ert
Ġth row
Ġdiv isions
Ġneighbor hood
r ane
Ġse asons
Ġr if
Ġab str
Ġent r
Ġc eme
Ġd j
i able
Ġang lo
Ġprogress ive
com mun
Ġgraph ic
Ġdep ut
Ġf asc
Ġhou ston
Ġdec ade
Ġgr ay
Ġtit led
Ġsh a
Ġhamp shire
ov ak
Ġcho ose
Ġanth ony
Ġlim its
Ġne l
Ġn ut
Ġjour ney
Ġtest ing
Ġpro l
Ġreject ed
Ġcontrib uted
Ġvari ations
Ġve ter
i op
Ġf ert
Ġconnect icut
ne tt
ear s
Ġpolit icians
Ġwar ri
Ġdiv or
Ġgro wn
Ġstor age
Ġsty les
Ġtre ated
Ġhung arian
Ġdr iver
Ġd re
un a
re ster
Ġass ault
aw are
Ġmin ute
Ġmembers hip
Ġch er
Ġel der
Ġaccom pl
ubl in
Ġchall eng
Ġarrest ed
Ġt one
Ġr ug
Ġphilosoph ical
Ġadap ted
Ġle v
Ġclass ification
Ġperson ality
Ġtrans mission
Ġdon ald
Ġr ice
Ġcult ures
Ġliber ty
Ġspeak ers
Ġlu x
au x
Ġbound ary
op es
ok ed
Ġjuda ism
Ġder iv
Ġscen es
ch i
Ġher self
h o
en ge
Ġto ol
Ġphys ic
Ġlear ned
Ġb un
Ġemerg ency
ific ations
st ood
Ġequ ation
g as
Ġa venue
Ġme ters
Ġg one
Ġinter face
Ġrecord ings
Ġtr ig
Ġchancell or
Ġal ien
d ie
Ġsched ul
Ġph oen
Ġbu y
Ġmar io
Ġkn ock
Ġen h
on so
Ġp y
Ġwap cap
Ġwapcap let
Ġl anc
Ġmet ro
f o
op le
Ġdep os
Ġsat isf
le m
Ġexist ed
Ġtr iang
Ġcolon ies
bour ne
Ġcontinu ous
h el
Ġdef end
Ġcop ies
Ġcam era
Ġut ah
Ġh ang
ro om
Ġt ong
Ġg osp
h l
Ġopt im
Ġmarsh all
oy d
Ġtr ains
Ġdr iven
Ġappropri ate
f c
Ġcoast al
Ġox y
Ġg if
Ġb ou
Ġthir ty
Ġord inary
Ġs ic
Ġrepl ace
Ġr ational
Ġst ores
Ġrec re
Ġsele ction
Ġy e
Ġrh yth
t z
Ġbar r
Ġsat ur
Ġrat io
Ġcomm od
Ġpr inted
Ġoper ate
h ere
em ies
ose xual
Ġfe ed
Ġchar ged
Ġun less
Ġb ought
Ġs ust
Ġd y
Ġsl av
Ġrul er
Ġgh ost
Ġinf r
d in
Ġatmosph ere
Ġhab it
Ġis o
end o
ov a
Ġappo int
Ġsh aped
Ġamong st
Ġnew ton
Ġexpl icit
ad er
Ġbrief ly
Ġprec ise
Ġtransfer red
Ġfound ing
Ġprov inc
Ġolymp ics
Ġsund ay
Ġl ion
col or
Ġang le
Ġst ret
Ġport s
Ġmat the
Ġsp aces
Ġsuccess ion
Ġth ick
Ġbib li
Ġc ul
Ġt ort
Ġform ally
Ġbud get
Ġdia gn
Ġp as
Ġmain land
Ġsw ord
Ġfact ory
Ġretur ning
Ġrecon st
Ġpublic ations
ct ic
Ġne ck
re ll
Ġc ot
Ġsuggest s
Ġprob ability
ro g
Ġbr id
for rester
Ġcorpor ate
Ġhead s
Ġdomin ant
e as
Ġelect ro
Ġgo als
Ġjd forrester
om er
Ġdomin ated
u ations
Ġcolle cted
Ġsh ir
Ġchar ges
Ġrout es
Ġsurv ived
Ġharv ard
h us
Ġand erson
Ġtrans ition
Ġst ress
Ġto l
Ġkh an
Ġadd ing
Ġcro at
Ġvol t
Ġcompos ers
Ġbehav i
ist a
Ġobs er
Ġacc eler
Ġ ere
iv als
Ġand re
Ġx x
Ġpr ices
we ight
Ġd ual
Ġh ud
Ġab b
Ġman chester
amb ig
Ġstat ist
om ial
Ġno ble
Ġground s
Ġsus pect
Ġconvent ional
Ġmark ets
Ġaff ected
Ġo uter
Ġind ones
Ġr ising
Ġcall ing
Ġin g
Ġforest s
Ġpat rick
Ġkn ights
Ġbi ological
or us
Ġg y
d p
Ġb illy
Ġcur rency
Ġsud den
or gan
Ġe cc
Ġpurch ased
Ġbern ard
Ġ ig
Ġch ile
a ud
Ġb h
Ġhom osexual
Ġd ublin
op ol
w ig
Ġdis k
Ġperson nel
Ġman usc
Ġjohn ny
Ġperiod s
Ġtest ament
Ġpsych ology
Ġapp ly
Ġj os
Ġreg ime
Ġcomp onent
Ġtour ist
le te
al y
c ing
Ġw ings
Ġn i
id el
Ġpass es
Ġgen der
Ġger mans
Ġtub e
Ġdisp ute
Ġlegisl ation
Ġor b
Ġdes ire
Ġchristoph er
Ġal tered
Ġenter prise
Ġtrib e
Ġnapole on
Ġhe ir
Ġcaes ar
Ġcar ib
h y
Ġviol ent
Ġexpl o
ra ine
Ġwon der
Ġvari able
cul es
Ġy ield
Ġille gal
Ġartific ial
Ġse ctor
Ġexperi enced
Ġer r
Ġprep ared
Ġdocument ary
om orph
Ġvi enna
Ġtrad ing
Ġpartic les
Ġident ical
Ġfrequ ent
Ġn an
Ġn fl
Ġhom es
Ġret ire
Ġpass age
Ġmarg aret
Ġparliament ary
Ġwar fare
Ġsch eme
Ġsymb ols
st ic
Ġalle g
Ġsur ren
Ġb erg
Ġwin ners
l ife
an th
Ġa y
Ġm all
Ġd all
Ġbac ter
Ġgr ave
Ġfem in
Ġdi vers
out s
Ġmat ters
Ġbeg un
Ġpass enger
Ġp ink
Ġsh akes
Ġorient ed
Ġg au
Ġsett lers
Ġsympt oms
Ġchr om
Ġ ie
Ġang l
j e
Ġstan ley
Ġap ost
or i
Ġco in
Ġfl ed
Ġdrum s
Ġamend ment
Ġform ing
Ġcomp uting
Ġno ise
Ġfr anch
ud es
ont in
Ġenc ounter
Ġc ous
Ġpap ers
r ator
Ġp ad
Ġrebell ion
Ġv ik
Ġt ill
Ġt ape
Ġpart ner
Ġret rie
Ġgord on
w es
Ġrom antic
Ġple ase
ch o
Ġbig gest
Ġr ab
Ġanal og
Ġnot ice
Ġg on
Ġpol ar
Ġtr ivia
Ġinvest ment
Ġdraw ing
Ġprovinc ial
Ġmo sc
Ġh ors
Ġarchb ishop
Ġpe er
Ġfor th
Ġlos ing
Ġne v
Ġconcer ns
s k
Ġoffic es
Ġpattern s
Ġabbe y
Ġcourt esy
m al
Ġsh ield
x ic
um a
Ġbroad way
Ġdeclar ation
Ġf ib
Ġrom ans
Ġco le
Ġappe al
Ġportra it
Ġgener ated
Ġbal ance
Ġfish ing
Ġjo y
Ġho le
Ġra f
Ġeduc ated
ol i
Ġdep th
Ġdoes n
Ġbg color
Ġf m
Ġn ik
f ish
Ġp m
Ġb ic
ak u
e a
Ġc odes
re p
Ġc ord
Ġm igr
Ġg ur
stand ing
un te
Ġconcer ned
Ġstrugg le
Ġempt y
Ġle ban
ill es
og a
Ġcarry ing
Ġs ample
Ġfair ly
Ġexperim ental
Ġs end
Ġstat ue
Ġst ro
Ġdut y
s es
Ġear ned
Ġanth rop
Ġb ald
Ġdep ression
Ġp ull
Ġtest s
Ġcon j
Ġv l
Ġarg u
Ġrelationship s
Ġp ine
Ġin se
Ġassist ant
Ġmor ris
Ġskill s
re m
Ġcomp reh
Ġs ight
Ġwar ren
Ġeff icient
Ġcircumst ances
Ġgr ade
Ġfind ing
Ġr aw
Ġm isc
if er
Ġmon ument
b urn
Ġd ress
ap ore
Ġgr ace
ist ol
Ġcl im
Ġme g
ob i
Ġmanif est
Ġceme tery
Ġch ip
Ġturn s
Ġsing ing
g i
Ġpart ial
Ġhar ris
Ġb io
Ġv oting
gr ad
Ġcharacter istic
ky o
d am
Ġg ets
Ġd ave
Ġpo ets
Ġdr iving
ok er
Ġoff ensive
bor ough
Ġott oman
Ġcompar ison
n o
Ġcons ult
et ime
Ġsie ge
Ġt ib
Ġopportun ity
Ġcol ors
Ġdel ay
Ġhapp ened
n ia
Ġne st
Ġde ploy
Ġthem es
Ġfin ance
c ar
Ġvar iation
Ġste wart
m und
iv a
Ġr ib
Ġr ou
Ġfact s
Ġtur b
Ġpen al
Ġhapp y
Ġt ast
Ġinf inite
wh ile
Ġor le
Ġsing apore
Ġautom ob
a ine
rip ts
Ġdemocr at
Ġt ennis
Ġme at
Ġopp onents
Ġath ens
e g
Ġvol unte
Ġnel son
Ġcav al
Ġb ind
Ġappear ances
Ġelectric ity
Ġconf used
Ġco ff
Ġsix th
Ġin ch
ur b
r om
ro it
Ġext ract
Ġrespons ibility
Ġk ick
Ġimp rison
pe are
er ted
Ġsign als
inc orpor
Ġmultip l
ter ing
Ġst al
Ġres ign
Ġposs ibility
rane an
p ace
Ġus ual
Ġag ents
Ġsoc ieties
Ġcam er
c s
vel t
ar th
Ġch ick
eng ers
pl ace
ap se
Ġcamp bell
Ġan ime
Ġlord s
Ġshakes peare
ph e
Ġvictim s
Ġatom ic
Ġhar mon
Ġstrateg ic
Ġj ava
Ġy ard
Ġam az
Ġway ne
Ġoxy gen
Ġaltern ate
f olk
Ġte a
er ves
Ġperforman ces
Ġw ol
Ġs aints
Ġresid ence
Ġrece iving
Ġrem ove
Ġben j
Ġind u
Ġcar n
h ard
Ġhydro gen
Ġmosc ow
Ġrest ored
Ġchall enge
Ġorgan ic
Ġbenef it
p art
Ġperman ently
Ġpalest inian
incorpor ated
Ġunder stood
Ġmil k
Ġroman ia
Ġabbre v
ang er
Ġnas a
Ġin qu
Ġr ings
wor ld
ri ers
Ġbe er
Ġst im
Ġevery one
Ġnecess arily
Ġwid th
Ġsubstant ial
Ġinst ruction
e ff
ch t
go ing
Ġamount s
Ġthink ing
Ġcar p
Ġbroadcast ing
Ġhe in
Ġno va
Ġpat ent
Ġprom oted
onym ous
Ġen emies
Ġsecond s
Ġs q
Ġev olved
Ġdef ine
Ġv inc
ip h
Ġab ra
Ġk az
Ġj ar
Ġre ven
Ġto kyo
Ġjim my
Ġbran ches
Ġy ug
kn ow
Ġlabor atory
Ġf ired
Ġser ial
Ġconcer ning
Ġpd f
Ġdistingu ish
ell o
gr am
Ġmuslim s
Ġf aster
Ġr idge
Ġhur r
Ġjournal ist
u v
Ġj ay
Ġsim ult
Ġdoub t
Ġpe ters
Ġfac ility
Ġmarket ing
Ġgu ine
Ġev al
Ġro ose
Ġproduc es
Ġsy mp
Ġgu ar
Ġcons ol
Ġwind ow
Ġinterest ed
Ġdet roit
Ġst able
Ġv oted
Ġp i
Ġterm in
Ġunf ortun
ens ional
pe g
Ġconsum er
Ġeag le
Ġan ch
Ġmong ol
Ġp ont
Ġdis ambig
Ġmechan ics
Ġt et
Ġlo ose
Ġk new
Ġd raft
Ġtrans it
Ġen l
Ġexec ution
be an
Ġdisor der
Ġc aught
Ġal umn
Ġclass ified
Ġvi i
Ġn oun
ap olis
Ġev ange
Ġqu art
Ġmeas ured
Ġshad ow
Ġmean ings
ik i
Ġresour ce
Ġcandid ates
Ġsm o
Ġtr ained
Ġsent ence
Ġess ay
g om
Ġo z
Ġh idden
Ġconqu est
Ġf aced
ch a
Ġprote in
Ġfin ite
Ġjun ior
Ġcelebr ated
Ġax is
Ġtrop ical
Ġland sc
Ġch ose
Ġpre fect
Ġattrib uted
Ġroose velt
Ġa ce
Ġre ver
Ġlong est
Ġreb u
Ġnewspap ers
Ġpl ural
Ġind igen
Ġthe ology
Ġmon aster
Ġto b
Ġsh r
Ġpo ison
Ġab c
Ġkeep ing
al i
Ġpower ed
Ġgramm ar
Ġfamil iar
Ġsubmar ine
Ġsymph ony
Ġs r
ro c
ro t
Ġabstr act
Ġrepresent ing
Ġcommission ed
Ġc ash
Ġa er
Ġover se
Ġr io
ort ion
Ġmi ami
Ġadvent ures
Ġelse where
Ġph one
Ġcateg ories
o a
r ations
Ġargent ina
Ġs od
Ġst ere
Ġcolon el
Ġver mont
Ġanne x
Ġp ale
Ġcred ited
Ġcomp at
Ġmin es
Ġbyz antine
Ġbenj amin
ve land
Ġun su
Ġadvent ure
Ġprogramm e
Ġstep s
hel m
Ġorle ans
d ing
Ġg olf
Ġre naissance
Ġw itch
Ġcult iv
hamm ad
Ġper ceived
Ġdesc ent
o ons
Ġt ut
ath y
Ġint ent
Ġbl o
au g
Ġeng aged
Ġexpl ain
Ġbound aries
Ġt ales
Ġdeliver ed
Ġwithd raw
Ġr ick
Ġem ot
w all
Ġexcell ent
wes tern
Ġg ust
b ach
Ġcivil ization
Ġvirt ually
Ġd uck
Ġindigen ous
Ġmin ing
Ġreg iment
Ġfacult y
Ġhol iday
Ġc ogn
Ġl ac
Ġhun ter
Ġclos er
Ġorgan isation
old s
Ġpres um
Ġrit ual
Ġspe aker
Ġapol lo
Ġoper ator
Ġstatist ical
Ġr ico
av ed
Ġappro ved
h en
Ġbi ology
Ġaccompan ied
Ġn u
ot te
ch ed
Ġexperim ents
Ġpart ially
Ġfind s
Ġb ent
Ġbre aking
Ġw aves
Ġin fer
ger y
Ġsl ave
Ġm aced
ens is
ell er
Ġc ave
Ġconstit u
Ġsec ure
Ġrefer ring
Ġun incorporated
Ġread y
Ġscient ist
Ġflu id
ber ts
Ġcar ter
Ġmor gan
Ġco ins
Ġod d
b us
Ġac know
Ġconvers ion
en der
Ġaccur ate
Ġam pl
Ġmed iter
ript ions
Ġwar m
Ġins c
Ġmal ays
Ġseem ed
Ġdism iss
Ġmet aph
Ġstart s
Ġphenomen on
Ġp yr
Ġd rew
Ġincre ases
Ġaddition ally
Ġspace craft
Ġcop per
Ġl an
Ġsub d
Ġvisit ors
Ġens ure
un ction
Ġar bit
Ġb le
ed ge
Ġd os
Ġbal t
Ġult imate
Ġbo eing
Ġopt ion
um an
Ġr al
Ġreach ing
r ical
Ġcl oth
Ġind ians
ok ing
Ġdram atic
Ġvel oc
Ġk in
Ġsh ift
Ġcent ers
Ġmass ac
Ġexplan ation
Ġpre t
Ġth under
Ġslow ly
Ġsubs id
Ġexpl ained
Ġd ish
Ġt iss
un ct
on aut
Ġstr ange
Ġhors es
Ġy es
Ġassist ance
Ġdep icted
Ġconfir med
oty pe
Ġar row
Ġdirect ory
Ġbar ry
Ġlegend ary
ces ter
ather ine
d d
Ġcr uc
m ble
Ġbre ath
min ster
Ġc ed
Ġvol umes
Ġmill enn
Ġfurther more
ort ed
Ġrequire ments
Ġcorrespond ing
ic us
Ġre verse
Ġcle veland
Ġmathematic ian
Ġmechan ism
ish ops
ann y
a ver
Ġst ages
Ġnor folk
Ġimmedi ate
os c
Ġbab yl
Ġcoll abor
Ġgrad uate
Ġb id
Ġme th
Ġrel ief
Ġdie go
Ġcontinu ing
Ġbeaut y
Ġl over
Ġarm en
Ġrep r
Ġd ating
Ġv ib
Ġgu er
Ġrhyth m
Ġchannel s
Ġmediter ranean
Ġal ice
Ġper p
Ġcertain ly
Ġe ld
Ġarr ival
Ġminim um
Ġre un
Ġpres erved
ur g
Ġleg acy
Ġvar iant
Ġcub a
Ġpro ve
r ac
Ġres igned
Ġvi ii
Ġdall as
Ġprom ote
Ġengine ers
po int
Ġav iation
Ġpal m
Ġinstrument al
Ġb one
Ġintegr ated
Ġcel tic
Ġph ill
Ġpurch ase
Ġspect rum
p ool
Ġhe ights
Ġrelig ions
Ġnovel ist
Ġinit i
Ġadv is
Ġcas ual
Ġjo an
Ġdisambig uation
a very
Ġc yl
ul u
Ġhar rison
Ġtemper atures
Ġl od
Ġchild hood
Ġregular ly
ship s
Ġmr s
Ġcr imes
Ġphilosoph ers
Ġfish er
Ġinvestig ation
Ġbur g
Ġmar ks
Ġlo op
Ġk iss
gom ery
ip her
Ġdel aware
Ġm ond
Ġad mitted
az a
Ġt ale
Ġe in
Ġde an
Ġb av
Ġg ary
Ġdog s
Ġob sc
Ġpres c
Ġtur ning
Ġl ane
Ġabra ham
Ġless er
Ġmont gomery
Ġhawai i
Ġsurround ed
Ġdialect s
im ore
Ġarch ive
Ġcond em
ome ters
Ġnickn ame
Ġs ale
Ġnat ives
Ġrob inson
Ġexc lud
e per
or ic
Ġne o
Ġalumn i
Ġto mb
Ġy u
Ġy an
Ġorigin ated
Ġconcent ration
b oy
Ġleg it
Ġpat ient
Ġdise ases
Ġcarib bean
Ġh ack
Ġelect oral
Ġpred omin
Ġpre f
Ġd il
Ġag gress
Ġbibli ography
Ġh ier
Ġk am
Ġaff air
r ates
s ky
Ġh et
Ġdec isions
Ġprofess ion
Ġsac red
f eld
Ġb und
Ġmo z
Ġa ka
Ġprov ision
p ie
ur t
ane ously
s m
Ġc ited
Ġcon ven
Ġdec or
Ġlar ry
Ġdut ies
Ġcross ing
Ġf oss
Ġbi ograph
it t
Ġman ual
Ġst er
Ġsk et
Ġdim ensional
Ġdeput y
Ġemerg ed
Ġopp onent
Ġl ap
Ġpr ayer
Ġmount ed
Ġpro ven
ber ry
d i
Ġab use
Ġb its
Ġrank ed
Ġm h
Ġpr ies
Ġretain ed
Ġfried rich
Ġcor p
Ġmor ph
Ġsu re
Ġconf ig
Ġgosp el
Ġsym met
Ġden omin
Ġche ap
Ġadj ust
Ġm ack
Ġmar qu
Ġy ards
Ġhurr ican
Ġweek ly
Ġn am
Ġsh if
Ġmi xt
Ġdistinct ive
Ġconcer n
Ġpit ts
Ġwil helm
Ġprefer red
Ġk on
Ġmatthe w
as m
b ar
Ġfoc used
Ġaff il
lo ad
Ġneigh bour
Ġw et
em an
Ġarm ies
Ġmont ana
ig a
Ġarr anged
Ġprison ers
ling ton
Ġsquad ron
Ġhun t
Ġpatri arch
Ġre ich
ace ae
Ġbib lical
Ġsevent h
Ġpopulation s
Ġjac ques
Ġatt or
uc ks
Ġstr uck
Ġdev oted
an ian
Ġbe ars
p son
it is
Ġimplement ation
Ġb og
Ġh ug
Ġk an
Ġcivil ian
l ock
Ġc ock
Ġt ip
Ġl ose
Ġguitar ist
Ġbur ning
Ġconsist ed
Ġmyster y
ill ery
Ġp ill
Ġrem ote
Ġli bert
Ġw ag
Ġcryst al
Ġf i
Ġn int
Ġal ive
Ġrul ing
Ġsound tr
our se
ir ation
Ġwas te
Ġn ash
Ġse al
Ġeven ing
u able
Ġmean while
Ġwik i
Ġn ag
n ight
it arian
Ġlic ens
ill ing
Ġlist ing
Ġpass engers
f s
Ġsurv iving
Ġchart s
Ġm ig
Ġbring ing
Ġmont real
Ġk w
Ġrul ers
Ġair line
Ġsing ers
Ġpet ro
Ġanton io
Ġex ile
Ġreturn s
Ġstat ements
Ġstop ped
Ġdoll ar
ac les
Ġjud icial
Ġbuddh ist
Ġchr on
Ġbusiness es
Ġpl astic
Ġhol land
Ġencour aged
Ġgard ens
unc iation
ar o
id o
rib ed
Ġpartic le
Ġmart ial
m el
Ġmiss ions
ur ation
Ġprom pt
Ġdeb t
Ġlegisl ature
p es
Ġinflu ences
Ġsit uations
Ġdel iber
Ġemploy ees
Ġsatur day
Ġtournam ent
k t
Ġcerem ony
Ġste ad
Ġo g
Ġcl er
Ġcons pir
p ass
it i
Ġsur pr
Ġdecl ined
eas tern
us ing
Ġwor st
Ġbel gian
Ġmot iv
Ġjer ry
Ġru th
Ġre new
Ġex ceed
Ġt ap
Ġopt ical
Ġpossess ion
ah o
Ġmerc ury
r idge
Ġhand ed
Ġtechn ologies
Ġroc ks
l an
Ġut il
Ġd um
Ġfunction al
Ġ ian
Ġcharacter ized
Ġfund s
Ġic eland
ab ul
ire ct
Ġrepl acement
Ġhud son
Ġh ut
ar us
Ġse mit
Ġtim eline
Ġb inary
Ġep ic
Ġc ia
Ġp ump
Ġv ig
ab ilities
Ġbenef its
Ġbron ze
Ġcon sec
Ġoper ates
Ġgeomet ry
Ġto ler
Ġsp elling
Ġconscious ness
Ġfor g
Ġch lor
Ġrele ases
Ġstar red
Ġpain ted
Ġreform s
f ri
Ġstud ios
Ġfollow ers
ix on
Ġexerc ise
ac o
Ġgr ah
Ġpione er
Ġc bs
Ġbuddh ism
Ġwear ing
Ġpear l
Ġill ness
Ġn ord
Ġhost ed
Ġban ned
Ġrec ru
Ġcons on
Ġbalt imore
Ġnint endo
Ġdev il
Ġident ify
Ġun ic
Ġdis aster
Ġunsu ccess
Ġinter se
Ġre vers
ch em
Ġbut ter
Ġcritic ized
Ġs ession
Ġpro sec
Ġportray ed
Ġsp an
Ġyug osl
Ġcomp act
Ġjoh an
et ics
Ġthom pson
Ġmonarch y
Ġg amb
Ġthan ks
Ġacc ord
Ġl iv
ie th
Ġav o
Ġarg uments
Ġsurv ive
Ġuni x
Ġwr ight
Ġviol in
Ġover view
Ġcre ator
Ġanim ation
Ġs ult
Ġto y
Ġle af
Ġam ph
ograph ic
Ġsec ular
al ia
Ġaut obi
u z
Ġcitiz en
Ġam ate
Ġlun ar
Ġlo oks
Ġleon ard
iss ions
Ġproced ure
Ġtempl ate
Ġcant on
Ġisa ac
Ġsy ll
Ġconstant in
Ġbas il
Ġclaim ing
Ġjoh ann
ess ed
ath ers
Ġdirect ors
Ġconne ctions
Ġlow est
Ġseat tle
Ġo v
Ġnot ion
ro e
Ġnom ine
ie v
Ġtele commun
Ġran ks
Ġguine a
Ġst u
Ġmanufactur ers
en er
Ġz o
Ġalong side
Ġm itch
Ġschedul ed
Ġed in
Ġg ates
Ġac res
Ġp or
Ġtr act
Ġcover ing
Ġtem por
Ġvolt age
Ġst ick
Ġfall ing
Ġeas ier
c el
ab il
Ġse ed
Ġabs ence
Ġgrav ity
Ġunc ertain
Ġa ired
w ith
iz er
Ġflow ers
Ġdifficult y
Ġatl anta
or ia
Ġmiss ing
Ġver tical
Ġflow s
Ġterror ist
Ġconserv ation
Ġattract ed
Ġbehavi our
Ġconv inc
Ġrh ine
Ġmar ry
st ers
Ġgalax y
Ġrec all
Ġtem porary
Ġearth qu
Ġexpos ure
Ġint ention
Ġsee ing
er als
Ġnev ada
Ġman ip
Ġpublic ly
Ġver se
Ġmur ray
Ġf et
Ġle o
Ġdep ict
u nes
Ġh oney
Ġpar am
Ġcrow d
e qu
on i
Ġpers pective
Ġtrib ute
Ġre duction
Ġrob in
Ġsl oven
Ġnich olas
id ents
Ġbomb ing
Ġread ers
Ġc n
Ġpre gn
Ġinc l
Ġcharl ie
Ġcoord in
Ġro berts
Ġart illery
Ġl amp
Ġpres erv
Ġmath bf
Ġenjoy ed
w ing
Ġmill s
Ġdepend ent
Ġbeat les
Ġphysic ist
ct ors
Ġsub t
Ġdef ensive
Ġcoll apse
Ġsp ider
Ġm g
Ġro lling
Ġinter m
Ġmar vel
Ġfl ights
ic op
Ġpo le
Ġphoen ix
Ġrob ot
Ġlic ence
Ġtr ick
Ġsign if
Ġlight s
Ġvessel s
Ġcous in
Ġb il
Ġcaval ry
Ġroman ian
Ġnot ation
ig e
Ġtrip le
Ġl ag
Ġk os
Ġsoc cer
bir d
Ġcon greg
Ġmon itor
m i
ar ians
Ġamb ass
Ġdi ameter
Ġtel esc
Ġproduc ers
Ġemphas is
ol ph
m ud
Ġed itions
yn am
Ġrest oration
Ġinn oc
Ġcor on
iven ess
Ġun ity
Ġann ivers
Ġsy ria
n ames
al f
Ġpa rent
il st
Ġrestr icted
Ġiraq i
Ġw ake
ruct ure
or ious
Ġgro ve
Ġf lex
Ġent hus
Ġo u
Ġn iger
om on
Ġautom atic
Ġher bert
Ġret ail
Ġst ood
Ġair ways
enc ing
Ġlast ed
Ġwound ed
f ather
Ġres ort
ing ham
Ġson ic
Ġmir ror
h u
Ġw is
Ġl amb
Ġmin i
Ġnat urally
Ġattempt ing
Ġfer din
Ġclo thing
Ġpred ec
Ġkind s
Ġcomp ound
Ġappear ing
at ivity
Ġindic ates
Ġgrah am
Ġferdin and
Ġdep ends
Ġconf usion
Ġber ke
Ġsuit able
Ġg ross
Ġra ise
Ġun off
Ġsp ar
ag net
Ġjun ction
Ġmolec ular
Ġwh ilst
Ġm ud
Ġcl oud
Ġm ouse
Ġmel bourne
Ġseek ing
Ġint r
s burg
Ġd ust
Ġw an
Ġread er
Ġpredec ess
Ġen ab
Ġh es
Ġlog ical
id al
ag ues
Ġb ert
Ġpsych ological
Ġbes ides
ar in
Ġedin burgh
Ġper m
Ġc s
Ġdam aged
Ġt ight
Ġtan ks
Ġhypoth esis
b orn
ud i
Ġconfeder ate
Ġc oc
Ġmet res
Ġe ve
Ġadmin ister
Ġkey board
Ġgu il
Ġke vin
ig o
Ġg ren
Ġexper iences
Ġf itz
Ġper mission
Ġsl aves
Ġpe as
Ġgl as
Ġval uable
Ġguard ian
Ġshop ping
Ġbuff alo
Ġtax es
Ġen orm
as ia
Ġtrans mit
Ġther apy
Ġcol omb
Ġphotograph ed
Ġl ip
Ġveloc ity
op p
Ġsing ular
Ġcomed ian
Ġbapt ist
Ġcerem on
ul ating
Ġst ones
Ġjo bs
Ġtrad em
Ġden ied
Ġter ry
Ġsl avery
Ġp ub
are st
Ġg i
Ġbor row
Ġhome page
Ġsuffer ing
Ġinstruct ions
Ġfe ud
Ġst ored
Ġan na
as a
Ġpresid ents
Ġj a
Ġcl iff
Ġli k
Ġfriend ly
Ġcrit er
b ow
Ġind icated
Ġf urn
Ġcomm em
Ġadv ice
Ġtr inity
Ġint ense
Ġpat ron
h n
re tt
Ġleg s
Ġberke ley
Ġpre st
Ġowners hip
Ġm ul
Ġsh ah
Ġhar old
Ġtheore tical
ro gen
Ġsubst ance
Ġs ah
Ġbl ocks
Ġart istic
il ic
Ġv at
Ġc um
Ġr ide
Ġgo og
ul us
Ġk le
Ġcar go
Ġwest minster
Ġretire ment
Ġrev ival
Ġch i
Ġentr ance
Ġb aker
Ġsp ell
Ġins pect
Ġcl ient
Ġg w
Ġimmigr ants
f ast
ed a
Ġcompreh ensive
Ġs ull
Ġann ounc
Ġplay off
Ġoffer ing
d ish
Ġbe th
Ġbre ed
Ġresc ue
Ġfin ish
Ġsch em
Ġb oss
Ġmas ters
Ġbattles hip
est ed
Ġha ven
Ġman ga
Ġacc l
Ġsepar ation
Ġmad ison
Ġconsum ption
Ġtib et
Ġb ishops
Ġsc at
Ġchampionship s
Ġkel ly
Ġf old
Ġexclus ively
Ġg ig
Ġl or
Ġec l
Ġfranch ise
Ġbo ats
Ġgovern ors
Ġliber ation
Ġb read
Ġexp osed
Ġdescend ants
Ġt i
Ġf ate
Ġol iver
Ġcath ol
Ġunfortun ately
Ġelectron ics
Ġa ber
Ġwar ner
Ġdec k
re ne
Ġh og
Ġconstantin ople
f ound
Ġflow er
Ġor th
Ġmat t
edd ing
Ġgr iff
Ġloss es
Ġextin ct
y ll
Ġm ason
ag ger
Ġleban on
ic ity
os ing
Ġbel t
Ġfer ry
Ġdiscuss ed
Ġarn old
y on
gr oup
id en
Ġun com
Ġser ge
and o
Ġsh an
Ġup gr
r h
it able
Ġcomp ounds
ress ive
Ġpers u
Ġfarm ers
Ġseg ment
Ġp up
Ġvar ies
Ġn bc
Ġsuppl ies
Ġb are
Ġcoll ins
Ġpruss ia
Ġsh ares
Ġpublish er
Ġp yth
ow ed
Ġph arm
Ġcamp s
Ġid aho
Ġproper ly
Ġchap el
Ġdoll ars
Ġcot ton
Ġd war
Ġsmo oth
Ġpo inted
Ġbox ing
Ġbrid ges
Ġadvert ising
Ġinvolve ment
Ġsil ent
Ġanti qu
Ġw ool
Ġle x
ok u
Ġpunish ment
Ġhier arch
Ġgo v
st ad
Ġdang er
Ġcontr ad
Ġg dp
os ition
Ġfavor ite
it udes
iz z
Ġdis ag
Ġsubst it
Ġannivers ary
g ie
r ons
Ġfeel ing
Ġlas er
Ġthe olog
Ġfl our
oth y
Ġpros per
Ġe ating
Ġpresid ency
Ġnat o
Ġmerch ant
Ġsol utions
Ġsoundtr ack
ic ing
Ġmar it
Ġbul let
Ġbrig ade
Ġjud ges
Ġeth iop
Ġreview s
Ġhorizon tal
Ġvar iants
Ġbe ings
Ġcr ush
Ġse p
Ġwill ing
Ġmain ten
Ġregard less
Ġarrange ment
com ing
Ġdiver se
Ġa ids
Ġcur t
Ġmich el
Ġrein for
Ġre ducing
Ġg am
Ġre agan
Ġrug by
e le
Ġv isc
ash i
Ġvir us
Ġhost s
bour g
Ġhero es
Ġthreat ened
l ie
ag ers
Ġconsider ably
Ġc oun
r iet
ail and
Ġattor ney
Ġinv ention
Ġmixt ure
Ġjurisd iction
Ġman h
Ġret ros
Ġeth ics
Ġenter ing
Ġmem or
Ġequ ally
Ġflo rence
Ġgn u
Ġassass ination
Ġre ed
Ġwh ate
Ġexplor er
Ġral ph
b ody
s ch
Ġth ailand
Ġo st
Ġhom er
Ġinfr ast
Ġfund ing
Ġcathol ics
Ġh ipp
Ġhighlight ing
Ġpercent age
Ġres ol
Ġjon athan
Ġnegot iations
Ġpred ict
Ġgreg ory
ou ver
ell ation
Ġimplement ed
Ġinstall ed
Ġcarl os
Ġt ens
Ġre vel
Ġpl ains
Ġdisc ography
Ġwhate ver
ed e
Ġwalk er
Ġrang es
ol es
ess ions
Ġbu g
Ġplan es
Ġoverse as
Ġdemocr ats
Ġs ans
Ġsh orter
Ġmess ages
Ġcu is
Ġsong writer
Ġfer n
Ġs ick
Ġin ches
Ġemploy ment
Ġcomment ary
x ide
Ġlo b
Ġsupport s
y ard
Ġen cl
Ġshe et
Ġlu ke
Ġp om
Ġbe am
Ġd w
Ġlo ad
Ġun re
Ġnew found
Ġpot ter
uls ion
Ġbrazil ian
Ġlif etime
Ġhy br
Ġamate ur
Ġdiplom atic
Ġgau ge
Ġbre ast
Ġott o
Ġtr il
Ġterrit orial
Ġintegr al
Ġsur gery
Ġinvent or
Ġmainten ance
Ġm ant
Ġbr uns
Ġed u
Ġd io
Ġinj ury
Ġn c
Ġn ig
Ġmole cules
Ġsumm ary
u ch
re ct
ii i
Ġbarb ara
Ġgeograph ic
Ġtrou ble
Ġreported ly
a is
ens ively
Ġver n
att an
Ġm old
Ġresearch ers
Ġm ck
th a
Ġco inc
Ġadapt ation
ha ust
Ġlandsc ape
ar r
ch ing
Ġrom ance
Ġhar bour
d l
Ġmanufactur er
Ġpron unciation
Ġprint ing
Ġg ym
Ġne il
Ġbec k
Ġmu hammad
Ġsl ovak
Ġg em
est on
Ġtr i
Ġgen esis
Ġke ys
Ġprocess or
Ġbr ah
Ġstal in
Ġal ter
af ter
Ġfac ing
Ġsult an
Ġc atherine
Ġter r
Ġgoog le
Ġbul gar
Ġinf o
Ġdar win
Ġbut ler
Ġbrit ann
Ġdesign er
c ement
Ġf inger
Ġover t
Ġinterpre ted
Ġass ign
Ġrad ar
Ġgree ks
Ġneighbor ing
ill s
Ġphenomen a
Ġs au
Ġg and
Ġpaint ings
Ġg ear
Ġsho oting
Ġcover age
Ġfar ming
Ġhel icop
Ġaut o
ill o
Ġtwent ieth
Ġwealth y
Ġb ones
Ġout l
Ġmillenn ium
Ġh i
Ġsp art
Ġob st
Ġstruct ural
Ġhe aring
w ald
Ġs ri
Ġqu ot
aw ay
Ġrich mond
aw s
Ġconver t
Ġvari ables
Ġgil bert
g ow
Ġoccas ions
Ġbro ws
Ġhurrican e
Ġpropos al
ol o
Ġeg g
Ġt ed
ro d
Ġr ip
Ġat oms
Ġprodu ctions
Ġal to
Ġmassac re
le v
Ġre ct
Ġcl imb
Ġmh z
Ġequ ations
Ġpriv ile
Ġkir k
Ġray mond
Ġess ays
Ġautomob ile
ac a
Ġsurv iv
Ġrestaur ants
Ġobserv ations
Ġinterm edi
Ġcl an
Ġel abor
Ġwood s
per t
ok es
Ġhuman ity
Ġc f
Ġv amp
Ġv anc
Ġcat tle
Ġtast e
Ġs ut
Ġex haust
Ġmus cle
Ġbruns wick
Ġhor ror
Ġkil ometers
Ġrev ised
Ġpen et
Ġrestr ictions
Ġange ls
Ġconsist ent
Ġven ez
amm a
Ġparticip ate
Ġs ang
it ary
Ġj peg
Ġron ald
Ġc ort
Ġpl ut
Ġsum mit
Ġexper t
Ġwood en
Ġpark er
Ġy am
v ia
Ġstr ings
ith ms
bre ak
s is
Ġaugust us
Ġmagn itude
Ġm b
Ġj ung
Ġbirth day
Ġa e
Ġw er
Ġinc or
Ġobject ive
Ġp ound
Ġcomp ens
Ġsax on
Ġindones ia
Ġcolle ctions
Ġb ub
Ġhand le
Ġlook ed
g raph
Ġdescrib ing
Ġvary ing
Ġis le
av ian
Ġbo om
Ġunder t
Ġbr istol
Ġturn er
Ġautonom ous
Ġh itch
Ġtrig ger
il ian
Ġbe ver
st ation
Ġburn s
Ġpitts burgh
Ġbe ta
Ġisol ated
Ġt iger
Ġgramm y
Ġscand al
Ġt ie
Ġro of
Ġconqu ered
Ġy ah
bor o
Ġillust rated
Ġl p
ican ce
Ġmon te
Ġdeal ing
Ġeg gs
Ġqu iet
Ġsw ing
Ġfight ers
Ġmarsh al
Ġf usion
Ġc raw
Ġwild life
en berg
Ġdict ator
b les
Ġt um
if ies
Ġmon ster
Ġmurder ed
Ġconsequ ently
Ġper ry
Ġw o
Ġp orn
Ġplan ets
Ġg ap
Ġmin eral
Ġsimult aneously
an ium
Ġhe x
Ġr ag
Ġt ies
ur i
Ġdisp uted
hol m
Ġinfl ation
Ġmill ions
Ġinsur ance
Ġto ll
Ġcla ud
Ġinter vent
Ġgl ac
Ġvo ters
Ġw u
Ġelev ation
ub e
ail s
Ġrang ing
a a
y stem
Ġbas es
Ġpalest ine
Ġv and
Ġag encies
Ġairport s
Ġcorrupt ion
Ġcoff ee
Ġn ba
Ġsub sc
Ġext end
Ġbas in
Ġlt d
Ġf ulf
em en
Ġren der
Ġass ess
ming ham
Ġcompr om
at on
am pton
Ġbur ned
Ġto xic
Ġfore ver
Ġtrial s
Ġch est
Ġport land
Ġgab ri
Ġa es
th al
Ġrock y
p ro
im al
Ġune m
duc es
Ġretrie ved
is k
Ġx i
Ġcur ve
Ġpolit ically
Ġax i
Ġworld s
Ġvl ad
b el
ill ed
Ġtr ies
Ġhigh ways
Ġcolumb us
Ġwor n
Ġgerman ic
Ġper c
Ġher ald
Ġequ ipped
Ġinsp iration
Ġgr ades
Ġl b
Ġbir mingham
Ġlin d
Ġcr ack
Ġpo ol
Ġben ed
Ġspec ified
Ġfew er
Ġimm igration
Ġt ons
Ġm ask
Ġsp y
Ġver t
Ġcut ting
Ġqueens land
Ġconclud ed
em ed
Ġcontrol s
Ġenc od
Ġwalk ing
Ġnomine e
Ġsignif icance
Ġlat est
Ġconc rete
n as
Ġhapp en
Ġsh aw
Ġfall en
Ġpsych iat
Ġconcl usion
Ġunem ploy
Ġal ger
don ald
Ġand y
Ġwy oming
Ġnewfound land
Ġgrad uated
Ġcommem or
m aster
r in
Ġmagaz ines
Ġgent le
ve t
pl ed
Ġfilm ed
Ġinfrast ructure
Ġthe or
Ġu g
Ġmil an
ob a
Ġspecial ized
n ik
Ġcharl otte
Ġs isters
Ġcl ergy
Ġuk raine
Ġer nest
str ong
Ġd ated
Ġmiss iles
Ġremain der
Ġbill board
Ġcine ma
Ġalexand ria
Ġvanc ouver
Ġfor ty
Ġnational ist
Ġe is
Ġr ic
Ġp am
il ia
Ġor al
Ġtransl ations
Ġvac u
Ġgoth ic
Ġmanufact ured
Ġp ix
Ġmalays ia
Ġtr ium
Ġi x
Ġsi er
ib ilities
Ġper mitted
Ġme ets
Ġtact ics
Ġcontin ent
Ġdemonstr ated
Ġst em
Ġexclus ive
Ġover l
Ġrepl acing
en z
Ġremov al
Ġunoff icial
m l
ge on
Ġdevelop ments
Ġa ur
or f
Ġare na
Ġj ama
Ġcomp are
Ġcal c
n at
ach t
Ġarr ay
Ġg iants
Ġfort une
Ġprince ton
Ġpass ion
Ġvow el
Ġcuis ine
Ġestablish ing
n ings
Ġcollect ive
Ġf ed
Ġph osph
Ġs ung
Ġreact ions
im ir
Ġcour ses
Ġterror ism
Ġmon roe
Ġphys ician
Ġbit ter
Ġt in
le ton
et ary
Ġinter c
Ġland ed
Ġw ider
ail ed
Ġstrict ly
Ġresident ial
Ġmoder ate
Ġconsequ ence
Ġwrest ling
Ġp ist
ok a
Ġs ulf
Ġaccom mod
Ġch ester
iv an
Ġgl en
Ġtradem ark
Ġt iny
Ġphotograph s
Ġg ift
ag h
pp ing
Ġout standing
c at
Ġp ock
Ġin ject
Ġher b
Ġlaw yer
Ġremember ed
Ġvar ieties
Ġsettle ments
Ġp od
th or
Ġmem oir
bo ards
act ive
Ġre cept
Ġport ions
Ġsav ed
Ġh ood
Ġmet e
Ġcontr ary
Ġsho ot
Ġb ce
Ġdia gram
Ġed iting
Ġed mund
ot le
Ġdefin itions
us ions
ul es
Ġatt itude
Ġc raft
Ġthere by
ty m
io v
Ġoper ators
Ġteach ers
Ġrabb i
ic as
iz ard
Ġcooper ation
umber land
Ġth read
act ic
Ġsc ored
Ġprocl aimed
om agnet
Ġsp o
Ġenorm ous
v o
Ġs z
Ġdynam ic
Ġdele g
Ġserb ia
Ġt orn
am an
Ġnomin ation
al ism
Ġse es
Ġmarit ime
Ġmonaster y
pl ing
Ġobl ig
Ġwar ning
Ġtransform ation
Ġthor ough
Ġfort ress
Ġcons ens
Ġbar n
Ġr anch
Ġsp ark
Ġper u
ry s
Ġattract ions
ah n
Ġrecover ed
Ġer u
Ġparticip ated
Ġmanh attan
Ġinv ited
Ġintellig ent
Ġdisor ders
Ġarm strong
Ġjul ius
Ġeu g
Ġrot ation
Ġtriang le
Ġt ends
Ġpow ell
Ġneigh b
Ġele ven
Ġinter action
Ġglob e
Ġe tym
est one
Ġfront ier
Ġt ied
Ġarbit r
Ġc yr
Ġn s
Ġgr ain
Ġmor oc
augh ters
Ġfran z
in ter
Ġre venue
Ġh ide
if ice
Ġstr at
Ġc ere
Ġm ild
Ġnor se
Ġtrans p
Ġkingdom s
Ġprison er
Ġdisplay ed
Ġhard c
Ġrestaur ant
Ġqu oted
ic on
Ġcro s
Ġpur ple
bor ne
Ġmeet ings
ag ne
Ġ ud
Ġa head
Ġeff iciency
Ġwa it
Ġalt itude
Ġh ir
Ġexp ort
Ġsynth es
p at
Ġed die
Ġrefer end
Ġfr act
eng u
Ġconsequ ences
Ġconsol id
Ġf aces
Ġpu pp
or o
Ġd ense
ow ned
Ġdes ired
Ġvictor ian
Ġmeasure ment
Ġvinc ent
Ġa ar
Ġch at
Ġl av
Ġsp here
Ġinter rupt
op l
Ġro gers
Ġthere after
cc a
Ġwall ace
Ġd ot
Ġrece ives
Ġp airs
Ġent ity
Ġll oyd
Ġrecomm ended
Ġhe y
Ġsc ots
Ġbl og
Ġbat tal
Ġpost al
Ġcy pr
Ġfif ty
Ġconspir acy
Ġwell s
Ġarch ives
Ġdifficult ies
Ġven ice
f ire
r at
Ġh ired
Ġmad rid
Ġattrib ution
Ġestim ates
Ġsv g
Ġrevol t
Ġtarge ts
Ġas ide
Ġcr icket
Ġgovern ing
ann i
Ġstrik es
om es
Ġcar riers
Ġapproach es
Ġtru ly
Ġacknow led
Ġcondu ctor
Ġframe work
Ġcre atures
Ġalgor ithms
Ġecc les
Ġincor rect
Ġdisc rim
i ary
Ġpro st
Ġbr ut
Ġgener ations
ri um
Ġaim ed
om ed
Ġstu art
Ġp agan
Ġcon ce
Ġant io
Ġloc om
Ġfa ult
Ġvenez uel
Ġb ail
on ne
d al
Ġche ese
Ġhe ath
Ġsubur b
Ġcomple tion
Ġdest ro
Ġsat urn
Ġliver pool
al t
Ġpr ay
Ġhaw k
ch ron
Ġle op
Ġinj ured
Ġcustom ers
Ġcompar ative
Ġrefle cted
en ess
Ġdem ands
int osh
Ġnames pace
Ġl enn
Ġrele vant
Ġactiv ist
Ġalleged ly
is ition
st an
Ġobserv ation
Ġrecogn ize
p in
Ġc oca
Ġy a
Ġsc out
Ġh ann
Ġam ster
Ġcomp ression
Ġsc re
Ġwa iting
Ġdrink ing
Ġcommand ed
Ġsat an
Ġcontrib ution
Ġc ats
Ġbar s
Ġo me
Ġab ilities
Ġesc aped
Ġanth em
um ps
Ġgl ad
Ġs ap
oc ation
Ġy ale
Ġcre am
Ġadult s
Ġcounter part
ant o
Ġbo hem
Ġpol yn
Ġcomplex ity
Ġy orks
Ġh ull
Ġshe ep
Ġbat man
Ġbrook lyn
Ġbacter ia
Ġem er
Ġsup ers
Ġdig it
Ġsc an
Ġcompet e
Ġz ion
Ġd ys
Ġsy l
Ġd aughters
ac ular
Ġper sec
Ġtop ic
Ġamster dam
Ġstrong er
Ġcust oms
Ġda wn
Ġr iding
Ġt ak
Ġma ver
Ġdrum mer
Ġunlike ly
Ġexplos ion
Ġele ph
Ġg amma
Ġpap al
Ġrif le
Ġun w
Ġmem br
h aw
Ġdef ect
Ġquant ity
Ġambass ador
Ġo is
Ġrec ur
Ġinfect ion
Ġs ul
Ġdre ams
Ġsh ops
Ġunder lying
Ġflag s
Ġpar ody
ah l
Ġstay ed
Ġvacu um
Ġf oster
en ne
Ġand r
Ġno se
Ġnav ig
Ġprom otion
Ġcann on
Ġastronom y
Ġrecover y
Ġmat ches
Ġrepeated ly
Ġdepart ments
bor g
Ġvo iced
r m
Ġn urs
Ġv as
Ġqu otes
Ġconflict s
Ġyorks hire
op y
Ġmet all
Ġdest ination
Ġteach ings
Ġsurren der
Ġau x
Ġw edding
Ġauth ent
Ġiv an
du ct
Ġemot ional
n ame
Ġcom ments
Ġlaure ate
Ġh p
Ġenfor cement
Ġremark able
i ast
Ġj enn
Ġl ung
ach er
Ġinst ant
ter ies
est yle
Ġext ensively
Ġcompet itive
Ġn erv
Ġelectr ons
Ġsens itive
Ġcompl icated
Ġsupposed ly
Ġretros pect
Ġf ool
Ġtiss ue
en ders
el in
Ġper ception
Ġant ar
Ġbot an
Ġassoc i
Ġspeed s
oph one
Ġcampaign s
Ġparad ox
Ġass ume
Ġr t
Ġsh aring
Ġfun eral
Ġtalk ing
Ġjul ian
Ġserious ly
Ġregister ed
Ġwrit es
Ġglas gow
Ġhum or
Ġluc as
Ġmitch ell
v an
Ġto k
Ġwas n
Ġpartners hip
p ower
in um
Ġoper ational
c i
land ers
Ġcal vin
Ġleg ion
Ġn erve
ic ism
Ġappro val
Ġast ero
Ġn ort
Ġleg ends
f ts
Ġn ice
Ġab und
Ġcon go
ab oration
Ġres ur
Ġmet ric
Ġgene va
g art
Ġmon opol
enc er
Ġsar ah
Ġind uc
ades h
oul der
Ġstud ying
Ġstan ford
Ġconf idence
Ġpoll ution
Ġdist ant
Ġmut ual
Ġtermin ology
Ġdanc ing
Ġcontro ll
Ġsus an
Ġserb ian
Ġshut tle
Ġag ed
Ġa us
Ġz en
Ġv ital
Ġhen ri
Ġd ale
Ġprote ins
Ġreconst ruction
Ġerr ors
Ġpost er
Ġjud g
it ure
Ġac ou
Ġtren d
Ġproport ion
l on
w right
Ġab road
Ġcre ates
Ġcenter ed
Ġhel en
ows ki
Ġround s
Ġmaur ice
Ġg est
Ġdim ension
er b
Ġo vers
ro sc
Ġpl as
Ġintegr ation
c ano
Ġt ac
Ġcom fort
ki en
Ġw ants
Ġjo ining
Ġdesign ation
Ġfer r
Ġe b
Ġn aming
Ġloc ally
Ġmonarch s
Ġunsuccess ful
Ġst ability
Ġwh ig
Ġv in
Ġpres ents
Ġparticip ation
Ġover th
Ġinter f
Ġback ed
Ġimm ort
Ġparticip ants
Ġexplicit ly
Ġsp oke
ott o
Ġreven ge
Ġguil ty
ad ers
oun ce
Ġbr a
Ġreach es
Ġal p
ens on
Ġte ch
Ġconstant ly
Ġdial ogue
Ġdiscip line
Ġcp u
Ġvoy age
Ġanch or
Ġassoc iate
f low
z i
Ġon going
Ġj edi
Ġun ified
ot ten
Ġdec ide
gr im
Ġpref ix
j u
Ġch in
Ġca uc
Ġune x
Ġabol ished
Ġgener ate
Ġel ite
Ġrecip ient
pl ane
Ġatt ach
Ġvar ied
Ġven us
m ill
is ations
ar io
Ġsl ang
Ġsam ples
Ġbe aring
Ġperp et
sel s
Ġautom atically
Ġbond s
c d
Ġtr ace
Ġbav aria
Ġconvinc ed
Ġviet names
Ġtechn ically
Ġemper ors
a ire
olog ically
Ġdel i
Ġra ven
Ġlaure n
Ġsa udi
ov o
Ġpolyn omial
Ġvietnames e
Ġass ert
Ġn t
Ġnot orious
Ġautobi ography
Ġto wers
us ive
Ġsurv ival
Ġwal t
Ġap oc
Ġconcent rated
Ġelectr omagnet
Ġlingu istic
Ġbulgar ia
b es
id ays
Ġsur ve
Ġalb ania
er d
ne e
Ġra id
Ġangl ican
Ġapp rec
Ġop ens
Ġsom er
ap pe
Ġpublish ers
Ġa ne
and y
Ġt ig
Ġd h
Ġgu ards
Ġr im
Ġfood s
Ġconstant ine
Ġiran ian
l ain
Ġstates man
Ġorgan isms
Ġprefect ure
Ġt ables
if ier
Ġborough s
Ġpropag anda
Ġreferend um
o an
Ġd ow
Ġr yan
Ġcon fer
Ġconsider ing
Ġpries ts
ak s
Ġcirc les
Ġsequ el
Ġtril ogy
Ġh ast
Ġib n
Ġdifferent ial
Ġscand in
Ġn ixon
Ġan ten
ra h
Ġopin ions
a uc
u i
Ġreal m
Ġexcept ions
Ġdivor ce
Ġhet ero
Ġacc um
wh el
Ġpu zz
Ġimpl ies
Ġlud wig
Ġguer r
Ġcan ter
Ġlu is
Ġbox er
Ġsier ra
Ġdr ivers
Ġh ms
Ġhamm er
Ġd ennis
Ġnew er
Ġintervent ion
Ġme ad
Ġin aug
Ġj up
Ġgover ned
act s
ut or
Ġat ari
Ġsp ending
Ġfriend ship
Ġconnect ing
Ġf ont
Ġwhe at
Ġdepart ure
Ġwe igh
oca ust
Ġbic y
Ġp on
Ġm ast
Ġpro c
Ġgr id
Ġev ans
Ġrail ways
Ġpil grim
Ġrecomm end
Ġw ise
Ġch al
Ġcompil ation
ist le
Ġro oms
Ġdim ensions
Ġk ids
Ġfr ances
Ġgl ory
Ġrequ iring
Ġsmall est
Ġun ions
Ġsupp lement
Ġintermedi ate
Ġbat tery
Ġbach el
Ġext ends
Ġcirc ular
Ġn ab
Ġst ir
im ents
Ġcont ents
Ġwarri or
ot ive
Ġty r
od ies
Ġso ap
Ġsull ivan
Ġpr ide
Ġmamm als
m ons
Ġeight h
ome ter
Ġmy st
Ġic on
Ġdisag ree
Ġann ually
Ġtor ped
Ġthe ological
Ġw ald
Ġcons ort
Ġsm art
Ġimprove ment
Ġhol ocaust
Ġmarc us
Ġsur prise
h ill
Ġc inc
Ġmot ors
Ġbob by
Ġkill er
le tt
est y
Ġover whel
Ġterm ed
Ġsymp ath
Ġh av
Ġy osh
Ġdec ay
Ġcompan ion
Ġve gas
Ġpan el
Ġmanusc ript
Ġconsens us
Ġad her
Ġbl ank
Ġge off
Ġb old
Ġlo an
Ġlist en
Ġpres erve
Ġqu int
Ġbur ial
Ġbal tic
Ġtas ks
se a
Ġir r
Ġsax ony
Ġmore over
Ġmer ger
Ġchrom os
Ġb end
Ġregul ations
grad uate
m ath
Ġsol omon
Ġsequ ences
Ġchick en
Ġpack age
Ġw ang
Ġcross ed
Ġsynth esis
Ġf ier
Ġh il
Ġped ro
Ġome ga
Ġnine teenth
Ġbr ill
Ġtorped o
Ġmil ton
Ġmaintain ing
Ġtr aged
Ġscot ia
Ġpil ots
Ġathlet ic
st ed
Ġem br
Ġexp orts
Ġfranc o
Ġ ero
Ġarab ia
Ġappoint ment
qu in
od a
Ġcomple ment
Ġtend ency
Ġexhib ition
Ġsubur bs
Ġsacr ifice
Ġ ia
Ġt es
ious ly
Ġsyn t
Ġknow s
Ġput ting
a ic
st s
Ġder ives
fri end
ul um
Ġsign ature
Ġslav ic
Ġl ens
ie u
Ġsovereign ty
Ġmete or
Ġdeli very
b ul
Ġcar ries
Ġinterview s
Ġact ed
Ġaccept ance
Ġexam ination
m n
Ġb eng
it ative
Ġbl ade
Ġeng age
Ġdefin ite
Ġnob ility
Ġm igration
Ġcommission er
Ġfif teen
le um
Ġopt ions
h d
Ġk ay
Ġsh i
Ġappl ies
Ġga ul
Ġkid n
Ġgeograph ical
Ġjup iter
Ġbelie ves
Ġcongress ional
Ġspring field
Ġcha os
Ġreserv oir
Ġgabri el
Ġz ip
Ġed it
Ġtal ent
Ġsiz ed
Ġtol kien
ol ar
Ġcount s
Ġrel ating
Ġev ident
Ġste in
ir m
Ġsusp ended
Ġsic ily
Ġp t
Ġext r
Ġconvent ions
Ġadminister ed
Ġhar sh
Ġaccur acy
Ġarchae ological
Ġad ject
Ġfab ric
Ġrh odes
Ġtelecommun ications
is ph
Ġst yl
Ġdr ives
Ġexpl oration
Ġhere by
Ġrub ber
Ġs add
Ġd ock
Ġtr uck
Ġprom ised
Ġden ver
Ġren owned
Ġmos es
Ġp ok
Ġra ising
Ġattract ion
Ġsc oring
Ġfir ing
Ġsec re
Ġp ly
Ġne phe
Ġfac ilit
as er
Ġco ined
Ġcro ps
Ġcanc elled
Ġeas ter
Ġcoll aps
Ġmaintain s
Ġchurch ill
Ġes sex
Ġcompat ible
Ġse eds
end a
Ġke ith
ij i
Ġfat al
Ġdemand ed
Ġrefuge es
Ġst ol
Ġdi oc
Ġtrave ls
Ġdev ast
Ġident ification
Ġcoll aboration
Ġdram at
Ġinher ited
Ġstamp s
Ġsust ain
Ġhybr id
Ġsp end
r t
Ġsh ipping
Ġcol um
Ġdoct ors
Ġvis iting
Ġde er
Ġindepend ently
Ġske pt
Ġbom bs
Ġl augh
Ġg ly
Ġg ill
Ġgrad u
Ġout break
ater n
Ġpar s
Ġvat ican
Ġp unch
Ġlike wise
Ġconv icted
Ġcub an
Ġsudden ly
Ġh ag
Ġch ord
Ġimprison ed
Ġk i
Ġgrand son
Ġgrand father
Ġextra ord
Ġed wards
Ġrev ision
Ġminim al
Ġearthqu ake
Ġa rose
Ġdisp utes
Ġwel fare
Ġyugosl avia
Ġcoordin ates
Ġperform ers
Ġprin ces
Ġm end
Ġher m
Ġpetro leum
g g
Ġal umin
am ous
Ġargu ably
e u
Ġrecogn ised
Ġse min
Ġconfeder ation
Ġj ason
qu er
Ġaut umn
Ġr n
st own
Ġaf ford
Ġastr onaut
Ġdiss olved
Ġpenal ty
op ic
Ġsh in
Ġsp ur
anc ing
Ġbre eding
Ġmun ich
Ġnar rative
Ġth y
Ġuss r
Ġstrik ing
n an
Ġdem ol
Ġval le
Ġreb el
ash ed
Ġdevelop ers
Ġcirc a
Ġinte ger
Ġpal at
Ġken ne
Ġadop tion
Ġcelebr ation
Ġswim ming
ik o
Ġwil der
Ġpopul ated
Ġcar roll
Ġsevere ly
Ġs ending
Ġuk rain
Ġd ying
ir ical
Ġen light
Ġclos est
Ġachieve ment
Ġbind ing
Ġtr ump
Ġnone theless
Ġwis dom
Ġbened ict
Ġsomer set
ed ed
Ġph i
Ġeld est
Ġcypr us
Ġacc us
Ġsan ct
Ġproph et
Ġs ony
Ġcl uster
Ġdo ors
ut t
Ġpro se
Ġdim in
Ġcrow ned
Ġbelong ing
Ġsched ule
appe ared
Ġa i
Ġl ank
Ġbe e
Ġst ack
Ġkill s
Ġg el
Ġther mal
Ġupd ated
w en
Ġl ift
Ġdirect ions
Ġper mit
Ġexpl ains
Ġth orn
as ters
Ġre de
Ġk or
Ġde als
Ġde uts
Ġest imate
Ġce ased
Ġlanc aster
Ġbe ij
Ġsuper man
Ġl az
Ġf ay
Ġbro s
Ġyoun gest
Ġphot ography
Ġpan ama
Ġvow els
et a
Ġhol es
Ġtrans mitted
Ġinv aded
Ġcol ored
Ġsimp son
Ġcanter bury
Ġfr on
Ġj osh
Ġde emed
Ġb w
Ġv est
ian o
Ġnumber ed
Ġquant ities
r ist
Ġf ing
at ra
Ġimp ression
Ġarist ocr
w ord
Ġin ver
id ad
Ġit em
Ġduch y
Ġstro ke
Ġlab els
Ġsyn d
Ġdeep ly
Ġimprove ments
oc ated
Ġte eth
Ġsub set
ist ent
Ġenc omp
Ġemp ress
Ġoppos ing
Ġclin ical
Ġretrospect ively
r ating
Ġis ot
c al
y o
Ġis ab
r ous
am er
Ġret reat
Ġeu ph
Ġhugh es
Ġblo om
ol ly
Ġfr iday
Ġsit ting
Ġaccess ible
Ġm ate
Ġhug o
ard o
enn ial
let ion
Ġtong ue
e ter
as ian
Ġprom ise
Ġcru ise
Ġadvoc ate
Ġcomp ut
Ġconc ord
Ġuplo ads
Ġsurpr ising
ur er
ip er
Ġad olf
Ġbl acks
Ġlight ning
Ġtour ists
Ġbank rupt
Ġe uc
Ġprot otype
Ġdub bed
Ġencomp ass
Ġe ur
Ġharm ony
Ġg ael
Ġnav igation
Ġm d
Ġfil ter
Ġdef unct
Ġsp ons
Ġbill s
Ġmc g
Ġkil omet
Ġir a
y e
Ġg ott
Ġdis char
Ġlay ers
Ġcorn ers
Ġproced ures
re str
Ġbr ick
Ġhand ling
Ġren dered
Ġwire less
Ġp engu
Ġnum er
ym ph
Ġbald win
er ies
Ġj ury
Ġprepar ation
Ġinter ch
Ġpruss ian
Ġwitness es
Ġein stein
Ġfrequ encies
Ġsoph istic
Ġtheod ore
Ġsuspect ed
Ġst ern
Ġott awa
ac co
Ġex it
Ġen act
Ġfor cing
Ġk et
Ġdis rupt
Ġvers a
Ġantio ch
Ġs ack
Ġsen ators
Ġtor ah
Ġaddress ed
Ġcriter ia
Ġrun ner
Ġcred its
Ġpush ed
Ġcolomb ia
Ġsw ift
Ġperc uss
Ġcons ent
Ġsub c
as i
Ġpat rol
wor ks
Ġrequire ment
Ġrel iable
Ġtour s
Ġveter ans
Ġgust av
om o
Ġstock holm
Ġv ed
Ġoccas ional
Ġobser ver
Ġbeij ing
ay an
Ġsm oke
Ġinhab ited
Ġevolution ary
er ts
Ġl ying
Ġreg ent
Ġprim itive
Ġcasual ties
s l
or ig
Ġgener ic
Ġtom my
Ġmt v
onso red
Ġpl ug
ah a
Ġleg ally
Ġrece iver
Ġs essions
Ġp ounds
Ġind irect
Ġhol low
Ġeth ical
Ġhem isph
Ġru f
Ġinteract ive
Ġwag ner
Ġb ast
Ġl uck
qu et
Ġvol cano
Ġf ires
Ġj el
Ġpart ement
Ġname ly
Ġcle ment
Ġprevent ed
Ġorient ation
Ġfle w
ater al
Ġdivers ity
Ġh th
Ġsp ite
Ġin hib
ar ks
Ġse as
Ġlicens ed
l eng
Ġm ak
Ġpure ly
Ġoak land
Ġs ag
Ġvo ices
Ġconfig uration
f urt
Ġgener als
Ġmult ilic
Ġb j
Ġsp onsored
Ġrad i
ense with
Ġbul k
Ġmultilic ensewith
Ġmultilicensewith cc
Ġis n
Ġinnoc ent
Ġf ond
on ing
Ġed itors
Ġattack ing
Ġere cted
g ent
ir y
Ġsn ake
asc ar
Ġbos nia
Ġma o
Ġwinds or
restr ial
Ġmar ion
yl um
Ġs ard
Ġd aw
Ġrank ing
Ġstra it
Ġrecon c
Ġtelesc ope
r us
Ġa ven
Ġg ol
Ġtrave lled
Ġpet e
Ġh m
Ġle ap
Ġgen es
Ġg ast
Ġreal ized
Ġparad ise
Ġs ink
Ġinc omp
Ġab ortion
Ġmin erals
Ġhol idays
Ġin land
Ġv h
Ġtrium ph
Ġform ats
Ġhelp ing
Ġcapital ism
Ġrout ine
Ġtransform ed
Ġmon etary
Ġland mark
Ġer n
s d
Ġk itch
Ġac r
Ġelabor ate
Ġw re
ou x
Ġgen res
yl an
Ġmac intosh
Ġwarri ors
Ġinter val
Ġent ities
Ġbachel or
Ġdis l
Ġpot entially
Ġsusp ic
Ġm l
Ġimp osed
Ġsket ch
p al
Ġbut t
Ġmag ical
Ġprot o
Ġcirc uits
Ġaccompl ished
w alk
Ġal g
Ġequ il
Ġsuper h
Ġhapp ens
Ġg iov
Ġde ce
Ġout do
Ġvol can
Ġhosp it
Ġtob acco
Ġpredecess or
is ch
at ers
Ġch and
Ġext ending
Ġcyl inder
Ġe ternal
ach i
Ġom n
Ġcul min
Ġcon form
f ly
ar re
Ġhar vey
Ġvide os
Ġaud iences
Ġunemploy ment
k k
Ġcompet ing
Ġlux em
Ġb ren
Ġfr aud
Ġlo ved
Ġcart oons
r ont
Ġn m
Ġcent res
Ġreg ulation
Ġc af
ter ior
Ġbr us
Ġsc ores
Ġphr ases
Ġpos th
Ġbreak s
Ġpick ed
Ġdismiss ed
Ġvol unt
Ġflo ating
Ġn ass
Ġn hl
Ġter rain
Ġsail ed
r age
Ġan ger
Ġwat son
re ction
Ġre ward
au er
Ġdiv ide
Ġbelong s
it us
og ne
Ġbel arus
Ġnap les
Ġinse cts
Ġabbrev iation
Ġd b
Ġr ican
Ġas p
Ġmart yr
Ġprec ip
Ġk ath
Ġtit an
Ġdefe ats
Ġis t
Ġles b
Ġb ak
Ġpres by
Ġev ac
Ġjohan nes
Ġst ating
Ġar sen
Ġhar per
Ġphys ically
Ġadvoc ates
v s
op al
Ġfe e
Ġperson ally
so le
Ġph ant
Ġwork er
orm al
Ġinher it
Ġhol mes
Ġcirc ulation
Ġreport ing
Ġven d
Ġt ension
Ġexplos ive
Ġpresum ably
im p
ell ar
Ġoccur ring
Ġe cho
ul k
Ġbl ake
Ġbeh alf
is ons
em ia
Ġup r
Ġru ins
Ġtrave lling
Ġaer ial
Ġmar ath
Ġab orig
Ġhel ps
Ġbene ath
Ġanat omy
Ġforb idden
Ġrep air
Ġdef ines
Ġnational ism
Ġadop t
Ġrebu ilt
Ġl one
Ġpers ia
ash a
Ġsubur ban
Ġf les
Ġme ter
Ġlegit imate
Ġch ains
Ġval ent
Ġfest ivals
Ġr ally
Ġconcer ts
o ard
Ġker nel
is ive
ap or
Ġwor se
Ġcapit ol
Ġch el
Ġinter cept
ep ing
Ġest ates
Ġbul g
Ġrestr ict
Ġcustom er
Ġpract ition
Ġox id
Ġmanufact ure
Ġsubst ances
Ġfeel ings
Ġ ich
Ġch ase
Ġgre gor
Ġtre m
Ġaccount ing
Ġtal ks
Ġconsec utive
u ki
Ġrh et
Ġwid ow
Ġrespond ed
Ġar ctic
Ġab el
Ġarg ues
Ġast rol
Ġpl acing
Ġspec ulation
Ġwars aw
g reen
r ough
t or
Ġarm or
Ġinit iated
Ġtim ber
Ġl on
um ed
oc y
Ġsiz es
m atic
ig u
Ġr ays
Ġtr io
Ġmyster ious
Ġst all
Ġad rian
u ine
Ġma z
Ġant ib
Ġtest ed
u th
our t
Ġmon k
Ġdocument ed
Ġpredomin antly
Ġman ch
Ġmuseum s
es es
Ġjo ke
Ġlast ing
Ġbo ards
Ġcan yon
Ġaccept able
Ġf bi
Ġb alk
Ġman aging
Ġrel ativity
Ġs ak
Ġn ode
Ġsent enced
Ġm ing
Ġm ph
Ġg aining
Ġsp encer
Ġbom ber
Ġluther an
Ġh are
Ġact ively
Ġir reg
Ġastronom ical
Ġpreserv ation
in ery
Ġe ph
Ġbro oks
Ġdies el
Ġdown load
Ġs op
Ġappl ic
Ġb b
Ġres erves
Ġamer icas
Ġcy ber
Ġdefin ing
y ers
Ġview ers
Ġfinal s
c ock
Ġd well
te xt
Ġsol ve
Ġcla ude
is ible
or p
Ġmus h
Ġent ers
Ġtro y
Ġf iber
Ġfe ver
Ġvul ner
Ġexp elled
Ġtele graph
Ġrespect ive
Ġthro wn
Ġbre w
Ġpock et
Ġirreg ular
k rit
Ġd ylan
Ġk as
Ġbattal ion
Ġplas ma
Ġn h
Ġgather ing
Ġd ent
Ġtur ks
Ġe man
Ġpost s
Ġaddress es
su ing
Ġapart ment
k ing
Ġproport ional
Ġal k
Ġk ra
Ġdark ness
ill er
iz ers
Ġtell ing
sp ace
Ġsuppl ied
Ġrevel ation
Ġhor m
Ġac ids
Ġbar cel
Ġod ys
Ġsculpt ure
Ġm im
Ġe z
Ġcommun ism
g io
Ġl ig
Ġmo ck
Ġorgan isations
Ġmisc ell
Ġw ed
Ġh ond
ug u
Ġsocial ism
Ġtour ing
Ġencounter ed
Ġtotal ly
Ġagree ments
Ġc ec
Ġgu ild
Ġmass es
Ġaccess ed
Ġin ex
osph ere
Ġgrav it
Ġsail ing
Ġjudg ment
Ġl ing
ub a
Ġpoor ly
Ġk ai
Ġman uel
Ġide ology
Ġp av
Ġd ame
Ġse ized
Ġsymb olic
Ġcinc inn
Ġbr ass
o z
Ġso y
Ġcut s
Ġclos ing
Ġpros pect
Ġw ick
ab a
Ġany where
Ġsacr ific
Ġch ocol
Ġfree ly
Ġdur ation
Ġcol ours
Ġafter math
Ġatmosph eric
f ight
is ers
an us
Ġn inth
Ġman n
Ġca o
Ġpian ist
Ġiniti ative
Ġeug ene
Ġacc ent
Ġmaver ic
Ġk re
Ġplat inum
Ġlis a
Ġrest ore
Ġcroat ia
Ġsans krit
Ġse b
th etic
Ġinc om
Ġher ed
Ġprotest s
Ġcompr ised
Ġcondem ned
Ġcivil ians
Ġnight s
Ġlect ures
pie ce
Ġb iz
Ġwhen ever
Ġant icip
m ation
v ised
Ġver te
Ġorg ans
h ed
Ġf f
ol ith
Ġch orus
Ġsk ull
Ġcroat ian
Ġbe au
Ġdis appeared
Ġgr im
Ġmid night
Ġgrand e
Ġth ames
on ed
Ġpro xim
Ġsoc i
Ġchemical s
ile y
Ġdist ances
Ġpresent ation
Ġsand y
Ġmoroc co
u y
am ine
Ġnephe w
Ġh iv
Ġg m
Ġover lo
Ġut ility
Ġcommod ore
Ġing red
o int
Ġto w
um s
Ġmet als
Ġprev al
Ġmic key
Ġwhe els
Ġcook ing
Ġsign ing
Ġasse ts
Ġpleas ant
z ig
ov ich
Ġexc av
Ġgather ed
Ġkenne th
Ġcons ul
Ġalgebra ic
Ġposth um
Ġk b
Ġbr un
Ġmer it
Ġphill ips
Ġl il
st ar
Ġcon sole
sh e
Ġassum ption
Ġgu ided
Ġo ath
as se
Ġgu id
Ġsurf aces
Ġp all
Ġn ad
ac on
o ge
Ġpar ade
Ġconst ellation
Ġfar ms
Ġcham bers
Ġfoss il
Ġr ating
Ġabsor bed
Ġsubd iv
c ase
Ġcare fully
Ġsole ly
og ical
Ġmet ab
Ġimm un
Ġalbert a
Ġuncle ar
Ġd uc
Ġtechn ological
Ġpot ato
Ġf landers
Ġeurope ans
Ġcro p
Ġow en
h older
Ġt il
Ġst ops
Ġdu kes
Ġreb els
Ġcrus ade
Ġpercuss ion
Ġra j
Ġcorre l
Ġalb anian
Ġfar mer
cast le
Ġheart s
Ġinj uries
Ġnut r
Ġvlad imir
Ġbo ost
Ġcre ature
Ġthr ust
Ġpract iced
Ġch es
Ġch uck
Ġpre y
ild ing
Ġcalcul us
Ġadvant ages
Ġnickn amed
Ġdispl ays
Ġn ur
Ġsu ite
Ġconserv atives
Ġclar ke
Ġg ains
it ted
Ġinst ances
Ġreform ed
Ġp end
Ġz oo
Ġencour age
Ġplatform s
Ġcogn itive
Ġre x
Ġsp elled
om i
Ġconqu er
Ġt ick
Ġsyn chron
Ġlingu istics
Ġderiv ative
Ġenh anced
d b
is se
Ġv ine
Ġwes ley
Ġmonth ly
Ġremov ing
g am
Ġb ust
Ġor i
Ġrel atives
Ġcam b
Ġspir its
Ġkur t
Ġtw ins
ame ters
Ġger ald
Ġbomb ard
Ġindic ating
Ġorient al
y d
ir i
Ġbur ton
Ġprom oting
Ġdetect ive
Ġt ent
Ġlay out
Ġaar on
ke es
Ġpol es
Ġreason able
Ġres erved
Ġsc ope
Ġdisc ontin
Ġexper ts
Ġquart et
Ġacou stic
Ġequil ib
z an
Ġtr in
Ġgl ou
Ġcirc us
ur ai
Ġille g
is y
Ġpr ix
Ġmar gin
Ġcontrib ute
ab ad
Ġcl ause
Ġtrib al
Ġaggress ive
n ut
Ġm asc
ob e
Ġhop ed
Ġmo od
Ġpl a
Ġp ond
or ship
Ġev ol
Ġpal mer
Ġphilipp ine
or um
Ġchap ters
h ist
Ġpir ates
Ġpart ition
Ġopportun ities
Ġgiov anni
Ġd as
Ġign ored
Ġep isc
ps ons
Ġcru iser
b ard
l ist
es ia
Ġbl ast
Ġfamous ly
Ġta o
Ġchar ity
Ġconf ront
Ġcouncil s
Ġmechan isms
Ġrat ings
Ġemb ass
Ġspec ification
Ġarchitect ural
Ġexpand ing
Ġenab led
w r
Ġx v
Ġsteven s
Ġm ature
Ġethiop ia
ig ible
Ġbe ast
mar ks
Ġswitch ed
Ġobvious ly
Ġhomosexual ity
Ġvenezuel a
Ġelectromagnet ic
Ġsc o
Ġatl as
Ġbudd ha
Ġmond ay
Ġbarcel ona
Ġpleas ure
Ġinfer ior
Ġcomprom ise
Ġcincinn ati
b en
Ġf ug
Ġreg ist
Ġhonor ary
Ġgib son
Ġhein rich
Ġhierarch y
Ġh end
Ġfil ed
Ġmod es
Ġport al
Ġcorpor ations
Ġpyr am
Ġbabyl on
Ġman age
Ġkn ot
Ġsur name
Ġmilit ia
Ġinterse ction
Ġplayoff s
Ġchem ist
Ġcontract s
Ġcompar able
Ġastronom er
Ġcamer as
Ġglou cester
f an
Ġthir teen
Ġaccompl ish
Ġk un
Ġco ven
Ġcel est
Ġle ather
Ġt une
Ġr ut
Ġr amp
ul ations
Ġwebs ites
Ġplate au
Ġcl if
Ġdem ons
t ec
Ġs es
Ġd up
Ġad equ
Ġfun k
Ġcra ig
Ġe ul
Ġk ash
Ġob so
Ġmur phy
Ġenl ar
Ġecl ip
Ġt ough
Ġn ull
Ġinc arn
Ġpl ates
Ġpr air
Ġout come
Ġed gar
Ġinform al
Ġdio xide
Ġh ij
Ġwh ale
Ġne arest
Ġphys iology
Ġorb ital
Ġnerv ous
ud a
Ġd art
Ġham pton
Ġapproxim ate
Ġo c
Ġr av
Ġmo du
Ġcap abilities
Ġdo om
Ġiron ically
Ġlight ing
Ġc ay
Ġsh og
Ġmon ks
ss on
Ġliber als
Ġpaper back
Ġvirt ue
Ġtempor arily
Ġo re
Ġcommun ists
Ġcorn wall
Ġresign ation
Ġbrus sels
t v
Ġsim psons
Ġdesc ended
Ġweek end
Ġhan over
e enth
Ġth ai
Ġestablish ments
Ġwave leng
Ġtraged y
z on
Ġc ig
am o
Ġcommerc ially
Ġcorrespond ence
Ġevange lical
Ġcolum ns
Ġm k
Ġcar th
Ġbarr ier
k ind
Ġk ap
Ġgl enn
nes ian
Ġfund ed
Ġdol ph
f a
Ġprecise ly
on na
Ġin verse
Ġbo re
Ġdef ended
Ġsud an
is a
Ġd ion
um i
Ġres on
Ġco b
Ġass yr
ai ro
Ġsit com
Ġul ster
l ass
im ony
Ġmeas uring
Ġath e
Ġukrain ian
Ġupr ising
Ġst raw
Ġcar b
Ġunder graduate
Ġsil k
Ġsadd am
Ġdig est
Ġdoct r
Ġmembr ane
p ers
ang es
Ġgal ile
Ġtreas ury
Ġelim inated
Ġcloth es
h op
Ġsw amp
Ġarab s
Ġcl ick
ell i
Ġab u
Ġassist ed
h all
u ania
em ann
Ġsub m
Ġvolunte ers
Ġhigh land
Ġcr an
a an
Ġpeters burg
re cht
Ġtop ology
Ġconcept ion
Ġask ing
Ġunc on
organ ized
Ġarbitr ary
Ġmo or
Ġmor mon
Ġball s
Ġcru z
Ġin eff
el i
pp e
Ġresp ected
en stein
Ġlith uania
ero g
ol y
Ġbirth place
Ġce o
Ġord in
Ġmathematic ians
Ġpresby ter
anc a
Ġalb any
edd ed
m us
Ġl au
Ġharv est
Ġvik ing
Ġn aked
Ġg az
Ġmoment um
Ġaccl aimed
Ġqu ote
Ġval ve
Ġmodu le
Ġa j
Ġd x
Ġec ology
Ġdur ham
Ġcompil ed
g ue
Ġs aga
or der
Ġh ate
Ġch en
ess a
Ġart if
Ġnucle us
Ġbritann ica
Ġply mouth
o ter
Ġun de
Ġce ase
Ġvac c
Ġinterch ange
og an
Ġser vers
abul ary
re ats
Ġben nett
Ġf ount
Ġn un
Ġmin ne
Ġlo ren
Ġhop kins
Ġmeasure ments
Ġcru el
Ġd ome
art e
Ġpe pper
Ġlou d
Ġrecre ation
Ġtem ples
Ġnaz is
Ġpreced ed
in as
ur st
Ġen se
Ġdeal t
Ġdivor ced
y g
Ġsc ales
Ġdist urb
Ġvol s
Ġs aving
Ġcap ability
Ġcompos itions
Ġpyth on
Ġdepos its
Ġetym ology
Ġobso lete
Ġsc al
Ġexp ense
Ġdiagn osis
Ġf are
Ġin ev
ero me
Ġtub es
Ġmanusc ripts
Ġincom ple
it ic
Ġgen uine
Ġimp ressive
Ġtrib ut
Ġattrib utes
Ġpul led
Ġcorrect ly
Ġrequest ed
Ġaware ness
Ġtort ure
Ġgen ius
Ġsw an
Ġj ail
Ġch ips
Ġprop onents
Ġcalcul ated
Ġancest ry
Ġlod ge
Ġb m
Ġan a
aff e
Ġsepar ately
Ġassass inated
Ġpurs ue
Ġlen in
Ġsemit ic
nat ural
Ġsp ear
Ġrel uct
Ġgovernment al
Ġtem p
Ġur anium
Ġprogramm es
Ġern st
Ġchocol ate
ab e
Ġcommand s
m aker
ed es
Ġy uan
ph is
Ġprov isions
Ġment ions
Ġhaz ard
Ġsophistic ated
b ie
Ġknow ing
Ġsod ium
Ġcruc ial
Ġvamp ire
ous es
Ġmal ay
Ġreact or
Ġdynam ics
Ġto dd
ul ates
Ġevery day
Ġh r
ich i
Ġx en
Ġarr ive
Ġviol ation
Ġt icket
Ġs ask
Ġman it
Ġexhib it
l ide
Ġsp a
Ġir ving
Ġhemisph ere
o que
al ous
Ġst abil
Ġs inc
Ġv il
Ġpl um
Ġcol lo
Ġmid d
Ġo ph
Ġn p
ic ular
Ġr ider
Ġextraord inary
Ġf res
Ġr s
Ġcompet itors
Ġdisapp ear
Ġl ub
Ġres olved
Ġvill a
Ġhelicop ter
Ġf on
ult ure
Ġinternational ly
Ġquad r
Ġloose ly
Ġs g
ol ine
un ning
ad ic
Ġfr ust
Ġhel m
Ġham burg
Ġconnect s
Ġnit rogen
Ġby r
Ġinform ed
Ġath lete
Ġenviron ments
Ġscholar ship
Ġproph ec
Ġkilomet res
Ġsp her
Ġrel ax
Ġmix ing
Ġp asc
Ġr az
col m
Ġcoun sel
Ġy ang
Ġmission ary
Ġdram atically
Ġar agon
Ġabol ition
Ġdeliber ately
Ġr ust
Ġq ing
Ġww ii
Ġpain ters
b ing
il ation
Ġgre ene
Ġfact o
Ġdomin ican
Ġconsist ently
Ġobserv atory
wa it
Ġvolcan ic
Ġto t
Ġfl ame
Ġtam il
Ġfrag ment
Ġm am
l ance
as is
Ġir re
Ġcateg or
Ġcompr ises
iz a
Ġfe ast
Ġang les
Ġrepublican s
Ġexcess ive
Ġannex ed
Ġn ancy
Ġsix teen
Ġthough ts
Ġcelebr ity
Ġsal em
Ġsalv ador
Ġdeploy ed
Ġguar ante
Ġp to
Ġg und
Ġst a
Ġinf amous
Ġsem ic
Ġw art
Ġr p
ir able
Ġwe aken
Ġcor nel
Ġtreat ies
Ġpossess ed
Ġanten na
Ġun st
Ġgr a
ik er
Ġpa wn
Ġconj unction
Ġbrill iant
ne ys
Ġz ones
em a
Ġar d
ish n
Ġfre ight
Ġeconom ist
bo oks
Ġsqu ares
Ġattract ive
h ow
Ġg es
ad vant
Ġdef ault
fr ont
Ġtouch down
Ġcert ific
Ġre ly
ia e
Ġar ithm
Ġrem ix
Ġder by
Ġlif estyle
Ġduch ess
Ġt ended
Ġh od
ring ton
Ġarist otle
Ġacknowled ged
o i
ig ious
ul ator
Ġmicro sc
Ġplat o
in ating
Ġk au
Ġv ag
Ġbw v
Ġcost a
worth y
Ġancest ors
Ġaffil iated
Ġequilib rium
b ase
c ia
Ġan onymous
ig g
Ġprec ision
Ġmotor cy
Ġsubmar ines
Ġm cl
ent ric
Ġimport s
Ġq ur
Ġbank ing
Ġmist aken
Ġmal colm
Ġtrave ling
Ġemb edded
h old
Ġr ape
Ġath en
Ġosc ill
Ġwithd rew
Ġdecre ase
Ġsi ber
Ġv iv
Ġprot agon
Ġtal mud
Ġtr am
Ġhas h
Ġtur bo
Ġsusp ension
Ġwish es
Ġdiscrim ination
Ġexpress ions
j or
Ġe k
Ġdis advant
Ġavail ability
Ġas ks
ur us
Ġem igr
Ġret ro
im er
Ġgre ens
Ġac ute
Ġread ily
Ġtrave led
Ġfaith ful
Ġscre ens
re ls
Ġp ing
Ġbl air
Ġinter ference
e on
Ġkey boards
Ġwithdraw al
Ġst atic
Ġde ity
iv ism
Ġbeach es
Ġobser vers
Ġsynt ax
Ġs abb
Ġent rep
Ġtheat rical
Ġmonopol y
Ġfound ations
Ġdiscuss ions
se in
Ġdo zen
Ġdesc riptions
Ġequ ator
Ġproceed ings
at ical
ang a
Ġdisc rete
Ġback ing
Ġhop es
Ġg ore
Ġst uff
Ġj in
Ġab oard
Ġent ries
Ġend e
o ire
Ġm ou
Ġrev ived
Ġpay ment
Ġmem ories
Ġgl oss
Ġf athers
Ġj en
Ġmod ification
Ġbus es
Ġjournal ists
Ġn in
Ġeditor ial
Ġsport ing
Ġsask at
Ġw ax
Ġmar ines
uck er
s ki
ik es
r ied
Ġc yn
Ġwh is
Ġcatholic ism
Ġtact ical
Ġre yn
Ġtren ds
Ġeccles iast
Ġgar rison
Ġseem ingly
Ġfact ion
Ġrad ius
Ġbi as
Ġpeace ful
Ġdocument ation
Ġforg otten
Ġis h
rib le
Ġindu cted
Ġmiscell aneous
Ġa in
Ġpr oud
Ġcons iders
Ġcomb ust
Ġuncom mon
Ġshan gh
v as
Ġdr ain
rop y
Ġpay ing
Ġwel come
Ġathlet ics
Ġinduc ed
Ġarithm etic
Ġpr ague
Ġrel i
Ġo ber
es a
Ġpr c
Ġdis gu
Ġsacr ament
Ġeleph ant
g un
Ġb ing
Ġal c
Ġfl oyd
Ġperiod ic
Ġstre ams
Ġt amp
ons c
und y
Ġfrag ments
r ams
ant on
h aus
Ġmon ten
Ġsimilar ities
ym es
Ġcitizens hip
Ġwor m
Ġchronic le
Ġin k
Ġbut ton
Ġcontro lling
Ġenc ry
be k
Ġactiv ists
Ġdestro ying
Ġw izard
le e
Ġport able
Ġpriv y
l ore
od ia
Ġcontinu ity
Ġchronic les
Ġdwar f
is cher
ir l
Ġlight er
h art
it ated
Ġg an
ro cess
Ġshe ph
Ġpos it
Ġprop riet
ol ia
ist ence
Ġne s
Ġexp end
Ġelect or
Ġnow ad
Ġer ie
zh ou
Ġw are
Ġm ull
Ġapp ar
Ġprocess ors
Ġpred icted
Ġpret ty
c ard
Ġcr om
Ġunic ode
Ġluxem bourg
Ġnowad ays
b age
d es
Ġa a
ib an
Ġout s
Ġco x
Ġdro ve
Ġse an
Ġman eu
Ġrel ie
Ġac re
Ġhell en
Ġsalv ation
Ġne ur
Ġconc erto
Ġgravit ational
e b
Ġt z
Ġmo ist
Ġvis its
Ġfit ted
ut ors
Ġcell ular
Ġweb ster
Ġspeak s
Ġse ga
Ġinterpret ations
Ġf us
ur d
Ġmar ble
Ġsouth eastern
Ġreve al
Ġt c
Ġan x
Ġal ly
Ġfr action
Ġintro duce
Ġdefe ating
Ġabbrev iated
Ġbicy cle
Ġhered itary
Ġm otto
Ġsh ots
Ġatt ending
Ġtro phy
Ġhost ile
Ġfrank furt
Ġhealth y
h and
m ail
Ġint ensity
app a
im on
Ġinc red
Ġwell ington
Ġpublic ity
Ġevent ual
Ġreform ation
ri us
ro ject
Ġag r
ru p
Ġfast est
Ġchalleng ed
Ġconson ant
Ġlenn on
Ġbulg arian
Ġm are
Ġsh apes
ach es
Ġpar ameters
Ġmy stic
Ġmor rison
Ġber ry
Ġdiff ers
Ġmagn us
i ere
Ġrem n
Ġmod est
Ġprovision al
pl us
Ġze us
Ġpow der
ar u
Ġrep orter
Ġyah oo
Ġoverwhel ming
b ane
Ġp ose
ic ia
Ġman or
Ġol ive
Ġplay wright
Ġf en
Ġdu pl
r ians
Ġsuff ix
Ġp ipe
ig ue
pt ions
Ġlou ise
Ġconsum ers
Ġshall ow
Ġb ip
Ġassoc iations
Ġimm ense
rel ated
Ġdenomin ations
Ġdes per
Ġbound ed
Ġneighbour ing
Ġbel le
Ġla f
Ġarrange ments
Ġentrep rene
x y
Ġelev ated
Ġprohib ition
Ġassoci ates
at ur
Ġbo ot
Ġassemb led
Ġneu ro
Ġbrows er
h al
us a
ro ck
Ġw ore
Ġd s
se tt
ell s
Ġfle m
Ġjurisd ictions
Ġm au
Ġcon ve
Ġmar l
Ġlo aded
Ġarr iving
Ġrh ode
Ġconvers ation
Ġweak ness
Ġrecre ational
Ġrab bit
Ġenlight en
z ing
Ġperform er
se xual
ch ild
Ġnew ark
Ġd anny
th ood
ap ing
Ġcr ater
ost ic
Ġautonom y
Ġt enth
Ġar ise
Ġgr aves
Ġruss ians
Ġlank a
Ġmem phis
ann on
Ġpra ise
Ġphant om
Ġfles h
n otes
Ġep id
enh agen
ynam ics
Ġn ia
bo at
Ġmap le
Ġc v
is an
Ġste ep
Ġequ ality
pect ed
Ġcho ir
Ġwikip roject
Ġwatch ing
Ġr ated
Ġr ach
Ġwh ites
Ġcon rad
Ġpurs ued
b ound
at l
Ġfor k
Ġr ises
Ġk ol
Ġj ess
Ġbar rel
Ġcorrespond s
Ġcosm ic
Ġqu it
Ġpat ric
Ġarc ade
Ġdetermin ing
Ġcl ash
Ġsid ney
Ġpto le
ard ed
Ġspe e
Ġsomewh ere
Ġvisc ount
Ġa ub
Ġnorth eastern
Ġprot oc
Ġchief ly
Ġqual ities
Ġlith uan
Ġschem es
ah u
Ġant o
Ġ eros
Ġp orter
Ġj ak
Ġclass ics
Ġc in
Ġp g
ro id
Ġbr ings
Ġts ar
k ir
l ies
Ġt ir
Ġu z
Ġaf tern
Ġnorth western
Ġsec ured
Ġcritic isms
Ġp and
st ock
Ġwin ston
Ġmath rm
Ġsent ences
Ġrain bow
Ġpropos als
Ġstrateg ies
at ics
Ġpriv at
Ġseb ast
or ms
Ġl omb
Ġunder w
Ġcompet itions
Ġprevent ing
Ġprep are
Ġandrew s
Ġvent ure
Ġro chester
Ġvill ain
ug g
Ġprof ound
Ġabs ent
Ġsett ings
Ġcontem por
Ġs f
Ġch ad
Ġdec omp
Ġpat ch
Ġappe als
Ġell ip
Ġc res
Ġr as
Ġk een
um en
ent er
Ġover come
Ġed ges
Ġimm une
Ġsymmet ry
Ġscat tered
Ġr fc
Ġbar oque
Ġfolk lore
Ġbed ford
Ġmolec ule
Ġaccord ance
Ġz u
ul in
Ġun ification
Ġy uk
ell es
Ġp iz
Ġcon ceived
Ġmon key
Ġbro w
Ġbroad c
Ġbin omial
Ġprair ie
r and
Ġsp ont
Ġfe eding
Ġsav age
Ġfoun ders
Ġcher ry
ne um
or se
iss a
Ġfull er
Ġsuggest ing
at em
am oto
Ġle agues
Ġmay a
Ġfilm ing
Ġsil icon
Ġcatal an
Ġfavour ite
Ġtheolog ian
ok o
Ġco eff
Ġlesb ian
Ġc i
ic ke
Ġd iving
Ġde letion
Ġcol in
Ġdec imal
Ġgym n
c os
e an
Ġth reats
Ġbattle field
Ġenthus i
Ġenlighten ment
p it
Ġmus cles
Ġsub mitted
Ġla ura
Ġid ol
Ġther m
Ġprohib ited
k el
Ġc umberland
Ġw end
Ġbr ack
Ġed s
ator ies
lin ing
Ġadvoc ated
Ġproxim ity
ul ous
ins ky
Ġopen ly
Ġlyn ch
Ġtreas ure
Ġresemb les
Ġy o
Ġnew castle
Ġsc ro
Ġadv ances
Ġho ok
Ġflow ing
Ġmaced onia
Ġgeoff rey
Ġp ius
Ġdes kt
Ġbapt ism
u ka
Ġc ly
Ġh ale
ish i
Ġemerg ing
Ġt t
Ġbe ating
Ġfr uits
Ġconsider ation
ad i
Ġeat en
Ġplay station
Ġgl uc
Ġsil ence
Ġsam urai
Ġprotect or
Ġdepart ed
Ġg ases
Ġx iv
Ġbad ly
Ġdetermin ation
Ġvolunte er
Ġcraw ford
Ġm aker
ave l
Ġcop enhagen
Ġdemonstr ate
Ġn l
us ters
Ġhus sein
Ġbet ray
Ġblood y
Ġluc y
Ġl ots
Ġch im
Ġsuper f
Ġreflect s
Ġbuck ingham
an im
ou ds
Ġj ets
au kee
Ġsouth western
Ġshangh ai
Ġd ign
id ian
Ġby pass
Ġhigh lands
Ġsub tle
Ġair plane
Ġel vis
Ġsubsid iary
et ically
Ġcontinu ously
Ġgoddess es
Ġhabit at
Ġminne apolis
Ġcomp ass
in os
em pl
Ġpurs uit
Ġh ed
Ġj i
Ġpar as
Ġes per
Ġsuperh ero
Ġon wards
Ġtr ag
Ġrele asing
Ġp add
ill on
Ġx ml
Ġincomple te
at ar
Ġr ah
Ġconc ur
Ġcatal og
am ation
Ġjew el
Ġarmen ian
Ġaborig inal
f ted
Ġe ch
Ġk em
Ġpet ition
a o
Ġmach inery
Ġguit ars
Ġnash ville
Ġcollo qu
Ġp our
Ġh ort
Ġfa q
Ġlimit ations
osl ovak
Ġs as
Ġbe ef
ib al
lo o
ili ary
p y
Ġbr is
Ġvis itor
Ġjul ia
Ġquar ters
Ġseg ments
Ġarm our
Ġapproach ed
Ġmist ake
Ġconven ient
Ġaxi om
d an
Ġcom et
Ġbl ess
Ġdevelop er
writ ers
Ġsher man
Ġczech oslovak
Ġsufficient ly
Ġbasil ica
Ġunex pected
Ġgr af
ond e
Ġlater al
Ġhab sburg
Ġcoord inate
Ġbe a
Ġdev on
Ġdi ary
ria ge
Ġscreen play
Ġbelong ed
Ġhindu ism
Ġjama ica
es ian
Ġro ok
Ġrig id
Ġn j
Ġn im
Ġdep r
Ġtrad ed
Ġchamber lain
m ate
Ġcd ot
Ġrock ets
Ġfel ix
Ġmax well
en et
Ġle an
Ġinter v
aus s
Ġastero id
Ġsp er
Ġinc idents
Ġpass ages
Ġstol en
ad os
Ġgeor ges
Ġcame o
Ġmemoir s
Ġcomb inations
Ġsubstant ially
Ġjung le
Ġoutdo or
ar ms
ig uous
Ġfilm ography
Ġcour age
Ġreason ing
Ġeval uation
in ia
ag i
ec a
ur ia
Ġne ts
Ġcount ing
Ġge ology
Ġachieve ments
Ġinv isible
Ġorgan ised
Ġcare ful
Ġintro ducing
Ġbom bers
Ġnort on
s i
ut z
Ġsoc iology
Ġfight s
Ġprofession als
Ġst ub
anch e
Ġinsc ription
Ġprotoc ols
Ġt iber
Ġnew port
ach ing
Ġimport ed
Ġcollect ing
Ġd m
Ġsm oking
Ġl ak
ac ies
pt ed
Ġso x
Ġtra its
gr ave
Ġcy cles
Ġkr ist
Ġbac on
Ġadvert is
Ġrefle ction
el t
Ġprior ity
Ġloyal ty
Ġavo ided
Ġadd s
Ġban ner
e it
Ġt rench
en y
Ġp ace
sh ev
Ġli u
is i
Ġess ence
Ġow ing
k ov
Ġtro op
osh i
Ġslow er
Ġka ren
Ġpengu in
Ġacr onym
et us
Ġman agers
Ġdun can
Ġveget ables
b acks
g ence
Ġre y
Ġher man
Ġnob les
Ġacqu isition
Ġans wers
Ġcatal y
Ġguid ance
Ġc ure
x ts
Ġrese mble
Ġcy p
Ġfocus es
Ġsig ma
Ġcamer on
Ġleop old
Ġrecur ring
ab y
Ġcra zy
Ġunp op
Ġepisc opal
in ians
Ġch op
Ġall an
Ġfe ared
Ġinter ven
Ġed win
Ġshif ted
x i
y p
in te
Ġcon verse
et e
Ġfin est
Ġult ra
c ott
Ġt ier
Ġang ry
Ġmel an
Ġassum ing
Ġd d
Ġwor cester
man ia
al id
Ġtr ap
Ġcount ed
Ġher mann
Ġmon uments
Ġbas que
Ġa ided
Ġl ia
Ġcl ients
Ġsl ip
Ġown s
Ġsum mon
Ġsynth etic
Ġstead y
Ġgand hi
Ġrepe at
Ġchalleng es
Ġende av
Ġe ase
Ġg ut
Ġen able
Ġstr ips
Ġcomb ine
Ġdomin ion
Ġvoc abulary
Ġdemonstr ation
Ġalleg ations
Ġmetaph ys
ol in
Ġam mun
Ġsy rian
Ġdef ending
Ġstat ute
Ġfier ce
tw ork
Ġsuccess ive
Ġra ids
Ġhard y
Ġbig ger
Ġsatell ites
Ġf og
Ġh anc
Ġbor ne
Ġben z
on ium
Ġw eld
Ġse ct
Ġor land
Ġle p
Ġstr and
Ġdest iny
Ġmel ody
Ġconstit ute
Ġamph ib
w id
Ġze pp
Ġfootball er
Ġthe sis
Ġad mit
Ġkn ife
Ġtrans m
Ġlaw yers
lect ric
Ġken ya
Ġsucceed s
u ana
ter a
Ġman ila
Ġcomb ining
Ġgar ner
Ġexerc ises
Ġfir ms
Ġrenew ed
Ġlamb da
Ġh ail
Ġd op
om ach
Ġg t
Ġre duces
Ġbr y
Ġapp lying
Ġins ert
Ġb ord
Ġco ch
io let
Ġhand book
Ġfoot age
set te
Ġalternative ly
l ich
le an
der son
Ġus d
Ġserv ant
ob ia
Ġhur t
Ġdetect ion
Ġm ell
Ġh atch
Ġins ult
Ġreve als
Ġtun is
bro ok
m ia
op us
Ġmy ths
Ġauthor ized
Ġcast ro
Ġborrow ed
Ġc t
Ġal ps
el ia
Ġkos ovo
Ġclimb ing
g b
Ġstr ang
Ġsystem atic
Ġbu il
Ġyour self
h ov
ar row
Ġl n
Ġless ons
Ġfail ing
Ġguest s
Ġdeskt op
Ġc ic
al on
Ġbang l
Ġlect ure
Ġknock out
Ġfour teen
ang o
Ġsub ord
Ġsearch ing
Ġsculpt or
Ġinqu iry
Ġpregn ant
j et
r ics
is che
Ġd ere
Ġnational ity
Ġins isted
Ġbas ically
Ġten ure
Ġcub e
Ġargent ine
Ġcollaps ed
r ano
Ġp es
Ġst o
Ġimpro ving
Ġpatri ot
Ġun ch
qu est
Ġcar ne
Ġgrow s
Ġsail or
Ġcompil er
Ġmarx ist
Ġpl ague
Ġdis band
Ġgener ating
Ġhum ph
Ġfav ored
Ġalger ia
m id
Ġto oth
Ġcl ouds
Ġexec ut
Ġdraw s
Ġhell o
Ġdelay ed
Ġammun ition
f i
Ġp neum
Ġx ii
Ġrem in
Ġrain fall
Ġs its
Ġcommun icate
Ġfal con
Ġancest or
Ġpreced ing
Ġhe ated
Ġaccur ately
Ġhanc ock
Ġele g
Ġrel ay
Ġread s
r ill
u h
Ġde ar
ag n
Ġmin ds
tt a
Ġvict ories
Ġbroadcast s
Ġrang ers
r ik
ian ism
Ġfil ip
Ġpron oun
Ġnoun s
Ġcon e
Ġro th
Ġsub way
Ġphys i
Ġpoly mer
eg ro
Ġsh at
Ġeconom ies
Ġshar on
Ġargu ing
Ġp ike
Ġear n
Ġsal am
Ġfail s
Ġheavy weight
Ġsimpl ified
Ġfr ames
Ġsub group
Ġval ued
Ġfair y
Ġaim s
Ġswitch ing
Ġreconst ruct
o qu
Ġor ph
Ġam id
Ġsl ot
Ġskill ed
omorph ism
Ġobsc ure
Ġparam ount
Ġmonten egro
g ger
Ġaccording ly
Ġenter pr
Ġneighb ors
Ġhardc ore
Ġaftern oon
on al
Ġp ard
Ġn ie
ag ua
Ġab n
Ġest onia
Ġmal ta
Ġbad en
Ġced ar
Ġconson ants
b al
Ġj av
Ġwe ir
Ġmus c
Ġfact ories
Ġcanad ians
Ġdu o
Ġpier ce
Ġa ph
Ġb am
Ġm box
Ġhom eland
Ġdig its
Ġpeer age
Ġk ang
Ġj ab
Ġmac ro
Ġproceed ed
idel ines
Ġmetaph or
Ġcontroll er
Ġn aut
Ġtr aced
Ġalb eit
i ad
Ġre ef
Ġro dr
Ġlink ing
Ġorgan ism
Ġbelie ving
Ġmic rop
Ġmig uel
f ax
r ap
Ġw ives
Ġl d
Ġgregor ian
Ġg um
ro oms
Ġmo ss
Ġgu atem
Ġinteract ions
Ġassess ment
u ro
Ġre ception
se ts
Ġgu idelines
Ġspect acular
Ġamaz on
Ġbr ush
Ġsupp ose
che wan
Ġprec urs
Ġsho es
Ġdanc er
Ġmans ion
Ġniger ia
Ġunpop ular
Ġexpl ored
Ġdet ected
Ġpract ically
Ġfederal ist
Ġvit amin
Ġster ling
Ġembass y
Ġf alk
Ġst ap
Ġhe ating
Ġbusiness man
Ġsus sex
Ġjun k
omorph ic
Ġantiqu ity
Ġmemor able
Ġdep osed
l ia
Ġun related
Ġdisc l
Ġillust ration
im ar
Ġmc m
Ġencod ing
Ġapoc aly
e us
Ġr ams
Ġsc rew
Ġdo z
Ġfree way
Ġkle in
Ġsaskat chewan
Ġr c
Ġj erome
Ġsh am
Ġupd ate
Ġgon z
g ia
Ġk ate
Ġtr av
ak in
Ġsou ls
Ġep s
writ ing
l ights
Ġd iana
Ġor acle
Ġrender ing
Ġk ant
Ġv ie
Ġsc ripts
Ġput s
Ġrival ry
Ġar s
Ġsur real
stad t
Ġfing ers
an as
Ġter restrial
red ited
Ġwill ie
Ġgener ator
Ġsupp orter
bo ys
Ġciv ic
Ġbon us
Ġkn ox
Ġcur se
Ġtro ll
Ġneighborhood s
j ar
r ators
al is
Ġsh oulder
Ġem in
Ġview ing
Ġdin ner
Ġpre hist
Ġsuper natural
Ġinte gers
Ġdestroy er
Ġcardinal s
Ġdir ty
Ġpersec ution
Ġcombust ion
Ġbr yan
Ġdec isive
Ġeu gen
Ġsl ide
gh t
Ġdest inations
Ġlaws uit
oty pes
Ġc ipher
it ting
Ġind ies
Ġwar rant
Ġspec ially
Ġsl ash
Ġcommit ment
iform es
Ġdod ge
Ġceremon ial
in ks
Ġlat itude
Ġattend ance
Ġsleep ing
Ġnumer ical
il iation
th en
Ġst ur
Ġsp ots
Ġho ff
Ġdomin ance
Ġcele b
Ġsuff olk
Ġalco h
Ġrepro duction
Ġreserv ation
Ġpregn ancy
Ġgael ic
h eld
Ġ ers
ia go
Ġrh y
Ġnick el
Ġinherit ance
Ġp act
Ġperfect ly
Ġinnov ation
Ġceremon ies
Ġh ak
Ġtest imony
Ġmom ents
Ġstret ch
Ġalp ine
os aur
Ġam mon
Ġapp rent
Ġkaz akh
Ġcompens ation
Ġfr ig
Ġsu e
Ġpa ren
gen er
Ġclos ure
Ġpractition ers
l og
Ġc ott
ab i
Ġsw ords
Ġins ign
Ġmultipl ication
Ġe ther
Ġsi b
od s
Ġchief s
Ġrevers ed
Ġt ack
Ġw ished
Ġgen etics
Ġbus y
Ġku wait
Ġorland o
Ġn odes
Ġbe eth
ger ald
Ġkeep s
Ġgirl friend
Ġprest igious
f th
Ġhot els
Ġyan kees
Ġunder go
Ġcompos ite
Ġfitz gerald
l en
p ic
Ġp oker
im o
Ġsun set
e i
ro lled
Ġpe g
Ġt usc
er i
Ġth rew
Ġd ressed
Ġgu ang
Ġhum orous
Ġver bs
Ġten der
Ġri ots
Ġsurviv ors
ou ch
Ġem ir
Ġmon sters
Ġcast ile
Ġhonour able
Ġd ud
Ġr iv
Ġr ivals
Ġreg istry
Ġstrong est
Ġfasc ist
Ġ umb
Ġc ache
Ġh iro
ant es
gr ade
de z
Ġnic ar
Ġlyn n
Ġelim inate
an or
Ġl ions
Ġst ance
Ġmi kh
Ġoper as
Ġdesign ers
Ġdisp ers
Ġly on
Ġfert ile
Ġprompt ed
Ġt uring
ul ative
Ġlithuan ian
Ġpl aza
Ġpenn y
iff e
Ġsid ed
Ġcompr ising
Ġmarg inal
Ġincl usion
Ġcomput ational
Ġnutr ition
Ġmanit oba
Ġpe ers
Ġser p
Ġcar lo
Ġcommand ers
Ġski ing
Ġbeeth oven
Ġth ur
Ġy ak
Ġcl own
ust ed
ts ky
Ġconst r
Ġpost ed
Ġles lie
Ġdor othy
Ġfert il
Ġhe aling
Ġam bit
Ġmi k
Ġvers es
Ġlight house
Ġqual ified
Ġinnov ative
Ġveter an
Ġ iz
in ct
Ġdisc our
Ġsomet ime
Ġlack ing
Ġpul itzer
Ġimpl ied
Ġflex ible
Ġinterv als
Ġbe an
Ġal m
Ġtr aces
Ġma f
Ġben ch
Ġprevent ion
Ġpit t
Ġcool ing
Ġimprison ment
Ġc airo
at in
Ġam iga
Ġpre ference
Ġbu zz
Ġjour n
Ġhit ting
Ġadminist rator
Ġsant iago
Ġisol ation
Ġsyll able
Ġt ul
Ġal tar
Ġcl are
Ġsch war
Ġopt ional
Ġcelebr ate
Ġmerch ants
Ġbohem ia
Ġs ank
ov es
Ġconf ined
Ġpoint ing
Ġps i
Ġindian apolis
Ġbrad ley
Ġbris bane
Ġh ik
le ments
Ġj ub
Ġlog an
st en
ber cul
Ġgr ants
pl er
Ġrec urs
Ġtrou bles
Ġanarch ist
Ġsloven ia
Ġpeas ants
Ġsecre ts
olith ic
Ġb out
Ġg ond
st ead
Ġsq rt
Ġvern on
Ġ ions
Ġt ah
or th
ac s
Ġcl aus
Ġem otion
Ġday ton
Ġbur ke
Ġfle e
Ġphilip pe
Ġneut ron
Ġshell s
Ġhar der
Ġfin ishing
Ġmic row
Ġoverth row
Ġecclesiast ical
Ġbr ide
Ġpar ach
Ġarr ives
Ġdisp os
Ġspecific ations
Ġphotograph er
Ġly ric
Ġip a
Ġnass au
Ġreyn olds
Ġsh ores
Ġend ang
Ġfre ud
Ġthird s
Ġcollect ively
Ġalto gether
Ġw age
Ġn ih
Ġlat via
Ġemploy ee
Ġcrom well
Ġme al
Ġq a
arth y
Ġl ance
Ġnecess ity
Ġthrow ing
Ġfert ility
Ġwre ck
l io
Ġm our
Ġm ps
Ġem ble
Ġrun way
Ġpriv acy
Ġobs erve
Ġinstall ation
Ġhospit als
Ġp ere
Ġn ile
Ġinc ons
Ġpl ac
ph one
Ġrob ots
Ġvulner able
Ġspee ches
i ol
Ġd ian
Ġlim estone
al us
Ġch rys
Ġed en
Ġfl int
Ġspecial ist
Ġnom inal
Ġcor inth
Ġpriv ately
Ġbal let
Ġdead ly
Ġrot ating
Ġfellow ship
ver n
Ġbe aver
Ġst up
Ġal ike
Ġman kind
Ġcar son
Ġcr ist
Ġproject ion
Ġche v
Ġpromin ence
Ġbass ist
Ġton ight
m ith
Ġde ton
oc ene
ra wn
Ġma iden
Ġdest ruct
Ġtar iff
Ġsust ained
Ġpom pe
Ġd ru
Ġbe et
Ġsh rine
Ġcross es
Ġfear s
ro v
Ġhen derson
Ġpath s
Ġell is
Ġie ee
Ġmongol ia
Ġvalle ys
Ġmarath on
Ġc ater
Ġj aw
Ġbure auc
Ġmur ders
Ġinvestig ations
Ġp ag
Ġsu ited
Ġext ensions
Ġhol der
le cted
ard i
Ġper ce
Ġdec ides
Ġide als
Ġri ot
Ġbot tle
Ġextin ction
Ġro pe
Ġlin da
Ġmor ality
Ġreal ism
Ġmagn ific
Ġhawai ian
Ġt ud
is p
Ġn ir
Ġfact ions
Ġcontrib uting
Ġpul se
Ġsemic ond
onsc ious
Ġm v
Ġde af
led on
Ġtim othy
Ġsexual ity
Ġbou lev
Ġt n
Ġde e
Ġcomp ressed
uk u
Ġtal iban
Ġpitch er
Ġd ag
Ġtw ist
Ġdel hi
ract ion
Ġmethod ist
ien ne
Ġdiplom at
Ġrif les
Ġserge ant
Ġprop ulsion
Ġathlet es
Ġshe ff
Ġmos que
Ġlot us
Ġforum s
Ġlibert arian
Ġslovak ia
Ġs ends
or row
ar ity
Ġro ws
Ġpark ing
Ġin ert
il us
Ġam ino
over ed
Ġtrans act
Ġfro st
Ġh ers
Ġm akers
Ġk ane
Ġhar b
Ġec u
Ġnorm andy
Ġtrave ll
Ġker ry
Ġcelest ial
ld om
Ġper ipher
Ġant ip
Ġmarket ed
Ġmad ag
Ġoccup y
Ġtibet an
Ġdece ased
Ġd ances
id ity
Ġel ves
Ġradio active
Ġmcc arthy
Ġaux iliary
Ġpro be
Ġsk ating
Ġdav ies
Ġadm ission
Ġmand arin
Ġdoub led
fr ied
Ġgate way
Ġsurren dered
Ġlover s
Ġsau ce
Ġtorn ado
Ġbangl adesh
Ġz ar
Ġsp at
Ġwilder ness
ip el
od ied
ok en
Ġear s
Ġcrit ique
Ġstory line
Ġdecl are
Ġn ons
Ġsc i
for ce
Ġperform s
Ġplanet ary
Ġsher iff
Ġprepar ing
Ġexclud ed
Ġlegit im
Ġceleb rit
Ġsh ark
Ġnot ting
ath a
Ġsy rac
Ġstr ain
o ys
Ġand ers
Ġg aming
ab lo
age ll
Ġunivers ally
Ġlad ies
Ġthreat ening
Ġteen age
d ot
Ġro land
Ġgen oc
Ġeng r
Ġsm ash
Ġox ide
Ġaz tec
Ġcoron ation
Ġph ases
ov sky
Ġhel s
Ġprof its
Ġsal mon
Ġscient ology
Ġcontain er
w aukee
Ġc ir
un al
Ġsol ved
Ġfind ings
Ġsoviet s
Ġjournal ism
Ġprem iers
Ġris ks
g ard
g ara
Ġj okes
Ġv all
Ġmcc art
Ġrequest s
Ġwe ber
ograph ical
Ġrepr inted
Ġvolunt ary
Ġregist ration
en os
Ġep ist
Ġcler k
Ġcurt is
ent e
ll i
Ġtrail s
Ġguar ant
Ġcl one
Ġconn or
Ġambit ious
Ġf c
Ġass im
Ġcr ust
Ġven et
Ġcatal ogue
Ġcelebrit ies
Ġper l
Ġsee ks
Ġbor is
Ġos lo
Ġtom orrow
Ġadject ive
w ind
Ġdec ree
Ġed ison
Ġcre st
Ġspec im
Ġmac donald
Ġdeb ates
Ġcho osing
Ġmyth ological
Ġbag hd
Ġaccident ally
Ġarchae ology
Ġf isc
od us
Ġtr iv
Ġking ston
Ġcra fts
Ġgriff ith
Ġresur rection
Ġa ure
ed el
Ġam y
Ġres umed
Ġtrans f
Ġdev ised
Ġconsum ed
Ġenterpr ises
Ġt rent
Ġfr aser
Ġbre eds
Ġp ied
Ġr iders
Ġjo el
Ġmet re
ony ms
Ġflag ship
Ġfocus ing
g ang
Ġevery where
Ġemb ark
ices ter
Ġfro g
Ġfurn iture
Ġp iny
Ġm apping
Ġde ities
Ġint im
act yl
Ġsub sp
Ġliter al
Ġxx x
Ġcorp us
Ġcontrad ict
Ġad ela
Ġrep et
Ġd ash
Ġpass ive
Ġut ter
Ġspok es
Ġarmen ia
Ġclaud ius
Ġjosh ua
Ġfount ain
Ġse ctors
ce phal
Ġper th
Ġtre ason
ull ah
Ġhand ful
Ġaz erb
Ġstar k
Ġpat ents
Ġeconom ists
Ġprosper ity
Ġcon vey
Ġgr as
Ġwar l
Ġpan ic
zy me
Ġcongreg ation
i ks
ian us
od ed
ment ed
Ġmark ing
Ġren ov
Ġmarqu ess
Ġbare ly
Ġrect ang
Ġjourn als
ul i
Ġad ul
ild a
Ġfl ux
Ġop us
Ġhand led
Ġhard ly
Ġeclip se
Ġflem ish
Ġcomp uls
Ġint ensive
ok i
Ġpropos ition
Ġnik ol
Ġth ou
Ġg b
Ġros es
Ġm um
Ġas pir
oun ces
Ġi ber
Ġcas ino
Ġcharl eston
Ġberg en
Ġdoz ens
Ġt art
od ic
Ġpl ag
Ġger m
Ġcor rid
Ġest e
Ġwin n
Ġacad em
Ġtarge ted
Ġsheff ield
Ġc ement
Ġar b
ber y
Ġcommun ion
Ġocc ult
Ġmid way
Ġsuper c
Ġbill ed
Ġheav ier
Ġven ues
Ġazerb ai
Ġo ss
ic z
Ġoff sh
Ġatt itudes
Ġtrans ist
Ġx p
Ġshog un
Ġwhere by
i ens
r ina
ch et
Ġcon ject
Ġsp ike
Ġfemin ist
Ġf erg
Ġle eds
Ġnew man
Ġint u
Ġcol oured
Ġconte xts
Ġdescend ant
Ġali ens
Ġbankrupt cy
n ar
Ġk abul
Ġrac ism
Ġfl ies
Ġcolle ctor
Ġsav oy
f u
en o
Ġcomple ting
Ġve ctors
Ġign or
Ġcrash ed
Ġconj ug
il er
Ġk ab
Ġdifferent ly
Ġmad onna
mark et
Ġhub bard
fo ot
Ġcalc ium
Ġpasc al
Ġal s
Ġex agger
Ġconf uc
Ġeffect iveness
Ġsam pling
Ġd over
Ġr w
Ġle icester
Ġinf ected
Ġhy de
Ġball ot
Ġdiss olution
Ġsimpl er
Ġbub ble
Ġst ake
ge ons
Ġpre ston
Ġjust ified
Ġpur port
Ġmight y
head s
Ġreflect ing
u ing
Ġl ore
Ġcou pled
Ġzepp elin
Ġl ent
Ġj as
Ġco h
Ġinv as
Ġcod ing
Ġrecip ients
Ġfeud al
a ired
Ġapp end
Ġcrit ically
Ġcho ices
Ġros a
Ġbol shev
Ġdan ube
acc ording
Ġbreath ing
Ġis les
os ity
Ġge ological
ing e
vers ion
Ġins erted
Ġsecret ly
Ġspir al
Ġdefin itive
Ġrum ors
Ġaffect ion
Ġacceler ation
b one
Ġp aved
Ġgr am
Ġdraw ings
ig i
st ant
Ġcon g
Ġex empt
Ġsh u
ish na
ath am
Ġmil waukee
Ġext rem
Ġden y
Ġtreat ise
Ġcost ume
Ġmoz art
Ġantar ctic
ter min
Ġdem o
Ġgo ose
Ġsl aughter
Ġec ological
Ġod ds
Ġemb ry
Ġroll s
Ġcoven ant
b ot
g ov
Ġz imb
Ġsh oo
Ġserv ants
Ġcountry side
Ġtemper ate
Ġbreak down
Ġplant ation
Ġbaghd ad
Ġthe ft
Ġver d
Ġgraph ical
Ġgeomet ric
Ġvoy ager
Ġprivile ges
Ġtim ing
Ġcarol ine
Ġpra ised
Ġmasc ot
wid th
Ġb is
Ġsuccess es
Ġvir g
ij uana
Ġfu j
Ġup s
Ġpol k
Ġmand ate
Ġtail ed
Ġmikh ail
Ġendang ered
b old
er able
it ate
if ax
Ġdiscover ies
Ġarchitect s
Ġwisconsin according
ett i
Ġhang ing
k ill
Ġm und
Ġd aim
Ġam al
Ġmus s
Ġroberts on
Ġbl essed
Ġbu ying
Ġesc al
Ġmetab ol
Ġremin isc
Ġfe es
Ġarm ored
Ġden ote
Ġtig ers
Ġch iang
Ġprotect ing
Ġcritic ised
Ġst omach
if iers
Ġtou red
Ġartif acts
m other
Ġpe cul
Ġsol ving
Ġbur lington
Ġimpl ications
Ġrou ge
Ġlo ves
Ġpeak s
Ġinse ct
Ġbio chem
Ġhij ack
Ġsheph erd
Ġpiny in
Ġc b
Ġtr uman
Ġmerc en
om al
Ġch ero
Ġar twork
tw er
Ġinter im
Ġnar c
Ġri emann
Ġphotograph ic
Ġanthrop ology
Ġc aves
Ġg ag
am ic
Ġdu el
Ġnob ody
Ġther mod
sp ring
Ġprotagon ist
f ar
Ġbr ab
Ġfam ine
Ġdis se
onom y
Ġminor ities
Ġconduct ing
Ġb red
Ġd ix
id d
Ġcol ogne
Ġwater loo
Ġbar k
Ġshort ened
Ġta j
Ġsyrac use
Ġc asc
Ġexpl ore
Ġpersonal ities
Ġhyd ra
Ġcontact s
p c
r ag
ren s
Ġcent r
Ġcar ved
Ġatt ain
Ġsup rem
Ġlad en
Ġgene al
Ġkitch en
Ġp bs
Ġx iii
Ġcop ied
Ġcryst all
Ġindo or
Ġf ou
Ġkn ots
Ġsch les
Ġbal anced
Ġblock ed
Ġfern ando
j ord
m ers
Ġt ensions
ur ities
Ġsupp ress
Ġdon ated
Ġcond ens
Ġtro tsky
Ġacqu ire
Ġturb ine
m ir
Ġle y
ograph er
Ġhal ifax
Ġluc ius
i ott
Ġn ac
Ġreal istic
Ġpoet ic
Ġtransc end
Ġpecul iar
Ġp anc
Ġbet ty
Ġwit t
Ġdecre ased
ar ius
Ġamaz ing
Ġadela ide
Ġl ucky
Ġne m
Ġmed als
Ġsw all
Ġky oto
Ġrud olf
Ġdepict ing
Ġj or
Ġtr apped
Ġem ail
Ġcor nell
Ġbroad er
Ġpseud onym
Ġun h
Ġjohn ston
Ġhous ed
Ġpress ed
Ġsex ually
Ġingred ients
Ġesper anto
Ġc ork
Ġd air
Ġwh olly
der n
Ġtr im
Ġen z
Ġhall s
Ġfut ur
Ġstaff ord
Ġjump ing
Ġcultiv ation
Ġsh en
Ġarch ipel
Ġemerg ence
ynam ic
re ated
Ġv or
Ġcould n
Ġdi abet
Ġprom ot
Ġarab ian
Ġjul es
ogen ic
m ates
Ġs ara
Ġch ir
Ġbl oc
Ġanth ology
Ġboulev ard
j ud
Ġs ins
ero l
il on
ul ent
Ġper se
Ġeng agement
Ġexpl aining
Ġbur den
Ġresist ant
Ġsail ors
Ġanalog ous
Ġense mble
am as
op ot
Ġsc ream
Ġmiss ed
Ġdecor ated
ystem s
b at
Ġk um
Ġpar ag
Ġlib ya
Ġprogramm ers
Ġmotiv ated
oc c
Ġi w
Ġbat s
ats u
Ġrichard son
Ġow l
Ġvocal ist
Ġdeploy ment
Ġconstitu ent
p ot
Ġcl ip
ach ment
Ġrec l
Ġgener a
int o
anc ement
Ġhistor ies
Ġprogramm er
ist ically
Ġag greg
Ġden is
Ġthom son
Ġmess enger
Ġadvis or
Ġd ump
Ġg im
Ġr na
Ġch ol
Ġen erg
Ġu nes
Ġbu gs
Ġbeat en
Ġcalcul ations
Ġindones ian
Ġimmort al
Ġgund am
h urst
ab s
Ġmay be
Ġter rible
Ġinvest ors
Ġbol ivia
Ġterror ists
Ġmist ress
Ġparad ig
Ġalumin ium
Ġk ne
Ġmar tha
Ġfl ank
Ġhar p
Ġaugust a
Ġtransport ed
Ġnar rator
Ġprin ter
Ġevange l
Ġcarne gie
Ġs que
Ġh ank
Ġland marks
Ġet r
Ġcertific ate
r il
Ġair borne
Ġbar ber
br ia
Ġmc donald
Ġtoler ance
v d
Ġg ul
Ġst ing
op ia
Ġex iled
Ġbro ck
Ġven ue
Ġrap ids
Ġreven ues
Ġsulf ur
Ġdoctr ines
Ġf idel
Ġit er
Ġcl usters
Ġrem ed
Ġty ler
Ġps al
Ġpseud o
Ġsha ft
Ġczechoslovak ia
Ġw imb
Ġle ip
Ġco hen
bl ue
Ġtax ation
Ġrand olph
Ġaber d
Ġcoca ine
Ġv ass
Ġle ver
Ġcam den
ops is
Ġcn n
Ġdemol ished
k ar
Ġl anes
Ġch ant
Ġcriminal s
Ġped est
Ġdiscontin ued
Ġappar atus
Ġre e
Ġcolle agues
Ġhon ours
Ġparticip ating
Ġp ia
Ġp iet
al an
Ġpr i
Ġder ive
Ġpresbyter ian
m ad
Ġt ense
Ġb ant
enc ia
Ġgreen land
Ġcit ing
Ġsand wich
ne ts
Ġg ull
le in
ib us
Ġmar ian
Ġco ve
Ġhead ing
Ġquestion ed
Ġmort ality
Ġptole my
Ġalcoh olic
Ġferg us
Ġv apor
Ġby tes
Ġreg ulated
Ġsou p
Ġfisc al
e o
all ing
Ġdis ab
Ġjohn s
Ġcal iph
Ġcircum c
Ġfeed back
Ġlob by
Ġit v
Ġimp ly
Ġgu ad
Ġbat teries
Ġintegr ity
Ġn ou
Ġpupp et
v ol
Ġe go
Ġun ne
ab we
Ġjo ins
Ġterm inus
Ġconf ident
Ġrat ified
Ġguarant ee
Ġs ene
Ġl ymph
Ġbu chan
Ġaccess ion
Ġde i
ph a
Ġred es
Ġflow n
Ġgal actic
Ġcub ic
Ġflav or
Ġunes co
r ors
is bury
Ġmed itation
Ġdr ac
Ġlos es
Ġimplement ations
g ated
Ġk oh
end e
Ġdr ied
Ġsafe ly
Ġpir ate
Ġexpect ations
Ġecu ador
Ġl enses
Ġg og
Ġal am
Ġaf l
Ġjack ie
Ġrecon naissance
bir ds
Ġdrag ons
Ġguatem ala
n on
Ġc z
Ġh d
id an
Ġsimilar ity
Ġsuggest ion
Ġrid ic
Ġcec il
Ġb iod
oph on
Ġtreat ments
Ġaltern atives
Ġdia gon
Ġtu nes
Ġpurch asing
Ġabsolute ly
Ġs ne
Ġam ber
Ġper f
ild e
Ġsim ulation
Ġtop ological
Ġrespons ibilities
Ġshel ter
Ġz ap
Ġcens orship
Ġinf in
Ġsuper st
Ġbur st
Ġcoast line
Ġeis enh
Ġadequ ate
Ġc age
Ġor nam
Ġbox es
Ġpeas ant
Ġdioc ese
Ġodys sey
um ann
Ġsu cc
Ġu c
Ġcur ric
Ġprol ong
Ġwimb ledon
b ank
Ġp x
ion ed
Ġne ill
ep s
let te
Ġcommand ing
Ġcontest ed
Ġexpos ition
heim er
Ġsubstit ute
Ġjenn ifer
ens en
Ġco her
Ġfant astic
Ġscandin avian
Ġn ca
Ġgr at
aw i
Ġinf ring
Ġadapt ations
Ġthro at
Ġgy ps
Ġprophec y
Ġt ide
Ġmod ifications
Ġbreak fast
Ġdiamond s
Ġchromos ome
e ur
l ic
w ords
ar is
Ġnot iced
lud e
Ġspec ulated
Ġconst rain
Ġmy self
Ġband width
Ġmerc y
Ġspot ted
Ġdish es
Ġpuzz le
Ġpyram id
Ġk ry
Ġtr icks
Ġincorpor ate
Ġimmigr ant
Ġschwar z
b ons
c in
Ġas ym
Ġare n
Ġol iv
ash t
Ġgramm atical
Ġgif ts
Ġs ake
Ġin ability
ero y
am us
Ġwar wick
ah an
Ġinf lict
Ġsl ope
Ġball oon
Ġcand y
Ġsumm ers
Ġgib ral
Ġvalid ity
Ġguerr illa
im ov
Ġun organized
Ġde gener
ec ks
Ġlack ed
Ġbon ap
Ġmas cul
Ġbiograph ical
Ġpam ph
Ġarsen al
Ġmccart ney
Ġsi kh
ow itz
Ġim aging
Ġarm oured
Ġzh ang
Ġgur u
Ġrhet oric
Ġsabb ath
Ġzimb abwe
Ġk enny
Ġu v
oth e
Ġjes se
Ġsens es
Ġresemb lance
Ġconsolid ated
Ġunderw ent
Ġthe ta
Ġval er
Ġmet a
Ġbrand enburg
Ġnia gara
j ou
Ġr ous
im edia
Ġcor al
Ġadv ised
Ġpione ers
Ġresol ve
Ġbr ands
Ġph ara
Ġem il
Ġcontempor aries
Ġdr ake
Ġdiscover s
Ġreject ion
Ġgenoc ide
Ġt l
Ġo le
Ġg ad
Ġfun ny
Ġlis p
Ġmaur it
Ġb ash
es h
Ġrel ates
Ġbrit t
kee per
Ġoutl aw
Ġth umb
ian ces
ink i
d ed
it ory
ar an
ic ating
Ġd umb
Ġl ans
Ġst uck
im ited
Ġpro d
ab l
Ġhel ena
Ġcapital ist
com p
Ġprotest ants
gu ard
Ġnotting ham
h ot
Ġbar th
Ġmal t
Ġround ed
Ġinfr ared
b ler
Ġp ork
Ġd ic
Ġdisc ourse
Ġwin chester
Ġill um
Ġlux ury
Ġchron ology
Ġpersu aded
Ġabund ant
i ator
Ġm ick
Ġde eper
Ġimp ressed
ters on
Ġins ight
Ġo y
Ġen velop
Ġten or
Ġinde f
Ġdiss ol
Ġp omer
Ġle is
Ġsl ogan
Ġmat ric
Ġsun k
Ġrap per
Ġbow ie
Ġpromin ently
Ġsc outs
Ġnumber ing
Ġharmon ic
u ke
Ġal d
Ġk ub
Ġv ista
Ġne b
Ġtr an
Ġtr ucks
ast ics
Ġfro zen
Ġtall est
Ġt ear
Ġf uck
Ġr ack
ad der
Ġar lington
Ġair bus
Ġgu ess
Ġeconom ically
Ġp ant
Ġre igned
ir us
Ġadd iction
Ġant ig
Ġur ugu
Ġrh e
Ġmarria ges
Ġnapole onic
Ġtrin idad
u ctor
ro ft
Ġun n
Ġbr ave
Ġer ik
Ġwrest ler
Ġwonder ful
Ġporn ography
ol ini
ad y
Ġinter st
Ġfl ute
Ġcur ves
Ġpopular ized
Ġrespons es
Ġcart ridge
Ġinher ent
Ġeag les
Ġexplor ers
Ġbail ey
Ġtransact ions
Ġgibral tar
f unction
Ġcapit als
Ġsal isbury
Ġdeter ior
Ġattrib ute
Ġgalax ies
b led
p ost
r ome
Ġh s
Ġto il
Ġsix ty
Ġoff spring
Ġwest phal
Ġcur rents
Ġinvestig ate
Ġeisenh ower
Ġa pe
Ġa ston
Ġcon an
Ġpr one
Ġro de
Ġpol ym
Ġoff ense
Ġgeorg ian
Ġswe pt
it r
ap er
Ġsc roll
Ġcr icke
Ġmarch ed
Ġlabel ed
Ġburn t
Ġsimpl est
Ġpropriet ary
Ġf ian
th rough
Ġsch u
ivid ed
Ġra iders
Ġill usion
z ed
Ġsp am
Ġnot re
Ġprotect ive
Ġhapp iness
Ġprosec ution
Ġtrem end
Ġpreval ent
Ġbureauc r
g ary
Ġw ip
Ġhe p
Ġcont am
Ġent ropy
Ġlock ed
Ġenfor ce
Ġveget ation
Ġrach el
Ġmadag ascar
Ġc erv
Ġor n
Ġun anim
ang ing
ail ing
Ġcla rence
Ġflood ing
Ġpsych edel
Ġcorre ction
Ġsympath etic
Ġl ago
ig ma
Ġunder water
Ġrepl ied
Ġneg ro
Ġexc er
Ġcryst als
Ġdrop s
Ġcheap er
t ically
Ġt ung
Ġd res
Ġl ime
Ġsoc ially
Ġang ular
Ġalf onso
Ġeros ion
Ġsh ak
Ġcur s
ae us
Ġdecl ares
Ġderiv atives
Ġdischar ge
Ġleip zig
Ġs d
Ġh aus
Ġl ug
Ġg ould
qu al
Ġpl ent
iz able
Ġsk yl
Ġins uff
Ġtransl iter
Ġcoll ision
Ġfle ming
Ġritual s
Ġmicrow ave
Ġnca a
Ġm its
Ġre jo
Ġcount ess
Ġpopular ly
Ġseg reg
Ġimag ination
Ġinfl amm
Ġindu ction
Ġrecall ed
in ders
Ġw and
Ġz ur
Ġman g
Ġcomm une
Ġpe el
man uel
Ġmon ter
rib e
Ġmod ulation
Ġdeb uted
Ġpay ments
Ġfemin ine
Ġentreprene ur
Ġgluc ose
Ġt up
Ġz an
om atic
Ġprov iders
Ġjud ah
f it
f ol
f red
ub s
Ġph p
Ġshir t
r s
Ġt ears
Ġf ake
Ġb ae
Ġl ich
Ġsl am
Ġcounc ill
Ġn ak
Ġj iang
Ġloc ks
Ġrep ly
Ġrem arks
Ġcontin uation
Ġachie ving
Ġobtain ing
Ġdispl acement
on gh
ast roph
Ġgu ides
Ġgame play
mit t
Ġdiscuss ing
Ġpack et
Ġaccommod ate
Ġeight een
Ġag ing
Ġcap s
Ġdeal er
Ġbattleship s
Ġdeleg ates
Ġaccus ations
Ġne oc
Ġlength y
Ġupgr aded
Ġd ul
Ġdesc ript
Ġopp ose
Ġcommitte es
Ġchero kee
it ivity
Ġe h
om mission
Ġk ine
Ġacc idents
Ġje alous
Ġcanon ical
Ġarchipel ago
t les
Ġh iding
Ġv ille
Ġsch ne
Ġgu in
Ġlist ening
Ġrepubl ics
Ġdomin ate
Ġa unt
Ġs is
Ġl up
Ġre z
Ġtr unk
Ġpr izes
Ġag enda
Ġany way
Ġsur rey
Ġnation wide
Ġmerc er
Ġbuff y
Ġbour bon
Ġcarn ival
Ġinsc riptions
Ġu pp
Ġfam ed
av ier
Ġyield s
Ġiceland ic
Ġp em
oun ters
est own
Ġdes irable
Ġphon etic
ac i
Ġst ems
Ġk iev
erv ille
Ġpun ct
Ġdemand ing
Ġscholar ly
Ġanat om
v ar
Ġd ose
Ġfor get
Ġex odus
Ġlo ading
less ly
Ġtun ing
Ġhay es
Ġwell es
Ġla wn
Ġsk ate
Ġson ata
Ġb ess
Ġr ats
Ġmo thers
Ġex empl
Ġcol a
Ġbel fast
Ġcy an
Ġoccur rence
Ġdiscip lines
z s
Ġw ah
Ġbo oth
Ġcr ane
Ġsyn ag
Ġunc onscious
Ġannounc ement
Ġp f
Ġto ys
Ġby ron
Ġmatch ing
Ġpup ils
Ġsanct uary
Ġmaneu ver
at ism
im et
Ġfr itz
Ġon t
Ġtr ips
ace ous
Ġorgan iz
lin ation
Ġren t
Ġd ug
Ġl us
il is
ad ier
Ġdivid ing
Ġt oul
Ġb n
Ġsu its
Ġcol s
ph i
Ġconn ot
Ġhob by
Ġz am
if iable
Ġback wards
Ġenc ounters
Ġseason al
Ġcomment ators
Ġcert ified
Ġneighbour hood
i ors
o der
Ġs ain
Ġc bc
Ġb ik
ur ance
Ġex otic
Ġne c
Ġear ning
Ġgovern ance
Ġleg ions
Ġobject ives
Ġabd ul
Ġvik ings
haw k
Ġdair y
Ġs orts
Ġse ab
Ġse ym
ill as
ill ance
Ġele anor
mon ic
Ġgamb ling
Ġlocom otive
Ġaberd een
Ġmag ist
Ġcounterpart s
Ġtw il
Ġfr iction
qu it
ish es
Ġpl anted
Ġdef iciency
Ġrich ards
Ġmir acle
Ġscript ure
Ġpharm ac
Ġpray ers
Ġcornel ius
v ich
Ġbe ard
ir ts
Ġevery body
Ġid i
Ġjeff rey
fr ame
Ġtunnel s
Ġtheor ists
Ġm ord
ur gy
Ġfr is
Ġbl uff
Ġlo ving
Ġneed le
Ġsh ipped
Ġcr ude
Ġcivil izations
Ġden oted
Ġdeb ated
Ġho over
Ġrecip roc
Ġaccl aim
Ġsurviv or
Ġazerbai jan
ge e
id on
Ġne pt
Ġen zyme
Ġgreen wich
Ġos wald
Ġveget able
Ġenab ling
Ġguarante ed
Ġcols pan
Ġch u
Ġir rit
amm y
Ġtrad ers
Ġcat astroph
Ġdomin ation
Ġavo iding
Ġdiabet es
Ġw c
ut a
Ġflor a
at u
Ġl f
ant i
Ġnorth ampton
Ġbel oved
Ġinf inity
Ġju ven
Ġsyn onym
Ġemploy er
Ġrub y
Ġcres cent
Ġover r
Ġel m
Ġtrump et
Ġseym our
Ġb ism
Ġg f
Ġun if
ill ion
Ġbelie vers
Ġprob able
Ġexerc ised
Ġenact ed
Ġsop rano
at z
Ġloc als
Ġhum our
Ġwin ters
Ġlim iting
Ġreun ion
Ġmotorcy cle
ur as
og ram
Ġen roll
Ġcre t
Ġcal gary
Ġhol ders
Ġgas oline
Ġhighlight ed
ik h
Ġsur pass
Ġrom a
Ġbes ie
Ġportra its
Ġh omet
Ġin h
Ġj ou
Ġv ague
Ġbr om
Ġref use
Ġports mouth
holder s
an na
qu a
ib ald
Ġup set
Ġform ul
Ġhel ium
be e
eck er
Ġpul p
Ġsty led
Ġtwil ight
Ġh edge
Ġad vers
Ġpe ac
Ġco il
Ġem ission
Ġjoy ce
Ġstead ily
Ġreli ability
Ġanto ine
Ġw ander
Ġre h
am orph
Ġr ite
Ġy oga
Ġsat ire
Ġprom ising
Ġfunction ality
Ġcongress man
Ġproceed s
Ġdefend ant
Ġwaveleng th
Ġass erted
Ġdevelop s
Ġste fan
Ġsan ction
Ġaccept ing
Ġprem iere
Ġaur ora
Ġuz bek
Ġsebast ian
Ġbonap arte
is le
Ġun m
Ġfire arms
Ġaltern ating
Ġbreak through
Ġconstrain ts
Ġl umber
Ġcl ara
Ġinter red
Ġaero space
Ġmonitor ing
Ġconfer ences
Ġphara oh
th ouse
Ġmi y
Ġbu ch
Ġwart ime
Ġt ate
Ġbe es
est ock
Ġwe i
Ġbl u
Ġhow e
Ġsa i
Ġapproach ing
Ġburg undy
Ġlicens ing
Ġtempor al
ign y
Ġfe els
Ġsur plus
Ġcompl aints
Ġterminal s
Ġaw aken
Ġelim ination
Ġconstitu ency
Ġcamb odia
Ġnot ing
Ġunivers it
Ġha un
Ġgard ner
Ġpip es
Ġnicar agua
Ġhomet own
Ġb oul
Ġr ica
Ġrout ing
Ġscr atch
Ġcanc el
Ġprol ific
Ġbeng al
Ġd ing
ant ics
Ġretain s
Ġwar ming
Ġsupp ressed
Ġimag inary
Ġl ys
Ġg in
Ġall ah
Ġgr ac
ra x
Ġrec ount
Ġel f
Ġgo at
Ġorgan ize
Ġstat ues
Ġprev ents
Ġesc ort
Ġmyst ical
Ġc es
Ġm ons
Ġint act
Ġden otes
Ġgrad ual
Ġcow boys
Ġsurve illance
Ġtamp a
Ġr pg
Ġind uct
Ġgen ome
Ġbl amed
Ġev a
Ġmer ge
Ġanal ys
Ġdecl aring
Ġinstitution al
opp y
Ġa wa
ut ical
Ġper cept
Ġpar ameter
Ġsch iz
Ġty ph
Ġunst able
m ine
ar ck
Ġl ah
Ġthat cher
Ġdu ff
Ġvir uses
Ġpoly nesian
Ġconv iction
Ġfill ing
Ġdemonstr ations
Ġpig s
Ġses ame
Ġtriv ial
r av
Ġb acks
Ġre organ
Ġinnov ations
Ġprecip itation
l ar
Ġwor ms
Ġdef enders
Ġcolon ization
Ġautom ated
Ġf ow
Ġpress ures
Ġstor ms
Ġnurs ing
Ġsemin ary
Ġorganiz ational
Ġarch er
Ġsum mar
Ġborder ed
Ġunl imited
Ġliberal ism
Ġash es
hamm ed
Ġmines we
Ġunne cess
v ana
Ġma id
Ġline up
Ġfunction ing
Ġexam ined
Ġstra uss
Ġillust rations
Ġdepict s
Ġundert aken
Ġsurprising ly
Ġth resh
Ġp est
em on
Ġam os
Ġser bs
Ġreg isters
Ġdr inks
Ġcr on
ina e
Ġmod ules
Ġdisp atch
at ile
Ġden ial
Ġtrib une
Ġpet ty
Ġmyster ies
Ġaffect s
Ġrecru ited
Ġparag raph
Ġtrans action
Ġext ant
Ġmission aries
Ġcab les
Ġassum ptions
Ġneu rol
g iate
o ok
Ġeight y
Ġinc ap
Ġhol stein
Ġrang er
Ġliv estock
Ġcrush ed
Ġexcer pt
ou b
Ġz inc
Ġsh oe
olog ic
Ġhon ored
Ġunus ually
Ġt uf
er ting
Ġsh annon
Ġdis ast
Ġco bb
ick ing
Ġsum er
lo id
ote chn
Ġpun j
Ġselect ive
Ġecc entric
Ġtransp arent
Ġm ie
ke ys
Ġwood y
Ġemb arr
Ġdro pping
Ġzh ou
at ro
Ġn er
il ius
Ġj ing
Ġinc umb
Ġpop es
ass ium
Ġbl ame
Ġsub mit
Ġmon aco
Ġste al
Ġfree man
Ġc ors
Ġprocess ed
Ġpen is
Ġell en
Ġgriff in
Ġscro oge
i ating
Ġwould n
Ġprov idence
Ġdown lo
Ġhy mn
Ġcommission ers
Ġcultiv ated
Ġsket ches
n n
Ġdr unk
row s
oph ys
Ġref r
Ġmanif old
Ġphysic ists
Ġalleg iance
Ġhes se
b ad
Ġbe ats
Ġr f
Ġliving ston
Ġcre ed
Ġec os
Ġlight green
ici ary
Ġk ok
Ġu h
Ġcl air
Ġher n
Ġrel ocated
Ġbar nes
Ġrepresent ations
Ġnovel ists
Ġcomb ines
Ġfund ament
Ġbent on
Ġbabyl onian
Ġgradu ating
Ġp aw
Ġhe w
Ġen suing
Ġsc rip
Ġph ones
Ġfl ip
ner y
Ġphys icians
Ġrand y
Ġuncertain ty
Ġspart a
Ġfacilit ate
n um
ar p
et to
Ġunder way
Ġi k
Ġorgan izing
Ġdu ne
Ġst iff
Ġsp ac
Ġshort s
Ġlight blue
Ġembarr ass
h ad
Ġa quar
Ġy emen
Ġover head
Ġrel ied
Ġjust ification
Ġaugust ine
Ġweb b
Ġatl ant
Ġtournam ents
Ġaes thetic
z es
Ġwh ist
Ġfr atern
art s
gr ams
Ġcompan ions
Ġren d
Ġcy t
Ġbell s
Ġpossess ions
Ġsle e
Ġhorn s
Ġelder ly
w ave
is en
at ri
Ġmin t
Ġmountain ous
Ġincorpor ates
Ġcalcul ation
Ġmarqu is
Ġs age
Ġcontin ually
Ġdiscip les
Ġinject ion
mill an
Ġilleg it
Ġanx iety
Ġw ade
as us
Ġmy c
Ġref usal
ij a
Ġha iti
Ġdeterm ines
Ġpalest inians
Ġexhib its
acc ur
Ġshir ley
Ġug anda
at isf
Ġe ject
Ġk inder
ound ed
Ġhar ass
Ġdou g
Ġdom est
Ġtax i
Ġhero ic
Ġpsychedel ic
h ouses
Ġw edge
Ġg aza
pl ant
ace utical
Ġpresent ly
Ġdiffer ing
Ġorb its
Ġtrag ic
Ġre id
Ġmo h
Ġop ium
Ġposs ibilities
Ġcast les
Ġcolon ists
Ġoz one
b eck
Ġb ard
Ġm ice
Ġre tal
Ġk ara
Ġar ises
ib a
Ġel iot
Ġleng ths
Ġprost it
it ious
Ġk omm
ier i
Ġspread ing
Ġsuccess ors
Ġbroad ly
Ġaddress ing
Ġi q
Ġreal ize
Ġhom o
Ġtom ato
Ġverb al
Ġsemicond uctor
Ġhels inki
r ice
Ġd ante
Ġg at
Ġam us
Ġgroup ed
Ġnational ists
Ġant agon
Ġemp irical
Ġur ged
Ġwing ed
Ġnur se
Ġth urs
as u
Ġse aled
Ġst aged
Ġcomm unes
Ġident ifying
he ed
Ġdra fted
mo dern
Ġnic olas
Ġrabb in
Ġreinfor ced
Ġserp ent
Ġleis ure
v ian
Ġh ap
Ġh uss
Ġr ash
Ġtem pt
Ġred ire
app ers
Ġshad ows
Ġdisapp oint
Ġandre a
Ġprehist oric
Ġdestruct ive
Ġt au
ing en
il o
Ġg uten
Ġas ylum
ay ana
Ġne al
Ġgr az
sh ine
Ġsur g
Ġhun ters
Ġrecru it
Ġeuc lide
Ġclif ford
c ape
d n
Ġc is
Ġp ero
Ġin accur
ch el
Ġmaj esty
Ġcare y
Ġpot assium
Ġmarc el
Ġlis bon
Ġsacrament o
b ol
on n
Ġw ages
ge m
Ġy i
ll a
Ġinv aders
cl ass
Ġmart y
Ġstation ed
Ġcann ab
Ġhyp n
Ġconcent rations
kins on
sm ith
Ġdisband ed
Ġbuchan an
Ġeuclide an
Ġpresent ing
Ġel is
Ġins ulin
Ġcam el
field s
Ġpast or
Ġdiscuss es
Ġsuff rage
Ġj ol
ub en
Ġx vi
Ġrefer enced
Ġsyn od
duct ive
Ġs ind
Ġp ue
ar ro
ong s
ov an
Ġanal ogy
Ġmort on
im mer
ult on
Ġproduct ive
Ġconcept ual
Ġjes uit
Ġasc ii
Ġabsor ption
Ġhitch cock
Ġe ager
ra id
Ġrac ist
Ġend ors
Ġconf ess
Ġcle ared
Ġlog ar
Ġexcept ional
Ġincarn ation
Ġconverse ly
Ġunder world
Ġpe an
Ġdist ortion
Ġmid i
Ġbur ma
Ġdoub les
Ġapplic able
Ġmicrop rocess
un i
ul se
Ġind ication
Ġve to
Ġjer emy
Ġvo id
Ġos aka
Ġord ained
Ġproph ets
h in
Ġh ain
Ġl ava
Ġg auss
og l
Ġco vent
ys on
Ġju ice
Ġell iott
writ ten
Ġwithd rawn
Ġenfor ced
Ġchile an
Ġr ans
Ġbl ur
Ġworks hop
Ġnic ol
Ġsymmet ric
Ġcly de
Ġm n
Ġto led
Ġep it
Ġdestroy ers
Ġprem ium
Ġcalcul ate
ne g
Ġk och
Ġlo th
Ġabn ormal
Ġs ally
Ġw agon
Ġn ath
Ġl acks
Ġeight eenth
Ġr er
Ġex terior
Ġmon mouth
Ġann ot
Ġfort ified
Ġinstit uted
Ġhop ing
Ġorthodox y
Ġemphas ized
Ġexplan ations
Ġdeliber ate
Ġdramat ist
Ġhumph rey
Ġmagnific ent
Ġa ve
Ġin equ
ct ica
et z
Ġaf c
Ġmad ame
Ġstop ping
Ġcelebr ations
Ġtan z
Ġhart ford
Ġisab ella
Ġetr usc
Ġmar in
Ġmar ijuana
Ġbo ots
ang u
Ġpre jud
Ġaccompan ying
iling ual
ontin ental
Ġlex ington
Ġinterrupt ed
y u
us k
Ġy og
Ġyear ly
Ġunder ne
Ġsome how
Ġsat irical
Ġstandard ized
Ġdiss ent
Ġwolf gang
Ġcoach es
Ġcorrid or
Ġf ischer
Ġh z
iz ards
Ġbl ades
Ġter ra
Ġsun ny
Ġhon ors
to ok
Ġlif ted
Ġcompat ibility
Ġemot ions
Ġmotiv ation
Ġencl osed
Ġw yn
Ġre pt
Ġsu ed
os o
Ġpl ots
Ġhel met
Ġpublish es
Ġsens ation
Ġtheore tically
Ġmand atory
Ġemble m
Ġreg ards
Ġmid west
Ġeth an
Ġsevent een
Ġmidd les
Ġdres den
at en
Ġcare ers
Ġaxi oms
Ġunderne ath
h oe
Ġa ires
Ġwh ales
Ġunit ary
az i
Ġapproxim ation
Ġfirm ly
Ġmanifest o
Ġsah ara
Ġplut o
Ġremn ants
Ġre hab
Ġv id
Ġsh ear
og ues
ins ki
Ġav on
Ġpost modern
Ġmot if
Ġcompr ise
Ġexclud ing
Ġgradu ates
Ġwed nes
Ġpiz za
f am
it ter
Ġch ecks
Ġlat t
Ġwal ks
Ġtud or
opot am
f le
Ġt ian
it ures
og s
ag ram
Ġla ur
rop ic
Ġjul ie
Ġexplos ives
Ġcanton ese
Ġprest ige
Ġg av
od on
Ġen jo
Ġhold ings
Ġquarter back
Ġaffect ing
mid t
Ġorph an
im an
der land
ise xual
Ġeuro vision
Ġsemit ism
Ġcarth age
Ġdion ys
Ġfl ush
Ġcal d
by e
Ġcomment ed
Ġrailroad s
Ġclock wise
Ġdanc ers
Ġbr as
Ġreg ener
Ġann ounces
i qu
r ange
Ġl er
Ġv od
so ver
Ġhind i
Ġpharm aceutical
Ġdisab led
c z
Ġnat al
Ġtrack ing
Ġhab its
Ġtaiwan ese
Ġmonaster ies
Ġlik ed
Ġguten berg
Ġt is
Ġbu enos
Ġsn o
Ġoce ans
Ġdiagn osed
Ġsubd ivided
Ġdrac ula
Ġa q
as aki
th y
Ġcomp aring
Ġatt ained
Ġcre ws
Ġmedic i
l ings
w i
Ġp ors
Ġr aph
im s
Ġk om
Ġy un
Ġsh ire
ag us
Ġber ks
Ġpush ing
hov ah
Ġd read
il ated
ch us
all ed
Ġform ations
Ġel igible
Ġlocom ot
Ġch ing
art a
Ġup coming
Ġprincip ally
Ġlock heed
w yn
ic ol
ro b
ul d
Ġun in
ist ani
Ġsh y
Ġrep uted
Ġinv alid
Ġcal der
Ġback ward
Ġref ined
Ġswitch es
Ġautomob iles
ret ion
Ġfac ial
Ġjose f
Ġchap man
Ġauthent ic
Ġthurs day
Ġt ant
Ġl ump
Ġr ites
Ġle ib
Ġro gue
Ġcomp ress
Ġsubject ive
Ġastronom ers
Ġreminisc ent
Ġf ission
ge ls
Ġne d
Ġem ma
Ġlo ch
ind a
Ġalb an
Ġmor wen
Ġgrand mother
Ġstruct ured
Ġpan els
Ġwalk ed
Ġenlar ged
Ġher ze
Ġmort al
c ut
h m
Ġout line
Ġcont ing
Ġve in
Ġred s
zz y
Ġfran ks
Ġshield s
Ġschles wig
m akers
Ġt apes
Ġa uck
Ġcast ing
Ġmob il
Ġvic inity
Ġsteven son
Ġacknow ledge
Ġtoled o
re mes
Ġp ens
Ġinter d
Ġfl aw
Ġimag ine
Ġcros by
Ġdaw son
Ġbiz arre
Ġweaken ed
Ġbrab ant
Ġwestphal ia
in ished
Ġd ell
Ġg ue
et ical
Ġam d
Ġthan k
Ġorder ing
app y
Ġprofess ors
Ġbudd y
Ġpoison ing
Ġmaced onian
Ġdw ight
Ġnaut ical
Ġdisast rous
v or
Ġbe ans
Ġj oc
Ġtransl ator
Ġfail ures
Ġlaunch ing
Ġnomin ations
Ġdur an
Ġpsychiat ric
Ġneighb ours
Ġantar ctica
og ene
Ġgr ip
ke eping
Ġrec k
Ġref using
Ġmyth ical
Ġconver ting
Ġorchest ral
Ġscript ures
Ġlor raine
Ġb enny
Ġn os
Ġl umin
Ġto ad
Ġre ass
Ġre illy
Ġle vi
Ġcan als
ember g
Ġarch ie
Ġgar field
Ġportray al
Ġtut orial
Ġincomp at
Ġindef inite
Ġp ater
Ġby te
Ġbr ien
Ġad s
Ġdisc ount
oph y
Ġemploy ers
Ġga ius
Ġexhib ited
Ġni els
op ing
ass ic
Ġmes opotam
Ġs ina
Ġp ud
ade qu
Ġconsider ations
Ġtro jan
Ġworth y
Ġsed iment
Ġfib ers
Ġcliff s
Ġprecurs or
t te
Ġd t
ig ne
ard y
Ġfact book
Ġjust in
Ġlay ing
Ġbad ge
Ġcompl ications
Ġbright on
Ġhil bert
u il
Ġin adequ
Ġv ault
Ġne pal
Ġper cy
Ġmon ty
Ġdep iction
Ġweb page
Ġah med
Ġnegot iated
Ġgran ada
Ġoblig ations
Ġbrun o
Ġwednes day
Ġp iv
Ġg c
Ġk v
Ġtr omb
Ġu pl
onom ic
Ġbi ke
Ġkr ishna
Ġexplo itation
Ġapost les
a j
Ġc unning
Ġp ays
Ġr age
Ġas imov
Ġcl ap
Ġad verse
Ġrem ake
Ġje hovah
Ġresc ued
Ġapost olic
Ġpres ley
Ġcro c
Ġarch e
Ġfort un
Ġimpl icit
Ġscen ic
Ġadvoc acy
Ġcommod ities
Ġhast ings
Ġdud ley
e ous
p ur
Ġmo th
Ġsu ck
Ġman ages
Ġbes ide
l ink
Ġd ac
ac ter
Ġde form
Ġwitness ed
Ġemer ge
Ġlocomot ives
f in
Ġt enn
Ġa pt
Ġk are
Ġk its
Ġher cules
lu ence
Ġsat ir
Ġwood land
Ġmel ting
Ġgran ite
Ġhorm one
Ġs ith
Ġs ass
Ġd und
st ra
Ġsch r
Ġdec ent
Ġdem ise
amm ing
Ġdu k
ann ah
Ġprincip ality
Ġle h
Ġcomp utation
cc i
Ġla os
Ġvol ta
Ġinev itable
Ġauck land
Ġf ulton
ac us
Ġreg ained
Ġsur geon
Ġdel ight
Ġprom ises
Ġpaul o
arian t
Ġinterp ol
Ġmis under
Ġcrypt ography
Ġgalile o
k u
p i
Ġb ates
Ġb isexual
em b
Ġon set
Ġstr ongh
Ġconcent rate
Ġsimpl icity
Ġsatisf y
Ġhann ibal
Ġinsuff icient
Ġd ong
Ġl ips
ine m
Ġse ldom
ur u
Ġcour thouse
Ġlim b
Ġaff irm
Ġnetwork ing
Ġbow ling
Ġcollect ors
Ġlun a
Ġmaf ia
it re
Ġh ok
Ġinc ent
Ġcur ious
Ġexec ute
Ġwear s
Ġrivers ide
Ġjudge ment
Ġjoint ly
Ġbrad ford
Ġcole man
Ġenl isted
Ġ ith
Ġse iz
pt ic
yl on
Ġmat s
Ġupgr ade
Ġassign ment
Ġdesper ate
j ev
os ure
Ġro ver
Ġaf raid
Ġme ga
Ġel oqu
Ġintro duces
Ġlaure l
Ġconcur rent
ar c
ir t
Ġle xic
Ġpre lim
Ġcar riage
Ġdec oration
Ġinv ade
Ġnational ly
Ġcal ed
gest ion
Ġorigin ating
Ġjackson ian
enz ie
Ġposter ior
Ġn athan
Ġsi oux
Ġex eter
Ġem issions
Ġins ane
Ġsong writers
Ġmarch ing
Ġgro s
road s
Ġphill ip
Ġsurpr ised
Ġdimin ished
x x
Ġan twer
ay ette
Ġcomp elled
Ġab dom
br and
Ġhom age
Ġcontract ed
Ġamend ments
Ġfet ish
l ature
Ġto x
Ġbe ech
Ġde x
ia o
Ġsp or
Ġed mon
Ġjan et
Ġcoll ar
Ġhat red
Ġmg m
Ġbotan ical
Ġantwer p
Ġst ain
Ġhun ger
Ġconver ts
Ġzh u
Ġunp re
Ġversa illes
Ġjub ile
gov ina
ed ience
id i
Ġk ib
ap o
ish a
ber ger
ra f
Ġcapt ivity
Ġprec ious
Ġcas sette
Ġunf inished
Ġpresum ed
Ġdictator ship
Ġencry ption
i w
l ag
l ane
u ce
Ġide ological
Ġww f
Ġreason ably
Ġpent agon
Ġadher ents
Ġspat ial
Ġt ips
Ġp ension
Ġk ens
Ġann ie
Ġhost ing
Ġpan ther
Ġinterc ourse
Ġal der
Ġsp ice
Ġsp inal
Ġspec ify
Ġarch aic
lo ok
Ġteach es
Ġconv ince
Ġinaug ur
Ġmineswe eper
it on
Ġpl acement
Ġcar ic
Ġgl am
Ġdown s
Ġtransl ates
Ġsubject ed
Ġcatal onia
Ġgrant ing
Ġanaly tic
Ġpredecess ors
j iang
Ġt ues
Ġf ist
Ġc k
le ading
Ġr ale
Ġen rich
Ġsus cept
Ġvictor ious
Ġtal ented
Ġfulf ill
Ġexecut ives
Ġunif orms
Ġus eless
Ġdis par
ime ter
Ġag n
Ġpot tery
Ġopt ics
Ġmess iah
Ġassum es
Ġconstit utes
Ġarrow s
Ġlung s
r ier
Ġt ones
Ġd are
Ġk yr
Ġsh iva
Ġsp are
Ġgr ape
Ġno on
Ġir c
Ġcur ved
Ġho ax
Ġencour aging
Ġlem on
Ġwol ver
Ġadvis ory
Ġabel ian
Ġexpend itures
Ġcurric ulum
Ġf let
Ġne ural
ire n
ah on
Ġfar ther
Ġliter acy
Ġlaf ayette
Ġtues day
l air
Ġp ins
Ġh ue
Ġdisc s
oy a
Ġequ ity
mber g
pr int
Ġcommercial s
Ġic ons
Ġcooper ative
Ġclar inet
Ġinfect ions
Ġmeth yl
sh ot
Ġsl opes
Ġfin ch
Ġste pped
Ġinvestig ated
Ġhelicop ters
it as
Ġg ale
Ġk ling
Ġch un
Ġsh out
Ġrel ies
Ġrem ind
Ġprov ing
Ġtre ating
Ġsn ap
Ġcab in
Ġpione ered
Ġfasc ism
Ġsiber ia
Ġneb ula
b ral
il ion
ro ve
Ġch or
Ġmo hammed
Ġback up
Ġbre ton
Ġros en
Ġvac ation
Ġdepend ence
Ġurugu ay
o inted
ul ed
Ġsp aw
Ġle thal
Ġbo iling
eld a
Ġmod ify
Ġgh ana
Ġscen ario
Ġgor ge
arth ur
Ġtes la
Ġd ots
Ġal igned
Ġv ick
Ġdis ks
Ġrel at
Ġdo b
app ropri
Ġsyn c
Ġlouis ville
Ġbrad y
Ġprofit able
Ġ ure
ic ates
st orm
oc o
Ġar tery
Ġover d
Ġform ulation
Ġjust ify
Ġref lex
Ġperm its
Ġlone ly
Ġillegit imate
pl anes
Ġco erc
plo ys
ih ad
Ġanton y
Ġpup il
Ġgentle man
h orn
t us
Ġn ure
Ġint est
ah ed
Ġtrib unal
Ġamb iguous
Ġwatch ed
Ġtiss ues
Ġcondem n
Ġnir vana
t ics
Ġan akin
Ġsh rew
Ġmar vin
Ġstr anger
Ġhuman itarian
be th
Ġsun light
Ġlabor atories
Ġharm ful
Ġthin ks
Ġbever ly
j in
Ġs ach
Ġp is
al ach
Ġz oro
Ġre per
Ġpol ls
Ġtra vers
Ġvac ant
Ġdenomin ation
b in
Ġt b
Ġf ah
Ġw we
st ones
ur able
Ġcon cess
ich te
Ġpl o
pl an
Ġconf ron
Ġtrad es
Ġhero in
Ġconfeder acy
Ġtat to
Ġconcl usions
Ġenh ance
Ġincorrect ly
l av
Ġd z
Ġgr un
Ġlam bert
Ġchalleng ing
Ġincred ible
Ġmar il
ke f
Ġdemograph ic
Ġmodel ing
Ġdam asc
Ġtens or
Ġfay ette
Ġsink ing
Ġkazakh stan
l is
w itz
Ġm w
Ġk ah
el ong
Ġref uses
Ġneg l
Ġwal ton
otechn ology
Ġedmon ton
v re
Ġb ury
ol an
Ġun iv
Ġsc or
Ġpol o
Ġsal ad
we y
ced ented
Ġknock ed
Ġinspect or
Ġspaw ned
Ġb t
Ġam ar
Ġpl ed
so on
Ġwe aker
Ġpers istent
Ġpat terson
Ġbor g
Ġbegin nings
Ġimpro v
Ġcapt uring
Ġboard ing
Ġtrust ed
Ġclean ing
Ġleban ese
f d
Ġf y
Ġk od
Ġfe ather
Ġpar ity
Ġsm ugg
Ġins ist
Ġsent iment
Ġgar bage
Ġannex ation
Ġsustain able
ommission ed
Ġunpre cedented
ic les
Ġbl a
Ġlo ans
Ġtal ents
Ġkr ak
Ġqual ify
Ġkidn apped
t ail
Ġint imate
Ġdef icit
Ġstar r
Ġview er
Ġhor ace
Ġcustom ary
Ġcook ed
Ġnas al
Ġnord ic
Ġspher ical
Ġkau f
Ġpurport ed
Ġn uts
ut o
Ġpro ton
Ġvol ks
Ġjud ged
Ġball ad
Ġpak istani
Ġimag ery
Ġscar ce
Ġcartoon ist
Ġindirect ly
Ġperipher al
Ġtremend ous
Ġt idal
Ġw ounds
Ġn iet
Ġg inger
Ġbu ffer
Ġdisc o
Ġmet amorph
Ġsyn onymous
Ġpan or
asc ular
Ġfrances co
Ġherze govina
f tw
on ge
Ġn il
Ġr m
Ġmon ica
Ġdep ot
Ġoccup ying
che z
Ġhunting ton
Ġheir s
Ġsene gal
Ġprolong ed
Ġm ith
it u
Ġph yl
Ġqu i
te chn
Ġfil ters
Ġvill ains
Ġpack ages
Ġchall enger
Ġms n
Ġtransmit ter
Ġsper m
w oman
Ġn n
Ġd ive
Ġfour ier
Ġv iz
Ġjo ey
Ġadd itions
Ġgeneral ized
Ġjud y
Ġpred iction
Ġattach ment
or ff
ow ing
Ġno ah
Ġmin ers
Ġshe ets
Ġel astic
Ġrun ners
Ġimportant ly
Ġou ght
Ġhardc over
an ne
Ġw ille
Ġr tt
ad ia
Ġv augh
ub le
Ġport fol
Ġpost age
Ġdon key
Ġmur d
Ġfranc isc
Ġcycl ing
Ġlev y
Ġeul er
ch y
Ġk aw
Ġpar agu
Ġdisp ens
Ġtelecommun ication
Ġr ama
Ġar ping
Ġper uv
Ġchar lem
na eus
Ġviol ations
Ġlic enses
Ġcampus es
Ġcow boy
Ġpremier ed
Ġabb ot
Ġcollabor ated
Ġhog an
c ourt
Ġl unch
Ġl ope
Ġstr ipped
Ġcal ib
Ġbenef icial
con ne
Ġblow n
Ġpix el
Ġanticip ated
Ġposthum ously
Ġsinc lair
Ġarping stone
w y
Ġim db
Ġcre te
Ġcompet itor
Ġbrother hood
Ġsax ophone
Ġrabb is
Ġintent ions
Ġearthqu akes
Ġpatric ia
Ġcharlem agne
w iki
Ġn ero
Ġr all
Ġpan the
Ġdistrib utions
Ġoccup ies
Ġsem antics
Ġstrip es
Ġinterf aces
ius e
Ġcult urally
Ġgreen wood
Ġretain ing
Ġbart on
Ġced ed
Ġunnecess ary
j our
v ie
Ġo ch
Ġl ust
Ġl act
Ġv int
ans on
sh i
Ġwat t
Ġsequ els
Ġrecept ors
b ill
Ġn ico
Ġus enet
Ġen rolled
Ġdo ve
Ġhy m
Ġread ings
Ġce iling
Ġang ola
Ġtim or
Ġinvest ments
Ġdark er
Ġmind ed
Ġreun ited
Ġmanip ulation
z illa
Ġz amb
Ġl um
od ing
ath ic
Ġair lin
Ġview point
ha o
Ġblock ing
osa urs
hard t
Ġdevast ating
n ic
on o
Ġl ut
ig raph
Ġk nee
ane y
Ġappro x
Ġappe aled
Ġimper fect
Ġfold ed
Ġastrol ogy
Ġbroadc aster
Ġbism arck
f k
f old
ig ated
th an
av an
Ġsc orp
Ġchar ism
Ġreg iments
Ġpark way
Ġdyn ast
Ġtwel fth
Ġprelim inary
on ius
at io
Ġr b
Ġfl oppy
Ġlit urg
Ġes oter
och ond
Ġalexand ra
Ġpropag ation
Ġintention ally
Ġabund ance
Ġembark ed
m ap
us er
Ġy ar
Ġsp ray
Ġcomm ut
Ġcr ay
Ġsa ur
Ġproject ed
Ġdom ains
com es
Ġdam aging
Ġspl end
Ġcine mat
Ġsq l
Ġenz ymes
Ġsu z
Ġol ig
Ġart em
Ġbas el
Ġcust ody
Ġconfir m
Ġaero d
Ġclay ton
Ġcarp enter
Ġburg ess
Ġbutter fly
Ġspont aneous
Ġn od
Ġen ables
Ġgrad uation
Ġsele uc
f il
o ft
Ġgr ams
Ġexp onent
Ġfin ale
Ġfore most
Ġred irect
Ġpitch ed
ipe g
Ġcav ity
Ġanswer ed
Ġn ud
Ġn ah
Ġe j
Ġfr a
et ric
Ġlin ed
Ġem erson
Ġdef ender
Ġsurv ives
Ġfavor able
Ġclar ks
Ġabsor b
hy dr
Ġrepr int
Ġsuspic ion
Ġcompuls ory
Ġmatric es
on ies
Ġp ile
Ġme yer
Ġhim al
Ġsouth ampton
Ġnow here
Ġreview ed
Ġstrugg les
bu ilding
Ġdispl aced
Ġacceler ated
Ġbrut al
Ġchel sea
Ġh in
Ġtr acy
Ġad a
Ġest onian
Ġsl im
Ġmark er
Ġfort unes
Ġsubst itution
Ġsom alia
Ġelev ator
Ġlauren t
Ġdolph ins
Ġwinn ipeg
Ġl le
Ġex commun
Ġsp oon
Ġimp e
Ġver de
Ġactiv ated
Ġabs urd
Ġinterpre ter
Ġresemb ling
Ġtoul ouse
Ġsain te
Ġfor rest
Ġad ol
Ġsharp ly
Ġprocl amation
Ġthe ss
Ġb ree
ag g
Ġprov ider
Ġright eous
Ġoct ave
Ġprocl aim
Ġhut ch
Ġemin ent
Ġh au
Ġman ned
Ġab st
Ġarm ament
Ġhum e
Ġexpl oring
Ġmilit ant
Ġmac au
Ġflow ering
Ġok in
Ġtu ned
Ġquot ations
Ġpue b
on ential
or ian
Ġg os
Ġam p
Ġrel ate
Ġfore cast
Ġtop s
Ġsal ary
Ġput nam
Ġball istic
Ġcell o
Ġexcell ence
Ġextract ion
Ġfoss ils
Ġdere k
l ay
Ġd ens
Ġapp les
Ġem my
Ġcal m
Ġmc d
Ġforeign ers
Ġsyll ables
Ġmuss olini
Ġt ucker
Ġw ak
Ġz oe
Ġd ella
Ġg p
Ġr k
Ġsh im
Ġam en
Ġqu asi
iss on
Ġap ar
Ġcontrovers ies
Ġprem ise
Ġpossess es
Ġemphas ize
Ġscandin avia
Ġpremiers hip
m u
Ġk ot
Ġk and
Ġint ake
Ġcomm uter
Ġem ploys
Ġlong time
Ġdirect ing
Ġtext ure
Ġtheat ers
Ġsens itivity
Ġpatri otic
Ġfried man
Ġreson ance
Ġreluct ant
Ġinsign ia
Ġfr y
Ġhe gel
Ġmy r
Ġmor se
Ġru pert
Ġan k
Ġd ana
ous ed
Ġdec lining
Ġli kes
Ġlong itude
other apy
Ġadv ancing
Ġsecret aries
Ġsett ling
Ġda isy
Ġincorpor ating
Ġadjust ed
Ġmaril yn
l ined
st ick
qu is
Ġpr ag
Ġhall uc
Ġfav oured
Ġtransform ations
Ġconstit uted
Ġstay ing
Ġenjo ys
b ius
c ode
p ow
Ġe tern
Ġor ion
ph en
Ġinterest ingly
Ġexpress ing
Ġspo of
Ġsubdiv isions
ot ics
Ġu bi
act ory
Ġgu ilt
Ġsk ip
Ġvi able
Ġaccident al
Ġpremier es
Ġvh s
Ġbritt any
iuse ppe
ar ium
Ġtw e
Ġg le
op ian
Ġde wey
ip ation
end icular
Ġnegot iate
Ġhein lein
Ġcomfort able
l as
ine ment
el age
Ġmo ons
Ġli ability
Ġwhere in
Ġfell ows
bro ke
Ġabb ott
Ġbullet in
Ġw ires
Ġar ama
ib o
Ġab rupt
Ġsupp ression
Ġthink ers
Ġmamm al
Ġthorough ly
Ġineff ect
Ġp istol
Ġal ma
ans en
Ġx avier
az ar
Ġjud iciary
Ġautom otive
Ġcoin age
Ġconven ience
f rey
g ae
Ġs ings
Ġw i
ic ative
Ġde br
Ġinter fer
Ġla o
Ġchrist ine
Ġphil anth
Ġav ant
yn th
Ġpan zer
Ġspin ning
Ġbour ge
Ġpull ing
Ġflour ished
Ġd l
Ġst ip
Ġbr at
Ġsch midt
Ġexp onential
Ġday time
Ġbel ize
ias m
Ġbrig adier
Ġtransc ription
Ġlibert ies
o ise
Ġl ill
Ġnine teen
Ġap i
Ġpass port
Ġhelp ful
Ġfoc al
Ġcontem pl
Ġimperial ism
Ġcommod ity
Ġperp endicular
Ġshif ting
Ġloren zo
Ġamus ement
am y
Ġher r
Ġvarious ly
Ġfort ifications
Ġerr one
Ġreconc iliation
Ġyuk on
Ġc et
Ġcon way
ap est
Ġy or
ment ioned
Ġche er
eth e
Ġroll er
Ġforb es
Ġstere o
Ġeru ption
Ġbombard ment
Ġarama ic
Ġgen etically
Ġqu ir
Ġchar m
du ctions
Ġtrans gen
Ġpain ful
Ġaccept s
Ġcru isers
ivers ity
add y
Ġkir by
Ġparish es
Ġrefuge e
Ġprol ifer
Ġpist on
u en
Ġdec iding
Ġmir rors
Ġrang le
Ġrud olph
Ġstret ching
Ġmck in
g us
Ġp oul
ch at
qu ist
ict s
Ġpo e
Ġdr ift
Ġsl o
Ġkur dish
Ġdiplom acy
Ġsimult aneous
Ġcongreg ations
Ġjel uf
Ġcircumc ision
w ana
Ġt ire
Ġj he
Ġbl anc
hy d
Ġyugosl av
Ġnons ense
Ġacadem ics
Ġmascul ine
Ġp v
Ġst en
iv ist
Ġno ir
Ġwar ned
Ġimp ed
Ġwater fall
Ġau ction
ug awa
Ġtit us
Ġhon est
get ic
Ġfu ji
Ġlauren ce
p ole
ig s
ith e
Ġv ander
Ġen gels
Ġred und
Ġq in
Ġnucle i
Ġgall eries
Ġregul atory
Ġpresc ribed
p ad
Ġpr ints
Ġqu inc
Ġexpl oded
Ġcop e
Ġbed room
Ġvul can
Ġsymp athy
Ġp ablo
Ġsc ip
Ġimp ress
Ġsuper vis
Ġbi os
Ġdavid son
Ġguitar ists
zo ic
Ġhetero sexual
Ġsuprem acy
l ius
u er
Ġfor ge
if fer
ak is
Ġgr ains
uc er
Ġwe imar
Ġform ulated
Ġreal ms
Ġpenet ration
Ġconsort ium
Ġg iuseppe
Ġen er
Ġpart isan
Ġgu an
Ġauth ored
Ġhal t
Ġdivid es
Ġexch anges
Ġtail s
Ġble eding
Ġmush room
Ġparach ute
Ġdamasc us
Ġj um
est os
Ġle igh
Ġno el
ec ies
Ġpur ity
eli hood
Ġfergus on
Ġf iji
Ġst am
Ġal ley
and ro
Ġne op
Ġwill ow
ss es
Ġwest ward
Ġbel grade
Ġru ther
Ġamb ush
Ġmerch and
Ġjar gon
Ġprivile ge
v il
Ġg ers
am ents
Ġv om
Ġsm ell
Ġdev ote
Ġnews group
Ġrob ust
Ġdam ages
Ġrestr iction
Ġfat ty
Ġmong ols
id able
Ġv ort
ast ed
Ġwill is
Ġline age
Ġnorth umberland
Ġsec urities
Ġden ounced
Ġprem ature
Ġmotor way
Ġcosm ology
Ġtas mania
Ġbiograph ies
Ġpilgrim age
Ġnept une
u pp
Ġz ag
Ġd ixon
ab o
Ġper t
Ġmon o
Ġresp ir
Ġhu ang
Ġbul b
Ġadm ired
Ġmist akes
Ġtouch ed
Ġirr igation
Ġkine tic
Ġpors che
Ġse af
ir th
Ġbl oss
Ġrun ways
Ġconne ctor
Ġjud ith
Ġbud apest
Ġpred ictions
Ġstre ak
Ġtheolog ians
Ġgaul le
Ġcic ero
Ġp ach
Ġep och
Ġinform ally
Ġur ine
Ġhom est
Ġtext ile
Ġbul ld
Ġspect ral
Ġcalcul ator
roph ys
Ġencod ed
Ġmetall ic
Ġsubord inate
Ġnure mberg
al u
Ġz eta
Ġte ut
Ġmac arthur
Ġhaw ks
Ġfresh water
Ġvirg il
Ġd amp
ian i
be at
Ġgeorge town
Ġhost age
Ġgar age
Ġlik elihood
Ġjel ly
Ġl c
Ġse als
Ġcomm enced
Ġsoc io
Ġann oy
Ġemp ires
Ġjack et
Ġpoly techn
Ġsevent y
Ġoblig ed
Ġbm w
zs che
Ġdynast ies
Ġun rest
Ġsh ame
Ġsp it
ob y
Ġref ere
net te
Ġrot or
Ġrever ted
Ġaggress ion
Ġorth og
Ġtrigger ed
Ġved ic
Ġassyr ian
Ġemigr ated
Ġsummon ed
Ġschiz oph
Ġthresh old
Ġd ental
le en
av o
Ġgr ind
Ġchar tered
pe ople
Ġend less
row ned
Ġequ als
Ġinvest ed
ij mans
Ġwal sh
Ġdeput ies
Ġmoz illa
Ġinex p
Ġincumb ent
Ġw en
Ġb um
Ġj ag
Ġnor wich
Ġap ache
Ġcd s
at um
Ġd ice
Ġmod ular
Ġgl oria
Ġfree m
Ġsn akes
Ġwil m
Ġpione ering
Ġprost itution
Ġposthum ous
Ġparadig m
r ador
Ġt ann
Ġf as
Ġl v
Ġse ap
Ġal ert
el ing
Ġy ok
Ġgr aff
Ġoff set
Ġpos ed
ov i
Ġwat ts
Ġsar at
Ġobl igation
Ġampl itude
Ġfilip ino
Ġmcm ahon
Ġrtt emberg
Ġjhe ijmans
Ġto c
Ġad obe
Ġout right
Ġwe ights
Ġcre ators
Ġbar g
Ġrespect s
Ġconsc ience
Ġlingu ists
Ġheadquar tered
Ġry u
Ġqa eda
m ic
Ġn fc
Ġd ess
Ġst air
ie g
Ġout ward
Ġhigh ness
Ġmon astic
Ġsuperior ity
Ġniet zsche
p se
y c
Ġtransl ate
Ġdoctor ate
Ġmiddles ex
z el
Ġf oul
Ġb ount
Ġg low
ul ators
Ġch ords
all a
Ġcar men
Ġsoc rates
Ġcam ero
Ġamb igu
Ġmis leading
Ġexcl usion
Ġextract ed
Ġembr aced
Ġisot opes
Ġn r
Ġinc on
Ġam nest
Ġbur gh
Ġcle ver
Ġcontrib utors
Ġroc kef
Ġexplo it
Ġclim ax
Ġyan kee
Ġsoy uz
Ġweir d
Ġj al
Ġv ader
Ġsh ed
Ġu ly
Ġdis asters
Ġmin us
we b
ush i
Ġmac millan
ari at
Ġincorpor ation
Ġchlor ide
Ġunw illing
Ġdefinite ly
Ġhond uras
Ġrhy me
Ġmo g
Ġdo yle
orn is
Ġinv itation
tt es
Ġref ract
Ġvis ions
Ġsan ctions
Ġbul lets
Ġdor set
Ġconfir mation
Ġpent ium
Ġdir t
i em
ow ay
Ġde eds
Ġsome body
Ġlo ops
Ġsw orn
Ġrad ios
Ġmen u
Ġassass in
Ġaqu atic
Ġero tic
Ġtick ets
Ġl om
ur bed
Ġger ry
Ġobject ions
Ġlu igi
Ġfit ting
Ġts un
Ġane cd
Ġathen ian
Ġexagger ated
Ġsurg ical
a id
Ġin appropri
Ġn f
Ġr ar
Ġj ut
Ġun int
ist on
Ġle uc
Ġcont ra
Ġem ily
Ġplay boy
yl ene
Ġdown ward
Ġber mud
Ġflu ct
Ġmail ing
m aking
Ġan terior
Ġr ides
Ġch ances
ap a
Ġpr adesh
Ġdef enses
Ġadv ancement
Ġmer ry
Ġnote worthy
Ġreact ors
Ġgard e
Ġmini ature
Ġenthusi asts
Ġbourge ois
Ġt ad
Ġb oulder
Ġn k
Ġair s
br as
Ġfa una
Ġexpress way
Ġindic ator
Ġrever end
Ġglac ier
Ġcorrel ation
Ġcannab is
Ġschizoph ren
j j
y y
Ġf eld
Ġad e
Ġcan aan
Ġdes k
mans hip
Ġanarch ism
Ġspar se
Ġsubdiv ision
Ġh ague
Ġch alk
Ġunder took
Ġrest ing
Ġsun shine
Ġord inal
Ġlif es
Ġak in
Ġcrim son
Ġlion el
Ġmoz amb
Ġunsuccess fully
Ġenthus iasm
gart en
Ġa ster
it ating
Ġgener ators
Ġconf ession
Ġdesign ing
Ġep onymous
Ġhall ow
Ġmad ness
Ġsucceed ing
Ġfu els
Ġcool ed
Ġbun ny
Ġlisten ers
Ġbuil der
Ġdispos al
Ġflet cher
t op
in qu
Ġg iles
Ġj agu
ain ted
Ġbat ter
Ġsocial ists
rell a
Ġpreserv ing
Ġcriter ion
Ġalumin um
Ġcricke ter
Ġa ise
al ysis
Ġr ation
wn ing
ast ing
Ġqu inn
Ġher t
Ġfl ames
Ġpresent er
Ġel k
Ġrat ios
Ġens uring
Ġparalle ls
Ġelim inating
Ġtok ugawa
Ġkash mir
x ley
en ko
Ġn ude
Ġre iss
et ta
og ie
Ġher esy
Ġcharacter ised
ae a
Ġinflu x
Ġfinal ist
Ġexam ine
Ġpsych oan
Ġreve aling
Ġdign ity
Ġar yan
Ġro x
Ġcol oss
Ġapp alach
Ġag rees
Ġgood bye
Ġprop ell
Ġeth el
Ġprepar ations
Ġpent ec
Ġoptim al
Ġsynthes izer
Ġtribut ary
k ary
Ġo val
Ġh ulk
Ġst icks
Ġwh ip
Ġk end
Ġus da
Ġlab elled
Ġprogress ion
Ġvel vet
Ġstret ched
Ġdeuts che
walk er
Ġpromot ional
Ġenroll ment
en ia
Ġse ize
Ġunder going
Ġpat ro
Ġcompet ed
Ġsymbol ism
Ġmead ow
Ġc ite
ir med
ot al
ond o
Ġthem ed
ten berg
Ġdist ress
Ġbar riers
Ġbre ach
Ġmult imedia
Ġach illes
Ġdele gate
Ġconsist ency
Ġinvent ions
Ġstere oty
bold t
Ġtanz ania
Ġo mitted
Ġw ield
Ġg eck
le igh
Ġst ressed
op athy
up s
Ġnav arre
Ġdi as
Ġpap acy
Ġraf ael
p ike
Ġb ax
Ġst ellar
Ġdes ires
Ġrep orters
Ġland own
Ġadd ison
Ġconf isc
Ġlight weight
Ġresearch er
Ġaffil iate
Ġt iles
Ġor ator
Ġph ylum
Ġco v
ative ly
Ġsub fam
Ġdev otion
Ġinstit utes
Ġhun ts
Ġnich ol
Ġworship ped
Ġandre as
ar med
Ġde w
Ġhe al
Ġbo asts
Ġbl itz
ail le
Ġir is
Ġident ities
Ġnatural ist
Ġban ana
Ġsens ory
Ġtend encies
Ġleonard o
Ġjubile e
c are
Ġl ler
Ġaf ore
Ġi j
Ġsub str
cl iffe
Ġcomment ator
Ġker r
Ġment ally
Ġvert ices
Ġp enc
Ġse cts
Ġv ince
Ġint ra
ack er
Ġqu ake
Ġmay er
Ġpar th
ounc ing
Ġdick inson
Ġrick y
Ġpentec ost
en es
Ġm ald
Ġl j
Ġsp iders
Ġnot ions
Ġcl ans
Ġhar ness
Ġvol ley
Ġlower ed
Ġstra its
Ġmaxim ilian
Ġmob ility
Ġdefect s
Ġvolcano es
Ġatlant is
fle et
w al
Ġp b
Ġne ville
Ġpr icing
Ġindivid ually
Ġpac if
Ġcome back
Ġpear son
Ġintellectual s
Ġsack ed
Ġoffsh ore
Ġamnest y
Ġh anged
ar ine
Ġk j
Ġch atham
ment ation
bs d
Ġdiff usion
Ġrob es
Ġclear ing
Ġwild e
Ġderiv ation
Ġrhythm ic
Ġtunis ia
u ating
ed ic
Ġout look
Ġim f
Ġstar ship
Ġunt o
Ġlow ell
Ġche ek
Ġinvent ory
Ġobserv ing
Ġdecre asing
Ġnam ib
Ġchand ler
Ġtribut aries
ic ious
Ġve c
Ġpract icing
Ġfair fax
Ġale ks
Ġtum or
Ġrp m
Ġrockef eller
r ans
Ġs ights
Ġcon gen
av i
Ġte au
Ġsl ayer
zz o
Ġnom enc
Ġexped itions
Ġdick ens
Ġmigr ated
Ġinaugur ated
c ity
Ġb s
Ġm uc
it ives
Ġbo er
Ġpe jor
Ġcar m
Ġpers ians
Ġep ith
Ġsuper vision
Ġorigin ates
Ġmodel ed
Ġmut ant
Ġsher idan
Ġtriang ular
Ġcomparative ly
Ġdisagree ment
Ġrook ie
Ġether net
Ġperuv ian
e er
Ġn erves
Ġg ong
ro wn
Ġk ru
Ġsp ani
Ġhas s
Ġpe ck
Ġimp ulse
Ġx box
Ġlab rador
Ġbomb ings
Ġpack ed
Ġunf air
Ġkid ney
Ġutil ized
Ġguin ness
m are
Ġd erog
Ġch il
Ġind ie
ond uct
Ġafter ward
ij k
col o
Ġspect rosc
Ġrebu ilding
Ġenerg ies
n or
Ġh ick
Ġbar ker
Ġmag dal
Ġauthor itarian
Ġlet t
Ġnight cl
Ġturk ic
Ġinadequ ate
c ence
Ġth ief
ion age
Ġv r
ak o
end ale
Ġrobert o
the us
Ġtrust ees
ipe i
Ġrecept or
v ine
Ġo asis
Ġz a
Ġr ca
Ġst ocks
Ġwe aver
Ġexp ulsion
Ġes k
Ġsound ing
arian ism
Ġdistrib ute
Ġresist ed
Ġcoord ination
Ġevol ve
Ġjess ica
Ġstup id
k an
an bul
ad h
Ġbo one
Ġbl end
ug a
Ġcomed ians
zz le
Ġmcc l
Ġtact ic
Ġlan tern
Ġae ge
Ġraph ael
Ġt su
on ica
Ġor well
sh aw
Ġimp ose
Ġmy ers
Ġste aling
ung en
Ġpun ished
the id
Ġka iser
Ġscar let
urb ation
z burg
Ġa eg
en za
Ġin uit
Ġg illes
Ġfr ight
Ġsp iel
Ġend uring
Ġfo oth
Ġradical s
Ġhaz ards
Ġscout ing
Ġzion ism
Ġist anbul
Ġpneum onia
Ġdescript ive
Ġruther ford
a ren
Ġs amp
un ner
Ġv ain
Ġle one
Ġcan ber
Ġres orts
Ġrep airs
Ġob ey
Ġhar lem
Ġpur suing
Ġpap ua
Ġven er
Ġta ipei
Ġconv oy
Ġmes o
Ġbyz ant
Ġtitan ic
Ġapocaly pse
Ġapar theid
k r
Ġw ired
Ġb rent
Ġh ire
Ġz elda
Ġun aware
Ġy el
Ġinc idence
ens ible
for ward
Ġsa ul
Ġfa ust
Ġey ed
Ġbab a
Ġequival ence
har ma
Ġrib bon
Ġse aw
Ġpe pp
Ġhigh lights
Ġsec ession
gr ass
Ġgu i
Ġju g
ino x
Ġchamp agne
Ġrod ney
Ġteleph ones
Ġvern acular
Ġrefr iger
Ġb p
Ġne on
Ġcan vas
Ġmed ication
Ġfe athers
Ġsch ism
Ġpa x
Ġconf using
Ġca ven
Ġtheat res
Ġneutral ity
Ġfrig ate
Ġuzbek istan
Ġo ste
Ġp ets
Ġb enson
Ġm ens
Ġto e
Ġse ated
le ction
Ġre na
Ġreg ulate
Ġmid land
Ġsepar ating
Ġkh z
Ġexch anged
Ġbol t
Ġbol iv
Ġcert ification
Ġjak ob
m ined
p ress
Ġp og
it one
Ġan jou
ut ory
Ġun ac
ft a
Ġer ich
Ġgar cia
Ġcard iac
Ġjul iet
Ġdia grams
Ġign ore
Ġshel ley
Ġcrash es
Ġrecommend ations
Ġpotato es
Ġmoist ure
Ġamphib ious
Ġplent y
Ġt ired
Ġa is
Ġd oses
Ġst utt
Ġchrist ie
Ġhuman ities
Ġur s
Ġche f
Ġmut ation
Ġcompl ained
Ġmetropol is
Ġremark ably
Ġpip er
Ġconclud e
Ġcarn iv
Ġbund es
Ġvint age
h og
Ġcl ones
Ġeng aging
Ġger ard
Ġcur v
Ġcase y
Ġident ifies
Ġcub s
Ġrevol utions
Ġpyth ag
Ġsubsc rib
Ġpist ols
Ġconfront ation
Ġlogar ithm
on ics
Ġto ken
ass is
Ġgu am
ik en
Ġla un
Ġhand ic
Ġsuggest ions
Ġcrow ds
Ġglobal ization
Ġgi ul
Ġmold ova
Ġquot ation
Ġr amb
um ont
Ġcan ary
Ġrem em
Ġsk ys
Ġwheel er
Ġvul gar
Ġsloven ian
Ġm ish
Ġe ly
Ġe ck
id y
Ġqu o
Ġdo o
Ġtur tle
Ġesp ionage
Ġsen eca
Ġalle gh
Ġprin ters
Ġnomin ally
Ġperfect ion
Ġturk men
Ġglass es
Ġsoph ia
Ġaer onaut
Ġpla que
Ġrectang ular
Ġl ily
Ġfor s
Ġas set
Ġsp ine
ud ed
Ġbl az
Ġinher ently
Ġmit ochond
Ġdecre ases
Ġelis abeth
Ġrespir atory
Ġle ak
Ġcam br
Ġpsych ologist
w ill
Ġn w
Ġse v
ab el
he it
Ġrod gers
Ġbull s
Ġmarx ism
Ġsatisf ied
Ġabb as
Ġecl ips
Ġrecommend ation
Ġdisadvant age
Ġlope z
k al
k ie
Ġ ida
Ġm ound
Ġn ue
Ġu b
Ġpopul ous
Ġad ri
Ġab y
Ġrec order
ons on
Ġflo at
Ġpick ing
Ġemer ald
Ġcauc asus
Ġapprec iation
Ġfian na
an ity
em es
Ġen igma
ud o
Ġi oc
Ġunion ist
ha ven
Ġanth rax
Ġentertain ers
Ġhypoth etical
Ġequator ial
Ġparagu ay
Ġquinc y
Ġc ss
el ines
ast e
Ġcan e
Ġreg gae
Ġinst antly
Ġsing h
Ġap oll
lin ary
Ġmethod ology
Ġlear ns
ba um
Ġmatch ed
po ints
Ġsplit ting
Ġoverl ap
Ġstir ling
u ity
Ġt d
Ġs ino
ad ian
Ġun se
Ġar ising
Ġro lled
Ġind ul
Ġcle m
Ġmater nal
Ġfrank ish
Ġsho ots
Ġstrugg led
Ġamal gam
Ġmo hammad
Ġpress ing
Ġcost ly
Ġmeaning ful
Ġange la
Ġbrown s
Ġmarc os
Ġnarrow ly
Ġhamm ond
Ġinput s
Ġesoter ic
Ġcaven dish
Ġu pt
Ġres ide
Ġpar aph
Ġinter conne
Ġer as
Ġpot ent
Ġsmith son
Ġnom adic
Ġconsol es
Ġwer ner
om at
Ġbo yle
Ġhist oire
Ġnum erals
Ġcr ab
Ġturn pike
Ġviol ated
Ġbab ies
Ġgeograph ically
Ġdin osaurs
Ġbacter ial
cha ft
Ġparam ilit
Ġbrow ne
Ġendors ed
n is
Ġc ake
Ġw ic
Ġh id
Ġn z
Ġj ihad
Ġall ocated
Ġinv ading
Ġgo b
Ġap olog
Ġmich elle
Ġdiv inity
Ġsam ar
Ġdeb ts
Ġsem inal
Ġsurround ings
Ġsav ings
Ġwol ves
Ġtelesc opes
Ġethiop ian
Ġencompass es
ishn u
Ġcanber ra
o es
Ġinc oming
ach im
Ġinf ilt
Ġcle op
Ġemploy ing
Ġquarter ly
Ġah mad
Ġpig eon
Ġcoeff icient
Ġinexp ensive
Ġsarat oga
p op
re b
Ġro l
Ġmar ina
ade us
Ġgener ates
Ġcr ass
Ġmu g
ov ic
Ġpat ented
ple as
Ġpsych ic
ari os
Ġmir acles
Ġtrou bled
Ġrecip es
Ġment or
Ġbund le
Ġsubsp ecies
Ġm oll
Ġg oss
art on
Ġph yll
Ġdr ained
Ġinf ty
Ġret reated
Ġcur tain
Ġmant le
Ġgf dl
Ġdebr is
Ġafore mentioned
g ame
g ames
r ise
Ġexp enses
Ġmor g
Ġhapp ening
Ġrum ours
Ġdiction aries
Ġsculpt ures
Ġteen ager
Ġnotice able
Ġintr ins
Ġvin yl
Ġpied mont
Ġmetabol ism
Ġhydra ul
Ġstutt gart
f est
p re
Ġl id
Ġch ore
Ġcount less
Ġme h
Ġmid lands
Ġwon ders
Ġrecogn izes
Ġadminist rators
Ġpu ff
Ġmerc edes
Ġske leton
Ġrenew al
Ġbry ant
v y
Ġse ine
Ġus ur
Ġaf ro
Ġthr ush
Ġut recht
Ġire ne
Ġghost s
Ġincompat ible
ast rian
Ġbo ole
Ġste ering
Ġboy d
Ġcrus aders
Ġnomenc lature
ge ts
Ġsh ining
ill ac
Ġher acles
Ġgre ed
Ġcop tic
Ġod in
Ġax e
Ġmut ually
Ġcontest ants
Ġcoc on
Ġcontrad iction
Ġdolph in
inte gr
Ġhym ns
n ian
Ġt us
Ġb ia
Ġse oul
Ġinter rog
Ġx in
Ġend orse
Ġresid es
Ġhu bert
Ġrig orous
Ġrepro duce
Ġuly sses
Ġm umb
Ġh ust
Ġroyal ty
Ġstation ary
Ġborder ing
Ġspan ning
Ġdrain age
Ġeleg ant
Ġjas per
Ġdiagon al
Ġto pped
Ġu cl
Ġbo o
Ġmin ist
Ġproduct ivity
Ġca ution
Ġtu bercul
Ġillust rate
Ġneut rons
Ġsolid arity
Ġpd p
Ġrepro ductive
Ġinqu isition
Ġflex ibility
Ġoxid ation
Ġre op
Ġr iley
Ġnot oc
ik ed
oph obia
Ġafrican s
Ġprop elled
Ġcoast s
Ġbon nie
Ġprefer ences
Ġdatab ases
Ġconsult ing
Ġvend ors
Ġbalk an
Ġshoo ter
Ġcleop atra
Ġt ic
Ġse in
sh an
Ġreg ain
ning ton
Ġmc gu
Ġproblem atic
Ġtheore ms
Ġfans ite
Ġdeleg ation
Ġjenn ings
haus en
y am
Ġc ary
Ġst s
Ġjust ices
Ġsol ic
Ġhy dr
Ġexpress es
Ġpred ators
Ġther ap
Ġles ter
iel der
Ġinsur g
Ġpip eline
Ġinspect ion
Ġb olog
Ġh ated
Ġan ast
Ġe f
Ġne ss
Ġbro oke
ange lo
Ġwilliam son
Ġmich a
Ġcomment aries
Ġcontrast ed
Ġoak s
Ġremark ed
Ġkit ty
Ġraz or
Ġinvas ions
i oc
Ġo man
ar ic
Ġr ie
Ġr ast
Ġfr ies
if a
Ġhe pat
Ġsh oul
ell ations
Ġab ort
Ġinv ari
Ġdisp ro
Ġesc apes
Ġdistingu ishing
Ġrum ored
Ġwolf e
Ġcheck ing
Ġpm id
Ġpries thood
Ġaub urn
Ġcald well
Ġe ust
Ġg us
um er
Ġhe br
Ġro ch
Ġper kins
Ġup right
ph in
Ġcar mel
Ġcolle giate
Ġsuper v
Ġital ians
Ġcit ation
Ġmead ows
Ġsard inia
Ġdart mouth
Ġhep burn
Ġjuven ile
Ġs ine
le ased
Ġam ended
Ġph el
Ġsm ile
Ġestablish es
Ġcontrib utor
Ġere ct
Ġampl ifier
Ġneur ons
Ġleib n
g one
y t
Ġc ac
og rams
Ġup wards
Ġbar rett
omet ric
Ġemb ro
icks on
Ġrefle ctions
Ġbutt ons
Ġbrew ery
Ġches hire
Ġd ad
Ġd ough
Ġd ams
Ġfor ks
ter us
Ġher mit
te ch
Ġlo vel
Ġdr if
Ġexp ired
Ġbre men
Ġgar ter
Ġsant o
Ġmotor ola
Ġtouch ing
Ġdeliver ing
Ġconve x
Ġconject ure
c ot
or as
Ġwh istle
Ġcl ocks
Ġbr ach
Ġpre acher
Ġpar ano
ri ents
Ġru in
Ġegypt ians
Ġsens ors
Ġund es
Ġstrength en
Ġjor ge
Ġmesopotam ia
l enburg
Ġt g
Ġz omb
Ġk ung
Ġex termin
Ġme ck
Ġmay ors
Ġdep ort
Ġcelebr ating
bl ings
mo or
Ġshock ed
Ġbav arian
Ġfare well
Ġstap le
Ġredire cts
Ġw to
st al
Ġun ite
Ġval encia
uss y
Ġbre t
ipp le
Ġheaven ly
Ġtreas urer
Ġgosp els
Ġan om
Ġout rage
Ġrel iance
Ġhum boldt
Ġconf luence
Ġcou l
Ġprogress ed
Ġcondition al
Ġwhit ney
Ġthread s
Ġsupers eded
Ġimmort ality
Ġscal ar
Ġspecim ens
Ġpomer ania
Ġrale igh
Ġportfol io
k ers
w ash
Ġt int
Ġth al
om ac
Ġun sc
Ġher z
tt i
Ġbre wer
ene y
Ġhuman ist
Ġlab s
Ġrich est
Ġbi ologist
bur ger
Ġactiv ism
Ġhon ol
icult ural
Ġly d
Ġimplement ing
Ġtransc ript
Ġpenal ties
Ġspark ed
Ġperce ive
Ġtoil et
Ġartem is
Ġc uck
is ans
Ġm enn
it ian
Ġg lands
Ġco y
Ġlim a
Ġspecial ty
Ġpsych o
Ġfair field
Ġalbert o
Ġft p
Ġexplo ited
Ġmisc on
Ġcolloqu ial
Ġadvertis ements
Ġpronoun s
Ġlegitim acy
Ġmozamb ique
h of
m or
t ur
in ator
ree t
Ġr in
Ġem manuel
Ġdec ommissioned
Ġchrist ina
Ġsepar at
Ġrh o
Ġsin n
Ġcant or
Ġlamp s
Ġresol utions
Ġeman c
Ġunch anged
c ies
Ġb ann
Ġb eds
Ġd it
Ġj umps
Ġsh ake
Ġpres ided
Ġup ward
ck er
Ġbar rels
Ġet a
Ġlove craft
Ġmer idian
Ġgar land
ws ki
Ġfit ness
Ġtheod or
Ġsacrific es
Ġdisgu ised
Ġbermud a
Ġo ed
Ġarch ety
com ed
Ġsem antic
Ġapart ments
Ġokin awa
Ġhallow een
Ġthe e
Ġb ots
or h
Ġk ad
Ġed ith
Ġrel ational
ah ar
Ġval ves
Ġearl s
Ġever ett
Ġswe ep
Ġcorp se
Ġhitch h
Ġferr ari
Ġasym met
Ġsynag ogue
Ġhonol ulu
Ġs ous
Ġp au
Ġan h
ut able
Ġmar co
Ġx ia
Ġgl ut
Ġstat utes
Ġforest ry
tr ans
Ġfrust rated
e w
h oun
r ush
Ġm peg
Ġz od
Ġd ich
Ġsi blings
Ġfe as
Ġpar rot
Ġperiod ical
Ġengine ered
Ġsun ni
su le
Ġdiss atisf
Ġbehavior al
Ġbah rain
Ġnets cape
g ren
w ara
Ġt uls
Ġa pert
Ġc ush
Ġz ach
am on
Ġso ils
ract ed
Ġvo iv
Ġsam oa
Ġmer lin
Ġib id
Ġsens or
Ġsky walker
Ġsab ot
Ġpy g
Ġbiod iversity
j ah
Ġp ots
Ġsch l
Ġcap sule
Ġel i
Ġbre th
Ġlog os
Ġsepar ates
Ġho f
ban ks
Ġiv ory
Ġadop ting
Ġbron x
Ġcoher ent
Ġt uc
em aker
Ġdr ought
Ġer yth
Ġcorn ish
Ġswim mer
Ġhazard ous
Ġignor ance
Ġstrongh old
Ġb ere
Ġd ors
ing o
Ġr ue
Ġst d
im i
Ġv ishnu
Ġus b
Ġbo otle
Ġrec ipe
sh a
Ġter ti
Ġsal on
Ġprev ailing
Ġfa ulk
Ġethnic ity
Ġdol ls
Ġexplo its
Ġpredomin ant
Ġmonter ey
Ġsina i
am el
qu el
art es
Ġdis integr
Ġgod zilla
Ġtor ch
Ġflo ors
Ġsuff ers
tr ak
Ġhind us
Ġstrength ened
Ġmos aic
Ġcheck ed
Ġlanc ash
Ġwitch craft
Ġintent ional
a jo
ol it
qu ad
Ġcontin ents
Ġintern ally
lu x
Ġlim er
Ġsav annah
Ġfemin ism
Ġmaced on
Ġtc p
Ġc x
Ġn ymph
il itation
Ġv t
Ġv ind
Ġcl ut
Ġgr apes
Ġwar ships
Ġrel ics
Ġcur ry
Ġord o
Ġalign ment
Ġisa iah
Ġsoph ie
Ġhaz el
Ġdod gers
Ġgaz ette
Ġtiber ius
Ġpunj ab
Ġcovent ry
Ġlancash ire
c ery
Ġbe ir
Ġcom te
og ens
Ġbr une
Ġwar p
Ġaust ro
Ġfrank ie
Ġmel odic
Ġsell s
Ġincl ined
Ġculmin ating
Ġges ch
Ġf als
Ġw ines
Ġd au
Ġres ent
for th
Ġsch w
Ġtre vor
ves ter
Ġann ih
Ġprom ul
Ġire ann
Ġcapt ion
Ġquestion able
Ġund oub
Ġshel f
Ġprosper ous
Ġbrows ers
Ġdevast ated
Ġse ism
Ġv y
Ġcont end
Ġship yard
Ġut ilities
Ġsell er
Ġprompt ly
Ġorthog onal
n ard
Ġf dl
Ġsix teenth
Ġr g
ch s
Ġgen ital
Ġval d
Ġur l
Ġwr apped
Ġviol a
Ġdun geons
Ġtra uma
Ġpeak ed
Ġmack enzie
flow er
Ġcamero on
Ġs j
Ġb res
am eral
ut an
Ġat op
Ġus af
Ġte ens
Ġcross roads
Ġcost umes
Ġdistin ctions
Ġcorre cted
Ġacqu iring
Ġjackson ville
Ġvand alism
Ġastero ids
Ġalg ae
Ġcoeff ic
Ġreconstruct ed
Ġbesie ged
Ġreper to
h or
Ġc air
Ġh ath
Ġr ita
Ġk ron
Ġsub mission
Ġlit urgy
Ġshort est
Ġwr ath
Ġrecogn izable
Ġpast oral
Ġcho oses
Ġta un
Ġalph ab
Ġom aha
Ġadmiral ty
Ġdestro ys
Ġnem esis
Ġunn amed
Ġterti ary
u ates
Ġd end
Ġd ining
Ġv ale
ime ters
Ġmu gh
Ġval era
Ġmag nes
rop s
Ġwes ter
Ġpur su
Ġcop ying
Ġdar th
Ġdang ers
Ġkat rina
Ġhack er
Ġsubm erg
Ġetrusc an
Ġb isc
ic ially
Ġg ps
Ġis is
st itution
Ġtr ance
Ġman son
Ġass ured
Ġwhere ver
Ġbir ch
Ġhard ing
Ġmic ron
Ġtar quin
Ġamb ient
Ġpatri ots
iser ies
Ġmerg ing
Ġshel by
Ġdepos it
Ġmercen aries
Ġcoeffic ients
Ġst ard
Ġy east
Ġdec atur
Ġsl ain
ri ke
ting en
Ġcast e
Ġwash ing
Ġtext iles
Ġchest nut
Ġperpet ual
Ġhoff man
Ġd eng
em ar
Ġper tain
Ġpers pect
Ġve ga
Ġhal le
Ġwel comed
Ġinstall ations
Ġah o
Ġflood s
Ġnut rients
Ġserge i
Ġpuzz les
Ġtw ain
ud ence
Ġpl anc
Ġwe in
Ġmin iseries
Ġtele v
Ġhost ility
Ġassemb lies
Ġbon if
Ġtra it
Ġcla ire
Ġchromos omes
Ġgloss ary
Ġlaun ches
Ġundoub ted
t el
le ys
ut ic
Ġk art
et o
Ġhe il
Ġmar se
Ġpar an
Ġtechn o
Ġlu ftw
Ġimpro per
Ġly ons
Ġhur on
Ġbarb ados
Ġscand als
Ġbun ker
Ġviolin ist
Ġspart an
Ġfon ts
Ġtaj ik
Ġaggreg ate
Ġkauf man
Ġinappropri ate
b red
p ecker
s sel
Ġc oss
Ġb unch
Ġar id
Ġprov oked
min ent
Ġget ty
Ġcit rus
Ġmurder er
Ġsteph an
Ġpeters on
Ġhond a
Ġincons istent
Ġsegreg ation
y ards
Ġfour teenth
Ġmat urity
Ġcy mb
less ness
Ġze al
ingu ish
Ġmultip lex
Ġcod ec
Ġdiagn ostic
Ġapost le
Ġpatron age
Ġastronaut s
Ġfratern ity
Ġberks hire
c am
j ing
k ok
Ġo ro
as so
Ġk ip
Ġk abb
Ġall oy
Ġint ens
Ġele vent
olog ue
Ġer g
Ġmat th
Ġvo ter
Ġiv y
Ġult rav
Ġflav our
Ġgon na
Ġaffil iation
Ġapoc ry
Ġsumer ian
Ġd ahl
Ġst un
Ġout lets
Ġnational s
Ġdu et
Ġeat on
Ġpra et
Ġstret ches
Ġyes h
Ġgentle men
Ġluftw affe
Ġne p
Ġsh ade
Ġi ata
Ġass erts
Ġpost p
af at
Ġdevelopment al
Ġinvestig ating
Ġens ign
Ġmes a
Ġstrugg ling
Ġmans field
Ġpolynomial s
Ġmartyr s
Ġhik ing
Ġlatt ice
Ġleibn iz
a ul
Ġc ate
at onic
Ġz hao
ig l
our ce
Ġk ak
ill ic
Ġad en
ign on
au thor
Ġfl ock
Ġshe er
Ġmil o
Ġacqu aint
Ġshir ts
Ġpix els
Ġirr ational
Ġschu yl
Ġaege an
l aw
w atch
Ġr ia
ad ors
st a
Ġal ias
Ġinst ability
Ġequ inox
Ġcover t
Ġfoot notes
Ġhold en
Ġkh mer
Ġsin atra
Ġwant ing
Ġsurve ys
Ġcott age
Ġo j
Ġan onym
Ġg pl
Ġat p
Ġhe i
ab er
Ġro oted
Ġover night
Ġland ings
Ġbuild s
Ġaustral ians
Ġtext book
sp oken
Ġdemonstr ates
Ġinfect ious
Ġcolumn ist
Ġembr ace
Ġbreth ren
Ġv ivid
Ġtit ans
ij ah
Ġpier cing
Ġded ication
Ġsie g
Ġproof s
Ġf ec
Ġl s
Ġr isc
Ġk iel
Ġam trak
Ġloc ate
sh ima
Ġjo achim
Ġcre ativity
Ġspec ulative
Ġrepl ica
Ġbet ting
Ġdele te
Ġoil s
Ġbomb ay
att i
Ġfred die
Ġmatthe ws
Ġjama ican
Ġspons or
Ġjen kins
Ġth um
Ġp n
Ġd ah
id ia
ell ular
Ġpe ach
Ġsk ater
Ġamb ul
Ġscr ut
Ġbever ages
Ġinterf ere
Ġelevent h
Ġl und
Ġto d
Ġle ase
Ġke eper
Ġsett ler
Ġconvers ations
Ġsor cer
Ġst ays
Ġpre aching
anc ies
Ġir onic
Ġpat ton
Ġtrain er
Ġmah ar
Ġwaters hed
Ġcycl ic
Ġthro ated
Ġpel op
Ġug ly
Ġroutine ly
Ġo mar
en ame
im us
Ġch au
ass es
Ġmid st
br ates
Ġbur r
Ġhom ogene
Ġven ge
Ġcapt ive
Ġtom bs
Ġconstruct ing
Ġton nes
Ġskys cr
Ġreperto ire
Ġperspect ives
Ġc g
Ġp omp
il ateral
Ġse am
ond s
Ġma us
Ġhum idity
Ġer nie
Ġlast s
Ġmath bb
Ġphot ons
her st
Ġmel odies
Ġcarl ton
Ġpresc ription
Ġvalent ine
Ġnac ional
Ġbount y
h ole
Ġg land
ay e
ial s
Ġme iji
Ġloc ke
Ġhead er
Ġaff ili
Ġunique ly
Ġchrys ler
Ġenvelop e
Ġdex ter
y ar
Ġf ence
at own
Ġp im
Ġb ows
Ġb ilingual
al ine
Ġhe ctor
ich e
Ġsp d
Ġsub j
Ġlar v
Ġste ward
Ġright arrow
Ġgro ove
Ġmir anda
Ġadj o
Ġcontract ion
Ġdar ius
Ġcrow ley
Ġinstruct or
Ġalexand re
Ġexhaust ed
Ġinev it
Ġirre le
Ġsaur on
Ġschizophren ia
Ġzod iac
l ov
Ġt edd
Ġh ul
Ġsp ears
Ġus her
Ġam herst
Ġad h
Ġlo ire
ik an
Ġcolle ague
Ġer itre
Ġru ined
Ġexist ential
Ġtight ly
Ġnig el
cat cher
Ġaristocr atic
Ġumb rella
Ġubi quit
r ays
Ġw ong
at ta
st ag
Ġsp ino
Ġu fo
Ġout let
Ġel ders
Ġbar ons
que z
Ġstat utory
Ġred empt
Ġdiscover ing
Ġcup s
Ġmut ations
Ġcondition ing
Ġbless ing
Ġtransist or
Ġfor c
Ġi ro
Ġlin ds
Ġsec uring
Ġimp r
Ġext remes
Ġho hen
Ġconver gence
Ġdisplay ing
Ġhem p
Ġfashion ed
hr an
Ġalphabet ical
Ġdense ly
Ġinvari ably
l ace
Ġg ian
Ġk ob
Ġy id
av ag
Ġdown fall
Ġfrank enstein
Ġcit adel
Ġmaster piece
Ġrepe ating
Ġinstruct ed
Ġdism ant
Ġbaptist e
Ġculmin ated
h ou
Ġth ie
Ġc ull
Ġd ucks
ill in
Ġpar a
Ġed dy
Ġow ed
Ġinvent ors
Ġthrow s
Ġcyr il
Ġinequ ality
Ġhomest ead
Ġderog atory
Ġallegh eny
r aged
Ġre lying
Ġcd ots
Ġgood man
bur ne
Ġash ley
Ġcalcul ating
Ġflu ids
Ġton al
Ġsevent eenth
ogen esis
Ġpreced ent
Ġrug ged
Ġrhet or
Ġtubercul osis
a edia
w agen
Ġat e
ess ive
Ġind us
Ġbl iss
Ġx l
Ġcr ick
Ġfle eing
Ġsax ons
rid ges
Ġrein st
Ġslav s
Ġrah man
Ġcyp ri
Ġeloqu ence
Ġsubscrib ers
th etics
ad ena
pt a
Ġdis ability
Ġqu ark
ov ia
Ġtele vised
Ġsuper n
Ġfall acy
Ġhom eless
Ġwil ly
Ġreform er
Ġproport ions
Ġpars ons
Ġnath aniel
i ya
p ical
Ġre inc
ist e
Ġch ung
Ġde uter
Ġhas id
Ġcent s
Ġcent red
Ġfl aming
its u
Ġha ute
Ġemir ates
Ġvenet ian
Ġp ave
Ġd iz
Ġun av
Ġex h
Ġne z
Ġne olithic
Ġgu ys
Ġcal houn
Ġhol t
Ġarch ibald
Ġbur rough
Ġtut or
Ġinsc ribed
Ġmush rooms
Ġparen th
Ġinterst ellar
Ġf s
Ġb ite
Ġb uc
Ġh os
Ġse th
Ġsi rius
Ġun man
Ġpro state
Ġwor ry
ub stant
Ġover ha
Ġpar c
Ġmarr ies
Ġra ises
Ġmc don
Ġswed es
tm l
Ġdisapp ro
Ġcommemor ate
Ġassert ion
p ox
Ġb sd
Ġm ero
ast ically
Ġcommun al
Ġvir al
Ġdi ac
Ġhost ilities
Ġreject s
Ġcow ard
Ġjane iro
Ġvacc ine
Ġd n
Ġtw isted
ul o
im ental
el ope
Ġcl ive
Ġlin er
Ġpar ma
Ġsub gen
Ġlat vian
Ġec umen
Ġfree zing
Ġperiod ically
Ġexc ited
Ġdiet ary
Ġjam ie
Ġfus elage
Ġbuch arest
at as
Ġk atherine
Ġj ake
Ġwar bler
Ġma ori
Ġnum eral
Ġpass er
ott a
Ġnews let
oss a
Ġrob bery
Ġpack aging
Ġimmun ity
Ġepid emic
Ġw oo
Ġz ak
Ġk amp
Ġun ve
Ġcr ad
Ġty rant
Ġhand les
Ġrest s
Ġfer ries
Ġscreen ing
Ġcorrespond ent
Ġcompl aint
Ġspell s
Ġobst acles
Ġplut onium
Ġhend rix
Ġepid em
Ġdaim ler
Ġpedest rian
h ound
Ġf its
an ks
es ters
Ġas i
Ġde ception
Ġadd itive
Ġautobi ographical
Ġpsychiat ry
Ġdeuts ch
Ġmusc ular
Ġinfring ement
Ġphel ps
Ġreinc arn
b ins
Ġs ammy
ar oo
Ġwh oles
ib e
Ġpre face
Ġpre lude
Ġdr ill
Ġreal ised
Ġtake over
Ġaud itor
Ġba ud
Ġchron ological
Ġcolomb ian
Ġfundament ally
Ġmeck lenburg
Ġbeir ut
g iving
Ġf da
il iar
Ġst ero
Ġcomp art
Ġbr ains
Ġrec apt
Ġpar ab
Ġdel ays
Ġrece ivers
Ġtemper ament
Ġcontinu um
Ġlif elong
Ġflu ores
Ġfear ing
Ġfulf illed
Ġmurd och
Ġs se
ic le
Ġfor ts
Ġar afat
Ġman ning
Ġte c
Ġqu atern
Ġgener ous
Ġsim mons
Ġgreen house
Ġsand ers
iat us
Ġanaly tical
Ġtempl ates
Ġnavig ator
Ġcroc od
Ġliturg ical
ynth esis
Ġbax ter
Ġbolog na
Ġirrele vant
on ite
Ġw b
Ġin ference
Ġd orm
id as
Ġv iolet
Ġne ct
Ġsh un
Ġen ch
Ġper ennial
Ġsc yth
Ġco ke
Ġbl ond
Ġcirc ulated
Ġdon na
Ġfall out
Ġpot omac
Ġid le
Ġwitch es
Ġcauc asian
Ġkinder garten
uc a
Ġap es
arch y
Ġsal ts
Ġjer em
Ġmel t
Ġcompar isons
Ġbrig ades
Ġunfortun ate
Ġhorm ones
Ġwick ed
Ġtouchdown s
Ġl m
Ġpro ver
Ġy er
ary n
Ġall erg
Ġint ol
Ġoff ence
Ġchar iot
Ġthir teenth
Ġsand s
Ġlad der
Ġmaxim us
Ġhyper b
Ġsymph onies
Ġdecor ative
Ġtoy ota
Ġbert rand
Ġcontroll ers
Ġinaug ural
Ġsuspic ious
Ġez ra
Ġmv p
Ġplanc k
om ans
qu ito
Ġqu aker
Ġcent aur
Ġev id
Ġla x
Ġsk a
lu ent
Ġposition ed
Ġminim ize
Ġmol ly
Ġmultipl ayer
Ġlau der
Ġfres co
Ġprotector ate
Ġthermod ynamics
Ġredes ign
Ġkry pton
Ġgers h
Ġcurv ature
Ġtuls a
Ġk ite
Ġreg imes
Ġexp orted
Ġdifferent iate
Ġcommand o
Ġdin osaur
Ġutil ize
Ġaccomplish ments
z ai
Ġh bo
Ġl ange
Ġsh eld
Ġnew com
Ġcent ennial
Ġpre ach
Ġep istle
Ġorigin ate
Ġcentral ized
Ġmart ine
Ġplant ations
Ġattract ing
Ġvirt ues
Ġlif ting
Ġstro kes
Ġbreast ed
Ġoutl ined
Ġaristocr acy
Ġbalk ans
Ġbyr ne
Ġinaccur ate
v est
Ġt m
Ġo o
Ġz er
Ġd red
Ġl ds
Ġas cent
Ġch eng
Ġnew est
Ġsw ear
Ġbus iest
wh e
Ġtheod os
Ġevac uated
Ġgeneal ogy
c u
Ġf aw
or rh
Ġe igen
ich o
ish ment
Ġear nings
duc k
Ġsl ug
Ġdistr act
Ġever green
Ġasc ension
Ġbright ness
Ġappoint ments
Ġhaun ted
Ġd itch
il and
Ġg ou
Ġk yle
Ġhe pha
ant an
Ġpr att
Ġro che
Ġcomm issions
Ġsever ity
its ch
Ġtem po
Ġmot ives
Ġcost ello
Ġneg lect
Ġexceed ed
Ġspar row
Ġextr ater
Ġtrav is
Ġepist em
e aux
Ġst unt
Ġk ag
Ġy in
Ġman power
Ġad ver
Ġany more
Ġdev ils
Ġbang kok
Ġmetall ica
Ġevac uation
Ġpompe y
Ġbeet le
Ġapert ure
Ġfamil ia
Ġcont empt
Ġnor ms
Ġfe eds
Ġec st
Ġhistor ia
Ġred isc
Ġver ified
ocr atic
Ġcond or
gy z
Ġobl ast
Ġvic ious
Ġbehavi ors
Ġintu ition
Ġfaulk ner
Ġc un
Ġm iz
Ġm ash
st age
Ġit u
Ġar te
Ġsp ies
Ġchar ging
Ġac orn
Ġstr as
Ġprov es
Ġkill ers
Ġmal i
Ġcapt ures
Ġblock ade
Ġshar ks
Ġdetect or
Ġindu ce
Ġtet r
Ġiniti atives
Ġmetaphys ics
Ġpri ory
Ġvoiv od
Ġlinds ay
Ġp inn
Ġone self
Ġg oku
Ġj ain
Ġmo e
Ġam es
ob ile
Ġdon ations
Ġther esa
Ġquar ry
Ġswe at
Ġbern stein
Ġdian e
Ġtatto o
Ġgraff iti
Ġkabb al
Ġburrough s
t ry
Ġk c
ke ep
rop ical
Ġprop ose
Ġanal ogue
che v
Ġcomed ies
Ġslow ed
Ġhung ry
Ġpron ounce
Ġram sey
Ġcook ie
Ġmeant ime
Ġrandom ly
Ġbohem ian
Ġmarl borough
Ġadvertis ement
Ġp ree
Ġin gen
Ġin ception
Ġn en
ig y
Ġse xt
Ġj ah
Ġsc are
Ġche y
Ġker ala
Ġupd ates
Ġsatisf action
Ġskept ical
Ġuncon stitution
Ġconfron ted
Ġpejor ative
g age
k or
n ick
at om
Ġh ess
ar f
ac ity
Ġy en
Ġno ct
Ġcont ention
Ġke el
Ġve z
Ġwil kes
Ġpay load
Ġtal bot
Ġrome o
ih u
Ġcatch ing
Ġthick ness
Ġcyl inders
Ġconsec rated
Ġunh appy
Ġconting ent
Ġkyr gyz
Ġener getic
u ction
er ie
Ġg is
op edia
Ġpl aus
Ġu f
Ġpr ome
Ġdis reg
Ġem itted
Ġimp art
Ġgroup ing
Ġconst ance
Ġiss uing
Ġrail s
Ġphot on
Ġren o
Ġtalk ed
Ġprem ises
Ġpic colo
Ġrhyth ms
Ġchin atown
Ġcret aceous
c roft
l ike
y der
ly ph
Ġi o
Ġag nes
Ġest r
Ġsyn opsis
Ġsqu ir
Ġbab e
Ġly c
Ġdiss ert
Ġaccum ulated
Ġcaf e
Ġnikol ai
Ġlago on
Ġsmithson ian
Ġundoubted ly
Ġsh ack
Ġtr ash
Ġman ners
Ġout comes
Ġnor ris
Ġair field
Ġsm ok
af a
Ġjud as
Ġrecogn izing
Ġaccount ed
Ġquant itative
Ġfinanc ially
Ġstraight forward
Ġconclud es
Ġdress ing
Ġexpert ise
Ġphosph ate
Ġstrat ford
Ġwend y
Ġtransf ers
Ġr ift
Ġy ose
Ġsh ang
Ġkm t
Ġover see
Ġgen oa
Ġconst ants
Ġport o
Ġpost war
sc ript
Ġspecial ists
Ġast rophys
Ġrain y
Ġspiritual ity
Ġlyn don
Ġdisl ike
z t
Ġf ins
Ġh c
Ġr iff
Ġmed ications
Ġqu iz
Ġdel icate
Ġmel anch
Ġprogramm ed
hamm er
Ġarchae ologists
Ġrebu ild
Ġshr ink
Ġenthusi astic
Ġvolley ball
Ġm j
Ġst ole
ut ta
Ġcl ips
Ġcan oe
Ġem inem
Ġphil ips
Ġpilgrim s
Ġrans om
Ġsuscept ible
Ġnamib ia
p ard
Ġ ull
Ġl end
Ġsu ez
Ġsh it
Ġro e
Ġbr ake
pl ain
Ġmod elled
Ġbur t
Ġrest oring
Ġprom otes
Ġtro l
Ġban jo
Ġdun n
Ġteen agers
Ġapprent ice
Ġprolifer ation
Ġspiel berg
i otic
on en
se us
Ġtr ich
und a
Ġsuper int
Ġdet ached
Ġpaul ine
Ġliber ia
isl av
Ġentertain er
umber ed
Ġanarch ists
Ġscat tering
Ġadject ives
Ġhellen istic
Ġpueb lo
Ġboole an
g os
Ġw ren
ag le
Ġfilm maker
Ġgar rett
Ġboy friend
Ġcanc ellation
Ġsad dle
Ġfold ing
Ġaquar ium
Ġsubfam ily
Ġt ires
Ġo str
Ġre be
Ġal chem
oc l
ren don
Ġdis gr
Ġmin h
Ġthr iving
Ġtax onomy
Ġboy cott
Ġbrand on
Ġflav ius
Ġspaces hip
Ġterr ace
kir k
Ġkub rick
Ġa ort
Ġf ax
Ġc uc
Ġw ien
Ġb ung
Ġto ss
Ġk ul
Ġfl am
Ġdem os
Ġfin anced
Ġalb ion
Ġmark up
Ġdu ct
ipp ers
Ġwood ward
Ġencour ages
Ġhem ing
Ġshif ts
Ġrede velop
r io
w ire
z yn
Ġt ory
at an
ic y
Ġst akes
Ġsh al
Ġtrans ylvania
Ġdisc arded
Ġbar red
Ġtur in
Ġann als
Ġill umin
Ġq i
Ġcontrib utes
Ġvent ric
Ġcruc if
Ġreun ification
Ġmanch u
Ġformul as
Ġcommut ative
ar um
Ġhal o
Ġsqu id
Ġneg lected
Ġchap lin
gl omer
Ġconsum ing
orph ism
Ġsell ers
Ġsor ry
Ġpreval ence
Ġmistaken ly
Ġdepr ived
actyl us
h t
j ack
Ġc ows
Ġat roc
Ġgl orious
Ġpat ches
Ġresid ed
Ġyork town
Ġfun gi
Ġdest ined
Ġfut ures
Ġpsych ologists
ga ard
azz o
Ġjean ne
Ġwhit man
har monic
Ġfacult ies
Ġsuspect s
Ġbeth le
Ġvert ically
Ġaccommod ation
Ġultrav iolet
i ators
Ġb anc
Ġz ulu
Ġg s
Ġcon gestion
sh end
Ġed o
Ġreg ret
Ġelect ors
Ġhar ald
Ġrad ial
Ġbas ement
Ġaugust e
Ġship building
Ġcard iff
Ġwa ist
Ġris en
Ġsquad rons
Ġsick ness
Ġwand ering
ahed ron
m ount
v ara
Ġn ascar
Ġsi ms
pt ive
Ġser mons
Ġpre ten
Ġx ero
Ġstar fleet
oph ilia
Ġmult in
Ġmot ive
Ġsam i
Ġhost ages
Ġta vern
Ġancest ral
Ġordin ance
Ġcataly st
Ġphyl ogen
l ation
Ġst alk
Ġag u
Ġcons ume
Ġcor ros
Ġarm ist
Ġreal izing
Ġbeh ave
Ġsn iper
Ġschol astic
Ġmut iny
Ġell iot
Ġbott les
Ġasc end
Ġhub ble
Ġefficient ly
Ġcomplement ary
Ġclif ton
Ġwarl ord
Ġne umann
Ġle iden
Ġoper ative
Ġresid ences
Ġperson a
Ġpur itan
Ġmart ian
Ġang us
Ġwikip ed
Ġpack ets
Ġdip h
Ġparal y
Ġaccompan y
Ġtransition al
Ġsubsid ies
Ġconvinc ing
Ġzion ist
Ġprivat ization
Ġphysi ological
Ġcasc ade
Ġzamb ia
Ġbethle hem
h ai
p erson
Ġo th
Ġs ven
Ġc ain
Ġc ue
Ġl g
Ġch att
Ġsh ap
Ġtown shend
Ġform idable
Ġinf rog
Ġexam ining
Ġguy ana
Ġsurf aced
Ġpill ar
Ġcompass ion
Ġineffect ive
m ind
ze e
Ġob i
Ġbar re
Ġmark ings
uck le
Ġobject ion
Ġdi aries
Ġsand man
Ġattract s
Ġhands ome
Ġexception ally
Ġabstr action
Ġbra un
Ġeps ilon
Ġrebe cca
Ġinfrog mation
Ġse ph
Ġk oy
op ers
ant z
Ġam or
Ġme cca
Ġher mes
Ġsign atures
Ġant is
Ġrat ification
Ġamb ition
Ġkl an
Ġverte x
Ġplag ued
Ġparamilit ary
Ġmumb ai
k owski
Ġt ect
Ġt ien
Ġo un
Ġp iers
Ġh oy
Ġst itch
ch ten
ce t
Ġch ie
Ġall iances
Ġed its
als a
Ġinf ants
Ġlit t
Ġarch du
Ġauthor ship
Ġsum s
Ġwal tz
Ġlingu ist
Ġturb ines
Ġbotan ist
Ġsynd icated
Ġspher es
Ġdisgu ise
Ġsubmerg ed
v ik
Ġa ol
Ġf p
Ġw m
