#version: 0.2 - Trained by `huggingface/tokenizers`
Ġ Ð
Ð ¾
Ð °
Ð µ
Ð ¸
Ñ ģ
Ð ½
Ñ Ĥ
Ñ Ģ
Ð¾ Ð
Ð »
Ð º
Ñ ĥ
Ñ ı
Ð ²
Ñ ĭ
ĠÐ ¿
Ð ¼
Ġ Ñģ
ĠÐ ²
Ð ´
Ñ Į
Ñģ ÑĤ
Ðµ Ð½
ÑĢ Ð°
Ñ ĩ
ĠÐ º
ĠÐ ½
ĠÐ ¸
Ð¾Ð ²
Ð ¹
ĠÐ ¾
Ð ·
Ñ ħ
Ð ¿
Ð ³
Ð ±
Ðµ ÑĢ
Ñģ Ðº
Ð¾ ÑĢ
Ð° Ð½
Ġ Ñ
Ð¾Ð ´
ĠÐ ´
ĠÐ ¼
ĠÐ ³
Ð¾Ð »
Ð° ÑĤ
Ð° Ð»
Ðµ Ð»
Ð¾Ð ¼
Ġ ÑĤ
Ð½ Ñĭ
ÑĢ Ðµ
ĠÐ ±
ĠÐ½ Ð°
Ð¸ Ñı
Ð¾ Ð½
Ñ Ĩ
ĠÐ °
Ñ İ
Ð¾Ð ³
Ðµ ÑĤ
Ð ¶
Ð¸ Ð½
Ð¾Ð ¹
Ð¸ ÑĤ
Ð¸ Ðµ
Ñ Ī
ĠÐ¿ ÑĢ
Ġ Ñĥ
Ð¸ Ðº
Ð° ÑĢ
ĠÐ ·
Ð½ Ð¾
Ð¾ ÑĤ
Ð¸ Ð»
Ð¸ Ð¹
Ð¸ Ð¸
Ð¾ Ñģ
Ð¾Ð³ Ð¾
Ġ Ñĩ
Ñ ī
Ġ ÑĢÐ°
Ð° Ðº
ĠÐ »
Ð» Ð°
Ð¸ Ð¼
ÑģÑĤ Ð²
ĠÑģ ÑĤ
Ñ Ħ
Ñ ĳ
Ðµ Ð¼
ĠÑ Ħ
Ð° Ñı
Ð¸ Ñĩ
Ġ ÑĢ
Ðµ Ð´
Ñģ Ñı
ĠÐ³ Ð¾Ð´
Ðµ Ð³
Ð° Ð¼
ĠÐ¿ Ð¾
Ðµ Ð²
Ðµ Ðº
Ðµ Ð¹
ĠÐ¾ Ð±
ĠÑ į
Ð¸ Ñģ
Ð° Ð²
Ð¸ Ð²
Ð¾Ð º
ÐµÐ» ÑĮ
Ð¾Ð ±
ĠÐ½ Ðµ
ĠÐ µ
Ð¾ ÑģÑĤ
ÑĢ Ñĥ
ĠÐ¾ ÑĤ
ĠÐ¿ ÐµÑĢ
Ð» Ñı
Ð¸ Ñħ
Ð» Ð¸
ÐµÐ½ Ð¸Ðµ
Ð°Ð» ÑĮ
Ð½Ñĭ Ð¹
ĠÐ± Ñĭ
ĠÐ¸ Ð·
ÐµÐ½ Ð¸Ñı
ÑĤ Ð¾
Ð¾Ð» ÑĮ
Ð¾Ð ¶
Ġ ÑĢÐµ
ĠÐ· Ð°
Ġ Ñħ
Ð½ Ð¾Ð¹
ĠÐ² Ñĭ
Ðº Ð°
Ð¾Ð ·
Ð¸ ÑĢ
Ð¸ Ð·
ĠÐº Ð°ÑĤ
Ġ Ñı
Ð¾ÑĢ Ð¸Ñı
Ð¾Ð ¿
Ð½Ñĭ Ñħ
ÐµÐ½ ÑĤ
ĠÐ¿ ÑĢÐµ
Ð½ Ð¸Ðº
ÑģÐº Ð¸Ð¹
Ð½ Ð°
ĠÐºÐ°ÑĤ ÐµÐ³
Ð°ÑĤ ÑĮ
Ðµ ÑģÑĤ
Ð½Ñĭ Ðµ
ÑĢÐ° Ð²
Ð¸ Ð´
ĠÐºÐ°ÑĤÐµÐ³ Ð¾ÑĢÐ¸Ñı
Ð¸ ÑĨ
ĠÐ ¶
Ð¸ ÑģÑĤ
Ðµ Ñģ
Ð½ Ð¾Ð³Ð¾
Ð¸Ñĩ Ðµ
ĠÐ³Ð¾Ð´ Ð°
ÑģÐº Ð¾Ð¹
ÑģÐº Ð¾Ð³Ð¾
ĠÑ Ī
ÑĢÐ° Ð½
ÑĤ Ð°
Ñĥ ÑĢ
Ð¾Ð² Ð°Ð½
Ð» ÑĮ
Ñģ Ð¿
Ð´ Ð°
Ñĥ Ñİ
Ñĥ ÑĤ
Ð¸ Ð¾Ð½
Ð° Ð¹
Ð½Ð¾ ÑģÑĤ
Ð° Ñģ
ĠÐ¿ Ð¾Ð»
ĠÑģ Ð²
ĠÐ¿ Ð¾Ñģ
Ñĥ Ð´
ĠÐ¿ÑĢ Ð¾
ĠÑ Ĩ
Ð° ÑģÑĤ
Ð½ Ð°Ñı
ĠÑĤ Ð°Ðº
Ñı ÑĤ
ĠÐ¿ Ð¾Ð´
Ð¾ Ðµ
Ð¾ Ñĩ
ĠÑĢÐ° Ð·
Ð° Ð´
Ðº ÑĤ
Ðº Ð¸
Ñĥ Ñģ
ÑĢ Ñı
Ðµ ÑĢÐ°
Ð½Ñĭ Ð¼
Ðµ Ð·
ĠÐº Ð¾Ð¼
ĠÐ¸ Ð½
Ñĥ Ñĩ
ĠÑĩ ÑĤÐ¾
ĠÐ±Ñĭ Ð»
Ð° ÐµÑĤ
Ñĥ Ð±
Ñ į
Ð¶ Ðµ
ĠÐ¸ Ð¼
ĠÐ³Ð¾Ð´ Ñĥ
Ð¸ Ð³
ĠÐº Ð¾Ð½
ÐµÐ½ Ð°
ĠÑģ Ð¿
Ð¾ÑĤ Ð¾ÑĢ
Ð¸ Ñİ
ÑĨ Ð¸Ð¸
Ð· Ñĭ
ĠÐ° Ð²
Ð½ Ñı
Ðµ ÑģÑĤÐ²
ĠÑģ Ð¾
Ð¶ Ð´
Ðµ Ðµ
ĠÐº Ð°Ðº
ĠÑĥ Ñĩ
Ð°Ð½ Ð´
Ñĥ Ð½
Ðº Ð¾Ð²
Ñħ Ð¾Ð´
ĠÑģ Ð»
ĠÐ¾ Ñģ
Ð¸ÑĩÐµ ÑģÐº
Ð° Ñħ
Ð» ÐµÐ½
Ñģ Ñģ
ĠÐ¿ÑĢÐµ Ð´
Ð» Ðµ
Ñİ ÑĤ
Ð± ÑĢÑı
ĠÐ¾ Ð´
ÑĤ Ð¾ÑĢ
Ð¸ÑĤ ÐµÐ»ÑĮ
ĠÑģ Ð¾ÑģÑĤ
Ð°Ð½ Ð¸Ðµ
ĠÑį ÑĤ
ĠÐº Ð¾ÑĤÐ¾ÑĢ
Ð¸Ð» ÑĮ
ÑĢ Ð¾Ð²
Ñĭ Ð¹
Ñĭ Ðµ
ĠÐ² Ð¾
Ð¸ Ð¿
ĠÐ° ÑĢ
Ð° Ð·
Ð¸Ð½ Ð°
ĠÑĢÐ° Ð¹
Ð³ Ð¾
Ð½Ð¾ Ðµ
Ð°Ð¼ Ð¸
ĠÐ° Ð½
ĠÐ´ Ð»Ñı
Ðµ Ñĩ
Ð½ Ð¾Ð¼
ĠÐ² Ñģ
Ð¸ÑĤ ÑĮ
Ð¾ Ñı
ĠÑĢÐ°Ð¹ Ð¾Ð½
Ðµ Ð¿
ĠÐ¾ Ð½
Ñĳ Ð½
Ñĭ Ñħ
ÑĢÐ° ÑĤ
Ð»Ð° Ð²
ÐµÐ³ Ð¾
ÑĢÐµ Ð¼
Ðº Ð¾
ĠÐ³ Ð¾ÑĢ
Ð¸ Ð±
ÑģÐº Ð°Ñı
ĠÐ¾ Ð¿
ĠÑģ Ð¾Ð²
ÑĢÑĥ Ð³
ÑĢ Ð¾
ÑĢ Ñĭ
Ð¼ ÐµÑĢ
ÑĢÐ° Ð·
Ñĥ Ð¶
Ñĥ Ð¿
Ñĥ Ð¼
Ð½ Ð¾Ð²
Ð¾Ñģ Ñģ
ĠÑģÐ¾ÑģÑĤ Ð°Ð²
ĠÐ¾ Ðº
Ð¿ ÑĢÐ°Ð²
ĠÐ¿ ÑĢÐ°Ð²
Ð°ÑĢ ÑĤ
ĠÐ´ Ð²
ĠÐ¿ÐµÑĢ Ð²
Ð° Ð±
Ð¼ Ð¸
ĠÐµ Ð³Ð¾
ĠÐ´ Ð¾
Ð± Ð¾ÑĤ
ÑĢÐµ Ð´
ĠÐ¾ ÑĢ
Ð°Ð» Ð°
Ð»Ð° ÑģÑĤ
Ð» ÐµÐ½Ð¸Ðµ
ÑģÐº Ð¾Ð¼
Ð½Ð¾ÑģÑĤ Ð¸
Ðµ ÑĨ
Ð½Ð¾ÑģÑĤ ÑĮ
ĠÐ¸ ÑģÑĤ
Ðµ Ñħ
Ð°Ð½ Ð¸Ñı
ĠÑ İ
Ð» ÐµÐº
Ð½Ð° Ñĩ
ĠÑĢ Ð¾ÑģÑģ
Ð°Ð» Ð¸
ÐµÑĤ ÑģÑı
ÐµÐ» Ñı
ĠÑģÑĤ Ð°ÑĤÑĮ
ĠÐ¿ Ð»
ĠÐ¼ ÐµÑģÑĤ
Ð¾ÑĢ Ð¼
ÑģÑĤÐ² ÐµÐ½
Ð°Ð½ Ð¾Ð²
ĠÐ¼ Ð°ÑĢ
ÑģÑĤ Ð°Ð²
ĠÐ¿ÑĢ Ð¸
ĠÐ¸ Ð³
ÑĨ Ð¸Ð¾Ð½
ĠÐº Ð°
Ñĥ Ð»ÑĮ
ĠÐ² Ð¸Ð´
Ð¿ ÑĢ
Ñİ Ñī
Ð¾ ÑĢÐ°
ĠÐ³Ð¾ÑĢ Ð¾Ð´
Ð°ÑĤ ÐµÐ»ÑĮ
ĠÐ² Ð¾Ð·
ĠÐ½Ð° Ñģ
ĠÐ¸ ÑģÐ¿
ĠÑģ Ð°Ð¼
ÑģÑĤÐ² Ð¾
Ñĥ Ñī
Ð² Ð°
Ð¸Ñģ ÑĮ
ĠÐº Ð¾ÑĢ
ĠÑĤÐ°Ðº Ð¶Ðµ
ĠÐ½ Ð¾
Ð½ Ðµ
ÑģÑĤÐ² Ð°
Ð¸ÑĢ Ð¾Ð²
ÑģÐº Ð¸Ñħ
ĠÑį ÑĤÐ¾
Ð° Ð³
ÑĨ Ð¸Ñı
ĠÐ² ÑĢÐµÐ¼
ĠÐ½Ð° Ð·
ĠÑģ ÐµÑĢ
ĠÑģÐ² Ð¾
Ð» Ñİ
ĠÐ¾Ð± Ð»Ð°ÑģÑĤ
Ð»Ð° Ð´
Ñĥ Ð»
Ð¸Ðº Ð¸
Ð» ÐµÐ´
ĠÐ½ Ð¾Ð²
ĠÐ² ÐµÑĢ
ĠÐ½Ð° Ñĩ
ÐµÐº Ð°
Ð¾Ð»ÑĮ ÑĪ
Ðº Ðµ
ÑĢ Ð¸ÑĤ
ÑģÐº Ð¾Ðµ
ĠÑĤ Ð¾
Ñĳ ÑĤ
Ñĥ ÑģÑĤ
ĠÑĢ Ð¾Ð´
ĠÑĥÑĩ Ð°ÑģÑĤ
Ð°Ð½ Ð°
Ð¸Ðº Ð°
ĠÑĩ Ð°ÑģÑĤ
ĠÐ¸ Ñİ
ÐµÑĤ Ð°
Ðµ Ð±
ĠÑģ Ð¼
Ð°Ð½ ÑĤ
ĠÐ¾Ð± Ñī
ĠÑĢÐ° Ð±Ð¾ÑĤ
Ð¾Ð²Ð°Ð½ Ð¸Ñı
Ð°ÑĤ Ð°
Ð´ Ðµ
Ð½ ÑĥÑİ
ĠÐº Ð¾Ð»
ĠÑĥ Ð´
Ð°Ð»ÑĮ Ð½ÑĭÐ¹
Ñ Ĭ
ÐµÐ½ ÑĮ
Ð¾ÑĢ ÑĤ
ĠÐ¸ Ð»Ð¸
Ð¾Ð½ Ð°
Ð½ Ð¸
ĠÐ¼ Ð¾
Ð¸Ð» Ð¸
Ð¸ ÑĦ
ĠÐ¿Ð¾Ñģ Ð»Ðµ
Ðº Ñĥ
ĠÐ´ ÑĢÑĥÐ³
ÑĢÐ° ÑĦ
ÑĢÐ° Ð¶
ÐµÑģ Ñģ
ĠÐ² Ð¾Ð¹
ĠÐ·Ð° Ð¿
Ñı Ð±ÑĢÑı
ĠÑĤ ÑĢ
ÐµÐº ÑĤ
ÑĢÑĥ Ð¿
Ð» Ð¾Ð²
ĠÐ²Ñĭ Ñģ
Ð°ÐµÑĤ ÑģÑı
Ð° ÑĢÐ°
Ð´ ÐµÐ»
ÑĤ Ð¸
ĠÐº Ð°ÑĢ
Ð¾Ð»ÑĮ ÐºÐ¾
Ð¾Ð» Ð¾Ð³
ÑĥÐ»ÑĮ ÑĤ
Ð¿ÑĢÐ°Ð² Ð»ÐµÐ½Ð¸Ðµ
ĠÑĩ ÐµÐ¼
Ñĭ Ð¼
ĠÐ´ Ðµ
ĠÐ³ ÐµÑĢ
ĠÑģ Ðº
Ð¼ Ð°
ĠÑı Ð·Ñĭ
ĠÐ¼ Ð¸Ð½
ĠÑģ Ð¾Ð±
ĠÐ´ Ð¶
Ð² Ð°ÑĢ
ĠÑı Ð²
ĠÐ ¹
ĠÐ¼ Ðµ
ĠÐ½Ð°Ð· Ð²
Ð¸ Ð½Ñĭ
ĠÐ¾Ð± Ñģ
ĠÐº ÑĢÐ°
ĠÐ´ ÐµÑĢ
ÐµÐ» ÐµÐ½Ð¸Ðµ
ĠÐ¿ÑĢ Ð¾ÑĤ
ÐµÐ» Ð¸
Ð»Ð¸ ÑĨ
ĠÐ¿ÑĢ Ð¸Ð½
Ñĥ Ðº
Ñı Ð½
Ð° ÑĪ
Ð¸Ð½ Ð³
ĠÐ± Ð¾Ð»ÑĮÑĪ
ĠÐ¼ Ñĥ
ÑģÐº Ð¸Ðµ
ĠÐ±ÑĭÐ» Ð¾
ĠÐº Ð»
ĠÐ¿Ð¾ Ñĩ
ĠÑį Ðº
ĠÐ¼ Ð¾Ð¶
ĠÑģ ÐµÐ»ÑĮ
Ð¾Ð² Ð°
ĠÐ±Ñĭ Ð»Ð°
ĠÐ³ Ð»Ð°Ð²
ĠÐ²ÑĢÐµÐ¼ Ñı
ÑĤ ÑĮ
Ð¾Ñģ ÑĮ
ĠÑĩ ÐµÐ»
ĠÑĨ ÐµÐ½ÑĤ
ÐµÐ½ Ð¸Ð¸
Ð»ÐµÐº Ñģ
ĠÐ¿ÐµÑĢ ÐµÐ½Ð°
ĠÐ¾Ð±Ð»Ð°ÑģÑĤ Ð¸
ĠÐ´ Ð¾Ð»
Ð¸Ð¼ Ð¸
ĠÐ´ Ð°Ð½
ĠÐ² Ð¿
ĠÐ» Ñİ
Ð» Ð¾
ĠÐ¿Ð¾ ÑģÑĤ
ĠÐ¼ Ð°ÑĤ
ĠÐ± Ð¾Ð»
Ð½ÑĭÐ¼ Ð¸
ĠÑģ Ð¾Ð·
Ð¸ÑĢ Ð¾Ð²Ð°Ð½
Ñĳ ÑĢ
ĠÐ¿ÐµÑĢÐµÐ½Ð° Ð¿ÑĢÐ°Ð²Ð»ÐµÐ½Ð¸Ðµ
Ð² ÐµÑĢ
ĠÑĢ ÑĥÑģ
ĠÐºÐ¾Ð¼ Ð¿
ĠÑģ ÑĢÐµÐ´
Ð¾Ð¼ Ñĥ
ĠÐ» ÐµÑĤ
ĠÐ³ Ð¾Ñģ
ĠÐ¿ Ð¾Ðº
ĠÐ½ Ð¸Ðº
ĠÐ° Ð´
ÑĢÐ° Ð¼
ĠÑģ Ð°Ð¹
Ð¾Ð»ÑĮ Ð·
Ð¸ Ð¶
ĠÐ¶ Ðµ
ĠÐ¿ÑĢ Ð¾Ð²
Ð°Ð½ Ð¸Ð¸
Ñĥ Ñħ
Ð¸Ð» Ð°
ĠÐ±Ñĭ Ð»Ð¸
ĠÑģÐ¾Ð² ÐµÑĤ
ÐºÐ° Ð·
ĠÐ¾Ð± ÑĢÐ°Ð·
Ñĥ ÑĪ
Ñĳ Ð»
ÐµÑģÑĤÐ² ÐµÐ½
ĠÐ´ÐµÑĢ ÐµÐ²
Ð² ÐµÑĤ
ĠÐ¼ÐµÑģÑĤ Ð¾
ĠÐ· Ð°Ðº
ÑģÑĤ ÑĮ
ÑĥÑİ Ñī
Ð»Ñİ Ñĩ
ÐµÐ½ Ð¸Ð¹
ÑĢÐ° Ð´
ĠÑĢÐ° ÑģÐ¿
Ð¸Ð» ÑģÑı
Ð½Ð¸Ðº Ð¾Ð²
ĠÑıÐ² Ð»Ñı
ĠÑĤ ÐµÑĢ
Ð³ Ð°Ð½
ÐµÐ½ Ñĭ
ĠÐ¾ ÑģÑĤ
ÑĤ ÐµÑĢ
ÑĪ Ð°
Ð± Ð¾ÑĢ
ÐµÐ½ Ð¸
Ð¸ ÑģÐº
ĠÑı Ð½
ĠÑĤ ÐµÐ»
ĠÑĩÐµÐ» Ð¾Ð²
ĠÐ¾Ñģ Ð½Ð¾Ð²
ÑĮ Ñİ
ĠÐ· Ð°Ð²
Ð¾Ð¶ Ð´
Ñı Ð·
Ð½Ð¸Ðº Ð¸
ĠÐ· Ð½Ð°Ñĩ
ÑĢ Ð¾Ñģ
ĠÐ° Ð»ÐµÐºÑģ
ÑĢ Ð¾Ð¼
Ð¸ Ð°Ð»ÑĮ
Ð» ÐµÐ½Ð¸Ñı
ĠÐµ Ð²
ÑİÑĤ ÑģÑı
ÑĢ Ð¾Ð½
Ð½ ÐµÐ¹
ÑģÑĤ ÑĥÐ¿
Ð¸ ÑĪ
Ð¾Ð³ Ð´Ð°
Ð»Ð° Ñģ
ĠÑĩ ÐµÑĢ
ĠÑģÑĤ Ð°ÑĤ
ÑĦ Ð¾ÑĢÐ¼
ĠÐ¿Ð¾Ð» ÑĥÑĩ
Ñģ Ñĭ
ÑĥÐ´ Ð°ÑĢ
ÑĥÐ± Ð»
ĠÐ¼Ð¾ ÑģÐº
Ð½ ÐµÐµ
ĠÐ° Ð»ÑĮ
Ð¸Ð· Ð²
Ð°Ñģ ÑĮ
ĠÐ¾Ð´ Ð½
ĠÑĥ Ðº
ĠÑĤ Ð¾Ð¼
ÑĢÑĥÐ¿ Ð¿
Ð¾ÑĢ Ð¸Ð¸
ÑĤ Ð¾Ð²
Ð° ÑĨÐ¸Ð¸
ÐµÑĢ Ð¶
ĠÐ¿ Ð¾Ð·
ĠÐ³Ð¾Ñģ ÑĥÐ´Ð°ÑĢ
Ð¸ÑĤ ÑģÑı
ĠÐ²Ñĭ Ð¿
ÑģÑģ ÑĢ
ĠÐ² Ð½
Ð¼ Ð¸Ð½
ĠÐ½Ð°Ñģ ÐµÐ»
ĠÑģÑĤ ÑĢÐ°Ð½
ÑĢ Ð¾Ð¿
Ð¾ Ñī
ÐµÑĢ Ñģ
Ñĳ Ð¼
Ð¸ ÑĢÐ°
Ðµ Ð¶
ĠÐºÐ¾Ð¼ Ð°Ð½Ð´
ĠÑĤ ÐµÐ¼
ĠÐ² ÐµÐ»
ĠÑĦ ÑĢÐ°Ð½
ĠÐ¿ÑĢ Ð¾Ð´
Ñĭ Ð²
ĠÑĥÐ´ Ð°Ð»
Ñģ Ð»Ð¸
Ð¾Ð» Ð½
Ð³ Ð°
ĠÐ³ Ð¾Ð»
ĠÑĩÐµÐ¼ Ð¿
ĠÐ³ ÑĢÑĥÐ¿Ð¿
ĠÑĦ Ð¸Ð»ÑĮ
Ð°Ð» ÑģÑı
ĠÐ¿ Ð¾Ð²
Ð¾ÑĤ Ð°
Ð¸ Ð°Ð»
ĠÐ¾ ÐºÑĤ
Ð¸ÑĨ Ð°
ÐµÐ½ Ð½Ð¾
ĠÐ¾Ð± ÑĬ
ĠÑĢÐ¾ÑģÑģ Ð¸Ð¸
ĠÐ¸Ð½ Ð´
ĠÐ± ÑĥÐ´
ĠÐ½Ð° Ð¿
ĠÑģ ÐµÐ»
ĠÐ¼Ðµ Ð¶Ð´
ĠÐ½Ð° ÑĨÐ¸Ð¾Ð½
ĠÑģÐ¾Ð· Ð´
ĠÐ¸ Ñħ
ĠÐ¼ Ð½
ĠÐ¿ Ð¾Ð¼
ĠÑģ ÐµÐ¼
ÑĦ Ð¸ÑĨ
ĠÑĥ Ð¿
ÐµÐ½ Ð¸Ñİ
ĠÑģ ÐµÐ½ÑĤ
ĠÑĢÐµ Ð³
Ñĥ Ð·
ĠÐ¸ÑģÐ¿ Ð¾Ð»ÑĮÐ·
Ñģ Ð°
ÑĤ Ðµ
ÑĢ Ð¾Ðº
Ñı Ð²
Ð½Ð¸Ðº Ð°
ĠÐ² Ð¸Ðº
ÐµÐ¹ ÑģÑĤÐ²
Ðµ ÑĪ
Ð¾Ð³ ÑĢÐ°ÑĦ
Ð² ÐµÑģÑĤ
ĠÑĥ Ð½
ĠÑĩÐµÐ¼Ð¿ Ð¸Ð¾Ð½
ĠÐ¿ Ð°ÑĢ
Ð¾ÑģÑĤ Ð¸
ĠÐ½ Ð¾Ñı
Ð³ ÑĥÑģÑĤ
ĠÐ´ ÐµÐ»
ĠÑģ ÑģÑģÑĢ
ĠÑĢÐ°Ð¹Ð¾Ð½ Ð°
Ð½ Ð¸Ðµ
ĠÐ¿ Ð¾Ð¿
ĠÑģ ÐµÐ²
Ð¸Ñģ Ñģ
ĠÐ· Ð°Ð¼
ĠÐ°Ð² Ð³ÑĥÑģÑĤ
ĠÐ° ÐºÑĤ
ÐµÐ½ Ð¾
ĠÑĤ Ðµ
ĠÐ¼ ÐµÑĤ
ÑĢ Ð¾Ð´
ĠÐ± ÐµÐ»
Ð¼ Ñĥ
ĠÐ¸ ÑĤ
ĠÐµ ÑģÐ»Ð¸
ĠÑĢÐ¾ÑģÑģ Ð¸Ð¹
ÑĮ Ñı
ĠÑĤ Ð¾Ð»ÑĮÐºÐ¾
Ð°Ð» Ð¾
ĠÐ± ÐµÐ·
ĠÑĤ ÑĢÐµ
ÑĪ Ð¸Ð¹
Ñģ Ð¾Ð²
ĠÐ½Ð°Ð·Ð² Ð°Ð½Ð¸Ðµ
ĠÐ¿ÑĢÐ¾ÑĤ Ð¸Ð²
ĠÐ° Ð»
Ð¾Ð²Ð°Ð½ Ð¸Ðµ
ÐµÐ» ÐµÐ¹
ĠÐ· Ð°Ð½
ĠÐ¾ Ñĩ
ĠÐ² ÑĤÐ¾ÑĢ
ĠÐµ Ñĳ
ĠÐ¼ Ð¾Ð½
ĠÐµ ÑģÑĤÑĮ
Ðµ Ñī
ĠÐ¼ Ð°Ñı
ĠÐ¿ Ð¾ÑĤ
ĠÐº Ð¼
ĠÐ³ ÐµÐ½
ÑĢ Ð¸
ĠÐ· Ð²
Ð¼ ÐµÐ½
ĠÐ½Ð° Ð´
ĠÑıÐ½ Ð²Ð°ÑĢ
ĠÑĥÐº ÑĢÐ°
ĠÐ¿ ÐµÑĤ
ĠÐ´ Ð¾Ð¼
ĠÐ¼ ÐµÐ´
ĠÐ°Ð² ÑĤ
ĠÐ° Ð¿ÑĢ
ÐµÐ² Ð¸Ñĩ
ĠÐ±Ð¾Ð» ÐµÐµ
ĠÐ´ Ð¾ÑģÑĤ
ĠÐ´ Ð°
ĠÑĢÐ° Ñģ
ĠÐ¿ÑĢÐ¾ Ð¸Ð·Ð²
Ñĭ ÑĤ
Ð» Ð¸Ñĩ
Ñĭ ÑĪ
Ð´ Ð¸Ð½
ĠÐ± ÐµÑĢ
Ð¸ÑĩÐµ ÑģÐºÐ¾Ð¹
Ñī Ðµ
ÑĦ ÐµÑģÑģ
ĠÑıÐ·Ñĭ Ðº
ĠÐ³ Ð´Ðµ
ĠÐ¿ÑĢ Ð¸Ð¼
ĠÐ¿ÑĢÐµÐ´ ÑģÑĤÐ°Ð²
ĠÐ°ÑĢ Ð¼
ĠÑĢÐµ Ð·
ĠÑĩ Ð¸Ñģ
ĠÑģ Ñĩ
ĠÑıÐ½Ð²Ð°ÑĢ Ñı
ÐµÐ² ÑĢÐ°
ĠÐ´Ð¾Ð» Ð¶
ĠÐ½Ð¾Ñı Ð±ÑĢÑı
ĠÑĥ ÑģÑĤ
ĠÐ¾ ÑĦÐ¸ÑĨ
Ð¾ÑĢ Ð¾Ð½
ÑĢÑĥ Ð´
ĠÑĦ ÐµÐ²ÑĢÐ°
ĠÐ²Ñģ Ðµ
ĠÐº Ð¾Ð´
Ð¾ ÑĪ
ĠÐ· Ð´
ĠÐ½Ð° ÑħÐ¾Ð´
ĠÐ¸Ð· Ð²ÐµÑģÑĤ
ĠÐ¸ ÑģÐº
ĠÐ°Ð² ÑĤÐ¾ÑĢ
ĠÐ´ ÐµÐºÐ°
ĠÐ´ÐµÐºÐ° Ð±ÑĢÑı
ĠÑĦÐ¸Ð»ÑĮ Ð¼
ĠÑģÐµÐ² ÐµÑĢ
ĠÑį Ð½
ÑĥÑī ÐµÑģÑĤÐ²
Ñı Ñī
ÐµÐ´ Ð¸Ð½
Ð·Ñĭ Ð²
ÑĥÑĢ Ð³
ÑıÑĤ ÑĮ
ÐµÐ½Ð¸Ðµ Ð¼
ĠÐºÑĢÐ° Ñģ
ĠÐ´ Ð°ÑĤÐ°
ĠÐ² Ð»Ð°Ð´
ĠÐ¼Ð°ÑĢ ÑĤÐ°
Ð¸Ðµ Ð¹
ĠÐ¾ÑĢ Ð³Ð°Ð½
ĠÐ¸Ð¼ Ðµ
Ð»Ð° Ð³
Ð¾Ð½ Ñĩ
ĠÐ² Ð¾Ð»
Ñĥ ÐµÑĤ
ĠÐ¾ÐºÑĤ ÑıÐ±ÑĢÑı
Ð¾ÑģÑĤ ÑĮ
ĠÑģ Ð¼ÐµÑĢ
Ð¸Ñģ Ð¸
ĠÑģÐ» ÐµÐ´
ÑĢÐµ ÑĤ
Ð¸ÑĤ ÐµÑĤ
ĠÑģÐµÐ½ÑĤ ÑıÐ±ÑĢÑı
Ð¾Ð² Ð¸Ñĩ
ĠÐ°Ð²Ð³ÑĥÑģÑĤ Ð°
ĠÐ² Ðº
Ð¸ÑĩÐµÑģÐº Ð¸Ñħ
Ð¼ ÐµÑģÑĤ
Ð°ÑĤ Ð¾ÑĢ
Ñĥ Ð³
ĠÑĨÐµÐ½ÑĤ ÑĢÐ°
Ð¾Ð² Ð°Ð»
ĠÐ°Ð»ÐµÐºÑģ Ð°Ð½Ð´
ÑĨ Ð°
ĠÐ°ÑĢ Ñħ
ÑģÐº Ð°
Ðº Ð¾Ð¹
Ð´ Ð¸
ĠÑĢ Ñĥ
ĠÑģÑĤÐ°ÑĤÑĮ Ð¸
Ð¾Ð± Ñĭ
Ð² Ð¾Ð»
ĠÑĢÐ°Ð¹Ð¾Ð½ Ðµ
ĠÑĤ ÐµÑħ
ĠÑĤ ÑĥÑĢ
ĠÐºÐ» ÑĥÐ±
Ðµ ÑĦ
ĠÐ¸Ñİ Ð»Ñı
ĠÑıÐ²Ð»Ñı ÐµÑĤÑģÑı
Ðº Ð¾Ð¼
ĠÐ´ ÐµÐ¹ÑģÑĤÐ²
ĠÑģ ÑĪÐ°
ÑıÑĤ ÐµÐ»ÑĮ
ĠÐ´ÐµÑĢÐµÐ² Ð½Ñı
ĠÐ¾ÑĤ Ð½Ð¾
ĠÐºÐ¾ÑĤÐ¾ÑĢ ÑĭÐ¹
ĠÐ²ÐµÐ» Ð¸Ðº
ĠÐ³Ð¾ÑģÑĥÐ´Ð°ÑĢ ÑģÑĤÐ²ÐµÐ½
ĠÑĥ Ð¶Ðµ
ĠÑĢÐ°Ð· Ð²
Ð¾ Ñħ
ĠÑĩÐµÐ»Ð¾Ð² ÐµÐº
ĠÐ¸ÑģÑĤ Ð¾Ñĩ
Ð°ÑĤ Ñĭ
Ð¼ Ð°Ð½
ĠÐ¸Ð½ ÑĤÐµÑĢ
ĠÐ¸Ñİ Ð½Ñı
ĠÐ² Ð·
ĠÐ¿Ð¾Ñģ Ð»ÐµÐ´
ĠÐ¾ÑĤ Ðº
Ð¸ÑĩÐµ ÑģÐºÐ¸Ð¹
Ð¾Ð¼ Ð¸Ð½
ÑĨ ÐµÐ²
ĠÐ½ ÐµÐ¼
ĠÐ°Ð¿ÑĢ ÐµÐ»Ñı
ĠÐ¿ Ð¾Ð±
ĠÐ¿ÐµÑĢ ÐµÐ´
Ð¸ ÑĢÑĥ
Ð¸ÑĤ Ñĥ
Ð¾ Ð½Ñĭ
ÑĢ ÐµÐ½
ĠÐ² Ð¾Ð´
Ð¸Ð² ÐµÑĢÑģ
ĠÑĦ Ð¾ÑĢÐ¼
ĠÐ² Ð¾Ñģ
Ð¸ÑĨ Ñĭ
Ð¸ÑĩÐµ ÑģÐºÐ¾Ð³Ð¾
Ð¾Ð» Ð¾Ð¶
Ð¾Ð² Ð¾Ð¹
ĠÐ¸Ð· Ð¾Ð±
ĠÑĦÐµÐ²ÑĢÐ° Ð»Ñı
Ñĩ Ðµ
Ð° ÑİÑī
Ñĥ ÑĢÐ°
ĠÐ¾Ñģ Ð½
ĠÐº Ð°ÑĢÑĤ
ĠÐ¼ Ð¾ÑĢ
ĠÑģÑĤ Ð°ÑĢ
ĠÐ¶ ÐµÐ½
ĠÐ´ Ð¾Ðº
ĠÐ¿ÑĢ Ð¸Ð²
ĠÑģÑĤ Ð°Ð»
Ð°Ð» Ðµ
ĠÐ¼ Ð¾Ð»
Ñĥ Ð¶Ð´
ĠÑĥ Ð»Ð¸ÑĨ
Ð¾Ð½ Ð¾Ð¼
ĠÐ¾Ðº ÑĢÑĥÐ³
ĠÐ¸Ð· Ð´
ĠÐ½ ÐµÐº
ÑģÐº Ð¸Ð¼
ĠÐ¼ Ð¾Ð³
ÑĪ Ð¸Ñħ
Ð» Ð¸Ð½
ĠÐ² Ð¾ÑģÑĤ
ĠÐ¸ Ð²
ĠÐ°Ð´ Ð¼Ð¸Ð½
Ð± Ð°
ĠÑģ Ñĭ
ĠÐ°Ð½ Ð³
ĠÐº Ð°Ð·
ĠÐ¾Ð¿ Ð¸Ñģ
ĠÑĥÐ½ Ð¸Ð²ÐµÑĢÑģ
ĠÐº Ð½
ÑĨ ÐµÐ½
ĠÐ¸Ð¼ Ð¿
ĠÐ¾ Ð½Ð°
ĠÑĪ Ðº
ÑĨ Ð¸Ñİ
ĠÐ¾Ð½ Ð¸
Ð¸Ðº Ð°Ð½
ĠÐ¼Ð¾Ð¶ ÐµÑĤ
Ð´ Ð¶
ĠÑĤ Ð¾Ð³Ð¾
ĠÐ¿ÐµÑĢ ÐµÐ¿
ĠÑĢÐµ ÑĪ
ĠÐ½ ÐµÑĤ
ĠÐ¿ÐµÑĢ Ðµ
ÐµÐº Ñģ
Ð¾Ð² Ð¾ÑĢ
ĠÑģÑĤ ÑĢÐ°
ĠÐ¸Ð½ ÑģÑĤ
Ð° Ð¿
ĠÐ½Ð° Ð³
ĠÐ°Ð´Ð¼Ð¸Ð½ Ð¸ÑģÑĤ
ĠÐ¼ Ð°Ðº
ĠÐ¾Ð´ Ð¸Ð½
Ð°ÑĤÑĮ ÑģÑı
ĠÐ¿ÑĢÐµ Ð¼
Ð¸ÑģÑĤ ÐµÐ¼
ĠÑĩ Ð»ÐµÐ½
ĠÐ¿ ÑĥÐ½
Ð± Ð¾Ð»
ĠÐ» Ð¸ÑĤ
Ñı Ð´
ĠÐ¿Ð¾Ñģ ÐµÐ»ÐµÐ½Ð¸Ðµ
ĠÑĨ ÐµÑĢ
Ð¸Ð· Ð½
ÑĪ Ð¸Ðµ
ÑĤÐ¾ ÑĢÐ°
ĠÑģÐ¼ÐµÑĢ ÑĤÐ¸
Ð¸Ð½ Ð¾
ĠÑģ Ð±Ð¾ÑĢ
Ð¸ÑĩÐµÑģÐº Ð¸Ðµ
ĠÐ¼Ñĥ Ð·Ñĭ
ĠÐ»Ñİ Ð±
ÑĢÐ° Ð»
ÑħÐ¾Ð´ Ð¸ÑĤ
Ð°Ðº Ð¾
ĠÑģÐ² ÑıÐ·
Ñģ Ð»
ĠÐ¾ÑĢÐ³Ð°Ð½ Ð¸Ð·
ĠÐ¿Ð¾Ð» Ð¸ÑĤ
ĠÐ± Ð¾ÑĢ
ĠÐ³Ð¾ÑĢÐ¾Ð´ Ð°
ÑĪ Ðµ
Ð» ÐµÐ¼
ĠÐ²Ð¾Ð¹ Ð½Ñĭ
ĠÑģÑĤÐ°ÑĤÑĮ Ñı
ĠÑģ Ð¸ÑģÑĤÐµÐ¼
ÐµÑĢÐ° ÑĤ
Ð¼ ÐµÐ½ÑĤ
ĠÐ· Ð½
Ð»ÐµÐº ÑĤ
ĠÐ¸ Ð´
ĠÑĤ Ð°Ð±
ĠÑĤÐµÑĢ ÑĢÐ¸ÑĤ
ĠÐ½Ðµ ÑģÐº
ĠÑĩ ÑĤ
ĠÐºÐ¾ÑĤÐ¾ÑĢ ÑĭÐµ
ÐµÑĢ Ð±
ĠÐº Ð°Ð¼
ĠÑĢÐµÐ³ Ð¸Ð¾Ð½
ĠÐ´ ÐµÑĤ
ĠÐºÐ¾Ð½ ÑĨ
ĠÐº Ð¾Ð³Ð´Ð°
Ñİ Ð·
Ð° Ð¶
ĠÐ¾ Ð»
ĠÑĦ Ð¸Ð½
ĠÐ¼ ÐµÐ½
ĠÐ¾Ð´Ð½ Ð°ÐºÐ¾
ÐµÑģ ÑĮ
ÐµÑĢ Ñĭ
ĠÑģ Ð¾Ð³
ĠÑģ ÑĥÐ´
ĠÐ¿ Ð¾ÑĢ
Ð¼ Ð¾Ð¶
Ð´ ÐµÐ½
ĠÐ¸Ð³ ÑĢÐ¾Ðº
ĠÐ´ Ð¾Ð±
ĠÐ¿ Ð°ÑĢÑĤ
ĠÐ¸Ð·Ð¾Ð± ÑĢÐ°Ð¶
ĠÐ¶ ÐµÐ»
ĠÑģ Ð°Ð½
ĠÑįÑĤ Ð¾Ð³Ð¾
ĠÐ·Ð°Ð¿ Ð°Ð´
ĠÐ¿ÑĢ Ð¾ÑģÑĤ
ĠÐ¼Ð¾Ð¶ Ð½Ð¾
ÐµÑĤ Ñĭ
ĠÑĦ ÑĥÑĤ
ĠÐ½Ð¸Ðº Ð¾Ð»
Ð½Ð¾Ð¼ Ñĥ
Ð¸ÑĤ Ð°
ĠÐ» ÑĥÑĩ
ÑĢÐ° Ð¶Ð´
Ð¸Ð¿ ÐµÐ´
ĠÐ´ Ð¸
Ð°Ð½ Ð¾
Ð½ Ð¸Ð¹
ĠÐº ÑĢÐµ
ĠÑħ ÑĥÐ´
ĠÑģÐ» ÑĥÑĩ
ĠÐ° Ð¼ÐµÑĢ
ĠÐ²Ð¾ ÐµÐ½
ĠÐºÐ¾Ð½ ÑĤ
Ð¾Ñī Ð°Ð´
ÑĥÑĢ Ñĭ
ĠÐ½Ð° ÑĥÑĩ
Ñį ÑĤ
ĠÑģÐ¾ÑģÑĤ Ð¾Ñı
ĠÐ¿Ð» Ð¾ÑīÐ°Ð´
ĠÑįÑĤ Ð¾Ð¼
Ñı Ñģ
ĠÐ³ Ðµ
ĠÐ· ÐµÐ¼
ĠÐ¿Ð¾Ñĩ ÑĤÐ¾Ð²
Ð¸Ð½ Ðµ
Ð°ÑĢ Ð¸
Ð¾Ð´ Ð°
ÑĢÐ° Ð±Ð¾ÑĤ
Ñī Ñĳ
ĠÐ¸ÑģÑĤ Ð¾ÑĢ
Ð¸Ðµ Ð¼
Ð¸Ðµ Ð²
ĠÐ¿ÑĥÐ½ ÐºÑĤ
Ñĩ ÐµÑģÑĤÐ²
ÐµÐ¼ Ñĥ
ÑĢÑĭ ÑĤ
ĠÑĪ ÑĤ
ĠÐ¿ Ð¸Ñģ
Ð°Ð» Ð¸ÑģÑĮ
ĠÐº ÑĢ
ĠÐ· Ð°ÑĤ
ĠÐº Ð°Ð½
ĠÐ²Ð¸Ðº Ð¸Ð¿ÐµÐ´
ÑĨ Ñĭ
ĠÐ°Ð»ÑĮ Ð±
ĠÐ° Ðº
ĠÑģÑĤ ÑĢ
ĠÑģÑĤ Ð°Ð½
ĠÑĪÐº Ð¾Ð»
ÑĢÐ° Ñī
ĠÑģ ÑģÑĭ
ÐºÐ° Ð´
Ð°Ðº ÑĤ
Ñĥ ÑģÐº
ĠÐµ ÑīÑĳ
ÐµÐ² Ð°
ĠÑĥÑĩÐ°ÑģÑĤ Ð½Ð¸Ðº
ĠÐ¿ Ð¾Ð½
ĠÐ½ ÐµÐ´
Ð¸Ðº Ð¾Ð²
ÐµÑĢ Ð½
ĠÑħÑĥÐ´ Ð¾Ð¶
ÑĢÐµ Ð²
Ð¾ÑĤ Ð¾Ð²
ĠÐ¾ Ð³
Ñģ Ð¾Ð½
ĠÐ´Ðµ ÑıÑĤÐµÐ»ÑĮ
Ð¾ ÑĦ
ĠÑĩÑĤ Ð¾Ð±Ñĭ
ĠÑģÐ¿ ÐµÑĨ
ĠÑħ Ð¾ÑĤ
ĠÐ½Ð° ÑĢÐ¾Ð´
Ð» Ð¾Ð½
ĠÐºÐ½ Ð¸Ð³
ĠÑĤÐ°Ð± Ð»Ð¸ÑĨ
ÐµÑĢ ÑĤ
ĠÐ² Ð¾Ð¿
ĠÑĥ Ð±
ĠÐ¼ Ð°Ð»
ĠÐ° Ð±
Ðº Ð¸Ð¹
ĠÑģÐ¾ Ð¾ÑĤ
ĠÑĪ Ð¸ÑĢ
ĠÐ²Ñĭ ÑģÑĤÑĥÐ¿
ÑģÑĤ ÑĢ
ĠÑĢÐµÐ· ÑĥÐ»ÑĮÑĤ
ĠÐ·Ð½Ð°Ñĩ Ð¸Ð¼
ĠÑĢÐµ ÑģÐ¿
ĠÑģÐ» ÑĥÐ¶
ĠÑģÑĤÐ°ÑĤ ÑĥÑģ
ÐµÑĢ ÑĪ
ĠÐ° ÑĤ
ĠÑģÐ¾ÑģÑĤÐ°Ð² Ð»Ñı
ĠÐ¿ÐµÑĢ ÐµÐ²
ĠÑģÐ» Ð¾Ð²
Ð² Ð¾ÑĢ
ĠÐ² Ð²
ĠÐ±Ñĭ ÑĤÑĮ
ĠÐ³ ÑĢ
ĠÑģÑģÑĭ Ð»
Ð° ÑĨÐ¸Ñı
Ð¾Ð¶Ð´ ÐµÐ½Ð¸Ñı
ĠÐ²Ð½ ÑĥÑĤ
ĠÐ³ÐµÐ½ ÐµÑĢÐ°
ĠÑĤ Ð°Ð¼
ĠÑĦ Ð¸Ð»
ĠÐº Ð»Ð°
Ð¸ÑĩÐµÑģÐº Ð°Ñı
ĠÑĢÐµÑģÐ¿ ÑĥÐ±Ð»
ĠÐ³Ð¾Ð´ Ñĭ
ĠÐ¿ ÐµÑģ
ĠÑĦ ÐµÐ´
ĠÑģ ÑĥÑīÐµÑģÑĤÐ²
ÑĮ Ðµ
Ð°Ñģ Ñģ
ĠÐ²Ð¾Ð· Ð¼Ð¾Ð¶
ĠÐº ÑĥÐ»ÑĮÑĤ
Ð°ÑĤ Ðµ
Ð¾Ð± Ñī
ĠÐ¼Ð½ Ð¾Ð³
Ð» Ð¾Ð¶
ĠÑģÐµÐ» Ð¾
ĠÑģ ÐµÐ±
Ð° ÑİÑĤ
Ñį Ð½
Ð¸Ðº Ðµ
Ð¸ÑĤÐµÐ»ÑĮ Ð½Ð¾
ĠÐ²Ðº Ð»ÑİÑĩ
ĠÐ¼ÐµÐ¶Ð´ Ñĥ
ĠÐ¿Ð¾Ð± ÐµÐ´
ĠÑĤ Ð¸Ð¿
ÑĥÑĢ Ð½
ĠÐµ Ð´Ð¸Ð½
ÑģÐº ÑĥÑİ
ĠÐ³ Ð¾
ĠÐ°Ð½Ð³ Ð»
ĠÐ²ÐµÑĢ Ñħ
Ð½ Ð¸Ñħ
ĠÑģÑĤ ÐµÐ¿
ĠÐ° ÐºÐ°Ð´
ÑĢÐµ Ð¹
ĠÐº ÑĥÑĢ
ĠÑģÐ¾Ð³ Ð»Ð°Ñģ
ÑĦÐµÑģÑģ Ð¸Ð¾Ð½
ĠÐ·Ð°Ð½ Ð¸Ð¼
ĠÐ¿ÐµÑĢ Ð¸
ĠÐ²Ð¾Ð¿ ÑĢÐ¾Ñģ
ÐºÐ° Ñħ
Ð¸Ð¼ Ð¿
ÑĢÐµ Ð±
ĠÐ¿ÑĢ Ð¾Ð³
ĠÐ¿ÐµÑĢÐµÐ¿ Ð¸ÑģÐ¸
ĠÑĥ Ñģ
ÐºÐ¾Ð² Ð¾Ð´
ĠÐ½Ð°Ð¿ Ð¸Ñģ
ÐµÐ· Ð´
ĠÐ¿ ÑĥÑĤ
ĠÐ°ÐºÐ°Ð´ ÐµÐ¼
ĠÐ°Ð½ ÑĤ
ĠÐ¾Ðº Ð¾Ð½Ñĩ
ĠÐµÐ² ÑĢÐ¾Ð¿
ÐµÐ½ Ð½ÑĭÐ¹
Ð°Ð½ Ñĭ
ÑģÑģ Ð»ÐµÐ´
ĠÐ² Ð°Ñģ
ĠÐ¿ÑĢÐµ Ð·
Ð°ÑĢ Ð´
ĠÐ¸Ð½ ÑĦÐ¾ÑĢÐ¼
ĠÑĢÐ°ÑģÐ¿ Ð¾Ð»Ð¾Ð¶
ĠÐ¿ÑĢ Ð¸Ñģ
Ñĥ Ð»Ñı
ĠÑģÐ¾Ð¾ÑĤ Ð²ÐµÑĤ
ĠÐ²ÑĭÑģ Ð¾ÑĤÐ°
Ñĥ ÑĢÐµ
ĠÐºÐ¾Ð½ ÑģÑĤ
ĠÐ² Ð¼ÐµÑģÑĤ
ÑĢÑĥ Ð¶
ĠÐ² ÐµÐºÐ°
ĠÑĤ ÐµÐº
ĠÐ½ÐµÐº Ð¾ÑĤÐ¾ÑĢ
Ñı Ð»
Ð± Ñĭ
ĠÑĩÐµÑĢ ÐµÐ·
ĠÑĤ Ñĭ
ÑĨ Ð¸Ð¹
ĠÑģ Ð¸Ð»
ĠÑĤÐ°Ð±Ð»Ð¸ÑĨ Ðµ
ĠÐ½Ð°ÑĨÐ¸Ð¾Ð½ Ð°Ð»ÑĮ
Ð¸Ð» Ð¸ÑģÑĮ
ÑĢÐ° ÐºÑĤ
ÑģÑĤÐ² Ðµ
ĠÐ½Ð°ÑģÐµÐ» ÑĳÐ½
ĠÑģ ÐµÐ·
ĠÑĢÐµ Ð´
ĠÐ°Ð²ÑĤ Ð¾Ð¼
ĠÐ¶ Ð¸Ð²
ĠÐº Ð¾ÑĤ
ĠÑĢÑĥ ÐºÐ¾Ð²Ð¾Ð´
ĠÐ°Ð½ Ð´
Ð°Ð» Ð°ÑģÑĮ
ĠÐ¼ Ð¸Ñħ
Ð¼ Ñĭ
ĠÐ¶ ÑĥÑĢÐ½
ĠÐ½ Ð¸
Ð¸Ð» Ð°ÑģÑĮ
ĠÐ¿Ð¾Ñģ ÐµÐ»
ÑĢÐ°ÑĤ Ð¸Ð²
ÐµÑĢ Ð³
ĠÑĢÐµ Ð¶
ĠÐ½Ð° ÑģÑĤ
Ð¸ Ð°Ð»ÑĮÐ½ÑĭÐ¹
ĠÐ¼ Ð¸ÑĢÐ°
ĠÐ´Ð² Ð°
ĠÑħ Ð¾ÑĢ
ÐµÑĢ Ð²
Ð¾ ÐµÐ²
ĠÑĢÐ° Ð½
ĠÐ¾ Ð·
ĠÑģÑĤ ÑĢÐ¾
Ð°ÑĢ Ð¾Ð´
ĠÐ¿ÑĢÐµÐ· Ð¸Ð´
ĠÑģÐ¾ ÑİÐ·
ĠÐ¼Ð°ÑĤ ÐµÑĢ
ĠÐ¿ÑĢÐ¾Ð¸Ð·Ð² Ð¾Ð´
Ð½Ð¾ÑģÑĤÑĮ Ñİ
ĠÑĪ Ð°Ð±
Ð° Ð´Ð°
ĠÐ´ ÐµÐ¿
ĠÑĢÐµ ÐºÐ¸
ĠÐºÐ»Ð° ÑģÑģ
ĠÑĦ Ð°Ð¹
Ð¸ÑĤ ÐµÑĤÐ°
Ð°ÑĢ ÑĮ
Ð¸Ð» Ð¾
Ñı Ð¼
ĠÐ± Ð¾Ð³
ĠÑĥ ÑĤ
Ð´ ÐµÑĢÐ¶
ĠÑĤÐµ Ð°ÑĤ
ĠÐ¼Ð¾ÑģÐº Ð¾Ð²
Ð°Ð» Ð¸Ð·
ĠÐ¾Ñģ Ð¾Ð±
ĠÐ¸ÑĤ Ð¾Ð³
ĠÑĥÐ¿ Ð¾Ð¼Ð¸Ð½
ĠÐ¾ÑĤ Ð´
ĠÐ½Ð°ÑģÐµÐ» ÐµÐ½Ð¸Ñı
ĠÐ» ÐµÐ½
ĠÐ¿ Ð°Ð¼
ÑĪ ÐµÐ¹
ĠÐ¸ ÑģÑģÐ»ÐµÐ´
ĠÐ°Ð»ÑĮÐ± Ð¾Ð¼
Ð¸Ð½ ÑģÐºÐ¸Ð¹
ÐµÐ½ÑĤ Ð°
ĠÐ¼Ð¸Ð½ Ð¸ÑģÑĤ
ĠÑįÐº ÑģÐ¿
ĠÐ°ÑĢ ÑĤ
ĠÐ¿ÑĢÐ¾ ÑĨ
ĠÑĩÐ°ÑģÑĤ ÑĮ
ĠÐ» Ð¸Ð½
ÐµÑĢ Ð¾Ð²
ĠÐ¿ÑĢÐ¾ ÐµÐºÑĤ
Ð¸ÑĤ ÐµÐ»ÐµÐ¹
ĠÐº Ð²
ÐµÐ½ Ð½ÑĭÐµ
ÑĢ ÑĮ
ĠÐ±ÑĥÐ´ ÐµÑĤ
ÐµÐ½ ÐºÐ¾
ĠÐºÐ¾ÑĢ Ð¾Ð»
Ñĩ Ð¸
Ð» Ð°Ð½Ð´
ĠÐ¼ÐµÐ¶Ð´ ÑĥÐ½
ĠÐ·Ð° Ð³
ĠÐ³ ÑĢÐ°Ð½
Ð¾Ð» Ð¾
ĠÐ¾Ð±Ñģ ÑĥÐ¶Ð´
ĠÐ´ Ð¾ÑĢ
ĠÐ° Ð·
ĠÐ± ÑĢ
ĠÐ¼ÐµÐ¶Ð´ÑĥÐ½ Ð°ÑĢÐ¾Ð´
ÐµÑĢ Ðµ
ĠÑģÐ¾ Ð¾Ð±Ñī
Ð¾ÑĢ Ð¾Ð´
Ð¿ Ð¾Ð½
ĠÐ°Ð¼ÐµÑĢ Ð¸ÐºÐ°Ð½
ÐµÐ½ Ð´
ĠÐº ÑĢÐ¸ÑĤ
ĠÑįÑĤ Ð¾ÑĤ
ĠÐ¾ ÑģÑĤÐ°Ð²
Ð¾Ð² Ð°ÑĤÑĮ
Ð¸Ð² Ð¸Ð·
ĠÐ¿ÑĢ Ð¸Ñĩ
ĠÑĥ Ð³
ĠÑĢ Ð¾Ð¼
ĠÐ½Ð°ÑĨÐ¸Ð¾Ð½ Ð°Ð»ÑĮÐ½ÑĭÐ¹
ĠÐ´ Ð¾Ð¿
ĠÑĥÐ»Ð¸ÑĨ Ð°
Ð¾ÑĢ Ð³
ĠÑģ Ð½
ĠÐ¿ÐµÑĢÐ¸ Ð¾Ð´
ĠÐ²Ð½ÑĥÑĤ ÑĢÐµÐ½
Ð¸ÑĩÐµÑģÐº Ð¸
Ð¾Ð½ Ðµ
Ð»Ð¸ Ð·
ĠÐºÐ¾ÑĤÐ¾ÑĢ ÑĭÑħ
ĠÐ¸Ð· Ð±
ÐµÐ» ÐµÐ¼
ĠÐ¿Ð¾ ÑıÐ²
ĠÐ½ÐµÑģÐº Ð¾Ð»ÑĮÐºÐ¾
ĠÑĦÐµÐ´ ÐµÑĢÐ°
Ð¾Ð» Ð¶
ĠÐ¼ ÑĥÐ¶
ĠÑģÐ¾ ÑĨ
ĠÑģÐ¾ÑģÑĤÐ°Ð² Ðµ
Ð¸Ð± Ð¾
ĠÐ¿ Ð¾Ð³
ĠÐºÐ° ÑĩÐµÑģÑĤÐ²
Ð¸ Ð°Ð½
ĠÑģÐ°Ð¹ ÑĤ
ÑĢÑĥ ÑĪ
Ð¸Ðº Ð»
ĠÐº ÑĥÐ±
ĠÑģ Ð¾Ð´
Ð¾ÑĢ Ð¾Ð²
ĠÐ¿ Ð¾ÑĢÑĤ
Ð² Ñĭ
Ð¸Ð» Ð»
Ð¼ Ð¾ÑĤ
Ð² Ð¸
ĠÐ³ ÑĥÐ±
Ñĭ Ð¼Ð¸
ĠÐ°ÐºÑĤ Ð¸Ð²
Ñĥ Ð´Ð°
ÑĢÐ° Ñħ
ÐµÐ½ Ð½ÑĭÑħ
ĠÐ³Ð¾Ð´Ð° Ñħ
Ð°Ð» Ð¾ÑģÑĮ
Ð¼ ÐµÑĤ
ÑĪ ÐµÐ³Ð¾
ÑģÑĤÐ² Ð¾Ð¼
ĠÐ² ÐµÐ´
ĠÑĤ ÑĢÐ°Ð½
ĠÐ¾Ð» Ð¸Ð¼Ð¿
ĠÑģÐ¿ Ð¸Ñģ
ĠÐ¾Ð¿ ÑĢÐµÐ´
ĠÐ¿ÑĢ Ð¾Ð±
ĠÑĩÐ°ÑģÑĤ Ð¸
ĠÑģÑĢÐµÐ´ Ð¸
ĠÑĦÑĥÑĤ Ð±Ð¾Ð»
ĠÐ½Ð° Ð¿ÑĢ
ĠÐ¼ Ð°Ð¹
ĠÐ´ÑĢÑĥÐ³ Ð¸Ñħ
ĠÐ± Ð°ÑĢ
ĠÑį ÑĤÐ°
ĠÐ¿ÑĢÐ¾ ÑĪ
ĠÑĦÑĢÐ°Ð½ ÑĨ
ĠÑĤÐµÐ» ÐµÑĦ
ĠÐ¿ÐµÑĢÐ² ÑĭÐ¹
Ð¾ÑĤ Ñĭ
ĠÐ·Ð° Ñī
ĠÑĤ Ð¾Ñĩ
ĠÐ¾Ð±Ð»Ð°ÑģÑĤ ÑĮ
ĠÐ¿Ð¾ ÑįÑĤ
Ð² Ðµ
Ñı Ð¶
ĠÑģÐ°Ð¹ ÑĤÐ°
ÑĥÑİ ÑĤ
ĠÑİ Ð¶
ĠÐ´ Ð¸Ð²Ð¸Ð·
ĠÑģÐ¾Ð¾ÑĤÐ²ÐµÑĤ ÑģÑĤÐ²
Ð» Ð¸Ð²
ĠÐ²Ñģ ÐµÐ³Ð¾
ĠÐº ÑĢÑĥÐ¿
ĠÑģÐ¿Ð¸Ñģ Ð¾Ðº
ĠÑĥ ÐºÐ°Ð·
Ð° ÑĨÐ¸Ð¾Ð½
ĠÐ³ ÑĢÐ°ÑĦ
ĠÐ± Ð°Ð»
ĠÐ¼ ÑĥÐ½
ĠÐ¾Ð¿Ð¸Ñģ Ð°Ð½Ð¸Ðµ
Ð¿ Ð¸ÑĤ
ĠÑį Ð»ÐµÐºÑĤ
ĠÐ½Ðµ Ð·
ĠÐ¾ÑģÑĤ ÑĢÐ¾Ð²
ĠÐ²ÑĤÐ¾ÑĢ Ð¾Ð¹
ĠÐ¼ÑĥÐ·Ñĭ Ðº
ĠÑĤÐµÐº ÑģÑĤ
ĠÐ´Ð² ÑĥÑħ
ĠÑģ Ð´ÐµÐ»
ĠÐ½ Ð¸Ñħ
ĠÑĤÐµÑħ Ð½
ĠÐ² ÑģÑĤ
ĠÑģÐµÐ»ÑĮ ÑģÐºÐ¾Ðµ
ĠÐ¸ÑģÐº ÑĥÑģ
Ñĳ Ð²
ĠÐ¼ Ð°Ñģ
ĠÑģÐ»ÐµÐ´ ÑĥÑİÑī
ĠÐ·Ð°ÑĤ ÐµÐ¼
Ð¾Ð· Ñı
ĠÐ» Ð¸ÑĪ
ĠÑĦÐ°Ð¹ Ð»
Ð½Ñı Ñı
ĠÐ»Ð¸ÑĤ ÐµÑĢÐ°ÑĤ
ÑĢÑĥ Ð·
Ð¾Ð½ Ð´
ĠÐ» Ð¸
ÐµÐ´ ÐµÐ½Ð¸Ñı
ĠÐ¿Ð¾Ðº Ð°Ð·
ĠÐ°Ð´Ð¼Ð¸Ð½Ð¸ÑģÑĤ ÑĢÐ°ÑĤÐ¸Ð²
ĠÐ¼ Ð¾Ð´
ĠÐ¿ÐµÑĢÐ² Ð¾Ðµ
ĠÐ³ Ð°Ð·
ÐµÑģ Ð¿
ĠÑĢÐ°Ð· Ð¼ÐµÑĢ
Ð½ ÐµÐ²
Ð¸ÑģÑĤ Ñĭ
ĠÐ¸Ð´ ÐµÐ½ÑĤ
ĠÐ½ Ð¾Ð¼
Ð¸Ð¼ ÐµÑĢ
ĠÐ± Ð»
ĠÐ²Ñģ ÐµÑħ
Ð¼ Ð°ÑĤ
ĠÑģÐ² ÑıÑĤ
ĠÐ° Ð¿
ĠÐ¶ÐµÐ» ÐµÐ·
ĠÐ¸ Ñģ
ÑģÐº Ð¾
ĠÐ²Ñģ Ñĳ
ĠÑģÐ¾Ð² ÑĢÐµÐ¼
ĠÐ¾Ðº Ð¾Ð»Ð¾
ĠÑĦ Ð»
Ð¸ÑĤ ÐµÐ»Ñı
ÑĥÐ¼ ÐµÐ½ÑĤ
ĠÐ²Ð»Ð°Ð´ Ð¸Ð¼
ĠÐ¼ Ñĭ
ĠÑĥÑģÑĤ Ð°Ð½Ð¾Ð²
ĠÐ± Ð¸
ĠÑĢÐ¾ÑģÑģÐ¸Ð¹ ÑģÐºÐ¾Ð¹
ĠÐº Ð°Ð»
ĠÑĤÐµÐ»ÐµÑĦ Ð¾Ð½
ĠÑĢ Ñĭ
ÑĢÐ°Ð¶Ð´ Ð°Ð½
ĠÑģÐ¿ Ð¾ÑĢÑĤ
ÑĦ ÑĦ
ĠÑįÑĤ Ð¾Ð¹
ĠÐ¿ÑĢÐ¾Ð³ ÑĢÐ°Ð¼
ĠÐ¼ Ð°Ð½
ĠÐ¾ÑĦÐ¸ÑĨ Ð¸Ð°Ð»ÑĮÐ½ÑĭÐ¹
Ð¸ÑĨ Ð¸Ð¸
Ð°Ð»ÑĮ Ð½ÑĭÐµ
ĠÐ» Ð¸Ñĩ
ĠÐºÐ° Ð¶Ð´
ĠÑģ Ð¸Ð¼
Ð¸Ð½ Ñĥ
ĠÐ³ ÑĢÐ°Ð¶Ð´Ð°Ð½
ĠÐ¿ÑĢÐ¾Ð´ Ð¾Ð»Ð¶
Ð° Ðµ
ĠÐ¸Ð³ÑĢÐ¾Ðº Ð¸
ĠÑĢÐ°Ð· Ð´ÐµÐ»
Ðº Ð¸Ñħ
Ñ ĸ
Ð¸Ð¼ ÐµÐ½
ĠÑģ ÐµÐº
ĠÐº ÑĢÑĭ
ĠÐ¿ Ð°ÑĢÐ°
Ð¾Ð½ Ð¾Ð²
ĠÑģ Ð¾Ðº
ĠÐ¸Ð¼ ÐµÐ½Ð¸
Ð¸ÑĤ Ðµ
ĠÑģÑĩ Ð¸ÑĤ
Ð¾Ñģ Ð¾Ð±
ĠÐ´Ð° Ð¶Ðµ
ĠÐ¾ÑĢ Ð´ÐµÐ½
ĠÑĤÑĢ Ð¸
ĠÐ½Ð°Ð¿ÑĢ Ð¸Ð¼ÐµÑĢ
ĠÐ¾ÑĤ Ð»Ð¸Ñĩ
ĠÐ¸Ð´ÐµÐ½ÑĤ Ð¸ÑĦ
Ð¸ÑĨ Ð¸Ð¿
ĠÐ¼Ñĥ Ð·
Ð¸ÑĤ ÐµÐ»Ð¸
ĠÑĥ Ð²
Ð¸Ð½ Ð¾Ð²
ĠÑĢÐ°Ð·Ð² Ð¸ÑĤ
ĠÑģÐ¾Ð´ ÐµÑĢÐ¶
ÐµÐ½ Ñģ
ĠÑĤ Ð°Ð½
Ð¾Ð» Ð¾Ð²
ĠÐ³ÑĢÑĥÐ¿Ð¿ Ñĭ
Ð¸Ð½ ÑģÐºÐ¾Ð³Ð¾
ĠÑĤÑĢ ÐµÐ½
ĠÑį Ð¿
ĠÐ³ Ð¾Ð²Ð¾ÑĢ
ĠÐ½Ðµ Ñģ
ĠÐºÐ¾ÑĤÐ¾ÑĢ Ð¾Ð¹
ĠÐ¼Ð¾Ð» Ð¾Ð´
ÐµÑĢ Ð¾Ð¼
ĠÐ± Ð»Ð°Ð³
ĠÐ°Ð»ÐµÐºÑģÐ°Ð½Ð´ ÑĢ
ĠÐ¼ÑĥÐ½ Ð¸ÑĨÐ¸Ð¿
Ñİ Ñģ
ĠÐ° Ð³
ĠÐ¾Ñĩ ÐµÐ½ÑĮ
Ð°Ð»ÑĮ Ð½Ð¾
ĠÑĢÐ°Ð±Ð¾ÑĤ Ñĭ
Ð¸ÑĨ Ðµ
Ð¾ÑĢÐ° Ñı
ĠÐ¿Ð°Ð¼ ÑıÑĤ
Ð² Ð°ÑĤ
ÐµÑģÑĤ Ð¸
ĠÐ´ Ð°Ð²
ĠÐ¸Ð¼Ðµ ÐµÑĤ
ĠÐ¸ÑģÑĤ Ð¾ÑĢÐ¸Ð¸
Ð°Ð»ÑĮ Ð½ÑĭÑħ
ĠÐº Ð½Ñı
Ð¿ Ð¾Ð´
ĠÐ· Ð¾Ð»
ĠÐ¿ÑĢÐ¾ Ð¸Ñģ
ÑĢ Ð¾ÑģÑĤ
ĠÑĤÐµÑĢÑĢÐ¸ÑĤ Ð¾ÑĢÐ¸Ð¸
ĠÐ²ÑĭÐ¿ ÑĥÑģÐº
ĠÑĥ Ð·
ĠÐ²Ð¾ÑģÑĤ Ð¾Ñĩ
ĠÐ»Ñİ Ð´
Ð¾Ð·Ñı Ð¹
ĠÐ¿Ð» Ð°Ð½
ĠÐ² ÐµÐ½
ĠÐ² Ð°Ð»
Ð½ Ñĥ
ĠÑģ Ð¸Ð½
ĠÑģÐ¾Ð² ÐµÑĤÐ°
ĠÐ¾ÑĤÐ½Ð¾ ÑĪ
ĠÐºÐ¾ÑĤ Ð¾ÑĢÐ°Ñı
Ñĩ Ð°
ĠÐ¿ÑĢÐµ Ð¶
ĠÑĩ Ð°Ñģ
ĠÐ¿Ð¾Ð¼ Ð¾Ñī
Ñħ ÑĢÐ°Ð½
ĠÐ» Ñĥ
ĠÑįÐº Ð¾Ð½Ð¾Ð¼
Ð¾Ð± Ð¾Ð´
Ð² ÐµÐ´
ĠÐ½ ÑĥÐ¶
ĠÐµ Ð¼Ñĥ
ĠÐº Ð¾
ÑĪ Ð°Ñı
ĠÐ²Ð¼ÐµÑģÑĤ Ðµ
ĠÐ¶ÐµÐ½ Ñī
Ð¸ÑĤÑĮ ÑģÑı
ĠÑĢÐ°Ð· Ð»Ð¸Ñĩ
ĠÑģÑĤÐ°ÑĤÑĮ Ñİ
Ð°Ð» Ð¸Ð¸
ĠÐ³ÑĥÐ± ÐµÑĢÐ½
ĠÑģÐ²Ð¾ ÐµÐ¹
ĠÑģÐµÑĢ Ð³
Ð» Ð¾Ð¼
ĠÐ¾Ð¿ ÐµÑĢÐ°
ÑĢ Ð¾Ð¹
Ð± Ð¸
ĠÐ¿Ð¾Ð´ Ð´ÐµÑĢÐ¶
Ð°Ð½ Ð¸Ð¹
ĠÐ¿Ð¾Ñģ ÑĳÐ»
ÑĥÑĤ ÑģÑĤÐ²
ÑĦÐµÑģÑģÐ¸Ð¾Ð½ Ð°Ð»ÑĮÐ½ÑĭÐ¹
Ñı Ñħ
ĠÐ·Ð° Ð±
ĠÐ½ ÐµÐ²
ĠÑģÑĤ Ð¾Ð»
ĠÐ¿Ð¾Ð»ÑĥÑĩ Ð¸Ð»
ĠÐ¼ Ð½Ð¾Ð³Ð¾
ĠÐ» Ð°
ĠÑĢÐµ Ðº
ĠÐ¿ÑĢ Ð¸Ð·
Ð¸Ñı ÑĤ
ĠÐ¸Ð· Ð¼ÐµÐ½
Ð°ÑĢ Ð¾Ð²
ĠÐ¾ÑģÐ½ Ð¾Ð²Ð°Ð½Ð¸Ñı
ĠÑĥ Ð»
ĠÑĥ Ð¼ÐµÑĢ
ÐµÐ½ Ð½Ð¾Ð¹
ĠÐ¸Ð² Ð°Ð½Ð¾Ð²
ĠÑĥ Ð¿ÑĢÐ°Ð²
ĠÐ¼ Ð°Ð³
Ð½ ÐµÐ³Ð¾
ÑĨ Ð¸ÐºÐ»
ĠÐ¾ÑĤ Ð´ÐµÐ»
Ð°Ð»ÑĮ Ð½Ð°Ñı
Ð¾Ñģ Ð»Ð°Ð²
ÑĢÑĥ ÐºÑĤ
ĠÑĤÐµÐ»ÐµÑĦÐ¾Ð½ Ð½ÑĭÐ¹
ĠÐ½ÐµÐ¼ ÐµÑĨ
ĠÑĤ ÑĢÑĥÐ´
Ð°Ð»ÑĮ Ð½Ð¾Ð¹
Ð°ÑĢ Ñħ
ĠÑĥ ÑģÐ¿
Ð¾Ð¿ ÐµÐ´
Ð½Ð¸Ðº Ð¾Ð¼
ĠÐ¿ Ð°ÑĤ
Ñı Ð±
Ð¸Ñģ Ð°
Ð° ÐµÐ¼
ĠÐ½Ð°ÑħÐ¾Ð´ Ð¸ÑĤÑģÑı
ĠÐ¿Ð¾ÑģÐµÐ» ÐµÐ½Ð¸Ñı
Ð¾ÑĢ ÑĥÐ¶
Ñģ ÑĢ
ĠÐ·Ð´ ÐµÑģÑĮ
Ð»Ð°Ñģ ÑĮ
ÑĢÐ¾Ð¼ Ðµ
ĠÐ³ Ð»
ÑĮ ÐµÑĢ
ĠÐ¿ÑĢ Ð¸Ð±
ĠÐ¿Ð¾ Ñħ
Ð°ÑĤ Ð¾Ð²
ĠÐ± ÑĢÐ°
ĠÐ°ÑĢÐ¼ Ð¸Ð¸
Ð¾ÑĢ Ð¾Ð½Ñĭ
ĠÐ¸Ð¼Ð¿ ÐµÑĢ
ĠÑı Ð¿Ð¾Ð½
ĠÑĢÐ° ÑģÑģ
Ð± Ñĥ
ĠÑģ Ð¾ÑĤ
ĠÑģÑĤÑĢÐ° Ð½Ñĭ
ĠÐ¿ÐµÑĤ ÐµÑĢÐ±
ĠÐº Ð¸ÑĤ
ĠÐ¿Ð¾Ð´ Ð¿
Ð°Ð»ÑĮ Ð½Ð¾Ð³Ð¾
ĠÐ³Ð»Ð°Ð² Ñĭ
ÐµÑģÑĤÐ² Ð°
ĠÐºÐ°ÑĩÐµÑģÑĤÐ² Ðµ
ĠÐ´ ÐµÐ¼
ĠÑĥÐºÑĢÐ° Ð¸Ð½Ñĭ
ĠÑĢ Ð¾Ð¶Ð´ÐµÐ½Ð¸Ñı
ĠÐ½Ð°Ð· Ð½Ð°Ñĩ
ĠÐ½Ð°Ñģ ÐµÐ»ÐµÐ½Ð¸Ðµ
ĠÑģÐ°Ð¹ ÑĤÐµ
ĠÐ²ÑĭÑģ Ð¾Ðº
ĠÑĥÐ½Ð¸Ð²ÐµÑĢÑģ Ð¸ÑĤÐµÑĤ
Ð¸Ð· Ð¼
Ðº Ð¾Ð³Ð¾
Ñĩ Ð¸Ð½
ĠÑĥ ÑĢÐ¾Ð²
ĠÐºÐ¾Ð½ ÑĦ
ĠÐ¾Ð»Ð¸Ð¼Ð¿ Ð¸Ð¹
ĠÐ²Ð¸Ð´ Ðµ
Ð¾Ð»Ð¾Ð³ Ð¸Ð¸
ÑĢÐ° ÑģÑĤ
ĠÐºÐ¾Ð» Ð¸ÑĩÐµ
ĠÐ¸Ð´ÐµÐ½ÑĤÐ¸ÑĦ Ð¸Ðº
ÑĨÐ¸ÐºÐ» Ð¾Ð¿ÐµÐ´
Ð¾Ð± ÑĢÐ°Ð·
Ð¸Ð¼ Ð¾
ĠÐ¿Ð»Ð¾ÑīÐ°Ð´ ÑĮ
Ñģ ÐµÐ´
ĠÐ´ ÐµÐ½ÑĮ
ÑĪ Ð¸Ð¼
ĠÑħÐ¾ÑĤ Ñı
ÐµÐº ÑĤÐ°
ĠÐ¾ÑĤÐº ÑĢÑĭÑĤ
Ð°ÑĤ ÐµÐ»Ñı
ÑĢÐ° Ð±
ĠÑģÑĤÑĢÐ°Ð½ Ð¸ÑĨÐ°
Ð¾Ð´ Ðµ
ĠÑģÑĤÑĢÐ¾ Ð¸ÑĤÐµÐ»ÑĮ
ĠÐµ Ð¿
ĠÐºÐ°ÑĢ ÑĤÐ°
ĠÐ¶ÑĥÑĢÐ½ Ð°Ð»
ĠÑİ ÑĢ
Ð² Ð¸Ð½
Ð¾Ñı Ñī
ĠÐ¾ÑģÐ½ Ð¾Ð²Ð°Ð½
ĠÐ° ÑĦ
ĠÐ½Ð°Ð³ ÑĢÐ°Ð´
ÑģÐºÐ¾Ð¼ Ñĥ
Ñĳ Ñħ
ĠÐ³ÐµÑĢ Ð¼
ĠÐ° Ð¼
ĠÐ²Ñĭ ÑĪ
ĠÐºÐ¾Ð½ Ðº
ĠÐ´ÑĢÑĥÐ³ Ð¸Ðµ
ĠÐ¿ Ð°Ð²
ĠÑģÐ¾Ð± ÑģÑĤÐ²ÐµÐ½
ĠÐ¸Ð½Ð´ ÐµÐºÑģ
ĠÐ°Ð² Ð¸
ĠÑĦÑĢÐ°Ð½ÑĨ ÑĥÐ·
ÐµÑĤ Ðµ
ĠÐ¾Ñģ Ð²
ĠÐ²ÐµÑĢ Ñģ
ĠÑģ Ð¾Ð»
Ð¸Ð» Ð¾ÑģÑĮ
ĠÐ¼ Ð¸ÑĢÐ¾Ð²
ĠÐº ÑĢÐ¾Ð¼Ðµ
ÑĢÑı Ð´
ĠÑģÐµÐ»ÑĮ ÑģÐ¾Ð²
ĠÐ¸ÑģÑĤ Ð¾ÑĢÐ¸Ñı
Ð°Ð½ Ð³
Ñĭ Ñĩ
ĠÐ» ÐµÐ¹
Ð½ ÐµÐ¼
ÑĥÐ»Ñı ÑĢ
ĠÑĨ Ð¸ÑĦ
Ð² Ð¾Ð´
ĠÐ·Ð¾Ð» Ð¾ÑĤ
Ð¸ÑģÑĤ Ð¾Ð²
ĠÐ¾ÑĤÐ´ ÐµÐ»ÑĮ
ÐµÑģÑĤÐ²ÐµÐ½ Ð½Ð¾Ð¹
ĠÑģÐµÐ± Ñı
ĠÐ¶ Ð¸Ð·
ĠÐ¾ÑĤ ÐµÑĩ
ĠÐº Ð°Ð²
ĠÐº ÑĢÐ°ÑĤ
ĠÑģÐ¾Ð³Ð»Ð°Ñģ Ð½Ð¾
ĠÑįÐ½ ÑĨÐ¸ÐºÐ»Ð¾Ð¿ÐµÐ´
ĠÑĥÑĩ Ð°
ĠÑĢÐµ Ð¹
ÑĢÐ°ÑĤ ÑĮ
ĠÑħ Ð°ÑĢÐ°
ĠÑĢ ÑıÐ´
ĠÐ² ÐµÐº
ĠÐ¿ÑĢÐ¾Ð± Ð»ÐµÐ¼
ĠÐ¸Ð¼ ÐµÐ½Ð°
ĠÐºÐ°ÑĢÑĤ Ñĭ
Ð°ÑĢ Ñı
ĠÐºÐ¾Ð½ ÑĦÐµÑģÑģÐ¸Ð¾Ð½Ð°Ð»ÑĮÐ½ÑĭÐ¹
Ð¸ÑĤ ÑĥÑĤ
ĠÐ¿ Ð°
ĠÐ¼ Ð¸ÑĢ
ĠÑĥÐ¿Ð¾Ð¼Ð¸Ð½ Ð°Ð½Ð¸Ðµ
Ðº Ð¸Ð½
ĠÐ½Ð° Ð±
ĠÐ² ÑħÐ¾Ð´Ð¸ÑĤ
ĠÐ» ÐµÐ²
ĠÑĦ Ð¾ÑĤ
ĠÑģÑĤÐ°ÑĤÑĮ Ðµ
ĠÐ¼ Ð¸Ð»
ĠÑĥ Ð¼
ÑĢÐ° Ð³
ĠÑĨÐµÑĢ ÐºÐ¾Ð²
ĠÐ¿Ð¾ÑģÑĤ ÑĢÐ¾
ĠÐ½ ÐµÐ¹
ĠÑĥÑĩÐ°ÑģÑĤ Ð¸Ðµ
ĠÐ²ÑĢÐµÐ¼ ÐµÐ½Ð¸
ĠÐ¿ÑĢÐ¾ ÑĦÐµÑģÑģ
ĠÐº Ð¸Ð½
ĠÐ¸ÑģÐ¿ Ð¾Ð»Ð½
ĠÐ¿ÑĢÐ°Ð² Ð¸ÑĤÐµÐ»ÑĮ
ĠÐ´Ð¾ÑĢ Ð¾Ð³
ĠÐ°Ð²ÑĤÐ¾Ð¼ Ð¾Ð±
ĠÐ±Ñĭ Ð²
ĠÑĨÐµÐ½ÑĤ ÑĢ
ĠÑĦ Ð°Ðº
ĠÐ¿ÑĢ Ð¾Ñģ
Ð° Ñİ
ĠÐ´Ð² Ð¸Ð¶
ĠÐ´ Ð°Ð»ÑĮ
ĠÐ¿ Ñģ
ĠÑģÐº Ð¾ÑĢ
ĠÐ½Ð° Ð¿ÑĢÐ°Ð²
ĠÐ· Ð°Ñı
Ð¸ÑĩÐµÑģÐº Ð¾Ðµ
ĠÑĥÐ½Ð¸Ð²ÐµÑĢÑģ Ð¸ÑĤÐµÑĤÐ°
ĠÐ² ÑħÐ¾Ð´
ĠÐ²Ð¾ÑģÑĤ Ð¾Ðº
ĠÐ² Ð»Ð°ÑģÑĤ
Ð» ÐµÐ½Ð°
ÐµÑģÑĤ ÑĮ
ĠÑĢÐµÑģÐ¿ÑĥÐ±Ð» Ð¸ÐºÐ¸
Ñį Ð¹
ĠÐ³Ð¾Ð´ Ð¾Ð²
ÑĥÐ½ Ð´
ĠÐ¸Ð½ÑģÑĤ Ð¸ÑĤÑĥÑĤ
Ð¾Ñı Ð½
ĠÑĩÐ¸Ñģ Ð»Ðµ
ĠÐ½Ðµ Ð¾Ð±
ĠÐ³ ÑĢÐµ
ĠÐ³ Ð°Ð»
Ð·Ñĭ Ð²Ð°
ĠÐ´Ð² Ð¾ÑĢ
ÑĤ ÐµÐ½
ĠÐ½ Ð¿
ĠÐ¶Ð¸Ð· Ð½Ð¸
Ð¾ÑĢ Ð´
ĠÑĦ Ð¸Ð·
ĠÐºÐ¾ÑĢ Ð¿
ĠÐ¿Ð¾ÑĩÑĤÐ¾Ð² ÑĭÐ¹
Ð¸Ñģ Ð¸Ð¼
ĠÑĨÐµÐ½ÑĤÑĢÐ° Ð»ÑĮ
ÑĤ Ñĭ
ÑĢÐ¾Ð² Ð¾Ð¹
Ñģ Ð¸Ð¼
ĠÑĦ Ðº
Ð» ÐµÑĤ
ĠÐ» Ð¸Ð±Ð¾
ĠÐ¸ÑģÑĤÐ¾Ñĩ Ð½Ð¸Ðº
Ñĳ Ð·
Ðµ Ñı
ĠÐ²Ð¾Ñģ ÑģÑĤ
ĠÑģÑĤ ÑĥÐ´
ĠÐ³ÐµÐ½ÐµÑĢÐ° Ð»
ĠÐ² ÐµÑģ
ĠÑģÐ¾Ð·Ð´ Ð°Ð½
Ð°Ð½ Ð´Ð°
ĠÐ¾ÑĤ Ñģ
ĠÑĢÐ°Ð· ÑĢÐ°Ð±Ð¾ÑĤ
ĠÐ·Ð°Ñı Ð²
ĠÐ¿ÑĢ Ð¾Ð¼
Ð°Ð» Ð¾Ð³
Ð¸ Ñī
ÑĢÐ° Ð»ÑĮ
ĠÑģ Ð°
ĠÐºÐ¾Ð½ Ñģ
ĠÐ¼ Ð¾Ð¼
Ð¾Ð² Ð¾
ĠÑĥÑĩÐ° ÑģÑĤÐ²
ĠÐ´ ÐµÐ»ÐµÐ½Ð¸Ðµ
ĠÑģÐ²Ð¾ Ñİ
ĠÐ³ Ð³
ĠÐºÐ¾ÑĤÐ¾ÑĢ Ð¾Ð³Ð¾
ĠÐ°Ð½Ð³Ð» Ð¸Ð¹
ĠÐ¸ ÑĢ
ÑĢÐµ ÐºÑĤ
Ð°Ð½ ÑĮ
ĠÑĢÐ¾Ð´ Ð¸Ð»ÑģÑı
ĠÑħÐ°ÑĢÐ° ÐºÑĤ
ĠÐ¿Ð¾Ð» Ð¾Ð¶
Ð¸Ñı Ñħ
ÑĢÐ°Ð· Ð´
Ð° Ñī
ĠÐ¾ÑĦÐ¸ÑĨ Ð¸Ð°Ð»ÑĮ
ĠÐ²Ð¸ÐºÐ¸Ð¿ÐµÐ´ Ð¸Ð¸
ĠÐ²Ð¾Ð¹ ÑģÐº
ĠÑĢÐµÐ¶ Ð¸ÑģÑģ
ÐµÐ· Ð´Ð°
ĠÐ¸Ð¼ Ñı
ĠÐ¿ ÑıÑĤ
ĠÐ» ÐµÐ³
ĠÑĩÐµÐ»Ð¾Ð² ÐµÐºÐ°
ĠÐ» Ðµ
ÑĢÑĭ Ð²
ĠÐ¿ÐµÑĢÐ² Ð¾Ð¹
ĠÑĥÑĩ Ñĳ
ĠÐ¾ÑĤÐ½Ð¾ Ñģ
ĠÐ²Ð»Ð°Ð´Ð¸Ð¼ Ð¸ÑĢ
ĠÐ» ÐµÑģ
ÑĥÑģ Ð°
ĠÐ½Ðµ Ð±
ĠÐ´ Ð¸Ð½
ĠÑį Ð¼
ĠÐ´ ÑĢÐµÐ²
ĠÐ´ Ð¾Ð½
ĠÑĢÐ° Ð´Ð¸
ĠÐ²ÑģÑĤ ÑĢÐµ
ĠÐ¿Ð¾Ðº Ð°
ÐµÐ½ Ð½Ð¾Ð³Ð¾
Ðº Ð°Ð¼Ð¸
ĠÑĩ ÐµÑĤÑĭ
ÐµÐ» Ð°
ĠÑįÑĤ Ð¸
ĠÑģÑĤÐ°ÑĤ ÐµÐ¹
ĠÐ¿ Ð°Ð»
ĠÐ´ ÐµÐ²
Ð° ÑİÑĤÑģÑı
ĠÐ¿ÑĢ Ð¸Ð·Ð½
Ð°ÑĤ ÐµÐ»Ð¸
ĠÑģÐ¾Ð² ÐµÑĢÑĪ
ĠÑģÑĤ Ð¾ÑĢÐ¾Ð½
ĠÐ½ Ð¸Ð¶
ĠÑģ Ð¾Ð¿
Ð¸Ð² Ð°ÐµÑĤ
ĠÐ½Ð° ÑĥÐº
ĠÐ½Ð° Ð¸Ð±
ĠÐ» Ð¸Ð³
Ð²Ð°ÑĢ Ð´
ĠÐ»Ð¸ÑĪ ÑĮ
ĠÑģÐ² Ð¾Ð¹
Ð¿ Ð°
ĠÐ¿ÑĢÐµÐ´ Ð»Ð¾Ð¶
ĠÐ½ Ñĭ
ĠÐ¿ÑĢ Ð¸Ðº
ĠÐ¿ ÑĢÐ°ÐºÑĤ
ĠÐ¿ÑĢÐµÐ¶ Ð½Ð¸Ðµ
Ðº Ð¾Ðµ
Ð¾Ð² ÑģÐºÐ¸Ð¹
Ð± ÑĥÑĢÐ³
Ð¾Ð² ÑĭÑħ
Ð¾ÑĢ Ð¾Ð¶
ĠÐ± Ð°Ð·
ĠÐº Ñĥ
ĠÐº Ð¾Ñģ
ĠÑĨÐµÑĢ Ðº
Ð¾Ð² Ð°ÑĤÐµÐ»ÑĮ
ĠÐ¿ÑĢÐµÐ´ Ð¿
ÐµÑĤ ÑĮ
ÑĥÑĤ ÑĮ
ĠÐ¿ÐµÑĤÐµÑĢÐ± ÑĥÑĢÐ³
Ð» Ñĭ
ĠÐ¸Ð½ÑĤÐµÑĢ ÐµÑģ
ÑĨ Ð¸ÐµÐ¹
ĠÐ³ÑĢÑĥÐ¿Ð¿ Ð°
ĠÑĤÐ°Ðº Ð¸Ð¼
ĠÐ² Ð°ÑĪ
ĠÑģÐ»ÑĥÑĩ Ð°Ðµ
ĠÐ¾Ð¿ÑĢÐµÐ´ ÐµÐ»
ĠÑĢÐ° Ð±
ĠÐ½Ð°ÑģÑĤ Ð¾ÑıÑī
ĠÑģÐ¿ Ð¾ÑģÐ¾Ð±
ĠÐ¿ÑĥÐ½ÐºÑĤ Ñĭ
ĠÑģ Ð¾ÑĢ
ĠÐ¾Ð±ÑĬ ÐµÐ´Ð¸Ð½
Ð° Ñĩ
ĠÑģÐ¾ ÑħÑĢÐ°Ð½
ĠÐ± Ð°ÑĪ
ĠÐ¿ÑĢÐ¸Ð¼ ÐµÐ½
ĠÐ¿ÐµÑĢ Ñģ
Ð°ÑĤ Ð¸Ð²
Ð¸ Ð¾
ĠÑĤ ÐµÑĩ
Ð¾Ñĩ Ð½Ð¾
ĠÐ°ÑĢ Ð³
ĠÑģÐ²ÑıÐ· Ð¸
ĠÐ¾Ð´ Ð½Ð¾Ð¹
ĠÐ±ÐµÑĢ ÐµÐ³
ĠÐ°ÑĢÑħ Ð¸ÑĤ
ĠÐ± ÑĢÐ¾Ð½
ÐµÐ¹ Ð½
Ð¼ Ð¸ÑĤ
ĠÑĢ Ð¸Ð¼
Ð½Ðµ ÑĪ
ĠÐ´ ÐµÐº
Ð½ Ñİ
ĠÑĨ ÐµÐ»
ĠÐº Ð¾ÑĢÐ°
ĠÐ½Ðµ Ð¿
ĠÐ³Ð¾ÑĢÐ¾Ð´ Ðµ
ĠÐºÐ¾Ð¼Ð¿ Ð¾Ð·
Ð¸Ðº Ñĥ
ĠÐ¿ÑĢÐµÐ´ÑģÑĤÐ°Ð² Ð»Ñı
Ð²ÐµÑĢ Ð¶Ð´
ĠÐ¿ÑĢÐ¾Ð² Ð¸Ð½
Ð¼ Ðµ
ĠÐ°Ð´Ð¼Ð¸Ð½Ð¸ÑģÑĤ ÑĢÐ°
ĠÐ¿ÑĢÐµÐ¼ Ð¸Ð¸
ĠÐ¸Ð³ ÑĢÑĭ
ĠÐ¸Ð¼ ÐµÐ½Ð½Ð¾
ĠÑĦÑĢÐ°Ð½ ÑĨÐ¸Ð¸
ĠÑģ Ð¸Ð»ÑĮ
ĠÐº ÑĤÐ¾
ĠÐºÐ¾Ð¼ Ð¼Ñĥ
Ð»Ðµ Ð¶
ĠÑģÐ¾ÑģÑĤÐ°Ð²Ð»Ñı ÐµÑĤ
ĠÐºÐ°Ð· Ð°Ñħ
ĠÐ¼ Ð½Ðµ
ĠÑĤÑĢÐµ Ð±
Ð¾Ð½ ÑĤ
ĠÐ¿ÑĢÐ¾ÑĨ ÐµÑģÑģ
ĠÐ½ÐµÐ¾Ð± ÑħÐ¾Ð´
ÑģÑı ÑĤ
ĠÑĢÐ° Ð²
Ð¶ ÐµÐ½
ĠÐ·Ð° ÑģÐ»
ÐµÑģÑĤÐ² Ð¾
ĠÑį ÑĢ
Ð¾Ð² ÑĭÐµ
ĠÑģÐ¾ÑİÐ· Ð°
ĠÐ² Ð¾ÑĤ
ĠÐ¿ÑĢÐµÐ´ Ð¿ÑĢ
ĠÐ½ ÐµÐ³Ð¾
ĠÐ¿ÐµÑĢÐµ Ð¸Ð¼ÐµÐ½
Ð°Ð»ÑĮ Ð½Ð¾Ðµ
ĠÐ½Ð°Ñĩ Ð°Ð»
ĠÑģ ÐµÐ¹
Ð³ Ð¾ÑĤÐ¾Ð²
ÑĢ Ð¸ÑģÑĤ
Ð¸Ð½ ÑģÐºÐ¾Ð¹
ĠÐ¿ÑĢÐµÐ·Ð¸Ð´ ÐµÐ½ÑĤ
ĠÐ» ÑĮ
ĠÑĢ Ð¾Ð»
ĠÐ¿ÑĢ Ð¸Ð³
ĠÐ¿ÑĢÐ¸Ð½ ÑĨ
Ð¸ÑĢÐ¾Ð² Ð°ÑĤÑĮ
ĠÑģÐ¾Ð²ÐµÑĤ ÑģÐºÐ¸Ð¹
ĠÐ¾ÑĤ Ð²ÐµÑĤ
ĠÑĢÐ°Ð±Ð¾ÑĤ Ð°Ð»
ĠÐ¿ÑĢÐµÐ´ ÑģÐµÐ´
ÐµÑĢ ÐµÐ´
ĠÐ½ Ð¾Ñģ
ÑĢÐµ ÑģÑģ
ĠÑĢÐ° Ð½ÐµÐµ
Ð¸ÑģÐº Ð¾Ð¿
ĠÑĤ ÐµÐ¿
Ð² Ð¾
Ñį ÑĢ
ĠÐ·Ð° Ñħ
Ð» ÑģÑı
Ð¾ÑĢ Ðµ
ĠÐ¼ Ð°ÑĢÑĤ
ĠÐ²Ñĭ Ð±
ĠÐ¿ Ð¾Ð¶
ĠÑĤ Ð¾Ð³Ð´Ð°
Ñİ ÑĢ
ÑĭÑĪ Ð»ÐµÐ½
Ð°ÑĤ ÐµÐ»ÐµÐ¹
ĠÐ¸Ð·Ð¾Ð±ÑĢÐ°Ð¶ ÐµÐ½Ð¸Ñı
ĠÐ¿ ÑĥÐ±Ð»
ĠÑģÐ²Ð¾ ÐµÐ³Ð¾
ĠÐ¼Ð¾Ð³ ÑĥÑĤ
ÑĢÐ¾ÑģÑĤ ÑĢÐ°Ð½
Ð¾ ÑĨ
Ð°Ð½ Ð¸Ñİ
ĠÐ²Ñĭ ÑħÐ¾Ð´
Ð¸ÑĢÐ¾Ð² Ð°Ð»
ĠÐ²Ð½ÑĥÑĤÑĢÐµÐ½ Ð½ÐµÐµ
ĠÑĪÐ°Ð± Ð»Ð¾Ð½
ĠÐ° Ð¸
ĠÐ² Ð¾Ðº
ĠÐ± Ð°
ÑĢÐµ ÑģÑĤ
Ðº Ð°Ñı
ĠÑĢÐ°ÑģÐ¿ ÑĢÐ¾ÑģÑĤÑĢÐ°Ð½
ĠÐ¿Ð¾ÑįÑĤ Ð¾Ð¼Ñĥ
ĠÑħÐ¾ÑĢ Ð¾ÑĪ
Ð¾Ð¶ Ðµ
ĠÑĢÐ° ÑģÑĤ
ĠÐ· Ð°Ð»
Ð¾ÑĢ ÑĤÐ°
ĠÑģ ÐºÐ°Ð·
ĠÐ³Ð¾Ð» Ð¾Ñģ
ĠÐ± Ð¾ÐµÐ²
ĠÑħÐ°ÑĢÐ°ÐºÑĤ ÐµÑĢ
ĠÑĤ ÑĢÑĥ
ĠÐ½Ð°Ñĩ Ð°Ð»Ðµ
ĠÐ½Ð¸ÐºÐ¾Ð» Ð°
ĠÑģÐ°Ð½ ÐºÑĤ
ÑİÑī Ð¸Ð¹
ĠÐ½Ð°ÑģÐµÐ»ÑĳÐ½ Ð½ÑĭÐµ
ĠÐ¸Ð¼Ð¿ ÐµÑĢÐ°
ĠÐ¿ÑĢÐ¾Ð² Ð¾Ð´
Ð³ Ñĥ
Ð» Ð¸Ñı
ĠÐ²Ð¾Ð· Ð´
ĠÐ´ Ð°Ð»
Ð²Ð¾Ð» Ñİ
ĠÐ¿ÐµÑĢ ÑģÐ¾Ð½
ĠÐºÐ¾ÑĢÐ° Ð±
ĠÐ¼Ð¸Ñħ Ð°
ĠÐ¿Ð» Ð¾ÑĤ
ĠÑĦÐµÐ´ÐµÑĢÐ° ÑĨÐ¸Ð¸
ĠÐº Ð¾Ð¿
ĠÐ´ Ð¾Ñĩ
ĠÑĢ Ð¾ÑģÑĤ
ĠÐºÐ¾Ð½ÑĨ Ðµ
ĠÐ´Ð¾Ð± Ð°Ð²
ĠÑĨÐµÑĢÐº Ð²Ð¸
ĠÑģÐ¿ Ð¸ÑģÐº
ĠÑģÐ¾ÑĤ ÑĢÑĥÐ´
ĠÑĨÐ¸ÑĦ ÑĢÐ¾Ð²Ð¾Ð¹
ĠÐ´Ð°Ð½ Ð½ÑĭÐ¼
ĠÐ² Ð°ÑĢÐ¸
ĠÑģÐ¿ Ð°Ñģ
ĠÐ¾ÐºÑĢÑĥÐ³ Ð°
Ð½ Ð¸ÑĨ
Ð¸ÑĤ Ñĭ
ĠÐ¼Ð°Ðº ÑģÐ¸Ð¼
ĠÐ·Ð½ Ð°Ðº
ĠÐ¾Ð±ÑĢÐ°Ð· Ð¾Ð¼
Ð¾Ð» Ð°Ð³
ĠÑģÑĤ Ð°Ð²
ĠÐ¶ Ð°Ð½
ÑıÑĤ ÑģÑı
Ð¾Ðº ÑĢÐ°ÑĤ
ÑģÑĤÐ² Ñĥ
ĠÑĦ ÑĥÐ½
ĠÐ¼ ÐµÑħ
Ð¸ÑĢ Ð¾Ð²Ð°Ð½Ð¸Ñı
ĠÐ¾ ÑĨÐµÐ½
ĠÐ¾Ð´ Ð½Ð¾
ÑĢÐµ Ð¶Ð´
ĠÐ¿ÑĢÐ°Ð² Ð¸Ð»
ĠÐ¿ÑĢÐ¾ÑģÑĤ Ð¾
ĠÐ¼ Ð°ÑĪ
ĠÐ´Ð¾Ð¿ Ð¾Ð»Ð½
ĠÐ¿ÑĢÐ¸Ð½ Ð¸Ð¼
Ð»ÐµÐ½ Ñĭ
ĠÐ± Ð¸Ð±
ĠÐ½Ð°Ð³ÑĢÐ°Ð´ Ñĭ
ĠÐ² Ð°Ð¶
ĠÑģ Ð¾Ñģ
ĠÐ¾Ð±ÑĬ ÐµÐºÑĤ
ĠÑģÐµÐ²ÐµÑĢ Ð¾
Ð¾Ðº Ð°
ĠÐ¼Ð¾ÑģÐº Ð²Ð°
ĠÑĤ Ð¾ÑĤ
ĠÐ¼ÐµÐ½ Ñı
ÐµÑĢ Ð¸
ĠÐ¾Ð± ÑĭÑĩ
ĠÐ¼ Ð°ÑģÑĤ
ĠÐ²ÐµÑĢÑħ Ð¾Ð²
ĠÐ½Ð° ÑĢÑĥÑĪ
ĠÐ¿ÑĢÐ¸Ð¼ ÐµÑĢ
ĠÑĨ Ð²ÐµÑĤ
ĠÑĪÐ¸ÑĢ Ð¸Ð½Ð°
ÑĳÐ½ Ð½ÑĭÑħ
ĠÑĦ ÑĢ
ĠÐ¸Ð´ÐµÐ½ÑĤÐ¸ÑĦÐ¸Ðº Ð°ÑĤÐ¾ÑĢ
ĠÑħ Ð¾Ð»
Ð¾ Ð¸ÑĤ
ĠÐ±Ð¾Ð»ÑĮÑĪ Ðµ
Ñĥ Ð²
Ð°Ð½ ÑĤÐ°
Ðº Ð¾Ð½
ÐµÐ½ Ð½Ð°Ñı
ĠÑĢ ÐµÐ»
ÐµÑĢ Ð¸Ð¹
ĠÐ± ÑĢÐ°ÑĤ
ĠÐ¶ Ð¸Ð·Ð½
ĠÐ´ ÑĢ
ĠÐ¿Ð¾Ð· Ð²Ð¾Ð»
Ð°Ð½ Ðµ
ĠÐ½Ð° Ð¹
ĠÐ± ÑĢÐ¸ÑĤ
ĠÐ°ÐºÐ°Ð´ÐµÐ¼ Ð¸Ð¸
ĠÑģÑĤÐµÐ¿ ÐµÐ½Ð¸
ĠÑĦ Ð°ÐºÑĤ
ÑĢÐµ Ñģ
ĠÐ» Ð¸ÑĨ
ĠÑĩ ÐµÐ³Ð¾
ĠÐ½Ð° Ð·ÑĭÐ²
ĠÐ¿ÑĢÐµ Ð¿Ð¾Ð´
ĠÐ²Ð¾Ð· Ð²
ĠÐºÐ¾ÑĢÐ¾Ð» ÐµÐ²
ĠÐ¼Ð°ÑĤ Ñĩ
Ð½ Ð¾Ð´
ÑģÐº Ð¸Ð¼Ð¸
ĠÐ½Ð°Ð´ Ð¾
ĠÐ¿Ð» Ð°ÑĤ
ĠÐ·Ð° Ð´
Ð» Ñĥ
ĠÑģÐ¿ÐµÑĨ Ð¸Ð°Ð»ÑĮ
ĠÐ¼Ð¾Ð¼ ÐµÐ½ÑĤ
Ð½ Ð¸ÑĨÐ°
ĠÐ¾ Ñħ
ĠÐ¼ ÐµÐ»
ĠÐ´ ÑĥÐ¼
ĠÑģÐ±Ð¾ÑĢ Ð½Ð¾Ð¹
ĠÐ¼ Ð°
ĠÑģÑĤ Ð°Ð»Ð°
ĠÐ´ Ð¼Ð¸ÑĤ
Ñģ ÑĦ
ÑĢÐ°Ð½ Ð¸Ñĩ
Ð°Ð´ Ñĭ
ĠÐ¼ Ð¼
ĠÐºÐ¾Ð¼ Ð¼ÐµÐ½ÑĤ
ĠÐº Ð¸ÑĢ
ĠÑĢ Ð¾Ð»ÑĮ
ĠÑĤÑĢÐµ ÑĤÑĮ
Ð¸Ð» Ð¸Ñı
ĠÑĦ ÑĢÐ¾Ð½
ĠÐ¾ÑĤ Ð¿ÑĢÐ°Ð²
ĠÐ¾ÑĤÐµÑĩ ÐµÑģÑĤÐ²ÐµÐ½Ð½Ð¾Ð¹
Ñĩ Ð¸Ðº
ĠÑģÐ² Ð¾Ð±Ð¾Ð´
ĠÑĥÑģ Ð»Ð¾Ð²
ĠÐ´ÐµÐ¿ ÑĥÑĤ
Ð± Ðµ
ĠÐ± Ð°Ð½
ĠÐº Ð¸Ð½Ð¾
Ð» Ð¸Ðº
ĠÐ° ÑģÑĤ
Ñĥ Ð»Ð¸
ÑģÐº Ð¸
ÑĥÑģ Ñģ
Ñĭ Ð½
ĠÐ½ÐµÐ· Ð°Ð²
ĠÑģÑĤÑĢ ÐµÐ»
ĠÑ ī
ĠÐ²Ñĭ ÑģÑĤÐ°Ð²
ĠÐ²Ð¾Ð· ÑĢÐ°ÑģÑĤ
Ð°Ð½ Ñģ
ĠÐ¸Ð³ ÑĢÐ°
ĠÑĪ Ð°Ñħ
ĠÑģ Ð»Ð°Ð²
ĠÐºÐ½Ñı Ð·
ĠÐ²Ð¸ÐºÐ¸Ð¿ÐµÐ´ Ð¸Ñı
Ð¾Ðº Ñģ
ĠÐ± Ð°ÑĤ
ĠÐ½Ð°Ñĩ Ð°Ð»ÑĮ
ĠÐ¿ÑĢ Ð¾Ð¿
Ð³ Ð°ÑĢ
ĠÐ½Ð°Ð·Ð²Ð°Ð½Ð¸Ðµ Ð¼
Ð¾ÑĤ Ð¸Ð²
ĠÐ¿ Ð¾Ð»ÑĮÐ·
ĠÐ¿ÑĢ Ð¸Ñħ
ÑİÑī Ð¸Ðµ
ĠÐ² Ð¸Ð½
Ðº Ñģ
ĠÐ¿ÑĢ Ð¾Ð¶
ĠÐ» Ð°ÑĤ
ĠÐ²ÐµÑĢ Ð½
ĠÐ¾Ð´Ð½ Ð¸Ð¼
ĠÐ¿ÐµÑĢÐµÐ² Ð¾Ð´
Ð¸Ðº Ð¾
ĠÐ¼Ð°ÑĤÐµÑĢ Ð¸Ð°Ð»
Ð¾Ð» ÐµÐµ
ĠÑĤÑĭ ÑģÑı
Ñĥ ÐµÑĤÑģÑı
ĠÐº Ð¸ÐµÐ²
ĠÑģÐ²Ð¾ Ð¸Ñħ
Ð°Ð½ Ð½ÑĭÐµ
ĠÑģÐ¿ ÑĢÐ°Ð²
ĠÐ½Ð°Ð¸Ð± Ð¾Ð»ÐµÐµ
ĠÐ¸Ð·Ð¾Ð±ÑĢÐ°Ð¶ ÐµÐ½Ð¸Ðµ
ÐµÑĢ Ñħ
ĠÐºÐ° Ð¿Ð¸ÑĤ
ĠÐº Ð°Ð½Ð´
ĠÑĤ Ð°
ĠÑĦÐ¸Ð»ÑĮÐ¼ Ñĭ
ĠÐ½Ð°Ñĩ Ð¸Ð½
ĠÑĢÐ°Ð± Ð¾Ñĩ
ĠÐ¿Ð¾ÑģÑĳÐ» Ð¾Ðº
Ñĥ Ð¹
Ð¾Ð² Ð¾Ð³Ð¾
ĠÑģÑĭ Ð½
Ñĭ Ð²Ð°
Ð¾Ð² Ð°Ð»Ð¸
ĠÑģ ÑĥÐ¿
ĠÐ¾Ð±Ñī Ð¸Ð½Ð°
ĠÐ²Ñģ ÐµÐ¼
ĠÑģÐ» Ð¾Ð¶
ĠÐ¿Ð¾ÑĩÑĤÐ¾Ð² ÑĭÐµ
ĠÐ²Ð¾ Ð¾Ð±
Ð°ÑģÑĤ Ñĭ
ÑĳÐ½ Ð½ÑĭÐµ
ĠÑħ Ð¾Ð·ÑıÐ¹
ĠÑģ ÑĨÐµÐ½
Ð°Ð½ ÑģÐºÐ¸Ð¹
ĠÑģÐ² ÐµÑĤ
ĠÐºÐ¾ÑĤÐ¾ÑĢ Ð¾Ð¼
Ð»ÐµÐ½ Ð¾
ĠÑĩ ÐµÑĤ
ĠÑģÑĤ Ð¾ÑĢÐ¾Ð½Ñĭ
Ð¾Ð² Ð°Ñı
ĠÑĢÐ° Ð´
Ñĳ Ð´
ĠÐ¸Ð½Ð´ ÐµÐº
ĠÐ´ Ð¾Ð²
ĠÐ±ÐµÐ» Ð¾ÑĢ
ÑĤ Ð¾Ð½
ĠÐ¾Ð±ÑĢÐ°Ð· Ð¾Ð²Ð°Ð½Ð¸Ñı
ÑĢÐ¾Ð² Ð¸Ñĩ
ĠÐ·Ð½ Ð°Ð¼
ĠÐ³ÐµÑĢÐ¼ Ð°Ð½Ð¸Ð¸
ĠÐ¿ Ð¾Ð»ÑĮ
ĠÐ´ ÐµÐ±
Ð»ÐµÐ½ Ð¸Ð¸
ÐµÐ¼ Ð°ÑĤ
ĠÑįÑĤ Ð¸Ñħ
ÐµÑĢ ÑĮ
ĠÑģÐ¾Ð± Ð¾Ð¹
ĠÑĤ Ð¸ÑĤ
ĠÐ¿ÑĢÐ¾ Ñĩ
ÐµÑĩ Ð°ÑĤ
ĠÑĤ Ð¾Ð»
ĠÐ²ÐµÐ»Ð¸Ðº Ð¾Ð¹
ĠÐ´Ð² Ðµ
Ð½ Ð°ÑĢ
ĠÐ¾Ð»Ð¸Ð¼Ð¿Ð¸Ð¹ ÑģÐºÐ¸Ñħ
ÑİÑī Ð¸Ñħ
Ð»Ð° ÑĪ
ĠÐ¾ÑĤÑģ ÑĥÑĤÑģÑĤÐ²
ĠÐ½Ð¸ÐºÐ¾Ð» Ð°Ð¹
ĠÑĢÐ° Ð¼
ĠÑĢÐµÐ´ Ð°Ðº
ĠÐ°Ð²ÑĤÐ¾Ð¼Ð¾Ð± Ð¸Ð»ÑĮ
ÑģÐº Ð°Ð·
ĠÐ° ÑģÑģ
ĠÐ³ ÑĢÑĥÐ·
ĠÑĦ Ð¾Ð½
ĠÐ³ Ð²Ð°ÑĢÐ´
ĠÐ½Ð°Ñĩ Ð°Ð»Ð°
ĠÐ¼Ð¸Ð½ Ð¸
ĠÐ¸ Ð´Ðµ
Ð¾Ð· Ð½Ð°Ñĩ
Ð» ÐµÐ³
ĠÑĦ Ð»Ð°Ð³
ÑĢ Ð¾Ð±
ĠÐ·Ð°Ðº Ð¾Ð½
Ð² Ð¸Ð³
ĠÐ²Ð¿ ÐµÑĢÐ²
ÑĢÑĥ Ðº
ĠÐ·Ð°Ðº Ð»ÑİÑĩ
ĠÐ¾Ð± ÐµÑģÐ¿
ĠÐ²Ð¿ÐµÑĢÐ² ÑĭÐµ
ĠÑĢÐµ Ñĩ
ĠÐº Ð¾ÑģÑĤ
ĠÑĢÐ°Ð· Ð¼
ĠÑĤ Ð°Ð¹
ĠÐºÐ¾Ð½ÑĤ ÑĢ
ĠÐ¸Ð½Ð´ÐµÐº ÑģÑĭ
ĠÑĢ Ð¾Ð±
ĠÐ¾Ð±Ñī ÐµÑģÑĤÐ²ÐµÐ½
ĠÐ´Ð¶ Ð¾Ð½
ĠÐ¸Ð² Ð°Ð½
ĠÐ¾ÑĢ Ð´
ĠÑĦÑĥÐ½ Ðº
ĠÑĪÐ¸ÑĢ Ð¾Ðº
Ñı Ð¼Ð¸
ÑģÑĤ Ð°
ĠÐ¼Ðµ ÑģÑı
Ð¸Ð½ Ð¾Ð¹
ĠÐ²Ð¾ Ð¾ÑĢÑĥÐ¶
Ð¸ÑĤ ÐµÐ»ÐµÐ¼
ĠÐ¼ÐµÐ½ ÐµÐµ
ĠÐ´ ÑĥÑħ
ĠÑģÐ¾Ð± ÑĭÑĤ
ĠÑį Ð´
ĠÐ¼ÐµÐ´ Ð°Ð»ÑĮ
ĠÐ²Ð¾Ð¾Ð± ÑīÐµ
Ð¾Ð³ÑĢÐ°ÑĦ Ð¸Ð¸
ĠÐ¿ÐµÑĢ ÐµÑģ
Ð¾Ð»Ð¾Ð³ Ð¸Ñı
ĠÐ½Ð° Ñĥ
ÐµÐ½ÑĤ Ð¾Ð²
ĠÐ¾ ÐºÐ°Ð·
ĠÑħ ÑĢÐ¸ÑģÑĤ
ĠÑģÑĤ Ð°Ð´
ĠÐ¼ÐµÑĤ Ð¾Ð´
ĠÑĤ Ð¾ÑĢ
ĠÐ½ÐµÐºÐ¾ÑĤÐ¾ÑĢ ÑĭÐµ
ĠÐºÐ¾Ð¼ Ð°Ð½Ð´Ð°
ĠÐ·Ð½Ð°ÑĩÐ¸Ð¼ Ð¾ÑģÑĤÑĮ
Ð¸Ð´ Ð°
ĠÐ³ Ð¾Ð½
ĠÑİ Ð³Ð¾
ÐµÑĢ Ð¾
ĠÑģÐµÐ»ÑĮ ÑģÐºÐ¾Ð³Ð¾
ĠÐ½ Ð°Ð»
Ð°Ð½ ÑģÐºÐ¾Ð¹
ĠÐ½Ð¸Ðº Ð°Ðº
ĠÐ³ Ð°ÑĢ
ĠÑĢÐµÐ·ÑĥÐ»ÑĮÑĤ Ð°ÑĤÐµ
ĠÐ¿Ð°ÑĢÑĤ Ð¸Ð¸
ĠÑĨÐµÑĢÐºÐ¾Ð² ÑĮ
Ð°ÑĤ Ð¾ÑĢÐ°
ĠÐ¿ÑĢÐ¾ ÑħÐ¾Ð´
ĠÐ¾Ð±ÐµÑģÐ¿ ÐµÑĩ
ĠÐºÐ¾Ð¼Ð¼ÐµÐ½ÑĤ Ð°ÑĢ
ĠÐ¸ÑģÐº Ð»ÑİÑĩ
ĠÐ¾Ð´ Ð½Ð¾Ð³Ð¾
ĠÐ¾Ð´ Ð½Ð°
ĠÐ´ Ð»
ĠÐ±Ð» Ð¾Ðº
ĠÐ´Ð¼Ð¸ÑĤ ÑĢ
ÑĢÐ°Ð² Ð½
Ð»Ð° Ð³Ð°
ĠÐ´Ð¾ÑģÑĤ Ð°ÑĤ
Ð± Ð¾Ð»ÑĮ
ĠÐ¿Ð¾Ð· Ð´
ÐµÐ³ Ð¾Ð´
ÑĤ Ñĥ
ĠÐ¼Ð¾Ð½ Ð°ÑģÑĤÑĭ
ĠÐ±Ð¾Ð»ÑĮÑĪ Ð¸Ð½
ĠÐ²Ñĭ Ð±Ð¾ÑĢ
ĠÐ¿ÑĢÐµÐ¿Ð¾Ð´ Ð°Ð²
ĠÐµÐ²ÑĢÐ¾Ð¿ Ñĭ
ĠÐ³ Ð°
Ð°Ðº Ð¾Ð²
ĠÑĩÐ¸Ñģ Ð»Ð¾
Ð¾Ð½ Ð¸Ð¼
ĠÐ¿ ÐµÐ´
ĠÐ¿ÑĢ ÑıÐ¼
ĠÐ´ Ð¸ÑģÐº
ĠÐ± Ð¾
ĠÑĤÑĢ ÑĳÑħ
ĠÐ¸ Ð»
Ð¸ÑĩÐµÑģÐº Ð¸Ð¼
ĠÑĩÐµÐ¼Ð¿Ð¸Ð¾Ð½ Ð°ÑĤ
ĠÑıÐ·Ñĭ ÐºÐµ
ĠÐ½ÑĥÐ¶ Ð½Ð¾
Ñģ ÑĮ
ĠÑģÐ¾ ÐµÐ´Ð¸Ð½
ĠÐ½ Ð¸Ñĩ
ÑĤÐ¾ Ñĩ
ĠÑģÐµÐ¼ ÐµÐ¹
ĠÐ±Ð¾Ð»ÑĮÑĪ Ð¾Ð¹
ĠÑģ ÑĥÐ¼
Ð¸ ÑĢÐµ
ĠÑĤ ÑĢÐ°Ð´
Ð¾Ð³ÑĢÐ°ÑĦ Ð¸Ñı
Ð¾Ð²Ð°Ð½ Ð¸Ð¹
ĠÐºÑĢÐ° Ð¹
Ð° ÑĨÐ¸Ñİ
ÐµÐ² Ð¸Ð´
ÑģÐº Ð¾Ð»ÑĮ
ÑĢÐµ Ð·
ĠÑģÐµÐ»ÑĮÑģÐ¾Ð² ÐµÑĤ
ĠÑĤ Ð¾Ð¿
Ñĩ Ð¸Ð²
ĠÐ¿Ð¾ ÑıÑģ
Ð¾Ð² ÑģÐºÐ¾Ð¹
Ð¸ÑĨ Ð¸Ñı
ĠÐ¸Ð· ÑĥÑĩ
ĠÐ¿ÑĢÐ¾Ð¸Ð·Ð² ÐµÐ´
ĠÐ¿Ð¾Ð´ Ð¾Ð±
ĠÐºÐ¾Ð»Ð¸ÑĩÐµ ÑģÑĤÐ²Ð¾
ĠÐºÐ°ÑĢ ÑĮ
ÑĦ Ð°
ĠÑĥÑĩ ÐµÐ½
ĠÐ¸Ð·Ð± ÑĢÐ°Ð½
ĠÐºÐ°Ð½Ð´ Ð¸Ð´
Ð¸Ð± Ð¸ÑĢ
Ñĭ Ñģ
ĠÑĢÑĥÑģ ÑģÐºÐ¸Ð¹
ĠÐ·Ð°Ð² Ð¾Ð´
ĠÑĢÐµ Ð¿
ĠÑĢÐµ Ð²Ð¾Ð»Ñİ
ĠÐ¼ Ð¸Ðº
ĠÐ´Ð¾Ðº ÑĥÐ¼ÐµÐ½ÑĤ
ĠÐ° Ñį
Ð¸Ð½Ð³ ÑĢÐ°Ð´
ĠÑģÐ²Ð¾ Ð¸
ĠÐ½ ÑĮÑİ
ĠÐ¼ Ð»
ÑĪ ÐµÐµ
ĠÐºÐ¾Ð¼Ð¿ Ð°Ð½Ð¸Ð¸
ĠÑģ Ð¾Ñĩ
Ñĩ Ð°Ñģ
ĠÐ± Ð°ÑģÑģ
Ð»Ð° Ð¼
ÑĦ Ð¸Ð»ÑĮ
ĠÑģÑĤ Ð°Ð»Ð¸
Ðº Ð¸Ðµ
ĠÑĢÐ¾ÑģÑģ Ð¸Ñı
ĠÐ¾ÐºÐ¾Ð½Ñĩ Ð¸Ð»
ĠÑıÐ²Ð»Ñı ÑİÑĤÑģÑı
ĠÐ½ Ð¾ÑĢÐ¼
ĠÑģ Ñİ
ĠÐ´ ÑĥÑĪ
ÑĮ Ð¸
Ð¾Ð² ÑģÐºÐ¾Ð³Ð¾
ĠÑģ ÑĬ
Ð¾Ñģ Ð¾ÑĦ
ĠÑĤÐµÐ¼ Ð¿
ĠÐ²Ð°ÑĢÐ¸ Ð°Ð½ÑĤ
ĠÐ° Ð¹
ĠÐ¾ÑĢÐ³Ð°Ð½Ð¸Ð· Ð°ÑĨÐ¸Ð¸
ĠÐ¿Ð¾ ÑģÑĤÐ°Ð²
ĠÐµÐ´Ð¸Ð½ ÑģÑĤÐ²ÐµÐ½
Ð¸ÑĤÐµÐ»ÑĮ Ð½ÑĭÐ¹
ĠÐ¿ÑĢÐ°Ð² Ð¾ÑģÐ»Ð°Ð²
ÑĢÐ°Ð¶ ÐµÐ½Ð¸Ñı
Ñĥ Ñį
ÑĢ Ð¸Ð²
ĠÐ½Ð° ÑĪ
ĠÐ±Ð»Ð°Ð³ Ð¾Ð´
ĠÑĤ Ð¾Ð¶Ðµ
ĠÐ¿Ñģ Ð¸Ñħ
ĠÐ¸Ð¼Ð¿ÐµÑĢ Ð¸Ð¸
ĠÐ¿ÑĢÐ¾Ð¼ ÑĭÑĪÐ»ÐµÐ½
ĠÑĤÑĢÐ°Ð½ ÑģÐ¿
Ð°Ð´ Ð»ÐµÐ¶
ĠÐºÐ¾Ð¼Ð°Ð½Ð´ Ñĭ
ĠÐºÐ°Ð·Ð°Ñħ ÑģÑĤ
ĠÑģÐ°Ð¼ Ð¾Ð»
ĠÑģÑĩ ÑĳÑĤ
Ñĳ Ð¶
ĠÐ½Ð¾Ð² ÑĭÐ¹
ĠÐºÑĥÐ»ÑĮÑĤ ÑĥÑĢÑĭ
ĠÑģÐ¸ÑģÑĤÐµÐ¼ Ñĭ
Ð¾Ð· Ð°
ÑĢÐ° Ðº
Ð² ÐµÐ¹
ĠÐ¿ÑĢÐ¸Ð½ Ð°Ð´Ð»ÐµÐ¶
ĠÑĦ Ð¾ÑĢ
ĠÑĥÑĩ ÐµÐ±
ÑĪ Ð¸ÑĢ
ĠÐ²ÐµÐ»Ð¸Ðº Ð¾Ð±
ĠÐ±Ð¸Ð± Ð»Ð¸
ĠÐ½ÐµÐ·Ð°Ð² Ð¸ÑģÐ¸Ð¼
Ð¾ÑĢ Ñĭ
ĠÐ¶Ð¸Ð·Ð½ ÑĮ
ĠÑģÐ¿ÐµÑĨ Ð¸Ð°Ð»
ĠÑħ Ð¸Ð¼
ÐµÐºÑĤ Ð¸Ð²
ĠÐ¼ÐµÑħ Ð°Ð½
ĠÐ½ÐµÑģÐº Ð¾Ð»ÑĮ
Ð°Ð¼ Ð±
ĠÐ¿Ð¾ ÑģÐºÐ¾Ð»ÑĮ
ĠÐ¿Ð¾ÑģÐºÐ¾Ð»ÑĮ ÐºÑĥ
Ðµ ÐµÐ²
Ð³ Ð¸
ĠÑĤ Ð²Ð¾ÑĢ
ĠÐ¼ÐµÑĤ Ð°Ð»
ĠÐ²ÐµÐ»Ð¸ÐºÐ¾Ð± ÑĢÐ¸ÑĤ
ĠÐ¼ÐµÐ´ Ð¸ÑĨ
ĠÐºÐ° ÑĦ
Ð¾Ð¼ ÐµÑĤ
ĠÐ¸Ð½ÑģÑĤ Ð¸ÑĤÑĥ
Ð¾Ð² ÐµÐ´
ĠÑĤ Ð¾ÑĢÐ³
ĠÐ¸Ð³ ÑĢ
ĠÐ¸Ð²Ð°Ð½Ð¾Ð² Ð¸Ñĩ
ÐµÐ½ ÑĨ
ĠÑĤÐ¸Ð¿ Ð°
ĠÑģ Ñĥ
ĠÑĤ Ð¾Ð½
ĠÐ²Ð² Ð¿
ĠÐ¾Ð±ÑĢÐ°Ð· Ð¾Ð²Ð°Ð½Ð¸Ðµ
ĠÐ· Ð¸Ð¼
ÐºÐ° Ð·ÑĭÐ²
ĠÐ¿ÑĢ Ð¸Ð´
ĠÐ· ÐµÐ»
Ð¾ÑģÑĤ Ð¾
Ð°Ð¹ Ð»Ð¾Ð²
ĠÐº Ð»Ð°Ð´
ĠÐ±ÑĢ Ð¸Ð³
ĠÐ²Ñĭ Ð´
ĠÐ³Ð¾Ð» Ð¾Ð²
ĠÑĦÐ¸Ð» Ð¾ÑģÐ¾ÑĦ
Ð¾Ð» Ð½Ñı
ĠÐ¿Ð¾Ð´ ÑĤ
Ð¸ÑĨ Ð¸Ð¾Ð½
ĠÐ·Ð½Ð°ÑĩÐ¸Ð¼ Ð¾ÑģÑĤÐ¸
ĠÑĩ ÑĳÑĢ
Ð¸Ð³ Ð¸Ð½
ĠÐ´Ð¸ ÑĢÐµÐºÑĤ
ĠÐ± ÑĥÑĢ
ĠÐ¼Ð¸ÑĢÐ¾Ð² Ð¾Ð¹
Ð°ÑĤ Ð¾Ð¼
Ð¼ ÑĥÐ½
ĠÐ¸Ð¼Ð¿ÐµÑĢÐ° ÑĤÐ¾ÑĢ
ĠÐ¿Ð¾Ð³ Ð¸Ð±
ĠÐ²Ð½ Ð¸Ð¼
ĠÐ¿Ð¾Ñĩ ÑĤÐ¸
ĠÐ´ÐµÑıÑĤÐµÐ»ÑĮ Ð½Ð¾ÑģÑĤÐ¸
ĠÐ¾ÐºÑĤ ÑıÐ±
ĠÑİ Ð³
Ñĩ ÑĳÑĤ
ĠÐ³Ðµ Ð¾ÑĢÐ³
Ð»Ñı Ð´
ĠÐ¿Ð¾Ñģ Ð²
ĠÐ¼Ð°ÑĢ Ðº
ĠÑģÐµÐ¹ ÑĩÐ°Ñģ
ĠÐ¾Ð± ÑıÐ·
ĠÐ²ÑĭÐ¿ Ð¾Ð»Ð½
Ð· Ð°
ĠÑĤÐµÑĩ ÐµÐ½Ð¸Ðµ
ĠÐ¸Ð½ Ð¶ÐµÐ½
ĠÐºÐ¾Ð½ÑģÑĤ Ð°Ð½ÑĤ
ĠÑĢÐµÐ¶Ð¸ÑģÑģ ÑĳÑĢ
ĠÐ½ Ð°ÑĤ
ĠÐ³ÐµÑĢ ÑĨ
ĠÐ³Ð¾ÑģÑĥÐ´Ð°ÑĢÑģÑĤÐ²ÐµÐ½ Ð½Ð¾Ð³Ð¾
ĠÐ¿ÑĢÐ¾ÑĦÐµÑģÑģ Ð¾ÑĢ
ĠÐ·Ð°Ð² ÐµÑĢÑĪ
Ñĩ Ð¸Ñģ
ĠÐ¿Ð¾ÑģÑĤ ÑĥÐ¿
ĠÑĢÐ¾ÑģÑģÐ¸Ð¹ ÑģÐºÐ¸Ð¹
ĠÐ»ÑİÐ´ ÐµÐ¹
ĠÐ´Ð¾Ð»Ð¶ Ð½Ð¾ÑģÑĤÑĮ
Ð»Ñı ÐµÑĤÑģÑı
ĠÑĢÐµÐ³Ð¸Ð¾Ð½ Ð°
ĠÐºÐ¾ÑĢ Ð¾ÑĤ
Ð¸ÑĩÐµÑģÐº Ð¾Ð¼
ĠÐ¼ ÐµÑĢ
ĠÐ¿ÐµÑĢÑģ Ð¾Ð½Ð°
ĠÐ´ Ð»Ð¸Ð½
ĠÐ½ Ñĥ
ĠÐ¿ÑĢÐ¸Ñħ Ð¾Ð´
ĠÑĥÑĤ Ð²ÐµÑĢÐ¶Ð´
ĠÑĤÐµÑĢÑĢÐ¸ÑĤ Ð¾ÑĢ
ÑĢÐµ Ð¿
ĠÑĩÐ°ÑģÑĤ Ð¾
ĠÐ±Ð¾ÑĢ ÑĮ
ĠÐ± Ð¸ÑĤ
ĠÐ¿Ð¾Ð· Ð¶Ðµ
Ð¸Ð² Ð°Ð»
ĠÐ½ÐµÐ± Ð¾Ð»ÑĮÑĪ
Ð¼ Ð¾Ð½
ĠÑį ÑģÑĤ
ĠÐ¿ÑĢÐ¾ Ð¸Ð·
ĠÐ°Ð½Ð´ ÑĢÐµ
ĠÐ½ÐµÐ¾Ð±ÑħÐ¾Ð´ Ð¸Ð¼
ĠÑģÐ¾ÑĢ ÐµÐ²
ĠÐ¾ ÑĪ
ÑĨ Ð¾Ð²
ĠÐ¸Ð½ÑģÑĤÐ¸ÑĤÑĥ ÑĤÐ°
ĠÑģ ÐµÐ½
Ð¸ÐºÐ° ÑĨÐ¸Ð¸
ĠÐ¾ÑĢÐ´ ÐµÐ½Ð°
ĠÐ¿ÑĢÐ¾ ÐµÐºÑĤÐ°
ĠÑģÑĤ Ð°Ð½Ð¾Ð²
ĠÑģÑĤÐ°ÑĤ Ð¸ÑģÑĤ
ÑĮ ÑİÑĤ
ĠÐ¸Ð¼ ÐµÐ½
ĠÐ¾ÑĢ Ð¸Ð³Ð¸Ð½
ÐºÐ¾Ð² Ð°
ĠÐ´ÐµÐ± ÑİÑĤ
ĠÐ± Ð»Ð¸Ð·
Ð¸Ð· Ð¼Ð°
ĠÑģÐ» Ð¾Ð²Ð°
ĠÑģÑĤÐ°Ð½ ÑĨÐ¸Ð¸
ÐµÑĢ ÑĤÐ°
Ð» ÐµÐ¹
ĠÐºÐ¸ÑĤ Ð°Ð¹
ĠÐ¾ÑĤ Ð¼
ĠÑģÐ¾Ð²ÐµÑĤ ÑģÐºÐ¾Ð³Ð¾
Ð»Ñı Ð½
ĠÐ²Ð°Ñģ Ð¸Ð»ÑĮ
ĠÑħ ÑĢÐ°Ð¼
ÐµÐ½ Ð½
ĠÐµÐ¿ Ð¸ÑģÐºÐ¾Ð¿
Ð¾ Ñĥ
Ð»ÐµÐ´ ÑģÑĤÐ²
ĠÑĥÑĩÐ°ÑģÑĤ Ð½Ð¸ÐºÐ¾Ð²
ÑĥÐ¼ Ð°
ĠÑĩ Ð¸ÑĤ
ĠÐ¾ÑĤÐº ÑĢÑĭ
ĠÐ²Ð¾Ð·Ð¼Ð¾Ð¶ Ð½Ð¾
ĠÐ¿ Ð°Ð½
ĠÑĩÐµÐ¼Ð¿Ð¸Ð¾Ð½ Ð°ÑĤÐ°
ĠÑĤÐ°Ðº Ð¸Ñħ
ĠÑĦÐ°Ðº ÑĥÐ»ÑĮÑĤ
ĠÐ¿Ð¾Ð¿ ÑĥÐ»ÑıÑĢ
ĠÐ¸Ð·Ð´ Ð°ÑĤÐµÐ»ÑĮ
Ð½ ÐµÑģ
ĠÐ² Ð´
ĠÐº ÑĢÑĥÐ³
ĠÑĤÑĭÑģÑı Ñĩ
ÑĢÐ° Ñĩ
ĠÑĪ ÑĤÐ°
ĠÐ¼Ð¸ÑħÐ° Ð¸Ð»
ĠÐ¿Ð¾ÑģÑĤ Ð¾ÑıÐ½
ĠÐ¸Ð³ ÑĢÐ°Ñħ
Ð¸ÑĢÐ¾Ð²Ð°Ð½ Ð¸Ðµ
ĠÑĥÐ¿ÑĢÐ°Ð² Ð»ÐµÐ½Ð¸Ñı
Ð½ Ð¸Ð¼
ĠÐ¿ÑĢ Ð¸ÑĤ
Ð¸Ð» Ñı
ÐµÐ½ Ð·
ÑĢ Ð¸Ñħ
ĠÑĥÑĩÐ°ÑģÑĤÐ½Ð¸Ðº Ð¾Ð¼
Ð¾Ð» Ð¸ÑĤ
Ð°ÑĢ Ñĭ
ĠÐµÐ²ÑĢÐ¾Ð¿ ÐµÐ¹
Ñģ Ðµ
ÑģÐº Ðµ
ĠÐ² ÐµÑĤ
ĠÐ² Ð¸ÑĤ
ĠÐ¾Ð± ÑĢÐ°ÑĤ
Ð¾ ÑıÑĤ
ĠÐ²Ð¾ÑģÑģÑĤ Ð°Ð½Ð¾Ð²
ĠÐ¿ ÑĥÑģÑĤ
ĠÑĢ ÑĥÐ±
ĠÐºÐ¾Ð½Ðº ÑĥÑĢ
ĠÐ½Ð°Ð³ ÑĢÐ°Ð¶Ð´
ĠÐ¸ÑģÑĤÐ¾Ñĩ Ð½Ð¸ÐºÐ¸
ĠÑĢÐµ ÐºÐ°
ĠÐ¿Ð¾Ñħ Ð¾ÑĢÐ¾Ð½
Ð²Ð° Ð¶
Ñı ÐµÑĤ
ĠÐ¿Ð¾Ð´ Ð³Ð¾ÑĤÐ¾Ð²
ĠÑĢÐ¾Ð¼ Ð°Ð½
ĠÑģÐµÑĢÐ³ ÐµÐ¹
ĠÑģÐ¾Ð² Ð¼ÐµÑģÑĤ
ĠÐ¶ÐµÐ½Ñī Ð¸Ð½
ĠÑĤÐ°Ðº Ð¸Ðµ
ĠÐºÐ¾Ð¼ Ð¸ÑģÑģ
ĠÐ³ Ð¸ÑĤ
ĠÐ± Ð¾ÑĤ
ĠÐ½Ð°ÑģÑĤÐ¾ÑıÑī ÐµÐµ
ĠÐ¿ÑĢÐ¸Ð½ Ñı
ĠÑģÐµÐº ÑĢÐµÑĤ
Ð¸Ð· Ð°ÑĨÐ¸Ð¸
ĠÑĪÐºÐ¾Ð» Ñĭ
ĠÐ¿Ð¾Ð½ Ð¸Ð¼
ĠÐ²ÑĭÑģ Ð¾ÑĤÑĭ
ĠÐ² Ð»Ð¸Ñı
Ð°Ð¹ Ð´Ð¶
ĠÐ¿ÑĢÐ¸Ð½ÑĨ Ð¸Ð¿
ĠÐ²Ñĭ Ð¸Ð³
ĠÐ²Ð¾ ÑĪ
ĠÑģÐ¾ÑĨ Ð¸Ð°Ð»ÑĮ
ĠÐ²Ð¾Ð¹ Ð½Ð°
ĠÐ·Ð² Ð°Ð½Ð¸Ðµ
Ð¸Ð½ ÑģÐºÐ°Ñı
Ñģ Ð¸
Ð°Ð½ Ð¸
Ñı ÑĢ
ĠÐ´ÑĢÑĥÐ³ Ð¾Ð¹
ĠÐ½Ð°Ð·Ð² Ð°Ð½Ð¸Ñı
ĠÐ¾Ð±Ñī Ð¸Ð½Ñĭ
ĠÑĤ ÑĥÑĤ
ÐµÐ½ Ð½Ð¾Ðµ
ĠÐ¾Ð¿ ÑĥÐ±Ð»
Ñĭ Ð´
ĠÐ¿Ð¾ÑĤ Ð¾Ð¼
ĠÐ¿ÑĢÐ¸ ÑĪ
ĠÐ¼Ð°ÑĢ ÑĪ
ÑĪÐ¸Ðµ ÑģÑı
ĠÑĥ ÑĢ
ĠÑģÐµÑĢ Ð¸Ð¸
ĠÐ»Ð¸ÑĤÐµÑĢÐ°ÑĤ ÑĥÑĢ
ĠÐ°Ð· ÐµÑĢÐ±
ĠÑįÑĤ Ñĥ
Ð» ÐµÑĢ
ĠÐº Ð¿
ĠÐ·Ð°ÑģÐ» ÑĥÐ¶
Ð½Ð¾ÑģÑĤ ÐµÐ¹
ĠÑĢÐµÐ» Ð¸Ð³
ĠÐ³ÑĢ Ð¸Ð³
ĠÑį Ð»ÐµÐ¼
ĠÐ¿Ð»Ð¾ÑīÐ°Ð´ Ð¸
ĠÐ°Ð² ÑģÑĤ
Ð»Ñİ Ð´
ĠÐ¸Ð½ ÑĤ
ĠÑĦ Ð°Ð¼
ĠÐ¿ÐµÑĢ ÐµÐ½
ĠÑģÑĤ ÑĢÑĥÐºÑĤ
ĠÑĤ ÑıÐ¶
Ð³ Ð¾ÑĢ
ĠÐ°Ð·ÐµÑĢÐ± Ð°Ð¹Ð´Ð¶
ĠÐ¿ÑĢÐµ Ð²
Ñı Ñĩ
ĠÐ¿Ð¾Ð» Ð¾Ð²
ĠÐ´ÐµÑıÑĤÐµÐ»ÑĮ Ð½Ð¾ÑģÑĤÑĮ
ĠÐ¼Ð¸Ñħ Ð°Ð¹Ð»Ð¾Ð²
ĠÐ¿Ð¾ÑģÑĤ Ð°Ð½Ð¾Ð²
ĠÑģÐ¾ÑĨ Ð¸Ð°Ð»
ĠÑģ Ð°Ð»
ĠÑģÐ¾ÑĢÐµÐ² Ð½
ĠÐ¿ÐµÑĢÑģÐ¾Ð½Ð° Ð¶
Ðº Ð°ÑĤ
ÑģÑĤÐ²ÐµÐ½ Ð½Ð¾
Ð½Ð¾ Ñģ
ĠÐºÑĢ Ð¸ÑģÑĤ
Ð± Ð¸ÑĤ
ĠÐ¼ Ð¸ÑĤ
ĠÑĨ Ð°ÑĢ
Ð½Ð°ÑĢ ÑĥÐ¶
ĠÐ´Ð¾Ðº ÑĤÐ¾ÑĢ
ĠÐ°Ð²ÑĤÐ¾ÑĢ Ð¸ÑĤÐµÑĤ
ĠÑĥÑĩÐ°ÑģÑĤ Ð½Ð¸ÐºÐ¸
ĠÐ¾Ð± Ð½Ð°ÑĢÑĥÐ¶
ĠÐ½Ñĭ Ð½Ðµ
ĠÑģ ÐµÑĤ
ĠÑĤÑĥÑĢ Ð½Ð¸
Ð± ÐµÑĢÐ³
ĠÐ¼Ð¸Ð½ Ð¸Ð¼
ĠÐ» Ð¸Ð´
Ð°ÑĢÑĤ Ð°Ð¼
ĠÐ¼Ð½Ð¾Ð³ Ð¸Ðµ
Ð¾Ðº Ð¾Ð¼
ÐµÐ½ Ð¸ÑĤ
ĠÑģ ÑĥÐ±
ĠÐ³Ð¾ÑģÑĥÐ´Ð°ÑĢÑģÑĤÐ²ÐµÐ½ Ð½ÑĭÐ¹
ÐµÐ» Ðµ
ĠÑģÑģÑĭÐ» ÐºÐ¸
ĠÐ½ Ð¸Ð¼
Ð°Ðº Ð°
Ð°ÑĤÐµÐ»ÑĮ Ð½Ð¾
ÐµÐ² Ð¾
ĠÑģÑĤÑĢÐ° Ð½Ð°
Ð°Ð½Ð¸Ðµ Ð¼
ĠÐ¿ Ð¸ÑĤ
ĠÐ² Ð°ÑĢ
ÑĦ ÐµÑĢ
ĠÐ²Ð¸Ðº ÑĤÐ¾ÑĢ
ĠÐ² ÐµÑī
ÑĳÑĤ ÑģÑı
ÑĢÐ° Ñģ
ĠÐº ÑĥÐ¿
ÑĪ ÐµÐ¼
ĠÐ³Ð»Ð°Ð² Ð°
ĠÑĢÐµÑĪ ÐµÐ½Ð¸Ðµ
ĠÑģÐ¾ÑģÑĤÐ¾Ñı Ð½
ĠÑģÐ¸Ð¼ Ð²Ð¾Ð»
ĠÐ¿Ð¾ÑĢ ÑıÐ´
ĠÐºÐ¾Ð¼Ð°Ð½Ð´ Ð¸ÑĢ
ĠÐ·Ð°Ñī Ð¸ÑĤ
Ð°ÑĤ ÐµÐ»ÐµÐ¼
ĠÐ¿Ð¾Ð½ ÑıÑĤ
ĠÐ¾Ñģ ÑĥÑīÐµÑģÑĤÐ²
ĠÐºÐ¾Ð¼Ð¿ Ð»ÐµÐºÑģ
ĠÐ¸Ð½ÑĦÐ¾ÑĢÐ¼ Ð°ÑĨÐ¸Ð¸
ĠÑĩÐ»ÐµÐ½ Ñĭ
Ð°ÑĤ Ð¸
ĠÐ¿ÐµÑĢÐ² Ð¾Ð³Ð¾
ĠÐ¿ÐµÑģ Ð½Ð¸
ĠÑģÐµÐ± Ðµ
ĠÐ´Ð¾ÑģÑĤÐ°ÑĤ Ð¾ÑĩÐ½Ð¾
ĠÐ¼ÑĥÐ· ÐµÐ¹
ĠÐ¿ÑĢÐµÐ´Ð¿ÑĢ Ð¸ÑıÑĤ
ĠÐ¸ÑģÑĤÐ¾Ñĩ Ð½Ð¸ÐºÐ¾Ð²
ĠÐ²ÑģÑĤÑĢÐµ Ñĩ
ĠÐ± Ñİ
ĠÐ¿Ð¾Ð¿ ÑĭÑĤ
ĠÑĩ ÐµÑģÑĤÑĮ
ĠÑģÑĭ Ð³
ĠÑįÑĤ Ð¸Ð¼
ĠÐ¿ÑĢ Ð¸ÑĢ
ĠÐº Ð°Ñģ
ĠÐºÐ¾ÑĤÐ¾ÑĢ Ð¾Ðµ
ĠÑģÐ¿Ð¾ÑĢÑĤ Ð¸Ð²
ĠÐ² ÑģÐº
ĠÑģÑĤÑĢÐµÐ» ÐºÐ¾Ð²
ĠÑģ Ð¸ÑĤÑĥ
ĠÐ¿ÐµÑĢ ÐµÑĪ
ĠÐ¼Ð¾ÑģÐº Ð²Ðµ
ÑĢÐµ ÑĪ
ĠÐ¾Ð±ÑĬ ÑıÐ²
ÑĳÐ½ Ð½ÑĭÐ¹
Ð°Ð½ Ð½ÑĭÑħ
ÑģÑĦ ÑģÑĢ
Ð°Ð» Ð¾Ð²
ĠÐ¾Ð±ÑģÑĥÐ¶Ð´ ÐµÐ½Ð¸Ðµ
ĠÑĤÐ°Ðº Ð¾Ð¹
Ð½ ÐµÑĤ
ĠÐ² Ð½ÐµÑĪ
ĠÐ¿Ð¾Ð» ÐºÐ¾Ð²
ĠÐ½Ð°Ð·Ð½Ð°Ñĩ ÐµÐ½
ĠÑĨ ÐµÐ»ÑĮ
ĠÐ¶ÐµÐ»ÐµÐ· Ð½Ð¾Ð´
ĠÑģÐ°Ð¼ Ð¾
ĠÐ¶ÐµÐ»ÐµÐ·Ð½Ð¾Ð´ Ð¾ÑĢÐ¾Ð¶
ĠÐ´Ð°Ð½ Ð½ÑĭÑħ
ĠÐ¿ÑĢÐµ Ðº
ĠÑĢ ÑģÑĦÑģÑĢ
Ð¾Ð² ÑĭÐ¹
ĠÐ¿ÐµÑĢÐ² Ð°Ñı
ÐµÐ» Ð¾
Ð¸Ð» Ð¸Ð¹
ĠÐ· ÑĢ
ĠÑħ Ð¾Ð´
Ð¾Ð¼ Ð½
Ð¸ÑģÑĤ Ð°
ĠÐ´ Ð¾Ð³
ĠÐº Ð°Ð±
ĠÑį Ð»
ĠÐ¶Ð¸Ð² Ð¾ÑĤ
ĠÐºÑĢÐ°ÑĤ ÐºÐ¾Ðµ
ĠÐ²Ð¾Ð·Ð² ÑĢÐ°Ñī
ÑĢÐ¾ ÑĦ
ĠÐºÐ½Ð¸Ð³ Ð¸
ĠÐ² ÑģÑĤÑĥÐ¿
ĠÐ¸Ð½ÑĤÐµÑĢ Ð²
ĠÑĤ Ð¾Ð²
ĠÐ¾ÑĤ ÐµÑĨ
ĠÐ´ÐµÐ¹ÑģÑĤÐ² Ð¸Ñı
Ð» Ð¾ÑĤ
ĠÐºÐ»Ð°Ð´ Ð±Ð¸
Ð¾Ð¼ Ð±
Ð¾Ñģ Ð»Ð¾Ð²
ĠÐ·Ð°Ð¼ ÐµÑģÑĤ
Ð¸Ñģ Ð»Ð°Ð²
ĠÐ± ÑĥÐº
Ð¾ÑĢ Ð²
ĠÐ¾ÑĪ Ð¸Ð±
ĠÐ²Ð¾ ÐµÐ½Ð½Ð¾
ĠÐ¾Ð±Ñī ÐµÑģÑĤÐ²Ð°
Ð² Ð¸Ð´
ĠÐ¿Ð¾ÑģÐ² ÑıÑī
Ð¸ÑĩÐµÑģÐº ÑĥÑİ
ĠÐ¿Ð¾Ð´Ð¿ Ð¸Ñģ
ĠÑĦÑĥÑĤ Ð±Ð¾Ð»ÑĮ
ĠÐ´ ÑĢÐ°Ð¼
Ð»Ð¸ Ð¶
ĠÑģÐµÐ»ÑĮ ÑģÐºÐ¸Ð¹
ĠÑħ Ð¾Ðº
ĠÐ²Ð»Ð°ÑģÑĤ Ð¸
ĠÑįÐ½ ÐµÑĢÐ³
ĠÐ¼Ð¸Ð½Ð¸ÑģÑĤ ÐµÑĢ
ĠÐ¶ Ð¸Ð»
ĠÐ½Ð° Ð·ÑĭÐ²Ð°
ĠÐºÐ°ÑĦ ÐµÐ´
ĠÐ¿ÑĢÐ¾Ð¶ Ð¸Ð²
Ð°Ð½ ÑģÐºÐ¾Ð³Ð¾
Ð³ Ð»ÑıÐ´
ĠÑģ ÑģÑĢ
Ð¾Ð²Ð°Ð½Ð¸Ðµ Ð¼
Ð¾Ð² Ð°Ð²
Ð¸ÑĤÐµÐ»ÑĮ Ð½ÑĭÐµ
ĠÑħÑĥÐ´Ð¾Ð¶ ÐµÑģÑĤÐ²ÐµÐ½
ĠÐ½Ð°Ñģ Ð»ÐµÐ´
ÐµÐ» Ð¸Ñĩ
ĠÐ²Ñĭ ÑĪÐµ
ĠÐ²Ð¾Ð· Ð½Ð¸Ðº
ĠÐ±Ð¾ÑĢ Ð¸Ñģ
ĠÐ³ÐµÑĢ Ð¾Ð¹
ĠÐºÑĥÐ»ÑĮÑĤ ÑĥÑĢ
ĠÐ°Ð» ÑĦ
ĠÑģÐ¾Ð± ÑĢÐ°Ð½
ĠÐº ÑĥÐ·
ĠÐ¿Ð¾Ð» Ð½Ð¾ÑģÑĤÑĮÑİ
ĠÐºÐ¾Ð½ ÐµÑĩ
ĠÑĢÐ°Ñģ ÑģÑĤ
ĠÑģ Ð¸Ð½Ð³
ĠÐ´Ð¾ÑģÑĤ Ð¸Ð³
Ð¸Ðº Ñģ
Ñį Ð¼
ĠÐ± Ð¾Ñı
ĠÑĢ Ð¾Ð·
ĠÐ¿ ÑĥÑĪ
ĠÐ¾Ñĩ ÐµÑĢÐµÐ´
Ðº Ð°Ð¼
ĠÐ½ÐµÑģÐºÐ¾Ð»ÑĮ ÐºÐ¸Ñħ
ĠÐ¿ Ð¾Ð»ÑĮÑĪ
Ð¶Ð´ Ñĭ
Ð¾Ð» Ð°
ĠÐ²ÐµÐ½ Ð³
ĠÐ°ÑĢÑĤ Ð¸Ð»Ð»
ĠÐ¼ Ð»Ð°Ð´
Ð½Ð° Ð·
ĠÑĢÑĥÑģ ÑģÐºÐ¾Ð¹
ĠÐ´ÐµÑĤ ÐµÐ¹
ĠÑģÐµÐ» Ð°
ĠÑĤ Ñİ
ĠÐºÐ°Ð² Ð°Ð»
Ð¼Ð¾ÑĤ ÑĢÑı
ĠÑģÑĤ Ð¸Ñħ
ĠÐ¿ÐµÑĢÐ² ÑĭÐ¼
ĠÐ½ÐµÑģ Ð¼Ð¾ÑĤÑĢÑı
Ð°Ð» Ñĭ
Ð» Ð°Ð½
ĠÐ± Ð°Ðº
ĠÐ² ÐµÑģÑĮ
Ð³ Ð»Ð°Ð²
ĠÐ´Ð¸ÑĢÐµÐºÑĤ Ð¾ÑĢ
Ð°Ð³ Ð¾Ð³
ĠÑĥ Ð²Ð°Ð¶
ÐµÐ² ÑģÐºÐ¸Ð¹
ĠÐ±Ð¸Ð±Ð»Ð¸ Ð¾ÑĤ
ĠÑĤÑĢÐµÐ½ ÐµÑĢ
Ð°Ð»ÑĮ ÑıÐ½
ĠÐ´Ð¸Ð½ Ð°Ð¼
ĠÐ¾Ð³ ÑĢÐ°Ð½Ð¸Ñĩ
ĠÐ³ÐµÑĢÑĨ Ð¾Ð³
ĠÑģÐ²Ð¾ Ñĳ
ÐµÐ½ Ð½ÑĭÐ¼
ĠÐ» Ð¾Ð³
ÑĤ Ð¸Ð¹
Ñħ Ð°
ĠÐ´ÐµÐ¿ Ð°ÑĢÑĤÐ°Ð¼
Ð³ Ð¾ÑĢÐ¾Ð´
ĠÑĢÐ°Ð±Ð¾ÑĤ Ñĥ
ĠÑı Ðº
ĠÑĦ ÑĳÐ´
ĠÐ¸ Ð»ÑĮ
ĠÑģÑĤÑĢÐ°Ð½ Ð¸ÑĨ
ĠÐ¿Ð¾ÑĤ Ð¾Ð¼Ñĥ
ÑĥÑī ÐµÑģÑĤÐ²ÐµÐ½
ĠÐ³ÑĥÐ±ÐµÑĢÐ½ Ð¸Ð¸
ĠÐ¿ÑĢ Ð¾Ðº
ĠÐ·Ð° Ð´Ð°
ĠÐ¿ ÐµÐ²
Ð¾ÑģÑĤ Ð°Ð²
ĠÐ¿ Ð¸ÑģÑĮ
ĠÑĩÐ°ÑģÑĤ Ð½Ð¾ÑģÑĤÐ¸
ĠÐ·Ð°Ð¼ ÐµÐ½
ÐµÐ½ÑĤ Ñĭ
Ð°ÑİÑī Ð¸Ñħ
ĠÐ²ÑĭÐ¿ÑĥÑģÐº Ð½Ð¸ÐºÐ¸
ĠÐ¾ÑĤÐ¼ ÐµÑĩ
ĠÐ¾Ðº ÑĢÑĥÐ¶
ĠÐ¿ÐµÑĢÐ² ÑĭÐµ
ĠÐ¿ÑĢÐ¾Ð² ÐµÑĢ
ĠÐºÐ¾ÑĢ Ð¾Ð»ÑĮ
Ð»Ñı ÑĤÑĮ
Ð¾ÑĢ ÑĮ
ĠÐ°Ð² ÑģÑĤÑĢ
ĠÐ½ Ð¸Ð·
Ñĳ ÑĤÐ°
ĠÐ¿ÐµÑĢÐ² ÑĭÑħ
ĠÑģÐµÑĢ Ðµ
ĠÑĩÐ°Ñģ Ð¾Ð²Ð¾Ð¹
ĠÐºÐ¾Ð¼Ð¿ ÑĮÑİÑĤ
ĠÐ² Ð°Ð½
ĠÐºÐ¾Ð¼Ð¿ Ð°Ð½Ð¸Ñı
ĠÑģÐ»ÐµÐ´ ÑĥÐµÑĤ
ĠÐ¿ÐµÐ´ Ð°Ð³Ð¾Ð³
Ð¾ÑĢ Ð¾ÑĤ
ĠÑĤÐµÑĢ Ð¼Ð¸Ð½
ĠÐ¸ÑĤ Ð°Ð»ÑĮÑıÐ½
ĠÐ¶ Ð¸ÑĤÐµÐ»ÐµÐ¹
ÐµÐº ÑĤÐ¾ÑĢ
ĠÐ½Ð¸Ñĩ ÐµÐ³Ð¾
ĠÐ¿ÑĢÐ¾ ÑĦÐµÑģÑģÐ¸Ð¾Ð½
ĠÐºÐ¾Ð¼Ð¿Ð¾Ð· Ð¸ÑĤ
Ð¸ÑĤÐµÐ»ÑĮ Ð½Ð¾Ð¹
ĠÐ¿ÑĢÐ°Ð² Ð°
ĠÑģÐµÑĢÐµ Ð±ÑĢÑı
ĠÐºÐ¾Ð½ÑĦ Ð»Ð¸Ðº
ĠÐ´Ð¾Ð¼ Ð°
ĠÑģ ÑĢÐ°Ð²Ð½
ĠÐ¾Ð¿ÑĥÐ±Ð» Ð¸Ðº
ĠÐ¼ Ð¾ÑģÑĤ
ÐµÐ² Ð¾Ð¹
ĠÐ´Ð°Ð½ Ð½ÑĭÐµ
ĠÑıÐ·Ñĭ ÐºÐ°
ĠÐ½ Ð¾Ñĩ
ĠÑĩÐµÐ¼Ð¿Ð¸Ð¾Ð½ Ð°ÑĤÐµ
ĠÐ³Ð» ÑĥÐ±
Ð¶ Ð´Ð°
ĠÐ´Ð¾Ð»Ð¶ ÐµÐ½
Ð°Ðº Ð¸
ĠÐºÐ¾Ð» Ð¾Ð½
ĠÐ½Ð¾Ð¼ Ð¸Ð½Ð°
ĠÐ¼Ð½ Ð¾Ð¶
ĠÐ´Ð¸Ð²Ð¸Ð· Ð¸Ð¸
ĠÐ¾ÑģÐ½Ð¾Ð² Ð½Ð¾Ð¼
ĠÐ·Ð°Ð¿ Ð¸Ñģ
ĠÐ¿ÑĢÐ¸Ð½ ÑıÑĤ
ĠÐ¿ÑĢÐ¾Ð² ÐµÐ´
ĠÐ¼Ð°ÑģÑĤ ÐµÑĢ
ĠÑģÐµÐ· Ð¾Ð½Ð°
ĠÐ¾Ð±ÑģÑĥÐ¶Ð´ ÐµÐ½Ð¸Ñı
ĠÐ²Ð¾Ð· Ð³Ð»Ð°Ð²
ĠÐ¹ Ð¾ÑĢ
Ð»ÐµÐ½Ð¸Ðµ Ð¼
ĠÐ¿ÑĢÐ°Ð² Ð¾
Ñĩ Ð¸ÑĤ
ĠÐ½Ð°ÑģÐµÐ»ÑĳÐ½ Ð½ÑĭÑħ
ĠÐ± ÑĢÐ°Ð·
ĠÐ´Ð² Ð¸Ð³
Ð½ ÐµÑĢ
ĠÐ»Ðµ Ð¾Ð½
ĠÐ°Ð»ÑĦ Ð°Ð²
Ð¼Ð°ÑĤ ÑĢÐ¸Ð²
ĠÑĥÑĩ Ð¸Ð»Ð¸
ĠÐ¾ÑĤ ÐºÐ°Ð·
ĠÐºÐ»ÑĥÐ± Ð°
ĠÐ°ÑĢÑħÐ¸ÑĤ ÐµÐºÑĤ
ĠÐ»ÐµÐ½ Ð¸Ð½Ð³ÑĢÐ°Ð´
Ð½Ð° Ð´
ÑĢÐ°Ð·Ð´ Ð½
ĠÐ²ÐµÑĢÑģ Ð¸Ð¸
ĠÐ² Ð¸ÐºÐ¸
Ð¾Ñģ Ð¿
Ð°Ð»Ð¸ ÑĦ
Ð¸Ðº Ð¾Ð¼
ĠÐºÐ¾Ð» Ð»ÐµÐ³
ĠÑĢÐ° Ðº
ĠÐ¾Ð± ÑĥÑĩ
ĠÐ´ ÐµÐ½
Ð¾Ð½Ð° Ñĩ
ÑĢÐµ Ð³
ĠÑĦ ÐµÑĢ
ĠÑħ Ð¾Ð´Ðµ
ĠÑĤ Ð°ÑĤ
Ð»ÐµÐ½ Ð¸Ð¹
ĠÐ½Ðµ Ð¿ÑĢ
Ñĥ ÑĢÑĥ
Ð¸Ñĩ Ð½Ð¾
ĠÐ¿ÐµÑĢÑģÐ¾Ð½ Ð°Ð»Ð¸Ð¸
ĠÐ°ÑĢÐ³ ÑĥÐ¼ÐµÐ½ÑĤ
ĠÑģÐ²ÑıÑĤ Ð¾Ð³Ð¾
ĠÑĢÐ°Ð·Ð²Ð¸ÑĤ Ð¸Ñı
Ð¾Ð²Ð°Ð½ Ð°
ÐµÑģ Ð°
ĠÐºÑĢÐµ Ð¿
Ð» Ð¾ÑģÑĮ
ĠÐ´Ð°Ð»ÑĮ Ð½ÐµÐ¹
Ð½Ð¾Ð² Ð°
ĠÐº Ð¸Ð»
Ð¾ÑĢ ÑĢÐ¾
ĠÐ¿Ð¾Ð» Ðº
Ñĥ Ð°
Ð¸ÑĤÐµÐ»ÑĮ Ð½Ð¾Ð³Ð¾
ĠÐºÑĢÐµ ÑģÑĤÑĮ
ĠÑģÐµÐ¼ ÑĮÐµ
ĠÐ²ÑĭÐ¿ ÑĥÑī
ĠÑĢ ÑĦ
ĠÐ¿Ð¸Ñģ Ð°ÑĤÐµÐ»ÑĮ
ĠÐ²ÑģÐº Ð¾ÑĢÐµ
ĠÐ´ ÑĥÐ±
ÐµÐ½ Ðµ
ĠÑĪÐºÐ¾Ð» Ð°
ÐµÐ½ ÑģÐºÐ¸Ð¹
ĠÐ±ÐµÑĢÐµÐ³ Ñĥ
ĠÑį ÑĦÑĦ
ĠÐºÐ°ÑĤÐµÐ³ Ð¾ÑĢÐ¸Ð¸
ĠÐ°ÐºÑĤ ÑĳÑĢ
ĠÑģÐµÐ· Ð¾Ð½
Ð½Ð¾Ð² ÑĮ
ĠÑģÐ»ÑĥÐ¶ Ð±Ñĭ
ĠÐ»Ð° ÑĥÑĢÐµ
ĠÑĥÐ² ÐµÐ»Ð¸Ñĩ
ĠÐ°Ð½ Ð°Ð»Ð¾Ð³
ĠÐ¿ ÐµÑħ
Ð¾Ð¿ Ð¾Ð»ÑĮ
ĠÐ±Ð°ÑĪ Ðº
ÑĢÐ°Ð· Ñĥ
ĠÐºÐ° Ð¿
Ñı Ð³
ĠÑĢÐ¾Ð´ Ð°
ĠÑĤÑĢÐ°Ð½ÑģÐ¿ Ð¾ÑĢÑĤ
ĠÐ¾ ÑĢÑĥÐ¶
ĠÑı ÑĢ
ĠÐ¼Ð°ÑĤ ÐµÐ¼Ð°ÑĤ
ĠÐ´Ð¾Ð»Ð¶ Ð½Ñĭ
ĠÑģ Ñħ
ĠÑģ Ð°Ð´
ĠÐ² Ð½Ð¾Ð²ÑĮ
ÑĨ Ðµ
ĠÑģÐµÐ» Ðµ
Ð» Ð¸ÑģÑĮ
ĠÐ²Ñĭ Ð·
ĠÐ·ÐµÐ¼ Ð»Ð¸
ĠÐ¿Ð¾Ð» ÐºÐ°
ÑĭÐ² Ð°ÐµÑĤ
ĠÐ¿ Ð°Ñģ
ĠÑĥÑĩÐ°ÑģÑĤÐ² Ð¾Ð²Ð°Ð»
ĠÐ¸Ð· ÑĢÐ°
ĠÐ¼ÐµÑģÑĤ Ðµ
ĠÐº Ð°Ð½ÑĤ
ĠÑģÐ¾Ðº Ð¾ÑĢÑĢÐ¾
ĠÐºÑĢÐ° Ñı
ĠÑģ ÑĦ
Ð¸Ð½ ÑģÐºÐ¾Ð¼
ĠÑĥ Ð¶
ĠÐ¼Ð¾ Ñī
ĠÑĥ Ð¿ÑĢÐ°Ð²Ð»ÐµÐ½Ð¸Ðµ
ĠÐ¿ Ð¸ÑĪ
ĠÐ¿ÑĢÐ¾Ð³ÑĢÐ°Ð¼ Ð¼
ÑĤ Ð¾Ð¼
ĠÐ± Ð¾Ð¹
ÑĥÐ» ÑģÑı
Ñĭ Ð³
ĠÐ· Ð½Ð°
ĠÐ² ÐµÑĩ
ĠÑģÑģÑĭÐ» ÐºÐ°
Ñĳ ÑĢÐ°
ĠÐ¾Ð±ÑĭÑĩ Ð½Ð¾
ĠÐµ ÑīÐµ
ĠÑĢÐµÐ·ÑĥÐ»ÑĮÑĤ Ð°ÑĤ
ĠÑĦÐ¸Ð»ÑĮ Ð¼Ð°
Ð»Ñı ÐµÑĤ
ĠÑģÑĤÐ°Ð´ Ð¸Ð¾Ð½
Ð¸Ð» Ð¸Ð¸
Ð´ ÐµÑĢ
ÑĢÐ° Ð¹
ĠÐºÑĥÐ± ÐºÐ°
ĠÐ¼Ð¾Ð»Ð¾Ð´ ÑĳÐ¶
ĠÑģÐ¸ÑģÑĤÐµÐ¼ Ð°
ÐµÑģÑĤ ÑĢÐ°
ĠÐ¾ÑĤÐ½Ð¾ÑĪ ÐµÐ½Ð¸Ñı
ĠÐ½Ð¾Ð² Ð¾Ð¹
ĠÐ±Ð»Ð°Ð³Ð¾Ð´ Ð°ÑĢÑı
ĠÐµÐ² Ð³
ĠÐ² Ð°Ð¼
Ð¾Ð´ Ñĭ
Ð¸Ð¼ Ð°
ĠÐ² Ð¸Ð»ÑĮ
ĠÑģÐ² ÑıÑī
ĠÐ´ Ð½Ñı
ÑĢ Ð¸Ñģ
ĠÑĢÐ°Ð·Ð»Ð¸Ñĩ Ð½ÑĭÑħ
ĠÐ² Ð¸Ð·
Ð¸Ð¹ ÑģÐºÐ¸Ð¹
ĠÑįÐ¿ Ð¸Ð·
ĠÐ¼ ÐµÐ½ÑĮ
ĠÐ¼ÐµÑĤ ÑĢÐ¾Ð²
Ð»Ð° Ð¼ÐµÐ½ÑĤ
ĠÑĢÐ° ÑģÐº
ĠÐ¿Ð¾ Ð¸ÑģÐº
ĠÐ´Ðµ ÑģÑıÑĤ
ĠÑħÑĥÐ´Ð¾Ð¶ Ð½Ð¸Ðº
ĠÐ¿ÑĥÐ½ÐºÑĤ Ð¾Ð²
ĠÐ¼Ð½Ð¾Ð³ Ð¸Ñħ
ÐµÐ» Ñİ
ĠÐ¸Ð¼ ÐµÐ»
Ð°Ð¼ Ð°
Ð¾Ð¿ ÑĢ
ĠÑĤ Ð°Ð»
Ð¾ÑĤ Ðµ
ĠÑĩÐµÑĤÑĭ ÑĢÐµ
ĠÐº Ð°Ð´
ĠÑĦ Ð¸Ð³
ĠÐ´ Ð½
ĠÐ¾ÑĤ Ð²
Ð¾Ð² Ð°Ð»Ð°
Ð¾ ÐµÐ´Ð¸Ð½
ĠÐ¸ Ð±
ĠÐºÐ¾Ð¼ Ð¼ÑĥÐ½
ĠÑģÑĤÐ°Ð½ ÑĨÐ¸Ñı
ĠÐ¾ Ð²
ĠÐ²ÐµÑĢÑħÐ¾Ð² Ð½Ð¾Ð³Ð¾
Ñı ÐµÑĤÑģÑı
ĠÑĤÐµÐ°ÑĤ ÑĢÐ°
Ð¾Ð» ÐµÑĤ
ĠÐ¼ÐµÑģÑĤ Ð°
ĠÐºÐ»Ð°Ð´Ð±Ð¸ ÑīÐµ
ĠÑĢÐ°Ð· Ð³
ĠÐ³Ð»Ð°Ð² Ð½ÑĭÐ¹
ĠÐ»ÐµÐ¹ ÑĤÐµÐ½
ĠÑĢ Ð¾Ðº
Ð»Ð° Ð·
ÑĦ ÑĤ
ĠÐ°Ð²Ð¸ Ð°ÑĨÐ¸Ð¾Ð½
ĠÑĢ ÑĥÐº
ĠÐ³Ð¾ÑģÑĥÐ´Ð°ÑĢÑģÑĤÐ²ÐµÐ½ Ð½Ð¾Ð¹
ĠÐ°Ð¼ÐµÑĢÐ¸ÐºÐ°Ð½ ÑģÐºÐ¸Ð¹
ĠÐ¿ÑĢÐµÐ´ ÑĭÐ´
ĠÐµ ÐºÐ°ÑĤ
ĠÐ±ÑĥÐ´ ÑĥÑī
ĠÐ½ÐµÐ´ Ð¾ÑģÑĤ
ĠÐ¿ÑĢÐµÐ´ÑĭÐ´ ÑĥÑī
ĠÐ¿Ð¾Ñĩ ÐµÐ¼Ñĥ
ĠÐ¿ Ð°Ð¿
ĠÑĤÐ¸ÑĤ ÑĥÐ»
Ð¾Ñģ Ð°
ĠÐºÐ¾Ñģ Ð¼
ĠÑĩ ÐµÑħ
ĠÐ¿Ð¾Ð» Ñĥ
ĠÐ»Ð¸Ð½ Ð¸Ð¸
ÑĥÑİÑī Ð¸Ð¹
ÑĤ Ð¾Ð¶
ĠÑĤ Ð¾Ð¼Ñĥ
ĠÐ³ÐµÑĢ Ð±
ĠÐºÑĢÐ¸ÑĤ ÐµÑĢ
Ð¾Ð¿ Ð°Ñģ
ĠÑĤÑĭ Ñģ
ĠÑĪÑĤ Ð°ÑĤ
ĠÐºÐ¾Ð¼Ð¼Ñĥ Ð½Ñĭ
ĠÐ´ÐµÐ» Ð¾
ĠÑħÑĢÐ¸ÑģÑĤ Ð¸Ð°Ð½
ĠÐ¾Ð± ÑĢÐ°Ñī
ĠÐ¼Ð¾ÑĢ Ñı
ĠÐ½ÐµÐºÐ¾ÑĤÐ¾ÑĢ ÑĭÑħ
ÑĪ Ð¸ÑģÑĮ
Ð¸Ð² Ð°ÑĤÑĮ
Ð¶ Ð°
ĠÐ½Ð¾Ð² Ð¾Ð³Ð¾
Ñĩ Ð°ÑĤ
ÐµÑĢ Ðº
Ð¸ÑĤÐµÐ»ÑĮ Ð½ÑĭÑħ
ÐµÐ¹ Ð¼
ĠÐ´ Ð¸Ð¿
ĠÐ¿ÑĢÐ°Ð² Ð¸Ð»Ð°
ĠÐ± Ð°Ð¹
ĠÑĢÐ°ÑģÐ¿ Ð¾Ð»Ð°Ð³
ĠÐ±Ð¾Ð» Ð³Ð°ÑĢ
ĠÐ¿ÑĢÐ¾ÑģÑĤ ÑĢÐ°Ð½
ĠÐºÐ°ÑĤ Ð¾Ð»
ĠÐ²Ð¿ Ð¾Ñģ
ĠÐ· Ð°ÑĢ
ĠÑįÐº Ð·
Ð»ÐµÐ´ÑģÑĤÐ² Ð¸Ð¸
Ð¸Ð² Ð°
ĠÐ¸ Ð½Ð¾ÑģÑĤ
ĠÐ²Ð¿Ð¾Ñģ Ð»ÐµÐ´ÑģÑĤÐ²Ð¸Ð¸
ĠÐ¸ÑĤ Ð°Ð»Ð¸Ð¸
ĠÑģÐ²Ð¾ Ð¸Ð¼
ĠÑĥÑģÐ¿ ÐµÑħ
Ð°Ðº Ð¾Ð¼
ĠÑħ Ð°ÑĢ
ĠÐ½Ð° Ð¼
ĠÐ° Ñħ
ĠÐ´Ð¾Ðº Ð°Ð·
ĠÐ¼ÑĥÐ¶ ÑĩÐ¸Ð½
ĠÑĥÑĩÐ°ÑģÑĤ Ð½Ð¸ÐºÐ°
ĠÐ°Ð²ÑģÑĤ ÑĢÐ°Ð»
ĠÐ±Ñĭ ÑģÑĤ
ĠÐ½Ð°Ñĩ Ð°Ð»Ð¾
Ð¾Ð¶Ð´ ÐµÐ½Ð¸Ðµ
ĠÐ´Ð¾Ð» Ð³
ĠÐ¿ÑĢÐ¾Ð¸Ñģ Ñħ
Ð»Ð° Ð´Ð°
ĠÐ¸Ð½Ð¾ÑģÑĤ ÑĢÐ°Ð½
ĠÐ²ÐµÐ»Ð¸ÐºÐ¾Ð±ÑĢÐ¸ÑĤ Ð°Ð½Ð¸Ð¸
ĠÐºÑĢÑĭ Ð¼
ĠÐ± ÐµÐ½
ÐµÐ³ Ð´Ð°
ĠÐ¸Ð¼Ðµ ÑİÑĤ
Ð¸Ð» Ðµ
ĠÐ¿ÑĢÐµ Ñģ
ÑĥÑİÑī Ð¸Ñħ
Ð± ÐµÐº
ĠÐºÐ°ÑĢ Ð»
ĠÑģÑĨÐµÐ½ Ð°ÑĢ
ĠÐ¿ÐµÑĢÐµ ÑħÐ¾Ð´
ĠÐ²Ðº Ð»Ð°Ð´
ĠÐ³ÐµÐ½ÐµÑĢÐ° Ð»ÑĮ
Ð´ Ð°ÑĤ
ÑĢ Ð¸Ð¸
Ð¾Ð² ÑĭÐ¼
ĠÐ³ Ð¸Ð´
ĠÐ¼ ÐµÑĩ
Ñĥ ÐºÐ¾Ð²
ĠÐ»Ñİ Ð´Ð¸
ĠÐ¿ÑĢ Ð¸Ð»
ĠÑģÐ¼ Ð¾Ð³
ĠÐ¿ÑĢÐ¸Ñģ Ð²Ð¾
ĠÑģ Ð±
Ð¾Ñħ Ð¾Ð·ÑıÐ¹
ĠÐºÐ¾Ð½ÑģÑĤÐ°Ð½ÑĤ Ð¸Ð½
ĠÐ¿ÑĢÐ¸Ð² ÐµÐ´
Ðº Ð¸Ð½Ð°
ĠÐ·Ð°Ð³ Ð¾Ð»Ð¾Ð²
ÑĢÐµ Ðº
ĠÐ¾Ð± Ð¾Ð·Ð½Ð°Ñĩ
ĠÐºÐ»ÑĥÐ± Ñĭ
ĠÑĥÐ½ Ð¸Ñĩ
Ñģ ÑĥÑĢ
ĠÑĦÐµÐ´ÐµÑĢÐ° Ð»ÑĮ
ĠÐµÐ¿ Ð°ÑĢÑħ
ĠÑĦÐ¸Ð» Ð¸Ð¿
Ð² ÑĳÑĢ
Ð»Ð¾ Ð½Ñĭ
ĠÑĢÐ¾Ð» Ð¸
ĠÐ°Ð½Ð´ ÑĢÐµÐ¹
ĠÐ» Ð¾Ð½Ð´
ĠÐºÐ¾ÑĤÐ¾ÑĢ ÑĥÑİ
ĠÐ´ÑĥÑħ Ð¾Ð²
ĠÐ¾Ð± Ð»Ð°Ð´
Ð¾ÑĤ Ð²Ð¾ÑĢ
ĠÐ°Ð²ÑĤÐ¾Ð¼ Ð°ÑĤ
ÑĪ ÑĥÑİ
ĠÐ± Ð¾Ð»ÑĮ
ĠÐ¼Ð» Ð½
ĠÐ²Ð¾Ð¹ ÑģÐºÐ°
ĠÑģ ÑĢÐ°Ð·Ñĥ
ÑĳÐ· Ð´
ĠÐ³ Ð¸Ð¼
ĠÐ²Ð¾Ñģ Ð¿
ÐµÐ½ Ð½Ð¾ÑģÑĤÐ¸
ĠÑįÑĤÐ° Ð¿
ĠÑģÐµÐ²ÐµÑĢ Ð½Ð¾Ð¹
ĠÑĥÐ½Ð¸Ñĩ ÑĤÐ¾Ð¶
ĠÐ°Ð½ÑĤ Ð¾Ð½
ĠÑģÑĤ Ð°Ð»Ð¾
ĠÐ¾ÑģÐ½Ð¾Ð² Ðµ
ĠÐ± ÐµÑģÐ¿
Ð°Ð»ÑĮ Ð½ÑĭÐ¼
ĠÐ¼Ð¾ÑģÐºÐ¾Ð² ÑģÐºÐ¾Ð¹
ĠÐ¿Ð¾Ñĩ ÑĳÑĤ
ĠÐ¿ÑĢÐµÐ¼ Ð¸Ñı
ĠÑĥÑĩ ÑĢÐµÐ¶Ð´
ĠÐµÐºÐ°ÑĤ ÐµÑĢ
ÑĢ Ð¸Ð½
Ðµ ÐµÐ²Ð¸Ñĩ
ĠÐ¿ÑĢÐ¸Ð² Ð¾Ð´
ĠÐ¾ Ð¼
Ð»ÐµÐ½ Ð½ÑĭÐµ
ĠÐ´ Ñį
ÑıÑģ Ð½
ĠÐ¸ÑģÐºÑĥÑģ ÑģÑĤÐ²Ð°
ĠÐ³ Ð¾Ð¼
ĠÐ¾ Ð½Ð¾
ĠÑģÑĥÑīÐµÑģÑĤÐ² ÑĥÐµÑĤ
ĠÐ¿ ÑĤ
Ñī Ð°
ÑĳÐ½ Ð½Ð¾Ð¹
ĠÑĥÐ´Ð°Ð» Ð¸Ð»
Ð» ÑĥÐ¶
Ð¸Ð² Ð°ÐµÑĤÑģÑı
ĠÐ¿ÑĢÐ¸Ðº Ð°Ð·
ĠÐºÑĢÐµÑģÑĤÑĮ ÑıÐ½
ÑĪ ÑĤ
Ð¾Ð½ ÑģÑĤ
Ð»Ðµ Ñĩ
ĠÑĥÐ» ÑĥÑĩ
ĠÐ·Ð°Ð½Ð¸Ð¼ Ð°ÐµÑĤ
ĠÑĥÐ± Ð¸Ð¹
ĠÑĤÐµÐ¿ ÐµÑĢÑĮ
ĠÐ¿Ð°Ð¼ÑıÑĤ Ð½Ð¸Ðº
Ð¾Ð²Ð°Ð½ Ð¸Ð¸
ĠÐ°Ð»ÐµÐºÑģ ÐµÐ¹
Ð» Ð°ÑĤ
ĠÐ½Ð°Ð» Ð¸Ñĩ
ĠÐ³ÐµÑĢ Ð¾
Ð² Ð¸Ð¶
ĠÐºÐ¾ÑĢÐ¿ ÑĥÑģ
Ð¾Ð³ ÑĢÐ°Ð´
Ð½ Ð¸Ñĩ
ĠÐ·Ð°Ð² ÐµÐ´
ĠÐ»ÑĥÑĩ ÑĪÐµ
ĠÐ´Ð» Ð¸Ð½Ð°
ÑĨ Ð°ÑĢ
ĠÑĤÐµÐ°ÑĤ ÑĢ
ÑĭÐ² Ð°ÑĤÑĮ
ĠÐ²ÐµÑĢ Ð¾ÑıÑĤ
ĠÑĢÐ°ÑģÐ¿Ð¾Ð»Ð¾Ð¶ ÐµÐ½
ÐµÑĢ Ð´
ĠÑģÐµÐ· Ð¾Ð½Ðµ
Ð»ÐµÐ½ Ð¸Ñİ
ĠÐº Ð³
ĠÐ¿Ð¾ÑĤ ÐµÑĢ
ÑĢ Ð¸Ð´
Ðº Ð¸Ð¼
ĠÐ³ Ð¾ÑĤÐ¾Ð²
ĠÑĤ Ñĥ
ĠÑĢÐ°Ð· ÑĢÐµÑĪ
Ð» Ð¾Ðº
Ð»ÐµÐ½ Ð½ÑĭÑħ
ĠÐ¾Ð± Ð²Ð¸Ð½
ĠÐ¿Ð¾Ð² ÑĤÐ¾ÑĢ
Ð½ Ð¸ÑĨÑĭ
ĠÐ¿ÐµÑĢÐ² Ð¾Ð¼
ĠÐµ Ð¶
ĠÐ²Ð¼ÐµÑģÑĤ Ð¾
ĠÑĢÐ°Ñģ ÑĪÐ¸ÑĢ
ĠÑĢÐ¾ÑģÑģÐ¸Ð¹ ÑģÐºÐ°Ñı
Ð»Ð° Ð±
ĠÑģÑĤÑĢÐ°Ð½ Ð¸ÑĨÑĭ
ĠÑģÑĩ Ð¸ÑĤÐ°
ĠÐ¾ÑģÑĤÑĢÐ¾Ð² Ð°
Ð·ÑĭÐ² Ð°ÐµÑĤ
ĠÑħ Ð°Ð½
ĠÐ¼ Ð¸ÑģÑģ
ĠÐ´Ð¾ÑģÑĤ ÑĥÐ¿
ĠÐ¿ÑĢÐ¾Ð¸Ð· Ð¾ÑĪ
ĠÑĩÐµÑĢ Ð½
ĠÐ¾ÑģÐ² Ð¾Ð±
ĠÐ½ ÑĳÐ¼
ĠÑĥÐ»ÑĥÑĩ ÑĪ
ĠÐ´Ð°Ð½ Ð½ÑĭÐ¹
ĠÑģ Ð¸Ð±Ð¸ÑĢ
ĠÐ¸ÑģÑģÐ»ÐµÐ´ Ð¾Ð²Ð°Ð½Ð¸Ñı
ĠÐ¿ ÑĮ
ĠÐ¿ÑĢÐµÐ·Ð¸Ð´ ÐµÐ½ÑĤÐ°
ĠÐ¿ÑĢÐ¸Ñģ Ð¾ÐµÐ´Ð¸Ð½
ĠÐ¿ÑĢÐ¸ÑĤ Ð¾Ðº
ĠÐºÐ¾Ð½Ðº ÑĢÐµÑĤ
ĠÐ·Ð°Ð¼ ÐµÑĤ
ĠÐ´Ð²Ð¸Ð¶ ÐµÐ½Ð¸Ñı
ĠÐ² ÑģÑı
Ð¸Ð½ Ð¸
Ñį Ð»ÑĮ
ĠÐ°ÑĦ ÑĢ
ĠÐ¿Ð¾Ð¼Ð¾Ñī ÑĮÑİ
ĠÑģ Ð¾Ð»Ð½
ÐµÑĢ ÐµÐ¶
ĠÑĦ ÐµÑģÑĤ
ĠÐ·Ð² ÑĳÐ·Ð´
Ð°ÑİÑī Ð¸Ðµ
ĠÐºÐ¾Ð» Ð»ÐµÐºÑĤ
ĠÑģÐ´ÐµÐ» Ð°ÑĤÑĮ
Ð´ Ð¾
ĠÐ³Ð¾ÑģÑĥÐ´Ð°ÑĢ ÑģÑĤÐ²Ð°
Ð± Ð¸Ð½
ĠÐ¸ÑģÐ¿ Ð°Ð½Ð¸Ð¸
ĠÐºÐ°Ðº Ð¾Ð¹
ĠÐ¿ÑĢÐ°Ð² Ð¸Ð»Ð¾
ĠÐ¿Ð°ÑĢ Ð¸Ð¶
ĠÐ¾ÑģÐ¾Ð± ÐµÐ½Ð½Ð¾
ĠÐ¿ Ð»Ð°Ð²
ĠÐ»ÐµÑĤ Ð½Ð¸Ñħ
ĠÑĤÑĥÑĢ Ð½
Ð¸Ð¹ ÑģÐºÐ¾Ð¹
ĠÐºÐ² Ð°ÑĢÑĤ
ĠÐ´ÐµÐº Ð°Ð±
ÑİÑģ ÑĮ
ĠÐ¿Ð¾ Ñį
Ð°Ð» Ð¸ÑģÑĤ
ĠÑĤÑĢÑĥ Ð´Ð°
ĠÐºÐ¾Ð¼Ð¼ÐµÐ½ÑĤÐ°ÑĢ Ð¸ÐµÐ¼
ĠÐ´ Ð°ÑĤ
ĠÐ¿ÐµÑģ Ð½Ñı
Ð¸ Ð¾Ð·
ĠÑģÐ¾Ð·Ð´ Ð°Ð½Ð¸Ñı
ĠÐ¸Ð½ Ð¾Ð³Ð´Ð°
ĠÐºÑĢÐµ ÑģÑĤ
ĠÐ¼Ð¾ÑģÐº Ð²Ñĭ
ĠÐ¸ÑģÐ¿Ð¾Ð»ÑĮÐ· ÑĥÐµÑĤÑģÑı
ĠÑĥÐ´ Ð°ÑĢ
ĠÐ±Ð°ÑĤ Ð°Ð»ÑĮ
ĠÐ¾ÑĤÐ½Ð¾Ñģ Ð¸ÑĤÑģÑı
Ñģ ÐµÐ¼
Ð½Ð¸ Ð¶
Ð¸ÑģÑĤ Ð°Ð½
Ð¸ÑĢÑĥ ÐµÑĤ
ĠÐµ Ð³
Ñĳ Ð³
ĠÐºÐ¾ÑĢÐ¿ ÑĥÑģÐ°
ĠÐ³Ð²Ð°ÑĢÐ´ ÐµÐ¹
Ð¾Ð» Ñı
ĠÐºÐ» Ð¸Ð¼
ĠÑħÐ¾ÑĢÐ¾ÑĪ Ð¾
ĠÐ³Ð¾Ð» Ñĭ
ĠÐ¿Ð»Ð°ÑĤ ÑĦÐ¾ÑĢÐ¼
ĠÐ²Ð¾Ð·Ð¼Ð¾Ð¶ Ð½Ð¾ÑģÑĤÑĮ
ĠÐ³ÐµÑĢ Ð¼Ð°Ð½
ĠÑĦÑĥÑĤÐ±Ð¾Ð» Ð¸ÑģÑĤ
ĠÐ¿ÑĢÐ¸Ð¼ÐµÑĢ Ð½Ð¾
ĠÐ²Ð½Ð¸Ð¼ Ð°Ð½Ð¸Ðµ
ĠÐ³Ð¾ÑĢÐ¾Ð´ ÑģÐºÐ¾Ð³Ð¾
ĠÑĪÐ°Ð± Ð»Ð¾Ð½Ñĭ
Ð°Ð½ Ð½ÑĭÐ¹
ĠÑģÑĤ Ð°Ð½Ð´
ĠÐ°Ð»ÐµÐºÑģÐ°Ð½Ð´ ÑĢÐ¾Ð²Ð¸Ñĩ
ĠÐ½Ð¾Ð² ÑĭÐµ
ĠÑİÐ¶ Ð½Ð¾Ð¹
ĠÐ°Ð»ÐµÐºÑģÐ°Ð½Ð´ ÑĢÐ°
ÐµÐ½ ÑģÐºÐ¾Ð¹
Ð¾Ð² ÐºÐ°
ĠÐ²Ð¾Ð¹ Ð½Ðµ
ĠÐ´Ð¾Ñĩ ÑĮ
ĠÐ³Ðµ Ð¾Ð³ÑĢÐ°ÑĦ
ĠÐ¿ÑĢÐµÐ´ÑģÐµÐ´ Ð°ÑĤÐµÐ»ÑĮ
ĠÐ¿ÐµÑĢ ÐµÐ¼
ĠÐºÐ½Ð¸Ð³ Ð°
ĠÐ±ÑĢÐ¾Ð½ Ð·
ĠÑĩÐµÑĤÑĭ ÑĢ
ĠÑĩ Ð¸ÑģÑĤ
ĠÐ°Ð½ Ð°ÑĤ
ĠÐº Ð¸Ñģ
Ñĥ ÑģÐºÐ°
Ð¿Ð° ÑĢÐ°ÑĤ
ĠÑĥ ÑģÑĤÑĮ
ĠÑĢÑĥÑģ ÑģÐºÐ¾Ð³Ð¾
ĠÐ½Ð° ÑģÑĤÑĥÐ¿
Ñĥ Ð½Ð°
ĠÐ¿Ð¾Ð´ Ð²Ð¾Ð´
ĠÐ´ Ð½ÐµÐ¹
ĠÑĢÐ°Ð¼ ÐºÐ°Ñħ
Ð¾ ÑģÐº
ĠÑĢ ÑĥÐ¼
ĠÐ¼ ÑĥÐ»ÑĮÑĤ
ĠÐ¿Ð°ÑĢÑĤ Ð¸Ñı
Ð± ÐµÑĢ
ĠÑįÐ»ÐµÐºÑĤ ÑĢ
ĠÐ¾ ÑĦÐ¾ÑĢÐ¼
ĠÐ¿Ð¾Ð² ÐµÑĢÑħ
ĠÑģÐµÐ½ÑĤ ÑıÐ±
ĠÐ¿ÑĢÐ¸Ñģ ÑĥÑĤÑģÑĤÐ²
Ðº Ð°Ð½
ĠÐ±Ð°ÑģÑģ ÐµÐ¹
ĠÑģÐ¸Ð» Ñĭ
ĠÐ¿Ð»Ð¾ÑĤ Ð½Ð¾ÑģÑĤÑĮ
ĠÐ½Ð°ÑĨÐ¸Ð¾Ð½Ð°Ð»ÑĮ Ð½Ð¾Ð¹
ĠÑģ ÑĢÐ¾Ðº
ĠÑģÐ¿ Ð¾ÑĢÑĤÐ°
ĠÐ¼Ð¸Ð» Ð»Ð¸
ĠÐ±ÑĥÐ´ ÑĥÑĤ
Ð¸Ð² ÑĪÐ¸Ð¹
ĠÐ¿Ð¾Ð¼ ÐµÑī
ÑĥÑİÑī Ð¸Ðµ
ĠÐ¼Ð¸Ð½ ÑĥÑĤ
Ð¸Ð·Ð² ÐµÑģÑĤ
Ð¸Ð½ ÑģÐºÐ¾Ðµ
ĠÐ¸Ð·Ð²ÐµÑģÑĤ Ð½ÑĭÐµ
Ð¼ Ð°ÑĢ
ÑĪ ÑĤÐ°
Ð¸Ð¹ ÑģÐºÐ¾Ð³Ð¾
ÑĤ Ð¸Ð½Ð³
ĠÐ½ Ð°Ð½
ĠÐ¾ÑģÐ½Ð¾Ð² Ð½ÑĭÐµ
ĠÐ² ÐµÑģÑĤ
Ð°Ð² ÑĪÐ¸Ð¹
ĠÑģÐ°Ð¼Ð¾Ð» ÑĳÑĤ
ĠÐ¸ÑģÐºÑĥÑģ ÑģÑĤÐ²
ĠÐ² Ð¾ÑĢÐ¾Ð½
ĠÑĥÑģÑĤ ÑĢÐ¾Ð¹
Ð¸Ð´ ÐµÑĢ
ĠÐ¸Ð½ Ðº
ĠÐ²ÐµÐ´ ÑĥÑī
ĠÐ·Ð´ Ð°Ð½Ð¸Ñı
ĠÐ±ÐµÐ· Ð¾Ð¿Ð°Ñģ
Ð¼Ð¾ÑĤ ÑĢ
ĠÐ± ÐµÐ»ÑĮ
ĠÐ±Ð¾Ð»ÑĮÑĪÐ¸Ð½ ÑģÑĤÐ²Ð¾
ĠÐ¿ÑĢÐ¸Ð½ ÑıÐ»
Ð¾ÑĢÐ° Ñħ
Ð¾Ðº Ð¾Ð»
Ð¸ Ð°ÑĤ
ÐµÑĢ ÐµÐ½
ĠÐ¾Ð¿ ÑĭÑĤ
Ð°Ð»ÑĮ Ð½Ð¾Ð¼
Ñī Ð¸Ðº
Ð¾Ð»ÑĮ Ð½Ð¾
ĠÑĪ Ð°ÑĢ
ĠÐ±Ð¾Ð»ÑĮÑĪ Ð°Ñı
ĠÑįÑĤ Ð¾Ð¼Ñĥ
ĠÐ´ÐµÑĢÐµÐ² Ð½Ð¸
ĠÐ²Ñģ ÐµÐ³Ð´Ð°
ÑĮ ÐµÐ²
ĠÐ³ Ñĥ
ÑİÑī Ð°Ñı
ĠÐ½Ð¸ÐºÐ¾Ð»Ð° ÐµÐ²Ð¸Ñĩ
ÑĨ Ð°Ð¼Ð¸
Ð½ Ð¸ÑĩÐµ
ĠÐ²Ñĭ Ð´ÐµÐ»
ÑĢÐµÐ¼ ÐµÐ½Ð½Ð¾
ĠÐ·Ð´ Ð°Ð½Ð¸Ðµ
Ð´ ÑĢ
ĠÑģÐ»Ð¾Ð² Ð¾
ĠÐ¼ Ð°ÑĤÑĮ
ÑĢÐ° ÑĨÐ¸Ð¸
ĠÑģÐ¾ÑĨÐ¸Ð°Ð» Ð¸ÑģÑĤ
ĠÐ½Ð¾Ð² ÑĭÑħ
ĠÐ¸Ð·Ð²ÐµÑģÑĤ ÐµÐ½
ĠÐ´Ð¸Ð¿ Ð»Ð¾Ð¼
Ð°Ð½ÑĤ Ñĭ
Ñİ Ð½
ĠÑĩÐ»ÐµÐ½ Ð¾Ð¼
ĠÑĢ Ñı
ĠÑįÐ»ÐµÐºÑĤ ÑĢÐ¾Ð½
ĠÐ°Ð»ÑĦÐ°Ð² Ð¸ÑĤÑĥ
ĠÐ¾Ð´ Ð½Ð¾Ð²
ĠÐ¸Ð½Ð¶ÐµÐ½ ÐµÑĢ
ĠÐµ Ð¹
ÐµÐ½Ð¸Ñı Ð¼Ð¸
ĠÑģÐ¼ Ð¾Ð»
Ð¸Ð´ Ñĥ
ĠÐ¿Ð¾Ð´ ÑĢÐ°Ð·
ÑĢÑĥ Ñĩ
ĠÐ²ÐµÐº Ðµ
ĠÐ½Ð¾Ð² Ð°Ñı
ĠÐ¼ÑĥÐ½Ð¸ÑĨÐ¸Ð¿ Ð°Ð»
ĠÐ´ÐµÐ¼ Ð¾ÐºÑĢÐ°ÑĤ
ĠÑģÑĤÐµÐ¿ ÐµÐ½ÑĮ
Ð¸Ñģ Ð¿
ĠÐºÐ¾ÑĤÐ¾ÑĢ ÑĭÐ¼
Ñĥ ÐºÑĤ
ĠÐ² Ð¾ÑĢ
ĠÑĤ Ð¸
Ð¶ Ð¸
ĠÐ²Ð¾ ÐµÐ²
ĠÐ¼Ð°ÑĤ ÑĩÐµ
ĠÐ²Ð· Ð°
ĠÐ¼Ð°ÑĢ Ð¸Ñı
ĠÐ²Ñĭ Ð½
Ð°Ð» Ð¸Ñı
ÑĢÐ°Ð¶ ÐµÐ½Ð¸Ðµ
ĠÐ´ Ð·
ĠÑģ ÑĥÑħ
ĠÐ´ Ð¸Ð·
Ð½ ÑĥÑĤ
ĠÐ± Ð»Ð¸Ð¶
ĠÑģÐ² Ð¸Ð´
ÑĥÐ³ Ð¸
ĠÐ¾ÑģÐ½Ð¾Ð² Ð½Ð¾Ð¹
Ñģ Ð¾Ð¼
ÑĥÑģÑģ Ð¸Ð¸
ÑĢÑĥ Ð¼ÐµÐ½ÑĤ
ĠÐ¸Ð½ÑĦÐ¾ÑĢÐ¼ Ð°ÑĨÐ¸Ñı
Ð¸ÑĨ ÐµÐ¹
ĠÐ»ÑĥÑĩ ÑĪÐ¸Ð¹
ĠÐ¼ ÑĥÑģ
ĠÑĤÐµ Ð¾ÑĢ
ĠÐ²ÑĭÑĪ ÐµÐ»
ĠÑĤ ÑĥÑĢÐµ
ĠÐ²Ð¸Ð´ Ð¾Ð²
Ð½ Ð¸ÑĤ
ĠÐ½Ð° Ð´Ðµ
ĠÑĥÑģÐ¿ ÐµÑĪ
ĠÑģ Ð¸Ð´
ĠÐ¼Ð¾ÑģÐºÐ¾Ð² ÑģÐºÐ¾Ð³Ð¾
ĠÑĥ ÐµÐ·Ð´
ĠÐ¿Ð¾Ð·Ð´ Ð½ÐµÐµ
ĠÑħ Ð°
ĠÑģÐ¿ ÐµÐºÑĤ
ĠÑĢÐ°Ñģ ÑģÐºÐ°Ð·
Ð¸Ð² ÑĪÐ¸ÐµÑģÑı
Ð°Ð´ Ðµ
ÐµÐ½Ð¸Ñı Ñħ
ÑĢÐ° Ð»Ð°
ĠÐ¼Ð°ÑĪ Ð¸Ð½
Ñĳ Ñģ
ĠÑģÑĢÐµÐ´ Ð½ÑıÑı
ĠÐ½ Ð¾Ð¼Ð¸Ð½
ĠÑģÑĤ Ð¾Ð¸ÑĤ
ĠÐ±ÐµÐ»Ð¾ÑĢ ÑĥÑģ
ĠÐ³ Ð¸Ð¿
Ð¾Ð²Ð°Ð½ Ñĭ
ĠÐ³ ÑĢÐ°Ð¼
ĠÑĩÐ¸Ñģ Ð»ÐµÐ½
ĠÐ¿ÑĢÐ¾Ð¸Ð·Ð² ÐµÐ´ÐµÐ½Ð¸Ñı
ĠÑį Ð»ÑĮ
ĠÑģÐ±Ð¾ÑĢ Ð½Ð°Ñı
ĠÐ¿Ð¾ÑģÐ»ÐµÐ´ Ð½Ð¸Ð¹
ĠÐºÐ¾Ð¼Ð¿ÑĮÑİÑĤ ÐµÑĢ
ĠÐ½Ð° ÑĢ
ĠÐ¸ÑģÐ¿ ÑĭÑĤ
ĠÑģ ÐºÐ°
ĠÐ¾ Ð»ÑĮ
ĠÐ¼ Ð°Ð»ÑĮ
Ð¸Ñı Ð¼Ð¸
ĠÐ¾ÑĤ ÑģÑĤÐ°Ð²
ĠÐ²Ð¿ Ð¾Ð»
ĠÐ¿ÑĢÐ°ÐºÑĤ Ð¸ÑĩÐµÑģÐºÐ¸
ĠÐ°Ð´Ð¼Ð¸Ð½Ð¸ÑģÑĤÑĢÐ° ÑĤÐ¾ÑĢ
Ð¸Ð· Ð¸ÑĢÐ¾Ð²Ð°Ð½
ĠÐ»Ð¸Ð³ Ð¸
ĠÐ¿Ð¾Ð»ÑĥÑĩ Ð¸Ð»Ð°
ĠÐ·Ð°Ð² Ð¾ÐµÐ²
ĠÐº Ð»ÑİÑĩ
Ð°Ð½ ÑģÐ¾Ð²
ÑĢ Ð¸Ðº
ĠÐ¿ÑĢÐ¾Ð²Ð¸Ð½ ÑĨÐ¸Ð¸
ĠÐ²Ð¿Ð¾Ð» Ð½Ðµ
ĠÐ¿Ð¾Ð´ ÑĩÐ¸Ð½
ĠÐºÐ¾Ð¼ Ð¸ÑĤÐµÑĤÐ°
ĠÐ¿ÑĢÐµÐ¼ ÑĮÐµÑĢ
ĠÐºÐ°Ð¿Ð¸ÑĤ Ð°Ð½
ĠÑĤ ÑĢÐ°Ð²
ĠÐº ÑĢÐ¾Ð²
ĠÐ´ÑĢÑĥÐ³ Ð¸Ð¼Ð¸
Ñģ ÐµÐ½
Ð¸Ð» ÐµÑĤ
Ð´ Ñĭ
ĠÐ¿ÐµÑĢÐµÐ´ Ð°
ĠÑģÐ°Ð¼ ÑĭÑħ
ĠÐ²Ð¾Ð·Ð´ ÑĥÑĪ
ĠÐ¼ Ð¸ÑĢÐµ
ĠÑĤ Ð¸Ñħ
ĠÐ²ÑĭÑģÑĤÑĥÐ¿ Ð°Ð»
ĠÐ²Ð¾Ð·ÑĢÐ°ÑģÑĤ Ðµ
ĠÐºÑĢÑĥÐ¿ Ð½ÐµÐ¹
ĠÐ¿Ð¾Ð»Ð¾Ð¶ ÐµÐ½Ð¸Ðµ
ĠÑģÑİ Ð¶
ĠÐ± Ð¾Ð¼Ð±
ĠÐ¿Ð¾Ð´ ÑĢÐ¾Ð±
ĠÐ¿ÑĢÐµ ÑģÑĤÑĥÐ¿
ĠÑĦÑĳÐ´ Ð¾ÑĢ
Ð°Ð¹ Ð½
ĠÐºÐ¾Ð½ ÑĨÐ°
ÑĳÐ½ Ð½Ð¾Ð³Ð¾
Ñĥ Ñı
ĠÐ² ÑģÐ¿
ĠÐ¿ÐµÑĢÐ² Ð¾Ð½Ð°Ñĩ
ĠÐ¿ ÐµÑĩ
Ð¾Ð½ Ð¸Ð¸
ĠÐ´ÑĢÑĥÐ³ Ð¸Ð¼
ĠÑĢÐ°Ð· Ð½ÑĭÑħ
ĠÐ·Ð°Ðº Ð¾Ð½Ñĩ
ĠÐ¼Ð°Ñģ ÑģÐ¾Ð²
ĠÐ¸Ð½ÑģÑĤ ÑĢÑĥÐ¼ÐµÐ½ÑĤ
ĠÐ¿Ð°ÑĢ Ð»Ð°Ð¼ÐµÐ½ÑĤ
ĠÑį ÑģÐº
ĠÐ¸ÑģÐ¿Ð¾Ð»ÑĮÐ· Ð¾Ð²Ð°ÑĤÑĮ
ĠÐ¿ Ð¸Ð»
ĠÑĢÐ°Ð·Ð² ÐµÐ´
ĠÑĢÐ°Ð±Ð¾ÑĤ Ðµ
ĠÐ³ÐµÑĢ Ð±Ð°
Ð»Ð¸ ÑĪ
ĠÑĢÐ°Ð· Ð±
ĠÑģÐ¾ÑĢÐµÐ²Ð½ Ð¾Ð²Ð°Ð½Ð¸Ñı
ĠÐ²ÐºÐ»ÑİÑĩ Ð°Ñı
ĠÐ·Ð°Ð¿Ð°Ð´ Ð½Ð¾Ð¹
ĠÑĤÐ°Ð½ ÐºÐ¾Ð²
ĠÐ½Ðµ Ñĳ
ĠÑĦÑĥÑĤÐ±Ð¾Ð» Ñĥ
ĠÐ´Ð² ÑĥÐ¼
ĠÐ´ÑĥÑĪ Ñĥ
ĠÑĥÐ¿ ÑĢÐ°Ð·Ð´Ð½
Ð¾ Ð°Ð½
ĠÑģÐ¿Ð°Ñģ Ð¸Ð±Ð¾
ĠÑĢÑĥÑģ ÑģÐºÐ¸Ðµ
ĠÑħ Ð°ÑĢÑĮ
Ð¾Ð· Ð½
ÐºÐ¾Ð² ÑģÐºÐ¸Ð¹
ĠÐ¸ÑģÐ¿ ÑĢÐ°Ð²
Ð¾Ð» Ðµ
ĠÑĤ Ð¸Ð¼
ÐµÐ» Ð»
ĠÐ²Ð¾ÑģÑĤÐ¾Ñĩ Ð½Ð¾Ð¹
ĠÑģÐ°Ð¼ ÑĭÐ¼
ĠÐºÐ°Ð¼ Ð¿
ĠÐ½Ð¾Ð¼ ÐµÑĢ
ĠÑĢÐµ Ð°Ð»Ð¸Ð·
ĠÐ²Ð»Ð¸Ñı Ð½Ð¸Ðµ
ĠÐ¿Ð°Ð² Ð»Ð¾Ð²
ĠÑģÐ¾ Ð¾ÑĢÑĥÐ¶
ĠÐºÑĢÐ°Ñģ Ð½Ð¾
ĠÐ»ÐµÐ½ Ð¸Ð½Ð°
ĠÑĤÐ°Ðº Ð¾Ðµ
ĠÐ¿ÑĢÐ°Ð²Ð¸ÑĤÐµÐ»ÑĮ ÑģÑĤÐ²Ð°
ĠÐ¼ Ð°ÑģÑģ
ĠÑĨ Ð¸ÑĤ
Ñį Ðº
ĠÐ°Ð»ÑĮÐ±Ð¾Ð¼ Ð°
ĠÑģ Ð°Ðº
ÑĥÑĢ Ð³Ð°
ĠÐºÐ°ÑĢ ÑĮÐµÑĢ
Ð¸ Ð°
ÑĢÑĥ ÑĤ
ĠÑģÐµÑĢ Ð±
ĠÐ½Ð°Ð± Ð»ÑİÐ´
ĠÑĤÐµÐ¼Ð¿ ÐµÑĢÐ°ÑĤ
Ð¾Ð²Ð°Ð½ Ð¾
ĠÑĥ ÐµÐ·Ð´Ð°
ĠÐ° ÑĢÐµÑģÑĤ
ĠÑģÐµÑĢ ÑĮ
Ð°Ð² Ð»Ð¸Ð²
ÑĥÑİÑĤ ÑģÑı
ĠÑĪ Ð²ÐµÐ¹
Ð°ÑİÑī Ð¸Ð¹
ĠÐ°Ð½ Ð°Ð»Ð¸Ð·
ĠÐ·Ð½Ð°Ð¼ ÐµÐ½Ð¸ÑĤ
ĠÐ¿Ð¾Ð¼ Ð¾Ð³
ĠÐ» Ð°Ð³
ĠÑģ Ð¸ÑĢ
ĠÑģ ÑĥÐ»
ĠÐ¿ÑĢÐ¾ ÑıÐ²
ĠÑĢ Ð¾Ð¶Ð´
ĠÑĥÐ´Ð°Ð» Ð¾ÑģÑĮ
ĠÐºÐ°Ð¶Ð´ ÑĭÐ¹
ĠÐ¾ÑĤ ÑĢÑıÐ´
ĠÐ³Ð»Ð°Ð² Ð½ÑĭÐ¼
Ð¾Ð´ Ñĥ
ĠÐ²ÐµÑĢÐ½ ÑĥÐ»ÑģÑı
ÐµÐ½ ÑģÐºÐ¾Ð³Ð¾
ĠÐ¼ Ð°Ð´
ĠÑĨÐµÐ»ÑĮ Ñİ
ĠÐ¿Ð¾Ð¶ Ð°Ð»
ĠÑģÐ¾ÑģÑĤ Ð¾Ð¸ÑĤ
ĠÐ¿ÑĢÐ¾Ð¸Ñģ ÑħÐ¾Ð´Ð¸ÑĤ
ĠÐ¿ÐµÑĢÐ² ÑĥÑİ
ÑĢ Ð¸Ñı
ĠÐ»ÑĮ Ð²
ĠÑģ Ð°Ð²
ĠÐ²ÑĭÐ· Ð²
ĠÑĩÐµÑĤÑĭÑĢ ÑĳÑħ
ÐµÐ¼ ÑĭÑħ
ĠÐºÐ°ÑĤÐµÐ³ Ð¾ÑĢ
ĠÐ²Ð² ÐµÐ´
Ðº ÑĥÐ¿
ĠÑĢÐ°ÑģÑģ Ð¼Ð°ÑĤÑĢÐ¸Ð²
Ð¾Ñĩ Ð½ÑĭÐ¹
ĠÑıÐ¿Ð¾Ð½ Ð¸Ð¸
ĠÐ¼ Ð¾Ð¹
ĠÐ¾ ÑģÐº
ĠÐ·ÑĢ ÐµÐ½Ð¸Ñı
ÑİÑī ÐµÐ¹
Ð°Ð¹ ÑĤÐµ
ÑĢ Ð¸Ð¿
Ð¾Ð² ÑģÐºÐ°Ñı
ĠÐ²Ð· Ð³Ð»ÑıÐ´
ĠÐ¿ÑĢÐµÐ´ ÐµÐ»
ĠÑĦ Ð»Ð°Ð³Ð°
ĠÐ¿ÑĢÐ¾Ð´ ÑİÑģ
ĠÑģÐ»ÑĥÑĩ Ð°Ð¹
ĠÐ½ Ð¸Ð´ÐµÑĢ
ĠÐ¿ÑĢÐµÐ´ Ð¾ÑģÑĤÐ°Ð²
ĠÐ± Ð°Ð±
Ð¸ÑģÑĤ ÑĢ
ĠÑĥÐ½Ð¸Ð²ÐµÑĢÑģÐ¸ÑĤÐµÑĤ Ðµ
Ð¸Ñı Ð¼
ĠÑĤ ÑĢÐ¾
ĠÐ½Ðµ Ð¸Ð·Ð²ÐµÑģÑĤ
Ð²ÐµÑĢ Ð¶Ð´Ð°
ĠÐ¿ÐµÑĢÐµ ÑĥÐ»
ĠÑĢÐµ Ð¼
ÑĥÐ»ÑĮ Ð¿
Ð²ÐµÑĢ Ð³
ĠÐ¿Ð» ÐµÐ¼
ĠÐ°Ð²ÑĤÐ¾Ð¼Ð¾Ð±Ð¸Ð»ÑĮ Ð½ÑĭÐ¹
ĠÐ·Ð°ÑģÐ»ÑĥÐ¶ ÐµÐ½Ð½ÑĭÐ¹
Ð¾Ð´ Ð½
ĠÐ¾Ð´ Ð½Ð¾Ð¼
Ñĳ ÑĢÑĭ
ĠÑĢÐ°Ð±Ð¾ÑĤ Ð°
ĠÐ± ÐµÑģÑģ
ĠÐ¿ÑĢÐ¾ÑĤ ÑıÐ¶
ĠÐ°ÑĢÑħ Ð¸Ð²
Ð¸ÑĤ Ð¸
ÐµÑĢ Ð¸Ð°Ð»
Ñĭ Ð»
ĠÑĤÐµÐ» ÐµÑģ
Ð» Ð»
Ñĩ ÐµÐ½ÐºÐ¾
ĠÑĢÐ°Ð·Ð¼ ÐµÑī
ĠÐ´Ð¾Ð»Ð¶ Ð½Ð°
ĠÐ¾Ð± Ð¾ÑĢ
Ñĥ Ð»Ð°
ĠÐ¿ÑĢÐ¾ÑĨ ÐµÐ½ÑĤ
ĠÐ¼ Ð°Ð»Ð¾
ĠÑĩÐ°Ñģ Ð¾Ð²
ĠÑĢÑĥÑģ ÑģÐºÐ¾Ð¼
ĠÐ» Ð¸Ð²
ÑĢÐ¾Ñģ Ð»Ð°Ð²
ĠÐ¾Ð´Ð½Ð¾Ð² ÑĢÐµÐ¼ÐµÐ½Ð½Ð¾
Ñı Ð»Ð°ÑģÑĮ
Ðº Ð»
Ð¾Ñģ Ñı
ĠÐ¼Ð°Ð¹ Ð¾ÑĢ
ĠÐºÐ¸Ð» Ð¾Ð¼ÐµÑĤ
ĠÐ¿ÑĢÐ¾Ð±Ð»ÐµÐ¼ Ñĭ
ĠÐ·Ð½Ð°Ñĩ ÐµÐ½Ð¸Ñı
ĠÐ¿ÑĢÐ¸Ð· ÑĳÑĢ
ĠÐ½ÐµÐ´Ð¾ÑģÑĤ Ð°ÑĤ
ÑģÑĤÐ²ÐµÐ½ Ð½ÑĭÐ¹
Ð¸ Ð°Ð»Ð°
ÑĦ Ð¸Ð½
ĠÑħ ÑĢÐ°Ð½
ĠÐ½Ð°ÑĥÑĩ Ð½Ð¾
ĠÐ» Ð°Ð±
ĠÐ¾Ð± Ð½Ð¾Ð²
ĠÐ´Ð¸Ð²Ð¸Ð· Ð¸Ð¾Ð½
Ð· Ñı
Ð¸Ðº Ð¾Ð¹
ĠÑģÑĤÐ°ÑĢ ÑĪÐ¸Ð¹
Ð· Ðµ
ĠÑģÐ°Ð¼ Ð¾Ð¹
ĠÑģ Ð¸Ð³
Ð¸ ÐµÐ½ÑĤ
ĠÐ´Ð¸Ð²Ð¸Ð· Ð¸Ñı
ĠÐ¼ ÐµÐ¼
ĠÐ»ÐµÐ¹ÑĤÐµÐ½ Ð°Ð½ÑĤ
Ð°ÑĤ Ð¾
ĠÐ¿Ð°ÑĢ Ðº
ÑĤÐ° Ñħ
ÑĪÐ¸Ñħ ÑģÑı
ĠÐ¼ÐµÑĤÐ°Ð» Ð»
ĠÑģÑĤ Ð¾
ĠÐ¿ÑĢÐ°Ð² Ð¸Ð»ÑĮ
ĠÑĤÑĢÐ°Ð´ Ð¸ÑĨÐ¸Ð¾Ð½
ĠÐ³Ð¾ÑĢÐ¾Ð´ ÑģÐºÐ¾Ð¹
ĠÐ¿ÑĢÐ¸ Ð¾Ð±
ĠÐ´Ð¼Ð¸ÑĤÑĢ Ð¸Ð¹
Ð°Ð½ ÑģÐºÐ°Ñı
ĠÑĢ Ð¸Ñģ
ĠÐ°ÑĢÐ¼ ÑıÐ½
ĠÑĥ Ð´Ð°
Ð½Ð¸Ðº Ð°Ð¼Ð¸
ĠÑĤÐµÐ» ÐµÐº
ĠÑģÐ²Ð¸Ð´ ÐµÑĤ
Ð¸ÑĤÐµÐ»ÑĮ Ð½Ð¾Ðµ
ĠÑģÐµÑĢ Ð¸Ñı
ĠÐ¿Ð¾ÑĤ ÑĢÐµÐ±
ĠÑĦÐ¸Ð»ÑĮÐ¼ Ðµ
ÑıÑģ ÑĮ
ĠÐ¿Ð°ÑĤ ÑĢÐ¸
ĠÐ½Ð¾Ð² Ð¾Ñģ
Ð¸ÐºÐ° ÑĨÐ¸Ñı
ĠÐ¸ÑĢ Ð»Ð°Ð½Ð´
ĠÑĢ ÑĥÐ´
ĠÑĥ ÑĪ
ĠÐ¸Ð½ ÑĦ
ĠÐ°Ð²ÑĤ Ð¾Ð½Ð¾Ð¼
Ð·Ñĭ Ñĩ
ĠÑĪ ÐµÑģÑĤ
ĠÐ¾ÐºÑĤÑıÐ± ÑĢÑĮ
ĠÐ» Ð¸ÑģÑĤ
ĠÐ¼Ð½ ÐµÐ½Ð¸Ñİ
ĠÑĢÐ°Ð·Ð²Ð¸ÑĤ Ð¸Ðµ
ĠÐ¶ÐµÐ½Ñī Ð¸Ð½Ñĭ
ĠÐ½Ð¾Ñı Ð±
ĠÐ°Ñį ÑĢÐ¾Ð¿
ĠÑģ Ð¾Ð¼Ð½
Ð¸Ñĩ Ð°
ĠÐ²Ð¾Ñģ Ð¿Ð¸ÑĤ
ĠÐ¿ÑĢÐ¾Ð¸Ð·Ð²Ð¾Ð´ ÑģÑĤÐ²Ð°
ĠÐ²Ð¾Ð¿ÑĢÐ¾Ñģ Ñĭ
ĠÐ² Ð¾Ð»ÑĮ
ĠÐ´Ð¾ÑĢÐ¾Ð³ Ð¸
ĠÐ°ÑģÑģ Ð¾ÑĨ
ĠÐ¿ Ð¸Ðº
Ñı Ð»Ð¸
Ð°Ñı ÑģÑĮ
ĠÑĢÐµÐ´Ð°Ðº ÑĤÐ¾ÑĢ
ĠÐº Ð¾Ð»ÑĮ
ĠÐ²Ð°ÑģÐ¸Ð»ÑĮ ÐµÐ²Ð¸Ñĩ
ĠÑı ÑĢÐ¾ÑģÐ»Ð°Ð²
ĠÐµÐ² ÑĢÐµÐ¹
ĠÐ´ Ð¸ÑģÑģ
ĠÑģÐº ÑĥÐ»ÑĮÐ¿
ĠÑĦÐ¸Ð½ Ð°Ð½ÑģÐ¾Ð²
Ð°Ñģ Ð°
ĠÑģÑĤÑĢÐ¾Ð¸ÑĤÐµÐ»ÑĮ ÑģÑĤÐ²Ð°
ĠÐºÐ¿ ÑģÑģ
ÑĢÐ° Ð¼Ð°
ĠÐ·Ð°Ð¼ ÐµÑĩ
ĠÐ¾ÑĤ Ð¼ÐµÑĤ
ĠÐ²Ñģ ÐµÐ¹
ĠÑģÐ½ Ð¸Ð¼
ÑİÑī ÐµÐ³Ð¾
ĠÐ²ÑĤÐ¾ÑĢ Ð¾Ð³Ð¾
ĠÐ´ Ð°ÑĢ
Ð¸ÑĩÐµÑģÐº Ð¸Ð¼Ð¸
Ð½ Ð¸Ñı
ĠÐ¾Ñĩ ÐµÐ²Ð¸Ð´
Ð¾ÑĤ ÑĢÐµÐ±
Ð¾ÑģÑĤ ÑĮÑİ
Ð»ÑıÐ½ Ð´
ĠÑģÑĤÐ°Ð½Ð´ Ð°ÑĢÑĤ
ĠÑĢÑĥÐºÐ¾Ð²Ð¾Ð´ ÑģÑĤÐ²Ð¾Ð¼
ĠÐ½Ð°Ð¿Ð¸Ñģ Ð°Ð»
ĠÐ¿ÑĢÐµÐ´ÑģÑĤÐ°Ð²Ð»Ñı ÐµÑĤ
ÑģÐ° Ð¶
Ð¾Ð½ Ñģ
ĠÐ» Ð°Ð²
ĠÑį Ð¹
ĠÐºÐ°Ð½Ð´Ð¸Ð´ Ð°ÑĤ
ĠÐ²Ð°Ñģ Ð¸Ð»Ð¸Ð¹
ĠÐ·Ð°Ñħ Ð²Ð°ÑĤ
Ð¾Ð½ Ð¾Ñģ
ĠÐ½Ð°Ñĥ ÐºÐ¸
ĠÑĥ Ð¸Ð»ÑĮ
ĠÑģ ÐµÐ³Ð¾Ð´
ĠÑģÐµÐ³Ð¾Ð´ Ð½Ñı
ĠÑģ ÑĥÑĤ
ĠÑģÑĤÑĢÐ¾Ð¸ÑĤÐµÐ»ÑĮ ÑģÑĤÐ²Ð¾
ĠÑĤÐ²Ð¾ÑĢ ÑĩÐµÑģÑĤÐ²
ĠÐ²Ð·Ð° Ð¸Ð¼
ĠÑģÐµÑĢ Ð¸Ð°Ð»
ĠÐ´ÑĢÐ°Ð¼ Ð°ÑĤ
Ð¼ Ð¾
ĠÐºÐ°ÑĢÑĮÐµÑĢ Ñĥ
ĠÐ¿ÑĥÑĤ Ð¸
ĠÑĤÐ¾Ñĩ ÐºÐ¸
ĠÑĥÐ»Ð¸ÑĨ Ñĭ
ĠÑģÐ¾Ð¾Ð±Ñī ÐµÐ½Ð¸Ñı
ĠÐ¿Ð¾Ð» Ñı
ĠÐ¼ Ñį
ÑĢÐ° Ð½Ð°
ĠÐ½Ðµ Ð¾Ð´Ð½
Ð¾ÑģÑĤÐ¾ ÑıÑĤÐµÐ»ÑĮ
ÑĢÑĥ Ð½
ĠÐ¾ÑĢÐ³Ð°Ð½Ð¸Ð· Ð°ÑĨÐ¸Ñı
ĠÐ½Ð¸ Ð¶Ðµ
ĠÑĩÐµÑĤ Ð²ÑĳÑĢ
ÑĢ Ð¸ÑģÐ°
ĠÐ½Ð°Ð¹ ÑĤÐ¸
ĠÑĢÑıÐ´ Ð¾Ð¼
ĠÐ¼Ð¸Ð½Ð¸ÑģÑĤ ÑĢ
ĠÐµ ÑģÑĤ
ĠÐ²Ð¾ÑģÑĤÐ¾Ðº Ðµ
ĠÐ¾ Ð¶
ĠÑģÐ¿ ÑĥÑģÑĤ
ĠÐ¿Ð¾Ð» Ðµ
ĠÐ¿Ð¾ÑĢÑĤ ÑĥÐ³
ĠÐ¿ÑĢÐµÐ´Ð¿ Ð¾Ð»Ð°Ð³
Ð² ÐµÑĤÐ°
ĠÑĪÐºÐ¾Ð» Ðµ
ĠÑĪÐ²ÐµÐ¹ ÑĨÐ°ÑĢ
ĠÐ¿ÑĢÐ¾Ð² ÑĳÐ»
ĠÐ·Ð°Ð³Ð¾Ð»Ð¾Ð² Ð¾Ðº
ĠÐ¿ÑĢ Ð¾Ð·
ĠÐ³Ð»Ð°Ð² Ð½Ð¾Ð³Ð¾
ĠÐ³ Ð¸Ð±
ĠÐ·Ð² ÐµÐ·Ð´
ĠÑģÐ¾Ð·Ð´Ð°Ð½ Ð½Ð°Ñı
ĠÑį Ð²
ĠÑĢÐ°Ñģ ÑģÐºÐ°
ĠÑĢÐµÐ»Ð¸Ð³ Ð¸Ð¾Ð·
ĠÐ°ÑĢ Ð±Ð¸ÑĤ
ĠÐ¾ÐºÐ¾Ð½Ñĩ Ð°Ð½Ð¸Ñı
ĠÑĦ Ð°ÑĢ
ĠÐ¼ ÐµÐºÑģ
ĠÐ¸Ð½Ðº ÑĥÐ±
ĠÐ» Ð¸Ð±
ĠÐ¿ÑĢÐ¸Ñĩ Ð¸Ð½
ĠÑİÑĢ Ð¸Ð¹
Ð¸ ÑĢÐ°ÑĤ
ĠÐ²Ñĭ Ð´Ð°
ĠÑħ Ñĥ
ĠÐºÐ¾Ð»Ð»ÐµÐºÑĤ Ð¸Ð²
ÑĢÐ° Ð´Ð°
ĠÐ³ÐµÑĢ Ð¾Ñı
ĠÑĤÐ°ÑĤ Ð°ÑĢ
Ð¾Ð³ Ð¾ÑĢ
ĠÐ¿Ð¾Ðº ÑĢÐ¾Ð²
ĠÑĤÐµÑħÐ½ Ð¾Ð»Ð¾Ð³
ĠÑģÐ¾Ð²ÐµÑĤ ÑģÐºÐ¾Ð¹
ĠÐ½Ð°ÑĨÐ¸Ð¾Ð½Ð°Ð»ÑĮ Ð½Ð¾Ð³Ð¾
ĠÐ²ÐºÐ»ÑİÑĩ Ð°ÐµÑĤ
ĠÑģÐ¿Ð¾ÑĢÑĤ Ñģ
Ð½Ð°Ñĩ Ð°Ð»Ð°
ĠÐ½Ð°Ð³ÑĢÐ°Ð¶Ð´ ÑĳÐ½
ĠÐ¾Ð± Ð¾ÑĢÐ¾Ð½Ñĭ
Ð¾Ð²Ð°Ð½ Ð¸Ñİ
ĠÐ¿ÑĢÐµ Ð¸Ð¼
Ñħ Ð¾Ð·
ĠÐºÐ½ÑıÐ· ÑĮ
ĠÐ³ Ð¾ÑģÑĤ
ĠÑĢÑĥÐºÐ¾Ð²Ð¾Ð´ Ð¸ÑĤÐµÐ»ÑĮ
ĠÑģÐ¾Ð¾ÑĤÐ²ÐµÑĤÑģÑĤÐ² Ð¸Ð¸
ĠÐ´Ð¾ÑģÑĤ Ð¸Ð¶
Ð¸ Ð¾Ð½Ñĭ
ÐºÐ¸ Ð¿
ĠÐ¶ ÐµÐ½Ð°
ĠÑĦÐ¸Ð»Ð¸Ð¿ Ð¿
ĠÑıÐ·Ñĭ ÐºÐ¾Ð²
ĠÑįÐºÑģÐ¿ ÐµÑĢ
ĠÑĢÐµÐ·ÑĥÐ»ÑĮÑĤ Ð°ÑĤÑĭ
ĠÐ¿ ÑıÑĤÑĮ
ĠÐ¿ÑĢÐµÐ´ Ð¼ÐµÑĤ
ĠÐ¸Ð·Ð´Ð°ÑĤÐµÐ»ÑĮ ÑģÑĤÐ²Ð¾
ĠÑĢÐµÑĪ ÐµÐ½Ð¸Ñı
ĠÑĤÐµÑĢÑĢÐ¸ÑĤÐ¾ÑĢ Ð¸Ð°Ð»ÑĮ
Ð¸ÑĢÐ¾Ð²Ð°Ð½ Ð°
Ð¾Ñħ ÑĢÐ°Ð½
ĠÐ¶Ð¸Ð² Ð¾Ð¿
ĠÐ¼Ðµ Ð¶
ĠÐ³ Ð°Ð²
Ð°Ðº Ñĥ
ĠÐ½Ñĭ Ð½ÐµÑĪ
ĠÐ±ÑĭÑģÑĤ ÑĢÐ¾
ĠÐ·Ð° Ð¿ÑĢ
Ð¾ÑĢ Ð¾Ð¼
ĠÐ¿Ð¾ ÑħÐ¾Ð´
Ð» Ð¸Ð½Ð³
ĠÑģ Ð½Ð°ÑĩÐ°Ð»Ð°
ĠÐºÐ¾ÑĢÐ¾Ð» Ñı
ĠÐºÐ°ÑĢÑĮ ÐµÑĢÐ°
ĠÐ´ Ñİ
ĠÐ°ÑĢÑĤ Ð¸ÑģÑĤ
ĠÐ½Ð° Ð²
ĠÐ·Ð°Ðº ÑĢÑĭÑĤ
Ð¾Ñĩ Ð½Ð¾Ð¹
ĠÐ·Ð½Ð°Ñĩ ÐµÐ½Ð¸Ðµ
ĠÐ¾ÑĤÐ»Ð¸Ñĩ Ð¸Ðµ
ĠÑĤ Ð²ÐµÑĢ
ÑİÑī Ð¸Ð¼
ĠÐ¿ÑĢÐ¾Ð³ÑĢÐ°Ð¼ Ð¼Ñĭ
ĠÐ¸Ð¼Ð¿ÐµÑĢ Ð¸Ñı
ĠÑĥÑĢÐ¾Ð² Ð½Ñı
ĠÑģÐ»ÐµÐ´ÑĥÑİÑī Ð¸Ð¹
ĠÑģÐ°Ð¼ Ð¾ÑģÑĤÐ¾ÑıÑĤÐµÐ»ÑĮ
ĠÐ»ÑİÐ± Ð¾Ð²
Ð¸Ðµ Ð¿
ĠÐ·Ð° Ñĩ
ĠÑģ Ð½Ð¾Ð²Ð°
ĠÐ¿ ÑĭÑĤ
ĠÑįÐ¿ Ð¾Ñħ
ĠÐ¾Ð· Ð½Ð°Ñĩ
ĠÐº Ð»Ð¸
ĠÑģÐµÐ»ÑĮÑģÐ¾Ð² ÐµÑĤÐ°
Ð°Ð´Ð° ÐµÑĤ
Ð¸Ð´ Ñĭ
ÑĳÐ½ Ð½Ð°Ñı
ĠÐ¾Ðº Ðµ
ĠÑģÐµÑĢ Ð´
ÑĪ Ð¸Ð½
ĠÐ¿Ð¾Ð»ÐºÐ¾Ð² Ð½Ð¸Ðº
ĠÑĩ Ð°ÑĢ
ĠÑģÐ¾Ð» Ð´Ð°ÑĤ
ĠÐ°ÐºÑĤÐ¸Ð² Ð½Ð¾ÑģÑĤÐ¸
ĠÑģÑĤÐ°Ð½Ð¾Ð² Ð¸ÑĤÑģÑı
Ð´ Ð°Ð²
Ð¸ÑĢÐ¾Ð² ÐºÐ¸
ĠÑĤ ÑĢÐ°
ĠÑĤÑĥÑĢÐ½ Ð¸ÑĢ
ĠÐºÑĥÐ± Ð¾Ðº
ĠÑĢÐ°ÑģÐ¿Ð¾Ð»Ð¾Ð¶ ÐµÐ½Ð°
ĠÐ±Ð¾Ð»ÑĮÑĪ Ð¾Ðµ
ĠÐ° Ñģ
ÐµÑĢÐ° Ð»ÑĮ
ĠÐ¿Ð¾Ñģ ÑĢÐµÐ´
ĠÐºÐ¾Ð½ÑĨ ÐµÑĢÑĤ
ĠÑĢÐ°Ð· ÑĢÑĥÑĪ
ĠÑģÐ°Ð¼ Ð¾Ð³Ð¾
Ð´ Ñĥ
ĠÐ¿ÑĢÐ¾ÑĪ Ñĥ
ĠÑģÐ» ÐµÐ²Ð°
ĠÑĢÐµ Ð±
ĠÐ² Ð¼
ĠÑĢÐµ ÑģÑĥÑĢ
ĠÐ¸Ð·Ð´ Ð°Ð½Ð¸Ðµ
ĠÐ³ÑĢÐµ ÑĩÐµ
ĠÐ´ÐµÐ¹ÑģÑĤÐ² Ð¸ÑĤÐµÐ»ÑĮÐ½Ð¾
ĠÑı ÐºÐ¾Ð²
ĠÐºÐ¾Ð½ÑĦ ÐµÑĢÐµÐ½
ĠÐ¹Ð¾ÑĢ Ðº
ĠÐ¼ÑĥÐ½Ð¸ÑĨÐ¸Ð¿Ð°Ð» Ð¸ÑĤÐµÑĤ
ÐµÐ³ Ð¾ÑģÑı
ĠÐ¿Ð¾Ð» Ð½Ð¾Ð¼
ĠÐ²ÐµÐ» Ð¸Ñĩ
ĠÐ¿ÐµÑĤ ÑĢÐ¾Ð²
ĠÑĩÐ°ÑģÑĤ ÑĮÑİ
ĠÑĢÐµ ÐºÐ¾Ð¼
ĠÑĢÑĥÐ¼ ÑĭÐ½
ĠÐ¿Ð¾Ð´ ÑħÐ¾Ð´
ĠÐ°ÑĢÑħÐ¸ÑĤ ÐµÐºÑĤÐ¾ÑĢ
ĠÐºÐ¾Ð¼ Ð¸ÑĤÐµÑĤ
ĠÐ´Ð¾Ð³ Ð¾Ð²Ð¾ÑĢ
ĠÐ´ÐµÑĢÐµÐ² Ð½Ðµ
ĠÐ± ÐµÐ³
Ð¾Ð¿ Ð¾Ð»Ð¾Ð¶
ĠÑĤÐ¾ÑĢÐ³ Ð¾Ð²
ÐµÑĢÐ° Ð¼Ð¸
ĠÐ±Ð° ÑģÐº
ĠÐ¸Ð·Ð´ Ð°Ð½Ð¸Ñı
Ð°Ð½Ð¾Ð² Ð°
Ð½Ñİ Ñİ
ĠÑģ ÑĢÐ°Ð¶ÐµÐ½Ð¸Ñı
ĠÑĥ Ð»ÑĮ
Ðº Ð¸Ð¼Ð¸
ĠÑįÐ¿Ð¸Ð· Ð¾Ð´
ÐµÑĢÑĤ Ð²
ÑĥÑīÐµÑģÑĤÐ²ÐµÐ½ Ð½Ð¾
ĠÐ°ÑĢÐ¼ Ð¸Ñı
ĠÐ¿Ð°Ñģ ÑģÐ°Ð¶
ĠÐ» ÑĳÐ³
ĠÐ´Ð²ÑĥÐ¼ Ñı
ĠÐ´Ð¾Ð» Ð»
ĠÐ´Ð¾Ð¼ Ð°ÑĪ
ĠÐµÐ³ Ð¸Ð¿
ĠÐ¿Ð°ÑĢÐ° Ð¼ÐµÑĤ
ĠÑĢÑĭ Ð±
ĠÐ¿ÑĢ Ð¸ÑģÑĤ
ĠÐ²Ð»Ð°Ð´Ð¸Ð¼ Ð¸ÑĢÐ¾Ð²
ÑĢ Ð¾Ð·
ĠÑĢÐµ ÑĦÐ¾ÑĢÐ¼
ÐºÐ¾Ð² ÑģÐºÐ¾Ð³Ð¾
ĠÑħ Ð¾Ñĩ
ĠÑĤ Ð°ÑĢ
ÐµÐ² Ð½Ð°
ĠÐ°Ð½Ð³Ð» Ð¸Ð¸
ĠÐºÑĢÐ°Ñģ Ð½Ð¾Ð¹
Ð¾Ñı Ð½Ð¸Ðµ
ĠÐºÐ¾Ð½ÐµÑĩ Ð½Ð¾
ĠÑģ ÑĦÐ¾ÑĢÐ¼
ĠÐ·Ð°Ð½ ÑıÐ»
ĠÐ·ÐµÐ¼ Ð»Ñı
ĠÐ¿ÐµÑĢ ÐµÑĩ
ĠÐ¼Ð½ ÐµÐ½Ð¸Ðµ
ĠÑģÐ¿ÑĥÑģÑĤ Ñı
ĠÐºÐ°Ðº Ð¸Ðµ
Ð° ÐµÐ²
Ð°Ð´ Ð¶
ĠÐ´Ð¾ ÑħÐ¾Ð´
ĠÐ¾ÑģÑĤ Ð°Ð½Ð¾Ð²
ĠÐ¾Ð´Ð½ Ñĥ
ĠÐ¼Ð¸ÑħÐ°Ð¹Ð»Ð¾Ð² Ð¸Ñĩ
ĠÐµ Ðµ
ĠÐ² Ð°Ð½Ð´
ĠÐºÐ°Ð² ÐºÐ°Ð·
ĠÐ¿ÐµÑħ Ð¾ÑĤ
ĠÐ¿Ð¾Ð² ÑĭÑĪ
ĠÑįÐºÑģÐ¿ Ð»Ñĥ
ĠÐ°Ð´Ð¼Ð¸Ð½Ð¸ÑģÑĤÑĢÐ°ÑĤÐ¸Ð² Ð½ÑĭÐ¹
ĠÑģÑĩÐ¸ÑĤ Ð°ÐµÑĤÑģÑı
ĠÑĢÐµ Ð°Ðº
ĠÑĤÐµÐ°ÑĤ ÑĢÐ°Ð»ÑĮ
ĠÐ¿ ÐµÑĩÐ°ÑĤ
ĠÑģÐ¾Ð²Ð¼ÐµÑģÑĤ Ð½Ð¾
ĠÑĤÐ°Ðº Ð¾Ð³Ð¾
Ð¸ÑĢÑĥ ÐµÑĤÑģÑı
ÑĨÐµÐ½ Ð·
Ð°Ð»ÑĮ Ð½ÑĥÑİ
ĠÑģÑĤ Ð¸Ð»ÑĮ
ĠÐºÐ»Ð°ÑģÑģ Ð°
ĠÐ¿Ð¾Ð¼Ð¾Ñī Ð¸
ĠÑĥÐ´Ð°Ð» ÐµÐ½Ð¸Ðµ
ĠÐ»Ð¸ÑĤÐµÑĢÐ°ÑĤ ÑĥÑĢÑĭ
ĠÐº Ð¾Ð·
ĠÐ² Ð°
ĠÐ´Ð°Ð» ÐµÐµ
ĠÐ½Ð¸Ð´ÐµÑĢ Ð»Ð°Ð½Ð´
ĠÐ¼ Ð°Ñħ
ĠÑĦ Ð°Ð±
ĠÐ½ ÐµÐ»ÑĮ
ĠÐºÑĢÐ°Ñģ Ð½
ĠÐ½ Ð¾ÑĢÐ²
ĠÐ½Ð¾Ð² Ð³Ð¾ÑĢÐ¾Ð´
ĠÐºÐ¾Ð» Ð»ÐµÐº
ĠÑĢÐ°Ð±Ð¾ÑĤ Ð°ÐµÑĤ
Ð½ ÑĮ
ĠÐ¾ ÑĢÑĥÐ´
ĠÐ¿ÑĢÐµ ÑģÑĤ
ĠÐºÐ½Ñı Ð¶Ðµ
ĠÐ±ÐµÑĢ Ð»Ð¸Ð½
Ð´ Ð¾Ð²
ĠÐ¿Ð¾Ð¼ Ð¸Ð¼Ð¾
ĠÐ´Ð¾Ð»Ð¶ Ð½Ð¾ÑģÑĤÐ¸
ĠÐ¿ Ñĭ
Ð¶ ÐµÑĤÑģÑı
ĠÐ·Ð¾Ð»Ð¾ÑĤ Ð¾Ð¹
ĠÐ» Ð¾Ð´
ĠÑģÐ°Ð¼ Ð¾Ð¼
ĠÐ½Ð°ÑĩÐ°Ð»ÑĮ Ð½Ð¸Ðº
ĠÐ¿Ð¾Ð´ÑĢÐ°Ð· Ð´ÐµÐ»
ĠÐ¼ÑĥÐ¶ Ñĩ
ĠÐ°ÑģÑģÐ¾ÑĨ Ð¸
ĠÐ´Ð¶ Ð¾ÑĢ
ĠÑĤ Ð¾Ð¹
ĠÑģÐ¿ Ð±
Ð¸Ð· Ð°
ĠÐ¿ÑĢÐµ ÑģÑģ
ĠÐ²Ð¾ÐµÐ½ Ð½Ð¾Ð³Ð¾
ĠÐ¿ÑĢÐµÐ´Ð¿ÑĢ Ð¸Ð½
ĠÑĢÐ°Ð´Ð¸ Ð¾
ĠÐ°ÑĢÑħ Ðµ
Ð°ÐºÑĤ Ð¸Ð²
ĠÐ¶ÑĥÑĢÐ½ Ð°Ð»Ð°
ĠÑĨÐµÐ» Ð¾Ð¼
ÑĨ Ñĥ
ĠÑĤÑĢÐµÐ± Ð¾Ð²Ð°Ð½Ð¸Ñı
ĠÐ°ÑĢÑħ Ð¸ÐµÐ¿
ĠÐ´Ð¾ÐºÐ°Ð· Ð°ÑĤÐµÐ»ÑĮ
ĠÐ´Ð²Ð¸Ð¶ ÐµÐ½Ð¸Ðµ
ĠÐ½ÐµÐ¿ Ð¾Ñģ
ÐµÐ¼ ÑĭÐ¹
ĠÑĢÑĭ Ð½
Ð¾Ñĩ Ð½ÑĭÑħ
ĠÐºÐ¾Ð¼Ð¼Ñĥ Ð½Ð°
Ð¸Ð½ ÑĮ
ĠÐºÐ¾Ð½ÑĤ ÑĢÐ°ÐºÑĤ
ĠÐ¾Ð¿ Ð°Ñģ
ĠÐ¾Ð¿ÑĢÐµÐ´ ÐµÐ»Ñı
Ð¸ÑĨ Ð¸Ð¹
ĠÐ¿ Ñĥ
ĠÑģÐ¾Ñĩ Ð¸Ð½
ĠÐ½Ð¸Ðº ÑĤÐ¾
Ð³ ÐµÐ»ÑĮ
ĠÑģÐ½ ÑıÑĤ
ĠÐ¸Ð·Ð²ÐµÑģÑĤ Ð½Ð¾
ĠÑĪÐºÐ¾Ð» Ñĥ
Ð°Ð½ Ð½Ð¾Ð¹
Ð¾ÑģÑĤ ÑĢÐ¾
ĠÐ± ÐµÑģ
ĠÐ» ÐµÐº
ĠÐºÐ¾Ð½ÑģÑĤ ÑĢÑĥÐº
Ð¾Ð² Ð°Ð»Ð¾
ĠÐ°Ð²ÑĤ Ð¾Ð±
Ð°Ð´ ÑĮ
ĠÐ¿Ð°Ð² ÐµÐ»
ÐºÐ¾Ð² Ð¾
ĠÑģÐ¾Ð·Ð´ Ð°Ð²
ĠÐ²ÑĢÐµÐ¼ ÐµÐ½
ĠÑĤ ÑĢÐ°ÐºÑĤ
ĠÑįÑĤ Ð½
Ð°Ð² Ð°
ĠÑĪ Ð²ÐµÐ´
ĠÑģÐ¾ÑģÑĤÐ°Ð²Ð»Ñı Ð»Ð¾
ĠÑĥ ÑģÐ»
ĠÐ¿ÑĢÐ¾Ð´ ÑĥÐºÑĤ
ĠÐ´Ð¾Ð»Ð¶ Ð½Ð¾
ĠÑįÐ½ÑĨÐ¸ÐºÐ»Ð¾Ð¿ÐµÐ´ Ð¸Ñı
ĠÐ²Ð¾Ð» Ð¾ÑģÑĤÐ¸
ĠÐ¿ÑĢÐ¾Ð²Ð¸Ð½ ÑĨÐ¸Ñı
ÐµÐ¼ ÑĭÐµ
ĠÐ¿ÑĢÐ¾ ÑħÐ¾Ð´Ð¸ÑĤ
ĠÑĢÐ°Ð· Ð´
Ð¸ÑĤÐµÐ»ÑĮ Ð½Ð°Ñı
ĠÐ¸Ð´ÐµÐ½ÑĤÐ¸ÑĦÐ¸Ðº Ð°ÑĤÐ¾ÑĢÐ°
ĠÑĩÐµÐ»Ð¾Ð² ÐµÑĩ
Ð¸Ð² Ð°ÑİÑĤ
ĠÑĢÐµÐ¶ Ð¸Ð¼
Ð¶Ð´ Ðµ
ĠÐº Ð¸ÑĢÐ¾Ð²
ĠÐ½ ÐµÐ³
ĠÑģÐµÐ¼ ÑĮÐ¸
ĠÑħÐ¾Ðº ÐºÐµ
ĠÑĦÐ¾ÑĤ Ð¾
ĠÑĩ ÑĥÐ²
ĠÐ¸ÑģÑĤ ÑĢÐµÐ±
ĠÐ»Ð°ÑĤ Ð²
ĠÐ³ Ð»Ð°Ð·
ĠÐ´ Ð¸Ð°Ð»
ÐµÐ´Ð¸Ð½ Ðµ
ÑģÑĤÐ²ÐµÐ½ Ð½ÑĭÑħ
ĠÐ°ÑĢÑĤÐ¸Ð»Ð» ÐµÑĢÐ¸Ð¹
ÐµÐ² ÑģÐºÐ¾Ð³Ð¾
Ð¸ÑĤÐµÐ»Ñı Ð¼Ð¸
Ñı Ð»Ð°
ĠÐ±ÐµÐ·Ð¾Ð¿Ð°Ñģ Ð½Ð¾ÑģÑĤÐ¸
ĠÑģÐ»ÑĥÐ¶ Ð±Ñĥ
ĠÑģÑĥÐ¿ ÑĢÑĥÐ³
ĠÐ± ÐµÐ´
ĠÐ¿ÑĢÐµ Ð¾Ð±ÑĢÐ°Ð·
ĠÐºÐ¾Ð½ÑģÑĤ Ð¸ÑĤÑĥ
ĠÐ² Ð¸ÑĢ
ĠÐ² Ð°Ð³
Ð¸Ð½ ÑģÐºÐ¸Ñħ
ĠÑĤÐµ Ð¾ÑĢÐ¸Ð¸
ĠÐ¿ÑĢÐ¾ÑĤÐ¸Ð² Ð½Ð¸ÐºÐ°
ĠÑģÐ±Ð¾ÑĢ Ð½Ð¸Ðº
ÑĢÐ¾Ð¿ Ð¾Ð»Ð¸ÑĤ
ĠÐ´ÐµÐ² ÑĥÑĪ
Ð¸Ð´ Ð¾Ð²
ĠÑĥÐ´Ð°Ð» ÐµÐ½Ð¾
ĠÐ¸Ð½ÑĤÐµÑĢ Ð½ÐµÑĤ
ĠÐº ÑĥÐ»
ĠÐ± Ð°Ñģ
ĠÐ¼Ñĥ Ñħ
ĠÐ¾ÑĤ Ð¿
ĠÐ¾Ð¿ÐµÑĢÐ° ÑĨÐ¸Ð¸
ĠÑĢÐµÐ³ ÑĥÐ»ÑıÑĢ
ÑıÑĤÑĮ ÑģÑı
ĠÐ¸Ð» Ð»Ñİ
ÑĪ Ð¸Ð¼Ð¸
ĠÐ¸Ð½ÐºÑĥÐ± Ð°ÑĤÐ¾ÑĢ
ĠÐ²Ð¾Ð´ Ñĭ
ĠÐ·ÐµÐ» Ñĳ
ĠÐ¿ÑĢÐ¾Ð¸Ñģ ÑħÐ¾Ð´
ĠÐ´Ð¶Ð¾ÑĢ Ð´Ð¶
ĠÐ¶ÑĥÑĢÐ½Ð°Ð» Ð¸ÑģÑĤ
ĠÑĦ Ð¾ÑĢÑĤ
ĠÐ²ÐµÑĢÑģ Ð¸Ñı
ĠÐ» ÐµÐ´
Ð°Ð»ÑĮ Ð´
ĠÑĢÐµ ÑĨÐµÐ½Ð·
ĠÐ±Ð¾Ð¼Ð± Ð°ÑĢÐ´
ÐµÐ½ÑĤ Ð¾Ð¼
ÑĢÐ¾ ÑĪ
ĠÐºÐ¾Ð¼Ð¿Ð¾Ð·Ð¸ÑĤ Ð¾ÑĢ
ĠÐ°Ð· Ð¸Ð¸
ĠÑģÐ¾Ñģ ÐµÐ´
ÑĭÐ² Ð°ÐµÑĤÑģÑı
ĠÐ± ÑĥÐ»
ĠÐ·Ð°Ð¼ÐµÑģÑĤ Ð¸ÑĤÐµÐ»ÑĮ
ĠÑĦ Ð¸ÑĢ
Ð¸Ð· Ð°ÑĨÐ¸Ñı
ĠÐ¾Ð± Ð»
ĠÑĢÐµÐ²Ð¾Ð»Ñİ ÑĨÐ¸Ð¸
ÑĥÐ¼ Ð°Ð½
ÑĳÑĤ ÑĢ
ĠÐ¿Ð¾Ð· Ð¸ÑĨÐ¸Ð¸
ĠÐ¿Ð¾Ð»ÑĮÐ· Ð¾Ð²
ĠÐ¸ÑģÑģÐ»ÐµÐ´ Ð¾Ð²Ð°ÑĤÐµÐ»ÑĮ
ĠÑĥÐ² Ð¸Ð´
ĠÐ²ÑĭÐ½ ÑĥÐ¶Ð´
ĠÑĪ Ð¾ÑĤ
ĠÐ¼ ÑĥÑĢ
ĠÐ°Ð½Ð°ÑĤ Ð¾Ð»
Ð¸Ð² Ð°Ð½Ð¸Ñı
Ð¸ÑĨ Ð¸
ĠÐ¿ÐµÑĢÐµÑĥÐ» Ð¾Ðº
ĠÐ½ ÐµÐ½
ĠÑĩÐµÑĤ Ð²ÐµÑĢ
ĠÐ·Ð°Ð² Ð¸ÑģÐ¸Ð¼
ĠÐ¾ÑĤ ÑĨÐ°
ĠÐ°Ð»ÐµÐºÑģÐ°Ð½Ð´ ÑĢÐ¾Ð²
Ð¾Ð² Ð¾Ðµ
ĠÐ¸Ñģ ÑħÐ¾Ð´
ĠÑį ÑĦ
ÑĤÐ¾ÑĢÐ° Ñı
ĠÐ¿ÐµÑĢÐµÑĪ ÑĳÐ»
ĠÑģÐ»ÑĥÐ¶ Ð¸Ð»
ÑĥÑİÑī ÐµÐ³Ð¾
ĠÐ±Ð¸Ð±Ð»Ð¸Ð¾ÑĤ ÐµÐº
ÐµÑĢ Ð¸Ð¸
ĠÐ¿ÐµÑĢ ÐµÐ³
Ð»Ñı Ð»
ĠÐ¿ÑĢÐµÐ´ ÑĪ
ĠÑĤÑĢÐ°Ð½ Ñģ
ĠÑĤÐµÑĢÑĢÐ¸ÑĤ Ð¾ÑĢÐ¸Ñı
ĠÐ¾ÑĢ Ðº
ĠÐ± Ð¾Ð±
ĠÐ½Ð°ÑĥÑĩ Ð½ÑĭÑħ
ĠÐ¼Ð¸Ð½Ð¸ÑģÑĤÐµÑĢ ÑģÑĤÐ²Ð°
ĠÐ¿ ÑĳÑĤÑĢ
ĠÐ¸ÑģÐ¿Ð¾Ð»ÑĮÐ· Ð¾Ð²Ð°Ð½Ð¸Ðµ
ĠÐº ÐµÐ¼
Ñģ Ð¾Ð»
ĠÐ²Ð»Ð°Ð´ Ð¸Ð¼Ð¸
ĠÐº Ð¾Ð²
ĠÑĩÐ¸Ñģ Ð»Ð°
Ð°Ð» Ð¾Ð¼
ĠÑģÐ¾ ÑĦ
Ð°ÐµÑĤ Ðµ
ĠÐ¿ Ð°Ð´
ĠÑĢÐµÐ¹ ÑĤÐ¸Ð½Ð³
ĠÐ´Ð¾Ð² Ð¾Ð»ÑĮÐ½Ð¾
Ð²Ð° ÑĢÐµ
ĠÐ¿ÐµÑĢ ÐµÐº
Ð°Ð½Ð¸Ðµ Ð¹
ĠÐ¸Ð³ ÑĢÐ°Ð»
ĠÑģÑĤ Ð°Ð±
ÑĥÑģ ÑĮ
ĠÐ·Ð°Ð¿ ÑĢÐµ
ĠÐ± Ð¾ÐºÑģ
ĠÐ² ÑĤÐ¾ÑĢÐ°Ñı
Ð¸ÑĤ Ð°ÑĢ
ĠÐ²Ð¾ÐµÐ½ Ð½Ð¾Ð¹
ĠÐ¸ÑģÐ¿Ð¾Ð»ÑĮÐ· Ð¾Ð²Ð°Ð»
Ñĭ ÑģÐ»
ĠÐ» ÐµÑĩ
ĠÐ½ÐµÐ¿Ð¾Ñģ ÑĢÐµÐ´
ĠÑģ Ð°Ñħ
Ñģ Ñĥ
Ð°Ð´ ÑĨ
ĠÑįÐºÑģÐ¿ÐµÑĢ Ð¸Ð¼
ĠÑģÑĭÐ³ ÑĢÐ°Ð»
ĠÐ² ÑĢÐ°
ĠÐ¿ÑĢÐµÐ´Ð¿ Ð¾Ð»Ð¾Ð¶
Ð¸Ð» Ð¾Ð²
ĠÑģÐ²ÑıÑĤ Ð¾Ð¹
ĠÐ´Ð½ ÐµÐ¿
ĠÑĤÑĥÑĢÐµ ÑĨ
ĠÐ´ÐµÑĤ Ð¸
ĠÐ¿ÑĢÐ¾Ð¸Ð·Ð²ÐµÐ´ ÐµÐ½Ð¸Ð¹
ÐºÐ¾Ð¼ Ð°
ĠÑĨ Ð²ÐµÑĤÐ°
ĠÐ·Ð½Ð°Ðº Ð¾Ð¼
Ð¾Ð´ Ð¾ÑĢ
ĠÐ¿ÑĢÐ°Ð² Ð¾Ðº
ĠÐ¼Ð½Ð¾Ð³Ð¾ ÑĩÐ¸Ñģ
ĠÐ° ÑĢÐ°Ð±
Ð¾ÑĤ Ð¸Ð¿
ÑĢÐ° ÑĪ
ĠÐ¿ÐµÑĢ ÐµÑģÑĤ
ĠÐ¾ÑĩÐµÑĢÐµÐ´ ÑĮ
ĠÑĦÑĢÐ°Ð½ÑĨÑĥÐ· ÑģÐºÐ¸Ð¹
ĠÐº Ð°ÑģÑĤ
ĠÐ´Ð²Ð¾ÑĢ ÑıÐ½
ĠÑģÐ¸Ð»ÑĮ Ð½Ð¾
ÑıÑī Ð¸Ñħ
ĠÐ»ÐµÑĤ Ð¾Ð¼
ĠÐ¸ÑģÐ¿ Ð¾Ð»Ð½Ñı
ĠÐ´Ð¸Ð½Ð°Ð¼ Ð¾
ĠÑģÐ¾Ð¾ÑĤÐ²ÐµÑĤ ÑģÑĤÐ²ÐµÐ½Ð½Ð¾
Ð°Ð½ Ð°Ð²Ð»Ð¸Ð²
ĠÐ¸Ð½ÑĦÐ¾ÑĢÐ¼ Ð°ÑĨÐ¸Ñİ
ĠÑĥÑĩÐ¸Ð»Ð¸ ÑīÐµ
Ðµ ÑģÐº
ĠÐ¾Ð± Ð¾ÑĢÐ¾Ð½
Ð½ ÐµÑĨ
ĠÐ²Ñĭ Ð²Ð¾Ð´
ĠÐ² Ð¸Ð»
ĠÑĪÑĤ ÑĥÑĢ
ĠÐ¿ÑĥÑĤ ÐµÑĪ
ĠÐ°Ð² ÑĤÐ¾ÑĢÐ°
ĠÐ²ÐµÑĢ ÑĤ
ĠÐ°ÑĢÐ³ ÐµÐ½ÑĤ
ĠÑĦÐ» Ð¾ÑĤÐ°
ĠÑģÑĢÐµÐ´ ÑģÑĤÐ²
ĠÑĦÐ¸Ð½ Ð»ÑıÐ½Ð´
ĠÐ¾Ð±Ð¾ÑĢ ÑĥÐ´
ĠÐ±Ð»Ð¸Ð¶ Ð°Ð¹
Ð»Ðµ Ð±
ĠÐ´ÐµÐ¹ÑģÑĤÐ² Ð¸Ð¹
ĠÐ²Ð¾ÐµÐ½ Ð½ÑĭÐ¹
ĠÑģÐµÑĢÑĮ ÑĳÐ·
ĠÑģÐ¾Ð·Ð´ Ð°Ð½Ð¸Ðµ
ĠÐ±ÐµÐ» Ð°ÑĢ
ĠÑĦ Ðµ
ĠÑĦÐ°ÐºÑĥÐ»ÑĮÑĤ ÐµÑĤ
ÐµÐµ Ñħ
ÑĥÐ´ ÑĮ
ĠÐ»ÐµÐ¹ Ð±
ĠÑĢÐ¾Ð± ÐµÑĢÑĤ
ĠÐ´Ðµ ÑıÑĤ
ĠÐ½ÐµÐ¼ÐµÑĨ ÐºÐ¸Ð¹
Ð¼ ÐµÐ¹
ĠÑģÐ¾Ð³ Ð»Ð°ÑĪ
ĠÑħ ÑĢÐ¾Ð½
ĠÑı Ñģ
ĠÐ¿Ð¾Ð±ÐµÐ´ Ñĭ
ĠÐ¼Ð½Ð¾Ð¶ ÐµÑģÑĤÐ²Ð¾
ĠÐ¿ÐµÑĢ ÐµÐµÑħ
ĠÑģ Ð´
ÑĢÐ° Ð»Ð¸
ĠÐ°ÐºÑĤ ÑĢÐ¸ÑģÐ°
ÑģÑĤÑĢ Ð¾Ð¹
ĠÑĪÐ¾ÑĤ Ð»Ð°Ð½Ð´
ĠÑģÐ² ÐµÐ´ÐµÐ½Ð¸Ñı
ĠÑģÐ»ÑĥÑĩ Ð°Ñı
ĠÑģÐ²Ð¾ ÑĳÐ¼
Ð¸Ð¶ Ñĥ
ĠÐ²Ð½ ÐµÑģ
ĠÑĥÐ´Ð°Ð» ÑıÐ»Ð°ÑģÑĮ
Ð¸ÑĢÐ¾Ð² Ð°Ð»Ð¸
ĠÐ¿ÐµÑĤ ÑĢÐ¾Ð²Ð¸Ñĩ
ĠÐ¿Ð¾ÑģÐ»ÐµÐ´ Ð½Ð¸Ðµ
ĠÑĤÐ¾Ð² Ð°ÑĢÐ¸
ĠÑģÑĤÑĢÐ°Ð½ Ðµ
ĠÑģÐµÐ½ÑĤÑıÐ± ÑĢÐµ
ÐµÐ½ Ð½Ð¾Ð¼
ĠÐ¸Ð·Ð¼ÐµÐ½ ÐµÐ½Ð¸Ñı
ĠÐºÐ°Ð·Ð°ÑħÑģÑĤ Ð°Ð½Ð°
ĠÑĢÐ°Ð±Ð¾ÑĤ Ð°ÑĤÑĮ
ĠÑĪ Ð¾Ñĥ
ĠÐ½Ð°ÑħÐ¾Ð´ Ð¸Ð»ÑģÑı
ĠÐ» Ð°Ð·
ĠÐ¿ÑĥÑĤ ÑĮ
ĠÑĨÐµÐ½ÑĤ ÑĢÐµ
ĠÑģÐ¾Ð¾ÑĤÐ²ÐµÑĤÑģÑĤÐ² ÑĥÐµÑĤ
ĠÐ·Ð°Ð¿Ð°Ð´ Ðµ
ĠÐ¾Ð³ ÑĢÐ¾Ð¼
ĠÑĦÑĢÐ¾Ð½ ÑĤÐ°
ĠÑįÐºÑģÐ¿ ÐµÐ´
ĠÑģÐº Ð¾Ð½Ñĩ
ĠÐ¿Ð¾ÑĢÑĤ ÑĢÐµÑĤ
ĠÐ¸ Ð¾Ð°Ð½
ĠÐ¸ÑĤÐ¾Ð³ Ðµ
ĠÑĪÑĤ Ð°ÑĤÐ°
ĠÑĥÐ²Ð°Ð¶ ÐµÐ½Ð¸ÐµÐ¼
Ð¸ ÑĥÐ¼Ð°
ĠÐ·Ð°Ð² Ð¾Ð´Ð°
ĠÐ± Ð¸ÑĢ
ĠÐ°Ð´ Ð¼Ð¸
ĠÐ·Ð°Ð¿ÑĢ Ð¾Ñģ
ĠÑĦÑĢ Ð¸Ð´
ĠÑģÐ²Ð¸Ð´ÐµÑĤ ÐµÐ»ÑĮ
ĠÐ¿ÑĢÐ¾ Ð¸Ð³
ĠÐ¼ Ð¸ÑĦ
ĠÐ¼ÐµÐ¶Ð´ÑĥÐ½Ð°ÑĢÐ¾Ð´ Ð½Ð¾Ð³Ð¾
Ð½ Ð°Ð¼
Ñĥ ÐºÐ°
Ð¾ÑĢ ÑĦ
ĠÐ¾ÑĢÐ´ÐµÐ½ Ð¾Ð¼
ÑĢÐ¾Ð½ Ð¾Ð¼
ĠÐ¿Ð¾Ñģ Ð»
Ð¾Ñı Ð·ÑĭÑĩ
ĠÐ´ÑĥÐ¼ Ð°Ñİ
ÑĢÑĥ Ð»Ð¸
ĠÑĢÐµÑĩ ÑĮ
ĠÐ¿ÐµÑģ ÐµÐ½
Ð°Ð½ Ð½Ð°Ñı
ĠÐ¿Ð¸Ñģ Ð°ÑĤÑĮ
ĠÐ±Ð¾Ð» ÐµÐ·
Ð¾ ÑİÐ·
ĠÐ´ÐµÐ» Ð°ÑĤÑĮ
Ð¸ÑĢÐ¾Ð²Ð°Ð½ Ð¾
ĠÐºÐ° Ð¶ÐµÑĤÑģÑı
ĠÑĩÐ»ÐµÐ½ Ð¾Ð²
ĠÑĢÐµÑģÐ¿ÑĥÐ±Ð» Ð¸ÐºÐ°
Ð°ÑĤ Ñĥ
ÑĥÐ» Ñĭ
ĠÐ·Ð°Ð½ ÑıÑĤ
ĠÑĦÑĢÐ°Ð½ ÑĨÐ¸Ñı
ĠÐ¿Ð¾Ð¶Ð°Ð» ÑĥÐ¹
ĠÑģ Ð½Ñı
ĠÐ¸Ð¼Ðµ ÐµÑĤÑģÑı
ĠÐ¿Ð¸Ñģ Ð°Ð»
Ð³ Ð¸Ð½
ĠÐ¿ÑĢÐ¾ ÑĦ
ĠÑĨÐµÐ½ÑĤ ÑĢÐ¾Ð¼
ĠÐ¿ÑĢÐ°Ð²Ð¸ÑĤÐµÐ»ÑĮ ÑģÑĤÐ²Ð¾
Ð¸ÑĨ Ñĥ
ĠÐºÐ¾Ð½Ñģ ÐµÑĢÐ²
ĠÑĨÐµÐ½ÑĤÑĢÐ°Ð»ÑĮ Ð½Ð¾Ð¹
Ð½Ð°Ð· Ð½Ð°Ñĩ
ĠÐ´ Ð¸Ñģ
ĠÑģÑĤ ÑĢÐ°ÑĤ
ĠÐ¼ÐµÐ´ Ð°Ð»Ð¸
ĠÐ½ Ð¸Ð±
ĠÑĥÐ± Ð¸ÑĤ
ĠÐ¿ÑĢÐ¾ ÑĦÐ¸Ð»ÑĮ
ĠÐ·Ð° Ð±Ð¾Ð»
ĠÑĥÐ´Ð°Ð» ÐµÐ½Ð¸Ñİ
ĠÐ² Ð¾Ð»Ð¾Ð³
ĠÑĢ Ð¸Ñĩ
ĠÑģÐµÐ¼ ÑĳÐ½
ĠÐ²Ð¾Ðº ÑĢÑĥÐ³
ĠÐ± Ð¸Ð·Ð½
ĠÐ¾ÑĤ ÑĩÑĳÑĤ
ĠÐ½Ð°ÑĥÑĩ Ð½ÑĭÐ¹
ĠÐ±ÐµÐ»ÑĮ Ð³
ĠÐ½ Ð¾Ð³
ĠÐ½Ð¾Ð¼Ð¸Ð½Ð° ÑĨÐ¸Ð¸
Ð³ ÐµÐ½
ĠÑģÐ±Ð¾ÑĢ Ð½ÑĥÑİ
ĠÐ¼Ð¾ÑĢ Ðµ
ĠÑĤ Ð¾Ðº
ĠÐ°Ð½Ð³Ð»Ð¸Ð¹ ÑģÐºÐ¸Ð¹
ĠÑĤÐµÐ»ÐµÑģ ÐµÑĢÐ¸Ð°Ð»
ĠÑģÐ¼ ÑĭÑģ
ĠÐ±ÑĢ Ñİ
ÑĥÐ³ Ð¾Ð»ÑĮ
ÑĢÐ° Ð½Ñĭ
ĠÐ¸Ð·Ð²ÐµÑģÑĤ Ð½ÑĭÐ¹
ĠÑĢÐ°Ðº ÐµÑĤ
ĠÐ¿ÑĢÐµÐ´ Ð½Ð°Ð·Ð½Ð°Ñĩ
ĠÐ¼Ð°ÑĤÑĩ ÐµÐ¹
ÑģÑĤ ÐµÑĢ
Ð¾Ñģ Ð½
ĠÐ³Ð¾Ð²Ð¾ÑĢ Ð¸ÑĤ
ĠÑİÑĢ Ð¸Ð´
Ð½Ð¾ ÑĪ
Ð± Ð¸Ð»
ĠÐ°Ð»ÑĮÐ±Ð¾Ð¼ Ñĭ
ĠÐ´ÐµÐ¿Ð°ÑĢÑĤÐ°Ð¼ ÐµÐ½ÑĤ
ĠÐ¼ Ð°Ðµ
ĠÑĥÐ· Ð½
ĠÑģÐµÑĢ ÐµÐ´Ð¸Ð½Ðµ
ĠÑĤÑĢÐµ ÑĤÐ¸Ð¹
ĠÑģ Ð°ÑĢ
ĠÑģ ÑĥÐ´Ð°
ĠÐ± ÑĥÑħ
ĠÐ°Ð´ ÑĢÐµÑģ
ĠÐºÐ¾Ð½ÑģÑĤ ÑĢÑĥÐºÑĤ
ĠÐ¸ÑģÐ¿Ð¾Ð»ÑĮÐ· Ð¾Ð²Ð°Ð½Ð¸Ñı
ĠÑĥÐ¸Ð»ÑĮ ÑıÐ¼
ĠÐ¿ÑĢÐµÐ´ Ð²Ð°ÑĢ
ĠÐ¿ÑĢÐµÐ´ Ð»Ð°Ð³
ÑĤ Ð°Ð½
ĠÐ¼Ð°Ð» ÐµÐ½ÑĮ
ĠÐ´ÐµÑĢ Ð¶
ĠÐ½ÐµÐ¾Ð±ÑħÐ¾Ð´ Ð¸Ð¼Ð¾
ĠÑģÐ°Ð¼ ÑĭÐ¹
ĠÐ·Ð°Ð¿ Ð¸ÑģÐ¸
ÑĥÐ¼ Ðµ
ĠÐ¿ Ð»Ð°ÑģÑĤ
ĠÐ²Ñģ Ñİ
Ð¸ÑĢÐ¾Ð²Ð°Ð½ Ð½ÑĭÐµ
ĠÑĤÑĥÑĢÐ½Ð¸ ÑĢÐ°
ÐºÐ¾Ð½ ÐµÑĨ
ĠÐ» Ð¸Ð¿
ÑĥÑİÑī Ð¸Ð¼
ĠÐ¼ÑĥÐ·Ñĭ ÐºÐ¸
ĠÐ½Ð° Ðº
ĠÐ¸Ð¼ÐµÐ½ ÐµÐ¼
ĠÐºÑĥÑĢ Ñģ
ĠÑĢÑı Ð´Ð°
ĠÐ¸Ñģ Ñĩ
ĠÑĢÐµÐº Ð¾ÑĢÐ´
ĠÑģÑĤÑĢÐ°Ð½ Ð¸ÑĨÐµ
Ð½Ð° Ð¹
ÑĢ Ð¾Ð³
ĠÐ¿ÑĢÐµÐ´ ÑĥÐ¿
ĠÐ¾Ð±ÑĬ ÑĳÐ¼
ĠÐ´Ð°Ð½ Ð½Ð¾Ð¹
ĠÐ² Ð¸Ð¶Ñĥ
Ð¸Ð¼ Ð¾ÑģÑĤÑĮ
ĠÑģÐ¾ÑģÑĤÐ°Ð² Ð°
ĠÑį ÐºÐ¸Ð¿
ĠÐ¿ÑĢÐ°Ð² Ð»ÐµÐ½Ð¸Ñı
ĠÐ¼Ð¾Ð´ ÐµÐ»ÑĮ
ĠÐ¿ÑĢÐ¾ÑĤ ÐµÑģÑĤ
ĠÑĥ ÐºÐ°Ð·ÑĭÐ²
ĠÑıÐ½ Ð²Ð°ÑĢÐµ
Ñĭ Ðº
ĠÑģÐ¼ ÐµÑĪ
ĠÐ°Ð³ ÐµÐ½ÑĤ
ĠÑĥÐ´Ð°Ð» Ð¸ÑĤÑĮ
ĠÐ¼ ÐµÑĢÐµ
Ð¾ÑģÑĤ Ð°Ð½
ĠÐ¿ Ð°Ðº
ĠÑģÐ¾Ð²ÐµÑĢÑĪ ÐµÐ½Ð½Ð¾
ĠÑģÐ¼ Ð¾ÑĤ
ĠÐ¿ ÑĥÐ»
ÐµÐ¼ Ð°
ĠÐºÐ¾Ð¼ Ð¼ÐµÑĢ
ĠÑĦÐ°Ð¼ Ð¸Ð»Ð¸Ñı
ĠÐ¿Ð°ÑĢÑĤ Ð¸Ð¹
ĠÐ°Ð²Ð³ÑĥÑģÑĤ Ðµ
Ð¸ÐµÐ² Ð¸Ñĩ
ĠÑĥÐ¿ Ð¾Ð¼
ĠÐ°Ð± ÑģÐ¾Ð»
ĠÐºÐ° ÑĢÐ°
ĠÐ´Ð¸ÑģÑģ ÐµÑĢÑĤÐ°
ĠÐºÐ½Ð¸Ð³ Ðµ
ĠÑĩ Ð°
ĠÐ¼Ð°ÑĢÑĤ Ðµ
ĠÐ» Ð¾Ðº
ĠÐ´Ð¶ ÐµÐ¹Ð¼
ĠÑģÑĭ Ð½Ð°
ĠÐ¿ÑĢÐ¾Ð¸Ð·Ð²Ð¾Ð´ ÑģÑĤÐ²Ð¾
ĠÑĦÐ¸Ð»ÑĮÐ¼ Ð¾Ð²
Ñĭ Ð¶
ĠÑģÐµÐ¼ÐµÐ¹ ÑģÑĤÐ²Ð°
ĠÑģÐ¾Ð· ÑĭÐ²Ð°
ĠÐ´ Ð¸Ðº
ĠÐ¾ÑĤÐ½Ð¾Ñģ Ð¸ÑĤÐµÐ»ÑĮÐ½Ð¾
ĠÐ¼ Ð¾Ð·
ĠÐ´ÐµÐ±ÑİÑĤ Ð¸ÑĢÐ¾Ð²Ð°Ð»
ĠÐ¿ Ð¸ÑĢ
ĠÐ·Ð² Ð°Ð½Ð¸Ñı
Ñĩ Ð¸ÐºÐ¾Ð²
ĠÐ³ ÑĢÐµÐ±
ĠÐ°Ð±ÑģÐ¾Ð» ÑİÑĤ
ĠÐ±Ð°ÑģÐº ÐµÑĤ
ĠÐº Ð°Ð¹
ĠÐ´Ð°Ð½ Ð½Ð¾Ð¼
ĠÑĦÐ¾ÑĢÐ¼ Ñĭ
ĠÑĥÐ¿ Ð¾ÑĤÑĢÐµÐ±
ĠÐ± ÐµÐ¶
ÐµÐº Ð°ÐµÑĤ
Ð¸Ñĩ Ð½ÑĭÐ¹
ĠÐ± Ð¾Ð¶
ĠÐ¾Ðº ÐºÑĥÐ¿
Ð¸Ðº Ð°Ð¼Ð¸
Ð¼ Ð°Ð½Ð°
Ñĳ Ð¹
ÐµÐ² ÑĭÑħ
ĠÑĥÐº ÑĢÐµÐ¿
ĠÐ¾ÐºÑĤÑıÐ± ÑĢÐµ
ĠÐ°ÑįÑĢÐ¾Ð¿ Ð¾ÑĢÑĤ
ĠÐµÐ²Ð³ ÐµÐ½Ð¸Ð¹
ÑĤÐ° Ð¹
ĠÐ» Ð¸Ðº
Ðµ Ð¸
ĠÐ¸Ð½ÑĤÐµÑĢÐ² ÑĮÑİ
ĠÐ¼ ÐµÐ»ÑĮ
ĠÑĤ Ð²
ĠÐ½ÐµÐ»ÑĮ Ð·Ñı
ĠÑģ Ð»Ð¸ÑĪ
ĠÐ± Ñĥ
ÑģÑĤ Ð¾
ĠÐ¸ÑģÑĤÐ¾ÑĢ Ð¸Ñİ
Ð¸Ð¼ Ð¾ÑģÑĤÐ¸
ĠÐ¿ÑĢ Ð¾ÑģÑĮ
ĠÑĢÐµ Ð²
ĠÑģÐ»Ð¸ÑĪ ÐºÐ¾Ð¼
ĠÐ±Ð¾Ð»ÑĮÑĪ Ð¾Ð³Ð¾
ĠÑ ĳ
ĠÑģÐ¾Ð± Ð¸ÑĢÐ°
ĠÐ¿ÑĢÐµÐ´ Ð»Ð°Ð³Ð°
Ð³ Ðµ
ÐµÐ· Ð´Ðµ
ĠÐ¸Ð½ Ð¸ÑĨÐ¸
ĠÐ½Ð¸Ð± ÑĥÐ´ÑĮ
ĠÐ²ÑĭÑĪ Ð»Ð°
Ð¾Ñĩ Ð½ÑĭÐµ
ĠÐºÐ°Ð» Ð¸Ð½
ĠÑĪÑĤÐ° Ð±
ĠÑģÑĤ ÑĢÐµÐ¼
ĠÐ¿Ð» Ð¾Ñħ
ĠÐ´ Ñĥ
ĠÐ¸Ð½ÑĦÐ¾ÑĢÐ¼ Ð°ÑĨÐ¸Ð¾Ð½
ĠÐºÐ» ÐµÑĤ
ĠÐ¿Ð¾ ÐµÐ·Ð´
ĠÐ½Ð¸Ðº Ð¾Ð³Ð´Ð°
ĠÐ¾Ð» ÐµÐ³
ĠÐ¿Ð¾Ñģ ÐµÑī
ĠÑģÐ¿ÑĢÐ°Ð² Ð°
ĠÐ´ÐµÐºÐ°Ð± ÑĢÐµ
ÐµÐº Ð¾
ĠÐ´Ð¾ ÑĢÐ°Ð±Ð¾ÑĤ
Ð°Ð½Ð¾Ð² Ð¸Ñĩ
Ð¼ Ð¸Ð½Ð°
ĠÑĦÐ» Ð¾ÑĤ
Ðµ ÑĢÐ°Ð½
ÐµÑĢÑģ Ð¾Ð½
ĠÐ¼Ð¸Ð½Ð¸ÑģÑĤ ÑĢÐ°
ĠÐ² Ð¸ÑĨÐµ
ĠÐºÐ¾Ð¼Ð°Ð½Ð´ Ñĥ
ĠÐ¼Ð°ÐºÑģÐ¸Ð¼ Ð°Ð»ÑĮÐ½Ð°Ñı
ĠÐ¿Ð¾ÑģÑĤÑĥÐ¿ Ð¸Ð»
ĠÐ²Ð¾Ð·Ð¼Ð¾Ð¶ Ð½Ð¾ÑģÑĤÐ¸
ĠÐ²ÐµÐ´ ÑĮ
ĠÑĢÐµÐ²Ð¾Ð»Ñİ ÑĨÐ¸Ð¾Ð½
ĠÑĪÐ°Ñħ Ð¼Ð°ÑĤ
ĠÐ¾ÑĢ Ð³
ĠÐ¿ ÑĢÐ°Ð·Ð´
ĠÑĤÑıÐ¶ ÑĳÐ»
Ð¾Ð· Ð¼Ð¾Ð¶
ĠÐ¼ÑĥÐ· ÐµÑı
ĠÐ¿Ð¾Ð´ÑĤ Ð²ÐµÑĢÐ¶Ð´
ÑĨ ÐµÐ¼
ĠÐ¿ÑĢ Ð¾ÑĢ
Ð¸Ð½Ð³ Ð°
ĠÐ¿Ð¾Ð»Ð¸ÑĤ Ð¸ÐºÐ¸
ĠÐ¼ ÑįÑĢ
ĠÐ¼Ð¾Ð½ Ð³
ĠÐ´Ð¾Ð»Ð» Ð°ÑĢÐ¾Ð²
ĠÑģÐ¾Ð² ÑģÐµÐ¼
ĠÐ¾Ð±Ñī ÐµÐ¹
ĠÐ¿ÑĢÐ¾ÑĤÑıÐ¶ ÐµÐ½Ð¸Ð¸
ĠÑĥÑĩ Ð¸Ð»ÑģÑı
ĠÐ¸Ñİ Ð»Ðµ
ĠÑģÐ¾Ð±ÑĭÑĤ Ð¸Ñı
ĠÑģÐ¾ÑģÑĤÐ¾ÑıÐ½ Ð¸Ñİ
ĠÑĥÐ· Ð±ÐµÐº
ĠÑĥÑģÐ»Ð¾Ð² Ð¸ÑıÑħ
ĠÐ¿ÐµÑĢ Ð¼
ĠÑĤÐµÐ»ÐµÐº Ð°Ð½
ĠÑħ Ð²
Ð»Ð° Ð¹
ĠÐ±ÑĢÐ¸ÑĤ Ð°Ð½
ĠÐ· ÑĥÐ±
ĠÐ¿ÑĢ Ð¸Ð¿
ĠÐ¿ÑĢÐ¾Ð´ ÑĥÐº
ĠÐ²ÐµÑģÑĮ Ð¼Ð°
ĠÐ³ Ð°Ð±
ÑĥÐ¼ Ð±
ĠÐ²Ð¾Ð·Ð´ ÑĥÑħ
ÐµÐ»ÑĮ Ð´
ĠÐ·Ð°Ñī Ð¸Ñī
ĠÐºÐ» Ð¸Ð½
ĠÑģÑĬ ÑĳÐ¼
ÑĢ Ð¾ÑĢ
ĠÑģÑİÐ¶ ÐµÑĤ
ĠÐ¼Ð°Ð³ Ð°Ð·
ĠÐ´ ÐµÐ»ÑĮ
ĠÐºÐ»Ð°ÑģÑģ Ð¸ÑĦ
ĠÐºÑĢÐ°Ñģ Ð½Ð¾Ð³Ð¾
Ð° ÑĢÐµÐ²
ĠÐ¾Ð¿ ÑĤ
ĠÐ½Ðµ ÑĦÑĤ
ĠÑĦÐ¾ÑĤ Ð¾Ð³ÑĢÐ°ÑĦ
ĠÐ³ÑĢÐ¸Ð³ Ð¾ÑĢ
ĠÐ»Ð°ÑĥÑĢÐµ Ð°ÑĤ
ĠÐ³Ð¾Ð» ÑĥÐ±
ĠÑĥ ÑĤÐ¾Ñĩ
ÐµÐºÑģ Ñĥ
ĠÐ±ÑĭÐ² ÑĪÐ¸Ð¹
ĠÐ¿ÑĢÐ¾Ð¼ÑĭÑĪÐ»ÐµÐ½ Ð½Ð¾ÑģÑĤÐ¸
ĠÐ¿Ð¾ÑħÐ¾ÑĢÐ¾Ð½ ÐµÐ½
ĠÐ·Ð° Ñģ
ĠÑįÐºÐ¸Ð¿ Ð°Ð¶
ĠÐ¸ÑģÑģÐ»ÐµÐ´ Ð¾Ð²Ð°Ð½Ð¸Ð¹
ĠÑĦ Ð¾Ð½Ð´
ĠÑĦ Ð°Ð½ÑĤÐ°
ĠÐµÑģÑĤ ÐµÑģÑĤÐ²ÐµÐ½
ĠÑĤÐµÐ» Ð°
ĠÑħÐ¾ÑĤ ÐµÐ»
ĠÐ² ÑĢÐ°Ñĩ
ĠÑĥÑģÑĤÐ°Ð½Ð¾Ð² Ð»ÐµÐ½
Ð¸Ð½ Ð°ÑĢ
ĠÐ³ Ð°Ð¼
Ð¸ÑĨ Ð¸Ñİ
ĠÐ¸Ð³ ÑĢÐµ
ÐµÐ» Ð»Ð¸
ĠÐ± Ð¾Ðº
Ð± Ð°Ð½
ĠÐº Ð¸Ð¿
ÑĢÑĭ Ð²Ð°
ĠÐ¿Ð¾Ð±ÐµÐ´ Ð¸ÑĤÐµÐ»ÑĮ
ÑĢÐµ Ñĩ
ĠÐ°Ð¼ÐµÑĢ Ð¸ÐºÐ¸
ĠÑĪ Ð¿
ĠÑĤÐµÐ» ÐµÐ²
ĠÐ²Ð¾Ð´ Ð½Ð¾Ð³Ð¾
Ñį Ð»
Ð² Ñĥ
ĠÑģÐ¿ ÑĥÑĤ
ĠÐ´Ð¸Ð½ Ð°ÑģÑĤ
ĠÐ° ÑģÐ¿
ÑĭÐ² Ð°Ð»
ĠÐ¿Ñģ ÐµÐ²
ĠÑħÐ°ÑĢÑĮ ÐºÐ¾Ð²
Ð¸ÑĢÐ¾Ð²Ð°Ð½ Ñĭ
ĠÑģÑģÑĭÐ» Ð¾Ðº
ĠÐ½Ð¾Ð² Ð¾Ðµ
Ð½Ñĥ Ð²
ĠÐ¿Ð¾Ð² Ð¾Ð´Ñĥ
Ð¾Ð½ Ð¸Ñı
ĠÐºÐ¾Ð» Ð»ÐµÐ´
ĠÐ¾ÑĤ Ð¼ÐµÐ½
ĠÐ¿ ÐµÐ½Ñģ
ĠÑģÐ² ÐµÑĢÑħ
ÑĢ Ð¾ÑĤÐ¸Ð²
ĠÐ²Ð»Ð°Ð´Ð¸Ð¼Ð¸ ÑĢÐ°
ĠÑģÐ»ÐµÐ´ÑĥÑİÑī Ð¸Ðµ
ĠÐ·Ð°ÐºÐ¾Ð½ Ð¾Ð´
ĠÑĤÐµÐºÑģÑĤ Ð°
ĠÐ½Ð°ÑĨÐ¸Ð¾Ð½Ð°Ð»ÑĮ Ð½Ð°Ñı
ĠÐ³Ð¾ÑĢÐ¾Ð´ Ð¾Ð²
ĠÐ¾Ð±Ñī ÐµÑģÑĤÐ²Ð¾
ĠÐ¿Ð¾Ð»ÑĥÑĩ Ð¸Ð²
ĠÐ³ÑĢÐ°Ð¶Ð´Ð°Ð½ ÑģÐºÐ¾Ð¹
ĠÐºÐ¾ÑĤÐ¾ÑĢ Ð¾Ð¼Ñĥ
Ð°ÑĢ Ð´Ð°
ĠÐ¿Ð¾Ð´ Ð²ÐµÐ´
ÐµÐº Ð¾Ð¼
ĠÑģÐµÑĤ Ð¸
ĠÐ¾ ÑħÑĢÐ°Ð½
ĠÐ¾Ð¿ÐµÑĢÐ° ÑĨÐ¸Ñı
ĠÑĢÑĥÑģ ÑģÐºÐ¸Ñħ
ĠÐ²Ð¸Ð´Ðµ Ð¾
ĠÐ¿Ð¾Ð· Ð¸ÑĨÐ¸Ñı
ĠÐ¼Ð¾Ð³ Ð»Ð¸
Ð¸ÑĤ Ð¾Ð²
ĠÐ¼ÑĥÐ½Ð¸ÑĨÐ¸Ð¿ Ð°Ð»ÑĮÐ½Ð¾Ð³Ð¾
Ð¸Ñĩ Ð½ÑĭÑħ
ĠÑģÐºÐ¾ÑĢ ÐµÐµ
ĠÐ± Ð¾ÑĢÑĤ
ĠÐ¿ÑĢÐµ Ð¶Ð´Ðµ
ĠÑħÐ°ÑĢÐ°ÐºÑĤÐµÑĢ Ð¸ÑģÑĤ
ÐµÐ½ Ð½ÑĭÐ¼Ð¸
ĠÐºÐ¾Ð½Ñģ ÐµÐ½Ñģ
ĠÐ½Ð°Ð· Ð°Ð´
ĠÐ¼ÑĥÐ·Ñĭ ÐºÐ°
Ð¸Ñĩ Ð½ÑĭÐµ
ĠÑģÐµÐ¼ ÑĮÑı
ÐµÐ½ Ð½Ð¾ÑģÑĤÑĮ
ĠÐ¾Ð± Ðµ
ÐµÑĢÐ°ÑĤ Ð¸Ð²
ĠÐ¿Ð¾Ð·Ð²Ð¾Ð» ÑıÐµÑĤ
ĠÐ²Ñĭ ÑĢÐ°Ð¶
ĠÐ³ÑĥÐ±ÐµÑĢÐ½ Ð°ÑĤÐ¾ÑĢ
Ð¼ Ð¾Ð²
ĠÑĪ ÐµÑĢ
ĠÐ°Ð¿ Ð¿Ð°ÑĢÐ°ÑĤ
Ð¾ÑĢ ÐµÑĩ
Ð¾Ñĩ Ð½Ð¾Ð³Ð¾
ĠÐºÑĢÐµ Ð¹
ĠÑģÐ¾Ð¿ ÑĢÐ¾Ð²
ĠÐ³ÐµÐ½ ÑĢÐ¸Ñħ
ĠÐ¿Ð¾Ð´ Ð°Ð²
ĠÑĦÐ» Ð¾ÑĢ
ĠÑģÐ»Ð°Ð² Ñĭ
ĠÐ°ÑĢÑħÐ¸ÐµÐ¿ Ð¸ÑģÐºÐ¾Ð¿
ĠÐ± ÐµÐ¹
Ñħ Ð¾
ĠÐ¶ÐµÐ»ÐµÐ· Ð½Ð¾Ð¹
Ñĩ Ð°Ð¹
ĠÑģ Ð»Ð°Ð±
ĠÐ¸Ñİ Ð½Ðµ
ĠÑģ ÐµÐ´
ĠÑħ ÑĥÑĤ
ĠÑĢÐ°Ð·Ð»Ð¸Ñĩ Ð½ÑĭÐµ
Ð¾Ð¿ÑĢ Ð¸ÑıÑĤ
ÑĢ Ð¸ÑĨ
ĠÑĤÐµÐ¼ Ð°ÑĤ
ĠÐ¾Ð¿ ÐµÑĢ
ĠÐ´ ÐµÑģ
ĠÑģÑĤ Ð°ÑĢÑĤ
ĠÐ¸Ð· Ð½Ð°Ñĩ
ĠÑĦÑĥÐ½Ðº ÑĨÐ¸Ð¾Ð½
ĠÑĤÐµÐº ÑĥÑī
ĠÑģÑĤ Ð°
ĠÐ¾ÑĢÐ³Ð°Ð½Ð¸Ð· Ð°
ĠÐµÐ¶ ÐµÐ³Ð¾Ð´
ĠÑĢÐ°ÑģÑģÑĤ Ð¾ÑıÐ½Ð¸Ðµ
ĠÐ½Ð°ÑħÐ¾Ð´ ÑıÑĤÑģÑı
ĠÐ·ÐµÐ¼ Ð»Ðµ
ÑĨ ÐµÐ½ÑĤ
Ð»Ñı ÑİÑĤÑģÑı
ĠÐ¾ÑģÑĤÐ°Ð² Ð¸ÑĤÑĮ
ĠÐ·Ð² ÐµÐ·Ð´Ð°
ĠÐ¿ÑĢÐ¾ÑĤ Ð¾ÐºÐ¾Ð»
ĠÑĩ ÑĥÐ´
ĠÐ¿ÑĢÐµÐ·Ð¸Ð´ Ð¸ÑĥÐ¼Ð°
Ð½Ð¸Ðº Ðµ
ĠÐ¿ Ð»ÐµÐ½
ĠÐ²Ð¾ÐµÐ½ Ð½ÑĭÑħ
ĠÐ¸Ð·ÑĢÐ° Ð¸Ð»ÑĮ
ĠÐ²ÐµÑĢÐ¾ÑıÑĤ Ð½Ð¾
ĠÐ½Ð°ÑĥÑĩ Ð½Ð°Ñı
ĠÐ¿Ð¾Ð» ÐµÐ·
ĠÐ²ÑĭÑģ Ð¾ÑĤ
ĠÐ°Ð½ Ð½Ð°
Ð°ÑİÑī ÐµÐ¹
ĠÐ¿Ð¾ÐºÐ°Ð· Ð°Ð½Ð°
ĠÑįÑģÐº Ð°Ð´
ĠÐ½Ð° Ð¸Ð¼ÐµÐ½
ĠÑģ Ð°Ð±
ĠÑħ Ð°Ð¹
ĠÐ±Ð¾ÐµÐ² ÑĭÑħ
ĠÐ¸Ð· Ð³Ð¾ÑĤÐ¾Ð²
ĠÐ² ÑĢÑĥÑĩ
ÐµÐ½ Ð½ÑĥÑİ
ĠÑģÐ¾Ð± Ð¾ÑĢ
ĠÐ³Ð°Ð· ÐµÑĤÑĭ
ĠÐ²Ð°Ð» ÐµÐ½ÑĤ
ĠÑģÑĤÐ¾ÑĢÐ¾Ð½ Ñĥ
ĠÐ¿ÑĢÐ¾ÑĪ Ð»
ĠÐ¿ÑĢÐ¸Ð³ Ð»Ð°ÑĪ
ĠÐ»Ð¾Ð½Ð´ Ð¾Ð½
ĠÑ ĸ
Ð¾Ñģ Ðµ
ĠÐµÐ² ÑĢÐµ
ĠÐ¼Ð¾Ð³ Ñĥ
ĠÐ¿ÑĢÐ¸Ð½Ð¸Ð¼ Ð°Ð»
ĠÐ°Ð´Ð¼Ð¸Ð½Ð¸ÑģÑĤÑĢÐ°ÑĤÐ¸Ð² Ð½Ð¾
ĠÑģ Ð°ÑĤ
ĠÐ¿ÑĢÐµÐ´ÑģÑĤÐ°Ð² Ð¸ÑĤÐµÐ»ÑĮ
ĠÐ¿Ð°Ð¼ ÑıÑĤÑĮ
ĠÐ¿ÐµÑĢÐµÐ² ÐµÐ´
Ð¾Ð»Ð¾Ð³ Ð¸ÑĩÐµÑģÐºÐ¸Ñħ
ĠÑģÐ¾Ð¿ ÑĢÐ¾ÑĤÐ¸Ð²
ÑĨ Ð¸
ÑģÑĤÐ²ÐµÐ½ Ð½Ð¾Ð³Ð¾
ĠÐ½ÐµÐ¹ ÑĤ
ĠÑĥÑģ Ð¸Ð»
ĠÐ·Ð°Ð¿ÑĢÐµ Ñī
ĠÐº ÑĥÐ´Ð°
ĠÑģ Ð¼Ð¸
Ð¾Ð¹ Ð´
ĠÐ²ÑĭÐ¿ Ð¾Ð»Ð½Ñı
Ñı Ð½Ð°
ĠÑģÐ¾Ð²ÐµÑĤ ÑģÐºÐ°Ñı
ĠÐ¿ ÑģÐº
ĠÐ¾Ð· ÐµÑĢÐ¾
ĠÐºÐ»Ð¸Ð¼ Ð°ÑĤ
ĠÐ²Ð¸Ð´ Ð°
ĠÐ¿Ð¾Ð±ÐµÐ´ Ñĥ
ĠÑıÐ²Ð»Ñı Ð»ÑģÑı
ĠÐ²ÑĭÐ¿ ÑĥÑģÑĤ
ĠÐ¿ÑĢÐ¾Ð¸ÑģÑħ Ð¾Ð¶Ð´ÐµÐ½Ð¸Ñı
ĠÐ°Ð± Ð´
ĠÑĥÐ´ Ð¾ÑģÑĤÐ¾
ÑĢÐ¾Ð´ Ðµ
ĠÐ¿ÑĢÑıÐ¼ Ð¾
ĠÐ±ÐµÐ»Ð¾ÑĢ ÑĥÑģÑģÐ¸Ð¸
ĠÑģÐµÐ¼ ÑĮ
ĠÑĪÑĤÐ° Ð±Ð°
ĠÐ¿ÑĢÐ¸ÑĢ Ð¾Ð´
ĠÐ´ ÑĢÑĥÐ¶
Ð°Ð² ÑĪÐ¸Ñħ
ĠÐ¼Ð¾ÑģÐºÐ¾Ð² ÑģÐºÐ¸Ð¹
ĠÑįÑĦÑĦ ÐµÐºÑĤÐ¸Ð²
ĠÐ·Ð°Ð¿ Ð°Ñģ
ĠÐ°Ð¿ÑĢ ÐµÐ»Ðµ
ĠÐ¾ ÐºÐ°Ð·ÑĭÐ²
ĠÐ¿Ð°Ð¼ÑıÑĤ Ð¸
Ð¾Ð² ÑģÐºÐ¾Ð¼
ĠÐ¿Ð¾Ñģ Ð°Ð´
Ð¾Ð´ ÐµÐ¹ÑģÑĤÐ²
ĠÐ¿ÑĢÐ°Ð²Ð¾ÑģÐ»Ð°Ð² Ð½Ð¾Ð¹
ĠÐ³ÑĢÐ°Ð¶Ð´Ð°Ð½ ÑģÑĤÐ²Ð¾
Ð¾Ð» Ñİ
Ð¾Ð² ÐµÑĢ
ĠÐºÐ°ÑĤ Ð°Ð»Ð¾Ð³
Ð¸ÑĨ ÐºÐ¸Ð¹
ĠÐºÐ°ÑĢÑĮ ÐµÑĢÑĭ
Ð» Ð¾Ð½Ð°
ĠÐ¸ ÐµÑĢ
Ð¾ÑĢ Ð´Ð¸Ð½
ĠÐ³Ð¾ÑģÑĥÐ´Ð°ÑĢ ÑģÑĤÐ²
Ðº Ð°ÑĢ
ĠÐ¼ ÑĭÑĪ
ĠÐ¿Ð¾Ð» Ð°Ð³
Ðº ÑĤÐ°
ĠÐ¾Ð±ÑĢÐ°Ð· Ð¾Ð²Ð°Ð½
ĠÐ°ÐºÑĤÐ¸Ð² Ð½Ð¾
ÐµÐ½ Ð´Ð°
ĠÑĥ ÑģÑĤÑĥÐ¿
ĠÐ¿Ð¾Ð»ÑĮÑĪ Ð¸
ĠÐ±Ð°Ð· Ðµ
ĠÐ¿Ð°ÑĢÑĤ Ð¸Ð·
ĠÐ¾ÑĤ Ñĩ
ÑĥÑĩ Ð¸
ĠÑİÐ³ Ð¾ÑģÐ»Ð°Ð²
ĠÑģÑĢÐµÐ´ Ð½ÐµÐ¹
ĠÐ±Ð°ÑĪÐº Ð¸ÑĢ
ĠÐ² Ð¾ÑģÑĮ
ĠÐºÐ¾Ð½ Ð³
ĠÐ¾Ð±ÑıÐ· Ð°Ð½
ĠÐ¿Ð¾Ð´ Ð²ÐµÑĢÐ³
ĠÑıÐ² Ð½Ð¾
ĠÐ³Ð²Ð°ÑĢÐ´ Ð¸Ð¸
ĠÑĦÐ¸Ð³ ÑĥÑĢ
ĠÐº ÑģÑĤ
ĠÐ»ÐµÐ³ ÐºÐ¾
Ð°Ð¼ ÐµÑĤ
ĠÐ¼Ð°ÑĤÐµÑĢÐ¸Ð°Ð» Ñĭ
ĠÐ¼ÐµÑģÑı ÑĨÐµÐ²
ĠÑĢ Ð¾ÑĤ
ĠÑĥÑĩÐ°ÑģÑĤ Ð¾Ðº
ĠÐ½Ð°Ð´ Ð¿
ĠÑĥ Ð²ÐµÑĢ
ĠÐºÐ°ÑĢÑĤ Ðµ
ĠÐ·Ð°Ð½Ð¸Ð¼ Ð°Ð»ÑģÑı
ĠÑģ Ð°Ð¼Ð¸
ĠÐ²Ð¾Ðº Ð°Ð»
Ð¸ÑĤÐµÐ»ÑĮ Ð½ÑĭÐ¼
ĠÐµÐ²ÑĢÐ¾Ð¿ Ðµ
ĠÐ¾Ð±Ñī ÐµÐ³Ð¾
ĠÑģÐ²ÑıÑī ÐµÐ½
ĠÐ·Ð°ÐºÐ¾Ð½Ð¾Ð´ Ð°ÑĤÐµÐ»ÑĮ
ĠÐ³Ð»Ð°Ð² Ðµ
ĠÑĥÐºÑĢÐ° Ð¸Ð½Ð°
ĠÐ¿Ð¾Ð»ÑĥÑĩ Ð¸Ð»Ð¸
ĠÐ¿ÑĢÐ¸Ñĩ ÑĳÐ¼
ĠÐ± Ð°ÑĢÐ°
ĠÑģÐ¿ Ð°ÑĢÑĤ
Ð´Ð° ÐµÑĤÑģÑı
Ð¸ÑĢÐ¾Ð²Ð°Ð½ Ð½ÑĭÑħ
ĠÐ²Ð¾ÑģÑĤÐ¾Ðº Ñĥ
ĠÑĢ Ð¾Ð³
ĠÐº Ð¾Ð¶
ĠÑįÐºÑģÐ¿Ð»Ñĥ Ð°ÑĤÐ°
Ð¸Ð½ Ð¾Ð¼
ĠÐ¾Ð± Ð°
ĠÑģÑĤ Ð¸Ð»
ĠÐ» Ð¾Ñģ
ĠÐ¼ÐµÐ¼ Ð¾ÑĢ
ĠÑģÑĥÐ´ ÑĮÑı
ÐµÑĨ ÐºÐ¸Ð¹
ĠÐ»ÑİÐ± Ð¾Ð¹
ĠÑĤÐ°Ðº Ð¸
ĠÐ´ÐµÐ¿ÑĥÑĤ Ð°ÑĤÑĭ
ĠÐ¿ÐµÑĢ ÐµÑĢÐ°
ĠÑģÐ² Ñı
Ð¸Ð½ Ð´
ĠÐ³ÑĢÑĥÐ¿Ð¿ Ðµ
ĠÐ·Ð°Ð´Ð° Ñĩ
ĠÐ¿ÐµÑĢÐ²Ð¾Ð½Ð°Ñĩ Ð°Ð»ÑĮÐ½Ð¾
Ð° ÑĦ
ĠÐ¼Ð°ÑĢ Ð¸
ĠÐ³ Ð²
ĠÑĩÐµÑĤÐ²ÑĳÑĢ ÑĤ
ĠÐ½ÐµÐ² Ð¾Ð·Ð¼Ð¾Ð¶
ĠÑĦÐµÑģÑĤ Ð¸Ð²
ĠÐ·Ð°Ðº Ð°Ð·
ĠÐ²Ð¾ÑĢÐ¾Ð½ ÐµÐ¶
ĠÑģÐ¸ÑģÑĤÐµÐ¼ Ðµ
ĠÐ³Ð¸ÑĤ Ð°ÑĢÐ°
ĠÐ¼ Ð³
ĠÑĤÐµÐ» ÐµÐ²Ð¸Ð´
ÐµÑĦ Ð°
ĠÑĥÑĢÐ¾Ð² ÐµÐ½ÑĮ
ĠÑĢ Ð¾Ñģ
ĠÑģÑĢÐµÐ´ ÑģÑĤÐ²Ð°
ĠÐºÑĥÐ»ÑĮÑĤ ÑĥÑĢÐ°
ĠÐº ÑĢÐµÐ¼
ĠÐ¾Ð±ÑĬ ÑıÑģÐ½
ĠÐ¾ÑĢ Ð»Ð¾Ð²
ĠÐ¾ÑĤ ÑĢÐ°Ð¶
ĠÐºÐ¾Ð½ÑĨ ÐµÐ¿
ĠÐ½Ð°ÑĩÐ¸Ð½ Ð°Ñı
ĠÐ±Ð¾Ð³ Ð°ÑĤ
Ð¾ Ð¾Ð±ÑĢÐ°Ð·
ĠÐ¿Ð¾ÑıÐ² Ð¸Ð»Ð¸ÑģÑĮ
ĠÐ¼ Ð¸
Ð· Ð¸Ð¸
ÐµÑĢ Ð¾ÑģÑģ
ĠÑĢ Ðº
ĠÐ³ÑĢÐ¸Ð³ Ð¾ÑĢÑĮ
ĠÑĩ ÐµÑĩ
ĠÑĥÐ¿ÑĢÐ°Ð² Ð»Ñı
ĠÑĥÐ´Ð°Ð» ÐµÐ½Ð°
ĠÐµÐ¿Ð°ÑĢÑħ Ð¸Ð¸
ĠÐ´Ð¾Ð¼ Ðµ
ĠÐ¿ÐµÑĢÐ¸ Ð¾Ð´Ð°
ÑģÑĤÑĢ ÐµÐ»
ĠÑĥÑĢÐ¾Ð² Ð½Ðµ
ĠÐºÐ¾Ð¼Ð¸ÑģÑģ Ð¸Ð¸
ĠÐ² ÑĢÐ¾Ð´Ðµ
ĠÐ± Ð¾Ð½
ĠÑĥÐºÐ°Ð· Ð¾Ð¼
ÑģÑĤÐ²ÐµÐ½ Ð½Ð¾Ð¹
ĠÐ¿ÑĢÐµ ÐµÐ¼
ĠÐ²Ð¾ ÑģÐº
ĠÐ¿ÐµÑĢÐ² ÐµÐ½
ĠÑĩÐµÐ¼Ð¿ Ð¸Ð¾Ð½Ñĭ
ĠÐ´ÐµÐ» Ðµ
ĠÐ½Ð¾ÑıÐ± ÑĢÐµ
ĠÑĨ Ðº
ĠÐ¿Ð¾Ð¶Ð°Ð»ÑĥÐ¹ ÑģÑĤÐ°
Ð¾ÐºÑĢÐ°ÑĤ Ð½Ð¾
ĠÐ¸Ð³ Ð¾ÑĢÑĮ
ĠÐ¼Ð°Ñģ ÑģÐ°
Ð» ÐµÐ²
ĠÐ³ÐµÑĢÐ¼ Ð°Ð½Ð¸Ñı
Ñ Ĺ
ĠÐ»Ð¸ÑĨ ÐµÐ½Ð·
ĠÐº Ð¾ÑĪ
ĠÐ°Ð½Ð°ÑĤÐ¾Ð» Ð¸Ð¹
ĠÐ¾ÑĦÐ¸ÑĨÐ¸Ð°Ð»ÑĮ Ð½Ð¾
ĠÑģÐ´ÐµÐ» Ð°Ð»
ĠÐ²Ð¸Ð´ Ñĭ
Ðº ÑĥÑĤ
ĠÐ´Ð²Ð° Ð¶Ð´Ñĭ
Ð¾Ð» Ð¸
ĠÐ²Ð· ÑıÑĤ
ĠÐ²ÑģÐµÐ¼ Ð¸ÑĢ
ÑĢ Ð³
ĠÐ½Ð°ÑĢÑĥÑĪ ÐµÐ½Ð¸Ðµ
ĠÑģÑĥÐ´ ÑĮ
ÑĥÐ»Ð¸ ÑĢÐ¾Ð²
ĠÑħÐ¾Ð·ÑıÐ¹ ÑģÑĤÐ²Ð°
ĠÐºÑģÑĤ Ð°ÑĤÐ¸
ĠÐ³ÑĢÐ°Ð½ Ð¸ÑĨÑĭ
ĠÑħÐ¾ÑĢ Ð²Ð°ÑĤ
ĠÐ³ ÑĥÑģ
ĠÑĢÐµÐ¹ Ð½
ĠÑģÑĥÐ± ÑĬ
ÐµÑĢ Ñĥ
ĠÑģÐ¾ÑģÑĤÐ¾Ñı Ð½Ð¸Ðµ
ÑģÑĤÐ²ÐµÐ½ Ð½ÑĭÐµ
ĠÑģÑĤÐ°ÑĤÑĮÑı Ñħ
ÑĢ Ð´
Ð¸ÑģÑĤ Ð°Ð½Ð°
ĠÑģÐ²Ð¾ Ð¸Ð¼Ð¸
ĠÐ¼ÑĥÐ·ÑĭÐº Ð°Ð½ÑĤ
Ð½Ð°Ð´ ÑĨ
ĠÑģ ÑĢÐ°Ð¶
ĠÐ½Ð°Ð¹ Ð´
ÐµÑĢ Ð¸Ñı
ĠÐ¿ÑĢÐ¸Ð½Ñı ÑĤÐ¾
ĠÐ³ Ð½
ĠÐºÐ¾Ð½ÑĤ Ð¸Ð½
Ð¾Ñĩ Ð½Ð°Ñı
ĠÐ¸Ð¼ ÐµÐ»Ð¸
ĠÐ°Ð½ Ð¸Ð¼
ĠÑĢÐ¾Ð´ Ð¸Ð²ÑĪÐ¸ÐµÑģÑı
ĠÑģÐ»Ð¾Ð² Ð°Ð¼
Ð° Ð¾
ĠÑĤ ÑĢÐ°Ð¼
ĠÑģÐ° ÑĢÐ°ÑĤ
ĠÐ½ÐµÐ¼ Ð½Ð¾Ð³Ð¾
ÑıÑī Ð¸Ð¹
ÐµÑģÑģ Ð°
ĠÐ¿ÑģÐµÐ² Ð´
Ñĳ Ð²Ð°
ĠÐ½Ð°Ð¿ ÑĢÑı
ĠÐ¼Ð°ÑĤÐµÑĢ Ð¸
ĠÑģÑĤ ÐµÐ½
ĠÐ¿Ð¾ÑĢ ÑĥÑĩ
ÑĥÑİÑī ÐµÐ¹
ĠÑĤ ÐµÐ½
ĠÐ´ÐµÑĢÐµÐ² ÑıÐ½
ĠÑĤÑĢÐµÐ½ ÐµÑĢÑĭ
ĠÑģÑĩÐ¸ÑĤÐ° Ñİ
ĠÐ¿ÑĢ Ð¸Ðµ
ĠÑĢÐ°Ð· Ð½ÑĭÐµ
ĠÑĤÐµÐ¼ Ñĥ
ĠÐ¼ Ð¾ÑĤÐ¸Ð²
ĠÐ»Ð¸Ñĩ Ð½Ð¾
ĠÐ¿ÑĢÐ¾Ñģ Ð¿
ĠÐ° Ðµ
Ð´ Ð°Ð½
ÑĢÐµÐ´ ÐµÐ»
ĠÐ¿ÐµÑĢÐµÐ´Ð° ÑĩÐ¸
ĠÐ¿ Ð¸
ĠÐ¸ÑģÑĤÐ¾ÑĩÐ½Ð¸Ðº Ð°Ñħ
ĠÑģ ÐµÑģÑĤ
ĠÑĦÐµÐ²ÑĢÐ° Ð»Ðµ
ĠÐ¸ÑģÑĩ ÐµÐ·
Ð¾Ð»ÑĮ ÑģÐºÐ¸Ð¹
ĠÐºÐ°Ð½ Ð°Ð´
ĠÑĪÐ¸ÑĢÐ¾Ðº Ð¾
ĠÑĥÐ¿Ð¾Ð¼Ð¸Ð½ Ð°ÐµÑĤÑģÑı
ĠÑģÑĤÑĢÐ°Ð½Ð° Ñħ
ĠÑħ Ð°Ð»
ĠÐ¾Ð±Ð»Ð°Ð´ Ð°ÑĤÐµÐ»ÑĮ
ĠÑģÐ¿ÐµÐºÑĤ Ð°Ðº
ĠÑĦÑĥÑĤÐ±Ð¾Ð» Ð¸ÑģÑĤÑĭ
ĠÑģÐºÐ¾ÑĢ Ð¾ÑģÑĤÑĮ
ÑĢÐ° ÑĨÐ¸Ñı
ĠÐ·Ð°Ñī Ð¸ÑĤÑĭ
ĠÐ± ÑĥÑĤ
ÑĪ Ð¸
ĠÐ²Ð»Ð°ÑģÑĤ ÑĮ
ĠÑģÐ¸Ð½ ÑĤ
ĠÐºÐ»ÑĥÐ± Ðµ
ĠÐ´ Ð¸ÑĢ
ĠÐ± Ð°Ð³
ÑĮ ÑıÐ½
Ñĳ Ðº
ĠÐ²ÑģÑĤÑĢÐµ ÑĩÐ°
ĠÑģÐºÐ¾Ð½Ñĩ Ð°Ð»ÑģÑı
ĠÐ½Ð°Ñĩ Ð°Ð»Ð¸
Ð¾Ð² ÑģÐºÐ¾Ðµ
ĠÑĦÐ°ÐºÑĤ Ð¸ÑĩÐµÑģÐºÐ¸
ÑĢÐµ ÑĤÐ°
ÑİÑī ÐµÐµ
ĠÐ¶ ÑĳÐ»
Ð»Ð° Ñħ
ĠÑģÐº Ð»Ð¾Ð½
ĠÐ¼ Ð¾ÑĤ
ÑĳÐ½ Ð½ÑĭÐ¼
ĠÐ¿Ð¾Ð± ÐµÑĢÐµÐ¶
ĠÐ½Ð°ÑĢÐ¾Ð´ Ð¾Ð²
ÑģÑĤ Ð°Ð½
ĠÐ½Ð¾Ð²Ð¾Ñģ Ð¸Ð±Ð¸ÑĢ
ÐµÐ½ ÑģÐºÐ°Ñı
ĠÐ¿ÑĢÐµÐ´ÑģÑĤÐ°Ð² Ð¸ÑĤÐµÐ»ÐµÐ¹
ĠÐ²ÐµÐ»Ð¸Ðº Ð¾Ð³Ð¾
ĠÐ¼ÐµÐ¶Ð´ÑĥÐ½Ð°ÑĢÐ¾Ð´ Ð½ÑĭÐ¹
ĠÑģ ÑĨ
ĠÑĥÐ¼ ÐµÐ½ÑĮ
ĠÐ±Ð°ÑĪÐº Ð¾ÑĢÑĤ
ĠÑĦÐ°ÐºÑĥÐ»ÑĮÑĤ ÐµÑĤÐ°
ĠÐ±Ð°Ð½ Ðº
Ñı ÑİÑĤ
ĠÑĥÐ»Ð¸ÑĨ Ðµ
Ð°Ñī Ð¸ÑĤ
ĠÐ¾ÑĤÐ² ÐµÑĩ
ĠÐ¾Ð´Ð½Ð¾ Ð¸Ð¼
ĠÐ·Ð°ÑģÐ» ÑĥÐ³Ð¸
Ð± Ð¾Ð¹
ĠÐ³ ÑĢÑĥ
ĠÐ´ ÑĢÑĥÐ·
ĠÐ³Ð»ÑĥÐ± Ð¾Ðº
ĠÑģÑĤÑĢÐ°ÑĤ ÐµÐ³
ÐµÐ¼ Ð¾Ð¹
ĠÐµÐ´Ð¸Ð½ Ð¸ÑĨÑĭ
ĠÐ½Ð°Ð¿Ð¸Ñģ Ð°Ð½Ð¾
Ð² Ð´
Ð· Ð¸
ĠÐ·Ð´ ÑĢÐ°Ð²
ĠÐ½ Ð¸Ð¼Ð¸
ĠÑģÐ¿ Ð¾ÑĢ
ÑĢ ÐµÐ»
ÑĥÐ»ÑĮ Ð¼Ð°Ð½
Ð°Ð½Ð³ ÐµÐ»ÑĮ
Ð´ Ð¾Ð½
ĠÑĤÐ°Ðº Ð°Ñı
ĠÐ¿Ð¾Ð´ Ðº
ĠÑĤÐ¾Ñĩ Ð½Ð¾
ĠÑĢÐµ ÐºÐµ
ÐµÑħ Ð½
ĠÑģÐ»ÑĥÑĩÐ°Ñı Ñħ
ĠÐ»Ð¸Ð³ Ðµ
ÑĤÐ¾ÑĢ Ñĭ
ĠÐ» Ð¸ÑĨÐ°
ĠÐ¿Ð°ÑĤÑĢÐ¸ Ð°ÑĢÑħ
ĠÐ¼Ð¾Ð½Ð°ÑģÑĤÑĭ ÑĢÑĮ
ĠÐ·Ð°Ð± Ð¸Ð»
ĠÐ½Ð°Ð·ÑĭÐ² Ð°ÐµÑĤÑģÑı
ĠÐ± Ð°Ñħ
ĠÑģÑĤÐ°Ð½ Ð¸ÑģÐ»Ð°Ð²
ĠÐ¾ÑĤÐ½Ð¾ÑĪ ÐµÐ½Ð¸Ð¸
Ð¸Ð½ ÐºÐ¸
ĠÐ²ÑģÑĤ ÑĢÐµÑĤ
ĠÐ´Ð¸ ÑĢÐµÐº
ĠÐ½Ð¸ÐºÐ°Ðº Ð¸Ñħ
Ð½ Ð°ÐºÐ¾Ð¼
ĠÐ¿ÑĢÐµ Ð¾Ð±
ĠÐ±Ñĭ ÑģÑĤÑĢ
Ð¾Ñĩ ÐºÐ¸
Ð² Ð°Ð¹
ĠÐ²Ð¾Ð»Ð¾Ð³ Ð¾Ð´
ÑĨÐ¸Ð¾Ð½ Ð½ÑĭÐ¹
ĠÐ°ÑĤ Ð°Ðº
ĠÐ¾ÑĤÐ´ÐµÐ» ÐµÐ½Ð¸Ñı
ĠÐ¿ÐµÑĤÐµÑĢÐ±ÑĥÑĢÐ³ Ðµ
ĠÐµ ÑĢ
Ñĳ ÑģÑĤ
Ð°Ð¼ Ð¼
ĠÐ´Ðµ ÑģÑı
ĠÐ·Ð½Ð°Ñĩ Ð¸ÑĤÐµÐ»ÑĮÐ½Ð¾
ĠÐ³ÑĢÑĥÐ¿Ð¿ Ñĥ
ĠÐ¿ÑĢÐ¸Ñĩ Ð¸Ð½Ðµ
ĠÑģÐ¼ ÑĭÑģÐ»
ĠÐ¾ÑģÐ² ÐµÑī
ĠÐº Ð°Ð»Ð¸ÑĦ
ĠÑģÐ¼ ÐµÐ½
ĠÑĦÑĢÐ¸Ð´ ÑĢÐ¸Ñħ
ĠÑĢÑĥÑģ ÑģÐºÐ°Ñı
ĠÑģÐµÐ»ÑĮ ÑģÐº
ĠÐ½Ð°ÑĢÐ¾Ð´ Ð½ÑĭÐ¹
ĠÑĥÑĤÐ¾Ñĩ Ð½
ĠÑĢ ÑıÐ·
ĠÑĢÐ°Ð· Ð°
ĠÑĤÑĥÑĢ Ðº
ĠÐ·Ð°Ð¿Ð°Ð´ Ñĥ
ĠÐ¿Ð¾Ð¼Ð¾Ñī ÑĮ
ĠÑģÑĤ Ð¸Ð²
ĠÐ¾Ð± Ð»Ð°Ð´Ð°
ÑĢÐµ ÑĤÑĮ
ĠÐ¿Ð°ÑĢÐ° Ð»Ð»
ĠÐ¾Ð±ÑĬÐµÐºÑĤ Ð¾Ð²
ĠÑģÐ¸ÑĤÑĥ Ð°ÑĨÐ¸Ñı
ÑĤÐµÑĢ Ð½
ĠÐº Ð¾Ðº
ĠÐ½ÐµÐºÐ¾ÑĤÐ¾ÑĢ Ð¾Ðµ
ĠÑģÐ¼ÐµÑĢ ÑĤÑĮ
Ð²ÐµÑĢ Ð´
Ð² Ð°Ð»
Ð¸Ð½ ÑģÐºÐ¸Ðµ
ÐµÐ¼ Ð¿
ĠÐº Ð°Ð»ÑĮ
ĠÐ·Ð½Ð°Ñĩ Ð¸ÑĤ
ĠÐ» ÑĳÑĤ
ÑĦ Ð¸Ð¼
ĠÑģÐµÐ»ÑĮÑģÐº Ð¾ÑħÐ¾Ð·ÑıÐ¹
ĠÑģÐ¾Ðº ÑĢÐ°Ñī
ĠÐºÐ°Ð»Ð¸ÑĦ Ð¾ÑĢ
ĠÑįÐº ÑĢÐ°Ð½
ĠÐ³Ð°Ð· ÐµÑĤÐ°
ĠÐ¾ÑģÐ²Ð¾Ð± Ð¾Ð¶Ð´
Ð¿ ÐµÐ´
Ð°Ð½ Ð½Ð¾Ð³Ð¾
ĠÐ¾Ð± Ð·
ĠÐ¿ÑĢÐµÐ´ÑĪ ÐµÑģÑĤÐ²ÐµÐ½
ĠÑĢÐ°Ð² Ð½Ð¾
ĠÐ¼Ð¾Ð´ ÐµÐ»Ð¸
ĠÐ¼Ð¾ÑĢ ÑģÐºÐ¾Ð¹
ĠÐ¾ÑĤÐ½Ð¾ ÑģÑıÑĤ
ĠÐ½Ð¸ÐºÐ¾Ð» Ð°Ñı
ĠÐ¿ ÐµÐ½
ĠÑĥÐ´Ð°Ð» ÐµÐ½Ð¸Ñı
ĠÑĢÐ¾Ð´ Ð¸Ð»Ð°ÑģÑĮ
ĠÐ³Ð¾Ñģ Ð¿Ð¾Ð´
ĠÐ±Ð¾ÑĤ Ð°Ð½
ĠÐºÐ¾Ð½ÑĤÑĢ Ð¾Ð»
ĠÐ¸Ð½Ð¾ÑģÑĤÑĢÐ°Ð½ Ð½ÑĭÑħ
ĠÑĦ Ð°
ÑĪ ÐµÐ¼Ñĥ
Ð°Ð² ÑĪÐ¸Ðµ
ĠÑĦÑĢÐ¾Ð½ ÑĤ
ĠÐ¿ÑĢÐ¾Ð³ÑĢÐ°Ð¼ Ð¼Ð°
ĠÐ²Ð¾Ñģ Ð¿ÑĢ
Ð¿ Ð»
Ð½ ÑĥÑĤÑĮ
ĠÐ·Ð´ Ð¾ÑĢÐ¾Ð²
ĠÐ°Ð´Ð¼Ð¸Ð½Ð¸ÑģÑĤÑĢÐ° ÑĨÐ¸Ð¸
ĠÐ· ÑĢÐ¸ÑĤ
ĠÐ¾ÑģÐ½Ð¾Ð²Ð°Ð½ Ð¸Ð¸
ĠÐ¸ Ð¾Ñģ
Ð¾Ñĩ ÐºÐ°
ĠÐ´ÐµÐ» Ð°
ĠÐ»Ð¸Ð½ Ð¸Ñı
ĠÐº Ð»Ð°Ð²
ĠÑĤ ÐµÐ½Ð½
ĠÐ¿Ð¾Ðº Ð¸Ð½
ĠÐ°Ð²ÑģÑĤÑĢÐ°Ð» Ð¸Ð¸
ĠÑĦÐ¾ÑĢÐ¼ Ðµ
ĠÐºÑĢ Ð¸Ð²
Ð¾Ð² Ð¾Ð»ÑĮ
ĠÐ¿Ð¸Ñģ Ð°ÑĤÐµÐ»Ð¸
ĠÐ¿ÑĥÑĤÐµÑĪ ÐµÑģÑĤÐ²
ĠÐ²ÑĤÐ¾ÑĢ Ð¾Ðµ
ĠÐ¿ÑĢÐ¾Ð±Ð»ÐµÐ¼ Ð°
ĠÐ»ÑĥÑĩ ÑĪÐ¸Ñħ
ĠÑĢ Ð¾Ð²
ĠÐ·Ð° ÑģÑĤÐ°Ð²
Ð¾Ð½ ÑĮ
ĠÑĩÐ¸ÑģÐ»ÐµÐ½ Ð½Ð¾ÑģÑĤÑĮ
ĠÐ¼Ð¾Ð» Ð´Ð°Ð²
ÐµÑĤ Ð¾Ð²
ĠÐ¼Ð¾Ð½Ð°ÑģÑĤÑĭ ÑĢÑı
ĠÐ¼ Ð°Ð¼
ĠÑĢÐ°ÑģÑĤ ÐµÐ½Ð¸Ð¹
ĠÑĤÑĥÑĢÐ½Ð¸ ÑĢÐµ
ĠÐ¾ÑĢ Ð¸ÐµÐ½ÑĤ
ÑĢÐ°Ð± Ð°ÑĤ
ÑĦ Ð¾ÑĢ
Ð¸Ð² Ð°Ð½Ð¸Ðµ
ĠÐ¸Ð½ Ð³
ĠÐ±Ð°ÑģÑģ ÐµÐ¹Ð½
ĠÑģÐµÐºÑĢÐµÑĤ Ð°ÑĢÑĮ
ĠÐºÑĢÐ¸ÑģÑĤ Ð°Ð»
ĠÑģ Ð¾Ð¶
Ð¸Ð¹ ÑģÐºÐ°Ñı
ĠÐ´Ð¾ÑĢÐ¾Ð³ Ð°
ÐµÐ² ÑĭÐµ
ĠÐ¾Ð· ÐµÑĢÐ°
ĠÐµÐ´Ð¸Ð½ÑģÑĤÐ²ÐµÐ½ Ð½ÑĭÐ¹
ĠÐ¾ÑĤ ÑĤ
ĠÑĤ ÐµÑģÑĤ
ĠÐ¿ÑĢÐµÐ´ÑģÑĤÐ°Ð² Ð¸ÑĤÐµÐ»Ð¸
ĠÐ²Ð»Ð°Ð´Ð¸Ð¼Ð¸ÑĢÐ¾Ð² Ð¸Ñĩ
ĠÑĤÐµÑħ Ð½Ð¸ÐºÐ¸
ĠÑĤÐ²Ð¾ÑĢ ÑĩÐµ
ĠÐ¸Ð´ ÑĳÑĤ
ĠÐ½Ð° Ð²Ð¸Ð³
ĠÑĢÐµÐ³Ð¸Ð¾Ð½ Ðµ
ĠÐ²Ð°ÑĢ ÑĪ
ÑĢÑı Ð´Ð°
ĠÑıÐ·Ñĭ ÐºÐ¸
Ð¸ÑģÑĤ Ð¾Ð¼
ĠÐºÐ°Ð½ Ð°Ð»
ĠÐ±ÑĢÐ¸Ð³ Ð°Ð´Ñĭ
ĠÑģÐ¾ÑģÑĤÐ¾Ñı Ð»Ð°ÑģÑĮ
ĠÑģÐ¸Ð» Ñĥ
ĠÐ¿ÑĢÐµÐ´ÑģÐµÐ´ Ð°ÑĤÐµÐ»Ñı
ÐµÑģ Ð»Ð°Ð²
ĠÐ¸Ð½Ð´ Ð¸Ð²
ĠÑģÐ¾Ð´ÐµÑĢÐ¶ Ð¸ÑĤ
ĠÐ°ÑģÑĤ ÑĢÐ¾Ð½Ð¾Ð¼
ĠÑĩ ÑĳÐ¼
ĠÐ¸Ð½ÑģÑĤÐ¸ÑĤÑĥÑĤ Ðµ
Ð¸ÑĢÐ¾Ð² Ð°Ð»Ð°
ĠÐºÐ½Ð¸Ð³ Ñĥ
ĠÐ¿ÑĥÑĤ ÑĳÐ¼
ĠÐ¼ÑĥÐ¶Ñĩ Ð¸Ð½Ñĭ
ĠÐ¿ÑĢÐµÑģ Ð»ÐµÐ´
ĠÐ¿ÑıÑĤ Ð¸
ĠÑģÐ¾Ð·Ð´ Ð°ÑĤÑĮ
ĠÐ¿Ð¾Ñħ Ð¾Ð¶
Ñĳ ÑĢÐ¾Ð²
ĠÐ½Ð°Ð»Ð¸Ñĩ Ð¸Ðµ
ĠÐ² Ð¾Ð²
ĠÐ¾ÑĤÐ´ÐµÐ» Ð°
ĠÐ¼ÐµÐ½ÑĮ ÑĪÐµ
ĠÐ½Ð°Ð¿ÑĢÐ°Ð² Ð»ÐµÐ½Ð¸Ñı
ĠÐ² Ð°Ð»ÑĮ
ĠÐ¿ Ð¸Ñī
ĠÐ¿ÑĢÐ¸Ð± Ñĭ
ĠÑħ ÑĢÐ°Ð¼Ð°
ĠÐ±Ð¾Ð»ÑĮÑĪ ÑĥÑİ
ĠÑĩÐµÐ»Ð¾Ð²ÐµÑĩ Ðµ
ĠÐ¼ÐµÐ¶Ð´ÑĥÐ½Ð°ÑĢÐ¾Ð´ Ð½Ð¾Ð¹
ĠÐ¾ÑģÐ½Ð¾Ð² Ð½ÑĭÑħ
ĠÑĥÐ¼ÐµÐ½ÑĮ ÑĪ
ĠÑĪÐº Ð¾Ð»ÑĮ
ĠÑģÑĥÐ´ ÐµÐ±
ĠÐ²ÑĭÐ± Ð¾ÑĢÐ°Ñħ
ĠÐ¼Ð¾Ð³ Ð¸Ð»
ĠÐ²Ð¸Ð´ Ð¸Ð¼
ĠÑģÐ¾Ð²ÑĢÐµÐ¼ ÐµÐ½Ð½Ð¾Ð¹
ĠÐ´Ð°Ð»ÑĮÐ½ÐµÐ¹ ÑĪÐµÐ¼
ĠÐ¸Ð·Ð½Ð°Ñĩ Ð°Ð»ÑĮÐ½Ð¾
ĠÑĢÐµÐ·ÑĥÐ»ÑĮÑĤÐ°ÑĤ Ð°Ð¼
ĠÐ·Ð°Ð³ Ð»Ð°Ð²
Ð°Ð¹ ÑĤ
ĠÐ½Ð°Ð¿ Ð°Ð´
ĠÐ¿Ð¾ ÑĪ
Ð¸Ð´ Ðµ
ĠÐ¿ÑĢÐ°Ð² Ð´Ð°
ĠÐ½Ð°ÑĢÐ¾Ð´ Ð½Ð¾Ð³Ð¾
ĠÐºÐ¾Ð¼Ð¼ÐµÑĢ ÑĩÐµ
ĠÐ¿ÑĢÐ¾ÑĤÐ¸Ð² Ð¾ÑĢÐµÑĩ
ĠÐ´Ð¸Ð¿Ð»Ð¾Ð¼ Ð°ÑĤ
ĠÐ¼ÑĥÑģ ÑĥÐ»ÑĮÐ¼Ð°Ð½
Ð°Ð³ Ð°
ĠÐ° Ð½Ð°
ĠÑĢ ÑĥÐ±Ð»
Ð»ÐµÐ½ Ð´
ĠÐ²Ð½ÑĥÑĤ ÑĢÐ¸
ĠÐ± ÑĥÐ¼
ĠÐ¶Ð¸Ð²Ð¾ÑĤ Ð½ÑĭÑħ
ĠÐ¸Ð¼Ð¿ÐµÑĢÐ° ÑĤÐ¾ÑĢÐ°
ĠÐ´Ð¾Ð½ ÐµÑĨ
ÐµÐ» ÐµÐ½
ĠÑģÐ¸Ð³ Ð½
ĠÐ´Ð¾Ðº ÑĤÐ¾ÑĢÐ°
ĠÑģÐ»Ð¾Ð² Ð°ÑĢÑĮ
ĠÐ·ÐµÐ¼ ÐµÐ»ÑĮ
ÑĢÐ°ÑĤÑĮ ÑģÑı
ĠÐ±Ð¸Ð·Ð½ ÐµÑģ
ĠÐ´Ð¾Ð± ÑĢÐ¾Ð²
ĠÐ´Ð² Ð¾ÑĢÐ¾Ð²
ÑĢ Ð¾ÑĤ
ĠÐºÐ¾ÑĢÐ°Ð± Ð»Ñı
ĠÐºÐ½ÑıÐ· Ñı
ĠÑģ Ð°Ð½ÑĤ
ĠÐ²ÐµÐ»Ð¸Ðº Ð¸Ð¹
ĠÐ¼ÐµÐ¶Ð´ÑĥÐ½Ð°ÑĢÐ¾Ð´ Ð½ÑĭÑħ
ĠÐ¿Ð¾ÑĤ ÐµÐ½ÑĨ
ĠÐ²Ð¾Ð¹ÑģÐº Ð°Ð¼Ð¸
ĠÐ¿ÑĢÐµÐ´Ð»Ð¾Ð¶ ÐµÐ½Ð¸Ðµ
ĠÑģÑĤ Ð¸Ð»Ðµ
ĠÐ¿Ð¾Ð»ÑĥÑĩ Ð¸ÑĤÑĮ
ĠÐ·Ð°Ð²Ð¸ÑģÐ¸Ð¼ Ð¾ÑģÑĤÐ¸
ÑĮ ÐµÑĢÐ°
ĠÐ½Ð°Ñģ ÑĩÐ¸ÑĤ
ĠÐ¿Ñĭ ÑĤÐ°
ĠÐ²Ñģ ÐµÑĢÐ¾ÑģÑģ
ĠÐºÑĢÐ°Ñģ Ð½ÑĭÐ¹
ĠÐ²ÑģÑĤÑĢÐµÑĩ Ð°ÐµÑĤÑģÑı
ĠÐ¸ÑĤÐ¾Ð³ Ð¸
ĠÐ°ÑĤ Ð»ÐµÑĤ
ĠÑĥÑĢÐ¾Ð² Ð½ÐµÐ¼
ÑĤÐ¾ÑĢ Ð¾Ð²
Ñĩ Ð°Ð½
Ð°Ð² Ð°ÑĢ
ĠÑĩ ÐµÑĪ
ĠÐºÐ°ÑĢÑĤ Ð¸Ð½Ñĭ
ĠÐ´Ð¾Ñĩ ÐµÑĢÐ¸
ĠÑģÐ¾Ð±ÑĭÑĤ Ð¸Ð¹
ĠÐ¶ ÐµÑģÑĤ
ĠÑģÐ¿Ð¾ÑĢÑĤÑģ Ð¼ÐµÐ½
Ð¾Ð² Ð°Ð»ÑģÑı
Ð¸Ð¾Ð½ Ð°
Ðº ÐµÑĢ
ĠÐ±ÑĥÐ´ ÑĥÑĩÐ¸
Ð¾Ð² ÑĥÑİ
ĠÐ²ÑĭÑģ ÑĪÐµÐ¹
ÑĢÐ°Ð½ ÑĤ
ĠÑģÑĢÐµÐ´ Ð½Ð¸Ð¹
ĠÐ¸Ð½Ð´ Ð¸Ð¸
ĠÑĢÑĥÑģ ÑģÐºÐ¾Ðµ
ĠÑģ ÑĥÑĢ
ĠÐ²ÑĭÐ¸Ð³ ÑĢÐ°Ð»
Ð¾Ð¿ Ð¾Ð»
ĠÐ²ÑĤÐ¾ÑĢ Ð¾Ð¼
ĠÐ½Ð°ÑĢÐ¾Ð´ Ð°
ĠÐ¾Ð±Ñī ÐµÑģÑĤÐ²
ĠÑģÐ¾Ð· Ð´Ð°
ĠÐ¾ÑĤÑģÑĥÑĤÑģÑĤÐ² Ð¸Ðµ
ĠÑįÐºÑģÐ¿ÐµÑĢÐ¸Ð¼ ÐµÐ½ÑĤ
ĠÑĢÐ¾ÑģÑģÐ¸Ð¹ ÑģÐºÐ¾Ð³Ð¾
ĠÐ¾ÑĢ Ð¸ÑģÑģ
ÑģÐ» ÑĥÐ¶
Ðµ Ð¶Ð´
ĠÐ³ Ð°Ð¹
ĠÐ¾ÑģÑĤ Ð°Ð»ÑĮÐ½ÑĭÐµ
ĠÑģÐ°Ð¼ Ð°
ĠÑĤÑİ ÑĢÑĮ
ĠÐ³Ð¸Ð¼ Ð½Ð°Ð·
ÑĤÐ° Ð¶
ĠÑĢ ÑĥÑĩ
ĠÑģÑĤÐ¾ÑĢÐ¾Ð½ Ðµ
Ð± Ð¾
ĠÐ» Ð¾ÑĢ
Ð¸Ñħ Ð°
ÐµÐ· Ð°
ĠÐºÐ¾Ð½ ÐµÑĨ
ĠÐ¸ÑģÑĤÐ¾ÑĢ Ð¸Ðº
ĠÐ³ Ð¾ÑĤ
ĠÑģ Ð¾Ð½
Ð·ÑĭÐ²Ð° ÑİÑĤ
ĠÐ¿Ð¾ÑģÑĤÐ¾ÑıÐ½ Ð½Ð¾
Ð½ ÐµÐ¼Ñĥ
ĠÑĤÐ¸ ÑĢÐ°Ð¶
ĠÐ¿ÑĢÐ¾Ð´ Ð°Ð¶
ĠÐ¿Ð¾ÑħÐ¾ÑĢÐ¾Ð½ ÐµÐ½Ð½ÑĭÐµ
ĠÐ´ÐµÐ¿ÑĥÑĤ Ð°ÑĤ
ĠÐºÐ¾Ð¼ ÐµÐ´
ĠÑįÐ½ÑĨÐ¸ÐºÐ»Ð¾Ð¿ÐµÐ´ Ð¸Ð¸
ĠÐ¿ÑĢÐµÐ¸Ð¼ ÑĥÑīÐµÑģÑĤÐ²ÐµÐ½Ð½Ð¾
ĠÐ¸Ð·Ð± Ð¸ÑĢÐ°ÑĤ
ĠÑĤÐµÐ¾ÑĢ ÐµÑĤ
ĠÐ³Ð»Ð°Ð² Ð½Ð¾Ð¹
ĠÑĩ Ð¶
ĠÑħÑĥÐ´Ð¾Ð¶ Ð½Ð¸ÐºÐ¾Ð²
ĠÐ¾Ñħ Ð¾ÑĤ
ĠÐ¿ÑĢÐ°Ð² ÐºÐ¸
ĠÐ¼ Ð¸Ð³
ĠÐºÐ¾Ð¼Ð¼ÑĥÐ½ Ð¸ÑģÑĤ
ĠÐ½Ðµ ÑĥÐ´Ð°
ÑĳÐ½ Ð½Ð¾Ðµ
ĠÑģÐ¾Ð¾Ð±Ñī ÐµÐ½Ð¸Ðµ
ĠÐ½Ð°ÑĩÐ°Ð»ÑĮ Ð½Ð¸ÐºÐ°
Ñĥ ÑĤÐ°
ĠÑģÑĢÐµÐ´ Ð½ÐµÐ²
ĠÐ´ Ð¸ÑģÑĤÐ°Ð½
ĠÐ¿ÐµÑĤ ÑĢÐ°
ĠÐ°Ð½ Ð´Ð¶
ĠÐ¿ ÑĢÐ°
ĠÐ» Ð°ÑĢ
ĠÐ¿ÑĢ Ð¾Ð½
ĠÐ¿Ð¾ÑģÑĤ ÑĢÐ¾Ð¹
Ð°ÑĤÐµÐ»ÑĮ Ð½ÑĭÑħ
ĠÐ¸Ð¾Ñģ Ð¸ÑĦ
ĠÐ¸Ñģ Ð»Ð°Ð¼
ĠÐ¾ ÑĦ
ĠÐ¸Ð· Ð¼ÐµÑĢ
ĠÐ· Ð¾
Ð°Ð»Ð¸Ð· Ð¼
ĠÑĦÑĢÐ°Ð½ Ñģ
ĠÐ¿ÑĢÐ¾Ð´ÑİÑģ ÐµÑĢ
ĠÐ¾Ð¶ Ð¸Ð´
ĠÐ³Ð¾ÑĢ ÑĮ
ĠÑģÐ¿Ð¸ÑģÐº Ð¸
ĠÐ·Ð²ÐµÐ·Ð´ Ñĭ
ĠÑĥÐºÑĢÐ° Ð¸Ð½Ðµ
ĠÑĩ Ð°Ð¹
ĠÐ¿Ð¾Ñģ ÐµÑĤ
ĠÐ±Ð¾ÑĢÑĮ Ð±Ðµ
Ñĩ Ð¸ÐºÐ¸
ĠÐ·Ð°ÑıÐ² Ð¸Ð»
ÑĨ Ð¾Ð¼
ĠÐ°Ð²ÑĤÐ¾Ð± ÑĥÑģ
ĠÐ¾Ð±Ñī ÐµÐ¼
ĠÑģÑĤÐ°ÑĤÐ¸ÑģÑĤ Ð¸ÐºÐ°
ĠÐ±Ð¾Ñı Ñħ
ĠÐ² Ð»
ÐµÐ² Ð°Ñı
ĠÑĪ Ð¾ÑģÑģ
ĠÐ¾Ñģ Ð°Ð´
Ð¾Ð²Ð¸Ñĩ Ð°
Ð¾Ð² Ð¾Ð¼
ĠÐ² Ð½Ðµ
ĠÐµÐºÐ°ÑĤÐµÑĢ Ð¸Ð½
Ð¸ÑĢÐ¾Ð² ÐºÐ°
ĠÐ°Ð½Ð³Ð»Ð¸Ð¹ ÑģÐºÐ¾Ð¼
ĠÐ¾Ð´ ÐµÑĢÐ¶
ĠÐºÐ°Ð½ÑĤ Ð¾Ð½
ĠÐºÐ°ÑĢ ÑĤÐ¾Ñĩ
Ð°Ð½ Ð¾Ð¼
ÐµÐ¹ ÑĤ
ĠÐ´Ð°Ð½ Ð½Ð¾Ð³Ð¾
ĠÑģÐ¿Ð¸ÑģÐº Ðµ
ĠÐºÐ¸Ñģ Ð»
ĠÐ° ÑĥÐ´
Ñħ Ð¾Ð·Ð°
ĠÐ¸Ð·Ð²ÐµÑģÑĤ Ð½ÑĭÑħ
ĠÑĢÐµÑĩ Ð½Ð¾Ð¹
ĠÑĢÐ°ÑģÑģÑĤ Ð¾ÑıÐ½
ĠÐ¿ÑĢÐµÐ´Ð¿ÑĢÐ¸Ð½ Ð¸Ð¼
ĠÑįÐ´ Ñĥ
ĠÐºÐ¾Ð½ÑĤÑĢ Ð¾Ð»ÑĮ
ĠÑħÐ¾ÑĤ ÑĮ
ĠÐ½Ð°Ñĥ ÐºÐ°
ÐµÐ¼ Ð¾Ð³Ð¾
Ñį Ð´
ĠÑĢÐµÑĪ Ð¸Ð»
ĠÑĢÐµ ÐµÑģÑĤÑĢÐ°
ĠÑĤÐµÐ¼ Ðµ
ĠÑģÐ¾ÑĨÐ¸Ð°Ð»Ð¸ÑģÑĤ Ð¸ÑĩÐµÑģÐºÐ¾Ð³Ð¾
ĠÐ²Ð¿ Ð»Ð¾ÑĤ
ĠÐ¿Ð»Ð¾ÑĤ Ð½Ð¾ÑģÑĤÐ¸
ĠÑį Ñģ
ÑĥÐ¿ ÑĢÐ°Ð²
ĠÐ¾Ð·Ð½Ð°Ñĩ Ð°ÐµÑĤ
ĠÐ¸ÑĤ Ð°Ð»Ð¸Ñı
ĠÑģÐ¾ÑĤÑĢÑĥÐ´ Ð½Ð¸ÑĩÐµ
Ð¸Ñĩ Ð½Ð¾Ð¹
ĠÑĤÐ¾Ð¼ Ð°Ñģ
ĠÐ½Ð¸ÐºÐ¾Ð»Ð° ÐµÐ²
ĠÐ¿Ð¾ÑģÐ»ÐµÐ´ Ð¾Ð²Ð°ÑĤÐµÐ»ÑĮ
ĠÐ¼Ð°ÑĤ ÑĩÐ°
ĠÑģÐ¾Ð²ÐµÑĤ ÑģÐºÐ¸Ñħ
ĠÐ¾ÑĤÐµÑĩ ÐµÑģÑĤÐ²ÐµÐ½
ĠÐ½Ð°Ð¿Ð¸Ñģ Ð°ÑĤÑĮ
ĠÑģ Ð°Ð¿
ĠÐ¿Ð¾Ðº Ð¾Ð»
ĠÑĦÐ°Ð½ÑĤÐ° ÑģÑĤ
ĠÑĥÑĩ ÑĳÑĤ
Ð¾ÑĢÐ° ÑĤÐ¾ÑĢ
ĠÐ´Ð² Ð¾Ð¹
ĠÐ¸ÑģÑģÐ»ÐµÐ´ Ð¾Ð²
ĠÑģÐ¾ÑģÑĤÐ¾Ñı Ð»ÑģÑı
ĠÐ¸ÑģÐ¿ Ð°Ð½
ĠÑģÐ»Ð°Ð² ÑıÐ½
ĠÐ¿Ð¾ÑģÑĤ ÐµÐ¿
ÑĢ Ð¸Ð³
Ð°Ð¼ ÐµÑĢ
ĠÐ·Ð°Ð¼ ÑĥÐ¶
ĠÐ³ ÑĢÐ°Ð´
ĠÑĢÐµÐº Ð¾Ð½ÑģÑĤ
Ð°Ð½ Ð½
ĠÐºÐ¾Ð» ÑĥÐ¼Ð±
ĠÑģÐµÑĢ Ð¸Ð¹
ĠÑĤÐµÐ¼ Ð°
ĠÐ»Ð¸ÑĤÐµÑĢÐ°ÑĤ ÑĥÑĢÐ°
ĠÐ´ Ð°Ð³
Ð¾Ð· Ð´
ĠÑĪ ÐµÑģÑĤÑĮ
ÐºÐ° Ñģ
ĠÐ¶ ÐµÑĢÑĤÐ²
ĠÐ¿ÑĢÐµÐ´ÑĥÐ¿ ÑĢÐµÐ¶Ð´
Ñį Ñģ
ĠÐ´ÐµÐ¹ÑģÑĤÐ² Ð¸Ðµ
ĠÐ½Ð°Ð¿ÑĢÐ°Ð² Ð»ÐµÐ½
ĠÑįÐ»ÐµÐ¼ ÐµÐ½ÑĤ
Ð°Ð¼ Ð¿
ĠÐºÐ°Ðº Ð¸Ñħ
Ð¾Ð³ Ð°
ĠÑĩÐ°ÑģÑĤ ÐµÐ¹
ĠÑħÑĥÐ´Ð¾Ð¶ Ð½Ð¸ÐºÐ¸
ĠÐ¿ÑĥÐ±Ð» Ð¸ÐºÐ°ÑĨÐ¸Ð¸
ĠÐ» ÐµÐ±
ĠÑģ Ð¸
Ð¸ÑĤ Ð¾Ð¼
ĠÑģÐ² ÐµÑĢÐ´
ĠÐ¸Ð¼ ÐµÑĤÑĮ
ĠÐ³Ð¾ÑģÑĥÐ´Ð°ÑĢ ÑģÑĤÐ²Ð¾
ĠÑĥÑĩ Ð¸ÑĤ
ĠÐ¾ÐºÑĢÑĥÐ³ Ðµ
ĠÐ½Ð°ÑģÐµÐ» ÐµÐ½Ð¸Ñİ
ĠÐ¿ÑĥÐ½ ÐºÑĤÐ°
ĠÑģÐ¾Ð»Ð½ ÐµÑĩ
ĠÐ²ÐµÐ´ Ð¾Ð¼
ĠÐ¿ÑĢÐµÐ´Ð¿ÑĢÐ¸ÑıÑĤ Ð¸Ñı
ĠÑĩ ÑĢÐµÐ·
Ð¾Ð² Ð°ÑĤÑĮÑģÑı
ĠÐ´ÐµÐ¿ÑĥÑĤ Ð°ÑĤÐ¾Ð²
ĠÐ¸Ð· Ð³
ĠÐ¼Ð°ÑĤÐµÑĢÐ¸Ð°Ð» Ð¾Ð²
Ð´ Ð°ÑĢ
ĠÑįÐ¼ Ð¸Ð³
ĠÐ¿Ð¾Ð»ÑĮÐ· Ñĥ
Ð¸Ð½ ÐºÐ°
ĠÑĤÐ°Ðº Ð¾Ð¼
ĠÐ°Ð¿ Ð¾ÑģÑĤ
ĠÐ»ÐµÐ¾Ð½ Ð¸Ð´
ĠÐ½ ÑĢÐ°Ð²
ĠÐ·Ð°Ð¼ Ð¾Ðº
ÑıÑī ÐµÐ³Ð¾
ĠÐ¾Ð±Ñī Ð°Ñı
ÑıÑī Ð¸Ðµ
ÑĢÑĥ Ñģ
ĠÐ²ÑĭÐ¿ ÑĥÑģÐºÐ°
ĠÐ·Ð½Ð° Ñİ
ÑĨ Ð¾
ĠÐ¿ÑĢ Ð¸Ð·Ð²
ĠÑĤÐµ Ð¾ÑĢÐ¸Ñı
ĠÐ¿ÑĮ ÐµÑģ
ÑĪÐµÐ¹ ÑģÑı
Ñİ Ðº
ÐµÐ» ÐµÐ²
Ð¾Ð² Ðµ
ĠÐ°ÑģÑģÐ¾ÑĨÐ¸ Ð°ÑĨÐ¸Ð¸
ĠÑģÐ°Ð¼ Ð¾Ðµ
ĠÑįÑĦÑĦ ÐµÐºÑĤ
ĠÐ¸Ð»Ð»Ñİ ÑģÑĤ
ĠÐ» ÐµÐ¶
ĠÑĤÐµÐ°ÑĤ ÑĢÐµ
ĠÑĦÑĥÐ½Ðº ÑĨÐ¸Ð¸
ĠÐ´Ð¾Ð¿ ÑĥÑģÑĤ
Ñģ ÐµÐ»
Ñĩ Ð¸ÐºÐ°
ĠÐ° Ð»Ð¸
ĠÐ²ÑĭÐ´ ÐµÐ»Ñı
ĠÐ±ÑĥÐº Ð²
ĠÐ²Ð¾Ð¹ Ð½Ñĥ
ĠÐ¾Ð±ÑĬ ÐµÐºÑĤÐ°
ĠÐ´ÐµÐ» ÐµÐ³
ĠÐ¾ ÑģÐ¿
ĠÑģÐµÐ²ÐµÑĢ Ð½Ð°Ñı
ĠÐ¿Ð¾ÑģÑĤÑĢÐ¾ ÐµÐ½
ĠÑĤÐ¾Ð½ Ð½
ĠÐ¾ÑĤ Ð±
ĠÐºÐ°Ð¶Ð´ Ð¾Ð³Ð¾
ĠÐ° ÑģÑģÑĢ
ĠÑĢÐ°ÑģÐ¿Ð¾Ð»Ð¾Ð¶ ÐµÐ½Ð¾
ĠÐºÐ°Ð¶Ð´ Ð¾Ð¹
ĠÑĨ Ð¸Ðº
Ð¸ÑĤÐµÐ»ÑĮ Ð½Ð¾ÑģÑĤÐ¸
ĠÐ¿Ð°ÑģÑģÐ°Ð¶ Ð¸ÑĢ
ĠÐºÑĢÐµÐ¹ Ñģ
ĠÐºÐ¾Ð¼Ð°Ð½Ð´ Ðµ
ĠÐ¿ÑĢÐ¸Ð» Ð¾Ð¶
ĠÑģÑĢÐµÐ´Ð½ÐµÐ² ÐµÐº
ĠÐºÑĢÑĥÐ¿ Ð½ÑĭÑħ
ÑĨ Ð°Ð¼
ĠÑĤ ÑĳÐ¼
ĠÐ±ÑĢÐ°Ð· Ð¸Ð»Ð¸Ð¸
ÐµÐ½ ÑģÐºÐ¾Ð¼
ĠÐ²Ð¸Ð· Ð°Ð½ÑĤ
ĠÐ»ÑİÐ±Ð¾Ð² ÑĮ
ĠÐºÐ² Ð°Ð»Ð¸ÑĦ
ĠÐ¸ÑģÐºÑĥÑģ ÑģÑĤÐ²Ð¾
ĠÐº Ð¾Ð±
ĠÑĤÐµÐ»ÐµÐ² Ð¸Ð·
ĠÑģÐ¾ Ð°Ð²
ÐµÑĢÐ° Ð¼
ĠÐ°ÑĢÐ¼ Ð¸Ñİ
ĠÐ²ÐµÑĢÐ½ ÑĥÑĤÑĮ
ĠÐ¼ÐµÑĤÐ°Ð»Ð» ÑĥÑĢÐ³
ĠÑĥ ÑħÐ¾Ð´
ĠÐ°Ð½ Ð¾Ð½Ð¸Ð¼
ĠÑģÐ²ÑıÐ· ÑĮ
ĠÐ¿ÑĢÐµÐ¿Ð¾Ð´Ð°Ð² Ð°ÑĤÐµÐ»Ð¸
Ñī Ð¸ÐºÐ¾Ð²
ĠÐº Ð¾ÑĢÐ¼
ĠÐ²ÐµÐ½Ð³ ÐµÑĢ
ĠÐ²Ñĭ ÑģÐºÐ°Ð·
ĠÑģÐ²ÐµÑĢÐ´ Ð»Ð¾Ð²
Ð¾Ð»Ð¾Ð³ Ð¸ÑĩÐµÑģÐºÐ¸Ðµ
ĠÐ²Ð¾ÐµÐ½ Ð½ÑĭÐµ
ĠÐ³Ð¾ÑĢ Ñĭ
ĠÐºÐ¾Ð½ÑĤÐ¸Ð½ ÐµÐ½ÑĤ
ĠÐ±Ð¸Ð±Ð»Ð¸Ð¾ÑĤ ÐµÐºÐ°
ĠÐ²Ð· ÑĢÐ¾Ñģ
ĠÐ¾Ð± Ð¾
ĠÐº Ð½Ð¸Ð¶
ĠÑĤÐ¾Ð» ÑģÑĤ
ĠÐ¼ÐµÑģÑı ÑĨÐ°
ĠÑĦÐ¸Ð½ Ð°Ð»
ĠÐ²Ð·Ð°Ð¸Ð¼ Ð¾Ð´ÐµÐ¹ÑģÑĤÐ²
ĠÐ¶ Ð¸ÑĤÐµÐ»Ð¸
ĠÐ´Ð¾Ð¼ Ð¸Ð½
ĠÑı Ð¼
ĠÐ¿ÐµÑĢÐµÐ½ ÐµÑģ
Ð¾Ð½ Ñĥ
ÐµÐ´ Ð°
ĠÑĢÐ°Ð· Ð½Ð¾
ĠÐ¿Ð°ÑĢ Ð¸
ĠÐ·Ð¾Ð»Ð¾ÑĤ Ð°Ñı
ĠÐºÐ¾Ð½ÑĦÐ»Ð¸Ðº ÑĤ
ĠÐºÐ¾ÑĢ ÑĢÐµ
ĠÑģÐºÐ°Ð· Ð°Ð»
ĠÐ¾Ð¿ÑĥÐ±Ð»Ð¸Ðº Ð¾Ð²Ð°Ð½
Ðº Ð¾ÑģÑĤÑĮ
Ð°ÑĢ ÑģÐºÐ¾Ð³Ð¾
ĠÐ·Ð° Ð¹
ĠÑħ Ð°Ð±
ĠÐ´Ð°Ð½ Ð¸
ĠÑĢÐµÐ¶Ð¸ÑģÑģ ÑĳÑĢÐ°
ĠÐ³ÐµÐ¾ÑĢÐ³ Ð¸Ð¹
Ð² Ð°Ð½
ĠÐ» ÑĥÐ½
ĠÐºÐ¾ Ð¾ÑĢÐ´Ð¸Ð½
Ðº ÐµÐ¹
Ð½Ð¸Ðº Ñĥ
ÑĭÐ² Ð°Ñı
ĠÐ´Ð¸ÑĢÐµÐº ÑĤÐ¾ÑĢÐ°
ĠÐ½Ð° Ð²ÐµÑĢ
ĠÐ± Ð°Ð´
ĠÐ´ÑĢÑĥÐ³ Ð¾Ð¼
Ð² ÑĥÑĩ
Ð¾Ð»ÑĮ ÑĦ
ĠÑģÑĩ ÐµÑĤ
Ð¸Ð½ Ñı
ĠÐ°Ð»ÐµÐºÑģ ÐµÐµÐ²Ð¸Ñĩ
ĠÐ¼Ð°ÑĢÑĪ ÑĢÑĥ
ĠÐ» Ð¾Ð¿
ĠÐºÐ¾Ð½ÑĦÐµÑĢÐµÐ½ ÑĨÐ¸Ð¸
Ð°Ð»ÑĮ Ð½ÑĭÐ¼Ð¸
ĠÑĢÐµÐºÐ¾Ð¼ ÐµÐ½Ð´
ĠÑĢÐ° ÑĥÐ½Ð´
ĠÑģ Ð½Ð¸Ð¶
ĠÐ» Ð¸Ð¼
ĠÑĨ Ð·
ĠÐºÐ¾Ð» ÑħÐ¾Ð·
ĠÐ» Ð¾Ð¶
ĠÐ½ÐµÐ¼ Ñĥ
ĠÐ²Ñĭ ÑģÐºÐ°
ĠÐ·Ð°Ð» Ð¾Ð¶
ĠÑĦÐ°Ð± ÑĢ
ĠÐ¾Ð±Ñģ Ð»ÑĥÐ¶
ĠÐ¼Ð°ÑĢÑĤ Ð¸Ð½
ĠÐ±Ð¾Ð»ÑĮÑĪ Ð¸Ðµ
ĠÐ´ÐµÐ¿Ð°ÑĢÑĤÐ°Ð¼ ÐµÐ½ÑĤÐ°
ĠÑģÐµÐ²ÐµÑĢ Ðµ
ĠÐ½Ð° Ð¼ÐµÑĢ
ĠÐ¼ ÑıÑĩ
ĠÐ°ÑĢÑħÐ¸ÑĤÐµÐºÑĤ ÑĥÑĢ
ĠÑĪ ÐµÐ²
Ð½Ð¾ÑģÑĤ ÑıÑħ
ĠÐ³ÑĢÐµ ÑĨÐ¸Ð¸
ĠÐ¸Ð½Ð´Ð¸Ð² Ð¸Ð´Ñĥ
ĠÑĤÐµÐ¼ Ñĭ
ĠÐ±Ð¾ÑĢÑĮ Ð±Ñĭ
ĠÐ¼Ð¸Ð½Ð¸Ð¼ Ð°Ð»ÑĮÐ½Ð°Ñı
ĠÐ¾Ð±Ð½Ð¾Ð² Ð»ÐµÐ½Ð¸Ðµ
ĠÑĦÑĢÐ°Ð½ Ðº
ĠÑĥÐºÑĢÐ° Ð¸Ð½ÑģÐºÐ¸Ð¹
ĠÐ¿ÑĢÐ¸Ð½ ÑıÑĤÑĮ
ĠÐ¼ Ð¸ÑģÑĤ
ĠÐ½Ð°Ð¿ Ð°Ð´Ð°
ĠÐ¿ÑĥÐ» ÐµÐ¼
ĠÐ¿ÑĢÐ¾Ð² ÐµÐ´ÐµÐ½Ð¸Ñı
ĠÐ±Ð¾Ð³ Ð¾ÑģÐ»Ð¾Ð²
ĠÐ³Ð¾Ð»Ð¾Ñģ Ð¾Ð²
ĠÑģÐ¿ÑĢÐ°Ð² Ð¾Ñĩ
ĠÐ´ Ð¸ÑĦ
ĠÐ½Ð° ÑģÐº
ĠÐ²Ð¸Ð»ÑĮ Ð³ÐµÐ»ÑĮ
ĠÐ±ÑĢÐ¸Ð³ Ð°Ð´
ĠÑĢÑĥÐ±Ð» ÐµÐ¹
ĠÐ²Ð¾Ð» Ð¾ÑģÑĤÑĮ
ĠÐ½ÐµÐ¾Ð´Ð½ Ð¾ÐºÑĢÐ°ÑĤÐ½Ð¾
ĠÑģÐ¾Ð±ÑĢÐ°Ð½ Ð¸Ñı
ĠÐ¿Ð¾ÑģÑĳÐ» ÐºÐ°
ĠÐ¿ÑĥÑģÑĤ ÑĮ
ÐµÑĢ ÐµÐ¹
Ð¾ÑĢ Ð±
ĠÑĥÑĩÑĳ Ð½ÑĭÐ¹
ĠÑĩÐ° ÑīÐµ
ĠÐºÑĢÐ°ÑģÐ½Ð¾ ÑıÑĢ
Ð¸ÑĤÐµÐ»ÑĮ Ð½Ð¾ÑģÑĤÑĮ
ÑĢÐµ Ñħ
ĠÐ¿ÑĢÐµÐ´Ð¿ Ð¾Ñĩ
ĠÐ¿ÑĢÐ¸ÑģÐ²Ð¾ ÐµÐ½Ð¾
Ð°ÑĤÐµÐ»ÑĮ Ð½ÑĭÐ¹
ĠÐ¾Ð± ÑĢÐ°Ð±Ð¾ÑĤ
ĠÐ»Ð¸Ðº Ð²Ð¸Ð´
ÑĥÑģ Ð»Ð¾Ð²
ĠÑİÐ³ Ðµ
ĠÐ³ÐµÑĢÐ¾ Ð¸
ĠÐºÐ¸Ð½ ÐµÐ¼Ð°ÑĤ
ĠÐ¾ÑģÑĤÑĢÐ¾Ð² Ðµ
ĠÑħÑĥÑĤ Ð¾ÑĢ
Ð³ Ð¸Ð·
ĠÐ¿ÑĢÐ¾ÑĦÐµÑģÑģ Ð¾ÑĢÐ°
ĠÑĨ ÐµÐ½
ĠÐ³Ð¾Ð» Ð»Ð°Ð½Ð´
ĠÐ¿ÐµÑĤ ÑĢ
ĠÐ¼ Ð¸ÑĪ
ĠÑģÑĤÑĥÐ´ Ð¸Ð¸
ĠÐ·Ð°Ðº ÑĢÑĭ
ĠÑģ Ð¸Ð¼Ð¿
ĠÐ¾Ñģ ÐµÐ½ÑĮ
ĠÐºÐ¾Ð¼Ð°Ð½Ð´ Ð¸ÑĢÐ°
Ð¸ÑĢÑĥ ÑİÑĤ
ĠÐ²Ð¿Ð»Ð¾ÑĤ ÑĮ
ĠÐ¸ ÑĢÐ°Ð½
ĠÐ²ÑĭÐ±Ð¾ÑĢ Ñĭ
ÑıÐ½ ÑĥÑĤ
ĠÐ¾ÑĤÐ´ÐµÐ»ÑĮ Ð½ÑĭÑħ
ĠÐ¿ Ð°Ð»ÑĮ
ĠÐ±Ð¸ Ð¾Ð³ÑĢÐ°ÑĦÐ¸Ñı
ĠÐ» ÑĥÐº
ĠÐ¿Ð¾Ðº ÑĢÑĭÑĤ
ĠÑĤÑĢÑĥ Ð±
ĠÐ¼ÐµÐ´ Ð²ÐµÐ´
ĠÑĦÐ¾ÑĢÐ¼ Ñĥ
ĠÑģÑģÑĭÐ» ÐºÑĥ
ĠÐ²ÑĭÐ±Ð¾ÑĢ Ð¾Ð²
Ð¸Ð² Ð°ÑİÑĤÑģÑı
ĠÐ¿Ð¾Ð»Ð¸ÑĤ Ð¸ÑĩÐµÑģÐºÐ¾Ð¹
ĠÐ¼Ð»Ð°Ð´ ÑĪÐ¸Ð¹
ĠÐ¿ÑĢÐ¾Ð¸Ð·Ð¾ÑĪ Ð»Ð¾
ĠÐ¾ÑĤÐ´ÐµÐ» ÐµÐ½Ð¸Ðµ
ĠÐ¿Ð¸ÑĪ ÐµÑĤ
Ð² ÐµÐ½
Ð¸Ð½ ÑĤÐµÑĢ
Ð°Ð´ Ð¸
ĠÐ¾Ð± Ð¸ÑĤ
ÑĤÐ¾ Ðµ
ĠÐ¿Ð» Ð¾Ð´
ĠÐ´Ð¾ÑģÑĤÐ¸Ð¶ ÐµÐ½Ð¸Ñı
ĠÐ¸Ð½Ð¸ÑĨÐ¸ Ð°ÑĤÐ¸Ð²
ĠÐ½Ð°Ð·Ð² Ð°Ð½
ĠÐ°ÑĢÑħ Ð°Ð½Ð³ÐµÐ»ÑĮ
ĠÐ½Ð°Ð¸Ð± Ð¾Ð»ÑĮÑĪ
ĠÑģÐ²ÐµÑĤ Ð»
ĠÑħÐ¾Ð» Ð¾Ð´
ĠÐ¼Ð¸Ðº ÑĢÐ¾
ÑĮ Ð¼
ĠÐ¿ÐµÑĢ ÐµÐ±
ĠÐ³Ð»Ð°Ð² Ð½ÑĭÑħ
ĠÑĤÑĢÐµ Ñħ
Ð»ÐµÐ½ Ð½ÑĭÐ¹
Ð¸ÑĢÐ¾Ð²Ð°Ð½ Ð½ÑĭÐ¹
ĠÐ°Ð½ Ñģ
ĠÑĦÐ¾ÑĢÐ¼ Ð°
ĠÐ¼ÑĥÐ»ÑĮÑĤ ÑĦÐ¸Ð»ÑĮ
ĠÐ¿ÑĢÐ°Ð² Ð¾Ð¼
ĠÑģ Ðµ
ĠÑģ Ð°ÑĢÐ°
Ð°ÑİÑī Ð°Ñı
ĠÐ¼Ð°ÑĢ Ð¸Ð¸
ĠÑĢÐµÐº Ð»Ð°
ĠÐ²Ð¾ÐµÐ² Ð¾Ð´
ĠÑĢÐ°Ð¹ Ð¾Ð½Ñĭ
ĠÑħÑĥÐ´Ð¾Ð¶ Ð½Ð¸ÐºÐ°
ĠÐ¼Ð°Ð³ Ð¸ÑģÑĤ
ĠÐ¾Ðº ÑĢÐ°
ĠÐºÐ°Ð½ Ð°Ð´Ñĭ
ĠÐ» Ð¾Ð¼
ĠÐ³Ð°Ð» ÐµÑĢÐµ
ĠÑģ ÑħÐ¾Ð´
ĠÐ¼ Ð°Ð·
ĠÐ¿Ð¾Ð»Ð¾Ð² Ð¸Ð½Ðµ
ĠÐ¿Ð¾Ð´ÑĤ Ð²ÐµÑĢÐ¶Ð´Ð°
ĠÑħ Ð°Ð¼
ĠÐ¾Ð±Ñī Ð¸Ð¹
ĠÐ± Ð¸Ð»
ĠÐ¼ Ð¾Ð±
ĠÑįÐºÐ¾Ð½Ð¾Ð¼ Ð¸ÐºÐ¸
ĠÑĦÐ¸Ð»Ð¾ÑģÐ¾ÑĦ Ð¸Ð¸
ĠÑģÐ¸ÑĤÑĥ Ð°ÑĨÐ¸Ð¸
Ð½Ð°Ñĩ Ðµ
ĠÑĥÐºÑĢÐ° Ð¸Ð½ÑģÐºÐ¾Ð¹
ĠÐ³Ð» Ð¾Ð±
ĠÐ·Ð°Ð±Ð¾Ð» ÐµÐ²
ĠÐ¼ÑĥÐ½Ð¸ÑĨÐ¸Ð¿ Ð°Ð»ÑĮÐ½Ð¾Ðµ
ĠÐ¿Ð¾Ð» Ð½Ð¾Ðµ
Ð°ÑĢ Ðº
ĠÐ³ÑĢÐ°ÑĦ Ð°
ĠÐ± ÐµÐº
ÐµÐ» Ð»Ð°
ĠÐ¸ÑĢ ÐºÑĥÑĤ
ĠÐ¿ÑĢÐ¸ ÑĳÐ¼
ĠÐ²ÑĭÑģÑĤÑĥÐ¿ Ð»ÐµÐ½Ð¸Ñı
ĠÑģÑĤÑĢÐ°Ð½Ð¸ÑĨ Ñĥ
Ð½ Ð¾ÑĢ
ĠÐº ÑĥÐ½
ĠÐ½Ð°Ð·ÑĭÐ²Ð° ÑİÑĤ
ĠÐ¸ÑĤÐ¾Ð³ Ð°Ð¼
ĠÑģÐ¾Ð·Ð´ Ð°Ð»
ĠÑģÐ¾Ð²ÑĢÐµÐ¼ ÐµÐ½Ð½Ð¾Ð³Ð¾
ĠÑĪ Ð²Ðµ
ĠÑĢÐµÑģÐ¿ÑĥÐ±Ð» Ð¸ÐºÐ°Ð½
ĠÐ¿ÑĢÐ¾ÑĤ ÐµÐºÐ°ÐµÑĤ
ĠÑģÑĤÐ¾Ð» Ðº
ĠÑĤÐµÐ¼Ð¿ÐµÑĢÐ°ÑĤ ÑĥÑĢÐ°
Ð°ÑĤÐµÐ»ÑĮ Ð½Ð¾Ð¹
ĠÐ´Ð¸ Ð°Ð¼ÐµÑĤ
ÑĢÐ° Ð¼Ð¸
ĠÐ¿ Ð»Ð°
Ð°ÑĤ Ð¾ÑĢÐ¸Ð¸
ĠÐºÐ¾ÑĢÑĢÐµ ÑģÐ¿
ĠÑĢÐ° ÑģÑĤÐ²
ĠÐ¿Ð¾Ð» ÑĥÐ·
Ð¸ÑĢÐ¾Ð² Ð°Ð»ÑģÑı
ĠÐ²ÐµÑĢ ÑĪ
ĠÐ» Ð°Ð½Ð´
ĠÐµ Ð»ÐµÐ½Ð°
ĠÑģÑĦ ÐµÑĢÐ°
ĠÐ´Ñį Ð²Ð¸Ð´
Ð¸Ð² Ð°Ð»Ð¸
ÑİÑīÐ¸Ðµ ÑģÑı
Ð¼ ÐµÐ»ÑĮ
ĠÐ»Ð°Ð± Ð¾ÑĢÐ°ÑĤÐ¾ÑĢ
ĠÑĢÑĥÐºÐ¾Ð²Ð¾Ð´ ÑģÑĤÐ²Ð¾
ĠÑĥ Ð½Ð¸Ðº
ĠÐ´Ð¾ÑģÑĤ Ð°Ð²
ĠÐ»Ð¸Ð½ ÐµÐ¹
Ð½Ð° Ð±
ĠÑįÐ½ Ð´
ĠÑģÑĤÐ¸Ñħ Ð¸
ĠÐ¾ÑĢÑĥÐ¶ Ð¸Ñı
Ð»Ñı ÑİÑĤ
ĠÐ¿ÑĢÐ°Ð²Ð¸Ð» Ð°Ð¼
ĠÐ°ÑĤ Ð»
ĠÑģÐº ÑĢÐ¸Ð¿
ĠÐ´Ð»Ð¸Ð½ Ð¾Ð¹
ĠÑģÑĤ Ð¾Ñı
ĠÐ¸ÑģÑĤÐ¾Ñĩ Ð½Ð¸ÐºÐ°
Ð°Ñī Ð¸Ñħ
ĠÐ½Ð¾Ñĩ ÑĮ
ĠÐ¸Ð· Ð»Ð¾Ð¶
ĠÐ²Ð½ÑĥÑĤÑĢÐµÐ½ Ð½Ð¸Ñħ
ĠÐ¿ÑĢÐµÐ´Ð»Ð°Ð³Ð° Ñİ
Ñı ÑİÑĤÑģÑı
ĠÐºÐ°ÑĢ Ð¿
ĠÐ¶ÑĳÐ» ÑĤ
Ð² Ð¸Ñģ
ĠÑĤÐ¾Ñĩ ÐºÐ°
ĠÐ²ÑģÑĤÑĥÐ¿ Ð¸Ð»
ĠÐ´ÑĢÑĥÐ³ Ð°
ĠÑģÑĭ Ð½Ð¾Ð²
ĠÐº Ð¾Ð³Ð¾
Ð¼ Ð°Ñħ
Ð¸Ð¹ ÑģÐºÐ¸Ñħ
ĠÐ¾Ð»Ð¸Ð¼Ð¿ Ð¸
Ð¾ÑĢ Ð³Ð°Ð½
ĠÑĥÑĩÐ°ÑģÑĤ Ð¸Ñı
ĠÐ±Ð¾ÑĤ Ð¾Ð¼
ĠÐ² ÑĮ
ĠÐ´Ð¶ ÐµÐº
ĠÐ·Ð² ÑĥÑĩ
ĠÑģÐ¾Ð·Ð´ Ð°Ð½Ð°
ĠÐ´Ð¸ÑĢ Ð¸Ð¶
ĠÐ½Ð°ÑĩÐ¸Ð½ Ð°ÐµÑĤÑģÑı
ĠÐ¿ÑĢÐ¾Ð¶Ð¸Ð² Ð°Ð»Ð¾
ĠÑģÑĤ Ð°ÑĢÐ°
ĠÐ¾ÑĤ ÑĢÐ¸ÑĨ
Ð»ÐµÐ½ Ð½Ð¾Ð¹
ĠÐ½ÐµÐ¾Ð±ÑħÐ¾Ð´Ð¸Ð¼ Ð¾ÑģÑĤÐ¸
ĠÐ¿ Ð¾Ð¹
ĠÐ´ÑĢÑĥÐ³ Ð¾Ðµ
ĠÑĢÐ° ÑĥÐ½
ĠÐ¸Ð·Ð¾Ð± ÑĢÐµÑĤ
ĠÐ³ ÐµÑĤ
ĠÐ·Ð°Ð½Ð¸Ð¼ Ð°Ð»
ÐµÐ½ Ð¾Ð¼
ĠÑģÑĤ ÑĥÐ¿
ÑĤÐµÑĢÐ½ Ð°ÑĤÐ¸Ð²
ÑĮ ÑĪÐµ
ĠÐºÐ¸ÑĤ Ð°Ñı
ĠÐ´Ð¶ÐµÐ¹Ð¼ Ñģ
ĠÐ¿Ð¾Ð½Ð¸Ð¼ Ð°Ñİ
Ð¸ÑĩÐµÑģÐº Ð¾Ð¼Ñĥ
Ð°Ð» Ð¸ÑĤ
ĠÑģÐ¾ÑģÑĤÐ¾ÑıÐ½ Ð¸Ð¸
ĠÐ½Ð¾Ð² ÑĥÑİ
ĠÑĢÐ°Ð·Ð´ÐµÐ» Ðµ
ĠÐºÐ¾ÑĢÐ°Ð± Ð»ÑĮ
Ð¸Ðµ Ð²Ð°
ĠÐ¿ÐµÑĢÐµÑĢÐ° Ð±Ð¾ÑĤ
ĠÐ¾ÑĤ Ð·ÑĭÐ²
ÐµÐ½Ð¸Ñı Ð¼
ĠÐ»Ð¸ÑĤÐµÑĢÐ°ÑĤ ÑĥÑĢÐµ
ĠÐ» Ð¾Ð±
ĠÐ¼ÐµÑĤ ÑĢÐ¾
Ð¾Ð² Ð½Ð°
ĠÐ°Ð¼ÐµÑĢÐ¸ÐºÐ°Ð½ ÑģÐºÐ¾Ð¹
ĠÐ°Ð´Ð¼Ð¸Ð½Ð¸ÑģÑĤÑĢÐ°ÑĤÐ¸Ð² Ð½Ð¾Ð¹
ĠÐ²Ð¾ÑģÐº ÑĢÐµÑģ
ĠÑģ Ð¸ÑĤÐ¸
Ð¿ Ð¿
ĠÑģÑĩÐ¸ÑĤ Ð°ÑĤÑĮ
Ð½Ð¸Ðº Ð¾Ð²Ð°
ĠÐ½Ð¾ÑĢÐ² ÐµÐ³
ĠÐ¸ÑģÐ¿Ð¾Ð»ÑĮÐ· ÑĥÑİÑĤÑģÑı
ĠÐ¿ÑĢÐ¸Ð¼ ÐµÑĩ
ÑģÑĤÐ² Ð¸Ñı
Ð¾Ð»Ð¾Ð³ Ð¸
ĠÐ²Ð¾Ð» Ð³
ĠÐ²ÑĢÐµÐ¼ÐµÐ½ ÐµÐ¼
Ð¾Ð² Ð¾ÑĢÐ°
ĠÑģÐºÑĥÐ»ÑĮÐ¿ ÑĤ
Ð¾Ð¼ Ð°
ĠÑĤÑĢÐµ Ð±Ñĥ
ĠÐº Ð¸ÑĪ
ĠÑĢÐµÐ³ Ð¸ÑģÑĤ
Ð°Ðº Ð¾Ð²Ð°
ĠÑĪ Ð²
ÑĢÑıÐ´ Ñĥ
ĠÐ± Ð°Ð²Ð°ÑĢ
ĠÑĪÐ²Ðµ ÑĨÐ¸Ð¸
Ð°Ð½ ÐºÐ°
ĠÑģÑĤ ÑĢÐ¾Ðº
ĠÑĥÑģÑĤ ÑĢÐ¾
ĠÑģÑĤÑĢ ÐµÐ»ÑĮ
ĠÐ¾ÑĢÐº ÐµÑģÑĤ
ÐµÐ³ Ð¾ÑĢÐ¾Ð´
ĠÐ²Ð¾ÑģÐ¿ Ð¾Ð¼Ð¸Ð½
Ð¼ Ð¾Ñģ
Ð¾Ð¹ ÑĩÐ¸Ð²
ĠÑĨ Ð°ÑĢÑĮ
Ð½Ð¾Ð¼ Ð¾ÑĢ
ĠÐ¼ÐµÑģÑĤ Ð½Ð¾Ð³Ð¾
ĠÐ½Ð° Ñħ
Ð¸Ð· Ñĥ
ĠÐ² Ð¸
ĠÑĢÐµÐ· ÐµÑĢÐ²
ĠÐ²Ð² Ñģ
ĠÐ¿ÑĢÐµÐ´ÑģÐµÐ´ Ð°ÑĤÐµÐ»ÐµÐ¼
ĠÑĢÐµÐº Ð»Ð°Ð¼
ĠÐ¼ÐµÑģÑı ÑĨ
ĠÐ³ÐµÐ½ÐµÑĢÐ° Ð»Ð°
ĠÐº ÐµÑĢ
ÑĥÐ¶ Ð´Ð°
ĠÐ· Ð»
ĠÐ¼Ð°Ð³ Ð½Ð¸ÑĤ
ĠÑı Ð´
ĠÐ°Ð²ÑĤÐ¾ÑĢ Ð¾Ð²
ĠÐºÑĥÐ· Ð½ÐµÑĨ
ĠÑĢÐ¸Ñģ ÑĥÐ½
ĠÐ¿Ð¾Ð»Ð¸ÑĤ Ð¸ÑĩÐµÑģÐºÐ¸Ð¹
ĠÐ¼Ð¸Ð½Ð¸Ð¼ ÑĥÐ¼
ĠÐ·Ð°ÑĢ ÑĥÐ±
Ð¾Ð»Ð¾Ð³ Ð¸ÑĩÐµÑģÐºÐ¾Ð¹
ĠÐ½Ðµ Ð¿ÑĢÐ°Ð²
ĠÐºÑĢÑĥÐ¿ Ð½ÑĭÐµ
Ð¾ Ð¾
Ð¸ÑĤÐµÐ»ÑĮ Ð½ÑĥÑİ
ĠÑĢÐµÐ± ÑĳÐ½
ĠÐ¸ Ð½Ð°ÑĩÐµ
ĠÐ½ Ð¸Ð³
ĠÐºÐ² Ð°Ð´
ĠÑĦ ÑĢÐ°
ĠÐ°Ð»ÑĮ ÑĤÐµÑĢÐ½Ð°ÑĤÐ¸Ð²
ĠÐ³ Ð¸Ð»ÑĮ
Ð¾Ðº Ð¸
ĠÑģÐ¿Ð¾ÑģÐ¾Ð± ÑģÑĤÐ²
ĠÐ½ÐµÐ· Ð½Ð°Ñĩ
ĠÑģÑĤ ÐµÑĦ
ĠÐ´Ð¾ÐºÐ°Ð·Ð°ÑĤÐµÐ»ÑĮ ÑģÑĤÐ²
ÑĪ ÐµÐ³Ð¾ÑģÑı
ĠÑĦÐ°ÐºÑĤ Ñĭ
ĠÑģÐ¾Ð¾ÑĢÑĥÐ¶ ÐµÐ½Ð¸Ñı
ĠÐ¿Ð°ÑĢÐ°Ð»Ð» ÐµÐ»ÑĮ
ÑĥÐ» Ñĥ
ĠÐ¿ÑĢÐ¸Ð² Ð»ÐµÐº
ĠÐ½ÐµÐ´ ÐµÐ»Ð¸
Ð»ÐµÑĤ Ð²Ð¾ÑĢ
ĠÐ²ÑĭÑħÐ¾Ð´ Ð°
ĠÐ¿ÑĢÐµÐ·Ð¸Ð´ÐµÐ½ÑĤ Ð¾Ð¼
ĠÐ¼ÐµÑĢ Ð¾Ð¿ÑĢÐ¸ÑıÑĤ
ĠÐ½ÐµÑĥÐ´Ð° Ñĩ
Ð¾Ð· Ð°Ð²
ĠÐ²ÐµÐ½Ð³ ÑĢÐ¸Ð¸
Ñı Ð½Ð¾Ð²
ÐµÐ½ Ð±ÑĥÑĢÐ³
ĠÑģÐ²Ð¾ ÐµÐ¼Ñĥ
ĠÐ½Ðµ Ñĩ
ĠÐ² ÑĥÐ»
Ð¾Ð² Ð»ÐµÑĤÐ²Ð¾ÑĢ
ĠÑĪÐ°Ð± Ð»Ð¾Ð½Ð°
ÑĨ Ð¸Ð¿
ĠÐ¿ÐµÑĢÐµÑĩ Ð¸Ñģ
ĠÐ²Ñĭ Ð¹
ĠÐ±ÑĭÐ² ÑĪÐµÐ³Ð¾
ĠÐº ÑĥÐº
ĠÑĢÐ°Ð½ ÑĮÑĪÐµ
ÑĢÐµÐ³ Ð¸ÑģÑĤÑĢ
ĠÑģÑĥÐ¿ ÐµÑĢ
ĠÐ¾ÑĢÑĥÐ¶ Ð¸Ðµ
Ð½ ÑĥÐ»
Ð¾Ð» ÐºÐ¾Ð²
ĠÑĤ Ð°ÑĢÐ°
ĠÐ± ÑĥÑĢÐ³
ĠÑĢÐ°Ð¹Ð¾Ð½ Ð½Ð¾Ð³Ð¾
Ñģ Ð¾Ð½Ð°
ĠÐ¼ÑĥÐ·ÑĭÐº Ð°Ð»ÑĮÐ½ÑĭÐµ
ĠÐ± Ð»Ð°
ĠÑĦ ÑĢÐµÐ´
ĠÐ° ÑĪ
ĠÐºÐ¾Ð¼Ð¿ Ð°Ð½Ð¸ÐµÐ¹
ĠÑģÐ¾Ð¾Ð±Ñī ÐµÑģÑĤÐ²Ð°
ĠÐºÑĢÐ°Ð¹ Ð½Ðµ
ĠÐ²Ð°ÑĢÑĪ Ð°Ð²
ĠÐ²Ð»Ð°Ð´ ÐµÐ»ÑĮ
ĠÐ°Ð²ÑĤÐ¾ÑĢ Ñĭ
ĠÐ²Ð´ Ð¾Ð»ÑĮ
Ð°ÑĤÑĭ Ð²Ð°
ĠÐ°Ð»ÑĮ ÑĦ
ĠÐ¾Ñĩ ÐºÐ¾Ð²
ĠÑı Ð´ÐµÑĢ
ĠÐ°Ð²ÑģÑĤÑĢ Ð¸Ð¸
ĠÐ±Ð¾Ð»Ð³Ð°ÑĢ Ð¸Ð¸
ĠÐºÐ¾Ð¼ ÑģÐ¾Ð¼
Ð¼ÐµÑĢ ÑĤ
Ð¾Ð»Ð¾Ð³ Ð¸ÑĩÐµÑģÐºÐ¸Ð¹
ÑĮÑı Ð¼Ð¸
ĠÐ¿ÑĢÐµÐ¼ Ð¸Ñİ
ĠÑĩ ÐµÐ»Ñı
ĠÑģÐºÐ°Ð· Ð°ÑĤÑĮ
ÐµÑĢÐ° Ð¿
ÑıÑģ Ð½Ñı
ĠÑĩ Ñĥ
ĠÐ½Ð°ÑĥÑĩ Ð½ÑĭÐµ
ĠÐ¿ÑĢÐµÐº ÑĢÐ°ÑĤ
ĠÐ¾ÑĤ ÑģÑĤÑĥÐ¿
ĠÐ¾ÑĦÐ¸ÑĨ ÐµÑĢ
ĠÐ´ Ð¾Ñģ
ÐµÐ¼ Ð°Ñı
ĠÐ¿ÐµÑĤÐµÑĢÐ± ÑĥÑĢÐ³Ð°
ÐµÑĤ ÑĢÐ¾Ð²
ĠÐ¼Ð¾Ð½ ÑĤ
ĠÐ¾ÑģÐ¾Ð± ÐµÐ½Ð½Ð¾ÑģÑĤÐ¸
ĠÐ¸ÑģÐºÐ»ÑİÑĩ Ð¸ÑĤÐµÐ»ÑĮÐ½Ð¾
ĠÐ³ Ð¾ÑĢÐ°
ĠÐ±Ð°ÑģÐºÐµÑĤ Ð±Ð¾Ð»
ĠÑĦ ÑĢÐ°Ð³
ĠÐ±Ð¾Ð»ÑĮÑĪ Ð¸Ð¼
ÐµÐ´ Ð¶
ĠÑįÐº ÑģÑĤ
Ð¸ÑĢÐ¾Ð²Ð°Ð½ Ð¸Ð¸
Ð°Ð» Ð¸Ð¹
ĠÐ¾ÑĢÐ³Ð°Ð½Ð¸Ð·Ð° ÑĨÐ¸Ð¹
ĠÐ°Ð± Ð±
ĠÑģÑĤ ÐµÐº
ĠÑĦÑĳÐ´Ð¾ÑĢ Ð¾Ð²Ð¸Ñĩ
Ð¸Ð½ Ð°Ð¼
Ð½ Ð¾Ð³
ĠÐ¿Ð¾Ð» Ð½Ð¾
ĠÐ¼Ð°Ñģ ÑĪÑĤÐ°
ĠÐ´ÑĥÐ¼ Ñĭ
ĠÐ´Ð¶ ÐµÐ¹
ĠÐ½Ðµ Ð°ÐºÑĤÐ¸Ð²
ĠÐ±Ð°ÑĤÐ°Ð»ÑĮ Ð¾Ð½
Ð¶ ÐµÐ½Ð¸Ñı
ĠÐ½ ÐµÑĢ
ĠÐ·Ð°Ð± Ð»Ð¾Ðº
ĠÐ¼ Ð³Ñĥ
Ð¾Ð½ Ð³
ĠÐ¾Ðº ÑĢÐµÑģÑĤ
ĠÑģÐ¾Ð³Ð»Ð°Ñģ ÐµÐ½
ĠÐ¾ÑĤÐ²ÐµÑĤ ÑģÑĤÐ²ÐµÐ½
ĠÐµ Ð»Ð¸Ð·
ÐºÑĥ Ð´Ð°
Ð¸Ð² ÑĪÐ¸ÑģÑĮ
Ð°ÑĢ ÑģÐºÐ¸Ð¹
ĠÐ½Ðµ ÑĦ
ĠÐ°Ð¼ÐµÑĢÐ¸ÐºÐ°Ð½ ÑģÐºÐ°Ñı
ĠÐ¿Ð»Ð°ÑĤÑĦÐ¾ÑĢÐ¼ Ñĭ
Ð¾ÑģÑĤ ÑĢÐ¾Ð²
ĠÑĢÐ¾ÑģÑģÐ¸Ð¹ ÑģÐºÐ¸Ñħ
ĠÐ²Ñĭ Ð³
ĠÐ½Ð¸Ð¶ ÐµÐ³Ð¾ÑĢÐ¾Ð´
ĠÑģÐ¸ÑģÑĤÐµÐ¼ Ñĥ
Ð¸Ð½ Ð°Ñħ
ĠÑģÐº Ð»Ð°Ð´
ĠÑģÐ¾Ð·Ð´ Ð°Ð½Ð¸Ð¸
ĠÑĩÐµÐ¼Ð¿Ð¸Ð¾Ð½ Ð¾Ð¼
ĠÐ¼Ð¾Ð¼ ÐµÐ½ÑĤÐ°
Ð¸Ð½ ÑĤ
Ð°Ñħ Ð°
ĠÐ¸Ð½ÑĤÐµÑĢ Ð½
ĠÑĤÐ¾Ð¿ Ð»Ð¸Ð²
Ð°Ð» Ñĥ
ĠÑĤ ÑİÑĢ
ĠÐºÑĢÐ°Ñģ Ð½Ð¾Ð´
ĠÐ² Ð¸Ñģ
Ð½Ð¸ÑĨ ÐµÐ¹
ĠÐ¿Ð¾ÑģÐ»ÐµÐ´ Ð½ÐµÐµ
ĠÐºÐ°Ð·Ð°ÑħÑģÑĤ Ð°Ð½
ĠÑĢ Ð¾
ĠÑĦÐ¾ÑĤ Ð¾Ð³ÑĢÐ°ÑĦÐ¸Ð¸
ĠÐ¿Ð¾Ð² ÐµÐ´
Ðº ÑĥÑİ
ĠÑĦ Ð°Ñģ
ĠÑĥÑĩÐ¸Ð»Ð¸ ÑīÐ°
ĠÑĥÐ´ Ð¾Ð±
Ð» Ð¸Ð½Ð°
ĠÐ²Ñĭ ÑĤ
Ð¾Ð²Ð°Ð½ Ð½ÑĭÐµ
ĠÐ·Ð°Ðº Ð¾Ð½Ð¾Ð¼
Ð°ÑĤÐ¾ÑĢ Ð¾Ð²
ĠÐ¾Ð±ÑĬÐµÐºÑĤ Ñĭ
ĠÑĤ Ð°ÑĤÑĮ
Ð¾Ð³ Ð¸
ĠÐ¿ÑĢÐµÐº ÑĢÐ°Ñī
ĠÐºÐ¾Ð¼Ð°Ð½Ð´ Ð¾Ð²Ð°Ð»
ĠÑģ Ð¸Ñħ
ĠÐ¾ÑģÐ½Ð¾Ð² Ð½ÑĭÐ¼
ĠÑģÑĥÑīÐµÑģÑĤÐ² ÑĥÑİÑĤ
ĠÑħ Ð»
ÑĳÑĢ ÑĤ
ĠÐ½Ð°Ð¿ÑĢÐ°Ð² Ð»ÐµÐ½Ð¸Ð¸
ĠÐºÐ°Ð¼ ÐµÐ½
ĠÐ°Ð´Ð¼Ð¸ ÑĢÐ°Ð»
ĠÐºÐ¾ÑĢÑĢÐµÑģÐ¿ Ð¾Ð½Ð´
ĠÑĢÐ¾Ð¼ Ð°Ð½Ð°
ĠÑģ ÑĢ
ĠÐº Ñģ
ĠÐ³ÑĢÐ°Ð½ Ð¸ÑĨ
ĠÐ½ÐµÐ¿Ð¾ÑģÑĢÐµÐ´ ÑģÑĤÐ²ÐµÐ½Ð½Ð¾
ĠÐ¿ÑĢ Ð¾Ð»
ĠÑĨ Ð¸ÐºÐ»
ĠÐ± Ð°Ð½Ð´
ĠÐ¿ÑĢÐµ ÑĤÐµÐ½
ĠÐ½Ð°ÑĥÑĩ Ð½Ð¾Ð¹
ĠÐ¿Ð°ÑĢÐ¸ Ð¶Ðµ
ÑĢÐ° Ð´Ðµ
ĠÐ´Ð¾Ð± ÑĢ
ĠÐ¿Ð¾Ð´Ð´ÐµÑĢÐ¶ ÐºÑĥ
ĠÑĢÐ°Ð±Ð¾Ñĩ Ð¸Ñħ
Ð¶ ÐµÐ²
ĠÐ´Ð°Ð² Ð½Ð¾
ĠÑģÐ¾Ð´ÐµÑĢÐ¶ Ð¸Ð¼
ĠÑģÐ¼ÐµÑĢ ÑĤ
ĠÑĢÐ¾Ð» ÑıÑħ
ĠÐ±ÑĢÐ¸Ð³ Ð°Ð´Ð°
ĠÐ½ Ð°Ð»Ð¾Ð³
ĠÑģÑĤÑĢÑĥÐºÑĤ ÑĥÑĢÐ°
ĠÐº Ñĭ
ÑĢÑı Ð½
ĠÑĦ Ð¸Ð»Ð¸
ĠÑĢÐ¸Ñĩ Ð°ÑĢÐ´
ĠÑĦÑĢÐ°Ð³ Ð¼ÐµÐ½ÑĤ
ĠÑĨ ÐµÐ¿
Ð¾Ð»Ð¾Ð³ Ð¸ÑĩÐµÑģÐºÐ¾Ð³Ð¾
ĠÐ±Ð¸ Ð¾Ð³ÑĢÐ°ÑĦ
ĠÐ´ÐµÐ½ÑĮ Ð³Ð¸
Ðº Ð¸Ð½Ð¾
Ð°Ð½ Ð½Ð¾Ðµ
ĠÐ¿Ð°ÑĤ ÑĢÑĥÐ»Ð¸
Ñħ Ð¾Ð²
ĠÐ·Ð°Ð¿ Ð¸ÑģÑĮ
Ñħ Ð»
ĠÐºÐ°ÑĢ Ð´Ð¸Ð½
ĠÐ¾ ÑĦÑĦ
ĠÑĩÐ°ÑģÑĤ Ð¸ÑĩÐ½Ð¾
ĠÐ¼ÐµÑĤ ÑĢÐ¾Ð¿Ð¾Ð»Ð¸ÑĤ
ĠÐ³Ð¾ÑģÑĥÐ´Ð°ÑĢÑģÑĤÐ²ÐµÐ½ Ð½Ð¾Ð¼
ĠÑĢÐ°ÑģÐ¿ Ð¾ÑĢ
ĠÑĤÐµÐ½Ð½ Ð¸Ñģ
ĠÐ¿Ð¾Ð´ Ð¾Ð·
ĠÑģÐ¾Ð±ÑģÑĤÐ²ÐµÐ½ Ð½Ð¾
ÐµÐ½ Ð³
ĠÐ½Ð° ÐºÐ¾Ð½ÐµÑĨ
ĠÐ·Ð½Ð°Ð¼ ÐµÐ½Ð¸
ĠÐ´Ð¸ Ð°Ð³
ĠÑģÑĩÐ¸ÑĤ Ð°ÐµÑĤ
ĠÑĤÐµÑĢ ÑĢÐ¾ÑĢ
ĠÐ¾ÑĤÐ½Ð¾ÑĪ ÐµÐ½Ð¸Ðµ
ĠÐ¿Ð¾Ð´Ð¿ Ð¸ÑģÑĮ
ĠÐ¾ÑģÐ² Ð¾Ð±Ð¾Ð´
ĠÐºÐ¾Ð½Ð³ ÑĢÐµÑģÑģ
ĠÐ³ Ð¸Ð³
ĠÑĦÐµÑģÑĤ Ð¸Ð²Ð°Ð»
ĠÐ·Ð°Ñĩ ÐµÐ¼
ĠÑĤ Ð°Ð²
ĠÑħÐ¾Ðº ÐºÐµÐ¹
ĠÐ¿ Ð°ÑĪ
ĠÐ¾ÑĤÐ½Ð¾ÑģÑıÑĤ ÑģÑı
ĠÐ²ÑħÐ¾Ð´ ÑıÑĤ
ĠÐ³ÑĢÐ¸Ð³Ð¾ÑĢ Ð¸Ð¹
ĠÑģ Ð¾Ð¼
ĠÐ¿Ð¾Ð» ÑĳÑĤ
ĠÐ¿ÑĢÐ¸ÑĪ Ð»Ð¾ÑģÑĮ
ĠÐ´Ð¸Ð°Ð» ÐµÐºÑĤ
ĠÐ¿ÑģÐµÐ²Ð´ Ð¾Ð½Ð¸Ð¼
ĠÑĤ Ð°ÑĪ
Ð¸Ð² Ð°Ñı
ÐµÐ» Ð¸Ñı
ĠÐ¿Ð¾Ð» Ð¾Ñģ
ÐµÐ½ ÑĩÐµ
ĠÑİ Ð½Ð¾
ĠÑĢÐ°ÑģÐ¿Ð¾Ð»Ð¾Ð¶ ÐµÐ½Ñĭ
ĠÑįÐ½ÑĨÐ¸ÐºÐ»Ð¾Ð¿ÐµÐ´ Ð¸ÑĩÐµÑģÐºÐ¾Ð¹
ĠÐ¼Ð» ÑĢÐ´
ĠÐ½Ð°Ñĩ Ð°Ð»Ð°ÑģÑĮ
ĠÐ¿ÑĢÐµÐ¼ ÑĮÐµÑĢÐ°
ĠÑĥÐ³ Ð¾Ð»Ð¾Ð²
ĠÐ°ÑĢÑħÐ¸ÑĤÐµÐºÑĤ ÑĥÑĢÑĭ
Ð¸Ð½Ð³ Ð²
ÐºÐ¾Ð² Ð¸Ñĩ
ĠÑģÐº Ð¾Ð»ÑĮÐºÐ¾
ÑĨ ÐºÐ¸Ð¹
ĠÐ¾Ð± Ð¾ÑģÐ½
ĠÑĦ Ð°Ð½
ĠÐ² ÑĥÐ·
ĠÐºÐ¾Ð½ Ð´
ĠÐ½Ð°Ñģ ÐµÐºÐ¾Ð¼
ĠÐ¿Ð¾ÑģÑĤÐµÐ¿ ÐµÐ½Ð½Ð¾
ĠÑĤÑĢ Ð¾Ð»
ĠÑģÐµÑĢÐ³ ÐµÐµÐ²Ð¸Ñĩ
ĠÐ»Ð¸Ð³ Ð°
ĠÑģÐ¿ÐµÑĨÐ¸Ð°Ð» Ð¸ÑģÑĤ
ĠÐ½Ð°ÑģÐº Ð¾Ð»ÑĮÐºÐ¾
ĠÐ¿ÑĢÐ¾ÑĪ ÑĳÐ»
ĠÐ¾ÑģÑĤÑĢÐ¾Ð² Ð¾Ð²
ĠÐ²ÑĢÐµÐ¼ ÐµÐ½Ð°
ĠÐ¿Ð¾ÑıÐ² Ð¸Ð»Ð°ÑģÑĮ
ĠÑĢÐ°Ð½ ÐµÐ½
ĠÐ¼ÐµÑģÑĤ Ð½Ð¾ÑģÑĤÐ¸
ĠÐ¿Ð¾ÑıÐ² Ð¸Ð»ÑģÑı
ĠÑĤÐ¾Ð²Ð°ÑĢÐ¸ Ñī
ĠÑģ Ð°Ð½Ð´
ĠÐ½Ð° ÑĨ
ĠÐ´Ð²Ð¾ÑĢ ÐµÑĨ
ĠÐ°Ð½ Ð½Ñĭ
ĠÐ¶ Ñİ
ĠÐºÐ°ÑĤ Ð°ÑģÑĤ
ĠÐ¶ÑĥÑĢÐ½ Ð°Ð»Ðµ
ĠÐ¾ Ð¾Ð½
ÑģÑĤÐ² Ð°Ñħ
ĠÐµ Ð´
ĠÐ²Ð¾ÑĪ Ð»Ð¸
ĠÐ¾Ð¿ ÑıÑĤÑĮ
ĠÐ¿ÑĢÐ¾ Ñħ
ĠÑģÐµÑĢ Ð¶
ĠÐ°Ð²ÑĤÐ¾ÑĢ Ð¾Ð¼
ÐµÐ½ Ð¾Ð²
ĠÑģÐµÑĢ ÐµÐ±
ĠÑįÐºÑģÐ¿ ÐµÑĢÑĤ
ĠÑģÐ¾Ð· Ð²
ĠÑĩÐµÑĢ ÐµÐ¿
ĠÐ¿Ð¾Ð²ÐµÑĢÑħ Ð½Ð¾ÑģÑĤÐ¸
ĠÐ² ÑıÐ·
ÑĨÐ¸Ñı Ñħ
ÐµÐ³ Ð°
ĠÐ½Ð°ÑĩÐ¸Ð½ Ð°ÐµÑĤ
ĠÐ»ÑİÐ± Ð¸ÑĤÐµÐ»ÑĮ
ĠÑĥÑĤ Ð²ÐµÑĢÐ¶Ð´Ð°
ĠÐ½Ð¾Ð² ÑĭÐ¼
ĠÐ¾ÑĤÑģÑĤÐ°Ð² ÐºÐµ
ĠÑģ ÐµÑĤÑĮ
Ð°ÐµÐ¼ ÑĭÑħ
Ð» Ð¸Ñģ
ĠÑģÐ¾Ð²ÑĢÐµÐ¼ ÐµÐ½Ð½ÑĭÑħ
ĠÐ¾Ð¿ÐµÑĢÐ° ÑĤÐ¾ÑĢ
Ð½Ð¸Ðº Ð°Ð¼
ĠÐ´ ÑĢÐ°
ĠÐ¿ÑĢÐµ Ð¿
ĠÑĪ ÑĥÐ¼
ĠÑĪ Ð°Ð³
ĠÐºÐ¾Ð½ÑģÐµÐ½Ñģ ÑĥÑģ
ĠÐ·Ð°Ð¿ ÑĢÐµÑĤ
ĠÑĥÑĢ Ð¾Ð¶
ĠÐ½Ð°Ñĩ Ð°Ð»Ð¾ÑģÑĮ
Ñĩ ÐµÐ½
ĠÐ¿Ð¾Ð´ Ñģ
ĠÑģÑĥÐ» ÑĤÐ°Ð½
ĠÐ±Ð°ÑģÑģÐµÐ¹ Ð½Ð°
Ð½ Ð¾Ð¶
ĠÐ¸Ð·Ð²ÐµÑģÑĤ Ð½Ð°
Ð¹ ÑĤÐµ
ĠÑįÐ½ÐµÑĢÐ³ ÐµÑĤ
ĠÐ¿ÑĢÐ°Ð² Ð°Ñħ
ĠÑĦÐ¾Ð½ Ð´Ð°
ĠÐ¼Ð¸Ð»Ð»Ð¸ Ð¾Ð½Ð¾Ð²
ĠÐ¿Ð¾Ð¿ ÑĢÐ°Ð²
ĠÐ°ÑĢÐ¼ ÐµÐ½Ð¸Ð¸
ĠÐ¿ÑĢÐ¾Ð³ ÑĢÐµÑģÑģ
ĠÑĨÐµÐ½ÑĤÑĢÐ°Ð»ÑĮ Ð½ÑĭÐ¹
Ð¾Ðº Ð¾
ÑİÑīÐ¸Ñħ ÑģÑı
ĠÑĢ Ð¸Ð³
ĠÐ»ÑİÐ± Ð¸Ð¼
Ð°ÑĨÐ¸Ð¾Ð½ Ð½ÑĭÐµ
ĠÐ°Ð·ÐµÑĢÐ±Ð°Ð¹Ð´Ð¶ Ð°Ð½Ð°
ÐµÐ½ÑĤ Ðµ
ÑĢÐ¾Ð¿ Ð¾Ð»
ĠÐ¼Ð¸Ð½Ð¸ÑģÑĤ ÑĢÐ¾Ð²
ĠÐ·Ð° ÑĢÐµÐ³Ð¸ÑģÑĤÑĢ
ĠÑĦÑĥÑĤÐ±Ð¾Ð»ÑĮ Ð½ÑĭÐ¹
ĠÑĢÐµÑĪ ÐµÐ½Ð¸ÐµÐ¼
ĠÑģÑĤÐ°ÑĤÐ¸ÑģÑĤ Ð¸ÐºÐ¸
ĠÐ²Ñģ ÐµÑģ
ĠÐ¿ÑĢÐ¸Ð± Ð»Ð¸Ð·
ĠÐ¿Ð¾ÑĢÑıÐ´ ÐºÐµ
ĠÐ± ÐµÑĤ
ĠÐ² ÐµÐ±
ĠÐ·Ð² ÑĥÐº
ĠÐ¿ÑĢÐµÐ´Ð»Ð¾Ð¶ Ð¸Ð»
ĠÐ¾ÑĤ ÐºÑĥÐ´Ð°
ÐµÑĢ Ð¿
ĠÐ¿ÑĢÐ¸Ð³ Ð¾Ð²Ð¾ÑĢ
ĠÐ¿Ð°ÑĢÑĤ Ð½
ĠÐºÐ°Ñģ Ð°ÐµÑĤÑģÑı
ĠÑĤÐµÑħÐ½ Ð¾Ð»Ð¾Ð³Ð¸Ð¸
ĠÑĢ Ð¾ÑģÐ¿
ĠÐ°Ð²ÑĤ Ð¾Ð´Ð¾ÑĢ
ĠÑĥÐ¼ÐµÑĢ ÑĪÐ¸Ðµ
ĠÑĢÐ°Ð¹Ð¾Ð½ Ð¾Ð²
ĠÐ¿ÑĢÐ¾ÑģÐ¿ ÐµÐºÑĤ
Ð» ÑĳÐ½
ĠÐ³ Ð¸
ĠÑĩ ÑĥÑĤÑĮ
ĠÐ´ÐµÐ» Ð°ÐµÑĤ
ĠÑģÑĤÐ¸Ñħ Ð¾ÑĤÐ²Ð¾ÑĢ
ĠÐ² ÐµÑģÑĤÐ¸
ĠÑģÐµÑĢ Ð¸Ð°Ð»Ð°
ÑĮ Ð¼Ð¸
ĠÐ³ÑĢÑĥÐ¿Ð¿ Ð¾Ð¹
Ð½ Ð¾Ðº
ĠÐ¸ÑģÑĤÐ¾ÑĢ Ð¸ÑĩÐµÑģÐºÐ¸Ñħ
ĠÑĢÑĥÐº Ð¾Ð¿
Ñģ Ð±
ĠÐ¿ÐµÑģ Ð½Ñİ
ĠÐ±ÑĢÐ° Ð¹
ĠÐ½ Ðº
ĠÐºÐ¾Ð¼ Ð½
ĠÐ²Ð¾Ð¿ÑĢÐ¾Ñģ Ð°Ð¼
ĠÐ¿ Ð°ÑģÑĤ
ĠÐ°Ð´ Ð°Ð¼
Ð°ÑĤÐµÐ»ÑĮ Ð½Ð¾Ð³Ð¾
ĠÐ·Ð°Ð» Ð¸Ð²
ĠÐºÐ¾Ð¼ Ð±Ð¸Ð½
Ð°ÑĤÐµÐ»ÑĮ Ð½ÑĭÐµ
ĠÑģÐµÑĢ ÐµÐ´
ĠÐ³ ÑĥÑĢ
ĠÐ³ ÑĥÐ³
ÑģÐ¿ ÐµÐºÑĤÐ¸Ð²
ĠÑģ Ñģ
ĠÐº Ð¸ÑĤÐ°
ĠÐºÐ° Ñĩ
ĠÑĤÑĢ Ð¸Ð±
ĠÑĩÐµÑħ Ð¾ÑģÐ»Ð¾Ð²
ĠÐ¿ÐµÑĢÐµÐ½ Ð¾Ñģ
ĠÐ¸ÑģÑĤÐ¾ÑĢ Ð¸ÑĩÐµÑģÐºÐ¸Ð¹
ĠÐ¾Ð¿ Ð¿
ĠÑģÐº Ð¾Ð¿
Ñĥ ÑĦ
Ð°Ð¼ÐµÑĢ Ð¸ÐºÐ°Ð½
ĠÑİ ÑĢÑĮ
ĠÐ¾ÑĩÐµÐ²Ð¸Ð´ Ð½Ð¾
Ð½Ð¾Ð² ÐµÐ½Ð¸Ñı
ĠÐ±ÑĥÐ´ Ñĥ
ĠÑĨÐµÑĢ ÐµÐ¼
ĠÐ²ÑĭÑģÑĤÑĥÐ¿ Ð¸Ð»
ĠÐ» Ð°Ð´
ĠÐ½Ð¾Ð² Ð¾Ð¼
Ð°Ð· Ð°
ĠÑĢÑĥÑģ ÑģÐºÐ¾
ĠÑĢÑĥ ÐºÐ¸
ĠÐ·Ð°Ð½Ð¸Ð¼ Ð°ÑĤÑĮÑģÑı
ĠÐ²Ñĭ Ð²
ĠÐ·Ð°ÑĢÑĥÐ± ÐµÐ¶
ĠÑģÐ°Ð¼Ð¾ ÑĥÐ¿ÑĢÐ°Ð²
ĠÑģÐ» Ñĥ
ÑĢ Ð¾Ð»
ĠÑģÐ¾ÑģÑĤÐ¾Ñı Ð»
ĠÐ·Ð¸Ð¼ Ð½Ð¸Ñħ
ĠÐ°Ð·ÐµÑĢÐ±Ð°Ð¹Ð´Ð¶ Ð°Ð½
ĠÐ± ÑĢÐ°Ð½
ĠÐ¸Ð¼Ðµ ÑİÑĤÑģÑı
ĠÑĦÐ¾ÑĢÐ¼ Ð¸ÑĢÐ¾Ð²Ð°Ð½Ð¸Ñı
ĠÐ½Ð¾Ð² Ð¾
ĠÐ°Ñį ÑĢÐ¾Ð´
ĠÐ¿ÑĢÐµÐº ÑĢÐ°Ñģ
ĠÐ±ÐµÐ»Ð°ÑĢ ÑĥÑģÑĮ
ĠÐ½Ðµ Ð¶
Ð¾Ð»ÑĮ ÑģÐºÐ¾Ð³Ð¾
ĠÑģÐ¿Ð¸ÑģÐº Ð°
Ð¸ ÑīÐµ
Ð¾Ð· Ð³
ĠÐ³ ÑĢÐ¾Ð¼
Ñı Ð½Ðµ
ĠÑĢÐ°ÑģÑģ Ð¼Ð¾ÑĤÑĢ
ĠÐ¼Ðµ ÑĪ
ĠÑģÐ² Ð¾Ðµ
ÐµÑĢ ÑĭÐ²
ĠÐ¼Ð°ÑĢ Ð¾Ðº
ĠÐ¼Ð¸ÑħÐ° Ð¸Ð»Ð°
ĠÐ¿ÐµÑĢÐµÐ¸Ð¼ÐµÐ½ Ð¾Ð²Ð°Ð½
ĠÑģÐº Ð¾ÑĤ
ÑĪÐ°Ñı ÑģÑı
ĠÑģ Ð¾Ð»ÑĮ
ĠÑĦÐ¾ÑĢ ÑĥÐ¼
Ð¾ÑģÑĤ ÐµÐ¹
ĠÑĢÐ°Ñģ ÑħÐ¾Ð´
ĠÐ¾Ñģ Ð¼Ð°Ð½
ĠÐ¿ÑĢÐµÐ´ ÑĥÑģ
ĠÐ°ÑĤ Ð¾Ð¼
ĠÑĥ Ñį
ÑĦ Ð¸Ð»
ĠÐ¾Ð± Ð»Ð¾Ð¶
ĠÑĥÑģÐ¿ÐµÑĪ Ð½Ð¾
ĠÑĢÑĥÑģ ÑģÐº
ĠÐ´ÐµÐ¼ Ð¾Ð½ÑģÑĤ
Ð½ Ð¸ÑĨÐµ
ĠÑĤÑĥÑĢ ÑĨÐ¸Ð¸
ĠÐ¿Ð¾ÑıÐ² Ð»ÑıÐµÑĤÑģÑı
ĠÐ¶ Ñĥ
ĠÐ²ÑĭÐ¿ÑĥÑī ÐµÐ½
ĠÑĦÐµ Ð¾Ð´
Ð°Ð» ÐµÐ¹
ĠÑĪÑĤÑĥÑĢ Ð¼
ÐµÐ» ÐµÑģ
ĠÐ¼Ð¾Ð´ Ð¸ÑĦ
ĠÑģ Ð½Ð¾
ĠÑĦÐ¸Ð½ Ð°Ð»Ð°
ĠÐ¼ÑĥÐ·ÑĭÐº Ð°Ð½ÑĤÑĭ
ĠÑĦÐ¸Ð½Ð»ÑıÐ½Ð´ Ð¸Ð¸
ĠÐ¾ÑĤ Ð¾Ð±
ĠÐ²Ð¾Ð¾ÑĢÑĥÐ¶ ÑĳÐ½Ð½ÑĭÑħ
ĠÐºÐ°Ð¼ ÐµÑĢ
ĠÑįÑĢ Ð½
ĠÐ·Ð° ÑģÐµÐ´
ĠÑģÐº Ð°Ð½Ð´
ĠÐ±Ð¾ Ñİ
ĠÑİ Ð½
ĠÑįÐ½ ÑĤ
ĠÑİÐ¶ Ð½Ð°Ñı
ĠÐ¸Ð´Ðµ Ð¸
ĠÐ¿ÑĢÐ°Ð²Ð¸Ð»ÑĮ Ð½Ð¾
ĠÐ²Ð¾Ð»Ð¾Ð³Ð¾Ð´ ÑģÐºÐ¾Ð¹
ĠÐ¿Ð¾Ð»Ñĥ ÑĦÐ¸Ð½
Ð¾ Ð¸Ð½
ĠÐ¼Ð°Ðº ÐµÐ´
ĠÑģÐ¾ÑģÑĤÐ¾Ñı Ñī
ĠÐ²Ñĭ ÑĩÐ¸Ñģ
ĠÐ¾Ð±ÐµÑģÐ¿ÐµÑĩ ÐµÐ½Ð¸Ñı
Ð¾Ð²Ð°Ð½ Ð½ÑĭÑħ
ĠÐ°Ð½Ð´ÑĢÐµ ÐµÐ²Ð¸Ñĩ
ĠÐµÐ»Ð¸Ð· Ð°Ð²
ĠÑĤ Ð°Ð´Ð¶
ĠÐ¿Ð¾Ð´ Ð²
ĠÐ³Ð¾Ð²Ð¾ÑĢ Ñı
ĠÑģÐµÑĢÐµÐ±ÑĢÑı Ð½ÑĭÐ¹
ĠÐ¾ÑĤÐ´ÐµÐ»ÑĮ Ð½ÑĭÐµ
ĠÐ½ÐµÐ¹ÑĤ ÑĢÐ°Ð»ÑĮ
Ð¸Ð½Ð³ ÑĤÐ¾Ð½
ĠÐ²Ð¿ ÐµÑĩÐ°ÑĤ
ĠÐ³Ð°Ð· ÐµÑĤ
ĠÐ±Ñİ ÑĢÐ¾
ĠÐ³ Ð»Ð°
ĠÐ¶ Ð´
ĠÐ¸Ð³ ÑĢÑĥ
ĠÐ¿Ð¾Ð»Ð¸ÑĤ Ð¸ÐºÐ°
ĠÐ½ÐµÐ±Ð¾Ð»ÑĮÑĪ Ð¾Ð¹
ĠÑħ Ð¸ÑĤ
ĠÐ¶ÐµÐ½ Ð°ÑĤ
ĠÐ³Ð¸ÑĤ Ð°ÑĢ
ĠÑģÐ¾Ð´ÐµÑĢÐ¶ Ð°Ð½Ð¸Ðµ
ĠÐ°Ð» ÑĤÐ°Ð¹
ĠÐº ÑĥÑĤ
ĠÐº Ð¾Ñĩ
ĠÐ±ÑĢÐ° ÑĤÐ°
ĠÐ¿ÑĢÐ¾Ð¿ Ð°Ð³
ĠÐ²Ð¸Ð´ Ñĥ
ĠÐ» Ð¾ÑĪ
ĠÑģÑĥÑīÐµÑģÑĤÐ² Ð¾Ð²Ð°Ð½Ð¸Ðµ
ĠÐ°Ð»ÑĮ ÑĤ
ĠÑĤÑĢÐ°Ð´ Ð¸ÑĨÐ¸Ð¸
ĠÑĤ ÑĥÐ´Ð°
ĠÐ¶ Ð¸Ð»Ð¸
ĠÐ¾Ð±ÑĬÐµÐ´Ð¸Ð½ ÐµÐ½Ð¸Ñı
Ð¾Ð· ÐµÑĦ
ĠÐ¸Ð± Ð½
ĠÑĪÐ¾ÑģÑģ Ðµ
ĠÐ½ ÐµÐ»
ĠÐ¿Ð¾ÐºÐ°Ð· Ð°ÑĤÐµÐ»ÑĮ
ĠÐ¾ÑĤÐº ÑĢÑĭÐ²
ĠÐ±ÑĢÐ°Ð· Ð¸Ð»ÑĮ
Ð°ÑĢ Ð¸Ð¹
ĠÑĦÑĢÐ°Ð½ÑĨÑĥÐ· ÑģÐºÐ¾Ð¹
ĠÐ²Ð¾ÑĪ ÑĳÐ»
Ñħ Ð°Ð¹
ĠÐ½Ð° ÐºÐ°Ð·
ĠÐ¿Ð¾Ð»ÑĥÐ· Ð°ÑīÐ¸ÑĤ
Ð¾ ÑĢÐ°ÑĤÐ¸Ð²
Ð¾Ðº Ð¾Ð¹
ĠÐ²ÑĭÑģ Ð¾ÑĤÐµ
ÑĥÑģÑģ Ð¸Ñı
ĠÐ± ÑĢÐ¾Ñģ
ĠÑĢÐµ ÐµÑģÑĤ
Ð¸Ð´ Ð¶
ĠÐ¾Ð¿ ÑĢÐ¾Ñģ
ĠÐ¼Ð°ÑĢ Ñģ
ĠÑĢÐ¾Ð¼ Ð°Ð½Ð¾Ð²
ĠÐ³ ÐµÐ¹
ĠÐ´ÑĢÑĥÐ³ Ð¾Ð³Ð¾
ĠÑĤÐµÐ»ÐµÐ²Ð¸Ð· Ð¸Ð¾Ð½
ĠÐ½Ð° Ð¿ÑĢÐ°Ð²Ð»ÐµÐ½Ð¸Ðµ
ĠÐ¼ÐµÑģÑĤ Ð°Ñħ
ĠÐ±ÐµÑĢ Ð½
ĠÐ¸Ð³ÑĢÐ¾Ðº Ð°
ĠÐº Ñį
Ñħ Ð¸
ĠÐ²ÑĭÑģÐºÐ° Ð·ÑĭÐ²
ĠÐ°Ð²ÑĤÐ¾Ð¼Ð¾Ð± Ð¸Ð»
ÑģÑĤÐ² Ð¸Ðµ
Ð¸ÑĢÑĥ ÑĢÐ³
ĠÐ´ Ð¾Ð±Ñĭ
ĠÑĥ ÑĢÐ°Ð»ÑĮ
ĠÑħ Ð²Ð°ÑĤ
Ð²Ð° ÑĪ
ĠÐ¿Ð¾ÑĢÑıÐ´ Ð¾Ðº
Ð¼ ÐµÐ½Ð°
ÑĨÐ¸Ð¾Ð½ Ð½Ð¾Ð³Ð¾
ĠÐ¾ÑģÐ½Ð¾Ð² Ð½Ð°Ñı
Ð¸Ð² Ð°ÑĤÑĮÑģÑı
Ð°ÐµÐ¼ ÑĭÐ¹
ÑģÐº Ñĥ
ĠÑĤÑĢÐµÑĤÑĮ ÐµÐ³Ð¾
ĠÐ¿ÑĢÐ¾ÑĨÐµÑģÑģ Ðµ
Ð· ÐµÐ¼
ĠÐ°Ð¼ÐµÑĢÐ¸ÐºÐ°Ð½ ÑģÐºÐ¾Ð³Ð¾
ĠÐ»ÐµÐ³ ÐµÐ½Ð´
ĠÑģÑĩÑĳÑĤ Ð¾Ð¼
ĠÐ´ Ð½Ð¸
ĠÐ±Ñİ Ð´Ð¶
ĠÑģÐ¾Ð·Ð² ÐµÐ·Ð´
ĠÐ¿Ð¾Ð»Ð¸ÑĤ Ð¸Ðº
ĠÑĥ Ð¾Ð»
ĠÐ» Ð¾ÐºÐ¾Ð¼
ĠÑıÐ·Ñĭ ÐºÐ°Ñħ
ĠÐ¿ÐµÑĢÑģÐ¾Ð½Ð°Ð¶ ÐµÐ¹
Ð»Ð¸ Ð½Ñĭ
ĠÐ·Ð°Ðº ÑĢÐµÐ¿
ĠÐ¿Ð¾Ð»Ð½Ð¾Ð¼ Ð¾Ñĩ
ĠÑįÐº Ð²
ĠÐ¿ÐµÑĢÐµÐ² Ð¾Ð·
Ð¾ÑĢ Ð¸
ĠÐ²Ñĭ Ð³Ð»ÑıÐ´
ĠÐ¿Ð¸Ñģ Ð°ÑĤÐµÐ»ÐµÐ¹
ĠÑĥÐ´ Ð¾Ð²Ð»ÐµÑĤÐ²Ð¾ÑĢ
ĠÐ¶ÐµÐ½Ñī Ð¸Ð½Ð°
Ð°Ð½ Ð½ÑĭÐ¼
ĠÐ²Ð¾ÑģÑĤÐ¾Ðº Ð°
ĠÐ²Ð¾Ðº Ð·
ĠÑįÐ¿Ð¾Ñħ Ð¸
ĠÐ° Ð´Ð°
ĠÐ¼Ñĭ Ñģ
ĠÐ³ÑĥÐ±ÐµÑĢÐ½ Ð¸Ñı
ĠÐ²Ð¾Ð·Ð³Ð»Ð°Ð² Ð¸Ð»
Ð°Ð»ÑĮ Ñı
ĠÐ¸Ð¼ ÐµÐ»Ð°
ĠÐºÐ°ÑĢÑĤ Ð¸Ð½Ð°
ĠÐ¿ÑĤ Ð¸ÑĨ
ĠÑĥÐºÑĢÐ° Ð¸Ð½
ĠÐ¸Ð³ÑĢÐ¾Ðº Ð¾Ð²
ĠÐ°ÑĢÐ±Ð¸ÑĤ ÑĢÐ°Ð¶
ĠÐ¿Ð¾Ð» Ð½ÑĭÐ¹
ĠÐ¼ÐµÑģÑĤ Ð½ÑĭÑħ
ĠÐ´Ð°Ð½ Ð½Ð¾Ðµ
ĠÑĥÑģÑĤ Ð°Ð½Ð°Ð²Ð»Ð¸Ð²
ĠÑģÑĤÐ¾Ð» Ð¸ÑĨÐ°
Ð» ÐµÑĢÐ°
ĠÑģ ÑĥÐ½
ĠÐ¾ÑĢÐ³ Ð°Ð½Ð¾Ð²
ĠÑģ ÐµÐ³
Ð¸Ñĩ Ð½Ð¾Ð³Ð¾
ĠÐ¿Ð¸Ñģ Ð°ÑĤÐµÐ»Ñı
ĠÐ´Ð¾Ð±ÑĢÐ¾Ð² Ð¾Ð»ÑĮ
ĠÐºÐ¸ÑĤ ÑĤ
ĠÐ² Ð°Ð¼Ð¸
ĠÐ¼ ÑıÐ³
ĠÐ¼Ð°ÑĪ Ð¸Ð½Ñĭ
ĠÑģÐ²Ð¾Ð±Ð¾Ð´ Ñĭ
ĠÑĢÐ°Ð·Ð½Ð¾ Ð¾Ð±ÑĢÐ°Ð·
ĠÑĢÐ°Ð±Ð¾ÑĤ Ð°Ð»Ð°
Ð» Ð¾Ð³
ÐµÐ´ Ð»Ð¸Ð²
ĠÐ²Ð·ÑĢÐ¾Ñģ Ð»
Ð¸ÑĢ Ñĭ
ĠÐ»ÑĥÑĩ ÑĪÐ°Ñı
ĠÐ¿Ð¾Ð´Ð¿Ð¸Ñģ Ð°Ð»
ĠÐ²ÑģÐµÑģ Ð¾ÑİÐ·
ĠÐ¾ Ð°Ð¾
ĠÐ¿Ð¾Ð´ Ð±
ĠÐºÑĢÑĭ Ð»ÑĮ
ĠÑĤÐ¾ÑĢ Ð¿ÐµÐ´
ĠÐ°Ð²Ð¸ Ð°ÑĨÐ¸Ð¸
ÑĢÑĥ ÐµÑĤ
Ð»Ð¸ ÑģÑĤ
ĠÐ²Ñģ ÐµÐ¼Ñĥ
ĠÐ´Ð° ÑĳÑĤ
ĠÐ¸Ð² Ð°Ð½Ð°
ĠÐ¼Ð°ÑĢÑĪ ÑĢÑĥÑĤ
ĠÐ· ÐµÐ½Ð¸ÑĤ
ĠÐ¾Ð´ ÐµÑģ
ĠÐ¾ÑģÐ½Ð¾Ð²Ð°Ð½ Ð°
ĠÐ³ ÑĢÐ°Ð²
Ð¾Ð± Ð¾ÑĢ
ĠÐ¿Ð¾ÑĢÑıÐ´ ÐºÐ°
ĠÐ± Ð°ÑĤÐ°
ÐµÐ² ÑĭÐ¼
ĠÑĩÐµÑĢ ÑĤ
ĠÐ¿Ð¾Ð»ÑĥÑĩ ÐµÐ½Ð¸Ñı
ĠÐ¿ÑĢÐ¸Ð½Ñı Ð»Ð¸
ĠÐ¿Ð¾Ñģ Ð¾Ð»ÑĮ
ĠÑĢÐµÐºÐ¾Ð½ÑģÑĤ ÑĢÑĥÐº
ÑģÑģ Ðµ
ĠÐ¿ ÐµÐ¹
ÑĤ ÑĢ
ĠÐ¾Ð¿ÑĢÐµÐ´ ÐµÐ»ÐµÐ½Ð¸Ðµ
ĠÐ²ÑħÐ¾Ð´ Ð¸Ð»
Ñĩ Ð¶
ĠÐ´Ð¾Ð¼ Ð¾Ð²
ĠÐ²ÐµÐ»Ð¸Ðº Ð°Ñı
ĠÐ²ÑĭÑģÑĤÑĥÐ¿ Ð°ÐµÑĤ
ĠÑģÐ½ Ð°ÑĢ
ĠÑĥÐ³ ÑĢÐ¾Ð·
ĠÑģÐ¸Ð½Ð³ Ð»
ĠÐºÑĥÐ»ÑĮÑĤ ÑĥÑĢÐµ
ĠÐ´Ð¸Ð½Ð°ÑģÑĤ Ð¸Ð¸
ĠÐ» Ð°Ð¿
ĠÐ¿Ð» ÐµÐ¹
ĠÐ²Ð² Ð¾Ð´
ĠÑģÑĥÑīÐµÑģÑĤÐ² Ð¾Ð²Ð°Ð½Ð¸Ñı
ĠÐ¿ÐµÑĢ ÑģÐ¿ÐµÐºÑĤÐ¸Ð²
ĠÐ´ Ð°ÑĤÑĮ
ĠÐ½Ð°Ñĩ Ð¸Ð½Ð°
ĠÐ¾ÑģÑĤ Ð°ÑĤ
ĠÐ¿Ð¾Ð»Ñĥ Ð¾ÑģÑĤÑĢÐ¾Ð²
ĠÐ» Ð¾
Ð¶Ðµ Ð±
ĠÐºÐ¾Ð¼Ð°Ð½Ð´ Ð¾Ð²Ð°Ð½Ð¸ÐµÐ¼
Ð¾ ÑħÐ¾Ð´
ĠÐ¾Ð³ Ð½
ĠÐ½Ð° ÑĢÑıÐ´Ñĥ
ĠÑĢ Ð¸ÑĤ
ĠÑĢÐµ ÑĩÐ¸
ĠÑĥÑģ Ð°Ð´ÑĮ
ĠÐ¿ÑĢÐµÐ² ÑĢÐ°Ñī
ĠÑģÐ»ÐµÐ´ÑĥÑİÑī ÐµÐ¼
ĠÐ²Ð°Ð» ÐµÑĢÐ¸Ð¹
ĠÐ² ÑĢÐ°Ð³
ÑĥÑĢ ÑĤ
ĠÑĢÐ°Ð· Ð¾Ð±
ĠÑĥÑģÑĤÑĢÐ¾Ð¹ ÑģÑĤÐ²Ð¾
ĠÐ²ÐµÐº Ð¾Ð²
ĠÐ³ÑĢÑĥÐ· Ð¸Ð¸
ĠÐ»Ð¾ÐºÐ¾Ð¼ Ð¾ÑĤÐ¸Ð²
Ð° ÑĢÐµ
ĠÐ´ Ð¸Ð¼
ĠÑĥ Ñħ
ĠÐ³ÑĢÐ¸Ð³Ð¾ÑĢÑĮ ÐµÐ²Ð¸Ñĩ
ĠÑģÑĤ Ð¾Ð»ÑĮ
ĠÐ½Ðµ Ð¿Ð¾Ð½
ĠÐ¾Ð¿ ÐµÑĢÐ°ÑĤÐ¸Ð²
ĠÑĪ Ð°Ð½
ĠÐ¾ÐºÐ°Ð· Ð°Ð»ÑģÑı
ĠÐ¾ÑĤÐºÑĢÑĭÑĤ Ð¸Ñı
ĠÐºÐ²Ð°Ð´ ÑĢÐ°ÑĤ
ĠÐ²ÐµÑĢÑħ Ð½ÑıÑı
ĠÐ¶ Ð¸Ð´
ĠÐ² Ð°Ð¹
ĠÑģÐ¾Ð· Ð½
ĠÑĤÐµÐ» Ð¾
ĠÐ°ÐºÑĤ ÑĢÐ¸Ñģ
Ð¼Ð¾ÑĤ ÑĢÐµÑĤÑĮ
ĠÐ¿ÑĢÐ¸Ð²Ð¾Ð´ Ð¸ÑĤ
ĠÐ¾ÑĢ Ð±
Ð°ÑĤÐ¾ÑĢ Ñĭ
ĠÐ¿ÑĢÐ¾ÑħÐ¾Ð´ Ð¸Ð»
ĠÐ³ Ð°ÑģÑĤ
ĠÐ¿ÑĢÐµÐ´ÑģÑĤÐ°Ð² Ð»ÐµÐ½
ĠÐ²ÑĭÑģÑĤÐ°Ð² ÐºÐ°
ĠÐ¾ÑĢÐ¸Ð³Ð¸Ð½ Ð°Ð»ÑĮÐ½Ð¾Ðµ
Ð¾Ð»ÑĮ Ð´
ĠÐ°ÑĦ Ð³Ð°Ð½
ĠÐ¸Ð½ Ð²ÐµÑģÑĤ
ĠÑģÑĩ Ð°ÑģÑĤ
ĠÐ¸ÑģÐºÐ»ÑİÑĩ ÐµÐ½Ð¸ÐµÐ¼
ĠÐ°ÑĢ ÐµÐ½Ð´
ĠÐ±Ð¾ÐµÐ² Ð¾Ð¹
ĠÐ²ÑģÑĤÑĢÐµÑĩÐ° ÑİÑĤÑģÑı
ĠÐ²ÑĮ ÐµÑĤ
ÑĦ Ð¾Ð½
ĠÑģÐ¾Ð± Ð¾ÑĢÐ°
ĠÑģÐ²Ð¸Ð´ÐµÑĤÐµÐ»ÑĮ ÑģÑĤÐ²
ĠÐ²ÑĭÐ½ÑĥÐ¶Ð´ ÐµÐ½
ĠÐ¿Ð¾ ÑĢÐ°Ð¶
ĠÐ²Ð· ÑıÐ»
ĠÐºÑĢ Ð¸Ð·
ĠÐ¿Ð¾ÑģÑĤÑĢÐ¾ ÐµÐ½Ð°
ĠÑģÑĤÐ¾Ð» ÐµÑĤ
ĠÐºÐ¾ÑĢÐ°Ð± Ð»ÐµÐ¹
ÑģÑĤÐ¾ ÑıÑĤÐµÐ»ÑĮ
Ð¾Ðº Ðµ
ĠÑģÐ¾ÑģÑĤÐ°Ð²Ð»Ñı Ð»Ð°
Ð¸Ñĩ Ð½Ð°Ñı
ÑĢ Ñİ
ĠÑĥÑĩÐµÐ½ Ð¸ÐºÐ¸
ĠÐ½Ð°ÑĩÐ°Ð» Ð¾Ð¼
ĠÐ´ ÐµÐ´
ĠÐ¿ÑĢÐ¸Ð¼ Ð¾ÑĢ
ĠÐ¾ÑĤÐ½Ð¾ÑĪ ÐµÐ½Ð¸Ð¹
ĠÑĩÑĢÐµÐ· Ð²Ñĭ
ÐµÐ»ÑĮ Ð½Ð°Ñı
Ð¸ÑĢÐ¾Ð²Ð°Ð½ Ð½Ð¾Ð¹
Ð¿ ÐµÑĢ
ĠÐ¸Ð³ ÑĢÐ¾Ð²
ĠÑĥÐ± ÐµÐ´
ĠÑıÐºÐ¾Ð² Ð»
ĠÑģÑĢÐµÐ´ Ð½ÐµÐ¼
ĠÑĥÐ¶ Ð°Ñģ
ĠÐ½ ÑĤ
ĠÑĢÐ¾Ð´ ÑģÑĤÐ²ÐµÐ½
ĠÑĪÐ²ÐµÐ¹ÑĨÐ°ÑĢ Ð¸Ð¸
ĠÑĩÑĢÐµÐ·Ð²Ñĭ ÑĩÐ°Ð¹
ĠÑĩ Ð¸Ð½Ð¾Ð²
ĠÐ²Ñĭ Ð½ÐµÑģ
ĠÐ¼Ð¾Ð½ Ð°ÑĢÑħ
ĠÑįÐ»ÐµÐ¼ ÐµÐ½ÑĤÐ¾Ð²
ĠÐ³ÐµÐ½ÐµÑĢÐ°Ð»ÑĮ Ð½Ð¾Ð³Ð¾
ĠÐ²Ñĭ Ð¼
ĠÐ¼Ð°Ð¹ Ðº
Ð¿ÑĢ Ð¾Ñĩ
ÐµÐ· Ð¶
ÑĨÐ¸Ð¾Ð½ Ð½ÑĭÑħ
ĠÐ¼ÐµÐ¶Ð´ÑĥÐ½Ð°ÑĢÐ¾Ð´ Ð½ÑĭÐµ
ĠÐ¼ÑĥÐ· ÐµÐµ
ĠÐ°Ð½Ñģ Ð°Ð¼Ð±
ĠÐ¼ Ð¸Ð´
ÐµÑĨ ÐºÐ¾Ð³Ð¾
Ð°Ð½Ð¾Ð² Ð¾
ÑĥÑĢ Ð¸
ÑĢÐ¾Ð² Ð¾Ð´
ĠÐ¼Ð¾ ÐµÐ¼Ñĥ
ĠÐ¸Ð·ÑĢÐ° Ð¸Ð»Ñı
ĠÐ¸ÑĢÐ»Ð°Ð½Ð´ Ð¸Ð¸
ĠÐ¾Ð±ÑĥÑĩ ÐµÐ½Ð¸Ñı
ĠÑĢÐ¾Ð¶Ð´ ÐµÐ½Ð¸Ð¸
ĠÐ¿Ð¾Ð»Ð¸ÑĤ Ð¸ÑĩÐµÑģÐºÐ¸Ñħ
ĠÐ½ÐµÐ´ Ð°Ð²
ĠÑĤÐµÑĢÑĢÐ¸ÑĤÐ¾ÑĢ Ð¸Ñİ
ĠÐ¸ Ð¾Ð³
ĠÐ¾ÑĨÐµÐ½ ÐºÐ¸
ĠÑģÑĨÐµÐ½Ð°ÑĢ Ð¸ÑģÑĤ
Ð» ÑĥÑĩ
ĠÑģÐ¾ÑĨ Ð¸
ĠÑģÐ¾Ñĩ ÐµÑĤ
ĠÐ²Ð¿ Ð°Ð´
ĠÐ¾Ð´Ð¸Ð½ Ð¾Ñĩ
ĠÑĨÐµÐ½ÑĤÑĢÐ°Ð»ÑĮ Ð½Ð¾Ð³Ð¾
ĠÐ´Ð¾Ð±Ð°Ð² Ð¸ÑĤÑĮ
ĠÐ²ÑħÐ¾Ð´ Ð¸Ð»Ð°
ĠÐ¸Ð´Ðµ Ñı
ĠÑģÐºÐ° Ð¶
ĠÐ¼ ÑİÐ½
ĠÐ´ÑĢÐµÐ² Ð½ÐµÐ¹
ĠÑĢÐ°ÑģÐ¿Ð¾Ð»Ð°Ð³ Ð°ÐµÑĤÑģÑı
ÑĢÐ¾ Ð¸Ð·Ð²
ĠÑĢÐ°ÑģÑģÑĤÐ¾ÑıÐ½ Ð¸Ð¸
ĠÐ¿Ð¾Ð´ ÑĬ
Ð°ÑĤÐ¾ÑĢ Ð¾Ð¼
ĠÑģÑĤÑĥÐ´ Ð¸Ð¹
Ð½Ð° Ñģ
ĠÐ¿Ð¾ÑĤ ÐµÑĢÐ¸
ĠÐ¿ÑĢÐµÐ´ÑĪÐµÑģÑĤÐ²ÐµÐ½ Ð½Ð¸Ðº
Ð¾ Ñİ
Ð¿ Ñģ
ĠÐºÐ¸ÑĢ Ð³Ð¸Ð·
ĠÐ°ÑĤÐ» Ð°Ð½ÑĤ
Ðº ÐµÐ²Ð¸Ñĩ
Ð°Ðº Ð¾Ð½
ĠÐ°ÐºÐ°Ð´ÐµÐ¼ Ð¸Ñı
ĠÐ»Ð°ÑĥÑĢÐµ Ð°ÑĤÑĭ
ĠÐ·Ð° Ð´ÐµÑĢÐ¶
ĠÐº Ð¸Ð¼
ÑĢÑı Ð·
ĠÐ² ÑıÑĩ
ĠÐ¾ÑĤ Ð±Ð¾ÑĢ
ĠÐºÐ°ÑĢ Ð»Ð°
ĠÐ±Ð°ÑĤÐ°Ð»ÑĮ Ð¾Ð½Ð°
ĠÑģÑĤÑĢÐµÐ»ÐºÐ¾Ð² Ð¾Ð¹
ĠÐ½Ðµ ÑģÑĤ
ĠÐ²ÐµÐ»Ð¸ÐºÐ¾Ð±ÑĢÐ¸ÑĤ Ð°Ð½Ð¸Ñı
ĠÑĤ Ð¾Ð±
ĠÑĢÐµÑģÐ¿ÑĥÐ±Ð» Ð¸ÐºÐµ
ĠÐ´Ð¸Ñģ ÑĨÐ¸Ð¿
ĠÐ°ÐºÐ°Ð´ÐµÐ¼ Ð¸Ðº
ĠÐ±Ð¾Ð¼Ð±Ð°ÑĢÐ´ Ð¸ÑĢÐ¾Ð²
ĠÐ²Ð¾ÑģÑģÑĤ Ð°Ð½Ð¸Ñı
ĠÑįÐ»ÐµÐ¼ ÐµÐ½ÑĤÑĭ
ĠÐ¿ÑĢÐ¾ÐµÐºÑĤ Ñĥ
ĠÐ¿ÑĢÐ¸Ð½Ð°Ð´Ð»ÐµÐ¶ Ð¸ÑĤ
ĠÐ¶Ð¸Ð²Ð¾ÑĤ Ð½ÑĭÐµ
ÐµÑĤ ÑĤ
ĠÐ²Ñĭ ÑıÐ²
Ð»ÐµÐ½ Ð½Ð¾
Ð¾Ð½ ÑģÐºÐ¸Ð¹
ÑĥÑĪ ÐºÐ°
ĠÐ¼ÐµÑħÐ°Ð½ Ð¸Ð·Ð¼
ĠÐ» Ð¾Ð²
ĠÐ±Ð¾Ð³ Ð¾ÑĢÐ¾Ð´
ĠÑĩÑĥÐ² ÑģÑĤÐ²
ĠÐ»ÑĥÑĩ ÑĪÐ¸Ð¼
ĠÐºÐ¸Ð»Ð¾Ð¼ÐµÑĤ ÑĢÐ¾Ð²
Ð³ ÐµÑĢ
ÑĦ ÐµÐºÑĤ
Ð°Ðº Ñģ
ĠÐ°ÑĤ Ð¼Ð¾Ñģ
ĠÐ¿ÑĢÐµÐµÐ¼ Ð½Ð¸Ðº
ÑĨ ÐµÐ¿
ĠÐ¸ÑģÐ¿Ð¾Ð»ÑĮÐ· Ñĥ
ĠÐ¸Ð³ ÑĢÐ°ÑĤÑĮ
ĠÐ´ÐµÐ² ÑıÑĤ
ĠÐºÐ¾Ð¼ Ñĥ
ÑģÑĤÐ²ÐµÐ½ Ð½Ð¾Ðµ
ĠÐ²Ð· ÑĢÑĭÐ²
ĠÑįÐºÐ· ÐµÐ¼Ð¿
ÐµÑģÑĤ ÐµÑĢ
ÑĤ ÐµÐ´
ĠÐ¿ÐµÑĢÐµÐµÑħ Ð°Ð»
ĠÐ³ ÑĥÐ¼Ð°Ð½
ĠÑĨ ÐµÐ»Ð¸
ĠÐ±Ð°Ð» ÑĤÐ¸Ð¹
ĠÑĥÐºÑĢÐ° ÑĪ
ĠÑĦÐ¸Ð½ Ð°Ð»Ðµ
ĠÐ´Ð¸ÑĢÐµÐºÑĤÐ¾ÑĢ Ð¾Ð¼
ĠÐ°Ð»ÐµÐºÑģ ÐµÐµÐ²
ĠÐ¿Ð°Ð²Ð»Ð¾Ð² Ð¸Ñĩ
ĠÐ¼Ð°ÑĤÑĩ Ð°Ñħ
ĠÐ°Ð²ÑĤÐ¾Ð¼Ð°ÑĤ Ð¸ÑĩÐµÑģÐºÐ¸
ĠÐ±Ð¾Ð»ÑĮÑĪ ÐµÐ¹
ĠÐ±ÐµÐ» ÑĭÐ¹
ĠÑģÐµÐ²ÐµÑĢ Ð½ÑĭÐ¹
ÐµÐ»ÑĮ Ñģ
ĠÐ¸Ð· Ð²
ĠÐ¾Ð±ÑģÑĥÐ¶Ð´ ÐµÐ½Ð¸Ð¸
ĠÐ¿Ð¾Ð³ ÑĢÐ°Ð½Ð¸Ñĩ
Ð¸ÑģÐº Ð¸
Ñĩ ÑĥÐº
ĠÐ¾ÐºÐ¾Ð½Ñĩ Ð°Ð½Ð¸Ð¸
ĠÑįÐºÐ·ÐµÐ¼Ð¿ Ð»Ñı
ĠÐ¾Ð± ÑģÑĤÐ¾ÑıÑĤÐµÐ»ÑĮ
ĠÐ¿Ð¾Ð¿ Ð°Ð»
ĠÐ¼Ð°Ðº Ñģ
ĠÐºÑĢÐ° ÐµÐ²
ĠÐ¸ÑģÑĤÐ¾ÑĢ Ð¸ÑĩÐµÑģÐºÐ¸Ðµ
ĠÑĤ ÑĥÐ½
ÑĥÑĤ ÑģÑı
ĠÐ»Ð°ÑĤÐ² Ð¸Ð¸
Ð¾Ð³ Ðµ
ĠÑĥ ÐµÑĦÐ°
ÑĨÐ¸Ð¾Ð½ Ð½Ð¾Ð¹
ĠÑģ Ð°Ð»ÑĮ
Ñī Ð¸ÐºÐ¸
Ð¸Ñĩ Ð½ÑĭÐ¼
ĠÑĪ ÐµÑģÑĤÐ¸
ĠÐ²Ð¾Ð· ÑĢ
ĠÐ¿Ð¾ ÐµÐ´Ð¸Ð½
ĠÐ½ÐµÐ´ ÐµÐ»Ñİ
ĠÑģÑĢÐ°Ð²Ð½ ÐµÐ½Ð¸Ñİ
ĠÐ¿Ð¾Ð½ÑıÑĤ Ð¸Ðµ
ĠÐ²Ñĭ ÑħÐ¾Ð´Ð¸ÑĤ
ĠÐ³ÐµÐ½ ÑĢÐ¸
ĠÐ¾ÑģÐº Ð¾ÑĢÐ±
Ð¾Ñĩ ÑĮ
ĠÐ²Ð¾Ð·Ð´ ÐµÐ¹ÑģÑĤÐ²
ĠÑģÑİ Ð´Ð°
ĠÑįÐ´Ñĥ Ð°ÑĢÐ´
Ð»Ð¾ Ñī
ĠÑĥÐ´Ð°Ð» ÑıÑĤÑĮ
Ð¸Ð°Ð»ÑĮ Ð½Ð°Ñı
ĠÐ¿Ð¸ÑģÑĮ Ð¼Ð¾
ĠÐ¿ÐµÑĢÐµÐ³ Ð¾Ð²Ð¾ÑĢ
Ð± Ð»
Ð´ ÑĤ
Ð¾Ð´ Ð¾Ð»
ĠÐºÐ¾Ð½ÐºÑĥÑĢ ÑģÐ°
ĠÐ½Ð°Ð·Ð½Ð°Ñĩ ÐµÐ½Ð¸Ñı
Ð°Ðº Ð¸Ð¸
Ð°Ð½ÑĤ Ð¾Ð¼
Ð¾Ð½ ÐµÐ·
Ð¸Ñģ ÐµÐ¹
ĠÑħÑĥÐ´Ð¾Ð¶ÐµÑģÑĤÐ²ÐµÐ½ Ð½ÑĭÐ¹
Ð¸ÑģÑĤ ÐºÐ°
ĠÐºÑĢÑĥÐ¿ Ð½ÑĭÐ¹
ĠÐ´ Ð½ÐµÐ²
ĠÐ¿Ð¾ ÑĢÐ°Ð¶ÐµÐ½Ð¸Ðµ
ĠÐ¼Ð¾ÑģÐº Ð²Ñĥ
ĠÐ±Ð°ÑĪÐºÐ¾ÑĢÑĤ Ð¾ÑģÑĤÐ°Ð½
ĠÐ¾ÑģÐµÐ½ÑĮ Ñİ
Ð°Ð½ÑĤ Ð¾Ð²
ĠÑħÐ² Ð¾ÑģÑĤ
ĠÐ± ÑĢÐ°ÑĤÑĮ
ĠÐ¿ÑĢÐµÐ´ Ð¼
ĠÐºÐ¸Ð½ÐµÐ¼Ð°ÑĤ Ð¾Ð³ÑĢÐ°ÑĦ
ĠÑģÐ°Ð¼ ÑĭÐµ
ĠÐ¼Ð¾Ð¶ÐµÑĤ Ðµ
ĠÐºÐ¾Ð¿ Ð¸Ð²
ĠÐ±Ð»Ð°Ð³Ð¾Ð´ Ð°ÑĢ
ĠÐ¿Ð¾ÑģÐ»ÐµÐ´ Ð½ÐµÐ³Ð¾
ĠÐ²Ð¾ÑģÑĮ Ð¼
Ð¿ Ðµ
ĠÐºÐ°ÑĦÐµÐ´ ÑĢÑĭ
Ð¾Ð¹ ÑĤÐ¸
ĠÑĢÐ°Ð· ÑĬ
Ð»ÐµÐ´ÑģÑĤÐ² Ð¸Ðµ
ĠÐ¾ÑĤÐ»Ð¸Ñĩ Ð°ÐµÑĤÑģÑı
ĠÐ¼ Ð°Ð½Ð´
Ð¾Ð¼ Ð°ÑĤ
ĠÑģÐ² Ð¾Ð´
ĠÑİÐ¶ Ð½Ð¾
ĠÐºÐ°ÑĤÐµÐ³Ð¾ÑĢ Ð¸Ñİ
ĠÑĨ ÐµÐ»Ñı
ĠÐºÐ°Ð± Ð¸Ð½
Ð¸Ð½ÑĤÐµÑĢ ÐµÑģ
ĠÑĢÐ°Ð±Ð¾ÑĤ Ð°Ð»Ð¸
ĠÐ¼Ð½ ÐµÐ½Ð¸Ñı
ĠÐ¾ÐºÑĢÑĥÐ³ Ñĥ
Ð½ Ð¾Ð¿
ĠÐ²Ñģ Ð»ÐµÐ´ÑģÑĤÐ²Ð¸Ðµ
ĠÑĦ ÐµÐ»
ĠÑģÐ»ÑĥÑĩ Ð°ÐµÐ²
ĠÑģÑĤÑĢÑĥÐºÑĤ ÑĥÑĢ
ÑİÑī Ð¸Ð¼Ð¸
Ð°ÐµÐ¼ ÑĭÐµ
ĠÑģ ÑĥÑīÐµÑģÑĤÐ²ÐµÐ½
ĠÐ·Ð½Ð°Ð¼ÐµÐ½Ð¸ÑĤ ÑĭÐµ
ĠÐ½ÑĭÐ½ÐµÑĪ Ð½Ð¸Ð¹
ÑĦ ÐµÑģÑĤ
ÑĥÑģ Ð°Ð»
ĠÐ¿Ð¾ÑĩÑĳÑĤ Ð½ÑĭÐ¹
ĠÐ±Ð°ÑģÑģÐµÐ¹ Ð½Ð¾Ð²
ĠÐ¾ÑĦÐ¸ÑĨÐ¸Ð°Ð»ÑĮ Ð½Ð°Ñı
ĠÐ¼Ð°ÑĤ ÑĩÐ¸
ĠÐ¿ÑĢÐ¾ÐµÐºÑĤ Ñĭ
ĠÐ·Ð°Ð² Ð¾Ð´Ðµ
ĠÐ½ÐµÐ²Ð¾Ð·Ð¼Ð¾Ð¶ Ð½Ð¾
ĠÐ² Ð¸ÑĪ
ÑİÑīÐ¸Ð¹ ÑģÑı
ĠÐ¾Ð»ÑĮ Ð³Ð°
ĠÑģÐ²ÑıÐ· Ð°Ð½Ð¾
ĠÐºÑĥÑĢ Ð³Ð°Ð½
ĠÑģÐ¼ Ð¸ÑĢ
ĠÐ¿Ð¾Ð» Ð¸ÑĨÐµÐ¹
ĠÐ¼ÐµÑģÑĤ Ð¾ÑĢ
ĠÐºÐ¾Ð½ÑĨ ÐµÐ½ÑĤ
ĠÐ´Ð¸ Ð°Ð¿
ĠÐ½Ð°ÑĢÐ¾Ð´ Ð½Ð¾Ð¹
ÑĦ Ð¸
ĠÑĢÐ°Ð·Ð´ÐµÐ» Ð°
ĠÐ½Ð°ÑħÐ¾Ð´ Ð¸Ð»Ð¸ÑģÑĮ
ĠÐ¿ÑĢÐ¾ÑĨ ÐµÐ´
ĠÑģÐ¿Ð¾ÑĢÑĤÐ¸Ð² Ð½ÑĭÐµ
ĠÑĤ ÑĢÐ°Ð³
ĠÐ»ÑİÐ± Ð¾Ð¼
ĠÑĤÑĢÑĥÐ´ Ñĭ
ĠÐ± ÑĢÐ¾Ð´
ÑĭÐ² Ð°Ð½Ð¸Ñı
ĠÐ¿Ð¾Ð½ ÑıÐ»
ÐµÐº ÑĤÐ¾ÑĢÐ°
ÑİÑī ÑĥÑİ
ĠÑĩÐµÑĢÐ½ Ð¸Ð³
ĠÐ²Ð¾Ð´ Ð¾
ĠÐ³ÑĢ Ð¾Ð·
ĠÑģÑĤÑĢÐµÐ»ÐºÐ¾Ð² Ð¾Ð³Ð¾
ÑĥÐ½ Ð¾Ð²
ĠÐ¿Ð¾Ð´Ð¿ Ð¾Ð»ÐºÐ¾Ð²
ĠÐ¿ÑĢÐ¸Ðº Ð»ÑİÑĩ
ĠÐ¿ÑĢÐ¸Ð¼ÐµÐ½ ÐµÐ½Ð¸Ðµ
ĠÐ³Ð¾ÑģÑĥÐ´Ð°ÑĢÑģÑĤÐ²ÐµÐ½ Ð½ÑĭÑħ
ĠÑĥÑģÐ»Ð¾Ð² Ð¸Ñı
ĠÐ¿ÑĢÐ¸ÑĢ Ð¾Ð´Ñĭ
ĠÐ» Ð¸Ð½Ð³Ð²
ĠÑģÐ¾Ð² Ð¿
ĠÑĦ Ð¾Ð»ÑĮ
Ð°ÑģÑĤ Ð¸
ĠÐ´ Ð¾Ð¶Ð´
ĠÐ¾ÑĢ ÐµÐ½Ð±ÑĥÑĢÐ³
ĠÐ´Ð°Ð»ÑĮ ÑĪÐµ
ĠÑĦ Ð°ÑĪ
Ð¸ÑĨ ÐºÐ¾Ð³Ð¾
ĠÐ¿ÑĢÐµÐ´ÑģÑĤÐ°Ð² Ð»ÐµÐ½Ñĭ
ĠÐ´ Ð°Ð¼
ĠÑĢÐ° ÑģÑģÐ»ÐµÐ´
ÑĢÐµ Ð¶
ĠÐ¾Ð¿ ÐµÑĢÑĭ
ĠÐ¿ÐµÑĢÐµÑģ ÐµÑĩ
ĠÑĦÐ¾ÑĢÑĤ ÐµÐ¿
ĠÐ²ÑıÑĩ ÐµÑģÐ»Ð°Ð²
ÐºÐ¾Ð² ÑĭÑħ
ĠÐºÐ¾Ð½ÑĨ Ñĥ
ĠÐ´Ð¾ÑĢ Ð¾Ð¶
ĠÐ´Ð² Ð°Ð´ÑĨ
Ð° ÑĳÑĤÑģÑı
ĠÐº Ð°Ð½Ð°
ĠÐ¿Ð¾Ð² ÑĢÐµÐ¶Ð´
ĠÑģÐµÐ² Ð°ÑģÑĤ
ĠÐºÐ¸ÑĢ Ð¸Ð»
ĠÐ¿ÑĢÐ¸ÑĩÐ¸Ð½ Ð°Ð¼
ĠÐ²Ð¸Ð´ Ð¸Ð¼Ð¾
ĠÐµ Ð½
Ð¸Ð» Ð¸Ð·
Ð¾ ÑĦÐ¸ÑĨ
ĠÐ¿ ÐºÑģ
ĠÐ½Ð¾Ñģ Ð¸ÑĤÐµÐ»Ð¸
Ð°Ð»ÑĮ Ð½Ð¾ÑģÑĤÐ¸
ĠÐ¶ Ð°Ð»
ĠÐºÐ°Ðº Ð¾Ðµ
Ð½Ð¸ÑĨ Ñĥ
ĠÐ¿Ð¾Ð» ÑĤ
Ð°Ð½Ð¸Ñı Ñħ
ĠÐ´Ð°Ð² Ð¸Ð´
ĠÐ³Ð¸Ð¿ Ð¾ÑĤ
ĠÑģÐ°Ðº ÑģÐ¾Ð½
ĠÐ³Ð¾ÑĢÐ¾Ð´ Ð°Ñħ
ĠÐ°ÑģÑĤ ÐµÑĢÐ¾
ĠÑĤ ÑĢÐ¾ÑĦ
Ð¾Ð³ ÐµÐ½
ĠÐºÐ¾Ð»Ð¸ÑĩÐµ ÑģÑĤÐ²Ð°
ĠÐºÐ¾Ð½ÐºÑĥÑĢ Ñģ
ĠÐµÐ³Ð¸Ð¿ ÐµÑĤ
ĠÑĤÐ°Ð´Ð¶ Ð¸Ðº
ĠÐ¸ÑĤÐ°Ð»ÑĮÑıÐ½ ÑģÐºÐ¸Ð¹
Ð½ Ð¸Ð¼Ð¸
ĠÑĪ Ð°ÑĤ
ĠÑģÐ² ÐµÑĤÐ°
ĠÐºÐ°Ð½ Ð°Ð»Ð°
Ñĭ Ð¿
ĠÐ²Ð¾Ñģ ÐµÐ¼
Ñĥ ÐºÐ¸
ĠÐ¸ Ðº
ĠÐ¾ÑģÑĤÐ°Ð² Ð»ÐµÐ½Ð¾
ĠÐ¿Ð¾Ð´Ð´ÐµÑĢÐ¶ Ð¸Ð²
ĠÐ»Ð¾Ð½Ð´ Ð¾Ð½Ðµ
ĠÐ¿ÑĢÐ¸Ð¾Ð± ÑĢÐµÑĤ
Ð¾Ð² ÑĭÐ¼Ð¸
ĠÐ» Ð¾ÑĤ
ÐµÐ½ ÑĨÐ¸Ð¸
ĠÑģÐ°Ð¼Ð¾Ð» ÑĳÑĤÐ°
ĠÐ¾Ð± Ð¼ÐµÐ½
ĠÐºÑĢÐ¸ÑĤÐµÑĢ Ð¸ÑıÐ¼
ĠÐ¿ÑĥÐ±Ð» Ð¸ÐºÐ°
ĠÐ¾Ð¿Ð¿ Ð¾Ð·
ĠÐ¿Ð¾Ð» Ð¸ÑĨÐ¸Ð¸
ÑĭÑĪ Ðµ
ÐµÐ» Ð¾Ð¼
ĠÐ²Ð¾Ð· Ð²ÐµÐ´
ĠÐ¿Ð¾Ð¿ÑĭÑĤ ÐºÐ¸
ĠÐ¸Ð³ÑĢÐ° ÐµÑĤ
ĠÐ¾ÑģÐ½Ð¾Ð² Ð°ÑĤÐµÐ»ÑĮ
ĠÐ±Ð¸ÑĤ Ð²Ð°
ĠÐ¾Ð· Ð²ÑĥÑĩ
ĠÐ½Ð° Ð±Ð¾ÑĢ
ĠÐ² Ð°Ð´
ĠÐ·Ð°Ð² Ð¸Ñģ
ĠÑģÑĤ Ð¾ÑĢ
ĠÑĦÐ°Ð¼ Ð¸Ð»Ð¸Ð¸
Ð¸Ð² ÑĪÐ¸Ñħ
ÑĢÐµÐ¼ Ñı
ĠÐ¿ÑĢÐ¾Ð² Ð¾Ð·Ð³
Ð²ÐµÑģÑĤ Ð¸
Ð¾Ð½ ÐµÑĩ
ĠÐ¿ÑĢÐ¾Ð¸ÑģÑħ Ð¾Ð¶Ð´ÐµÐ½Ð¸Ðµ
ÑĤ Ñģ
Ð± Ð°Ñħ
ĠÑĩÐµÐ¼Ð¿Ð¸Ð¾Ð½ Ð¾Ð²
ĠÐ¿Ð¾Ð´Ð³Ð¾ÑĤÐ¾Ð² ÐºÐ¸
ĠÐ¿ÑĢÐµ ÑĤ
Ð°ÑĤÐµÐ»Ñı Ð¼Ð¸
ĠÐº ÑĥÑĩ
ĠÑĢÑĥÐ± ÐµÐ¶
Ð¸ÑĤÐµÐ»ÑĮ Ð½Ð¾Ð¼
ĠÐ¿Ð¾Ð»ÑĥÑĩ Ð°ÐµÑĤ
ĠÐ¼Ð¾Ð´ ÐµÑĢÐ½
ĠÐ¾ÑģÑĤ Ð°Ð»ÑģÑı
Ð°ÑİÑī ÐµÐ³Ð¾
ĠÐº ÑĥÐ¼
ĠÐ¸ÐµÑĢ ÑĥÑģÐ°Ð»
ĠÑĢÑĥÑģÑģÐº Ð¾ÑıÐ·ÑĭÑĩ
ĠÑģÐ¾Ð¾ÑĤÐ²ÐµÑĤÑģÑĤÐ² Ð¸Ðµ
ĠÑģÐ¿Ð°ÑĢÑĤ Ð°Ðº
ĠÑĤ Ð°Ð³
ĠÐ´Ð¸ÑģÑģÐµÑĢÑĤÐ° ÑĨÐ¸Ñİ
ĠÑĥÑĩ Ð¸ÑĤÐµÐ»ÑĮ
ĠÐ»ÑİÐ± Ð²Ð¸
ĠÐ³Ð¾ ÑĢÐ°Ð·Ð´
ÐµÑĢÐ° Ñħ
ĠÐ¸ÑģÑģÐ»ÐµÐ´ Ð¾Ð²Ð°Ð½Ð¸Ðµ
ĠÐºÐ¾ÑģÑĤ Ñİ
ĠÐ³Ð¾ÑģÑĥÐ´Ð°ÑĢÑģÑĤÐ²ÐµÐ½ Ð½Ð°Ñı
ĠÐ»ÐµÐ½ Ð¸Ð½Ð³
ĠÐ¼Ð°Ð¹ ÐºÐ»
ĠÐ¿ÑĢÐ¸Ð¼ÐµÐ½ ÐµÐ½Ð¸Ñı
ĠÐ¸Ð± Ð¾
ĠÐ²Ð¾Ð» ÐµÐ¹
ĠÑģÐ¾ÑĤÑĢÑĥÐ´ Ð½Ð¸ÐºÐ¾Ð²
Ð¸Ð¼ Ð¾Ð²
ĠÑģÐ¾Ð²ÑĢÐµÐ¼ ÐµÐ½
ĠÑħ ÑĢÐµÐ±
ĠÐ¿ÑĢÐ¸ÑħÐ¾Ð´ Ð¸ÑĤÑģÑı
Ð² Ð¾Ð½
ĠÑĪ Ð°
ĠÑħÐ°ÑĢÐ°ÐºÑĤÐµÑĢ Ð¸Ð·
ĠÐ±ÑĢÐ¸ÑĤ Ð°Ð½ÑģÐºÐ¾Ð¹
ĠÐ½Ð¸ÐºÐ°Ðº Ð¾Ð³Ð¾
ĠÐ±Ð¾Ð»ÑĮÑĪ ÐµÐ²
ĠÐ¿Ð¾Ð±ÐµÐ´ Ð°
Ð´ Ð¾Ð¼
ĠÐ¾ÑĤ ÑĢÑıÐ´Ð°
ĠÐ´Ð°Ð³ ÐµÑģÑĤ
ĠÑĢÐ°ÑģÐ¿Ð¾ÑĢ ÑıÐ¶
ĠÐ¾ÑĤÑģÑĥÑĤÑģÑĤÐ² ÑĥÐµÑĤ
ĠÐ¸Ð½ÑĤ ÐµÐ³
ĠÐ°ÑĢÐµÑģÑĤ Ð¾Ð²Ð°Ð½
ĠÑģÐµÐº ÑĥÐ½Ð´
ĠÐ´Ð¸Ð°Ð¿ Ð°Ð·
ÐµÐ½ ÑĨÐµÐ²
ĠÐ³ ÐµÑĢÐ°
ĠÐ²Ñĭ Ð¶
ĠÐ¶ Ð°ÑĢ
ĠÑĨ Ð°ÑĢÑı
ĠÑĤÐ°Ðº ÑĤ
ĠÐºÑĢÐ°Ñģ Ð½Ð°Ñı
ĠÐºÐ°ÑĩÐµÑģÑĤÐ² Ð°
ĠÐ± Ðµ
ĠÐ¼Ð°ÑĢ ÐºÐ°
ĠÑģÐ¿ÐµÑĨÐ¸Ð°Ð»ÑĮ Ð½Ð¾
ÑĨÐ¸Ð¾Ð½ Ð½Ð°Ñı
ĠÐ½Ð°ÑĢÑĥÑĪ ÐµÐ½Ð¸Ñı
Ð³Ð¾ÑĢ Ð¸ÑĤ
ĠÐ±Ð¾Ð»ÑĮÑĪ Ð¸Ñħ
ĠÐ¼ÑĥÐ·ÑĭÐº Ð°Ð»ÑĮÐ½ÑĭÐ¹
ĠÐ²ÑĭÑģÐ¾Ðº Ð¾Ð¹
ĠÐ´Ð¾ÑĢÐ¾Ð³ Ðµ
ĠÑĦÑĢ ÑįÐ½
Ð³ ÑĢÐ°ÑĦ
ÑĢÑĭ ÑĪ
ĠÐµÐ²ÑĢÐµ ÐµÐ²
ÑĢÐ° Ð½Ð¾
ĠÐ¼Ð¾Ð½ ÐµÑĤ
ĠÑĦÐ¾ÑĢÐ¼ ÑĥÐ»Ð¸ÑĢÐ¾Ð²
ĠÐ¿ÑĢÐ¸Ð² ÐµÑģÑĤÐ¸
ĠÐ± ÑĢÑĥ
ĠÑħ Ð¸ÑĢÑĥÑĢÐ³
ĠÐ³ÐµÑĢ Ð¾ÐµÐ²
Ñĳ Ð»Ð°
ĠÐ² Ð¿ÑĢÐ¾Ñĩ
ĠÐ±Ð¸ÑĤ Ð²Ðµ
ĠÑģÐµÐ¼ Ð¸Ð½Ð°ÑĢ
ĠÐ²Ñģ ÐµÐ»
ĠÑģÐ¾Ð²ÐµÑĢÑĪ Ð¸Ð»
ĠÐ³ÐµÐ½ÐµÑĢÐ°Ð»ÑĮ Ð½ÑĭÐ¹
ĠÐ²Ð¿ÑĢÐ¾Ñĩ ÐµÐ¼
ĠÐ¼ Ð¾Ñı
ĠÐºÐ°Ðº Ð¸Ð¼
ĠÑįÑĤÐ°Ð¿ Ðµ
ÐºÐ¾Ð² Ð¾Ð¹
ĠÑģÐ¾ÑĢÐµÐ²Ð½Ð¾Ð²Ð°Ð½Ð¸Ñı Ñħ
Ñĭ ÑĢ
ÐµÑģÑĤÐ² Ð¾Ð¼
ĠÐ³ÐµÐ½ Ð½Ð°Ð´
ĠÐ¿Ð¸ÑģÑĮ Ð¼ÐµÐ½
ĠÐ² Ð°ÑĤ
ĠÐ¸Ð· Ð´ÐµÐ»
ĠÐºÑĢÐµÐ¿ Ð¾ÑģÑĤÐ¸
Ðº Ð°Ð»
ĠÐ¼ Ð°Ð²
ĠÑĤ ÑĥÑĢÐ°
Ð»Ð¾Ð² Ð°
ĠÑĢÐ°Ð´ Ñĭ
ĠÐ±Ð°ÑĢ Ð¾Ð½
ĠÑģÑĤÑĥÐ´ ÐµÐ½ÑĤ
ĠÐ¾ Ð¾Ð¾
ĠÑİ Ð½Ð°Ð¹
ĠÐ²Ð¾Ð· Ð¾Ð±
ĠÐºÐ¾ÑĢ ÑĢÐµÐºÑĤ
ĠÐ°Ð» Ð³Ð¾ÑĢÐ¸ÑĤ
ĠÐ¾ÑĤÐ´ÐµÐ»ÑĮ Ð½ÑĭÐ¹
ĠÐ³Ð¾ÑĢÐ°Ð·Ð´ Ð¾
ĠÑİÐ½Ð°Ð¹ ÑĤÐµÐ´
ĠÑİ Ð½Ð¸
ĠÐ·Ð°ÑīÐ¸ÑĤ Ð½Ð¸Ðº
Ðº Ð¾ÑĤ
ĠÐ·Ð°Ð¿ Ð¾Ð²ÐµÐ´
ÐµÐ»ÑĮ Ð½ÑĭÐ¹
Ð¸ÑĢÐ¾Ð² Ð°ÑĤÑĮÑģÑı
ĠÐºÐ¾Ð¼Ð¿ Ð¾Ð½
ÑĢ ÐµÐ½Ð¸Ðµ
ĠÐ¼ Ð¾ÑĢÐ°
ĠÑĤÑĢ Ð¾Ð¿
Ð¿ ÑĤ
ĠÐ¾ÑģÑĤ Ð°Ð½
ĠÑĤÑĢÐ°Ð½ÑģÐ¿ Ð¾ÑĢÑĤÐ°
Ð¸Ð¹ ÑģÐºÐ¾Ð¼
ĠÑĤÐ²ÐµÑĢ ÑģÐºÐ¾Ð¹
ĠÑħ ÑĮÑİ
ĠÐ·Ð°Ð½ ÑıÐ»Ð°
ĠÐºÐ°ÑĢÑĤ Ð¸Ð½
ĠÐ² ÑģÑĤÐ°Ð²
Ð°Ð½Ð´ Ð¸Ð¸
ĠÐ» ÑİÑĤ
ÑĢÑĥ Ð¶Ðµ
ĠÐº ÑĥÑģÑĤ
ĠÐ½ÐµÐ¿Ð¾Ð½ ÑıÑĤ
ĠÐ¿ÐµÑĢÐµÐ´ Ð°Ñĩ
ĠÑĢÐµÐ´ Ð°ÐºÑĤ
ĠÐ¼Ð¾Ð½ Ð°Ñħ
ĠÑģÐµÐ²ÐµÑĢ Ð½Ð¾Ð³Ð¾
ĠÐ½Ð°Ð± Ð»Ñİ
ĠÐ¶Ð°Ð½ ÑĢ
ĠÐ²Ð¾ÑĢ Ð¾ÑĤÐ°
ĠÐ±ÐµÑĢ ÐµÐ·
ĠÐ¼ÐµÐ½ ÐµÐ´Ð¶
ĠÐ±ÑĢÐ¸ÑĤ Ð°Ð½ÑģÐºÐ¸Ð¹
ĠÑĪ Ð°Ð¼
ĠÐ½Ð°ÑħÐ¾Ð´ Ð¸Ð»Ð°ÑģÑĮ
ĠÐ¿Ð¾ÑģÐ»ÐµÐ´ Ð½Ð¸Ñħ
ĠÐ°ÑĢÐ³ÑĥÐ¼ÐµÐ½ÑĤ Ñĭ
ĠÐ¸ ÑģÐ°
ĠÐ¿Ð¾Ðº ÑĥÐ¿
ĠÑı Ð¹
ĠÐ³ Ð»Ð°Ñģ
ĠÑĤÑĢÐµÐ± ÑĥÐµÑĤ
ĠÐ¿Ð¾ ÑĢÐ°Ð¶ÐµÐ½Ð¸Ñı
ĠÑģÑĤÑĢÐ° Ñħ
ĠÐ¼ÑĥÑħ Ð°Ð¼Ð¼
ĠÐºÐ¸Ð½Ð¾ ÑĦÐµÑģÑĤ
ÐµÑī ÐµÐ½Ð¸Ñı
ĠÐ² ÑĢÐ°ÑĤ
Ð°Ð»ÑĮ Ð½Ð¾ÑģÑĤÑĮ
ĠÐ´Ð¶ Ð¾Ð½Ð°
Ð° ÑĨÐ¸ÐµÐ¹
ĠÐ´Ð¾ ÑĪ
ÑĥÑĩ ÐµÐ½
ĠÐ¿Ð¸Ð» Ð¾ÑĤ
ĠÑĤÑĢÐµÐ±Ñĥ ÐµÑĤÑģÑı
Ñį Ð»ÐµÐºÑĤ
ĠÐ¾Ð±Ð»Ð°ÑģÑĤ Ð½Ð¾Ð³Ð¾
Ð¸Ð°Ð»ÑĮ Ð½Ð¾Ð¹
ĠÐ½Ð°Ð´Ð¿ Ð¸ÑģÑĮ
Ñĳ Ð¼Ð°
ĠÐ¿Ð°ÑĢ ÐºÐ°
ĠÐºÐ°Ð²Ð°Ð» ÐµÑĢ
ĠÐ°Ð»ÑĮ Ð¿
ÐµÐ¼ Ñĭ
ĠÐ±Ð°ÑĢ ÑģÐµÐ»
ĠÐ¿Ð¾ÐºÐ¸Ð½ ÑĥÐ»
ÑĦ Ð¾ÑĢÐ´
ĠÐ°ÑĢ Ð¸ÑģÑĤ
ĠÑĢÐ°ÑģÐ¿ ÑĢÐµÐ´ÐµÐ»
Ð°ÑİÑī Ð¸Ð¼
ĠÐ¼Ð¾ÑĢ Ð¾Ð·
ĠÐ± ÑĥÐ½
ĠÑĤÐµÑħÐ½ Ð¸ÑĩÐµÑģÐºÐ¸Ñħ
ĠÐ²ÐµÑģ Ð½Ð¾Ð¹
ĠÐ¿ ÐµÐº
ĠÑģÑĤÐ°ÑĢ ÑĪÐµ
ĠÑĤ Ð¸Ð±
ĠÐ½Ð°ÑģÐµÐ»ÑĳÐ½ Ð½ÑĭÐ¹
Ð°ÑĢ Ð¾Ð²Ð°
Ð°Ð² ÑĪÐµÐ³Ð¾
Ð¾Ð» Ð¾Ð¼
ĠÑĩ ÐµÐº
ĠÑĥÑĩÐ°ÑģÑĤ Ð¸ÐµÐ¼
ĠÐ²Ð¾Ð´ Ñĥ
ĠÑĪ Ð°Ð¹
ĠÐ¿ÑĢÐ¾ÐµÐºÑĤ Ð¾Ð²
ĠÐ½ÐµÐ¼ÐµÑĨ ÐºÐ¾Ð¹
ĠÐµÐ´Ð¸Ð½ÑģÑĤÐ²ÐµÐ½ Ð½ÑĭÐ¼
Ð¸ Ð°Ð½Ð°
ĠÐº Ð°ÑģÑģ
Ñħ Ñĥ
ĠÐºÑĢÑĥÐ¿Ð½ÐµÐ¹ ÑĪÐ¸Ñħ
Ð¿ Ñĥ
ĠÐºÐ°Ð²Ð°Ð» ÐµÑĢÐ¸Ð¹
ĠÐ²Ð¾Ð·Ð¾Ð± Ð½Ð¾Ð²
ĠÑĤ ÐµÐ±
ĠÑĩ ÑĳÑĤ
ĠÐ¿ÑĢÐµÐ¿Ð¾Ð´Ð°Ð² Ð°Ð»
ĠÐ¿ÑĢÐ¾Ð¿Ð°Ð³ Ð°Ð½Ð´
ĠÐºÐ¾Ð½ÑĤ ÐµÐº
ĠÐ²ÑĭÑģ ÑĪÐµÐ³Ð¾
ĠÐ²ÐµÑĢÑħ Ð½ÐµÐ¹
ĠÑĦÐ¸Ð· Ð¸ÐºÐ¸
ĠÑģÑĤÑĥÐ´ ÐµÐ½ÑĤÐ¾Ð²
ĠÑĢÐ¸Ð¼ ÑģÐºÐ¾Ð¹
ĠÐ¿ÐµÐ² Ð¸ÑĨÐ°
Ð¾Ñģ Ð½Ð¾Ð²
ĠÐ¿ÑĢÐ¾ÑģÑĤÑĢÐ°Ð½ ÑģÑĤÐ²Ð¾
ĠÐ¸Ð½Ð´ Ð¾Ð½ÐµÐ·
ĠÐ³ Ð°Ð½
ĠÐ¿Ð°Ð» Ð¾Ð¼
Ð¾Ð¶ Ð´Ð°
ÑĥÑģ Ð¾Ð²
ĠÐ¼ÐµÑĤÐ¾Ð´ Ñĭ
ĠÑĦ ÑĢÐ°Ð·
ĠÐ²ÑĢÐµÐ¼ ÑĳÐ½
ĠÐ¼ÑĥÐ·ÑĭÐº Ð°Ð»ÑĮÐ½ÑĭÑħ
Ð¸Ð°Ð»ÑĮ Ð½Ð¾
ĠÐ±ÑĥÐ´ Ð´
ĠÑĦÑĢÐ°Ð½ÑĨÑĥÐ· ÑģÐºÐ¾Ð³Ð¾
ĠÐ¼ÑĥÐ·Ñĭ ÐºÑĥ
ĠÑĤÑĢÐµÑĤÑĮ Ñı
ĠÐ¾Ð´ Ð½Ð¾Ð¼Ñĥ
ĠÐ¸ÑģÐ¿Ð¾Ð»ÑĮÐ· ÑĥÐµÑĤ
ĠÐºÐ½ÑıÐ¶Ðµ ÑģÑĤÐ²Ð¾
Ð¾Ð²Ð°Ð½ Ð½ÑĭÐ¹
ĠÐ¼Ð¸ÑĤ ÑĢÐ¾Ð¿Ð¾Ð»
ĠÐ¿ÑĢÐ¸ÑģÑĤ ÑĥÐ¿
Ð»Ð° Ð¶
ĠÑģÐ¾Ð±ÑĢÐ°Ð½ Ð¸Ðµ
Ð¾Ð» Ð³Ð¾
ĠÐ¿ÐµÑĢÐµÐ¿ Ð¸Ñģ
Ð¸ Ð°Ð½Ð¾
ĠÑĢÐ°ÑģÐ¿ÑĢÐ¾ÑģÑĤÑĢÐ°Ð½ ÐµÐ½Ð¸Ðµ
ĠÐ¼ÐµÐ´Ð°Ð»ÑĮ Ñİ
ĠÐ»Ð¸Ð´ ÐµÑĢ
ĠÐ² Ð°Ðº
ĠÐ¼Ð°ÑĢ ÐºÐ¸
ĠÑģÐ°Ð¼ Ð°Ñı
ĠÐ» Ð¸Ñħ
ĠÑĦ ÑĥÐ½Ð´
ÑĢÐ° ÑĤÐ°
Ñħ Ð°Ð½
ĠÐ¿ÑĢÐ¸Ñĩ Ð¸Ð½Ð¾Ð¹
ĠÐ¼ÐµÐ» Ð¾Ð´
ĠÐ¿ ÐµÐ»
ĠÑģÐ¾ÑģÑĤÐ°Ð² Ð¸Ð»
ĠÑĩÐ°ÑĢ Ð»ÑĮ
ÐµÐ½ ÑģÑĤÐ²
ĠÑģÐµÐ»ÑĮ ÑģÐºÐ¸Ðµ
ÑĭÐ² Ð°Ð»Ð¸
ĠÐ¿ÐµÑĢÐµ Ð¸Ð·
ĠÐ± ÑĢÑıÐ½
ĠÐ°ÑĦÑĢ Ð¸ÐºÐ¸
ÑĥÑī ÐµÐ½
ĠÐ°Ð´ Ð²
ÐµÐ¼ Ðµ
ĠÐ¿Ð¸ÑĤ ÐµÑĢ
ĠÐ¿Ð¾ÑĢÑĤÑĥÐ³ Ð°Ð»ÑĮ
ĠÐ¼ Ñı
ĠÑģÐ¿Ð¸ÑģÐº Ð¾Ð²
ĠÐ±ÑĢÐ° Ðº
ĠÑģÐ² ÑĭÑĪÐµ
ĠÐºÐ¾Ð¿Ð¸Ð² Ð¸Ð¾
ĠÐ³Ð»Ð°Ð² Ð½Ð¾Ðµ
ĠÐ´ÐµÑģ Ð°Ð½ÑĤ
ĠÐ¸ÑģÐ¿Ð¾Ð»ÑĮÐ· ÑĥÑİÑĤ
ĠÐ°Ð²ÑĤÐ¾ÑĢÐ¸ÑĤÐµÑĤ Ð½ÑĭÑħ
ĠÑĤÐ°ÑĤÑĮ ÑıÐ½Ð°
ĠÐ³Ð¾ÑĢÐ¾Ð´ ÑģÐºÐ¾Ðµ
Ñĳ Ð¿
ĠÐ½Ð°Ð¿ Ð¾Ð»Ðµ
ĠÐ´Ð¾Ðº Ð»Ð°Ð´
ĠÐ¿ÑĢÐ¾ÑĪ Ð»Ð¸
ĠÑģÐ¾Ð¿ÑĢÐ¾Ð² Ð¾Ð¶Ð´
ĠÐ²Ð¾Ð¹ Ð½
ĠÐ°Ð²ÑĤÐ¾ÑĢ ÑģÐºÐ¸Ñħ
ÐµÐ» Ð¾Ð²
ĠÐ¿ÑĢÐ¸Ñĩ Ð¸Ð½Ð°
ĠÐ·Ð°Ð´Ð° ÑĩÐ¸
ĠÑĪ Ð°Ð¿
ĠÑıÐ¿Ð¾Ð½ Ð¸Ñı
ĠÐ´Ð² Ð¾ÑĢÐ°
ĠÐ°Ð¿ Ð¿
Ð¶ ÐµÐ½Ð¸Ðµ
ĠÐ½Ð¾Ð² Ð¾ÑģÑĤÐ¸
ĠÐ²ÑĤÐ¾ÑĢ ÑĭÐ¼
Ð¾Ð³ Ð¾Ð½
ĠÐ°Ð»ÑĮ Ð¼Ð°
ĠÐ¿Ð¾Ð¿ Ð°Ð´
ĠÐ¼ Ð¾ÑĤÐ¾ÑĢ
ÑĤÐ¾ÑĢ Ð¾Ð¼
ĠÐ½Ð¾Ð² Ð¸Ñĩ
ĠÑģÑĤÑĢ Ð¾Ð¹
ĠÑģÑĥÑĤ Ð¸
ĠÐ·ÐµÐ¼ Ð»Ñİ
ĠÐ· Ð¾Ð½Ñĭ
ĠÐ¾Ð±Ñī ÐµÐµ
ĠÐ±Ð¾Ð»ÐµÐ· Ð½Ð¸
ĠÐ²Ð¾ÑĪ Ð»Ð°
ĠÐ¿ Ð°Ð»Ðµ
ĠÐºÐ¾ÑĢ Ð¸Ñĩ
Ð¾Ð½ Ð¸
ĠÐ¿Ð¾Ñģ Ð¾Ð±
ĠÐ»ÐµÑģ Ð°
ĠÑħÐ¾Ð» Ð¼
ĠÐ¿Ð°ÑĢÑĤÐ¸Ð· Ð°Ð½
ĠÐ·Ð°Ð¿ Ð¾ÑĢÐ¾Ð¶
ĠÑģÐ¿ÐµÑĨ Ð¸ÑĦ
ĠÐ°Ð´Ð¼Ð¸Ð½Ð¸ÑģÑĤÑĢÐ°ÑĤÐ¸Ð² Ð½Ð¾Ð³Ð¾
ĠÑģÑĬ ÐµÐ·Ð´Ð°
ĠÐ²Ð¸ÐºÐ¸ ÑģÐº
ĠÑĥÐ¿ Ð¾ÑĢ
ĠÐºÐ¾ÑĢ Ð½
ĠÑĥÐ´ Ð¸Ð²
ĠÑĤÐµÑħ Ð½Ð¸Ðº
ĠÐ¿Ð¾Ð½ÑıÑĤ Ð½Ð¾
ĠÑĥ Ð¸Ð»
ĠÑį Ð³
ÐµÐ»ÑĮ Ð½ÑĭÑħ
ĠÑĥÐ´Ð° Ñĩ
ĠÐ³Ð¾ÑĢ Ð¸Ð·
ĠÑĢÐµÐ¼ Ð¾Ð½ÑĤ
ĠÐ¾ÑĤÐ¿ÑĢÐ°Ð² Ð¸Ð»ÑģÑı
ĠÑĤÐ°Ð¼ Ð±
ĠÐ¿ÑĢÐµÐ´Ð¿ÑĢÐ¸ÑıÑĤ Ð¸Ð¹
ĠÐ¿ÑĢÐ¾Ð· Ð²Ð¸
ĠÐ½ÐµÐ·Ð°Ð²Ð¸ÑģÐ¸Ð¼ Ð¾ÑģÑĤÐ¸
ĠÐ¸Ð·Ð²ÐµÑģÑĤ Ð½Ñĭ
ĠÐ¿Ð°Ð¼ÑıÑĤ Ð½Ð¸ÐºÐ¸
ĠÑĥ Ð¹
ÑĮ ÑĤÐµ
ĠÐ¿ÐµÑĢ ÐµÐ¶
ĠÑįÐº Ñģ
ĠÐ²ÐµÑĢÑħÐ¾Ð² Ð½Ð¾Ð¹
ÑĨ Ð²ÐµÑĤ
ĠÐ¿ÑĢÐµÐ´Ð»Ð¾Ð¶ ÐµÐ½Ð¸Ñı
ĠÐ¿ ÐµÑĪ
ĠÑĤ ÐµÑģ
ĠÐºÐ¾Ð¼Ð¿Ð»ÐµÐºÑģ Ð°
ĠÐºÐ¾ÑĢÐ¸Ñĩ Ð½ÐµÐ²
ĠÐºÑĢÑĭ Ð¼Ð°
ÐµÐ¹ ÑģÐºÐ¸Ð¹
ĠÐ± ÐµÑģÐº
Ð¾Ð¶ Ð¸Ð´
ĠÐ¾ÑĤÐº Ð»Ð¾Ð½
ĠÐ´ÐµÐ½ ÐµÐ¶
ĠÐ¼Ð¸Ð½Ð¸ÑģÑĤÐµÑĢ ÑģÑĤÐ²Ð¾
ĠÐ¾Ð¿ÑĢÐµÐ´ÐµÐ» ÐµÐ½Ð¸Ñı
ĠÐºÐ¾Ð»Ð»ÐµÐ´ Ð¶
Ñı Ñı
ĠÑĢÐ°Ð· ÑĥÐ¼
ĠÑģÐ¾ÑĨÐ¸Ð°Ð»ÑĮ Ð½Ð¾Ð¹
ĠÐ½Ðµ Ð¿Ð¾Ð´
ĠÐºÐ¾Ð¼Ð¿ Ð°Ð½Ð¸Ð¹
ĠÐ°Ð½Ð³Ð»Ð¸Ð¹ ÑģÐºÐ¾Ð³Ð¾
Ð¾Ð²Ð°Ð» Ð¸ÑģÑĮ
ĠÑħÐ¾Ð·ÑıÐ¹ ÑģÑĤÐ²
ĠÑĥÐ´Ð¾ÑģÑĤÐ¾ ÐµÐ½
ĠÐ³ ÑĢÑĥÐ´
ĠÑģÐ²ÑıÐ· Ð°Ð½Ð½ÑĭÐµ
ĠÑĢÐµ ÐºÑĥ
ĠÐ´Ð¶ Ð¾
ĠÐ¿Ð¾Ð¼ ÐµÑģÑĤ
ĠÐ¿Ð¾ÑĢÑĤÑĥÐ³ Ð°Ð»Ð¸Ð¸
ĠÐºÐ¾Ð½ÑģÑĤÑĢÑĥÐº ÑĨÐ¸Ð¸
Ð°Ð½ ÑĩÐ¸Ð²
ĠÑĢÐ° ÑĤ
ĠÐ²Ð² Ð¸Ð´Ñĥ
ĠÑĨ Ð¸ÑĢ
ĠÐ¿ ÑĦ
Ð¸ÑĢ Ð¾
ĠÐ°Ð´Ð¼Ð¸Ð½Ð¸ÑģÑĤÑĢÐ°ÑĤÐ¸Ð² Ð½Ð¾Ðµ
ĠÑģÐ¼Ð¾Ð» ÐµÐ½ÑģÐºÐ¾Ð¹
ĠÑģÑĥÐ¿ÑĢÑĥÐ³ Ð°
ĠÑİ Ð³Ñĥ
ĠÐ½Ð°Ð·Ð² Ð°Ð»
ĠÐ¿Ð¾Ð´Ð´ÐµÑĢÐ¶ ÐºÐ¸
ĠÐ½ÐµÐ¼ÐµÑĨ ÐºÐ¾Ð³Ð¾
ĠÐ¾ÑĤÐºÑĢÑĭÑĤ Ð¸Ðµ
ĠÐ±Ð¸ÑĤ Ð²Ñĭ
Ð¿ ÑĨ
ÐµÐ¹ Ð»
ĠÐ°Ð½Ð´Ð¶ ÐµÐ»ÐµÑģ
ĠÐ²Ð¾Ð»Ð³ Ð¾Ð³ÑĢÐ°Ð´
Ð¸Ñĩ Ð¸
ĠÑİ Ð±Ð¸Ð»
ĠÐº Ð¸
ĠÐ³Ð¾Ð²Ð¾ÑĢ Ð¸ÑĤÑĮ
ĠÐºÑĥÐ± ÐºÐµ
ĠÐ¿ÑĢÐ¸Ð³ Ð¾ÑĢÐ¾Ð´
Ð¸Ð°Ð»ÑĮ Ð½Ð¾Ð³Ð¾
ĠÑģ ÐµÑģÑĤÑĢÐ°
ĠÑĤ ÐµÑĤ
ĠÐ¾ÑĤÐºÐ°Ð· Ð°Ð»ÑģÑı
ĠÑĤÑĢÐµÐ±Ð¾Ð²Ð°Ð½Ð¸Ñı Ð¼
Ð± ÑĥÑĢÐ³Ð°
Ð°Ð» Ñı
ĠÐ¿ÑĢÐ¸Ð² ÐµÐ»Ð¾
Ð¾Ð² Ñĭ
ĠÑģÑĥÐ´ Ñı
Ð» Ð¾Ð´
ĠÐ»Ð¸Ñĩ Ð½Ð¾ÑģÑĤÐ¸
ĠÐ½Ð°ÑĩÐ°Ð»ÑĮ Ð½Ð¸ÐºÐ¾Ð¼
ĠÐºÐ¾Ð¼Ð¿ÑĮÑİÑĤÐµÑĢ Ð½ÑĭÐµ
Ð¾ÑĤ Ð¾Ñĩ
Ð½Ð¾ÑģÑĤ ÑıÐ¼Ð¸
ĠÑģÐ»ÐµÐ´ÑĥÑİÑī Ð¸Ð¼
ĠÐ²ÐµÑĩ ÐµÑĢ
ĠÑĦÑĢÐ° Ð·Ñĭ
ĠÐ²Ð¾Ð¿ÑĢÐ¾Ñģ Ñĥ
ĠÑģÐ¾Ð¶ Ð°Ð»
ĠÐºÑĢÐ¸ÑĤ Ð¸ÐºÐ¸
ĠÐ²Ð¸ÑĤ ÐµÐ±
ĠÐ¾Ð±ÑĥÑĩ ÐµÐ½Ð¸Ðµ
Ð½ Ð¸Ð¸
ĠÑĥÑģÑĤÐ°Ð½Ð¾Ð² Ð»ÐµÐ½Ñĭ
ĠÐ¾Ð±ÑıÐ· Ð°ÑĤÐµÐ»ÑĮ
Ð¼ Ð¾ÑĢ
ĠÐ²Ðº Ð¿
ĠÐ¾Ð»Ð¸Ð¼Ð¿Ð¸Ð¹ ÑģÐºÐ¸Ðµ
Ð° Ð¸
Ð°Ð² Ð°ÑĤÑĮ
ĠÑĥ ÑģÑĤÐ°Ð²
ĠÑĢ ÐµÐ½
ĠÐ°Ð» Ð±
ĠÐ±Ð°Ð» ÐµÑĤ
ĠÑĤÐµÐ¿ Ð»Ð¾Ð²
ĠÐ¿ÑĢÐ¸Ð±Ð»Ð¸Ð· Ð¸ÑĤÐµÐ»ÑĮÐ½Ð¾
ĠÐ¾ÑģÐ¾Ð± Ð¾
ĠÐ¼Ð¾Ð»Ð¾Ð´ Ð¾Ð¹
ĠÐ¶ ÐµÐ½Ñĭ
ĠÐ·Ð°Ð¿Ð°Ð´ Ð½Ð¾Ð³Ð¾
ĠÑĥÑĩÑĳ Ð½Ð¾Ðµ
Ð¼ Ð°Ðº
ĠÑįÐ»ÐµÐºÑĤ ÑĢÐ¾
ĠÑĥ ÑģÐº
ĠÑįÐºÑģÐ¿ÐµÐ´ Ð¸ÑĨÐ¸Ð¸
Ð¼ ÐµÐ½Ñĭ
ÐµÑĪ ÑĮ
ĠÐ´ÑĢÐ°Ð¼ Ñĭ
Ð¸Ð²ÑĪÐ¸Ð¹ ÑģÑı
ĠÐ´ÑĢÐ°Ð¼Ð°ÑĤ ÑĥÑĢÐ³
ĠÑĢ Ñį
ÐºÐ¾Ð² ÑĭÐ¹
ĠÑģÐ» ÑĥÑĪ
ĠÑĦÑĥÐ½Ð´ Ð°Ð¼
ĠÐ²Ñĭ ÑĢÐ°Ð·
ĠÐ¾Ð» Ð¸Ð²
ĠÐ¿ÑĢÐ¸Ð¼ÐµÑĢ Ñĥ
ĠÑģÐ¿ÑĢÐ°Ð² ÐµÐ´Ð»Ð¸Ð²
ĠÐºÐ¾Ð¼Ð¼ÐµÐ½ÑĤÐ°ÑĢ Ð¸Ð¸
ÐµÐ¹ ÑģÐºÐ¾Ð³Ð¾
ĠÐ¶Ð¸Ð²Ð¾Ð¿ Ð¸ÑģÐ¸
ĠÐ¾ÑĤÐ½Ð¾ÑĪ ÐµÐ½Ð¸Ñİ
ĠÐ¿ Ð¸Ð½
ĠÐ¿ ÑĥÐ±
ĠÑĦÐ¸Ð½ Ð°Ð½Ñģ
ĠÐ»Ñĥ Ð¸
ÑĭÐ²Ð° ÑİÑĤ
ĠÑıÐº ÑĥÑĤ
ÑĮ ÑĳÐ²
ÑģÑı Ñī
ĠÐ¸Ð·Ð± Ð¸ÑĢÐ°
ĠÐ±ÑĢÐ°ÑĤ ÑĮÑı
ĠÐ¾ÑĤÑģÑĤÐ°Ð² ÐºÑĥ
ĠÐ¿Ð¾Ð´ÑĤ Ð²ÐµÑĢÐ´
ĠÐ¿ÑĥÐ»ÐµÐ¼ ÑĳÑĤ
Ð¸Ð¼ Ð¸Ð½
ĠÑģÑĨÐµÐ½ Ðµ
ÐµÑĤ ÑĢÐ°Ð¶
ĠÐ¾Ð³ Ð¾Ð½ÑĮ
ĠÐ¿Ð°ÑĢÐ° Ð´
ĠÐ»Ð¸Ñĩ Ð½Ð°Ñı
ĠÑĥÑģÑĤÑĮ Ðµ
Ñİ ÑĪ
ĠÐ¿Ð¾Ð»Ð¸ÑĤ Ð¸ÑĩÐµÑģÐºÐ°Ñı
ĠÐ¾ÑģÐ¾Ð± ÐµÐ½
ĠÐ¶ÐµÐ»ÐµÐ·Ð½Ð¾Ð´Ð¾ÑĢÐ¾Ð¶ Ð½Ð°Ñı
ĠÑģÐµÐ¼ÐµÐ¹ ÑģÑĤÐ²Ð¾
ĠÐ½ÐµÐ³ Ð°ÑĤÐ¸Ð²
ĠÐ¼ Ð¸Ð»Ð»
Ð¸Ð¼ Ñĭ
Ð°ÑĢÐ° ÑĤÐ°
Ñĩ Ð°Ð»ÑĮ
Ð°ÑĢ ÑĤÐ°
ĠÐ°Ð¼ÐµÑĢ Ð¸ÐºÐµ
ĠÑħ Ð»ÐµÐ±
ÑĪÐ° ÑİÑĤ
ĠÐºÑĢÐ¸ÑĤ Ð¸Ðº
ĠÐ¿Ð¾Ð»ÑĥÐ·Ð°ÑīÐ¸ÑĤ Ð½Ð¸Ðº
ĠÑģÑĤÐ¾ÑĢ Ð¾Ð½Ð°
Ð½ ÐµÐ³
ĠÐ¿Ð¾ÑģÐ»ÐµÐ´ Ð½ÐµÐ¹
ĠÐ¸Ð¼ Ð¸
ĠÐ¸Ð½ÑĤ ÐµÐ»
ĠÐ¸ÑģÐ¿ Ð°Ð½Ð¸Ñı
Ð¾ÑĤ Ð¾
ĠÑģÐ¿ Ð¸ÑĢ
ĠÑģÑĤÐ°ÑĤÑĥÑģ Ð°
Ð¸ÑģÑĤ ÑģÐºÐ¾Ð¹
ĠÑģÐ¾Ð¿ ÐµÑĢ
ĠÐºÐ¾Ð½ÑĦÐ»Ð¸Ðº ÑĤÐ°
ĠÐ» Ñı
ĠÐ³ÐµÐ¾Ð³ÑĢÐ°ÑĦ Ð¸ÑĩÐµÑģÐºÐ¾Ðµ
ĠÑĩ Ð°ÑĢÑĤ
ÐµÐ² ÐºÐ°
Ðº Ð¾ÑģÑĤÐ¸
ĠÐ¿ÑĢÐµ Ð¾Ð´Ð¾Ð»
ĠÑĥÐºÑĢÐ° Ð¸Ð½ÑģÐºÐ¾Ð³Ð¾
ĠÐ±ÑĢÐ¾Ð½Ð· Ð¾Ð²ÑĭÐ¹
Ð½ ÐµÐ½Ð¸Ñı
ĠÐ¿ ÐµÑī
ĠÐ¾Ð± Ð¾Ð·
ĠÐ¿ÑĢÐ¾ÐµÐºÑĤ Ðµ
ĠÐ¾ÑģÐ½Ð¾Ð² Ñĥ
ĠÐ¿ÑĢÐ¾Ð³ÑĢÐ°Ð¼ Ð¼Ðµ
ĠÐ´Ð¼Ð¸ÑĤÑĢ Ð¸ÐµÐ²Ð¸Ñĩ
ĠÐ¿Ð¾Ð´ Ñĩ
ĠÐ° ÑĢÐµ
Ð¸Ð² ÑĪÐ¸ÑħÑģÑı
ĠÐ·Ð°Ðº Ð¾Ð½Ð°
ĠÐ°Ñħ Ð¼
Ð¾Ñĩ Ð½Ð¾Ðµ
ÑĥÑİÑī Ð°Ñı
ĠÐ¿ÑĢÐµÐ´Ð¿ÑĢÐ¸ÑıÑĤ Ð¸Ðµ
ĠÐ¿ÑĢÐ¸Ð¿ Ð¸Ñģ
ĠÐ·Ð´ Ð°Ð½Ð¸Ð¸
ĠÐ¶ÐµÐ½ Ð¸Ð»ÑģÑı
ĠÐ²Ð¾ÐµÐ½ Ð½Ð°Ñı
ĠÑĢÐ°Ð·ÑĢÐ°Ð±Ð¾ÑĤ ÐºÐ¸
ĠÐ´ Ð°Ð¹
ĠÐ°Ð½Ð³Ð» Ð¸Ñı
ĠÑģÐ¾ÑĤÑĢÑĥÐ´ Ð½Ð¸Ðº
ĠÑĢÑĥÐ¼ÑĭÐ½ Ð¸Ð¸
ĠÐ½Ð¸Ð¶ Ð½Ð¸Ð¹
ĠÑĢÐµÐ¿ ÑĢÐµÑģÑģ
ĠÑĤÑĭÑģÑı ÑĩÐ¸
ĠÐ³Ð¾Ð²Ð¾ÑĢ ÑıÑĤ
ĠÐ¾ ÐºÐ°
Ñı ÑĤÐ°
ĠÐ¾ÑĤ ÑģÑĤ
ĠÐ¼ÑĥÐ½Ð¸ÑĨÐ¸Ð¿ Ð°Ð»ÑĮÐ½ÑĭÑħ
ĠÑħÐ¾Ð·ÑıÐ¹ ÑģÑĤÐ²Ð¾
ĠÐ²ÑģÐµÐ¼ Ð¸
Ð½ Ð¸Ð½
ÐµÑĢ ÑģÐºÐ¸Ð¹
ĠÐ·Ð°Ð¼ÐµÑģÑĤ Ð¸ÑĤÐµÐ»ÐµÐ¼
ĠÐ¿Ð¾Ð´ Ð±Ð¾ÑĢ
ĠÐµÐ²ÑĢÐ¾Ð¿ÐµÐ¹ ÑģÐºÐ¸Ñħ
ÑĢÐµ Ð´Ð°
ĠÐ²Ð¾Ð· Ð»Ðµ
ĠÐ°ÐºÑĤ Ñĥ
ÑģÑĤ Ð¾Ð½
ÐµÐ½ ÑģÐºÐ¾Ðµ
ĠÑĩ ÐµÑģÑĤ
Ð¸ÑĢÐ¾Ð²Ð°Ð½ Ð½Ð¾Ð³Ð¾
ĠÐ¾ÑĦÐ¸ÑĨ ÐµÑĢÐ¾Ð²
ĠÑĥÑĩÑĳ Ð½Ð°Ñı
ĠÐ²Ð¾Ð·Ð³Ð»Ð°Ð² Ð»ÑıÐ»
ĠÐ» ÐµÐ¿
ĠÐ¿ÑĢÐ¾ÑĪ Ð»Ð°
ĠÑĤÑĢÐµÐ½ ÐµÑĢÐ¾Ð¼
ÑĢÐµÐ´ Ð¸ÑĤ
ĠÐ²ÑĤÐ¾ÑĢ ÑĭÑħ
ĠÐ¾ÑĤÐ´ ÑĭÑħ
ĠÐ²Ð¾ÑģÑģÑĤ Ð°Ð½Ð¸Ðµ
ĠÐ¾Ð±ÑīÐµÑģÑĤÐ²ÐµÐ½ Ð½ÑĭÐ¹
ĠÐ±Ð°Ðº Ñĥ
Ð¾Ð» Ðº
ĠÑĢ Ð¸ÑģÐº
ÑĥÑĢ Ð¾Ð²
ĠÑĢÐ¾Ð· ÑĭÐ³
ĠÐ¿ÑĢÐµÐ´ÐµÐ» Ð°Ñħ
ĠÐ¿Ð¾Ð´ ÑĢÑıÐ´
Ð¸ÑĤÐµÐ»Ñı Ð¼
ĠÐ¼Ð¾ ÐµÐ¹
ĠÐ¿Ð°Ð» ÐµÑģÑĤ
ĠÐ²Ð¾Ð·ÑĢÐ°ÑģÑĤ Ð°
ĠÐ´ÐµÑıÑĤ ÐµÐ»Ð¸
ĠÐ³Ð»Ð° Ð·Ð°
ÐµÐ¹ Ð½Ð°
ĠÐµ Ð³Ð¾ÑĢ
Ð¼Ð¸ ÑĢÑĥ
ĠÑĢÐ°Ñģ ÑģÑĤÑĢ
ĠÐ¸ÑģÐ¿Ð¾Ð»Ð½ Ð¸ÑĤÐµÐ»ÑĮ
ĠÐºÑĢÐµÐ¿ Ð¾ÑģÑĤÑĮ
ĠÐ¿ÑĢÐµ Ð±
ĠÐ²Ð¾Ð´ Ð¾ÑħÐ¾Ð·ÑıÐ¹
ĠÑģÑĥÐ´ Ð¾Ð²
ĠÐ¿Ð¾ÑģÑĤÑĢÐ¾Ð¹ ÐºÐ¸
ĠÑģÐ² ÐµÐ´
ĠÐµÐºÐ°ÑĤÐµÑĢ Ð¸Ð½Ð°
ĠÐºÐ° ÑĪ
ĠÑģÐ°Ð½ ÑĤÐ°
ĠÐ½Ð°Ð¿Ð¸Ñģ Ð°Ð½Ð°
ĠÐ¾Ð±ÑıÐ·Ð°Ð½ Ð½Ð¾ÑģÑĤÐ¸
ĠÐ¿Ð¾Ð¼ Ð¾ÑĩÑĮ
ĠÐ·Ð°Ð¿Ð°Ð´ Ð½Ð°Ñı
ĠÐ¸ÑģÑĤÐ¾ÑĢ Ð¸ÐºÐ¾
ĠÑĥ Ñī
ĠÐ³Ð¾Ð´ Ð°Ð¼
ĠÐ³Ð°Ð» Ð°ÐºÑĤ
ĠÐºÐ¾Ð¼Ð¿Ð¾Ð· Ð¸ÑĨÐ¸Ð¸
ĠÐºÐ¸ÑĢ Ð¿
ĠÐ¼Ð°ÑģÑĤ ÐµÑĢÐ°
ĠÑĤ ÑĥÐ»ÑĮ
ĠÑħ Ð¾Ð·Ñı
ĠÑģÐ¸Ð» Ð°Ð¼Ð¸
ĠÑĦÐ¸Ð· Ð¸ÐºÐ¾
ĠÐºÐ¾ÑĢÐ¾ÑĤ ÐºÐ°Ñı
ĠÑĦÐ¸Ð»ÑĮÐ¼ Ð°Ñħ
ĠÐ¾Ñĩ ÐºÐ¸
ĠÐ´Ð¾Ð±Ð°Ð² Ð¸Ð»
ĠÐ·Ð°ÑīÐ¸ÑĤ Ð¸Ð»
ĠÐ¸ ÐºÐ¾Ð½
ĠÐ» Ð°Ð½
ĠÑį Ð²Ð¾Ð»Ñİ
ĠÐ²Ð¸Ð´ Ð½Ð¾
ĠÑĢÐº ÐºÐ°
ĠÐ¿ ÑĮÐµÑĢ
ĠÐ¿Ð¾Ð»ÑĮ ÑģÐºÐ¸Ð¹
Ð¸Ñĩ Ð½Ð¾Ðµ
ĠÐ¿Ð°ÑĢÐ»Ð°Ð¼ÐµÐ½ÑĤ Ð°
ĠÑĢÐµÑģÑĥÑĢ ÑģÐ¾Ð²
ĠÑİÐ³Ð¾ÑģÐ»Ð°Ð² Ð¸Ð¸
Ð°ÐºÐ¾Ð¼ Ð¿
ĠÑĪ ÐµÐ»
ĠÐ´Ð°Ð» ÐµÐºÐ¾
ĠÐ¿Ð¾Ð´ Ð½Ñı
ĠÑĥÐ´ ÐµÑĢÐ¶
ĠÐ¿ÑĥÐ± Ð»Ð¸ÑĨ
ĠÑħ Ð°Ñģ
ĠÑģÑĤÐ°ÑĢ ÑĭÐ¹
ĠÐºÐ¾Ð½ÑĤ Ð°ÐºÑĤ
ĠÑĤÐ¾ÑĢ Ð¶Ðµ
ĠÑħ Ð¸ÑĢ
ĠÐ³Ð¾Ñģ Ð¿Ð¸ÑĤ
ĠÑįÑģÑĤ Ð¾Ð½Ð¸Ð¸
ĠÐ¿Ð» Ð°Ð½Ð°
ĠÐ¸ÑģÐ¿Ð¾Ð»ÑĮÐ· Ð¾Ð²Ð°Ð½Ð¸ÐµÐ¼
ĠÐ¾ÐºÐ¾Ð½Ñĩ Ð°ÑĤÐµÐ»ÑĮÐ½Ð¾
ĠÐ±Ð°ÑĢ Ð±
ĠÐ¾ÑĦÐ¸ÑĨÐ¸Ð°Ð»ÑĮ Ð½Ð¾Ð¼
ÑĥÑį Ð»ÑĮ
ÑĨÐ¸Ð¾Ð½ Ð½ÑĭÐµ
ĠÐ²Ð¸Ð»ÑĮÐ³ÐµÐ»ÑĮ Ð¼
ĠÐºÐ°ÑĤ Ð°Ð»
ĠÐ¿Ð¾Ñĩ ÐµÑĤ
ĠÐºÐ»ÑĥÐ± Ð¾Ð¼
ĠÐ´ÐµÑģÑıÑĤ Ð¸Ð»ÐµÑĤ
ĠÐ¼Ð°Ð» Ð°Ñı
ĠÐ·Ð°Ð²ÐµÐ´ ÑĥÑİÑīÐ¸Ð¹
ĠÐ¿Ð¾Ð» Ð¾ÑĤ
ĠÐ³Ð¾Ð¼ ÐµÐ»ÑĮ
ĠÐ¾Ñģ Ð½Ð°
ĠÐ³ÑĢ Ð¸Ð±
ĠÐ¶Ð¸Ð²Ð¾Ð¿ Ð¸Ñģ
ĠÐ½Ð°Ð¿Ð°Ð´Ð° ÑİÑīÐ¸Ð¹
ĠÑĩÐ¸Ñģ Ð»
ÑĢÑı Ð´Ðµ
ĠÐ¿ÑĢÐ¾Ð´Ð¾Ð»Ð¶ Ð¸Ð»
ĠÐ¿ÑĢÐ¸Ð² Ð»ÐµÑĩ
ĠÐ¼Ð¸ÑĤ ÑĢÐ¾Ð¿Ð¾Ð»Ð¸ÑĤ
ĠÑħ Ð¾ÑģÐµ
ĠÑĥÑĩ ÑĢÐµÐ´
ĠÐ¾Ð±ÑĢÐ°Ð· Ð¾Ð²Ð°ÑĤÐµÐ»ÑĮ
ĠÐ· Ð¾Ð½Ðµ
ĠÐ°ÑĢ ÐºÐ°Ð´
ĠÑģÐ¾ÑģÑĤÐ°Ð²Ð»Ñı Ð»Ð¸
ĠÑģÐ¾ÑĢÐµÐ²Ð½ Ð¾Ð²Ð°Ð½Ð¸Ð¹
ĠÐ½ÐµÐ¿ÑĢÐ°Ð² Ð¸Ð»ÑĮ
ĠÐ¼ ÐµÐ¹
ÑĳÐ½ Ð½Ð¾Ð¼
ĠÐ´Ð²Ð¸Ð³ Ð°ÑĤÐµÐ»ÑĮ
ĠÐ°ÑĦÑĢ Ð¸ÐºÐ°Ð½
ĠÐºÐ¾Ð¼ Ð±
ĠÐ¾Ñģ ÑĥÐ¶Ð´
ĠÐ²ÑĭÑģÑĤÑĥÐ¿ Ð»ÐµÐ½Ð¸Ð¹
ĠÑĥ ÑĢÐ°Ð²Ð½
ÐµÐ½Ð° ÑĩÐ°Ð»ÑĮ
ĠÐ¾Ð±ÑĬÐµÐºÑĤ Ð¸Ð²
ĠÐ´Ð¾Ð² ÐµÑĢ
ĠÐºÐ°Ð²Ð°Ð» ÐµÑĢÑĭ
ÑĮ ÐµÐ²Ð¸Ñĩ
ĠÐºÐ¾Ð¼Ð°Ð½Ð´Ð¸ÑĢ Ð¾Ð¼
ĠÐ²Ð¾ÑģÐ¿ÑĢ Ð¸Ð½
Ð°ÑĢ Ð¸Ñı
ĠÐ²ÑĭÑĪ ÐµÐ´
ĠÐ¼ÑİÐ½ Ñħ
ĠÐ²Ð¸ÐºÐ¸ÑģÐº Ð»Ð°Ð´
ĠÐ¼ Ð¸ÑĢÑĥ
ĠÐºÐ¾Ð¼Ð°Ð½Ð´ Ð¾Ð¹
ĠÐ·Ð°Ð½Ð¸Ð¼ Ð°ÐµÑĤÑģÑı
ĠÐºÐ¾ÑĤÐ¾ÑĢ ÑĭÐ¼Ð¸
ĠÐ¸ÑģÑĤÐ¾ÑĩÐ½Ð¸Ðº Ð°Ð¼Ð¸
ĠÐ²Ð¾ ÐµÐ½Ð°ÑĩÐ°Ð»ÑĮ
ĠÐ¾ÐºÐ°Ð·ÑĭÐ² Ð°ÐµÑĤÑģÑı
ÑĳÐ½ Ð½ÑĭÐ¼Ð¸
ĠÐ¾ÑģÑĤ Ð°ÑĳÑĤÑģÑı
ĠÐ¿Ð¾Ð´ÑĢÐ¾Ð± Ð½Ð¾
ĠÐ¿Ð»Ð°Ð½ ÐµÑĤ
ĠÑģÐ¼ÑĭÑģ Ð»Ðµ
ÑĤ Ð¾Ð½Ð°
ĠÑĤ ÑĥÐ»
Ð°Ð»ÑĮ ÑĨ
ÑĥÐ½ Ð³
ĠÑģÑĭ Ð½Ð¾Ð¼
ĠÑĤÑĢÐµÑĤÑĮ ÐµÐ¹
Ð¾ Ð¾ÑħÑĢÐ°Ð½
Ð¾Ð² Ð°ÑĢ
Ð³ ÑĢÐ°Ð´
Ð»Ñİ Ð±
ĠÐºÐ°Ð¼Ð¿ Ð°Ð½Ð¸Ð¸
ĠÐºÐ¾ÑģÑĤ ÑĢÐ¾Ð¼
ĠÐ³ÑĢÐ°Ð¼ Ð¾ÑĤ
ĠÐ±Ð¸Ð±Ð»Ð¸Ð¾ÑĤÐµÐº Ð¸
ÑįÐ½ ÑĮ
ĠÑįÐ½ÐµÑĢÐ³ Ð¸Ð¸
ĠÐ¿Ð»Ð°Ð½ Ðµ
ĠÐºÐ¾Ð» Ð¾Ðº
ĠÐ¼Ð°ÑĪÐ¸Ð½ Ð¾ÑģÑĤÑĢÐ¾
Ð¸ÑĤ Ð¸Ð²
ĠÐ¿ÑĭÑĤÐ° ÐµÑĤÑģÑı
ĠÐ³Ð°Ð· ÐµÑĤÐµ
ĠÑĨÐµÐ½ÑĤÑĢÐ°Ð»ÑĮ Ð½Ð°Ñı
ĠÐ´Ð¾Ñĩ ÐµÑĢ
ĠÑģÐ¾ÑĤÑĢÑĥÐ´ Ð½Ð¸Ñĩ
ĠÐºÐ¾Ð»Ð»ÐµÐ³ Ð¸
ĠÐ·Ð°Ð³Ð»Ð°Ð² Ð¸Ðµ
ĠÑĥ ÑģÑģÑĢ
ĠÐ· Ð¾Ð½
ĠÐ¸Ð¼ ÑĥÑīÐµÑģÑĤÐ²
ĠÐ²Ð»Ð°Ð´ ÐµÐ»
Ð½ Ð¾Ð·
ĠÐ¿Ð» ÑİÑģ
ĠÐµÐ² ÑĢÐ¾
ÑĨÐµÐ² Ð°
ĠÑģÑĤÐ°Ð² ÑĢÐ¾Ð¿
ĠÐ¼Ð¾Ð½Ð³ Ð¾Ð»
ĠÑİÐ¶ Ð½ÑĭÐ¹
ĠÐ½ÐµÐ¼ÐµÑĨ ÐºÐ¸Ñħ
ĠÐ¿ÐµÑĤÐµÑĢÐ±ÑĥÑĢÐ³ ÑģÐºÐ¾Ð³Ð¾
ĠÑĢÐ°ÑģÑĤÐ² Ð¾ÑĢ
ĠÐ¾ÑģÑĤÐ°Ð² Ð¸Ð»
ĠÑģÐ²Ð¾Ð¹ ÑģÑĤÐ²Ð°
ĠÑħ Ð°Ðº
ĠÐ¿Ð¾Ð»Ð¾Ð² Ð¸Ð½Ñĭ
ĠÐ¿ÑĢÐµÐ´ÑĭÐ´ÑĥÑī Ð¸Ð¹
ĠÑģÑĩÐ¸ÑĤÐ° ÑİÑĤ
ÑıÑī ÐµÐ¹
Ð°Ð»Ð¸Ð· Ð¼Ð°
ĠÐ·Ð°Ð²Ð¾ÐµÐ² Ð°Ð»
ĠÐ² Ð±
ĠÐ» ÐµÐ¼
ĠÐ¿Ð¾Ñģ Ð¼ÐµÑĢÑĤ
ĠÐ¾Ñģ ÐµÑĤ
ĠÐ¿Ð¾Ð»ÑĤ Ð°Ð²
ĠÐº ÑĢÐ¾Ð½
ĠÐ´ Ð°ÑĤÑĭ
ĠÐ¼ÐµÐ¶Ð´ÑĥÐ½Ð°ÑĢÐ¾Ð´ Ð½Ð°Ñı
Ñĸ Ð²
ĠÐ¿Ð¾Ð´ Ð°ÑĢ
ĠÑģÐ°Ð¼Ð¾ÑģÑĤÐ¾ÑıÑĤÐµÐ»ÑĮ Ð½Ð¾
Ñĩ ÐµÐ²
ĠÑĤÑĢ Ð¾Ð¹
ĠÐ³ Ð»Ð°Ð´
ĠÐ¶ ÑĳÑģÑĤ
ĠÐ¾Ð±ÑĬ ÑıÑģÐ½Ñı
ĠÐ³ÐµÐ¾ÑĢÐ³ Ð¸Ñı
ĠÐ½Ð°ÑģÐ»ÐµÐ´ Ð¸Ñı
Ð¸ÑĢÐ¾Ð² Ð°Ð²
ĠÐ²Ð»Ð°Ð´ Ð¸ÑģÐ»Ð°Ð²
ĠÑĢÑĥÐºÐ¾Ð²Ð¾Ð´ Ð¸Ð»
ĠÐ¿Ð¾Ð´Ð¾Ð± Ð½ÑĭÑħ
ĠÐ²ÐµÑĢÑĤ Ð¸Ðº
ĠÐ½Ð¸Ðº Ð¸ÑĤ
ĠÐ± Ñį
ĠÐ¼Ð¾Ð»Ð¾Ð´ ÑĭÑħ
ĠÑĥÐ·Ð½ Ð°Ð²
ÑĢÐµ Ð²Ð°
ĠÐ±ÐµÐ» ÑĭÐµ
ĠÐ·Ð° Ð¸Ð½ÑĤÐµÑĢÐµÑģ
ĠÐ¿Ð¸ÑģÑĮ Ð¼Ð°
ĠÑģÐ¾ÐµÐ´Ð¸Ð½ ÐµÐ½Ð¸Ñı
ĠÑħÐ¾ÐºÐºÐµ Ñİ
ĠÐ¼ ÑıÑģ
ĠÐºÐ¾Ð»Ð»ÐµÐ³ Ð°
Ð¾ÑħÑĢÐ°Ð½ Ð¸Ð»Ð¸
Ñĩ ÐµÐ¹
ĠÑģÐµÑĢÐ¶ Ð°Ð½ÑĤ
ĠÐº ÑĥÐ´
ĠÐ¾ÑģÑĤ Ð°Ð»ÑĮÐ½ÑĭÑħ
ĠÑĢÐµÐ³ ÑĥÐ»Ð¸
ĠÐ¾ÐºÑĢÑĥÐ³ Ð¾Ð²
ĠÐ¿ÑĢÐµÐ² ÑĢÐ°ÑĤ
ĠÐ¿Ð¾Ð´ Ð½Ð¸Ð¼
ÐµÑĢ Ð¼Ð°Ð½
Ð°ÑĢ ÑģÐºÐ¾Ð¹
ĠÐ¿ÐµÑĢÑģ Ð¸Ð´
Ð¸Ð»ÑĮ Ñı
ÑıÐ» Ð¸ÑģÑĮ
ĠÐ¿Ð¾Ð»ÑĮÑĪ Ð°
ĠÑĥÑģÑĤ Ð¾Ð¹ÑĩÐ¸Ð²
ĠÐ°Ð²Ð¸ Ð°ÐºÐ¾Ð¼Ð¿
ĠÐ±ÑĢÐ° ÑĥÐ½
ĠÐ¾Ð±ÑĬÐµÐ´Ð¸Ð½ ÐµÐ½Ð¸Ðµ
ĠÐ½ Ð¾ÑĢ
ĠÐ°Ð´Ð² Ð¾Ðº
ĠÐ² Ð¾Ð»Ð½
ĠÑģÐ¸Ð½ Ð´
ĠÐ°Ð½Ð³Ð»Ð¸Ð¹ ÑģÐºÐ¾Ð¹
ĠÐºÐ¾ÑĢÐ¾Ð»ÐµÐ² ÑģÑĤÐ²Ð°
ĠÑĢÐ°ÑģÑĤ ÐµÐ½Ð¸Ñı
ĠÐ¾ ÑĢÐ°Ð½
ĠÐ¼ ÐµÐ·
ĠÑĢÐµÐ³ÑĥÐ»ÑıÑĢ Ð½Ð¾
ĠÐ» Ð°Ð¹
ĠÐ¿ÑĢÐµÐ¿Ð¾Ð´Ð°Ð² Ð°ÑĤÐµÐ»ÑĮ
ĠÐºÐ°ÑĤÐ°ÑģÑĤ ÑĢÐ¾ÑĦ
ĠÐ± Ð»Ñİ
Ð¸Ð¹ ÑģÐºÐ¸Ðµ
ĠÑĩÐµÐ»Ð¾Ð²ÐµÐº Ð¾Ð¼
ĠÐ½Ð°ÑĢÐ¾Ð´ Ð½ÑĭÑħ
ĠÐ¾ÑĤÐºÑĢÑĭ ÑĤÐ°
Ð¾Ð¼ Ð¸Ð½Ð°
ĠÐ²Ð½ ÐµÐ´
ĠÐ¾Ð±Ð¾Ð·Ð½Ð°Ñĩ ÐµÐ½Ð¸Ñı
ĠÑĤÐ°ÑĪ Ðº
ĠÐ´Ð² Ð¾Ðµ
ĠÑĢÐµÐµÑģÑĤ ÑĢÐµ
ÑıÐ½ ÑĮ
ĠÐ¼Ñĥ Ð¶Ðµ
ĠÐ·Ð´ Ð°Ð½Ð¸Ð¹
ĠÐ½Ð¸Ð´ÐµÑĢÐ»Ð°Ð½Ð´ Ð¾Ð²
ĠÐ¿ÑĢÐµÑĤ ÐµÐ½Ð´
ĠÑħ Ðº
ĠÑĩÑĳÑĢ Ð½ÑĭÐ¹
ÑĢ Ð¸Ð±
ĠÐ± ÑĢÐµÐ½
ĠÐ¸Ð½ÑĤÐµÑĢ Ð¿
ĠÐ¿ÑĢÐ¾ÑģÑĤÑĢÐ°Ð½ ÑģÑĤÐ²Ðµ
ĠÐ¿ ÑĢÐ°Ð·Ð´Ð½
ĠÐ¼ Ðº
ĠÑĤÑĢÐµÐ½ ÐµÑĢÐ°
ĠÐºÐ¾ÑĢÐ°Ð± Ð»Ð¸
ĠÐ²Ð¾Ð·Ð³Ð»Ð°Ð² Ð»Ñı
ĠÐ»ÐµÐ± ÐµÐ´
ĠÐ´ÐµÐ» Ð°Ð¼
ĠÐ¾Ð±ÑĢÐ°ÑĤ Ð½Ð¾
ĠÐ¿ÑĢÐ¸Ð¾Ð± ÑĢ
ĠÑĢÐµÐ·ÑĥÐ»ÑĮÑĤ Ð°ÑĤÐ¾Ð²
ĠÐ±Ð¾Ð»ÑĮÑĪÐ¸Ð½ ÑģÑĤÐ²Ðµ
Ð±ÐµÑĢ Ð³Ð°
ÑĢ ÐµÐ½Ð¸Ñı
ÑĥÐ½ Ðµ
ĠÐ°Ð» Ðº
ĠÐ¼Ð¾ÑģÐºÐ¾Ð² ÑģÐºÐ°Ñı
ĠÐ¿Ð¾Ñģ Ð¿
ĠÑħÐ¾Ñĩ ÐµÑĤ
ÑĢ Ð¸Ð»
ĠÐ¿ÑĢÑıÐ¼ Ð¾Ð¹
ĠÑĤÐ¾Ð¿ Ð¾Ð½Ð¸Ð¼
ĠÑħÐ¾Ñĩ Ñĥ
ĠÐ¼Ð¾ÑĢ ÑģÐºÐ¾Ð³Ð¾
ĠÐ¼Ð½Ð¾Ð³Ð¾ÑĩÐ¸Ñģ Ð»ÐµÐ½Ð½ÑĭÐµ
ĠÑı Ð³
ÑģÐ¿ Ð¾ÑĢÑĤ
ĠÐ¿Ð¾ÑĢÑĤ Ð°Ð»
ĠÑģÐ¼ÑĭÑģ Ð»Ð°
ĠÐ½Ð°Ð²Ð¸Ð³ Ð°ÑĨÐ¸Ð¾Ð½Ð½ÑĭÐµ
ĠÐ·Ð° ÑģÑĤ
ĠÐ¸Ð·Ð¼ÐµÐ½ ÐµÐ½Ð¸Ð¹
ĠÐ¿ÑĢÐ¸Ð½ÑĨÐ¸Ð¿ Ðµ
ĠÑģÐ¸Ð±Ð¸ÑĢ Ð¸
Ñĩ Ñĥ
ĠÐ¿ÐµÑĢÐµÐ¸Ð¼ÐµÐ½ Ð¾Ð²Ð°ÑĤÑĮ
ĠÑĦÐµÑģÑĤÐ¸Ð² Ð°Ð»ÑĮ
ĠÑģÐµÑĢÐµÐ´ Ð¸Ð½Ñĭ
ĠÑģÐ¾Ð²ÐµÑĤ Ð¾Ð²
ĠÑģÐ°Ð¼Ð¾ÑĥÐ¿ÑĢÐ°Ð² Ð»ÐµÐ½Ð¸Ñı
ĠÐ±ÐµÐ» Ð¾Ð³Ð¾
ĠÑģ Ð¾Ð»Ð¾Ð²
ĠÑĩ ÑĥÐ¶
ĠÐµÐ´Ð¸Ð½ Ð¸ÑĨ
ĠÐ±Ð¾Ð»ÑĮÑĪÐ¸Ð½ ÑģÑĤÐ²Ð°
ĠÐ¼Ð°ÑĤÐµÑĢ Ð¸Ð°Ð»Ð°
Ð¾Ð± Ð¾ÑĢÐ¾ÑĤ
ĠÐ±Ð¾ÑĢÑĮ Ð±Ð°
ĠÐ¼Ð°Ð´ ÑĢÐ¸Ð´
Ñĥ ÑĨ
ĠÐ½Ð° ÑĪÐµÐ¹
ĠÐ±Ð°Ð½ ÐºÐ°
ĠÐºÐ¾ÑĢ Ð¾Ð±
ĠÐ¿ÑģÐº Ð¾Ð²ÑģÐºÐ¾Ð¹
ĠÐ¼ ÐµÑģÑģ
ĠÐ°Ð± Ñħ
ĠÐ·Ð°Ð¿Ð°Ð´ Ð½Ð¾Ð¼
ĠÐ¸Ð·Ð± ÐµÐ¶
ĠÐ»Ñĥ Ð¸Ñģ
ĠÐ¸Ð·Ð¼ÐµÐ½ ÐµÐ½Ð¸Ðµ
ĠÐ½Ð¸Ð¶ Ð½ÑıÑı
ĠÑİÐ½Ð¾ ÑĪÐµ
ĠÐ¿Ð¾Ð´Ð¾Ð± Ð½ÑĭÐµ
Ñĥ Ð¸
ĠÐ² ÑĢÐµÐ´
Ñĭ ÑģÐº
ĠÐ½ Ð¾Ð±
ĠÐ´Ð°Ð½ Ð½Ð°Ñı
ĠÐ½Ð¾Ð¼Ð¸Ð½Ð° ÑĨÐ¸Ñı
ĠÐ¿Ð¾Ð´ Ð·ÐµÐ¼
ĠÐ¿Ð¾Ð½ ÑıÑĤÑĮ
ĠÑĪÐ°Ñħ ÑĤ
ĠÐ²Ð¸ÑĢ ÑĤÑĥ
ĠÑĢ Ð¾Ð½
ÑĪ ÐµÐ½
ĠÐ¾Ð¿ ÑĢÐ°Ð²
ĠÐ¿Ð¾Ð»ÑĮÑĪ Ðµ
Ñī Ð¸ÐºÐ°
ĠÐ» Ð¸Ñģ
ĠÐ¸Ð½ ÑģÐ¿
ĠÐ¿ÑĢÐ¾ÑĤÐ¸Ð² Ð¾Ð¿Ð¾Ð»Ð¾Ð¶
ĠÑĤÐ°Ðº Ð¸Ð¼Ð¸
ĠÑįÐ¼ Ð±
ĠÐ³Ð¾ÑĢÐ¾Ð´ Ð¾Ð¼
ĠÐ¾Ð±ÑĬÑıÐ² Ð¸Ð»
Ð¾Ð² Ð¸Ðº
ÐµÑĨ Ð¸Ñı
ĠÐ¾ÑģÐ½Ð¾Ð² Ð½Ð¾Ðµ
ĠÐ²Ð¾Ð¿ÑĢÐ¾Ñģ Ð¾Ð²
ĠÐ²Ð°Ð¶ Ð½ÐµÐ¹
ĠÐ±ÐµÐ»ÑĮÐ³ Ð¸Ð¸
ĠÐ½Ð¾ÑĢÐ²ÐµÐ³ Ð¸Ð¸
ĠÑĥÑĩÐ°ÑģÑĤÐ½Ð¸Ðº Ð°Ð¼Ð¸
ĠÐ°Ð´Ð¼Ð¸Ð½Ð¸ÑģÑĤÑĢÐ° ÑĤÐ¾ÑĢÐ°
Ð¾ÑģÐ¿ Ð¾ÑģÐ¾Ð±
ĠÑĦ ÐµÑĢÐ½
ĠÐ¸Ð·Ð²ÐµÑģÑĤ Ð½Ð¾Ð³Ð¾
ĠÐ¾ Ñī
ĠÐ´ÑĢÑĥÐ³ Ð°Ñı
ĠÐ¿ÑĢÐ¾ÑĪ Ð»Ð¾Ð¼
ĠÐ½Ð°ÑĪ ÑĳÐ»
ĠÐ¿ÑĢÐµÐ² Ð¾Ñģ
Ð² Ð¸Ð»Ð¸
ĠÑĤÐ°Ð½ Ðº
ĠÐ°ÑĢÑĤ ÑĥÑĢ
ĠÑĦÐµÐ´ÐµÑĢÐ°Ð»ÑĮ Ð½Ð¾Ð³Ð¾
ĠÐ¾ÑģÐº Ð°ÑĢ
ĠÐº ÐµÐ¹
Ð¸Ð² ÑĪÐ¸Ðµ
ĠÐ¶ ÑĥÐºÐ¾Ð²
ÑĢÐ¾ ÐµÐºÑĤ
ĠÐ¸Ð³ÑĢÐ¾Ðº Ð¾Ð¼
ĠÐºÑĢÐ¸ÑĤÐµÑĢ Ð¸Ð¸
ĠÐµÐ¿Ð°ÑĢÑħ Ð¸Ñı
ĠÑĦÐµÑģÑĤÐ¸Ð²Ð°Ð» Ñı
ĠÑģ Ð¾ÑĢÑĤ
ĠÐ¼Ð¾Ð» ÐµÐº
ĠÐ¿Ð¾Ð»Ð¾Ð¶ ÐµÐ½Ð¸Ñı
Ð´ Ñģ
ĠÐ½Ð°Ð·Ð² Ð°Ð½Ð°
ĠÐºÐ°Ð· Ð°Ñĩ
ĠÑģÐ¸ÑģÑĤÐµÐ¼ Ð°ÑĤ
ĠÐ²Ð¾ÑģÑĤÐ¾Ñĩ Ð½Ð°Ñı
ĠÐ¾Ð¿Ð¸Ñģ Ð°Ð½Ð¸Ñı
ĠÐ±Ð»Ð°Ð³ Ð¾ÑĤÐ²Ð¾ÑĢ
ĠÐ² ÑĢÐ°Ñī
ĠÑĢÐµÐºÐ¾Ð¼ ÐµÐ½Ð´Ð°
ĠÐ²Ñĭ ÑıÑģÐ½
ĠÑģÑĢÐµÐ´ Ð½ÐµÐ³Ð¾
ĠÐ¿Ð¾Ðº Ð»Ð¾Ð½
ĠÐ´ÐµÐ¹ÑģÑĤÐ² ÑĥÐµÑĤ
ĠÐ²Ð¾Ð» Ð¾Ñģ
ĠÐ¿Ð¾ÑģÐ»ÐµÐ´ Ð½ÑıÑı
ĠÐºÐ°Ð½Ð´Ð¸Ð´ Ð°ÑĤÐ°
ĠÑĤ Ñį
ĠÐ²Ñĭ ÑĢÐ¾Ñģ
ĠÐºÐ¾ÑĢÐ¾Ð»ÐµÐ² ÑģÑĤÐ²Ð¾
ĠÐ¾ÑģÑĥÑīÐµÑģÑĤÐ² Ð»Ñı
ĠÑĩÑĥ Ð²Ð°ÑĪ
ĠÑĢÐ°ÑģÑģ ÑĩÐ¸ÑĤ
ÑģÑģ Ð¾Ð½
ĠÐ¾Ð± ÐµÑī
ĠÐºÐ° ÑĢÐ°Ð±
ĠÑģÐ¿ÑĢÐ°Ð²Ð¾Ñĩ Ð½Ð¸Ðº
Ð¾ÑĢ ÐµÐ¶
ĠÐ¸Ð³ Ð¾ÑĢ
ĠÐ½Ð¸Ð¶ Ð½ÐµÐ¹
ĠÑĤÐµÑħÐ½Ð¾Ð»Ð¾Ð³ Ð¸Ð¹
ĠÐºÑĢÐ¸ÑĤ Ð¸ÐºÐ¾Ð²
Ñĩ ÐµÑĤ
ĠÐ¾ÑĢÑĥÐ´ Ð¸Ñı
ĠÑĤÐ²Ð¾ÑĢÑĩÐµÑģÑĤÐ² Ð°
ĠÐ´Ð°Ð² Ð°Ð¹ÑĤÐµ
ĠÑĢÐ°Ð·Ð³ ÑĢÐ¾Ð¼
ĠÐ»Ð°Ð³ ÐµÑĢ
ĠÐ³ ÑĥÐ´
Ð· Ð´
ÑĨ Ð¸Ð´
Ð¸ÑĢÐ¾Ð²Ð°Ð½ Ð½Ð°Ñı
ĠÐ¿ÑĢÐ¾ÑĨÐµÑģÑģ Ð°
ĠÐµÐ¶ÐµÐ³Ð¾Ð´ Ð½Ð¾
ĠÑĪ ÑĥÑĤ
ÐµÑĢÐ° ÑĨÐ¸Ð¸
ĠÑģÐµÐ¼ Ð¸
ĠÐ´ Ð¶Ðµ
ĠÐ¿Ð¾Ð»Ð¸ÑĤ Ð¸ÑĩÐµÑģÐºÐ¸Ðµ
ĠÑĢÐµÐ´ ÐºÐ¾
ĠÐ»Ð¾Ð³ Ð¾ÑĤÐ¸Ð¿
ĠÐ¾Ð¿ÑĥÐ±Ð»Ð¸Ðº Ð¾Ð²Ð°Ð»
ĠÑĢ ÐµÐ»ÑĮ
ĠÐ¼Ð¸Ð½ ÑģÐº
ĠÐ»ÑĥÑĩ ÑĪÐ¸Ðµ
ĠÐ²Ð¾ÑģÑĤÐ¾Ñĩ Ð½Ð¾
ĠÐ²Ð¾Ð´ Ð¾ÑħÑĢÐ°Ð½Ð¸Ð»Ð¸
ĠÐ²Ð°Ð»ÐµÐ½ÑĤ Ð¸Ð½
ĠÐ²Ð¾ÑģÐ¿Ð¾Ð¼Ð¸Ð½ Ð°Ð½Ð¸Ñı
ĠÐ»ÐµÑĤ Ð¸Ñİ
ĠÐ½ÐµÐ´ Ð°Ð»
ĠÐ¿Ð¾Ð¶ Ð°ÑĢ
ĠÐºÑĢÐ¾Ð² Ð¸
ĠÑįÐ² Ð°ÐºÑĥ
ĠÐºÐ¾ Ñį
ĠÐ² ÐµÑĢÐ°
ĠÐ½Ðµ Ð¾Ð±Ñĭ
ĠÑģÐºÐ¾ÑĢ Ð¾ÑģÑĤÐ¸
ĠÐ½Ðµ Ð¾Ð¿
ĠÐ¼Ð¾Ð³ Ð»Ð°
ĠÐ¿Ð»Ð¾Ñħ Ð¾
ĠÐ¾Ð±Ñī ÐµÑģÑĤÐ²ÐµÐ½Ð½Ð¾Ð¹
ĠÑģÐ¾Ð± Ð»ÑİÐ´
ĠÑģÑĦ ÐµÑĢÐµ
ĠÐ¿ÑĢÐµÐ¸Ð¼ ÑĥÑīÐµÑģÑĤÐ²
ĠÐ½Ðµ Ð¾Ð¶Ð¸Ð´
ĠÐ±Ð°ÑĤÐ° ÑĢÐµ
ĠÐ½Ð°ÑģÑĤ ÑĢÐ¾
ĠÐ¿Ð¾Ð³Ð¸Ð± Ð»Ð¸
ĠÐºÐ°Ð½ Ð¾Ð½
Ðº Ð¾ÑĢ
ÑģÑĤ Ðµ
Ð¸Ð² Ð¾
ĠÐ¿ÑĢÐ¾Ð¼ ÐµÐ¶
ĠÐ¿ Ð¸ÑģÑĤ
ĠÐ¼ ÑĥÐ´
ĠÑĥÑģÑĤÑĮ Ñı
ĠÐ¾ÑģÐ½Ð¾Ð² Ð½Ð¾Ð³Ð¾
ĠÐ°ÐºÐ°Ð´ÐµÐ¼ Ð¸Ñİ
ĠÐºÐ¾Ð»Ð»ÐµÐºÑĤÐ¸Ð² Ñĭ
ĠÐ¾Ð±Ð· Ð¾ÑĢ
ĠÐ¼ ÐµÐ³
ĠÑĦÑĢÐ°Ð½ÑĨ Ð¸ÑģÐº
Ð»Ð° ÑģÑģ
ĠÑģÐ²ÑıÐ· Ð°Ð½
ĠÐ¾ÑĢÐ³Ð°Ð½Ð¸Ð· Ð¾Ð²Ð°Ð½
ĠÐ¿ÑĢÐ¸Ð· Ð½Ð°
ĠÐºÐ¾Ð¼Ð¿Ð¾Ð· Ð¸ÑĨÐ¸Ð¹
ĠÑģÐ¾Ð¾Ð±Ñī ÐµÑģÑĤÐ²Ð¾
ĠÑģÐ¾Ð¶Ð°Ð» ÐµÐ½Ð¸Ñİ
ÑĢÐ¸ÑĤ Ðµ
ĠÐ³ÑĢ Ð¸Ð½
ĠÐ½Ð°ÑĤ Ð°Ð»ÑĮÑı
ĠÑĤÐµÐ¿ Ð»
ĠÐ¿Ð¾Ð»ÑĮ ÑģÐºÐ¾Ð³Ð¾
ĠÑĢÐ°ÑĥÐ½ Ð´Ðµ
ĠÐ¾Ð±Ñī Ð¸Ðµ
ĠÐ³ÑĥÐ±ÐµÑĢÐ½ Ð°ÑĤÐ¾ÑĢÐ°
ĠÐºÐ°Ð· Ð½
Ð¸ÑĤ Ð¾ÑĢ
ĠÐ· Ð²ÐµÑĢ
ĠÐ¿Ð¾Ð· Ð½Ð°ÐºÐ¾Ð¼
ĠÐ¸Ð·ÑĥÑĩ ÐµÐ½Ð¸Ñı
Ðº Ð¾Ð»
ĠÑĤÐµÑħÐ½ Ð¸ÑĩÐµÑģÐºÐ¾Ð³Ð¾
ĠÑĢÐµÑĦÐ¾ÑĢÐ¼ Ñĭ
Ðµ Ð¾
ĠÐ°Ð½ Ð°Ð»Ð¸ÑĤ
ĠÐ°Ð± Ð·Ð°
ĠÐ½Ð°ÑģÑĤ Ð¾Ð»ÑĮÐºÐ¾
ĠÐ¿ÐµÑĢÑģÐ¾Ð½Ð°Ð¶ Ð¸
ĠÐ¾ÑģÐ²Ð¾Ð± Ð¾Ð¶Ð´ÐµÐ½Ð¸Ñı
ĠÑħ Ð¾
Ð°ÑĤ ÐµÐ»Ñİ
Ð¾Ð± Ð¾Ð´Ð°
ĠÐ¿Ð¾ÑģÑĳÐ» ÐºÐµ
Ð° ÑĨ
Ð¸ÑĢÑĥ ÑİÑĤÑģÑı
ĠÑģÐºÐ°Ð· Ð°Ð½Ð¾
ÑĪ ÐµÐ²
Ð¸Ð°Ð»ÑĮ Ð½ÑĭÑħ
ĠÐ°Ð½Ð´ ÐµÑĢÑģÐ¾Ð½
ĠÑģÐ¾Ð» Ð´
ĠÐ½ Ð¾Ð¶
ĠÐºÐ°Ðº Ð¾Ð³Ð¾
ĠÑģÐ²ÑıÑĤ ÑĭÑħ
ĠÐ°Ð±ÑģÐ¾Ð»ÑİÑĤ Ð½Ð¾
ĠÐ¸Ð· Ð²Ð¸Ð½
ĠÐ³Ðµ Ð¾Ð³ÑĢÐ°ÑĦÐ¸Ð¸
ĠÐ»Ð¸ÑĨ Ð¾
ĠÐ¾Ð¿ÑĤ Ð¸Ð¼
ĠÐ½ÑĥÐ¶ Ð½Ñĭ
ĠÑĥÐ¼ÐµÑĢ ÐµÐ½Ð½Ð¾
Ð½ Ð¸Ð·
ĠÑĢÐ° Ñħ
ĠÐ·Ð°Ð¿Ð°Ð´ Ð½Ð¾
ĠÐ´ÐµÐ½ Ð¸Ñģ
ĠÐ¼Ð°ÑģÑģ Ð¸Ð²
ĠÐºÐ¾Ð» ÑħÐ¾Ð·Ð°
ĠÐ´ÐµÑģÑı ÑĤÑĮ
ÐµÑĢ Ð½Ð¾
Ð¾Ð³ ÑĢÐ°Ð¼
ĠÐºÐ°Ðº Ð°Ñı
ĠÐ² Ð²ÐµÑĢ
ĠÐ²Ð¾ÑģÐ¿Ð¸ÑĤ Ð°Ð½
ÐµÑĤ Ð¸
ĠÐ¾Ð±Ð¾ Ð¸Ñħ
ĠÐ± ÑĥÐ»ÑĮ
ĠÐ°Ðº Ñģ
Ð´ Ñı
ĠÐº Ð¸Ð½Ð³
ĠÑĥ ÐºÐ°
ĠÑĢÐµ ÑģÑĤÐ°Ð²
ĠÑģÑĢÐµÐ´ Ñĭ
Ð»ÑıÑĤÑĮ ÑģÑı
ÑĢÑı Ñģ
ĠÐºÑĢÐ°Ð¹ Ð½ÐµÐ¹
ĠÐ¿ÑĢÐ¸ÑĤÐ¾Ðº Ð¸
ĠÐ¾ÐºÐµ Ð°Ð½
ĠÐ²Ñĭ Ð·ÑĭÐ²Ð°ÐµÑĤ
ĠÐºÐ¸Ð»Ð¾Ð¼ÐµÑĤ ÑĢÐ°Ñħ
ĠÑĤÑĢÐ°Ð½ ÑģÐº
ĠÑģ ÐµÐºÑģÑĥ
ĠÐ³ ÑĢÐµÐ½
Ð°ÑĤÐµÐ»ÑĮ Ð½Ð°Ñı
ĠÑĦÐµÐ²ÑĢÐ° Ð»ÑĮ
ĠÑģÑĤ ÐµÐ½Ñĭ
ĠÐ½Ð°ÑĥÑĩ Ð½Ð¾Ð³Ð¾
ĠÐ¾Ð±ÑīÐµÑģÑĤÐ²ÐµÐ½ Ð½Ð¾Ð³Ð¾
ĠÑģÐ»Ñĥ Ð¶ÐµÐ±
Ð¼ ÑĥÑĤ
ĠÑģÐ»ÑĥÐ¶ Ð±Ð°
ĠÐ½ÐµÑģ Ð²
ĠÑģÐµÐ½ÑĤÑıÐ± ÑĢÑĮ
ĠÑĦÑĢÐ¾Ð½ ÑĤÐµ
ĠÐ¿ÑĢÐµÑģÑĤÑĥÐ¿ Ð»ÐµÐ½Ð¸Ñı
ĠÑĦ Ð°Ð»ÑĮ
ĠÑĢÐ°Ð±Ð¾Ñĩ Ð¸Ð¹
ĠÐ¿ÑĢÐµÐ² ÑĭÑĪ
ĠÑĤ ÑĥÐ¿
ĠÑģÐ¾Ð´ÐµÑĢÐ¶ Ð°Ñī
ĠÐ´ÐµÐºÐ°Ð± ÑĢÑĮ
ĠÑĥÑĩÑĳ Ð½ÑĭÐµ
ĠÐ²Ð½Ð¸Ð¼ Ð°Ð½Ð¸Ñı
ĠÐ¸ÑĢ Ð¸Ð½Ð°
ĠÐ¿ÑĢÐµÑģÑĤ Ð¾Ð»
ĠÑĪÐ¾ÑĤÐ»Ð°Ð½Ð´ Ð¸Ð¸
ĠÑģÐ»ÐµÐ´ÑĥÑİÑī Ð¸Ñħ
ĠÑĩÐµÑħ Ð¸Ð¸
ÑĪ ÐµÑģÑĤÐ²
ĠÐ¿ÑĢÐ¸Ð½ ÐµÑģ
ĠÐ³Ð»Ð°Ð² Ð½Ð°Ñı
ĠÑĥÐºÐ°Ð· Ð°Ð½Ð¾
ĠÐ¿ÐµÑĢ Ñĥ
ĠÑĪ Ð°ÑĪ
ĠÐ¾ÑģÐ½Ð¾Ð² Ð°Ð»
ĠÐ¾Ð±ÑıÐ· Ð°ÑĤÐµÐ»ÑĮÐ½Ð¾
ĠÐ¾Ð±ÐµÑģÐ¿ÐµÑĩ ÐµÐ½Ð¸Ðµ
ĠÐ³Ð¸Ð¼Ð½Ð°Ð· Ð¸Ð¸
ĠÑĪ ÐµÐ¹
ÐºÐ¾Ð² ÑĭÐµ
ĠÐ½Ð°ÑģÑĩÐ¸ÑĤ ÑĭÐ²
ĠÐ³Ðµ Ð¾Ð¼ÐµÑĤ
ĠÑģÐ»ÑĥÐ¶ Ð±Ðµ
ĠÑĥ Ð²Ð¾Ð»
ÑĢÐ°Ð½ Ð¾Ð²
ĠÐ¸Ð¾Ð°Ð½ Ð½Ð°
ĠÐ¸ÐµÑĢÑĥÑģÐ°Ð» Ð¸Ð¼
Ð¼Ñĭ Ñģ
ĠÐ±Ð°Ð· Ð°
ĠÐ¾Ñħ ÑĢÐ°Ð½Ñĭ
ĠÑĢÐµÐ¿ Ð»
ÐµÐ»ÑĮ Ð½Ð¾Ð³Ð¾
ĠÑĩÐµÑĢ Ð½Ð¾Ð¼Ð¾ÑĢ
ĠÐº ÐµÐ½
Ð½Ð¾Ð² Ð¸Ð´
Ð¿ÑĢ Ð¾Ð¼
ĠÐ¿ÑĢÐ¸Ð¼ ÐµÑĢÑĭ
ĠÐ·ÐµÐ» ÐµÐ½
ĠÐ¿Ð¾Ð¿ ÑĢÐ¾Ð±
ĠÐ¾ÑĤÐ´ÐµÐ»ÑĮ Ð½Ð¾
ĠÑģÑĤ Ñİ
ĠÐ¸Ñİ Ð»ÑĮ
ĠÐ²ÑĭÑģÑĤÐ°Ð² ÐºÐ¸
ĠÑģÐ¿ÐµÑĨÐ¸Ð°Ð» Ð¸ÑģÑĤÐ¾Ð²
ĠÐ¾ÑģÐ½Ð° Ñī
ĠÐ»ÐµÐ½Ð¸Ð½Ð³ÑĢÐ°Ð´ ÑģÐºÐ¾Ð¹
ĠÐ¸Ð½Ð´ ÑĥÑģÑĤ
ĠÐ¿ÑĢÐ¾Ð´Ð¾Ð»Ð¶ Ð°Ð»
Ð±ÑĥÑĢÐ³ Ðµ
ĠÐ¼Ð¾ Ð¸
ĠÐ¸ÑģÑĤÐ¾Ñĩ Ð½Ð¸ÐºÐ¾Ð¼
ĠÐ¿Ð¾Ð´Ð´ÐµÑĢÐ¶ ÐºÐµ
ĠÑĢÐµÐ´Ð°Ðº ÑĨÐ¸Ð¸
ĠÐµÐ²ÑĢÐ¾Ð¿ÐµÐ¹ ÑģÐºÐ¾Ð¹
ĠÐ¸Ð»ÑĮ Ñı
ÐµÐ¼ Ð¾Ðµ
ĠÐ²Ñģ ÐµÐ²
ĠÐ¶ Ð¸ÑĢ
ĠÐ±Ð¾ÐµÐ² ÑĭÐµ
ĠÐºÐ¾Ð½ÑģÑĤÐ¸ÑĤÑĥ ÑĨÐ¸Ð¸
ĠÑĦ ÑĢÐ°Ðº
ĠÐ³Ð¾Ð²Ð¾ÑĢ Ð¸Ð»
ĠÐºÐ°Ð½ÑĤ Ð¾Ð½Ð°
ĠÐ¿ÑĢÐ¾Ð´ÑĥÐº ÑĨÐ¸Ð¸
ĠÐ² Ð¾ÑĢÐ¾ÑĤ
ĠÑį ÑĪ
ĠÐ°ÑĦ Ð°Ð½
ĠÐ¿ÑĢÐ¸Ðº Ð»Ð°Ð´
Ð¾Ð»ÑĮ ÑģÐºÐ¾Ð¹
ĠÑģÐ¾Ð²ÑĢÐµÐ¼ ÐµÐ½Ð½ÑĭÐµ
ĠÐ³ Ð°Ð³
ÐµÐ² Ð¾Ð³Ð¾
ĠÐºÐ°ÑĢ Ð¾Ð»
ĠÑĥÑģÑĤ ÑĢÐ°
ĠÐ¿ÐµÑĢÐµÐ¿ ÑĢÐ°Ð²
ĠÐ²Ð¾Ð·Ð´ÑĥÑħ Ð°
ĠÐºÐ°Ð» ÐµÐ½Ð´
ĠÐ±Ð»Ð¾Ðº Ð¸ÑĢÐ¾Ð²
ĠÐ°Ð±Ð´ ÑĥÐ»
Ð¾ÑĢÐµÐ¶ Ð¸ÑģÑģ
ĠÐ³Ð°Ð· Ð°
ĠÐ³Ð¾ÑģÑĤ Ð¸Ð½
Ð°Ð¼ ÐµÐ½
Ð²Ð° Ñĩ
ĠÐ²Ð¿ Ð°Ð´Ð°ÐµÑĤ
ĠÐ³ÐµÐ¾ÑĢÐ³ Ð¸ÐµÐ²
ĠÑģÐ¾Ð°Ð² ÑĤÐ¾ÑĢ
ĠÑĢÐµ ÐºÑĤ
Ð¾Ñĩ ÐµÐº
ĠÐ¿Ð¾Ð±ÐµÐ´ Ð¸Ð»
ĠÐ½Ð¾Ð¼ ÐµÑĢÐ¾Ð²
ĠÐ»Ñĥ Ð³Ð°Ð½
ĠÑģÐ¾Ñģ ÑĢÐµÐ´
ĠÑĤÐ²Ð¾ÑĢÑĩÐµÑģÑĤÐ² Ð¾
ĠÑĢ Ð¸
ĠÑģÐ¾ÑģÑĤÐ¾ÑıÐ½ Ð¸Ñı
ĠÑĢÐµÐ·ÑĥÐ»ÑĮÑĤ Ð°ÑĤÐ¾Ð¼
ĠÐ¸Ð½Ð´ ÐµÐ¹
ĠÐ¿Ð°Ð» Ð°ÑĤÑĭ
ĠÐ¿Ð¾Ð½ÑıÑĤ Ð¸Ñı
ĠÐ°Ð´Ð¼Ð¸Ð½Ð¸ÑģÑĤÑĢÐ°ÑĤÐ¾ÑĢ Ð¾Ð²
ÑĳÐ½ Ð½ÑĥÑİ
ĠÐ½Ð°ÑĨÐ¸Ð¾Ð½Ð°Ð»ÑĮ Ð½ÑĭÑħ
ĠÐ°Ð²ÑĤÐ¾Ð¼Ð¾Ð±Ð¸Ð»ÑĮ Ð½ÑĭÑħ
ĠÐ± Ð°ÑĢÑĤ
ĠÑĢÐµ Ð´Ð¸
ĠÐ´Ð¶ Ð¸Ð¼
ĠÐ¸Ð·Ð²ÐµÑģÑĤ Ð½Ð¾ÑģÑĤÑĮ
ĠÐº ÑĥÑħ
Ð± Ð¾Ð½
ĠÐ¾Ðº Ð·
ĠÐ´Ð¾ÐºÑĥÐ¼ÐµÐ½ÑĤ Ñĭ
ĠÐ¾Ð± ÑĪÐ¸ÑĢ
Ð»Ð°Ð¹ Ð½
ĠÑħ ÑĢÐ¾Ð¼
Ð½Ð° Ñħ
ĠÐ²Ð¸Ð½ Ð¾Ð³ÑĢÐ°Ð´
ĠÐ½ÐµÐ¸Ð·Ð²ÐµÑģÑĤ Ð½Ð¾
Ð¸Ð» Ð»Ð¸
ĠÐ¿Ð¾Ð» Ð°
ĠÑģ Ð¶
Ð¾Ñģ ÐµÐºÑģÑĥ
ĠÐ¾Ð´ Ð¾Ð±
ĠÐ²Ð¾ÐµÐ½Ð½Ð¾ ÑģÐ»ÑĥÐ¶
ĠÐ¼Ð¾Ð»Ð¾Ð´ÑĳÐ¶ Ð½ÑĭÐµ
ÑģÑĤÐ²ÐµÐ½ Ð½Ð°Ñı
ĠÐ± Ð¾Ñģ
ĠÐ·ÑĢÐ¸ÑĤ ÐµÐ»ÐµÐ¹
ĠÐºÐ°Ð½Ð° Ð´Ð°
ÑĥÐ· Ð°
ĠÑģÐµÐ²ÐµÑĢ Ñĥ
ĠÐºÐ¸ÐµÐ² Ðµ
ĠÐ²Ð¾ÑģÐµÐ¼ ÑĮ
ĠÑģÐ²Ð¾ ÐµÐ¼
ĠÑĢÐ¾ÑģÑģ Ð¸Ñİ
ĠÐ½Ð°ÑĢÐ¾Ð´ Ð½Ð°Ñı
ĠÐ³Ð»Ð°Ð² Ð½ÑĭÐµ
ĠÑģÐ¿ÐµÑĨÐ¸Ð°Ð»ÑĮ Ð½Ð¾ÑģÑĤÐ¸
ĠÑĢÐ°Ð·Ð³ Ð¾Ð²Ð¾ÑĢ
ĠÐ½Ð¾ÑĢÐ² ÐµÐ¶
ÑĢÑĭÐ² Ð°ÐµÑĤ
Ð² Ð°Ñı
ĠÑĩ Ð¸Ð½
ÐµÑħ Ð°Ð»
ĠÐ¼ÐµÑģÑĤ Ð½ÑĭÐµ
ĠÐ¾Ð±ÑīÐµÑģÑĤÐ²ÐµÐ½ Ð½ÑĭÑħ
Ðµ Ñİ
Ð¸ ÑĥÐ¼
ÑĢ Ð¾Ð²Ð°Ð½Ð¸Ñı
ĠÐ¼ Ð¾Ðº
Ð¸Ð² ÑĪÐµÐ³Ð¾
ÐµÐ»Ñı Ð½
ĠÐ¿Ð¾ÑģÑĤ ÑĢÐ°Ð´
ĠÐ¾Ð¿Ð¸Ñģ Ð°Ð½Ð½ÑĭÐµ
ĠÐ¿ÐµÑĢÐµÐ¸Ð¼ÐµÐ½ Ð¾Ð²Ð°Ð½Ð°
ĠÑħÑĥ Ð°Ð½
ÑĪÑĤ ÐµÐ¹Ð½
ĠÐ½ÐµÐ´Ð°Ð» ÐµÐºÐ¾
ĠÐ¿ÐµÐ² ÐµÑĨ
ĠÐ°Ð±Ñħ Ð°Ð·
Ð¾Ð¿ Ð°ÑĤ
ĠÐ¾Ñĩ ÐµÑĢ
ĠÐºÐ°Ð¶Ð´ Ð°Ñı
ĠÑĥÑģÐ» ÑĥÐ³
ĠÐ¹Ð¾ÑĢ ÐºÐµ
ĠÐ¾Ð±Ð»Ð°Ð´Ð° ÐµÑĤ
ĠÐ¿Ð¾Ñĩ Ð¸ÑĤ
ĠÐºÐ¸ÑĤÐ° Ðµ
ĠÐ´Ð¾ÑģÑĤ Ð¾Ð¸Ð½
ĠÐºÐ¾Ð½ÑĨ Ð¾Ð²
ĠÑģÑĤÑĢÑĥÐºÑĤ ÑĥÑĢÑĭ
ĠÐ¿ÑĢ Ð¸ÐµÐ¼
Ð»Ñı Ñħ
ĠÐ²ÐµÑĢÑģ Ð¸Ñİ
ĠÐ²Ñĭ Ð´ÐµÑĢÐ¶
ĠÐ¿Ð¾Ñģ Ð»ÑĥÐ¶
ĠÐºÐ°Ð½ ÑĨ
ĠÐ¿Ð°Ð¿ Ð°
ĠÐ¾Ð± Ð¾Ð±Ñī
ĠÐ¾Ð±Ñģ ÑĥÐ¶Ð´Ð°
ĠÐ·Ð° ÑĢÐ°Ð±Ð¾ÑĤ
ĠÐ°Ð½ Ð½
ĠÑĥÑģÑĤÐ°Ð½Ð¾Ð² Ð»ÐµÐ½Ð°
ĠÐ¿Ð¾ÐºÐ° Ð·ÑĭÐ²Ð°ÐµÑĤ
ĠÐ·Ð½Ð° ÐµÑĤ
ĠÐ´ ÐµÐ¹
ĠÐ±Ð°ÑĪ Ð½Ð¸
ĠÐ¿ÑĢÐ¸Ð½Ð¸Ð¼ Ð°ÐµÑĤ
ĠÑĤÐ¾ÑĢÐ³Ð¾Ð² Ð»Ð¸
ĠÐ± Ð¾Ðµ
Ð¾ÑĤ Ð²
ĠÑģÐ°Ð¼Ð¾Ð»ÑĳÑĤ Ð¾Ð²
ĠÐ¿ÑĢÐ¾ ÐµÐ·Ð´
ĠÐ¼Ð¸Ð½ ÐµÑĢÐ°
ĠÑĥÑĩÑĢÐµÐ¶Ð´ ÐµÐ½Ð¸Ñı
Ð¾Ð¶ ÐµÑĤ
ĠÐ´Ð²Ð¸Ð³ Ð°ÑĤÐµÐ»Ñı
ĠÐ²ÐµÑĢÑĤ Ð¾Ð»
ĠÐ½ÐµÑĦÑĤ Ñı
ĠÐ¸Ð½ÑĤÐµÑĢÐµÑģ Ð½Ð¾
Ð¾Ð´ Ð½Ð¾
ĠÐ¼Ñĥ ÑĢÐ°Ð²
ĠÐ²Ð¾ÐµÐ½ Ð½ÑĥÑİ
ĠÐ½Ð¾Ñģ Ð¸ÑĤ
ĠÐ³Ð¸Ð¼ Ð½Ð°
ĠÐ¿ÑĭÑĤ Ð°Ð»ÑģÑı
ĠÐ» ÑĭÐ¶
ĠÐ· Ð¾Ð½Ð°
ĠÑĩ Ð¸Ð»Ð¸
ÑĨÐ¸Ñı Ð¼Ð¸
ĠÐ¾ÑĪÐ¸Ð± ÐºÐ¸
ĠÐºÐ¾Ð¼Ð°Ð½Ð´ Ð¾Ð²Ð°Ð½Ð¸Ðµ
ĠÐ¿Ð¾Ð±ÐµÑĢÐµÐ¶ ÑĮÐµ
ĠÐ¸Ð·Ð³ Ð½
ĠÐ¼ Ð½Ð¾Ð¹
ĠÐ½Ð¸ÐºÐ°Ðº Ð¾Ð¹
Ñĥ ÑįÑĢ
ĠÐ·Ð°Ðº Ð°Ð½ÑĩÐ¸Ð²
ĠÐ²Ð°ÑĢÐ¸Ð°Ð½ÑĤ Ñĭ
ĠÐ´Ð· Ñİ
ĠÐ²ÐµÑĢÐ½ÑĥÑĤÑĮ ÑģÑı
ĠÐ» Ð°Ð¼
ĠÑģÐ» Ð¾Ð±Ð¾Ð´
ĠÑįÐ¼ Ð¾
ĠÐºÑĥ Ð¹
ĠÑĩÐ¸ÑģÐ»ÐµÐ½ Ð½Ð¾ÑģÑĤÐ¸
ĠÑģÐµÑĢÐ± Ð¸Ð¸
ĠÑģ Ð½Ð°Ð±
Ñį ÑĤÐ°Ð¶
ĠÐ¼ÐµÑģÑĤ Ð½ÑĭÐ¹
ĠÐ¿ÑĢÐ¾Ð´ Ð°Ð²
ĠÑģÑĥ Ð²Ð¾ÑĢ
ĠÐº Ð»Ðµ
ĠÑİ ÑģÑĤ
ĠÐ´Ð°Ð½ Ð¸Ð¸
ĠÐ¿ÐµÑĢÐµÑģ ÐµÐ»
ĠÑıÐº Ð¾Ð±Ñĭ
ĠÑıÐºÐ¾Ð²Ð» ÐµÐ²Ð¸Ñĩ
ĠÐ°Ð½ÑĤ ÑĢÐ¾Ð¿
ĠÑĦÑĥÑĤÐ±Ð¾Ð»ÑĮ Ð½ÑĭÐµ
ĠÐ´Ð¸Ð²Ð¸Ð·Ð¸Ð¾Ð½ Ð°
ĠÑĤÑĢÐ° ÑģÑģ
ĠÑĢÐ¾ÑģÑĤ Ð¾Ð²
ĠÑĥ ÑįÐ»ÑĮ
Ð¾Ðº Ð¾Ð²
ĠÑĥÐ¼ÐµÑĢ Ð»Ð°
ĠÑĥÑģÐ¿ÐµÑħ Ð°
ĠÐ½Ð°Ð¸Ð¼ÐµÐ½ Ð¾Ð²Ð°Ð½Ð¸Ðµ
ĠÐ¿Ð°Ð»Ð¾Ð¼ Ð°ÑĢ
ĠÐ¿Ð¾Ð· Ð¸ÑĨÐ¸Ñİ
ĠÐ¿Ð¾Ð² ÑģÑĤÐ°Ð½
ĠÐºÐ°Ð¶Ð´ Ð¾Ð¼
ĠÐ²ÑģÑĤÑĢÐµ ÑĩÐ¸
ĠÐ»Ð¸Ð½Ð³Ð² Ð¸ÑģÑĤ
Ð¾Ð¿ Ð°
ĠÐ±Ð°ÑĪ Ð½Ñı
ÐµÐ³ Ð¾Ð²
ĠÑģÐ¾ÑģÑĤÐ°Ð² Ð¸Ð»Ð°
ĠÐ³Ð¾ÑģÑĥÐ´Ð°ÑĢÑģÑĤÐ²ÐµÐ½ Ð½ÑĭÐµ
ĠÐ°Ð½ ÑĤÐ¸
ĠÐ½Ð°Ð¿ Ð¾Ð¼Ð¸Ð½
ĠÐ·Ð°Ð½ ÑıÐ²
ĠÑĥÑģÐº Ð¾ÑĢ
ĠÐ°Ð» Ð¼
ĠÐ¼Ð¾Ð± Ð¸Ð»ÑĮ
ĠÐ²ÑĭÐ¼ ÑĭÑĪÐ»ÐµÐ½
Ñĥ ÑĤÐ¾Ñĩ
ĠÐ°Ð½Ð¸Ð¼ Ðµ
ĠÐ½Ð°ÑģÑĤÑĥÐ¿ Ð»ÐµÐ½Ð¸Ðµ
ĠÑĦÐ¾ÑĢÑĤÐµÐ¿ Ð¸Ð°Ð½Ð¾
Ð¾Ð» Ð¾Ñģ
Ð°Ñı Ð½
ĠÑģÐ¿ ÑĢÐ¾Ñģ
ÑĥÐ½ ÑĮ
Ð¾ÐºÐ¾Ð¼ Ð°Ð½Ð´
Ð°Ð»ÑĮ Ð¿
ĠÑĥÑĩÐ°ÑģÑĤ Ð¸Ð¸
ĠÐ²Ð¾Ð» ÑĭÐ½
Ð°ÑİÑī ÐµÐµ
ĠÑģÐ¾Ð²ÐµÑĤ Ð½Ð¸Ðº
ÑıÑī Ð°Ñı
ĠÐ¿ÐµÑĢÐµÐ² Ð¾Ð´Ðµ
ĠÐ²Ð°ÑĢÐ¸ Ð°Ð½ÑĤÐ°
ĠÐ²ÑĮÐµÑĤ Ð½Ð°Ð¼
ĠÑĦ ÐµÐ»ÑĮÐ´
Ð°Ð¼ Ð±Ñĥ
ĠÐ³Ð²Ð°ÑĢÐ´ÐµÐ¹ ÑģÐºÐ¾Ð¹
ĠÐºÐ¾Ð½ÑģÐµÑĢÐ² Ð°ÑĤÐ¾ÑĢÐ¸Ð¸
ĠÐ¾Ð± Ð¾ÑĢÐ¾ÑĤ
ĠÐ¿ÑĢÐµÐ´ ÑģÑĤ
Ð¸ÑĢÐ¾Ð² Ð°Ð»Ð°ÑģÑĮ
ĠÑĢÑĥÑģ Ð¸
ĠÐ¿ÑĢÐ¸Ð± ÑĭÐ»
ĠÐ±ÐµÑĢÐµÐ³ Ð°
ĠÐ¿Ð»ÐµÐ¼ ÑıÐ½
ĠÐ±Ð¾Ð³ Ð°
ĠÐ·Ð°Ð²Ð¸Ñģ Ð¸ÑĤ
ĠÐ±ÐµÐ» Ð³Ð¾ÑĢÐ¾Ð´
ĠÐ´Ð¸ÑģÑĤÐ°Ð½ ÑĨÐ¸Ð¸
ÑĥÑĪ ÐºÐ¸
ĠÑĥÑģÑĤ ÑĢÐ°Ð½
ĠÑĥÑģÑĤÑĢÐ¾Ð¹ ÑģÑĤÐ²Ð°
Ð¸Ð· Ñĭ
ĠÑĢÐ°Ð¹Ð¾Ð½ Ð°Ñħ
ĠÐ·Ð¾Ð»Ð¾ÑĤ Ð¾
ĠÐ³Ð¾Ð»Ð¾Ñģ Ð¾Ð²Ð°Ð½Ð¸Ñı
ÑĦ ÐµÐ¹
ÑįÐ½ Ð´
ĠÐ°Ð¼ Ð±
ĠÐ¿ÑĢÐ¾Ñģ Ð²
ĠÑħÐ°ÑĢÐ°ÐºÑĤÐµÑĢÐ¸ÑģÑĤ Ð¸ÐºÐ¸
ĠÐ²ÑĭÐ± ÑĢÐ°Ð½
ĠÐ¿ÑĢÐ¾ÑħÐ¾Ð´ ÑıÑĤ
ĠÐ¿Ð¾ÑģÑĤÐ°Ð² Ð¸Ð»
ĠÐº ÑĢÑĥÑĤ
ÑģÐ¾Ð² ÐµÑĢÑĪ
ĠÐ³Ð°Ð»ÐµÑĢÐµ Ñı
ĠÐ½Ð° ÑģÑĤÐ°Ð²
ĠÐ» Ð¸ÑĢ
ĠÐ¸Ð· Ð»ÑĥÑĩ
ĠÐ°Ð»ÑĮÐ±Ð¾Ð¼ Ð¾Ð²
ĠÑĥÐ±Ð¸Ð¹ ÑģÑĤÐ²Ð¾
ĠÑĢÐµÐ· Ð¸Ð´
ĠÐº Ð·
ĠÐ´ ÑĢÐ°ÑĦ
ĠÐ³ ÑĢÐ°
ĠÑĤ Ðº
ĠÐ¸Ð·Ð´ Ð°Ð²
ĠÑģÑĤÑĥÐ´ ÐµÐ½ÑĩÐµ
ĠÐ²Ð¿Ð°Ð´ ÐµÐ½Ð¸Ñı
Ð¸Ðº Ð°Ð¼
ĠÐ¿Ð¾Ð» Ð½Ð¾Ð¹
ĠÐ¿ÑĢÐ¸ÑĪ ÑĳÐ»
Ð· Ð¸Ñı
ĠÐ²Ð· ÑıÑĤÑĮ
ĠÐ¾ÑģÐ² Ð¾
ĠÐ¿Ð¾Ð´ Ð½
Ð¸ÑĦ Ð¸ÑĨ
ĠÐºÐ¸Ð½ Ð¾Ð¿
ĠÐ¿ÐµÑĩÐ°ÑĤ Ð¸
Ð°ÑĤ ÑĭÐ¹
ĠÑĢÐ°Ð´ Ð¸Ðº
ĠÑİÐ±Ð¸Ð» ÐµÐ¹
ĠÐº ÑĢÑĥ
ĠÑģÐ²ÑıÐ· Ð°Ð½Ð½ÑĭÑħ
ĠÐ¿Ð¾Ñħ Ð¾Ð¶Ðµ
ĠÐ²Ð°ÑĪ Ðµ
ĠÐ¼ ÐµÑĢÑĭ
Ñī Ð¸Ð½Ð°
ĠÐ¼Ð¸Ð½Ð¸ÑģÑĤ ÑĢÐ¾Ð¼
ĠÐºÐ¾Ð½ÑĤÑĢ Ð¾Ð»Ñı
ĠÑĤÑĢÐ¾Ð» Ð»ÐµÐ¹
ÑĤ ÑĢÐ°
ĠÐ°Ð½Ð°Ð»Ð¸Ð· Ð°
ĠÑģÐ¾Ð²ÑĢÐµÐ¼ ÐµÐ½Ð½ÑĭÐ¹
ĠÐºÐ°Ð»Ð¸ÑĦÐ¾ÑĢ Ð½Ð¸Ñı
ĠÐ°ÑĢÐ¼ Ð¸ÐµÐ¹
ĠÐ´ÐµÑĤ ÑģÐºÐ¸Ð¹
ĠÐ½Ðµ Ð¸Ð·
Ð²Ð° ÑİÑĤ
ĠÐ°ÑĢÑĤÐ¸Ð»Ð» ÐµÑĢÐ¸Ð¸
ĠÐ³Ð¾ÑĢÐ¸Ð· Ð¾Ð½ÑĤ
Ð¸ÑĤÐµÐ»ÑĮ Ð½ÑĭÐ¼Ð¸
ĠÑģÐµÑĢÐ³ ÐµÑı
ĠÐ²ÐµÑģÑĤ Ð½Ð¸Ðº
Ð¸ÑĢÐ¾Ð² Ð°Ð»Ð¸ÑģÑĮ
ĠÐ¾Ð±Ñī Ðµ
ĠÑģ ÑĥÑīÐµÑģÑĤÐ²ÐµÐ½Ð½Ð¾
ÐµÐ½ Ð¾Ñģ
Ð¾Ð¿ Ð¾Ð´
ĠÐ¾Ð±Ñī Ð¸Ð¼
ĠÐ»Ñĥ ÐºÐ°
Ð¸Ð² ÑĪÐ¸Ð¼
ĠÐ½Ð°Ð½ ÐµÑģ
Ñģ Ð²
ĠÐ²Ñĭ Ð½Ð¾Ñģ
ĠÐ¾ÑģÐ½Ð¾Ð² Ñĭ
ĠÑģÐ¾ÑģÑĤÐ¾Ñı Ð»Ð¾ÑģÑĮ
Ð¾ Ð¸
ĠÐºÑĢÐµ ÑģÑĤÐ°
ĠÐ·Ð´ÑĢÐ°Ð² Ð¾Ð¾ÑħÑĢÐ°Ð½
ĠÐ°ÑįÑĢÐ¾Ð´ ÑĢÐ¾Ð¼
ĠÑıÐ¿Ð¾Ð½ ÑģÐºÐ¾Ð¹
ĠÐ¾ÑĢÑĥÐ´ Ð¸Ð¹
Ð°ÑĢ Ð¸Ð¸
Ð¾Ð· Ñĭ
Ð³ Ð¾Ð½
ĠÐ¸Ð¼ ÐµÐ²
ĠÐ¿Ð°ÑĢ Ñĭ
ĠÐ¶ÐµÐ½ Ð¾Ð¹
ĠÐ¼ÑĥÐ½Ð¸ÑĨÐ¸Ð¿ Ð°Ð»ÑĮÐ½ÑĭÐµ
ĠÑĩÐµÐ¼ Ñĥ
ĠÐ²Ð¸ÐºÐ¸Ð¿ÐµÐ´ Ð¸Ñİ
ĠÐºÐ°Ð» ÑĥÐ¶
ĠÐ¿ÑĢÐ¾ÑģÑĤÑĢÐ°Ð½ ÑģÑĤÐ²Ð°
ĠÐ¼ ÑıÑĤ
Ð½Ð°Ñĩ Ð°Ð»Ð¾
ĠÐ¾Ð´Ð½ Ð¾Ð·Ð½Ð°Ñĩ
Ð»ÐµÐ½ Ð½Ð°Ñı
ĠÐ´Ð¾Ð»Ð³ Ð¾Ðµ
ĠÑģÑĤÐ¾ Ð¸Ð¼Ð¾ÑģÑĤÑĮ
ĠÐ²Ð· Ð²
ĠÐ¿ÑĢÐµÐ´ÑĭÐ´ÑĥÑī ÐµÐ³Ð¾
ĠÐ°Ð½ÑĤÐ¾Ð½ Ð¸Ð¾
ĠÑĥÐºÑĢÐ° Ð¸Ð½ÑģÐºÐ°Ñı
ĠÑģÑĤÐ¾Ð» Ð¸ÑĨÑĭ
ĠÐ¿ÑĢÐµÐ´ÑģÑĤÐ°Ð²Ð»Ñı ÑİÑĤ
ĠÐ¿Ð¾Ð·Ð²Ð¾Ð» Ñı
Ð°Ð½ ÑģÐºÐ¾Ð¼
ĠÐ¾Ð± Ð¾Ð»
ĠÐ¾Ðº Ñģ
ĠÐ°Ð¿ÑĢ ÐµÐ»ÑĮ
ĠÑĤÑĢÐ°Ð¼ Ð²Ð°Ð¹
ĠÐ²ÐµÐ´ ÑĳÑĤ
ĠÐ½Ð¾Ð¼ ÐµÑĢÐ¾Ð¼
ĠÑıÑģ Ð½Ð¾
ĠÐ¸Ð¾Ð°Ð½ Ð½
ĠÐ¿Ð¾Ð´Ð²ÐµÐ´ ÐµÐ½
ĠÐºÑĢÐ°ÐµÐ² ÐµÐ´
ĠÐ°ÑģÑĤ ÑĢÐ°Ñħ
ĠÐ¿ÑĢÐ¾Ð¸Ð·Ð²ÐµÐ´ ÑĳÐ½
ĠÐ´Ð¾Ð» Ð³Ð¾
ĠÐ²Ð¾Ð¿ÑĢÐ¾Ñģ Ð°
ĠÐ¼ÐµÐ¶Ð´ÑĥÐ½Ð°ÑĢÐ¾Ð´ Ð½Ð¾Ð¼
ĠÐ²Ð°ÑĪ Ð¸Ð½Ð³ÑĤÐ¾Ð½
ĠÐ³ ÑĢÑĥÐ½
Ð°Ð² ÐºÐ°Ð·
ĠÐµÐ´Ð¸Ð½ Ð¸ÑĨÐ°
ĠÐ²Ð¾Ð² ÑģÐµ
ÑĢÐ° ÑĢ
ĠÑĦ Ð¾Ðº
ÑĥÑī Ð¸Ñħ
ĠÑĢÐ°Ð·Ð²Ð¸ÑĤ Ð¸Ñİ
ĠÑĦ Ñĥ
ĠÐ´Ð¸Ð· Ð°Ð¹Ð½
ĠÐ¿ÐµÐ½Ñģ Ð¸Ð¾Ð½
ĠÑģÑĤ Ð²Ð¾Ð»
ĠÐ³Ð¾ÑĢ ÑıÑĩ
ĠÐ½ÐµÐ´ ÐµÐ»ÑĮ
ĠÐ¼Ð¾Ñī Ð½Ð¾ÑģÑĤÑĮ
ĠÐ½Ð° Ð¾Ð±Ð¾ÑĢÐ¾ÑĤ
ĠÐ°ÑģÑģ Ð¸ÑģÑĤ
ĠÐ»ÐµÑĤ Ð¸Ñı
Ð°ÑİÑīÐ¸Ñħ ÑģÑı
ĠÐºÐ¾Ð½ÑĤÐ¸Ð½ÐµÐ½ÑĤ Ð°Ð»ÑĮÐ½ÑĭÐ¹
ĠÐº Ð¸Ð±
Ð¸Ð¼ ÑĭÑħ
ĠÑģÑĤ Ð¾Ðº
ĠÑĩÐµÑĤÐ²ÐµÑĢ ÑĤÑĮ
ĠÑģ ÑİÑĢ
Ð¶ Ñĥ
ĠÑĩÐµÐ¼Ð¿Ð¸Ð¾Ð½ Ð°
ĠÐ±ÑĢÐ° ÐºÐ°
ÑĦÐ¸Ð»ÑĮ Ð¼
ĠÐ² ÐµÑĤÐµ
ĠÑĤ ÑĢÐµÐ¼Ñı
Ð¾Ð»ÑĮ Ð½ÑĭÐ¹
ĠÐ¿ÐµÑĢÐ¸Ð¾Ð´ Ð½Ð°ÑĩÐ°Ð»Ð¾
ĠÐ±Ð° Ð·Ñĭ
ÑĥÐ»ÑĮ ÑĦ
ĠÑĢÐµÐ· ÐºÐ¾
ĠÐ¿ÑĢÐ¾Ñĩ Ð¸ÑĤ
ĠÑĨ ÐµÑħ
ĠÐ»ÑĥÑĩ ÑĪÑĥÑİ
ĠÐ¿ÑĢÐ¸Ð½Ð¸Ð¼ Ð°ÑĤÑĮ
ĠÐ·Ð°Ð¿ Ð°Ð´Ð°
ĠÐ³ÑĢÐ°Ð½ Ð¸ÑĨÐµ
ĠÐ²ÑĭÑĪ Ð»Ð¸
ĠÐ°Ð²Ð¸Ð°ÑĨÐ¸Ð¾Ð½ Ð½ÑĭÐ¹
ĠÑĥÐ±Ð¸Ð¹ ÑģÑĤÐ²Ð°
ĠÐ¿ÑĢÐµÐ´Ð¿Ð¾Ð»Ð¾Ð¶ Ð¸ÑĤÐµÐ»ÑĮÐ½Ð¾
ĠÐ¿ÑĢ ÑĥÑģ
ĠÐ¸Ð³ Ð½
ĠÐ³Ðµ Ð¾Ð³ÑĢÐ°ÑĦÐ¸Ñı
ĠÐ±ÑĥÐº Ð²Ñĭ
ĠÐ¿ Ð¸Ð¾Ð½
Ð°Ð½ Ñĥ
ĠÐºÐ¾ÑĢ Ð¾Ð½
ĠÐ±Ð¸ Ð¾Ð³ÑĢÐ°ÑĦÐ¸Ð¸
ĠÑĤÑıÐ¶ ÐµÐ»
ĠÐ³ÐµÑĢÑĨÐ¾Ð³ Ð°
ĠÐ¼ Ð²Ð´
Ð·ÑĭÐ² Ð°ÑĤÑĮ
Ð» ÑĥÑĪ
Ð¾Ð¿ Ð¸Ñģ
ĠÐ´Ð¾ÐºÑĥÐ¼ÐµÐ½ÑĤ Ð¾Ð²
ĠÐ¿ÑĢÐ¸Ðµ Ñħ
ĠÑģÐ¼ Ð¸ÑĤ
ĠÑħÐ¸Ð¼ Ð¸Ð¸
ĠÐ±ÑĥÐ´ÑĥÑī ÐµÐ³Ð¾
Ð°Ð²ÑĪÐ¸Ð¹ ÑģÑı
ĠÑĤÐµÑĢ Ð¼
ĠÐ²Ð¾Ð¾ÑĢÑĥÐ¶ ÐµÐ½Ð¸Ðµ
ĠÐ±ÑİÐ´Ð¶ ÐµÑĤ
ĠÐºÐ°ÑĦÐµÐ´ ÑĢÐ¾Ð¹
ĠÐ´ Ð¸ÑģÐ¿
ĠÐ³ Ð¾Ð³
ĠÐ¿ÑĢÐ¾ ÑĦÐµÑģÑģÐ¸Ð¾Ð½Ð°Ð»ÑĮÐ½ÑĭÐ¹
ĠÐ´Ð¾Ð¼ ÐµÐ½
ĠÐ»ÐµÑĤ Ð½Ð¸Ð¹
ĠÐ¼ Ð¾Ñģ
ÐµÐ´ Ð¸Ð¸
Ð¸ÑģÑĤ Ð°Ð¼Ð¸
ĠÑĢÐ°Ñģ ÑĦÐ¾ÑĢÐ¼
ĠÐ·Ð¸Ð¼ Ð¾Ð¹
ĠÐ± ÑĢÐµÑģÑĤ
Ð°Ð³ Ð¸
ĠÐ¼ÑĥÐ·ÑĭÐº Ð°Ð»ÑĮÐ½Ð¾Ð¹
ĠÐ²ÐµÑī ÐµÑģÑĤÐ²
ÑĥÐ½ Ð¸
ĠÑģÑĬ ÐµÐ·Ð´
Ð¾Ð» Ñĩ
ÐµÐ» ÐµÑĤ
ĠÑĩÐµÑĢ Ð½Ð¾Ð²
ĠÐºÑĢÐ¸ÑĤ Ð¸ÐºÐ°
ĠÑģÐ´ÐµÐ» Ð°Ð½Ð¾
Ð°Ð¼ Ð¸Ð½
ĠÐ¾ÑģÑĤ Ð°Ð»Ð¾ÑģÑĮ
ĠÐ²Ð°ÑĪ Ð¸
ĠÐ½Ð°Ð¹ Ð´ÐµÐ½
ĠÑįÑģÑĤ Ð¾Ð½
ĠÐ½ ÐµÑĢÐ²
ĠÐ¿Ð°Ð¼ÑıÑĤ Ð½Ð¸ÐºÐ¾Ð²
ĠÐ²Ð¾Ð·Ð² ÑĭÑĪ
ĠÐ²Ð¾Ð»ÐµÐ¹ Ð±Ð¾Ð»
ĠÐ³ Ð»Ð¸Ð½
ĠÑĦ Ð°Ð·
ÐµÐ¼ ÑĭÐ¼
ĠÑĤÐµÐ»ÐµÑģÐµÑĢÐ¸Ð°Ð» Ñĭ
ĠÐ¿Ð¾Ð²ÐµÐ´ ÐµÐ½Ð¸Ðµ
ĠÑģÑĩÐ¸ÑĤ Ð°Ð»
ĠÑįÑĢ Ð¸Ðº
ĠÐ¾ Ð¹
ĠÐ¼Ð½Ð¾Ð³ Ð¾Ð»ÐµÑĤ
ĠÐ¾Ð¿ Ñĭ
Ð¼Ð¸ Ð½Ñĭ
ĠÑģÐµÐ² ÐµÑĢÐ°
ĠÐ±ÑĢÐ°Ð· Ð¸Ð»Ð¸Ñı
Ð² Ð¸ÑĤ
ĠÑĩÐµÐ»Ñı Ð±
Ð°ÑĢ Ð½ÑĭÐ¹
ĠÐºÐ¾ÑĢ Ñģ
ĠÐ¿ÑĢÐµÐ´ÑģÑĤÐ°Ð² Ð»ÐµÐ½Ð¸Ñı
ÑıÑīÐ¸Ñħ ÑģÑı
ĠÐ¿ Ð°Ð½ÑĤ
ĠÑĢ Ð¾ÑĤÑĭ
ĠÐ¼Ð¾ÑĢ ÑģÐºÐ¸Ñħ
ĠÑģÑĤÑĢ Ð¾Ð³
ĠÑĢÐ°Ð½ Ð³Ð°
ÑĥÐ½ ÑĤ
ĠÐ¼Ð¾Ð½ ÐµÑĤÑĭ
ĠÐºÑĢÑĥÐ³ Ð»
ĠÑĨÐµÐ»Ñı Ñħ
ĠÑģÐ¾ÑģÑĢÐµÐ´ Ð¾ÑĤÐ¾Ñĩ
ĠÐ½ Ð¾ÑĤ
ĠÑĦÐ¾ÑĢÐ¼ Ð°ÑĤ
ĠÐ¼Ð°Ð» ÑĭÐ¹
ĠÑĥÑģÑĤÐ°Ð½Ð¾Ð² ÐºÐ¸
ĠÑįÐºÑģÐ¿Ð»ÑĥÐ°ÑĤÐ° ÑĨÐ¸Ð¸
Ð¾Ñģ Ð¾Ð¼
ĠÑħ Ð¼ÐµÐ»ÑĮ
ĠÐºÐ°ÑĤÐ¾Ð» Ð¸ÑĩÐµÑģÐºÐ¾Ð¹
Ð² Ð¾Ð¹
Ð¾Ð² Ñĥ
Ð¸Ð» Ð¸Ñİ
ĠÐ²Ñĭ Ð²ÐµÐ´
ÑĥÑĢ Ñģ
ĠÐ¸ÑģÑĤ Ð¸Ð½
ĠÐµ ÑĦ
ĠÐ²ÐµÐ»Ð¸Ñĩ Ð¸Ð½Ð°
ÑģÑĤÐ² Ð°Ð¼Ð¸
ĠÑĤÑĢÐµ ÑĥÐ³Ð¾Ð»ÑĮ
ĠÑĤÐµÐºÑģÑĤ Ðµ
ĠÐºÐ¾ÑĢÐ¿ Ð¾ÑĢÐ°
ĠÐ¸Ð½ÑĤ ÐµÐ½Ñģ
ĠÐ¿ÑĢÐ¾Ð¶Ð¸Ð² Ð°Ð»Ð¸
ĠÐ³ÑĥÐ¼Ð°Ð½ Ð¸ÑĤÐ°ÑĢ
ĠÐ¿ÑĢÐµ ÑĦÐµÐºÑĤ
ĠÐ´Ð¾ÑģÑĤ Ð¾Ð²ÐµÑĢ
Ðº ÐµÐ½
ĠÐ¾ÑĤ ÑĢÐ°
ĠÐ¸ÑģÐ¿ Ð°Ð½ÑģÐºÐ¸Ð¹
ĠÑĨÐ¸ÑĦ ÑĢÐ¾Ð²
ĠÑĦÐ¸Ð· Ð¸
Ð¾Ð½ Ð°Ñħ
ĠÑĨ Ð¸Ð»
ĠÑģÐ» ÑĥÑħ
ĠÐ¿Ð¾Ð»ÑĥÑĩ Ð°ÐµÑĤÑģÑı
ĠÐºÑĥÑĢ ÑģÑĭ
ĠÑģÐ¾Ð·Ð´Ð°Ð½ Ð¸Ñİ
ĠÐ¿ÑĢÐ¾Ð¸Ð·Ð²ÐµÐ´ ÐµÐ½Ð¸Ðµ
ĠÑģÐ¿ÐµÑĨ Ð¸Ð°Ð»ÑĮÐ½ÑĭÐ¹
ĠÐ¿ÑģÐ¸Ñħ Ð¸Ð°ÑĤ
ĠÐ¶ Ð¸ÑĤÑĮ
ĠÐ±Ð°Ð» ÐµÑĤÐ°
ĠÐ²ÑħÐ¾Ð´ Ð¸Ð»Ð¸
ĠÐ» ÑĥÐ¶
ĠÑģÑĤÐ°Ð½ ÐµÑĤ
ĠÑİÐ¶ Ð½Ð¾Ð³Ð¾
ĠÐ´Ð°Ð² Ð»ÐµÐ½Ð¸Ðµ
ĠÑģÐ¸Ð½ÑĤ ÐµÐ·
ĠÐ² Ð°Ð²
ĠÐ¿ÑĢÐµÐ´ÑģÑĤÐ°Ð² Ð»ÐµÐ½Ð°
ĠÐ²Ð¾Ð´ Ð°
ĠÑģÐ¾Ð³Ð»Ð°ÑĪ ÐµÐ½Ð¸Ðµ
ĠÐ°ÑģÐ¿ Ð¸
ĠÑĤ Ð¸ÑĤÑĥ
ÑĭÑĪ ÐµÐ²
ĠÐ»ÐµÐ² Ð¾Ð¼
ĠÐ¿ÑĢÐ¾ÑĦÐµÑģÑģÐ¾ÑĢ Ð¾Ð¼
ÑĥÑģ Ð¸
ĠÑģÐ¿ Ð°Ð¼
ÐµÐ¿ ÑĤ
ÑıÐ» ÑģÑı
ĠÐ¿ÑĥÐ±Ð»Ð¸ÑĨ Ð¸ÑģÑĤ
ĠÐº Ð¾Ð³
ĠÑĪÑĤ Ð°ÑĤÐµ
ĠÐ´ÐµÐ²ÑĥÑĪ ÐºÐ°
ĠÑģÐµÐ´ ÑĮÐ¼
ĠÐ¿ÑĢÐ°ÐºÑĤ Ð¸ÐºÐµ
ĠÐ½ÐµÐ·Ð°Ð²Ð¸ÑģÐ¸Ð¼ ÑĭÑħ
ĠÐ¼ÐµÐºÑģ Ð¸ÐºÐ°Ð½
ÐºÑĥ ÑĪ
ĠÐºÐ¾Ð½ÑĨ ÐµÑĢ
Ð»Ð¸Ð· Ð¸
ĠÐ°Ð¼ÐµÑĢÐ¸ÐºÐ°Ð½ ÑģÐºÐ¸Ñħ
ÑıÑĤ Ð¾Ð¹
ĠÐ±Ð¾Ð³ Ð´
ĠÐ¿ÑĢÐµÐ´ÐµÐ» Ð°Ð¼Ð¸
ĠÑĦÐ¾Ð»ÑĮ ÐºÐ»
Ðº Ð¾Ð»ÑĮ
ĠÐ¿ Ð¸Ð°Ð½
ĠÐ¼ Ð¸Ñĩ
ĠÑĢÐ°Ð·ÑĢÐµÑĪ ÐµÐ½Ð¸Ðµ
ĠÐ¾Ð¿ Ð¾ÑĢ
ĠÑĢÐ°Ð´Ð¸ Ð¾ÑģÑĤÐ°Ð½
ĠÑĥÐ²Ð¸Ð´ ÐµÑĤÑĮ
ĠÐ¾Ð´ Ðµ
ĠÐ½Ð¾Ð² Ð¾ÑĢ
ĠÐ¿Ð¾Ð¿ ÑĢÐ¾Ñģ
ĠÐ¶Ð¸Ð² ÑĳÑĤ
ĠÐ¸Ð½ÑĤÐµÐ» Ð»ÐµÐºÑĤ
ĠÐ¾ÐºÐ°Ð· Ð°Ð»Ð¸ÑģÑĮ
ĠÐ¿Ð¾Ð³ ÑĢÐµÐ±
ĠÐ¿ÑĢÐ°Ð·Ð´ Ð½Ð¸Ðº
ĠÑĥÑĩÐµÐ± Ð½ÑĭÑħ
ĠÐ±ÑĢÐ°ÑĤÑĮ ÐµÐ²
Ð»Ð° Ñĩ
ÑĢÐ¾Ð¿ ÐµÑĤÑĢÐ¾Ð²
ĠÐ¶ÐµÐ»ÐµÐ·Ð½Ð¾Ð´Ð¾ÑĢÐ¾Ð¶ Ð½Ð¾Ð¹
ĠÐ»ÐµÐº Ð°ÑĢ
ĠÐ»Ñİ ÐºÑģ
ĠÐ¿Ð¾Ð· Ð½
ĠÑĩÐµÐ¼Ð¿Ð¸Ð¾Ð½ Ð°ÑĤÐ¾Ð²
ĠÐ³ÐµÐ½ ÐµÑĤ
ĠÑĤÑĢÐµÑĤÑĮ Ðµ
ĠÐ¾ÐºÐµ Ð°Ð½Ð°
ÐµÑĢÐ°Ð»ÑĮ Ð´
ĠÑģÑĤ Ð¸Ð»Ñı
ĠÑĦÑĳÐ´ Ð¾ÑĢÐ¾Ð²
ĠÐ±ÐµÑģÐ¿ Ð»Ð°ÑĤ
ĠÐ²ÐµÐ´ÑĥÑī Ð¸Ñħ
ĠÑĢÑı Ð´Ðµ
ĠÐ½Ð°Ð·Ð² Ð°Ð½Ð¸Ð¹
ĠÐ»ÑİÐ´ Ð²Ð¸Ð³
ĠÐ¿Ð¾ÑĤÐµÑĢ Ð¿
ÑĩÐµ ÑģÐºÐ¾Ð¹
Ð°Ð»Ð¸Ð· Ð°ÑĨÐ¸Ð¸
ĠÐ¸Ð¼Ð¿ÐµÑĢÐ°ÑĤÐ¾ÑĢ ÑģÐºÐ¾Ð³Ð¾
ÑĢ Ð¸Ð¼
ĠÐ» Ð¾Ð·
ĠÐºÐ°Ð¿Ð¸ÑĤ Ð°Ð½Ð°
ĠÐ°Ð½Ð° ÑģÑĤ
ĠÐ´Ð¸ÑĢÐ¸Ð¶ ÑĳÑĢ
Ð¸ÑĨ Ð¸ÐµÐ¹
ĠÐ°Ð½Ð´ÑĢÐµ Ñı
ĠÑĤ ÐµÑĢÐ°Ð¿
ĠÐ°Ð¼ ÑĥÑĢ
ĠÑģÐ»Ð¾Ð¶ Ð½Ð¾ÑģÑĤÐ¸
ĠÐ· ÐµÑĢÐº
ĠÑĢÐµ Ð°Ð»
Ð»ÐµÐ½ Ð½Ð¾Ð³Ð¾
ĠÐ´Ð½ÐµÐ¿ ÑĢÐ¾Ð¿ÐµÑĤÑĢÐ¾Ð²
ĠÐ¼Ð°ÑģÑĪÑĤÐ° Ð±
ĠÐ¿ÑĢÐµÐ²Ð¾Ñģ ÑħÐ¾Ð´
ĠÐ¸Ð´ ÐµÑĤ
ĠÑĢÐ°Ð·Ð¼ÐµÑĢ Ñĭ
ĠÐ¾ÑĤÐµÑĩÐµÑģÑĤÐ²ÐµÐ½ Ð½Ð°Ñı
Ð¸Ð» Ð¸Ð·Ð°ÑĨÐ¸Ð¸
ĠÐ°ÐºÑĤÐ¸Ð² Ð½ÑĭÑħ
ĠÐ²Ð¾ÑģÑĤÐ¾Ñĩ Ð½ÑĭÐ¹
ĠÐ´ÑĥÑħÐ¾Ð² Ð½Ð¾Ð¹
ĠÑģ ÑĥÑī
Ð°ÑĢ ÐºÐ°
ĠÐºÐ»Ð°Ð² Ð¸ÑĪ
ĠÐ¿ Ð»Ñı
ĠÑģÑĤÑĢÐ°Ð½ Ñĥ
ĠÑģÐ¾ÑģÑĤÐ°Ð²Ð»Ñı ÑİÑĤ
ĠÐºÐ¾Ð½ÐºÑĥÑĢ ÑģÐµ
ĠÐ¿ÑĢÐµÐ´Ð²Ð°ÑĢ Ð¸ÑĤÐµÐ»ÑĮÐ½ÑĭÐ¹
ĠÐ´ ÑıÐ´
Ð¸Ð¼ ÑĭÐµ
ĠÑħ Ð°Ð½Ð°
Ð°Ð»Ð¸ ÑĦÐ¸ÑĨ
ĠÐ¿ÐµÑĢ ÐµÐ¹
Ð¸Ð´ Ð·Ðµ
ĠÑģÐµÑĢ Ð¸Ñİ
ĠÐ¿ÑĢÐ¾Ð² ÐµÑģÑĤÐ¸
ĠÑģÑĤÐ°ÑĢ ÑĪÐµÐ³Ð¾
ĠÑįÑģÐºÐ°Ð´ ÑĢ
ĠÐ¿ÑĤ Ð¸ÑĨÑĭ
ĠÑģÐ¾Ð·Ð´Ð°Ð² Ð°ÑĤÑĮ
ĠÑģÐ¾Ð´ÐµÑĢÐ¶ Ð°Ð½Ð¸Ñı
ĠÐ½ÐµÐ¾Ð±ÑħÐ¾Ð´Ð¸Ð¼ Ð¾ÑģÑĤÑĮ
ĠÐ¼Ð°Ð½ Ñĩ
Ð¼Ð¸ ÑĢÐ°
ĠÑĢÐ°ÑģÑģÐºÐ° Ð·ÑĭÐ²Ð°ÐµÑĤ
ĠÐ¶ ÐµÑĢ
ĠÐ½ÐµÐ·Ð°Ð²Ð¸ÑģÐ¸Ð¼ Ð¾ÑģÑĤÑĮ
ĠÐ² Ð°Ñħ
ĠÐ´Ð¾Ð¿Ð¾Ð»Ð½ Ð¸ÑĤÐµÐ»ÑĮÐ½ÑĭÐµ
Ð°Ð² ÑĪÐ¸Ð¼
ĠÐ´Ð¶ Ð°Ð½
ĠÐ¿ÑĢÐ¸Ð±Ñĭ Ð»ÑĮ
ĠÐ²ÑĭÐ³Ð»ÑıÐ´ Ð¸ÑĤ
ĠÑĥÐ¿Ð¾Ð¼Ð¸Ð½ Ð°Ð½Ð¸Ñı
ĠÐ¿ÑĢÐµÐ´ Ð¾ÑĤÐ²
ĠÐ·Ð°Ð¿ ÑĥÑģÐº
ĠÐ¿Ð¾Ð² ÐµÑģÑĤÑĮ
ĠÑĢÐ°ÑģÐ¿Ð¾Ð»Ð¾Ð¶ ÐµÐ½Ð½ÑĭÐ¹
ĠÐ¸ÑģÐº Ð°ÑĤÑĮ
ĠÑģÑĥÑīÐµÑģÑĤÐ² Ð¾Ð²Ð°Ð²
ĠÐ½Ð°Ð¿Ð¸Ñģ Ð°Ð½Ð¸Ñı
ĠÑĤÐ° ÑĥÐ½
ĠÑĢ Ð¸Ð²
Ð¾Ð² ÐµÑī
ĠÐ° ÑĢÐ°
ĠÐ°ÑĢ ÑģÐµÐ½
ĠÐ¾Ð¿ Ð¿Ð¾Ð½
ĠÑģÐ»ÐµÐ´ Ð¾Ð²Ð°ÑĤÐµÐ»ÑĮ
ĠÑģÐ²ÐµÑĢÑħ Ñĥ
ĠÐ² Ð¸ÑĢÑĥ
ĠÐ³ ÑĢÐ¾Ð´
ĠÑĤ Ð¸Ð³
Ð¾Ð½ ÑģÑĤÑĢ
ĠÑĢÐµÐ¶Ð¸Ð¼ Ðµ
Ð¸Ð¼ ÐµÑĩ
ĠÐºÐ° ÑģÐ¿
ĠÐ½Ð°Ð·Ð² Ð°ÑĤÑĮ
ĠÑįÐºÐ¾Ð½Ð¾Ð¼ Ð¸ÐºÐ°
ĠÐ¿ÐµÑĤÐµÑĢÐ±ÑĥÑĢÐ³ ÑģÐºÐ¾Ð¹
ÑĪÐµÐµ ÑģÑı
Ð¾ÑĤ ÐµÑħÐ½
ĠÑĥÐ± ÐµÐ¶Ð´
ĠÐ¿Ð°ÑĢ Ñĥ
ĠÑĢÐ°Ð·Ð² Ðµ
ĠÑĦÐ¾ÑĢÐ¼ ÑĥÐ»Ð°
ĠÐ¿ÐµÑĢÑģÐ¾Ð½Ð°Ð¶ Ð°
ĠÑĦÐµÑĢÐ½ Ð°Ð½Ð´
ĠÐº ÑĳÑĢ
ĠÐ²Ð°Ð½Ð´ Ð°Ð»Ð¸Ð·Ð¼
ĠÐ½ÑĥÐ¶ ÐµÐ½
ĠÐ¿ÐµÑĢÐ¸Ð¾Ð´ ÐºÐ¾Ð½ÐµÑĨ
ĠÑĥÑĩÐ°ÑģÑĤÐ² Ð¾Ð²Ð°Ð»Ð°
ĠÐ³Ð¸Ð´ ÑĢÐ¾
ĠÐ¿Ð¾Ñį ÑĤÐ°
ĠÐ·Ð°Ð³ ÑĢÑĥÐ·
Ð¿ Ð¸
ĠÐ½Ð°ÑĪ Ð¸
ĠÐ½Ðº Ð²Ð´
Ñĳ Ð»ÑĮ
ĠÑĤÐ¾Ð¼ Ð°
ĠÐ¸Ð·Ð¾Ð± ÑĢÐ°Ð·
ĠÐ´ÐµÑıÑĤÐµÐ»ÑĮ Ð½Ð¾ÑģÑĤÑĮÑİ
Ð¸Ð· Ð´Ð°ÑĤ
ĠÐ´Ð¾Ð» Ñı
ĠÐ¾Ð±ÑĢÐ°Ð· Ð¾Ð²Ð°Ð½Ð¸Ð¹
ĠÐ¸ÑģÑĤÐ¾ÑĢ Ð¸ÐºÐ¸
ĠÐ» ÑĥÐ³
ĠÑĨ ÐµÐ½Ð·
ĠÑĢÐ°Ð±Ð¾ÑĤ Ð¾Ð¹
ĠÐ¼Ð¾ Ñħ
ĠÐ¿ÑĢÐ¾ÑħÐ¾Ð´ Ð¸Ð»Ð¸
ÑĪ ÐµÐ±
Ð°Ð¹ ÑģÐºÐ¸Ð¹
ĠÑģÐ» ÑĭÑĪ
ĠÐºÐ»Ð°ÑģÑģ Ð¾Ð²
ĠÐ¿ÑĥÑĪ ÐºÐ¸Ð½Ð°
ĠÐ¸Ñİ Ð½ÑĮ
ĠÑĦÐ¸Ð· Ð¸ÑĩÐµÑģÐºÐ¾Ð¹
ĠÐ·Ð°ÑıÐ² ÐºÐ¸
ĠÐ¿ÑĢÐ¾Ñĩ ÐµÐµ
Ð» Ð¸ÑĤ
ĠÐ¿ Ð²Ð¾
Ð¼ Ð°Ð½Ð¾Ð²
ĠÑĤ Ð²ÑĳÑĢ
ĠÐ³Ð¾Ð» Ð¾Ð²Ð°
ĠÑģÐ² Ð°Ð´ÑĮ
ÑĩÐ¸Ðº Ð¾Ð¼
ĠÐ¿Ð¾Ð´ÑĢÐ°Ð·Ð´ÐµÐ» ÐµÐ½Ð¸Ñı
ĠÐºÐ¾Ð» ÐµÑģ
ĠÐ¿ÑĢÐ¸Ð± Ð»Ð¸Ð¶
ĠÐ²Ð¼ ÐµÑĪ
ĠÑģÑĤÐ°Ð´ Ð¸Ð¸
ĠÐ¾Ð´Ð½Ð° Ð¶Ð´Ñĭ
ĠÐ°Ð± Ñĥ
ĠÑĦÑĥÐ½Ð´Ð°Ð¼ ÐµÐ½ÑĤ
ĠÐ¸ Ð¾Ð½
Ð¾Ðº ÑĥÐ¿
ĠÑĥÑĩÐ°ÑģÑĤÐ½Ð¸Ðº Ñĥ
ĠÐ´ÐµÐº Ð¾ÑĢÐ°ÑĤÐ¸Ð²
ĠÐºÐ°ÑĢÑĮ ÐµÑĢÐµ
ĠÐ¼Ð°ÑĤÐµÐ¼Ð°ÑĤ Ð¸ÐºÐ¸
ĠÑģ Ñį
ĠÐ³Ð¾ÑĢÐ¾Ð´ ÑģÐºÐ¸Ñħ
Ð»Ð° Ð¼Ð¸
ĠÑĤÐµÐ» ÐµÐ¿
ĠÐ¸Ð·Ð²ÐµÑģÑĤ Ð½ÑĭÐ¼
ĠÐ²Ð¾Ð» Ð½Ñĭ
ĠÐ¿Ð¾Ð»ÑĮ ÑģÐºÐ¾Ð¹
ĠÐºÐ¾Ð½ÑģÑĤÑĢÑĥÐºÑĤ Ð¾ÑĢ
ĠÐ½ÐµÐ´Ð°Ð² Ð½Ð¾
ÑĢÐ¾Ñģ Ð¾Ð²
Ð¾Ð¿ÑĢ Ð¸Ð¼ÐµÑĩ
ĠÑĤÐ¸Ð¼ Ð¾ÑĦ
ĠÐ¿Ð°Ð¼ÑıÑĤ Ð½Ð¸ÐºÐ°
ĠÑĢÐ¸Ð¼ ÑģÐºÐ¸Ð¹
ĠÐ½ÐµÐ¿ÑĢ Ð¸ÑıÑĤ
ĠÐ½Ð¾ÑıÐ± ÑĢÑĮ
ĠÐ±ÑĥÑĢ ÑıÑĤ
ĠÐ¾ÑģÑĥÑīÐµÑģÑĤÐ² Ð»ÑıÐµÑĤÑģÑı
ĠÑĢÐµÐ°Ð»Ð¸Ð· Ð°ÑĨÐ¸Ð¸
ĠÐ¿ÑĢÐ¾ÑģÑĮ Ð±Ð°
ĠÐ¿ÑĢÐ¾Ð½ Ð¸Ðº
ĠÐ¼Ð°Ð» Ð¾Ð¹
ĠÑĤÑĢÐ¾Ð»Ð»ÐµÐ¹ Ð±
ĠÑıÐ·ÑĭÐº Ð¾Ð¼
ĠÐ¼Ð¾ÑģÐºÐ¾Ð² ÑģÐºÐ¾Ð¼
ĠÑĢÐ°Ð·Ð²Ð¸ÑĤ Ð¸Ð¸
ĠÐ¾Ð±Ð¾ÑĢÑĥÐ´ Ð¾Ð²Ð°Ð½Ð¸Ñı
ĠÑĦÐ¾ÑĢÐ¼ Ð¸ÑĢÐ¾Ð²Ð°Ð½Ð¸Ðµ
ĠÐ¾ÑģÑĤÐ°Ð² Ð°Ð»ÑģÑı
ĠÑģÐ¾ÑĤÑĢÑĥÐ´ Ð½Ð¸ÐºÐ¸
ĠÐ²Ð± Ð»Ð¸Ð·Ð¸
Ð¾Ð² Ð¾Ð´
ĠÐ´Ð¾ÑģÑĤ Ð¾Ð¿ÑĢÐ¸Ð¼ÐµÑĩ
ĠÐ´Ð¸Ð· Ð°Ð¹
ÐµÑĢ Ð¼
ĠÐ¿Ð¾Ð² ÐµÑģÑĤÐ¸
ĠÐ¿Ð¾ÑĢ Ð¾Ð´
ĠÐ¿ÑĢÐ°Ð²Ð¸Ð» Ð°Ð¼Ð¸
Ð°ÑĢ Ð¾
ĠÑĤÑĥÑĢÐº Ð¼ÐµÐ½
ĠÐ¿Ð¾ÐºÐ°Ð· Ð°Ð½Ð¾
ĠÐ»ÐµÐ² ÑĭÐ¹
ĠÐ·Ð°Ð²ÐµÑĢÑĪ Ð¸Ð»
ĠÐ¿Ð¾Ð¿ÑĭÑĤ ÐºÐ°
ĠÐ± ÑĥÐ´Ð°
ĠÑıÐ½ Ð´
ĠÐ´ÐµÐ» Ñĥ
Ñĩ ÑĳÐ²
ĠÐ½Ð° ÑĪÐ¸Ñħ
Ð°ÑĢ Ñĥ
Ð½Ð¾ Ñħ
ĠÑĢÐ¾ÑģÑĤ Ð¾Ð²ÑģÐºÐ¾Ð¹
ĠÐ´ÐµÑģÑı ÑĤÐ¸
ĠÐ¿Ð¾ÑģÐ¼ÐµÑĢÑĤ Ð½Ð¾
ĠÐ» Ð°Ðº
ĠÐ·Ð°Ñī Ð¸ÑĤÑĥ
ĠÑĥÑĩÐ°ÑģÑĤÐ² Ð¾Ð²Ð°Ð»Ð¸
ĠÐºÐ¾Ð¾ÑĢÐ´Ð¸Ð½ Ð°ÑĤÑĭ
ĠÐ°Ð½Ð³ Ð»Ð¸Ñĩ
ĠÐ±ÐµÑģÑģ ÑĢ
ĠÐ²ÑĭÑģÐ¾ÑĤ Ð¾Ð¹
ĠÑĤÐµÐ»ÐµÐ²Ð¸Ð´ ÐµÐ½Ð¸Ñı
Ð½ ÐµÑĢÐ°
Ð» ÑĥÐ±
Ð¸Ð°Ð»ÑĮ Ð½ÑĭÐµ
ĠÐ¿ÐµÑĢÐµÐ½Ð° Ð¿ÑĢÐ°Ð²
ĠÑħÐ¾ÑĤÐµÐ» Ð¾ÑģÑĮ
Ð°ÑĢÐ´ Ð¾
ĠÑĥÐ²ÐµÑĢ ÐµÐ½
ĠÑĥÐ± ÑĢÐ°ÑĤÑĮ
ĠÐºÐ¾ Ð°Ð»
ĠÐ¼Ð¸ÑĢÐ¾Ð² Ð°Ñı
ĠÐ²Ð¸Ð½ ÑĤÐ¾Ð²
ĠÐ¾ÑĤÑģÑĥÑĤÑģÑĤÐ² Ð¸Ñı
ÑģÑĤ Ð°Ð½Ð¾Ð²
ĠÑģÑĤ ÐµÑĢ
ĠÑĦ ÑĢÐµÐ¹
ĠÐ¾Ð± ÑĭÐº
ĠÐ¿Ð¾Ð´ Ð¼
ĠÐºÐ¾ÑĢÑĢÐµÑģÐ¿Ð¾Ð½Ð´ ÐµÐ½ÑĤ
ĠÐ¸Ð½ÑĤÐµÐ½Ñģ Ð¸Ð²
Ðµ Ð¶Ðµ
ÑĦ Ð¸ÐºÑģ
ĠÐ¿Ð¾ÐºÐ°Ð· Ð°ÑĤÑĮ
ĠÐ²ÐµÐ½ Ðµ
ÐµÐ· Ð°Ð¿
ÑĢÐ°ÑĤ Ð½ÑĭÐ¹
ĠÑĤÑĢ Ð¸Ð½
Ñİ Ð´Ð°
ĠÐ´ ÑĥÐ³
ĠÑģÑĤÐµÐ¿ Ð°Ð½
ĠÑģÐ¾ÑĨÐ¸Ð°Ð»ÑĮ Ð½Ð¾
ĠÑĥÐ»ÑĮ ÑıÐ½Ð¾Ð²
ĠÐ¿Ð¾Ð´Ð± Ð°ÑģÑģ
ĠÐ² Ð¾ÑģÑģ
ĠÐ´Ð¾Ð½ Ñĥ
ĠÐ´ÐµÐ½ ÐµÐ³
ĠÑħÐ°Ð± Ð°ÑĢÐ¾Ð²
ĠÐ³ Ð¼Ð¸Ð½Ð°
ĠÐ± Ð¾Ð¼
Ð¸Ñĩ Ð½Ð¾ÑģÑĤÐ¸
ĠÑģÐ¾Ð²ÐµÑĤ ÑģÐºÐ¸Ðµ
ĠÑĥÐ³ Ð¾Ð»
ĠÑģÐ¾Ð¿ÑĢÐ¾ÑĤÐ¸Ð² Ð»ÐµÐ½Ð¸Ðµ
ĠÐ´Ð¾ÑģÑĤÐ¾Ð¿ÑĢÐ¸Ð¼ÐµÑĩ Ð°ÑĤÐµÐ»ÑĮ
Ð°Ð½ Ð½Ð¾
ĠÐ¾Ð±ÑĭÐº Ð½Ð¾Ð²
Ð¸ÑĢÐ¾Ð²Ð°Ð½ Ð¸Ñİ
ĠÑģÐ¾Ð»Ð½ ÑĨÐ°
ĠÐ½ ÐµÑĢÐµÐ´
Ð¸Ñģ Ðµ
ĠÐºÐ»ÑĥÐ± Ð¾Ð²
ĠÐºÐ°Ð» Ð¸Ð±
ĠÐ¾ÑĤÐ¼ÐµÑĤ Ð¸ÑĤÑĮ
ĠÑħ Ð°Ð´
ĠÐ¾Ð´ ÐµÑģÑģ
ĠÑĤÐµÑħÐ½ Ð¸ÑĩÐµÑģÐºÐ¸Ðµ
ĠÐ¾ÑĢÐº ÐµÑģÑĤÑĢÐ°
ĠÑĨ ÐµÐ»ÐµÐ¹
ĠÑĤÐ°Ð±Ð»Ð¸ÑĨ Ð°
ĠÐ¿Ð¾Ð» ÑıÑĢ
ĠÑĤÐ°Ðº ÑĥÑİ
ĠÐ²Ð¸Ð´ ÐµÐ»
ĠÑįÐºÐ¾Ð½Ð¾Ð¼ Ð¸ÑĩÐµÑģÐºÐ¾Ð³Ð¾
ĠÐ½ÐµÑģÐ² Ð¾Ð±Ð¾Ð´
ĠÑĥ ÑĢÐ°Ð»
ĠÑĢÐ°Ð· ÑĢÑıÐ´Ðµ
ĠÐ°Ð¿ Ð¾Ð»
ĠÐ³Ð²Ð°ÑĢÐ´ÐµÐ¹ ÑģÐºÐ¾Ð³Ð¾
ÑĢÐ¾Ð¸Ð·Ð² Ð¾Ð´
ÐµÐ½ ÐºÐ°
Ð± ÑĢ
ĠÐ¿ÑĢÐ¾Ð³ÑĢÐ°Ð¼ Ð¼Ñĥ
ĠÐ¿Ð°Ð² Ð»Ð°
ĠÑĤÐµÐºÑģÑĤ Ñĭ
Ð¸Ð½ ÐµÐ¹
ĠÑĢÑĥÐºÐ¾Ð²Ð¾Ð´ ÑģÑĤÐ²Ð°
ĠÑģÐµÑĢÐ¸Ð°Ð» Ðµ
Ð½Ñı Ð½
ĠÑıÐ½Ð²Ð°ÑĢ ÑĮ
ĠÑģÐ¾Ð´ ÐµÐ¹ÑģÑĤÐ²
ĠÐ¿Ð¾Ð´Ð±Ð°ÑģÑģ ÐµÐ¹Ð½
ÑĩÐµ ÑģÐºÐ¸Ð¹
ĠÐ´ÐµÐ¿ÑĥÑĤ Ð°ÑĤÐ¾Ð¼
ĠÐ¿ÐµÐ¹ Ð·
Ð°ÑĤÐµÐ»ÑĮ Ð½Ð¾Ðµ
ĠÐ¿ ÐµÐ½Ð·
ĠÐ¾Ð±Ð»Ð°ÑģÑĤ Ð½Ð¾Ð¹
ĠÐ·Ð°Ð¿Ð°Ð´ Ð½ÑĭÐ¹
ĠÐ°ÑĤ Ð°ÐºÐ¸
ĠÑĢÐ¾Ð¼ Ð°Ð½ÑĤ
ĠÐ»ÑĳÐ³ ÐºÐ¾Ð¹
ĠÐ¼Ð¾Ð³Ð¸Ð» ÑĳÐ²
ĠÐ¼Ð¾ÑģÑĤ Ð°
ĠÐ¿Ð¾ÑģÐ»ÐµÐ´ Ð½Ð¸Ð¼
ĠÑĢÐ°Ð½ Ð½Ð¸Ðµ
ĠÐ³Ð°ÑĢ Ð½Ð¸Ð·
ĠÐ°Ð²ÑĤÐ¾Ð½Ð¾Ð¼ Ð½Ð¾Ð³Ð¾
ĠÑģÐ»Ð¾Ð² Ð°Ð¼Ð¸
ĠÑĤ ÐµÐ»ÑĮ
ĠÐ²Ñĭ Ð»ÐµÑĤ
ĠÐ¿ÐµÐ¹Ð· Ð°Ð¶
ĠÐ¿ÑĢÐ¾ Ñī
ĠÑĢÐµÐ´Ð¸ ÑĢÐµÐºÑĤ
Ð¾Ð» ÐºÐ¾Ð¼Ð°
ÑĥÐ¼ ÐµÐ½ÑĤÐ°
ĠÐ¾ÑĤÐ´ÐµÐ»ÑĮ Ð½Ð¾Ð¹
ĠÐ´Ð²Ð¾ÑĢ ÑĨÐ°
ĠÑĥÐ³ ÑĢ
ĠÑģÑĨÐµÐ½Ð°ÑĢ Ð¸Ð¹
ĠÐ´Ð² ÐµÐ½
ĠÑĤ Ð¸ÑĢ
ĠÐ´Ð¶ Ð°Ð·
ÑĢÐ¸ ÑĢÑĥ
ĠÑĤ Ð±Ð¸Ð»
ÑĢÑĥ Ð±
Ð½Ð¾Ð² Ð¾Ð´
ĠÑģÐ¾Ð·Ð´ Ð°Ð½Ñĭ
ĠÑĥÑĩÑĳ Ð½ÑĭÑħ
ĠÑĢÐµÐ² Ð¸Ð·
ĠÑĥÑģ Ð¸Ð»Ð¸Ñı
ĠÐ³Ð¾Ð¼ Ð¾ÑģÐµÐºÑģÑĥ
ĠÐ¾ÑģÑĤ Ð°Ð»Ð¸ÑģÑĮ
ĠÑĥÐºÐ°Ð· Ð°Ð½
ĠÑĥÑĩÐ¸ÑĤ ÑĭÐ²Ð°Ñı
Ð¾ÑĤ Ñĥ
Ð¾Ñĩ Ð½ÑĭÐ¼
ĠÐ¿ÑĢÐ¸Ñĩ ÐµÐ¼
ĠÑģÐ¾Ð» Ð¾Ð¼
ĠÐ´Ð²ÐµÐ½ Ð°Ð´ÑĨ
ĠÐ¾Ð±Ñģ ÐµÑĢÐ²
ĠÐ¿ÑĢÐ¾Ð´Ð¾Ð»Ð¶ Ð°ÐµÑĤ
ĠÐ³ Ð´ÑĢ
ĠÐ½Ð°Ñĩ Ð°Ð»Ð¸ÑģÑĮ
ĠÐ¿ÑĢÐ¸Ð·Ð½ Ð°Ð½
ĠÐ°Ð½Ð°ÑĤ Ð¾Ð»ÑĮ
ÐµÐ» Ð»Ð¾
ĠÐºÐ°Ðº Ð¾Ð¼
ĠÐ¿ÑĢÐ¾ÑĤÐ¸Ð² Ð¾ÑģÑĤ
ĠÐ²ÑģÐµ Ð¾Ð±Ñī
ĠÐ³Ð¾Ð»Ð¾Ñģ Ð°
ÐµÑĤ Ð¾Ð¼
ĠÐµ ÑĦÐ¸Ð¼
ĠÐ½Ð°Ñĩ Ð°Ð»ÑģÑı
ĠÐ¿ÐµÑĢÐµÐ¼ ÐµÑī
ĠÐ±ÐµÑĢÐ»Ð¸Ð½ Ðµ
ĠÐ¾ÑģÐ¿ Ð°ÑĢ
ÑĮ ÐµÐ¼
ĠÐ´Ð¾Ð¼ Ð¾ÑħÐ¾Ð·ÑıÐ¹
ĠÐ´ÐµÑĤ ÐµÐºÑĤÐ¸Ð²
Ð°ÑĢ ÑĳÐ¼
ĠÑĢ Ð¸Ðº
ĠÐ¸ÑģÑĤÐ¾ÑĩÐ½Ð¸Ðº Ð°Ð¼
ĠÑħÐ¼ÐµÐ»ÑĮ Ð½Ð¸ÑĨ
Ð¾ÑĢÐ° ÑĩÐ¸Ð²
ĠÐ²ÐµÑī Ð¸
ĠÑģÐ¸ÑĤÑĥ Ð°ÑĨÐ¸Ñİ
ĠÐ´Ð¾Ð³ Ð¾Ð²Ð¾ÑĢÐ°
ĠÑĤÐ°Ð» Ð°Ð½ÑĤ
Ð¾Ð»ÑĮ ÑģÐºÐ°Ñı
ĠÐ¾ÑĤÐ·ÑĭÐ² Ñĭ
Ñĥ Ð½Ñĭ
Ð¸Ð¼ ÑģÑĤÐ²
ĠÐ¿ÑĢÐµ Ð¿Ð°ÑĢÐ°ÑĤ
Ð¾Ð»Ð¾Ð³ Ð¸ÑĩÐµÑģÐºÐ°Ñı
ĠÐ³Ð¾Ð²Ð¾ÑĢ Ð¸ÑĤÑģÑı
ĠÐ³ÑĢÐ°Ð½ Ð¸Ñĩ
ĠÑģÑĤÐ¾Ð» Ð±
ĠÐ¾ÐºÐ°Ð· Ð°Ð»Ð¾ÑģÑĮ
ĠÐ¸Ð·ÑĥÑĩ Ð°Ð»
ĠÐ¿ÑĢÐ¸Ð·Ð² Ð°Ð½
Ð¸Ð· ÐµÐ¼
ĠÐ²ÑĤÐ¾ÑĢ ÑĥÑİ
ÐµÐ»ÑĮ ÑĦ
ĠÐ·Ð°ÐºÐ¾Ð½Ñĩ Ð¸Ð»
ĠÐ´Ð¸ÑģÑĨÐ¸Ð¿ Ð»Ð¸Ð½
ÑĢÐ°ÑĤ Ð¸ÑĤÑĮ
ĠÐ¸ÑģÑĤÐ¾ÑĢ Ð¸ÑĩÐµÑģÐºÐ¾Ð¹
ÑģÑĤÐ° ÑĦ
Ð³ Ð¾Ð²
ĠÑĥÐ¿Ð¾Ð¼ ÑıÐ½ÑĥÑĤ
ĠÑģÑĭÐ½Ð¾Ð² ÐµÐ¹
Ð°Ð» Ð»
ĠÑĪ Ð¼
ĠÑĨ Ð¸Ð²
Ð¾Ñĩ ÐºÑĥ
ĠÐ¿Ð°ÑĢÐ°Ð»Ð»ÐµÐ»ÑĮ Ð½Ð¾
ĠÐ¿Ð¾Ð´Ð¿Ð¾Ð»ÐºÐ¾Ð² Ð½Ð¸Ðº
ĠÐ°Ð½Ð°ÑģÑĤ Ð°Ñģ
ĠÐ²Ñĭ Ðº
Ð¾ Ð¾ÑĤ
ÐµÐ½ ÑĨÑĭ
ÑĬ ÑıÐ²
ĠÐ¿Ð°ÑĢÑĤ Ð¸Ñİ
ĠÐ³Ð¾Ð´ Ð¾Ð¼
ĠÐ¸ÑģÐ¿Ð¾Ð»Ð½ ÐµÐ½Ð¸Ðµ
ĠÐ·Ð°Ð´Ð° ÑĩÐ°
ĠÐ¿Ð¾Ð±ÐµÑĢÐµÐ¶ ÑĮÑı
ĠÐ¸ Ñī
Ð»Ñı Ñı
ĠÐ¸Ð³ ÑĢÐ¾Ð²Ð¾Ð¹
ĠÐ²ÑĭÑģ ÑĪÐµÐµ
ĠÐ¸ÑģÐ¿Ð¾Ð»ÑĮÐ· ÑĥÑı
ĠÐ¿Ð» Ð¾ÑģÐº
ĠÐ¿Ð¾ ÐµÐ·Ð´Ð°
ĠÑĢÐµ ÑĪÐ°
ĠÐ½ÐµÐ´ Ð¾Ð¿
ĠÐ¿Ð¾ÑıÐ² Ð»ÐµÐ½Ð¸Ñı
ĠÐ¼ÐµÑĤÑĢÐ¾Ð¿Ð¾Ð»Ð¸ÑĤ ÐµÐ½Ð°
ĠÐ³ Ð¸Ð½
Ð¸Ñģ Ð¾Ð²
ĠÐ°Ð· Ð¸Ð°ÑĤ
ĠÐ½ÑĥÐ¶ Ð½Ð°
ĠÑĦ Ð¾Ð½Ðµ
ĠÑİ Ð»Ð¸Ñı
ĠÐ¼ÐµÑģÑĤ Ð¾Ð¼
ĠÑģÐ¸Ð¼ ÑĦÐ¾Ð½
ĠÐ±ÑĥÐ´ÑĥÑī ÐµÐ¼
ĠÐ½ÐµÐ°ÐºÑĤÐ¸Ð² Ð½ÑĭÐ¼Ð¸
Ð°ÑģÑĤ ÑĮ
ĠÐ¸ÑģÑĤÐ¾ÑĢ Ð¸ÑĩÐµÑģÐºÐ¾Ð³Ð¾
ĠÑģÑĥÐ´ ÑĮÐ¸
ĠÐ½Ð°Ð¿ÑĢ Ð¾ÑĤÐ¸Ð²
ĠÐºÐ¾Ð½Ñģ ÑĥÐ»ÑĮÑĤ
ĠÐºÐ¸ÐµÐ² ÑģÐºÐ¾Ð³Ð¾
ĠÐ¼ÐµÑĤ ÑĢÐ°
ĠÐ¿ÑĢÐ¸Ð½Ñı Ð»Ð°
ĠÐ°Ð²ÑĤÐ¾ÑĢÐ¸ÑĤÐµÑĤ Ð½ÑĭÐµ
ĠÐ¼ÐµÑĤ Ðµ
ĠÐ¿ÑĢÐ¸Ñĩ Ð¸Ð½Ñĭ
ĠÑģÐ¾Ð²ÑĢÐµÐ¼ ÐµÐ½Ð½Ð¾Ðµ
ĠÐºÐ¾Ð½ÑģÑĤÑĢÑĥÐºÑĤ Ð¸Ð²
ĠÐ¿Ð¾Ð² ÐµÑģÑĤÐ²
ÑĪÐ¸Ð¹ ÑģÑı
ĠÐ´Ð¼Ð¸ÑĤÑĢ Ð¸ÐµÐ²
ĠÐ²Ð¾Ð»ÑĮ ÑĦ
ĠÐ»Ð¸Ð¿ ÐµÑĨ
ĠÑĤÐµÐ½ Ð´ÐµÐ½
ĠÑĤÑĢÐ°Ð½ÑģÐº ÑĢÐ¸Ð¿
ĠÑħ Ð°ÑĢÑĤ
ĠÑģÐ¿ Ð¾ÐºÐ¾Ð¹
ĠÑĤÐµÑħ Ð°Ñģ
ĠÑģÐ¾Ð±ÑģÑĤÐ²ÐµÐ½ Ð½Ð¾Ð¹
ĠÑĢÐµÑģÑĥÑĢ Ñģ
Ðº ÑĥÐ»ÑĮÑĤ
ĠÐ°ÑģÐ¿ ÐµÐºÑĤ
ĠÑĢ Ð¸Ð¾
Ð°Ð± Ð¸Ð»
ĠÑįÐ½ÑĨÐ¸ÐºÐ»Ð¾Ð¿ÐµÐ´ Ð¸ÑĩÐµÑģÐºÐ¾Ð³Ð¾
ĠÐ·Ð°Ð² ÐµÐ´ÐµÐ½Ð¸Ñı
ĠÐ¼Ð°Ð³Ð°Ð· Ð¸Ð½
ĠÑįÐº ÑģÐº
ĠÐºÐ°Ð½Ð´Ð¸Ð´ Ð°ÑĤÐ¾Ð²
ĠÑĢÐ¾ÑģÐ¿ Ð¸ÑģÐ¸
Ñĭ ÐºÐ°
ĠÑĤ Ð¾ÑĢÐ¼
ĠÐ°Ð± ÑĢÐ°Ð¼
Ð°Ð½Ð³ ÐµÐ»
ĠÐ¸ÑģÐ¿Ð¾Ð»ÑĮÐ·Ð¾Ð²Ð°Ð» Ð¸ÑģÑĮ
Ñı Ðº
ĠÐ°ÑĢ ÐµÐ½Ð°
ĠÐ±Ð°ÑģÑģÐµÐ¹Ð½Ð¾Ð² Ð¾Ð¼Ñĥ
ĠÐ°Ð´ ÑĢÐ¸
ĠÑĥÐºÑĢÐ° ÑĹ
ĠÐ¿ÑĥÐ±Ð» Ð¸Ðº
ĠÐ¿ÑĢÐ¾Ð²Ð¾Ð´ Ð¸ÑĤÑģÑı
ĠÐ¾ÐºÐ°Ð· Ð°Ð»Ð°ÑģÑĮ
ĠÐµÐ¿Ð¸ÑģÐºÐ¾Ð¿ Ð°
ĠÐ´Ð¾Ð¼Ð°ÑĪ Ð½Ð¸Ñħ
ĠÐ¿ÑĢÐµÐ¿ ÑıÑĤ
Ð°Ð»ÑĮ Ð½Ð¾Ð¼Ñĥ
ĠÑĢÐµÐ¶ Ð¸Ð¼Ð°
Ð°ÑĪ Ð°
ĠÐ²Ð¾ÐµÐ½ Ð½Ð¾Ðµ
ĠÑģÐ¿ÐµÑĨÐ¸Ð°Ð» Ð¸Ð·Ð¸ÑĢÐ¾Ð²Ð°Ð½
ĠÐºÐ»Ð°ÑģÑģÐ¸ÑĦ Ð¸ÐºÐ°ÑĨÐ¸Ð¸
Ð½Ðµ Ð¶
ÑĥÑĢÐ° Ð»ÑĮ
ĠÐºÐ°ÑĤÐµÐ³Ð¾ÑĢ Ð¸Ð¹
ĠÐµ Ñģ
ĠÐºÐ¸ÑĢ Ð¸Ð»Ð»
ĠÑĢÐ°Ð· Ð¼ÐµÑģÑĤ
ÐµÑĢÐ° ÑĢ
Ð½Ñı Ðº
ĠÐ¸Ð¼Ð¿ ÐµÑĢÐ°ÑĤ
ĠÐ¾ÑĨÐµÐ½ ÐºÐ°
Ð¸Ðº Ð¾Ð²Ð°
Ð¸ÑĢ Ð¾Ð¼
Ð°Ð´Ð° ÑİÑĤ
ĠÐ¿ÑĢÐ¸Ð·Ð½ Ð°Ð½Ð¸Ðµ
ĠÐ°ÑĢÑħ Ð¸Ð¿
ĠÑģÐµÑĢÐ´ ÑĨÐµ
ĠÑĦÐµÐ´ Ð¾ÑĢ
ĠÐ¿ÑĥÐ±Ð»Ð¸ÐºÐ° ÑĨÐ¸Ð¹
ĠÐ¿ÑĢ ÑĥÐ´
ĠÑĢÑĥÐºÐ¾Ð²Ð¾Ð´ Ð¸ÑĤÐµÐ»ÐµÐ¼
ĠÐ¾ÑĢÐ´ÐµÐ½ Ð°Ð¼Ð¸
ĠÐ¾ÑĤÑģÑĥÑĤÑģÑĤÐ² ÑĥÑİÑĤ
ĠÑĢÐ°ÑģÑģÐºÐ° Ð·Ñĭ
Ð»Ð¾Ð² Ð¸Ñĩ
Ð»Ñı ÑĤ
ĠÐ¾Ð¿ÐµÑĢÐ° ÑĨÐ¸Ð¹
ÐµÑĤ ÑĤÐ°
ĠÐºÐ¸Ð½ Ð¾ÐºÐ¾Ð¼
ĠÐ°ÑĢÐ³ÐµÐ½ÑĤ Ð¸Ð½Ñĭ
ĠÐ°Ð²ÑĤÐ¾Ð¼Ð¾Ð±Ð¸Ð» ÐµÐ¹
ĠÐ²ÐµÐ½ ÐµÑģ
ĠÑĤÑĢÑĥÐ´ Ð¾Ð²Ð¾Ð³Ð¾
ĠÐ²Ð¸Ð· Ñĥ
ĠÐ¿Ð°ÑĢÐ¸Ð¶ Ð°
Ñĥ Ð³Ð°
ĠÐ½ ÑĥÐ¼
Ð¸Ð² Ð°Ð»Ð¸ÑģÑĮ
ĠÐ¼ Ð¾Ð½Ð°
Ð¸Ðº Ð°ÑĤ
ĠÑįÐºÑģÐ¿ ÑĢÐµÑģÑģ
ĠÐ²ÑĢÐ° Ð¶Ðµ
ĠÐ°Ð´Ð¼Ð¸Ð½Ð¸ÑģÑĤÑĢÐ° ÑĨÐ¸Ñı
ĠÑģÐµÐ³Ð¾Ð´Ð½Ñı ÑĪ
ĠÑģÑĨ ÐµÐ½Ñĭ
ĠÐ¸Ð¾Ð³ Ð°Ð½Ð½
Ð¸ÑĢÐ¾Ð² Ð°Ð»Ð¾ÑģÑĮ
ĠÐ²Ð»Ð°Ð´ ÐµÐ½Ð¸Ñı
ĠÑģÐ¾ÑģÑĤÐ¾Ñı Ð²
ĠÐ·Ð°Ñī Ð¸ÑĤÐ°
ĠÐ»ÑİÐ´ ÑĮÐ¼Ð¸
ĠÐ²ÑĭÑģÐ¾Ðº Ð¾
Ñģ Ð±ÑĥÑĢÐ³
ĠÑģ ÑĥÑĪ
ĠÑĦ ÐµÐ½
ĠÐµ Ð»ÑĮ
ĠÐ²ÐºÐ»ÑİÑĩ ÑĳÐ½
ĠÑĢÐ°Ð² ÐµÐ½
ĠÐ²Ð¾Ð´Ð¾ÑħÐ¾Ð·ÑıÐ¹ ÑģÑĤÐ²ÐµÐ½Ð½ÑĭÐ¹
ĠÐ½ ÑħÐ»
ĠÑĥ ÑĢÑĥÐ³
Ð°Ð² Ð¾Ð´
ĠÑģÑĢÐµÐ´ Ð¸Ð·ÐµÐ¼
ĠÐ¾ÑĤÐ´ Ð°Ð»
ĠÑī Ð¸ÑĤ
ÑĨ Ð°Ñħ
ĠÑĢ ÑįÐ¹
ĠÐ½Ð°Ð· ÐµÐ¼
Ð¸ÑĦ Ð¸ÐºÐ°ÑĨÐ¸Ð¸
ĠÐ²Ð¾Ð» ÑĪÐµÐ±
ĠÑĦÐ¸Ð³ ÑĥÑĢÑĭ
ĠÐ¼ Ñİ
ĠÐ¾Ð± ÐµÐ·
ÐµÐ»ÑĮ Ð½Ð¾Ð¹
ĠÑĪÐ°Ð±Ð»Ð¾Ð½ Ð¾Ð²
ÑĦ Ñĭ
ÐµÐ»ÑĮ Ðµ
Ð¸ÑĦ Ð°
ĠÐµÐ² ÑĢÐ¾Ð²
ĠÐ¿ÑĢÐ¾Ð²ÐµÑĢ Ð¸ÑĤÑĮ
Ð»Ñı ÑĢ
ĠÑĢÐ°Ð· Ð½Ð¾Ð²Ð¸Ð´
ÐºÐ¾Ð² ÑģÐºÐ¾Ð¼
ĠÑģÐ¾Ð² Ð¾ÐºÑĥÐ¿
ĠÐ¿ÐµÑĢÐµÐ½ ÐµÑģÑĤÐ¸
ĠÑĢÐ¸Ð¼ Ðµ
ĠÑĨ Ð¸Ð½
Ð¼ Ð¾Ð½Ð´
Ð°ÑĢ Ð¾Ð¼
ÐºÐ¾Ð² ÑģÐºÐ°Ñı
ĠÑĢÐ°Ñģ ÑĩÑĳÑĤ
ĠÐ¿ÑĢÐ¸ÑģÑĥÑĤÑģÑĤÐ² ÑĥÐµÑĤ
Ðº Ð°Ð»ÑĮ
ĠÐ± Ð¾Ð´
ĠÐºÐ¾ÑĢÐ¾Ð» ÑĳÐ¼
ĠÐ½ÐµÐ¾Ð´Ð½ Ð¾Ð·Ð½Ð°Ñĩ
Ð´ Ð¸Ð½Ð³
ĠÐ°Ðº Ðº
ĠÐ³Ð¾Ð»Ð¾Ð² Ñĭ
ĠÑģÐ¼Ð¾Ð³ Ð»Ð¸
ÑĳÐ½ Ð½Ð¾ÑģÑĤÑĮ
ĠÐ·Ð² ÑĥÐºÐ¾Ð²
ĠÐ¼Ð¾Ð» Ð¸ÑĤ
ĠÐ¿Ð¾Ð»Ð¸ÑĤ ÐµÑħÐ½
Ð¾Ð»Ñİ Ð±
ĠÐ¿ÑĢÐ¸Ðµ Ð·
ĠÐº ÑĢÑĥÐ¶
Ð¾Ð² ÐµÑĨ
ĠÑĪ Ð»ÐµÐ¼
ĠÐ°Ð² Ð°Ð½Ð³
ĠÐ¾ÑĢÐ³Ð°Ð½ Ñĭ
ĠÐ¾ÑĤÑģ ÑİÐ´Ð°
ĠÐ²Ð¾ÑģÐ¿ÑĢÐ¸Ð½ Ð¸Ð¼
ĠÑĢÐµÑĪ Ð¸Ð»Ð¸
ĠÐºÐ¸ÐµÐ² ÑģÐºÐ¾Ð¹
ĠÐ± ÑĥÐ³
ĠÐ¿Ð¾Ð´ Ð²Ð¸Ð¶
ĠÑģÑĤÐ°ÑĢ Ð¾
ĠÑģÐ¾ÑģÑĤÐ°Ð²Ð»Ñı Ð»
ĠÐ¾ÐºÑĤÑıÐ±ÑĢÑĮ ÑģÐºÐ¾Ð¹
ĠÐºÐ¾Ð½ ÑĮ
Ð¾Ñħ Ð¸Ð¼
ĠÐ¿Ð¾Ð·Ð²Ð¾Ð» Ð¸Ð»Ð¾
ĠÐ²Ð»Ð¸ÑıÐ½Ð¸Ðµ Ð¼
ĠÑģÑĤ ÑįÐ½
ĠÑĢÐµÑĪ ÐµÐ½Ð¸Ð¹
ĠÐ±Ð»Ð¾Ðº Ð¸ÑĢÐ¾Ð²ÐºÐ¸
ĠÑĥÑĪ ÑĳÐ»
ĠÐ¾ÑĤ ÑĨÐ¾Ð¼
ĠÐ¼Ð°ÑĤ Ð²Ðµ
ĠÐµÐ²ÑĢÐ¾Ð² Ð¸Ð´
ĠÑģÐ¾Ð±ÑģÑĤÐ²ÐµÐ½ Ð½ÑĭÐµ
ÑģÑı Ñĩ
ĠÐ´ÐµÑĢÐµÐ² Ð¾
ĠÐ±ÑĭÐ² ÑĪÐ¸Ðµ
ĠÐ½ÐµÐ´Ð¾ÑģÑĤÐ°ÑĤ Ð¾ÑĩÐ½Ð¾
ÑıÑī Ð¸Ð¼
ĠÐ²Ð¸ÑĤ Ð°Ð»Ð¸Ð¹
Ð¼ Ð¾Ð¹
ĠÐ» ÐµÐºÑģ
Ð¸Ð² Ð°Ð»ÑģÑı
ĠÐ³Ð¾Ð»Ð¾Ð² Ñĥ
ÐµÐ¹ ÑģÐºÐ¾Ð¹
ÐµÐ»ÑĮ Ð½ÑĭÐµ
ĠÐ¿Ð¾Ðº Ð¸Ð½Ñĥ
ĠÐ¾ÑĤÐ½Ð¾ ÑģÑıÑī
ĠÐºÑĢÐ¸ÑĤ ÐµÑĢÐ¸Ð¹
ĠÐ½Ð¸Ð¶ÐµÐ³Ð¾ÑĢÐ¾Ð´ ÑģÐºÐ¾Ð¹
ĠÐº Ð¾Ð²Ð°Ð»
Ð¾Ð¼ Ð¿
ĠÑĦÐ¾ÑĢÐ¼ Ð°Ð»ÑĮÐ½Ð¾
ĠÐ¿ÑĢÐ¾Ð²ÐµÑĢ ÐºÐ¸
Ð¾Ð¿ ÑĥÑĤ
ÐºÐ¾Ð² ÑģÐºÐ¾Ð¹
ĠÐ²Ð°Ð¶ Ð½Ð¾
ĠÐ½Ð¸Ð´ÐµÑĢÐ»Ð°Ð½Ð´ Ñĭ
ĠÐ³Ð¾ÑĢÑĮ ÐºÐ¾Ð³Ð¾
ĠÐ¸Ð¼Ð¿ÐµÑĢÐ°ÑĤ ÑĢ
ĠÑĦÑĥÐ½Ðº ÑĨÐ¸Ñı
ĠÐ½ Ð¸Ð¸
ĠÑģÑģÑĭ Ð»Ð°
Ð¸Ð·Ð¼ Ð¾Ð¼
Ð´Ð° ÐµÑĤ
ĠÑģÑĤÑĢÐµÐ»ÐºÐ¾Ð² Ð°Ñı
Ð°ÑĢ ÐºÑĤ
ĠÐ¿ÑĢÐ¸Ð¼ÐµÐ½ ÑıÐµÑĤÑģÑı
ĠÑĥÑĤÐ²ÐµÑĢÐ¶Ð´ ÐµÐ½Ð¸Ðµ
Ð² Ð°Ð´
ĠÐ¾ÑĢ ÑĤ
ĠÐ¼Ñĭ ÑģÐ»Ð¸
ĠÐ¾Ñħ Ð²Ð°ÑĤ
ĠÐ²Ð°ÑģÐ¸Ð»ÑĮ ÐµÐ²
ĠÐ¿ÑĢÐµÐ¾Ð± Ð»Ð°Ð´Ð°
ĠÐ½Ð°Ð²ÐµÑĢ Ð½Ð¾Ðµ
ÑĥÑĢ Ð¾Ð¹
ĠÐ° Ð»Ðµ
ĠÐ¿ÑĢÐ°Ð² ÑĭÐ¹
ĠÑĢÐ¾Ð´ Ð¾Ð²
ĠÐ¿ÑĢÐ¾ÑĨÐµÑģÑģ Ð¾Ð²
ĠÐ±Ð¾ Ð¸
ĠÐ·Ð°Ð¼ÐµÑĩ Ð°Ð½Ð¸Ñı
ĠÐ¼ ÑĳÑĢÑĤ
ĠÐ²Ð½ÑĥÑĤÑĢÐµÐ½ Ð½Ð¸Ð¹
ĠÐ²Ð°ÑĪ ÐµÐ¹
ĠÑįÐºÐ¸Ð¿Ð°Ð¶ Ð°
Ð°Ð² ÑĪÐ¸ÑħÑģÑı
Ð¸ÑģÑĤ Ð°Ð½Ðµ
ĠÐºÑĢ Ð¸Ð¼Ð¸Ð½
ĠÑĥÐºÐ°Ð· Ð°Ð½Ð°
ĠÑģÐ¾Ð´ÐµÑĢÐ¶ Ð°ÑĤ
ĠÐ¼Ð½Ð¾Ð³Ð¾ÑĩÐ¸Ñģ Ð»ÐµÐ½Ð½ÑĭÑħ
ĠÐ½Ð°Ð³ ÑĢÑĥÐ·
ĠÐ²Ð°Ð´ Ð¸Ð¼
ÑĢÑĭ Ð»
ĠÐºÐ¾Ð» ÐµÐ±
ĠÑĦÐ¸Ð½ Ð¸ÑĪ
ĠÐ»Ñĥ Ð½Ñĭ
ĠÐºÐ°Ð»Ð¸Ð½ Ð¸Ð½Ð³ÑĢÐ°Ð´
Ð³ Ð°Ð»
ĠÐ°Ð»ÑĮÐ±Ð¾Ð¼ Ðµ
Ð½Ð¾Ð² ÐµÐ½Ð¸Ðµ
ĠÐ¼Ð°Ðº Ðº
ĠÐ¼Ð¾Ð»Ð¾Ð´ ÐµÐ¶
ĠÐ²Ð¾ÑģÑĤÐ¾Ñĩ Ð½Ð¾Ð³Ð¾
ĠÐ²ÑģÐ¿ Ð¾Ð¼
ĠÐ¶Ñİ ÑĢÐ¸
ÑĨ Ð·
ĠÐ½Ð°Ñĩ Ð°ÑĤÑĮ
ĠÐ´Ð°Ð½ Ð¸Ð»
ĠÑĩÐ°Ñģ Ð°
ĠÐ½Ð°Ð± ÐµÑĢÐµÐ¶
Ð¾ÑĢÐ´ Ð¸Ð½Ð°
ĠÐ»ÐµÑĩ ÐµÐ½Ð¸Ñı
ĠÐ»Ð°Ð±Ð¾ÑĢÐ°ÑĤÐ¾ÑĢ Ð¸Ð¸
ĠÑĩ Ð¸ÐºÐ°
ĠÑģÐ¿ ÑĢ
ĠÑĢÐ¾Ð´ Ð¸ÑĤÐµÐ»Ð¸
ĠÐ¿ÐµÑĢÐµÐ² Ð¾Ð´Ð°
ĠÑĢÐµÐ» Ð¸Ð·
ĠÑĢÐµÐ°Ðº ÑĨÐ¸Ð¸
ĠÐºÐ¾Ð¼ Ð¸Ðº
ĠÐ²Ð¸Ðº ÑĤ
ĠÐ»Ð¸ÑĤ Ð²Ñĭ
ĠÐºÐ°Ð¼ ÐµÐ½ÑĮ
ĠÐ·Ð½Ð°Ðº Ð¸
ĠÐ»ÑİÐºÑģ ÐµÐ¼
ĠÐ¼Ð°ÑĢ ÐºÑģ
ĠÐ³ÑĢ Ð¾Ð±
ĠÑģÑĤÐ°Ð± Ð¸Ð»ÑĮ
ĠÐ¿ÑĢ Ð¾Ð·Ð°
ĠÑĢÐ°Ð±Ð¾ÑĤ Ð°ÑİÑĤ
ĠÐ²ÑĭÑģÑĤÑĥÐ¿ Ð°ÑĤÑĮ
ĠÐ¸ÑĤÐ¾Ð³ Ð°
ĠÑĢÐ¾ÑģÑĤ Ð°
ĠÑĥÐºÐ°Ð·ÑĭÐ² Ð°ÐµÑĤ
ĠÑģÑĤÐ° ÑĢÐµÐ¹
ĠÐ¿ÑĢ ÑĭÐ¶
ÑĤÐ¾ ÑĢÐ°Ð¼
ÑĢÐ¾ Ñī
ĠÑģÑĢÐµÐ´ Ð½
ĠÐ½Ð°ÑĩÐ°Ð» Ñĥ
ĠÐ¼ÐµÑģÑĤ Ð¾Ð¿Ð¾Ð»Ð¾Ð¶
ĠÐ³Ð»Ð°Ð² Ð½
ĠÐ´Ð¾Ð¼ Ð¾Ð¹
ĠÑģÑĭ ÑĢ
ĠÐ¿Ð¾ÑįÑĤ Ñĭ
ĠÐ±Ð¸ Ð¾
ĠÑĩÐ°ÑĢÐ»ÑĮ Ð·
Ñģ Ð¾
ÑĢ Ð¸ÑĩÐµÑģÐºÐ¾Ð¹
ÑĨ Ð¸Ð½
ĠÐ» ÐµÑģÑĤ
ĠÐ¾ÑĤÐºÑĢÑĭÑĤ ÑĭÐ¹
ĠÐ¿ÑĢÐ¸Ð²ÐµÐ´ ÐµÐ½Ñĭ
Ð¼ÐµÐ¹ ÑģÑĤÐµÑĢ
ĠÐ¿ÐµÑĢÐ¼ ÑģÐºÐ¾Ð³Ð¾
ĠÑģ ÐµÑĢÐ°
ĠÑĨ Ñĭ
ĠÐ¸Ð·Ð±ÑĢÐ°Ð½ Ð½ÑĭÐµ
ĠÑģ Ð¸Ðº
ĠÑħÐ¾ÑĤ Ð¸ÑĤÐµ
ĠÐ¸Ð½Ð¸ÑĨÐ¸Ð°ÑĤÐ¸Ð² Ðµ
ĠÑģ ÐµÐ½ÑĮ
ĠÑį Ð»Ð¸Ð·
ÐµÐ½Ð° Ñħ
Ð¸ÐºÐ° ÑĨÐ¸Ð¾Ð½Ð½ÑĭÐ¹
ĠÐ½Ð¾Ð¼ ÐµÑĢÐ°
ĠÑĪ Ð¸ÑĦ
ĠÐ¾Ñģ Ð¸Ð¿
ĠÑĢÐ°Ð·ÑĢÐ°Ð±Ð¾ÑĤ ÐºÐµ
ĠÐ±Ñİ ÑĢÐ¾Ðº
ĠÑĢÐµ ÑĤ
Ð¸Ð³ Ð°
ĠÐ±ÑĥÐ´ ÐµÐ¼
ĠÐºÑĥÐ¹ Ð±
ĠÑĥÑģÐ»Ð¾Ð² Ð¸Ð¹
ĠÐ¿ÑĢÐ¾Ñĩ Ð¸Ñħ
ĠÑĨÐ°ÑĢ ÑģÑĤÐ²Ð¾
ĠÐ´Ð½ÐµÐ¿ ÑĢ
ĠÐµÑĢ Ð¼
Ð¾ÑĢ ÑģÐºÐ¸Ð¹
Ð°Ð»ÑĮ ÑĤ
ĠÐ¸Ð½ÑĤÐµÑĢÐµÑģ Ð½ÑĭÐµ
ĠÐ¾Ñī ÑĥÑī
ĠÐ¿ Ð°Ñħ
ĠÑĤÐµÑħ Ð½Ð¸ÐºÐ°
ĠÑĢÐµÐ¹ Ñħ
ĠÐ¿Ð¾ÑģÑĤÑĢÐ¾ ÐµÐ½Ð¾
ÑģÑĤ Ð¸
Ð½Ð° ÑĨÐ¸Ð¾Ð½
ĠÑĢÐ°Ð·ÑĢÐ°Ð±Ð¾ÑĤ ÐºÐ°
ĠÑĢÐ°Ð·ÑĢÐµÑĪ ÐµÐ½Ð¸Ñı
Ð´ Ð¸Ðº
ĠÐ° ÑĢÐ°Ð²
ĠÐ¿Ð¾ÑģÑĤÐ°Ð² Ð¸ÑĤÑĮ
ĠÐºÐ¾Ð¼Ð¸ÑģÑģ Ð¸Ñı
ĠÐ°Ð» Ð¼Ð°
ĠÐ´ÐµÐ¹ÑģÑĤÐ² Ð¸ÑıÑħ
ĠÐ½ÐµÐ¼ ÐµÐ´
ĠÐ³ ÑĢÐµÐ¹
ĠÐ²Ñĭ ÑģÑĤÑĢÐµÐ»
ĠÑĩÐµÐ¼Ð¿Ð¸Ð¾Ð½ ÐºÐ°
ĠÐ±ÐµÑĢ ÑĳÐ·
ÑĢÐ°ÑģÑĤ ÑĢÑĥÐºÑĤ
ĠÐ½ÐµÑĢÐµÐ´ ÐºÐ¾
ĠÐ·Ð² Ð¾Ð½
ĠÑĦÐµÐ´ÐµÑĢÐ° ÑĨÐ¸Ñı
ĠÐ¿ÑĢÐ¾ÑĦÐµÑģÑģ Ð¸Ð¸
ĠÐ¾Ð² Ð»Ð°Ð´
ÑĥÑİÑī ÐµÐµ
ĠÑĢÐ°Ð·Ð´ ÐµÐ»Ñı
Ð¾ÑĢ ÑĢÐµÐºÑĤ
ÑĨ ÐµÐ»
Ð¾Ð»ÑĮ Ð½Ð¾Ð¹
Ð»ÐµÐ½ Ð½ÑĭÐ¼
ĠÐ¼Ð°ÑĢ Ð³Ð°ÑĢ
ĠÑģÐ¿ÐµÑĨÐ¸Ð°Ð» Ð¸Ð·
ĠÐ·Ð°Ð²ÐµÑĢÑĪ ÐµÐ½Ð¸Ñı
ĠÐ¿ÑĢÐ¾ÑĦ Ñģ
ĠÑĦ Ð¾Ð½ÑĤ
ĠÐ½Ð¾Ð² Ð¾ÑģÑĤ
ĠÑĤÑĢÑĥÐ´ Ð½Ð¾
ĠÑĢÐµÐ»Ð¸Ð³ Ð¸Ð¸
ĠÐ¸ Ð½Ð¾Ð¹
ĠÐ³Ð¾Ð´ Ð°Ð¼Ð¸
ÐµÐ»ÑĮ ÑģÐºÐ¸Ð¹
ĠÐºÐ¾Ð½ Ñĩ
ĠÐ²Ð¾ÑģÑĤÐ¾Ñĩ Ð½Ð¾Ð¼
ĠÑĤÐ° Ð¸Ð»
ĠÐ²Ð¾Ð·Ð²ÑĢÐ°Ñī ÐµÐ½Ð¸Ðµ
ĠÐ¿Ð»Ð°ÑĤÑĦÐ¾ÑĢÐ¼ Ð°
ĠÐ¸ ÑĢÐ°Ðº
ĠÐ·Ð° ÑĩÑĳÑĤ
Ð°ÑİÑī Ð¸Ð¼Ð¸
ĠÐ¾ÐºÐ¾Ð½Ñĩ Ð¸Ð»Ð°
ĠÐ²Ð´ Ð¾Ñħ
ĠÐ½Ð°Ð±Ð»ÑİÐ´ ÐµÐ½Ð¸Ñı
ĠÐ² ÑĳÐ»
ÑĦ ÑĦÐ¸ÑĨ
Ð¸Ñģ Ñĭ
Ð½Ñĥ Ð»Ð°ÑģÑĮ
ÑĢÐ°Ð¹ Ð¾Ð½
ÐµÑĢ Ð²Ð°
ĠÐºÐ°ÑĩÐµÑģÑĤÐ² Ð¾
ĠÐ³Ð¸Ð± ÐµÐ»Ð¸
Ð¸Ñģ Ð¾Ð¼
ĠÐºÐ°Ð» Ð¼Ñĭ
ĠÑĥÐ¿ÑĢÐ°Ð·Ð´Ð½ ÐµÐ½Ð¸Ñı
ĠÐ¾ÑĤ ÐºÐ°Ð·ÑĭÐ²
ĠÐ¿Ð¾Ð¿ ÑĥÐ»Ñı
ĠÐ¿ÑĥÑĤ ÐµÐ¹
ĠÐºÐ¾ÑĢÐ¾Ð»ÐµÐ² ÑģÐºÐ¾Ð¹
ĠÐ´ÐµÐ¼Ð¾ÐºÑĢÐ°ÑĤ Ð¸ÑĩÐµÑģÐºÐ¾Ð¹
Ð¸ÑĤ Ð¾
ĠÐ²ÑĢÐµÐ¼ ÐµÐ½Ð½Ð¾
ĠÐ¸ÑģÐ¿Ð¾Ð»ÑĮÐ· Ð¾Ð²Ð°ÑĤÑĮÑģÑı
ĠÐ¿ÐµÑħ Ð¾ÑĤÑĭ
ĠÐ±Ð¾Ð» Ð¾ÑĤ
ĠÐ¾ÑģÑĤ ÑĢ
ĠÐ°ÑĤ ÑĤ
ÑģÐº Ð¾Ð²
Ñĥ Ð»Ðµ
ĠÑĪ Ð»
ĠÑģÐ¿ Ð¸Ð½
ĠÐ¿Ð¸ÑĤ Ð°Ð½Ð¸Ñı
ĠÐ¿Ð¾Ð²ÐµÑĢÑħ Ð½Ð¾ÑģÑĤ
Ð°ÑĤÑĥ Ñĥ
Ð¾Ð²Ð°Ð½ Ð½Ð¾Ð¹
Ð¸ÑĢÐ° ÐµÑĤÑģÑı
ĠÑģÑĤÐ°ÑĢ ÑĪÐ¸Ð¼
ÑĥÐ¶Ð´ ÐµÐ½Ð¸Ðµ
ĠÐ»ÑİÐ´ Ð¼
ĠÑıÐ¿Ð¾Ð½ ÑģÐºÐ¸Ð¹
ĠÐ¿ÑĢÐ¾Ð¿ Ð¾Ð²ÐµÐ´
ĠÐ³Ð¾Ð½ ÐºÐ¾Ð½
ÑįÐ¼ Ð¿
ĠÑģÑĤÐ°Ð½Ð¸ÑģÐ»Ð°Ð² Ð°
Ð¸Ð½ ÑģÐºÐ¸Ð¼
ĠÑģÐ²ÑıÐ· Ð°Ð½Ñĭ
ĠÐ¿Ð¾ÑıÐ² Ð»ÐµÐ½Ð¸Ðµ
ĠÐºÐ¾ Ð°ÑĤÑĥÑĥ
ĠÑģÐ¾Ð±ÑģÑĤÐ²ÐµÐ½ Ð½Ð¾Ðµ
ĠÐ´Ð²Ð¾ÑĢ Ðµ
ĠÑģÑĥÐ¼ ÐµÐ»
ĠÐ¿ÑĢÐ¾Ð²Ð¾Ð·Ð³ Ð»Ð°ÑĪ
ĠÐ¿Ð¾ÑģÐ»ÐµÐ´ ÑĥÑİÑīÐ¸Ðµ
ĠÐ³ÑĢÐ°Ð¼ Ð¼Ð°ÑĤ
Ð° ÑĩÐ¸
ĠÐ» Ð°Ñģ
ĠÐ¾Ð±ÑĢÐ°Ð· ÑĨÐ¾Ð²
ĠÑĢÐ°ÑģÐ¿Ð¾Ð»Ð¾Ð¶ ÐµÐ½Ð¸Ðµ
ĠÐ¾ÑĦÐ¾ÑĢÐ¼ Ð»ÐµÐ½Ð¸Ðµ
ĠÐ»ÑĮÐ² Ð¾Ð²
ĠÐºÐ½ÑıÐ¶Ðµ ÑģÑĤÐ²Ð°
ĠÑĥ Ð»Ð¸Ñĩ
ĠÑĪ ÐµÐº
ĠÐ¿Ð°ÑĢ Ð¾Ð²
ĠÑħÐ°ÑĢÐ°ÐºÑĤ ÐµÑĢÐ°
ĠÐ²ÑĭÐ¹ ÑĤÐ¸
ĠÐ¼ÑıÑĤ ÐµÐ¶
ĠÑĢÐµÑĪ Ð°ÐµÑĤ
ĠÑģÑĢÐ°Ð¶ ÐµÐ½Ð¸Ð¸
Ð¾ÑĦ ÑĦ
ĠÑģÑĤÑĢÐ¾Ð¸ÑĤÐµÐ»ÑĮ ÑģÑĤÐ²Ðµ
ĠÐ°Ð´Ð¼Ð¸Ð½Ð¸ÑģÑĤÑĢÐ°ÑĤÐ¾ÑĢ Ð¾Ð¼
ĠÐ¸Ð½ÑĦ ÑĢÐ°ÑģÑĤÑĢÑĥÐºÑĤ
ĠÑģÐ¾Ð²ÐµÑĤ ÑģÐºÐ¾
ĠÐ±Ð¾ÑĢ Ð¾Ð´
ĠÐ¾ÑĤÐ¼ÐµÑĤ Ð¸Ð»
ĠÐ±Ð»Ð¸Ð¶Ð°Ð¹ ÑĪÐ¸Ðµ
ÑĨ ÐºÐ¾Ð³Ð¾
ĠÐ¿Ð¾Ð±ÐµÐ´ Ð¸ÑĤÐµÐ»ÐµÐ¼
ĠÐ² Ð¸Ð½Ð¾Ð²
ĠÑĢÐ°Ð±Ð¾ÑĤ Ð½Ð¸Ðº
ĠÑģÐ¾Ð± ÑĢÐ°Ð»
ĠÐ¸Ð´ ÐµÐ¹
ĠÐ¿Ð¾ÐºÐ°Ð· Ð°Ð»
ÐµÐ» Ñĭ
ÑĪ Ð¸Ð½Ð°
Ð¾Ð· Ð°Ð¿
ĠÐ¾Ð±Ñī Ð¸Ð½
ĠÐ¿ÑĢÐ¾ÑĪ ÐµÐ´
ĠÐ¸Ð½ÑģÑĤÑĢÑĥÐ¼ÐµÐ½ÑĤ Ñĭ
Ðº Ð¾Ð¼Ñĥ
ĠÐ²Ð¾Ð· ÑĢÐ°Ð¶
Ð¾Ð»Ð¾Ð³ Ð¸Ñİ
ĠÐ½ÐµÐ¼ ÑĨÐµÐ²
ĠÑģÑĤÑĢÐ° ÑĪ
ĠÐ°Ð»ÑĮÐ± ÐµÑĢÑĤ
ĠÐ¾ÑĤÐºÑĢÑĭ Ð»
ĠÑģÐ¾ÑĩÐ¸Ð½ ÐµÐ½Ð¸Ñı
Ð¾ÑģÑĤ ÐµÐ¿
ÐºÐ¾ Ð½Ñĭ
ĠÐ¸Ð½Ð´ Ð¸Ñı
ĠÐºÐ¾ Ð¾ÑĢÐ´Ð¸Ð½Ð°
ĠÐ´ÑĢÑĥÐ· ÑĮÑı
ĠÑĩÐ¸ÐºÐ° Ð³Ð¾
ĠÐ¿Ð¾Ð» Ð¸Ð³
ĠÑį ÑģÐ¿
ĠÐ°Ð²ÑģÑĤÑĢÐ°Ð» Ð¸Ñı
Ð°ÑİÑīÐ¸Ðµ ÑģÑı
ĠÑģÑĥÐ±ÑĬ ÐµÐºÑĤÐ°
ĠÐ´Ð¶ ÐµÐ½
Ð¸Ñĩ Ð½Ð¾ÑģÑĤÑĮ
ĠÑĢÐ°Ðº ÐµÑĤÑĭ
ĠÐ³Ð»Ð°Ð²Ð½ Ð¾ÐºÐ¾Ð¼Ð°Ð½Ð´
ÑĢÐ¾Ð² Ð°
ĠÐ¼Ð°Ð» Ð°Ð¹
ĠÐ¼Ð½Ð¾Ð³ Ð¾Ð¼
ĠÐ²ÑĭÑģÐ¾Ðº Ð¾Ð³Ð¾
ĠÐ°ÑĢÑħÐ¸ÑĤ ÐµÐºÑĤÐ¾ÑĢÐ°
ĠÐ¿ÑĥÑĪ ÐºÐ¸Ð½
ĠÐ° Ð³Ð°
ĠÑĢÐµ ÑģÑĤ
ĠÐ²ÑĭÑģ Ð°Ð´
Ð¾Ð»Ð¾Ð³ Ð¾Ð²
ĠÐ¾ÑĤÐºÑĢÑĭ ÑĤÐ¾
ĠÑĦÐ¸ÑĢ Ð¼Ñĭ
ĠÑĤÐ¾Ð²Ð°ÑĢÐ¸ ÑīÐµ
ĠÑįÐ½ÑĤ Ð°Ð»ÑĮÐ¿
ĠÐ³ ÑĢÐ°Ð±
ĠÐ¼ÑĥÐ¶ Ð°
ĠÐ¾ÑĪÐ¸Ð± ÐºÐ°
ĠÑħÐ¾ÑĢ Ðµ
ĠÐºÑĢÐ°Ñģ Ð¸Ð²
ĠÑįÐºÐ¾Ð½Ð¾Ð¼ Ð¸ÑĩÐµÑģÐºÐ¾Ð¹
ĠÐº ÑĥÐ»ÑĮ
ĠÑĤÑĢ Ð¸Ð´
ĠÑĤÐ¸Ð¿ Ð¾Ð²
ĠÑģÐ¾Ð´ÐµÑĢÐ¶Ð¸Ð¼ Ð¾Ð³Ð¾
ĠÐ¸ÑģÐ¿Ð¾Ð»ÑĮÐ· Ð¾Ð²Ð°Ð»ÑģÑı
ĠÐºÐ°Ð½ Ð°Ð»Ðµ
ĠÐ·Ð°ÑıÐ² ÐºÑĥ
ĠÐ´Ð·Ñİ Ð´Ð¾
ĠÐ¾ÑĤ Ð»Ð¾Ð¶
ĠÐ¼ÐµÑģÑĤ Ð½Ð¾Ð¹
ĠÐ¾ÑĤÐº Ð°ÑĤ
ĠÐ¿ÑĢÐ¾Ñĩ Ð¸Ðµ
ĠÐ³Ð°ÑĢ ÑĢÐ¸
ĠÐ² ÑĢÑıÐ´
Ð¸Ð» Ð»Ð°
ĠÐ¿Ð¾Ð² Ð¾Ð´
ĠÐ¿ÑĢÐµÐ¶ Ð½ÐµÐ¼Ñĥ
ĠÐºÐ°Ð´ ÑĢÐ¾Ð²
ĠÑĨ ÑģÐºÐ°
ĠÑİ Ð·
ĠÐ¿Ð°ÑĢ ÐºÐµ
ĠÐºÐ¾ÑĢÐ¾Ð» ÐµÐ²Ð°
ĠÐ°Ð²ÑģÑĤ ÑĢÐ¾
ĠÐ¿ÑĢÐ¸Ð½ÑıÑĤ Ð¸Ñı
ĠÐ°Ð²Ð¸Ð°ÑĨÐ¸Ð¾Ð½ Ð½Ð¾Ð³Ð¾
ĠÐ²Ñĭ ÑĢÐ°Ð±Ð¾ÑĤ
ĠÑģÐ¾Ðº Ð¾Ð»
ĠÐºÐ¸ÑĤÐ°Ð¹ ÑģÐºÐ¾Ð¹
ĠÐ¼Ð°ÑģÑģÐ¾Ð² Ð¾Ð¹
ĠÑıÑĢÐ¾ÑģÐ»Ð°Ð² ÑģÐºÐ¾Ð¹
Ð°ÑĢ Ð¼
ĠÑĢÐµ Ð°Ð±Ð¸Ð»
ĠÐºÐ¾Ð» ÑĳÑģ
ÑģÐµÐ¼ ÐµÐ¹
ĠÑħÐ¾ÑĢÐ²Ð°ÑĤ Ð¸Ð¸
ĠÐº ÑĥÑĢÐ°
ĠÐ½ ÑĥÑĢ
ĠÐ¸Ð·Ð²ÐµÑģÑĤ Ð½Ð°Ñı
ĠÑĩÐ¸ÑĤ Ð°ÑĤÑĮ
ĠÑģÐ¾Ð¿ÑĢÐ¾ÑĤÐ¸Ð² Ð»ÐµÐ½Ð¸Ñı
Ð¾ÑģÑĤ Ð°
ĠÑģÐ¾ÑĨÐ¸Ð°Ð»ÑĮ Ð½ÑĭÑħ
ÑĦÐµÑĢ ÐµÐ½ÑĨ
ĠÐ¿ Ð»Ðµ
ĠÑģÐº Ð¾Ð±
ĠÐ¸Ð¼Ð¿ÐµÑĢÐ°ÑĤÐ¾ÑĢ ÑģÐºÐ¾Ð¹
ĠÐ¿ÑĢÐµÐ´Ð¿ÑĢÐ¸Ð½Ð¸Ð¼ Ð°ÑĤÐµÐ»ÑĮ
ĠÑĥ Ð¾ÑĢ
Ð°Ð² ÑĪÐ°Ñı
ĠÐ²Ð¾ÑģÑĤÐ¾Ñĩ Ð½ÐµÐµ
ĠÑĦÑĢÐ°Ð½Ñģ ÑĥÐ°
ĠÐ²ÑĭÑģÐ¾Ðº Ð¸Ñħ
ĠÐ²ÐµÑĢÐ½ ÑĥÐ»
ĠÐºÐ¾Ð»Ð¾Ðº Ð¾Ð»ÑĮ
ÐµÑĢ ÐµÑĩ
Ð¾Ñģ ÑĦ
ĠÐ±ÑĢÐ°ÑĤ Ð¾Ð¼
ĠÐºÐ¾ÑĢÐ¾Ð»ÐµÐ² ÑģÐºÐ¾Ð³Ð¾
ĠÐ²Ð¾Ð·Ð²ÑĢÐ°Ñī Ð°ÐµÑĤÑģÑı
Ð¹ Ð½
ÐºÐ¾Ð² ÑģÐºÐ¾Ðµ
ĠÐ°Ð» Ð¶
ĠÑįÐ¿Ð¾Ñħ Ñĥ
ĠÑįÐ½ÑĤÐ°Ð»ÑĮÐ¿ Ð¸Ñı
ĠÐ± Ð°Ð½Ð³
ĠÐ¾ÑĤ ÑħÐ¾Ð´
ĠÐ¿Ð¾Ð» ÑĳÑĤÐ°
ĠÑĥÑĩÐ°ÑģÑĤ ÐºÐ°
ĠÐ¾ÑģÐ² ÑıÑī
Ð¾Ð³ Ð»Ð°Ñģ
ĠÐ·Ð°Ñħ Ð¾ÑĢÐ¾Ð½
ÑĥÑī Ð¸Ð¹
ĠÐ²Ð¾Ð´ Ð¾Ð¹
ĠÐµÐ²ÑĢÐ¾Ð¿ÐµÐ¹ ÑģÐºÐ¾Ð³Ð¾
ĠÐ±Ð»Ð° Ð³Ð¾
ĠÐ¿ÑĢÐ¸Ð´ ÑĥÐ¼
ĠÑĤ Ñī
Ð°Ñģ Ð¾Ð²
ĠÐ²ÑĭÑģ ÑĪÐ¸Ñħ
ĠÐ°ÐºÑĤ ÑĳÑĢÑĭ
ĠÐ³ÑĢÐ°Ð¶Ð´Ð°Ð½ Ð¸Ð½
ĠÐ²ÑĭÐ¸Ð³ ÑĢÐ°Ð»Ð°
ĠÐºÑĢÐ°ÑģÐ½ Ð¾Ð·Ð½
ĠÑı Ñħ
ĠÐ²ÑģÐ¿ Ð¾Ð¼Ð¸Ð½
ĠÐ¿ÑĢ Ð¾Ð»ÐµÑĤ
ĠÐ¿Ð¾Ð´ ÑĢÐ¾ÑģÑĤ
ĠÑĤÑĥÑĢ Ð¸ÑģÑĤ
ĠÐ¾Ð±Ð¾ÑĢÑĥÐ´ Ð¾Ð²Ð°Ð½Ð¸Ðµ
ĠÑģÐµÑĢ Ð¿
ĠÐ²ÑĭÑģÑĤÑĥÐ¿ Ð°Ð»Ð°
Ð°ÑĤÐµÐ»Ñı Ð¼
ĠÑį Ð±
ĠÐ¾ÑĤÐ»Ð¸Ñĩ Ð¸Ñı
ĠÑĢÐ°Ð·Ð²ÐµÐ´ ÑĭÐ²
ÑĢ Ð¸ÑĦ
ĠÐºÐ¾Ð¼Ð°Ð½Ð´ Ð¾Ð²Ð°Ð½Ð¸Ñı
ĠÑģÑĤÐ°ÑĢ ÑĭÐµ
ĠÑįÐ´ Ð²Ð°ÑĢÐ´
Ð°Ð² ÑĤ
ĠÐ¾ÑĢ ÑĦ
ĠÑģÑĤÐ°ÑĢ Ð¸Ð½
ĠÐ½Ð°Ð¿Ð¸Ñģ Ð°Ð½Ð¸Ðµ
ĠÑĪ Ð¸Ð¿
Ð°ÑĢÐ¸ Ð¾
ĠÐ·Ð°Ñħ Ð²
ĠÐ³Ð¸Ð¼Ð½Ð° ÑģÑĤ
Ð´ Ð·
ĠÐ¼Ð°ÑĪ Ð¸Ð½Ð°
ĠÐ¾Ð±ÑīÐµÑģÑĤÐ² Ðµ
ĠÑĩ Ð°Ð¿
ĠÐ¼ÑĥÐ·Ñĭ ÐºÐµ
ĠÑģÐ²ÑıÐ· Ð°Ð½Ð°
ĠÐ¶ÐµÐ» Ð°Ð½Ð¸Ðµ
ĠÐ¶ÐµÐ»ÐµÐ· Ð½Ð°Ñı
ĠÑģÐ¾ÑĤ Ð½Ð¸
ĠÐºÑĢÐ°ÑĤ ÐµÑĢ
ĠÐ¿Ð°ÑģÑģÐ°Ð¶ Ð¸ÑĢÐ¾Ð²
ĠÑĦÐµÑģÑĤÐ¸Ð² Ð°Ð»Ðµ
ĠÐºÐ¾Ñį ÑĦÑĦÐ¸ÑĨ
ĠÐ°Ð·ÐµÑĢÐ±Ð°Ð¹Ð´Ð¶ Ð°Ð½ÑģÐºÐ¾Ð¹
ĠÐ¼ÑĭÑģ Ð»ÑĮ
ĠÐ¸ ÑģÐ»
ÑĢÐ¾Ð² ÑģÐºÐ¸Ð¹
ĠÐºÐ² Ð°Ð½ÑĤ
ĠÑģÐ¸Ð½ Ð¾Ð½Ð¸Ð¼
Ð¾Ð¿ Ð¸ÑĤ
ĠÐºÐ¾Ñģ Ð¼Ð¾Ð½
ĠÐ²ÑĭÐ¿Ð¾Ð»Ð½ ÐµÐ½Ð¸Ðµ
ĠÐ¾Ð¿ÑĢÐµÐ´ÐµÐ»Ñı ÐµÑĤÑģÑı
ĠÐ¸ ÑĢÐ°
ĠÑįÐºÐ¾Ð½Ð¾Ð¼ Ð¸ÑĩÐµÑģÐºÐ¸Ñħ
ĠÐ²Ð¾ÑģÑģÑĤÐ°Ð½Ð¾Ð² Ð¸ÑĤÑĮ
Ð¸Ð¼ ÑĭÐ¹
ĠÑĤÑĢ Ð¾Ðµ
ĠÐ²ÐµÑĤ ÐµÑĢ
ĠÑģÐµÐ¼ÑĳÐ½ Ð¾Ð²Ð¸Ñĩ
ĠÐ¿ Ð³
ÐµÐ² ÑģÐºÐ°Ñı
ĠÐºÑĢÐ°Ñģ Ð½ÑĥÑİ
ĠÐ½ÐµÐ¿ÑĢ ÐµÑĢÑĭÐ²
Ð°ÑĤÐµÐ»ÑĮ Ð½ÑĭÐ¼
Ð¸ÐºÐ° ÑĨÐ¸Ñİ
ĠÐºÑĢÐµÑģÑĤÑĮÑıÐ½ ÑģÐºÐ¾Ð¹
ĠÑĩÐµÐ¼Ð¿Ð¸Ð¾Ð½ Ð°ÑĤÑĭ
ĠÑģÐ¾ÑħÑĢÐ°Ð½ Ð¸Ð»Ð¸ÑģÑĮ
ĠÐ¸ Ð¸Ñģ
ĠÐ¿Ð» Ð¾
ĠÐ¼ÐµÑĤ ÐºÐ°
ĠÑĢÑĥ ÐºÐ°Ñħ
Ð¸ÑĢÑĥ Ñı
ĠÐ¾ÑģÐ½Ð¾Ð²Ð°Ð½ Ð¾
ĠÐ´Ð¸ÑģÐº ÑĥÑģÑģÐ¸Ð¸
ĠÐ¼ ÑģÑĤ
ĠÐ¸Ð½ÑģÑĤ ÑĢÑĥÐº
ĠÐ¼ÐµÐ´Ð¸ÑĨ Ð¸Ð½ÑģÐºÐ¸Ñħ
ĠÐ²Ð¾Ð· Ð±
ĠÐ¿ÑĢÐ¾ÑĤ Ð¾ÑĤÐ¸Ð¿
Ð°ÑĨÐ¸Ð¾Ð½ Ð½Ð¾Ð¹
ĠÐ¾Ð»Ð¸Ð¼Ð¿Ð¸Ð¹ ÑģÐºÐ¸Ð¹
ĠÐ²Ð¸ÐºÑĤÐ¾ÑĢ Ð¾Ð²Ð¸Ñĩ
Ð»Ñı Ð»Ð¸ÑģÑĮ
ĠÐ¶Ð°Ð½ ÑĢÐµ
ĠÑĤÐµÑĢÑĢÐ¸ÑĤÐ¾ÑĢ Ð¸Ð¹
ĠÐ¿Ð¾ÑĩÑĳÑĤ Ð½ÑĭÐµ
ĠÐ°Ðº ÑĨÐ¸Ð¾Ð½
ĠÐ¿ÑĢÐ¾Ð²Ð¸Ð½ ÑĨÐ¸Ñİ
ÑĤÐ° ÑĨÐ¸Ð¸
Ð°Ð´ Ñĥ
ĠÐ¿ÑĢÐ¾Ðº ÑĥÑĢ
ĠÐ¿Ð¾Ð´Ð²Ð¾Ð´ ÑıÑīÐµÐ³Ð¾
ĠÑģÐ¾Ð¼Ð½ ÐµÐ½Ð¸Ñı
ĠÐ¿Ð¾ÐºÐ¾Ð» ÐµÐ½Ð¸Ñı
Ð¾ÑĢ ÑıÐ´
ĠÑģÐ¾ÐµÐ´Ð¸Ð½ ÐµÐ½Ð¸Ðµ
ĠÑĦÐ¾ÑĢ Ñģ
ĠÐºÑĥÐ»ÑĮÑĤÑĥÑĢ Ð½Ð¾Ð³Ð¾
ĠÐ·Ð°Ð¼ ÐºÐ°
ĠÐ½Ð°ÑĢÐ¾Ð´ Ð½ÑĭÐµ
ĠÑĤÑıÐ¶ ÐµÐ»Ð¾
ĠÐ¸ Ð¿
ĠÐ¼ÐµÐ´Ð¸ÑĨ Ð¸Ð½Ñĭ
Ð¾Ð´ Ð¸
ĠÐ¶ Ð°Ðº
ĠÑĤÐ°Ð½ ÑĨÐµÐ²
ĠÐ³ÐµÐ½Ð½Ð°Ð´ Ð¸Ð¹
ĠÐ´ Ð¾Ð·
ĠÑĤÑĢ ÑĳÐ¿
ĠÐ¼Ð¸Ð½Ð¸ÑģÑĤ ÑĢÑĭ
ĠÐ»Ð¸Ð± ÐµÑĢÐ°Ð»ÑĮ
ĠÐ¿ÐµÑĢÐµÐ³Ð¾Ð²Ð¾ÑĢ Ñĭ
ĠÐ± ÑĥÑĪ
ĠÐ´Ð¶ ÐµÐºÑģ
ĠÐ¿ÐµÐ² Ð¸ÑĨÑĭ
ĠÑĤÐ²ÑĳÑĢ Ð´
ĠÐ¸ Ð½ÑĭÑħ
Ð¿ ÐµÑĪ
ĠÑģÑĤ Ð¾Ð¹
ĠÑħ Ð¾Ð¿
ĠÐ±ÐµÐ» Ð°Ñı
ĠÐ·Ð°Ð¿Ð°Ð´ Ð½ÐµÐµ
ĠÑįÐºÑģÐ¿ Ð¾Ð·
ĠÐ¿ Ðµ
ÐµÐ½ Ðº
ĠÑįÐ»ÐµÐºÑĤ ÑĢÐ¾Ð¿
ĠÐ¾ÑĩÐµÑĢÐµÐ´ Ð½Ð¾Ð¹
Ðº Ð¾Ð±
ÑģÑĤÐ²ÐµÐ½ Ð½ÑĭÐ¼
ĠÑģÐµÐ²ÐµÑĢ Ð½Ð¾Ð¼
ĠÑĥÐ³ Ð»Ð¾Ð²
ĠÑĢÐµ ÑĦ
ĠÐºÐ¾Ð» Ð¾Ð¼
ĠÑģÑĢÐµÐ´ Ðµ
ĠÐ½ÐµÐ·Ð°Ð² Ð¸Ñģ
Ð² Ð¾Ð·
ĠÐ³ Ð¸Ð»
Ð¾Ð½ Ð¸Ðº
ĠÐ·Ð° ÑģÑĤÑĢÐ¾Ð¹
ĠÑįÑĤÐ° Ð¶
ĠÐ»Ð¸Ñĩ Ð½ÑĭÐ¹
ĠÐ²Ð¸ÐºÑĤ Ð¾ÑĢÐ¸Ñı
ĠÐ¿ÐµÑĢÐµÐ´ ÐµÐ»
ĠÑĥÐ· Ð½Ð°
ĠÑģÑĤÐ¸Ð² ÐµÐ½
ĠÑĥÑĩÑĳÑĤ Ð¾Ð¼
ĠÑģ Ð¸Ð»Ð°
Ð¾Ð¶Ð´ ÐµÐ½Ð¸Ð¸
ĠÑĥÑĩÐ°ÑģÑĤÐ½Ð¸Ðº Ð°Ð¼
ĠÐ¿Ð¾Ð¸ÑģÐº Ð°
ĠÐ½Ð°Ð»Ð¸Ñĩ Ð¸Ð¸
ĠÐº ÑĢÐµÐ´Ð¸ÑĤ
Ð¿ Ñĭ
ÑĢÐ¾Ð² Ð°ÑĤÑĮ
Ð¾ÑĢÐ° Ð¼Ð¸
ĠÑįÑĤÐ° Ð¿Ð°
Ð¸Ð·Ð¼ Ðµ
ĠÑĤÐ¾Ð½ Ð¸
ĠÑģÐ¾Ð·Ð²ÐµÐ·Ð´ Ð¸Ðµ
ÑģÑĤ ÐµÑĢÐ°
ĠÐ¿ÑĢÐ¸ÑħÐ¾Ð´ Ð¸Ð»Ð¾ÑģÑĮ
Ð» ÐµÑĢÐ¾Ð²
ÐºÐ¾Ð² Ð°Ñı
Ñĸ Ñı
Ð¸Ñī Ð°
ĠÐ¿Ð¾Ð´Ð³Ð¾ÑĤÐ¾Ð² ÐºÐµ
ĠÐº ÐµÐ»ÑĮ
Ñİ Ñĩ
ĠÑħÑĥÐ´Ð¾Ð¶ ÐµÑģÑĤÐ²ÐµÐ½Ð½Ð¾Ð¹
ĠÑģ ÑįÐ¹
ĠÐ½ Ð±Ð°
ĠÑĦÑĢÐ°Ð½ÑĨÑĥÐ· ÑģÐºÐ°Ñı
ĠÐ¿Ð¾ÑģÑĤÐ°Ð½Ð¾Ð² Ð»ÐµÐ½Ð¸ÐµÐ¼
ĠÑģÐ¸Ð½Ð³ Ð»Ñĭ
ĠÑģ ÑĢÐ°Ð¶ÐµÐ½Ð¸Ðµ
Ð· Ð²
ÐµÑĢ ÑĤÐ¾
ĠÐ» ÐµÑĤÐ°
Ð½Ð¸Ðº Ð°Ñħ
ĠÐ¿Ð¸ÑĪ ÑĥÑĤ
ĠÐ¿ÑĢÐ¸ÑģÐ¾ÐµÐ´Ð¸Ð½ Ð¸Ð»ÑģÑı
ĠÐ¿Ð¾Ñį Ð·Ð¸Ð¸
ĠÐ·Ð°Ð¿ Ð¾Ð»Ð½
ĠÐ¾Ð±ÑĢÐ°Ð· ÑĥÐµÑĤ
ĠÐ¸Ð½ÑĤÐµÑĢÐ² Ð¸ÐºÐ¸
ĠÑģÐ¼Ð¾Ð» ÐµÐ½
ĠÐ¸ÑģÐ¿ÑĭÑĤ Ð°Ð½Ð¸Ñı
ĠÐ½Ð° Ð¼ÐµÑģÑĤ
ĠÑħ ÑĢÐ°Ð±
ĠÐ·Ð½ Ð°Ð½Ð¸Ñı
ĠÐ³Ð¾Ð½ ÐºÐ¸
ĠÑĪÐµÐ² ÑĩÐµÐ½ÐºÐ¾
ĠÑĢ Ð¾Ð¶
ĠÐ¾Ð± ÑĥÑģÐ»Ð¾Ð²
ĠÐ²Ð½ÑĥÑĤÑĢÐµÐ½ Ð½ÐµÐ¹
ĠÐ°Ð³ ÑĢÐµÑģÑģ
ĠÐ²ÐµÐ½ ÐµÑĨ
ĠÐºÑĢÐ°ÑģÐ½Ð¾Ð·Ð½ Ð°Ð¼
ĠÑģ ÐµÑģÑģ
Ð³ Ð¾Ð»ÑĮ
ĠÐ¿ÑĢÐ¸ÐºÐ°Ð· Ð¾Ð¼
ĠÐ¶ÐµÑģÑĤ Ð¾Ðº
ĠÐ°Ð»ÐµÐºÑģ ÐµÑı
ĠÐ°ÑģÑģÐ¾ÑĨÐ¸ Ð°ÑĨÐ¸Ñı
Ð¾Ð½ Ð¾Ð²Ð°
ĠÐ³Ð»Ð°Ð² Ð¾Ð¹
ĠÑĤÐµÑħÐ½ Ð¾Ð»Ð¾Ð³Ð¸Ñı
ĠÑģÐ½Ð°ÑĢ ÑıÐ´
ĠÐ·Ð´ÑĢÐ°Ð²Ð¾Ð¾ÑħÑĢÐ°Ð½ ÐµÐ½Ð¸Ñı
Ð¸ Ð¾Ð¿
ÑģÐº Ð¾Ð¿
Ð¸Ð´ Ð½ÑĭÐµ
ĠÑģÐºÐ¾ÑĢ Ð¾ÑģÑĤ
ĠÐ¼ÐµÑĤÐ¾Ð´ Ð¾Ð²
ĠÐ´ Ð°Ð»Ð¸
ĠÐ¾Ð· ÑĳÑĢ
ĠÐ½Ð°Ð·ÑĭÐ² Ð°Ð»Ð¸
ĠÐ°Ð± ÑģÑĥÑĢ
ĠÑİÐ¶ Ð½Ð¾Ð¼
ĠÑħÑĢÐ¸ÑģÑĤ Ð°
ĠÐ¼Ð¾Ð»Ð¾Ð´ÑĳÐ¶ Ð¸
ĠÐ´ÐµÑĢÐ¶ Ð°Ð²
ĠÑĤÑİÑĢ Ðº
ĠÐ½ÐµÐ·Ð°Ð²Ð¸Ñģ Ð¸Ð¼Ð¾
Ð»Ð° Ñı
ĠÐ¼Ð¾Ð» Ð¾ÑĤ
ĠÐ³ÑĢÐ°Ð¶Ð´Ð°Ð½ ÑģÐºÐ°Ñı
Ð¸ÑĢÐ¾Ð²Ð°Ð½ Ð¸ÐµÐ¼
ĠÐ»ÑİÐ± Ð¾Ð³Ð¾
ĠÐ±ÑĭÐ² Ð°ÐµÑĤ
ĠÐ¿Ð¾Ð´ÑĢÐ°Ð· ÑĥÐ¼
ĠÐµÐºÐ°ÑĤÐµÑĢÐ¸Ð½ Ð±ÑĥÑĢÐ³
ĠÑģ Ð¸ÑĨ
ĠÐ¼ÐµÐ´Ð¸ÑĨ Ð¸Ð½ÑģÐºÐ¾Ð¹
ĠÐºÑĢÐ¸ÑģÑĤ Ð¸Ð°Ð½
ĠÐ²Ð½ÐµÑĪ Ð½ÐµÐ¹
Ðµ ÐµÐ¼
Ð¾Ð» Ð¾Ð´
ĠÐ»ÑİÐ´ ÑıÐ¼
ĠÐ´ÑĢÑĥÐ· ÐµÐ¹
ĠÐ½Ðµ ÑĥÐ´
ĠÐ²Ñĭ ÑĢÐ°Ñī
ĠÐºÑĥÐ· ÑĮ
ĠÐ» Ð¾ÑĢÐ´
ĠÐ·Ð° Ð±Ñĭ
ÑĭÐ² Ð°Ð»ÑģÑı
ĠÐ´Ð¾Ðº Ð°
ĠÐ»ÐµÐ½ Ð¸Ð½
ĠÐ¿Ð¾Ð¿ÑĥÐ»ÑıÑĢ Ð½Ð¾ÑģÑĤÑĮ
Ð¾Ð½ ÑģÐºÐ¾Ð³Ð¾
ĠÑĥÐ´ Ð¼
ĠÐºÐ¸Ð½ Ð¾ÑĢÐµÐ¶Ð¸ÑģÑģ
ĠÑĦÐ¸Ð»Ð¸ Ð°Ð»
ĠÑģÐ»ÐµÐ´Ð¾Ð²Ð°ÑĤÐµÐ»ÑĮ Ð½Ð¾
Ðµ ÐµÐ²Ð°
ÐµÑģÑĤÐ² Ðµ
ĠÐ·ÐµÐ¼ Ð»ÐµÐ´
ĠÐ¼Ð°Ð¹ Ð¾ÑĢÐ°
ĠÑĢÐ°Ð±Ð¾ÑĤ Ð½Ð¸ÐºÐ¾Ð²
ĠÑıÐ² Ð½Ð¾Ðµ
ĠÐ½Ð°ÑģÐµÐ»ÑĳÐ½ Ð½Ð¾Ð³Ð¾
ĠÐ² Ð¾Ð¶Ð´
ĠÑıÐ² Ð»ÐµÐ½Ð¸Ñı
ĠÐ²Ð¾Ð´ Ðµ
ĠÐ¿ÐµÑĢÐµÐ²Ð¾Ð´ ÑĩÐ¸Ðº
ĠÐ²Ð¾Ð·Ð²ÑĢÐ°Ñī ÐµÐ½Ð¸Ñı
ĠÐ½Ð°Ð´Ðµ Ð¶Ð´Ð°
ĠÐ´Ð¸ÑĦ ÑĦÐµÑĢÐµÐ½ÑĨ
ÑĥÐ± Ð¸Ð¹
ĠÐ½Ð°Ð¿Ð¸Ñģ Ð°Ð½
ĠÐ¾Ð±Ðµ Ð¸Ñħ
ĠÐ¾Ð¿ÑĢÐ°Ð² Ð´
Ð± Ñİ
Ð»Ñı ÑĨÐ¸Ð¸
ĠÐ±ÐµÐ» ÑĭÑħ
ĠÐ±ÐµÑĢ Ð³
ĠÑĤÐ¸Ñħ Ð¾
ĠÑĢÐ°Ð±Ð¾Ñĩ Ð°Ñı
ÑĤ Ð°ÑĢ
ĠÐ° Ð¾
ĠÐ¸ÑģÐºÑĥÑģ ÑģÑĤÐ²Ðµ
ĠÐ¿ÑĢÐµÑĤÐµÐ½ Ð·Ð¸Ð¸
ÑĥÑĤ Ð¸
ĠÑĦ ÐµÐ¹
ĠÑĦ ÑĢÐµÐ³
ĠÐ½Ðµ Ñħ
Ð¾Ñĩ Ð½Ð¾Ð¼
ĠÐºÐ¾Ð½ÑĦ ÐµÐ´
ĠÐ·Ð´Ð¾ÑĢÐ¾Ð² ÑĮÑı
ĠÐµ ÑĢÐµÐ²
ĠÐ±Ð° ÑĢÐ°Ð½
ĠÐº Ð¾ÑĦ
ĠÐ¶ Ð¸ÑĤ
ĠÐ±ÑĢÐ° ÐºÐµ
ĠÐºÑĳÑĢ Ð»Ð¸Ð½Ð³
ĠÑģÐµÑĢ ÑĤ
ĠÐ¾Ð±Ð»Ð°ÑģÑĤ ÐµÐ¹
ĠÐ´ÑĢÑĥÐ³ ÑĥÑİ
ĠÐ²ÑĭÑģ Ð¾Ñĩ
ĠÑĥÐºÐ°Ð· Ð°ÑĤÑĮ
ĠÐ²Ð»Ð¸Ñı Ð½Ð¸Ñı
ĠÐ·Ð° ÑĦÐ¸ÐºÑģ
ĠÑıÐ²Ð»Ñı Ð»Ð°ÑģÑĮ
ĠÑģÐ¾Ð¾ÑĤ Ð½Ð¾ÑĪ
ĠÑģÐµÑĢÐ³ ÐµÐµÐ²
ĠÑĢÐ°ÑģÑĤ ÐµÐ½Ð¸Ðµ
ĠÑģÐ¾Ñģ Ð½Ð¾Ð²
ĠÑĦÑĥÑĤÐ±Ð¾Ð»ÑĮ Ð½Ð¾Ð¹
ĠÐ²ÐµÐ½Ð³ ÑĢÐ¸Ñı
ĠÑģÑĬÑĳÐ¼ ÐºÐ¸
ÐµÐ» Ð¸Ð½
ĠÑĢÐ° Ð¿
ĠÑĢÐ°ÑģÐ¿ ÑĢÐµÐ´
ĠÐ¼Ð¸ÑģÑģ Ð¸Ð¸
ĠÑĢÐµÐ´Ð°ÐºÑĤÐ¾ÑĢ Ð¾Ð¼
ĠÐ°Ð»ÐµÐºÑģÐ°Ð½Ð´ÑĢÐ¾Ð² Ð½Ð°
ĠÐ¿Ð¾ÑģÑĤ Ñĥ
ĠÑģÐ¸ÑģÑĤÐµÐ¼ Ð¾Ð¹
ĠÐ´Ð¸ÑģÐº ÑĥÑģÑģ
ĠÐ¿ÑĢÐ¾Ð¼ÑĭÑĪÐ»ÐµÐ½ Ð½Ð¾ÑģÑĤÑĮ
ĠÐºÐ¸ÑģÐ» Ð¾ÑĤÑĭ
ĠÐ² ÐµÐ³
ĠÑģÑĤÐ°ÑĢ Ð¾Ð³Ð¾
ĠÑĢÐµÐ³Ð¸Ð¾Ð½ Ð¾Ð²
ĠÑģÑĩÐ¸ÑĤ Ð°ÐµÑĤÐµ
ĠÐ½ÐµÐ± ÐµÑģ
ĠÐºÐ¾Ð»Ð¾Ð½ Ð¸Ð¸
ĠÐ¸Ð·Ð´ Ð°Ð½Ð¸Ð¹
ĠÐ¿ÑĢÐµÐ´Ð»Ð°Ð³ Ð°ÐµÑĤ
Ñ ŀ
ĠÐ²ÐµÑĢ Ð½ÑĥÐ²
ĠÐ¼ÑĥÐ·ÑĭÐº Ð°Ð»ÑĮÐ½Ð¾Ð³Ð¾
ĠÑĤÑĥÑĢÐ½ Ð¸ÑĢÐ¾Ð²
ĠÑģÐ°Ð¼Ð¾Ð»ÑĳÑĤ Ñĭ
ĠÐ³Ð¸Ð³ Ð°Ð½ÑĤ
ĠÐ´Ð¸Ð¼ Ð¸ÑĤ
ĠÑĤÐµÐ» ÐµÐ³
ĠÐ´Ð¾ÑģÑĤ Ð¾Ð¹
ĠÐ¼Ñį ÑĢÐ¸
ĠÑį Ð»Ð¸
ĠÑĢÐ°ÑģÐ¿ Ð¸Ñģ
ĠÑģÐ¾ÑĢ Ð¾Ðº
ĠÐ±ÑĢÐ°Ð·Ð¸Ð»ÑĮ ÑģÐºÐ¸Ð¹
Ðµ ÐµÑĤ
ĠÐºÐ½ ÑĢ
ĠÐ¾ÑģÐ¾Ð± Ð¾Ð³Ð¾
ĠÐ¾Ð± ÑģÑĤÐ°Ð½Ð¾Ð²
ĠÐ¿Ð¾ÑģÐ» ÐµÐ²Ð¾
ÐµÐ² ÑģÐºÐ¾Ð¼
ĠÐºÑĥÑĢ ÑģÐºÐ¾Ð¹
ĠÐ¸Ð²Ð°Ð½Ð¾Ð² Ð½Ð°
ĠÐºÐ¾ÑĢÐ¾ÑĤ ÐºÐ¾Ð¼
ĠÐ°Ð²ÑģÑĤÑĢ Ð¸Ñı
ĠÐ°ÑĢÑħÐ¸ÑĤÐµÐºÑĤ ÑĥÑĢÐ°
ĠÑĥÐ¿Ð¾Ð¼ ÑıÐ½
Ð± Ð°Ñģ
ĠÑħ ÑĢÑĥ
ĠÐ¿ÑĢÐ°Ð² Ð»ÐµÐ½Ð¸Ðµ
ĠÑģÐ° ÑĥÐ½Ð´
ĠÑĤÐµÐ¿ Ð»Ð¾
ĠÑģÑĤÑĢÐ°Ð½Ð¸ÑĨ Ð°Ñħ
ĠÐ»ÐµÐ½Ð¸Ð½Ð³ÑĢÐ°Ð´ ÑģÐºÐ¾Ð³Ð¾
ĠÐ±Ð°ÑģÐºÐµÑĤ Ð±Ð¾Ð»ÑĮ
ĠÐ· ÐµÑĢ
ĠÐ¸ÑģÐ¿Ð¾Ð»ÑĮÐ· Ð¾Ð²Ð°Ð»Ð¸
ĠÐ²Ð¾Ð´ Ð¾Ñģ
ĠÑĩÐµÑĤÐ²ÑĳÑĢÑĤ ÑĭÐ¹
ĠÐ¿ÐµÑĢÐ²ÐµÐ½ ÑģÑĤÐ²Ðµ
ĠÐ²Ð¾Ð´ Ð½Ð¾Ð¼
ĠÑĦÐ» Ð¾ÑĢÐ°
ĠÐ²ÑĭÑģÑĤÐ°Ð² ÐºÐµ
ĠÐ½Ð° Ð´ÐµÐ»
ÐºÐ¾Ð² Ð¾Ð³Ð¾
ĠÑİ Ð²
ĠÐ¸ÑģÑģÐ»ÐµÐ´Ð¾Ð² Ð°ÑĤÐµÐ»Ð¸
ĠÐ°ÐºÑĤÑĢÐ¸Ñģ Ñĭ
ĠÑģ Ð¸Ð±
Ð¾Ð²Ð°Ð» Ð°ÑģÑĮ
ĠÐ¸Ð·Ð¾Ð±ÑĢÐ°Ð¶ ÐµÐ½Ð¸Ð¹
ĠÐ°ÐºÑĤÐ¸Ð² Ð½Ð¾Ðµ
ĠÑģÐ»ÐµÐ´ÑĥÑİÑī Ð°Ñı
ĠÐ·Ð°Ñĩ Ð°ÑģÑĤ
ĠÐºÐ¾Ð»Ð»ÐµÐº ÑĨÐ¸Ð¸
ĠÐ¿ÑĢÐ¸Ð² ÐµÐ»Ð¸
ĠÑĤÑĢÐ¸Ð´ ÑĨ
ĠÐ±ÐµÐ· ÑĥÑģÐ»Ð¾Ð²
ĠÐ»ÐµÐ³ÐºÐ¾ Ð°ÑĤ
Ð¾ÑĢ Ñĥ
ĠÑģÐ¸ÑĢ Ð¸Ð¸
ĠÐ¿Ð¾Ð»Ð°Ð³ Ð°Ñİ
ĠÐ¸Ð½ÑĤÐµÑĢÐ½ ÐµÑĤÐµ
ĠÐ¿ÑĢÐ¾ÑĦÑģ Ð¾ÑİÐ·
ĠÐ³Ð¾ÑĢ Ð´
ĠÐ½Ð°ÑĨÐ¸Ð¾Ð½Ð°Ð»ÑĮ Ð½Ð¾Ð¼
ĠÑĨÐ¸Ðº Ð»Ð°
ĠÐ·Ð°ÑĩÐ°ÑģÑĤ ÑĥÑİ
Ð¸ ÑģÑı
ĠÐ´ ÑĥÑĢ
Ð°ÑĢ Ð¸Ð½Ð°
Ð°ÑĢ ÐµÐ½ÐºÐ¾
ĠÑĢÐ°Ñģ Ñĩ
ĠÐ¿Ð¾Ð»Ð¸ÑĤ Ð¸ÐºÐµ
ĠÑģÐ½ ÐµÐ³
ÑĢÐ¾ÑģÑĤ Ð°Ð½
ĠÐµÐ³Ð¸Ð¿ ÑĤÐ°
ĠÑĢÑĭÐ½ ÐºÐ°
ĠÐ¾ÑĤÑĤ ÑĥÐ´Ð°
ÐµÑĢ ÑĳÐ´
ĠÑİ Ð»
ĠÑĦÑĥÑĤÐ±Ð¾Ð» Ð°
ĠÐ¿ÑĢÐ¸Ð·Ð½ Ð°Ð²
ĠÐ´ÐµÐ» ÐµÐ½Ð¸Ñı
ĠÐ¼ÐµÐºÑģ Ð¸ÐºÐ¸
ÐµÐ½ ÐºÐ¾Ð²
ĠÐ´ ÐµÐ·
ĠÑģÐº ÑĢÑĭÑĤ
ĠÑģÐµÑĢ Ð²Ð¸Ñģ
ĠÐ¿ÐµÑģ ÑĩÐ°Ð½
ĠÑĥÑĩÐ°ÑģÑĤÐ² Ð¾Ð²Ð°ÑĤÑĮ
ĠÐ±Ð¾ÑĢÐ¸Ñģ Ð¾Ð²Ð¸Ñĩ
ÐµÐ½ ÑĨÐ¸Ñı
ĠÑĢÐµ ÑĨÐµÐ¿
ĠÐ±ÐµÐ· ÑĢÐ°Ð±Ð¾ÑĤ
ĠÐ¼ ÑįÑĤ
ĠÑĤÐµÑĢ Ð¼Ð¸Ð½Ð°
Ð»Ð¸ ÑĢ
ĠÐ¾Ð½ Ð»Ð°Ð¹Ð½
ĠÐ·Ð½ Ð°ÑĤÑĮ
ĠÐ³Ñĥ ÑģÑĤÐ°Ð²
ĠÐ¿Ð¾ÑģÑĤ Ð°
ĠÐ±ÑĭÐ² ÑĪÐµÐ¹
ĠÐ²ÐµÑī ÐµÑģÑĤÐ²Ð°
ĠÐµÐ²Ð³ ÐµÐ½Ð¸Ñı
Ð² ÑıÐ·
Ñħ Ðµ
ĠÑĢÑĥÑģ ÑģÐºÐ¸Ð¼
ĠÐ´ÑĢÐµÐ² Ð½ÐµÐ³Ð¾
ĠÐ²ÑģÐ¿Ð¾Ð¼ Ð¾Ð³
ĠÐ± ÑįÐº
ĠÐ¾Ð± ÑħÐ¾Ð´
ĠÑĢÐ°Ð½ Ð½Ð¸Ñħ
ĠÐ±ÑĭÑģÑĤÑĢ Ð¾Ð³Ð¾
ÑĥÐ´ Ð¸ÑĤÑĮ
ĠÐ³Ð¾ÑĢÐ¾Ð´ ÑģÐºÐ¸Ðµ
ÑĥÑī Ð¸Ðµ
ÑĮÑı Ð½Ð¾Ð²
ĠÐ½Ð°ÑħÐ¾Ð´ Ð¸ÑĤ
ĠÑĢÐµÐ¶Ð¸ÑģÑģÑĳÑĢ Ð¾Ð¼
ĠÐ²ÐµÐ´ÑĥÑī Ð¸Ð¹
ĠÑģÐ»ÑĥÑĩ Ð°Ð¸
ĠÐ´Ð¸Ð· Ð°Ð¼Ð±
Ð¾Ð» Ñĭ
Ð¸Ð½ Ñģ
ĠÑĥÑĩÐµÐ½ Ð¸ÐºÐ¾Ð²
ĠÑģÐ²ÑıÑīÐµÐ½ Ð½Ð¸Ðº
ĠÑĢÐµÐºÐ»Ð° Ð¼Ð°
ĠÐ»Ð¾Ð¼ Ð¾Ð½Ð¾Ñģ
ÑĮ ÐµÐ²Ð°
ĠÑĢÐ¾Ð´ Ð¶
ĠÐ²ÑĭÑģÐ¾Ðº Ð¸Ð¹
ĠÐºÐ¾Ð¼Ð¿Ð¾Ð· Ð¸ÑĨÐ¸Ñı
ĠÐ²ÑĭÐ¿ÑĥÑī ÐµÐ½Ð°
ĠÐ±Ð¾Ð³Ð¾ÑĢÐ¾Ð´ Ð¸ÑĨÑĭ
ĠÐ½ Ð¸ÑĤ
ÐµÐ² Ð¾Ð´
Ð»Ñı Ð»Ð¸
ĠÐ¼Ð¸Ð½ Ð½ÐµÑģ
ĠÐ²Ð°Ñģ Ð¸Ð»Ð¸Ñı
ĠÐ¾Ð±ÑģÑĥÐ¶Ð´ Ð°ÑĤÑĮ
ĠÐ´Ð¾Ð¿ ÑĥÑģÐº
ĠÑĢÐ° ÑĦÐ°
ĠÐ°ÑĤ Ð»Ð°Ñģ
ĠÑįÐ»ÐµÐºÑĤ ÑĢÐ¾Ð¼
ĠÐ¿ÑĢÐ¸Ð³ Ð»Ð°Ñģ
ĠÑģÐºÑĥÐ»ÑĮÐ¿ ÑĤÐ¾ÑĢ
ĠÐºÐ¾Ð½ÑģÐµÐ½Ñģ ÑĥÑģÐ°
ĠÐ²ÑģÐµÑĢÐ¾ÑģÑģ Ð¸Ð¹ÑģÐºÐ¾Ð¹
ĠÐ¿ÑĮÐµÑģ Ñĭ
ĠÐ²ÑĥÐ· Ð¾Ð²
ĠÑĢÐ° ÑĨÐ¸Ð¾Ð½
Ð°Ð¹ Ð»
ĠÐ°ÑĢÑħ Ð¸Ð¼
ĠÑģÐ»ÐµÐ´ÑĥÑİÑī ÐµÐµ
ĠÑĤÐ¾Ð» Ðº
ĠÐºÐµÐ¼ ÐµÑĢÐ¾Ð²
ĠÐ³ Ð°Ð´
ÐµÐ¼ Ð¾ÑģÑĤÐ¸
ĠÑģÐ² Ð¸Ð½
ĠÐ½ÐµÑģÐºÐ¾Ð»ÑĮ ÐºÐ¸Ð¼Ð¸
ĠÐ»Ð°Ð³ ÐµÑĢÑĮ
ĠÐ¿ÐµÑĢÐµÐµÑħ Ð°Ð»Ð°
ĠÑģ ÑĥÑĤÑĮ
ÐµÑĢ ÑģÐºÐ¾Ð³Ð¾
ĠÑħ Ð¸Ð»Ð»
ĠÐ¿Ð¾Ñģ Ð¼Ð¾ÑĤÑĢÐµÑĤÑĮ
ĠÑģÐµÐ»ÑĮ ÑģÐºÐ¸Ñħ
ÑĭÐ² Ð°Ð»Ð¸ÑģÑĮ
ĠÐ¿Ð¾Ð¼Ð¾Ñī Ð½Ð¸Ðº
ĠÐ´ÑĢÐµÐ² ÐµÑģ
ĠÐ½Ð°Ð» Ð¾Ð¶
ĠÑįÐºÐ·ÐµÐ¼Ð¿Ð»Ñı ÑĢÐ¾Ð²
ĠÑĢÐ°Ð· Ð²ÐµÑĢ
ĠÐºÑĢÐ°Ñģ Ð½ÑĭÐµ
ĠÐ»ÐµÐ¹ÑĤÐµÐ½ Ð°Ð½ÑĤÐ°
ĠÐºÑĢÑĭÐ¼ ÑģÐºÐ¾Ð¹
Ð¸Ñģ Ð»
Ð¸Ð² Ð¾ÑģÑĤ
ĠÑħ ÐµÐ¹
ĠÐ¿Ð¾ÑģÐ² ÑıÑĤ
Ñĭ Ð±
ĠÐ¸Ð½ÑĤÐµÑĢ ÑĦÐµÐ¹
ĠÑģÑĤÐ°ÑĢ ÑĭÑħ
ĠÑģÐ»Ð¾Ð¶ Ð½Ð¾
ĠÑģÐ¿Ð¾ÑĢÑĤÑģ Ð¼ÐµÐ½Ñĭ
ĠÐ½Ð¾Ð²Ð³Ð¾ÑĢÐ¾Ð´ ÑģÐºÐ¾Ð¹
ĠÐ´Ð¶Ðµ ÑĦÑĦ
ĠÑĦ Ð¸
ĠÐ¾ÑĤ Ð²ÐµÑĢ
ĠÑħ Ð°ÑĤ
ĠÑģÐ¿ÐµÑĨÐ¸Ð°Ð»ÑĮ Ð½ÑĭÑħ
ĠÐ½Ð¾Ñĩ ÑĮÑİ
ĠÐ±ÐµÑģÐº Ð¾Ð½ÐµÑĩ
ÑĥÑģ Ð¾Ð¼
ĠÑģÐµÑĢ Ð²
ĠÐ¼Ð°Ð» ÑĭÑħ
ĠÐ²ÐºÐ»ÑİÑĩ ÐµÐ½Ñĭ
ĠÑĦÐ¾ÑĤ Ð¾Ð³ÑĢÐ°ÑĦÐ¸Ñı
ĠÐ¼ÑĥÐ»ÑĮÑĤ Ð¸Ð¿
ĠÑĦÑĢÐµÐ´ ÐµÑĢ
ÑĢÐ° ÑģÑĭ
Ð¸Ð» Ð¾Ð²Ð°
ĠÑį ÑģÑģÐµ
ĠÐ´Ð¾ ÑģÐºÐ°
ĠÑĦÑĢ Ð³
ĠÑĥÑĤÐ²ÐµÑĢÐ¶Ð´ ÐµÐ½Ð¸Ñı
ĠÑĢÐµ ÑĦÐµÑĢ
ĠÐ±Ð¾ÑĢÑĤ Ñĥ
ĠÑĩÐµÑĤÐ²ÐµÑĢÑĤÑĮ ÑĦÐ¸Ð½
Ð»ÐµÐ½ Ð½Ð¾Ðµ
ĠÐºÐ¾Ð½Ñģ ÑĥÐ»ÑĮ
ĠÑģÐ¿ÐµÑĨÐ¸Ð°Ð»ÑĮ Ð½Ð¾Ð³Ð¾
ĠÐ¿Ð¾Ð»ÐºÐ¾Ð² Ð½Ð¸ÐºÐ°
ĠÐ¿ÑĢÐ¾Ð´ÑĥÐºÑĤ Ð¾Ð²
ĠÐ¿ ÑĥÑģÐº
Ð°Ð½ Ð½Ð°
ĠÐ½Ð° Ð¸Ð²
ÐµÐ»ÑĮ ÑģÐºÐ¾Ð³Ð¾
ĠÐ¿ÑĢÐ°Ð²Ð¸ÑĤÐµÐ»ÑĮ ÑģÑĤÐ²Ð¾Ð¼
ĠÐºÐ°Ñĩ ÐµÑģÑĤÐ²ÐµÐ½
ĠÐ²ÑĭÑĩÐ¸Ñģ Ð»
ĠÐ½ ÑĥÐ¶Ð´
ĠÐºÐ¾ÑĢ ÐµÑı
ĠÐ½ÐµÐºÐ¾ÑĤÐ¾ÑĢ ÑĭÐ¼
ĠÐ½Ð¸ÐºÐ¾Ð»Ð° ÐµÐ²Ð½Ð°
ĠÐ¿Ð¾Ð²ÐµÑĢÑħ Ð½Ð¾ÑģÑĤÑĮ
ĠÐ³ÑĢÑĥ Ð±
ÑĤ ÐµÐº
ĠÐ½Ðµ ÑģÐ¿
ĠÑİ Ð»Ð¸
ĠÑĪÑĤ ÑĢÐ°ÑĦ
ĠÐ¸Ð½ÑĤÐµÑĢÐµÑģ Ð¾Ð²
ĠÐ¼ Ð¸Ð»ÑĮ
Ð¾ÑģÑĤ ÑĥÐ´
ĠÐ·Ð°ÑĤ ÑĢÑĥÐ´
ĠÐ°Ð¼ ÑģÑĤ
ÐµÑĢÐ¸ Ð°Ð»Ð°
ĠÑĥÐ·Ð±ÐµÐº Ð¸ÑģÑĤÐ°Ð½Ð°
ĠÐ¿ÑĢ Ð¾Ð¹Ð´
ÑģÑĤÐ² Ð¸ÐµÐ¼
ĠÐ¼ÑĥÑĢ Ð¼Ð°Ð½
ĠÐ¼Ð¾Ð»Ð´Ð°Ð² Ð¸Ð¸
ĠÑĢÐ°Ð· ÑĥÐ¼Ðµ
ĠÐ²Ñģ ÑĳÐ¼
ĠÐ¿Ð°ÑĢ Ð¾ÑħÐ¾Ð´
ĠÐ¿ÑĢÐµÐ´ÑģÑĤÐ°Ð² Ð»ÐµÐ½Ð¸Ðµ
ĠÐ²Ð»Ð°Ð´ Ð¸Ð²Ð¾ÑģÑĤ
ĠÑģÑĤÑĢ Ð¾Ð³Ð¾
ÑĩÐ¸Ðº Ð°Ð¼Ð¸
ÑĦÐ¸Ð» Ð´
ĠÑģ ÑįÐ¼
ĠÐ² ÑıÑĤ
ĠÑĥÑĩÐ°ÑģÑĤ ÐºÐµ
ĠÑĩÐ°ÑģÑĤ Ð½ÑĭÑħ
ĠÐ¼Ð¾Ð½ ÑĥÐ¼ÐµÐ½ÑĤ
ĠÑģÐ¾Ðº Ð¾Ð»Ð¾Ð²
ĠÑģÐ¿ÐµÑĨÐ¸Ð°Ð»ÑĮ Ð½ÑĭÐµ
ĠÐ² ÐµÐ½ÑĤ
ĠÐ³ ÑĢÑıÐ·
ĠÐ¿ÑĢ Ð¸ÑĨ
ĠÐ±ÐµÐ» Ð¾Ð¹
ĠÐ²Ð¾Ð´ Ð¾Ð¿
ĠÐ¼Ð¾Ð³ Ð»Ð¾
ĠÐ¼Ð¸Ð» Ð°Ð½
ĠÑĦÐµÑĢ Ð´Ð¸Ð½
ĠÐ³ Ð°Ð½Ð´
ĠÑĢÐ¾Ð´ Ð¸Ð½Ñĥ
ĠÐ²Ð¾Ñģ Ñħ
ĠÑģÑĤÐ°ÑĢ Ð¾Ð¹
ĠÐ´ÑĢÐµÐ² Ð½Ð¸Ñħ
ĠÑĢÐ¾Ð± ÐµÑĢÑĤÐ°
Ð³ Ð±
ĠÐ¾Ð± ÐµÑĢ
ĠÑģÐ¾Ð± Ð¾ÑĢÐµ
ÑĢÐ°Ð± Ð°ÑĤÑĭÐ²Ð°
ĠÑģÐ¸Ð¼Ð²Ð¾Ð» Ð¸Ð·
ĠÐ½Ð°Ð´Ðµ ÑİÑģÑĮ
ĠÐ¼ ÐµÐº
ĠÐ·Ð° Ð¸Ð¼ÑģÑĤÐ²
ĠÑģÐ¾Ð²ÐµÑĤ ÑģÐºÐ¾Ðµ
ĠÐµÐ² ÑĢÐ°Ð·
ĠÐ°Ð» Ð»
ĠÑĤÑĢÐ°Ð½ ÑģÐ»Ð¸
ĠÐ¿Ð¾ÑģÑĤÑĢÐ¾ ÐµÐ½Ñĭ
ĠÐ½ÐµÐ¿Ð¾Ð½ÑıÑĤ Ð½Ð¾
ĠÐº ÑĥÑģ
Ð°ÑĢ Ð½ÑĭÑħ
ĠÐ¿ÑĢÐ¸ÑħÐ¾Ð´ Ð¸ÑĤ
ĠÑģÑħ ÐµÐ¼Ð°
ĠÑĤÐ¾Ð¿Ð»Ð¸Ð² Ð°
ĠÑģÐ¾Ð¾Ð±Ñī Ð¸Ð»
ĠÐ½Ð°ÑģÑĤÐ¾ÑıÑī Ð¸Ð¹
ĠÐ¿Ð¾ÑıÐ² Ð¸Ð»Ð¾ÑģÑĮ
ĠÐ³Ð°ÑĢ Ð¼Ð¾Ð½
ĠÐ»Ð¸Ð´ ÐµÑĢÐ¾Ð²
ĠÐ½ Ð¾ÑĢÑĤ
ĠÐ²ÑĭÑģÑĤÑĥÐ¿ Ð»ÐµÐ½Ð¸Ðµ
ĠÑģÐ¾Ð±ÑģÑĤÐ²ÐµÐ½ Ð½ÑĭÑħ
ĠÑĢÐ°ÑģÐº Ð¾Ð¿
ĠÑĤÐ°ÑĪÐº ÐµÐ½ÑĤ
ĠÐ²Ð¸Ð´ ÐµÑĤÑĮ
ĠÑģ ÑĳÐ»Ð°
ÐµÑģÑĤ Ð°
ĠÑĢÐ°Ð· ÑĢÐ°Ð±Ð°ÑĤ
Ð¸ÑĢÐ¾Ð²Ð°Ð½ Ð½ÑĭÐ¼
ÑįÐ½ ÐµÑĢÐ³
ĠÐ¿Ð¾Ð¿ÑĥÐ»ÑıÑĢ Ð½ÑĭÑħ
ÐµÐ² ÑģÐºÐ¾Ðµ
ĠÑĩÐµÑĢ ÑĤÑĭ
ÑĮÑı Ñħ
ĠÐ·Ð°Ð³ ÑĢÑĥÐ¶
ĠÐ½ÐµÐ¼ÐµÑĨ ÐºÐ¸Ðµ
ĠÑĢÑĭÐ½ Ð¾Ðº
ĠÑĦ Ð¸ÐºÑģ
ÑĥÐ¼ Ð¸
ĠÑĤÑĥÑĢÐµÑĨ ÐºÐ¾Ð¹
ĠÐ² ÑĢ
Ñī Ð¸ÐºÐ¾Ð¼
ĠÐ¾Ð¿ ÑĢÐ¾Ð²
ĠÑĦÑĢÐ°Ð½ ÐºÐ¾
ĠÐ°Ð»Ðº Ð¾Ð³
ĠÐ¾Ð± ÑĭÐ³
ĠÑı Ð±
ĠÐ¸ÑģÐ¿Ð¾Ð»Ð½ ÐµÐ½Ð¸Ð¸
ĠÐ²ÐµÑĤ Ð²
ĠÐ¼ÑĥÐ¶Ðµ ÑģÑĤÐ²Ð¾
Ð¾ÑĤÐµ Ð°ÑĤ
ĠÐ²Ð¾ÑģÐ¿ Ð¾Ð»ÑĮÐ·
Ð¿ Ð¾Ð²
ÐµÐ´ Ð½ÐµÐ²
ĠÐ¿ÑĢÐ°ÐºÑĤ Ð¸ÐºÐ°
ĠÑıÐ½Ð´ ÐµÐºÑģ
ĠÐ´Ð¶Ð¾Ð½ Ñģ
ĠÐ¿ÑĢÐ¸Ð½Ð°Ð´Ð»ÐµÐ¶ Ð½Ð¾ÑģÑĤÑĮ
ĠÑģÐ»ÑĥÑĩÐ°Ð¹ Ð½Ð¾
ÐµÐ½ ÐµÐ¹
ĠÑģÑĤ Ð¾Ð»ÑĮÐºÐ¾
ĠÐºÐ¾Ð»Ð¸ÑĩÐµ ÑģÑĤÐ²Ðµ
ĠÐ·Ð²ÑĳÐ·Ð´ Ð½Ð°Ñı
ĠÐ¼ ÐµÐ¼Ñĥ
ĠÑĦÐ¾ÑĢÐ¼ ÑĥÐ»Ñĭ
ĠÐ¾Ð¿Ð¸Ñģ Ð°Ð½
ĠÑıÐº Ð¾Ð±
ĠÐ¼ÑĥÐ½Ð¸ÑĨÐ¸Ð¿Ð°Ð»Ð¸ÑĤÐµÑĤ Ñĭ
ĠÑģÑĥÐ±ÑĬ ÐµÐºÑĤ
ĠÑĢ ÑĥÐ»
ĠÐ½Ð°Ñĩ Ð°ÑĤÐ¾
ĠÐ²ÐºÐ»ÑİÑĩ ÐµÐ½Ð¸Ñı
ĠÐ¾ÑĦÐ¸ÑĨÐ¸Ð°Ð»ÑĮ Ð½ÑĭÑħ
ĠÐ¿ÑĢÐ°Ð²Ð¾ÑģÐ»Ð°Ð² Ð½Ð°Ñı
ÑĢÐ¸Ð´ Ð¶
ĠÐ´ÐµÑıÑĤ ÐµÐ»ÐµÐ¹
ĠÐ¿ÑĢÐ¾ÑĪÐ» Ð¾Ð³Ð¾
ĠÐ¾ÐºÑĢÐµÑģÑĤ Ð½Ð¾ÑģÑĤÑıÑħ
Ð°Ð» ÑıÐ¼Ð¸
ĠÐ¿Ð¾Ð» ÐºÑĥ
Ð½Ñı ÐºÐ°
Ð¾Ð²Ð°Ð» Ð¾ÑģÑĮ
Ð°ÐµÐ¼ Ð¾Ð³Ð¾
ĠÑģÐ¿ÑĥÑĤ Ð½Ð¸Ðº
ĠÑģÑĤÐ°ÑĢÐ° Ñı
ĠÐ²ÐµÑĢÑĤÐ¾Ð» ÑĳÑĤ
ĠÐ¸Ð½ÑĤÐµÐ»Ð»ÐµÐºÑĤ Ñĥ
ÐµÐ²Ð¸Ñĩ Ð°
ĠÐ¼Ð¾Ð³ Ð¸Ð»Ð°
ĠÐ³Ð¾Ð½ ÐºÐµ
ĠÐ¸Ð·ÑĥÑĩ ÐµÐ½Ð¸Ðµ
ĠÐºÐ¾Ð· Ð»Ð¾Ð²
ĠÑĢÐµÐ±ÑĳÐ½ ÐºÐ°
ĠÑĥÑĤÐ²ÐµÑĢÐ¶Ð´Ð° ÐµÑĤ
Ð» ÐµÑģ
ĠÑģÐµÐ¼ ÐµÐ½
ĠÐ¿Ð¾Ð³Ð¸Ð± ÑĪÐ¸Ñħ
ĠÐ´Ð¶ ÐµÑĢ
ĠÑįÐ½ Ð´ÑĢ
ĠÐºÑĢÐ¸ÑģÑĤ Ð¾ÑĦ
ĠÐ½ÑĢÐ°Ð² Ð¸ÑĤÑģÑı
ĠÑĤ Ð¾ÐºÐ°
ĠÑĩ ÐµÐ±
ĠÐ°ÑĢ Ñģ
ĠÐ¿ÑĢÐ¾Ð´ Ð²Ð¸Ð¶
ĠÐ½ÐµÐ¿ Ð»Ð¾
ĠÑģÐ² ÐµÐ¶
ĠÐ¿ÑĢÐµÐ´ ÑĬÑıÐ²
ĠÐ²Ð¾Ð» ÐºÐ¾Ð²
ĠÑĢÐ°ÑģÐ¿ÑĢÐ¾ÑģÑĤÑĢÐ°Ð½ ÐµÐ½Ð¸Ñı
ĠÐ¿ÑģÐ¸Ñħ Ð¾Ð»Ð¾Ð³Ð¸Ð¸
ĠÐ¼Ð°Ð½Ñĩ ÐµÑģÑĤÐµÑĢ
ĠÐ»ÐµÑĤ Ð¾
ĠÐ¿ÑĢÐ¾ÑģÑĤ Ð°Ð²
ĠÐ¼ ÑİÐ·
ĠÑĩ Ð»ÐµÐ½Ð°
ÑĥÑİÑī ÑĥÑİ
ĠÐ¿Ð¾Ð² ÐµÐ´ÐµÐ½Ð¸Ñı
ĠÑĢÐ¾ÑģÑģÐ¸Ð¹ ÑģÐºÐ¸Ðµ
ĠÑĥÑģÑĤÐ°Ð½Ð¾Ð² Ð¸ÑĤÑĮ
ĠÑģÐ¿Ð¾ÑģÐ¾Ð± Ð½Ð¾ÑģÑĤÐ¸
ĠÑĥÐ¿ÑĢÐ°Ð²Ð»ÐµÐ½Ð¸Ðµ Ð¼
ÐµÐ½ Ð±ÐµÑĢÐ³
ĠÐ½ Ð¸ÐºÐ¸
ĠÐ¿Ð¾Ð´ Ð²Ð¸Ð³
ĠÐ´Ð¾Ð¿Ð¾Ð»Ð½ ÐµÐ½Ð¸Ðµ
ĠÐ´ ÑĢÐ°Ð³
ĠÐ°ÑĢ Ð½
ĠÑģÐ¿Ð¾ÑģÐ¾Ð± Ð½Ð¾ÑģÑĤÑĮ
ĠÑĦÑĥÐ½Ðº ÑĨÐ¸Ð¹
ĠÑģÑĭÐ³ ÑĢÐ°Ð»Ð°
ÑĮ ÐµÐ¹
ĠÐ³Ð¾Ñģ Ð¿
ĠÐ·Ð°Ð» Ð¸Ð²Ð°
ĠÐ¿ÑĢÐ¸Ð´ ÐµÑĢÐ¶
ĠÐ½ÐµÐ¾Ð±Ñĭ Ñĩ
ĠÐ² ÑĤ
ĠÐ¿ÑĢÐ¸ Ð¾ÑĢ
ĠÐ½ÐµÐº Ð¾ÑĢÑĢÐµÐºÑĤ
ĠÑģÑĤÐµÐ¿ Ð°Ð½Ð¾Ð²Ð¸Ñĩ
ĠÐ²Ð¾ÑģÑģÑĤÐ°Ð½Ð¾Ð² Ð»ÐµÐ½Ð¸Ðµ
Ñģ Ð´
ĠÐ¸Ð»ÑĮ Ð¸Ñĩ
ĠÑĢ Ð¾ÑĤÐ°
ĠÐ½Ðµ Ð¾ÑĦÐ¸ÑĨ
ĠÐ¿Ð¾Ñģ Ð¼Ð¾ÑĤÑĢ
ĠÐ¾ÑģÐ½Ð¾Ð² Ð½ÑĭÐ¼Ð¸
ĠÐ¸Ð·Ð²ÐµÑģÑĤ Ð½Ð¾Ð¹
ĠÑİÐ¶ Ð½ÐµÐµ
ĠÐ¿ÑĢÐµÑģ Ð²
ĠÑĥÐ´Ð°ÑĢ Ð½ÑĭÐµ
ĠÑĥÐ¿Ð¾Ð¼ Ð¸Ð½Ð°
ĠÐ± Ð¾ÑģÑĤ
Ð¾Ñĩ Ð½ÑĥÑİ
Ð»ÐµÐ½ Ð½ÑĭÐ¼Ð¸
ĠÐ¿ÐµÑĢÐµÐ¸Ð¼ÐµÐ½ Ð¾Ð²Ð°Ð½Ð¸Ñı
ĠÐ²Ð²ÐµÐ´ ÐµÐ½Ð¸Ðµ
ĠÑģ ÐµÐ¿
ĠÐ¿ÑĢÐ¸Ð½ Ð¾Ñģ
Ð°Ñī Ð¸Ðµ
ĠÐ¼ÐµÑĢ Ðº
ĠÑĪÐ² ÐµÑĨÐ¸Ñı
Ð»Ð¸ Ð¶Ðµ
ĠÑįÐ½ÐµÑĢÐ³ Ð¸Ñı
ĠÑĢÐµ Ð¾ÑĢÐ³Ð°Ð½
ĠÐ¿Ð¾Ð´Ð´ÐµÑĢÐ¶ ÐºÐ°
ĠÐ¼Ð¾Ð· Ð³Ð°
ĠÐ°ÑĤÐ¼Ð¾Ñģ ÑĦ
Ð¾ÑĤ Ð°Ð½
ÐµÐ´ Ð¾Ð²
ĠÑĪ Ð¸
ĠÐºÐ»ÑĥÐ± Ð½Ð°Ñı
ĠÐ±Ð¾ ÑĳÐ²
ĠÐ²Ð¿ÐµÑĩÐ°ÑĤ Ð»ÐµÐ½Ð¸Ðµ
Ð°Ð² ÑĪÐµÐ¹
ĠÐ¾ÑĤ Ð²ÐµÑĢÐ³
ĠÑģÐ¾Ð·Ð´ Ð°Ð½Ð¾
ĠÑĦÐ¸Ð½ Ð°Ð»Ð¸ÑģÑĤ
ĠÐ¿Ð¾ÑģÑĢÐµÐ´ ÑģÑĤÐ²Ð¾Ð¼
ĠÐ±Ð°ÑĪÐºÐ¾ÑĢÑĤ Ð¾ÑģÑĤ
ĠÑģÐ¿ ÑĢÐ°ÑĪ
ĠÐ¾Ð¿Ð¸Ñģ ÑĭÐ²Ð°
ĠÐ²Ð¾ÐµÐ½ Ð½ÑĭÐ¼
ĠÑĤ ÐµÐ·
ĠÑĢÑĥÐºÐ¾Ð²Ð¾Ð´ Ð¸ÑĤÐµÐ»Ñı
ĠÐ²ÑĭÐ´ Ð²Ð¸Ð½
ĠÐ¿ÑĥÑģÑĤ Ñĭ
ĠÐ¿ÑĢÐ¸ÑĪ Ð»Ð¸
ĠÐ²ÑĭÐ¿ÑĥÑģÑĤ Ð¸Ð»
ĠÐ±ÑİÑĢÐ¾Ðº ÑĢÐ°ÑĤ
ĠÑģÑĥÑĤ Ð¾Ðº
ĠÐ³ Ð¾Ð½Ñĩ
Ð¸Ð² ÑĪÐµÐ¹
ĠÐ½ÐµÐ´ ÐµÐ»Ñı
ĠÑģÑĤÑĢÑĥÐºÑĤ ÑĥÑĢÐµ
Ð°Ð± ÐµÑĤ
ĠÐ²Ð°Ð¶ Ð½ÑĭÐ¼
ĠÐ¿ÑĢÐ¾Ð¸Ð³ ÑĢÐ°Ð»
ĠÐ¾ÐºÐ¾Ð½Ñĩ Ð°Ð½Ð¸Ðµ
ĠÐ¿Ð»Ð°Ð½ ÐµÑĤÑĭ
ĠÐ¶ÑĥÑĢÐ½Ð°Ð» Ð°Ñħ
ÑĢ Ð¾Ð½Ð°
Ð°Ð½ Ðº
ĠÐºÐ¾Ð¼Ð°Ð½Ð´ ÑĥÑİÑīÐ¸Ð¹
ĠÐ¾Ð±ÑĬÑıÐ² Ð»ÐµÐ½Ð¾
ĠÐº ÐµÐ½ÑĤ
ĠÐ³Ð¾ÑĢÐ¾Ð´ Ñĥ
ÑıÐ½ ÑģÐºÐ¸Ð¹
ĠÐºÐ¸Ð½ Ð¾ÑĤÐµÐ°ÑĤ
ĠÐ¾ÑĤÐ¿ÑĢÐ°Ð² Ð»ÐµÐ½
ĠÐºÐ¾Ð½ÑģÑĤÐ°Ð½ÑĤÐ¸Ð½ Ð¾Ð²Ð¸Ñĩ
ĠÐ´Ð² ÑĥÐº
ĠÐ²Ð¾Ð·Ð½Ð¸Ðº Ð°ÐµÑĤ
ÑĨ Ð¾Ð²Ð°
ÑĢÑĭ ÑĤÑĮ
ĠÐ¸Ð³ Ð½Ð¾ÑĢ
ĠÐ¶Ð¸Ð² ÑĭÑħ
ĠÐ·Ð°ÐºÐ»ÑİÑĩ ÐµÐ½Ð¸Ñı
ĠÐ¼Ð¾ÑĤÐ¸Ð² Ð°Ð¼
ĠÐ´ ÑĮ
ĠÑįÐºÑģÐ¿ Ð¾Ð½
ĠÑĤÑĢÑĥÐ´ Ð¾Ð²
ÑĪÑĤÐ° Ð´ÑĤ
ÑĥÐ» Ð¾Ð²
ĠÑĤÐµÐ»ÐµÐºÐ°Ð½ Ð°Ð»
Ð¾ÑĢ ÑģÐºÐ¾Ð³Ð¾
ÐµÐº ÑĨÐ¸Ð¸
ĠÐ´Ð¶ Ð¾Ð²Ð°Ð½
ĠÑĥÑĩÑĢÐµÐ¶Ð´ ÐµÐ½Ð¸Ð¹
ĠÐºÐ¾Ð»ÑĥÐ¼Ð± Ð¸Ð¸
ĠÑĨÐµÑĢÐµÐ¼ Ð¾Ð½Ð¸Ð¸
ĠÐ²ÐµÐ½ÐµÑģ ÑĥÑį
ĠÐ¾ Ð»ÐµÐ½
ĠÐ´ Ð»Ð¸Ð½Ñĭ
ĠÑİ Ð³Ð°
ÑİÑī ÐµÐ¼
ĠÐ¿Ð¾Ñĩ ÑĳÑĤÐ°
ĠÐ·Ð°Ñħ Ð²Ð°Ñĩ
ĠÐ½Ð° ÑĪÐµÐ³Ð¾
ĠÑĢÐµÑĪ ÐµÐ½Ð¸Ñİ
ĠÐ¿Ð»Ð¾ÑīÐ°Ð´ ÑĮÑİ
ĠÑĤÐµÑħÐ½ Ð¸ÑĩÐµÑģÐºÐ¸Ð¹
ĠÐ²Ð¾ÑģÑģÑĤÐ°Ð½Ð¾Ð² Ð»ÐµÐ½Ð¸Ñı
ĠÐ¾ÐºÐºÑĥÐ¿ Ð°ÑĨÐ¸Ð¸
Ñĩ Ð°ÑģÑĤ
ĠÐ¿Ð¾ÑıÐ² Ð»ÑıÑİÑĤÑģÑı
ĠÐ»Ð¸Ñĩ Ð½Ð¾Ðµ
ĠÐ²Ð¾ÑģÑĮ Ð¼Ð¸
ĠÐ·Ð°Ð±Ð¾Ð»ÐµÐ² Ð°Ð½Ð¸Ñı
ĠÐ¸ ÑĢÐ°Ð½Ð°
Ð¸Ð² ÑĪÐµÐ¹ÑģÑı
ĠÐ² ÐµÐ¹
ĠÐ¿ÑĢÐµÐ´Ð¼ ÐµÑĤÐ°
ĠÐ¼ ÑįÐ½
ĠÑĪ ÐµÑĦ
ĠÐ´ÐµÐ¿ Ð¾
ĠÐ·Ð°Ñī Ð¸ÑĤÐµ
ĠÐ½Ð°Ð·ÑĭÐ² Ð°ÐµÑĤ
ĠÐ¿Ð°ÑĤÑĢÑĥÐ»Ð¸ ÑĢÑĥ
ĠÐ¼Ð½Ð¾Ð¶ ÐµÑģÑĤÐ²Ð°
ĠÑģÐµÐ³ Ð¼ÐµÐ½ÑĤ
Ñĩ ÐµÑĢ
ĠÑĤ Ñĳ
ĠÑħ ÑĥÐ½
ĠÐ¿ÑĢÐ¾Ð² ÐµÐ»
ĠÐ¿ÑĢÐ¾ÑĤÐ¸Ð² Ð¾Ð¿
ĠÑĤÐµÐºÑģÑĤ Ð¾Ð²
ĠÑĥÑģÐ¿ÐµÑħ Ð¾Ð¼
ĠÑģÑĥÑħ Ð¾Ð¿ÑĥÑĤ
ĠÐºÐ¾Ð¼Ð¿ÑĮÑİÑĤÐµÑĢ Ð½ÑĭÑħ
ĠÑĤÑĢÐ°Ð´Ð¸ÑĨÐ¸Ð¾Ð½ Ð½Ð¾
ĠÐ¿ÐµÑĢÐµÐ²ÐµÐ´ ÑĳÐ½
ĠÑĢÐ°Ð·ÑĥÐ¼Ðµ ÐµÑĤÑģÑı
ĠÑģÐ²ÑıÑĤ ÑĭÐµ
ĠÐ¿ÑĢÐ¾Ð´Ð¾Ð»Ð¶ ÐµÐ½Ð¸Ðµ
ĠÐ´ Ð¸Ð²
ĠÐ± Ð°Ð»ÑĮ
ĠÐºÐ° ÑĢÐ°ÑĤ
ĠÐ¿ÑĢÐ¸Ð½Ð¸Ð¼ Ð°Ð»Ð¸
ĠÐºÐ°ÑĦÐµÐ´ ÑĢÐ°Ð»ÑĮ
ĠÐ¿ÑĥÑĪ ÐºÐ¸
ĠÐ¸ÑģÑĤÐ¾ÑĢ Ð¸ÑĩÐµÑģÐºÐ°Ñı
ĠÑģÑĤÐ°Ð½ ÑĨÐ¸Ð¹
ĠÐ²ÐµÑĢÑħ Ð½Ð¸Ð¹
ĠÐ½ÐµÐ· Ð°ÐºÐ¾Ð½
ĠÑģÐ¾Ñģ ÑĥÐ´
ĠÐ¾Ð±Ð²Ð¸Ð½ ÐµÐ½Ð¸Ñı
ÐµÐ´ Ñĭ
ĠÐ¿Ð¾Ð» Ð½Ð¾Ð³Ð¾
ÑĥÑİÑī Ð¸Ð¼Ð¸
ĠÐ½Ð°ÑģÑĤ Ð°
ĠÑģÑĥÐ´ÑĮ Ð±Ð°
ĠÐ¾ÑģÐ°Ð´ ÐºÐ¾Ð²
ĠÑĥÐ´Ð¼ ÑĥÑĢÑĤ
ĠÑģ Ð³
ĠÐ² Ð»Ð°Ð¶
ĠÐ¼ ÑįÐ¹
Ð¸ÑĤ ÐµÑģÑĮ
ĠÐºÐ°Ðº ÑĥÑİ
Ð¾Ð»Ð¾Ð³ Ð°
ĠÐ¸ÑģÐ¿Ð¾Ð»ÑĮÐ· Ð¾Ð²Ð°Ð½Ð¸Ð¸
ĠÐºÐ¸Ð½Ð¾ÑĦÐµÑģÑĤ Ð¸Ð²
ĠÐ¿Ð° ÑĨÐ¸
ĠÐ¿ÑĢÐµÐ´ÑģÑĤÐ°Ð²Ð»Ñı Ð»
ĠÐ¿Ð¾Ð´Ðº Ð»ÑİÑĩ
Ð» Ð°ÑĢ
ĠÐ¼ ÐµÑĤÐ°
ĠÐ±Ð¾Ð»ÑĮÑĪ Ð¾Ð¼
ĠÐ°ÑĢÐ³ÑĥÐ¼ÐµÐ½ÑĤ Ð¾Ð²
ĠÐ¾Ð´ÐµÑĢÐ¶ Ð°Ð»
Ñĥ Ð°Ð½
ĠÑįÐ¿Ð¸Ð·Ð¾Ð´ Ð¾Ð²
ĠÐ¿ÑĢÐ¾Ð´Ð°Ð¶ Ð¸
Ð°Ð» Ð¸Ð½
ĠÑĦ Ð¸ÑĪ
ĠÐ¾Ð³ Ð½Ñı
ĠÐ¼Ð°Ñģ ÑģÑĭ
ĠÐ½Ð° ÑĨÐ¸Ð¹
ĠÐ° ÑģÐº
ĠÑĨ ÐµÐ·
ÑĥÑħ Ð°
Ð¾ÑĦ Ð¸Ð·
ĠÐ²Ð¸Ð´Ðµ Ð¾Ðº
ĠÐ¼ Ð»ÐµÐº
ĠÑĢÐ°Ð·Ð¼ ÐµÑĢÐ°
ĠÐ¼Ð¾Ð½Ð°ÑģÑĤÑĭ ÑĢÐµ
ĠÐ³Ð½ ÐµÐ·Ð´
ĠÐº ÑįÑĢ
ĠÐ´ Ð°Ð±
ĠÐ´ ÑĮÑı
ĠÑĢ Ð¸Ð¶
ĠÑĥÐ± ÐµÐ¶
ĠÑįÐºÑģÐ¿ Ð¾ÑĢÑĤ
ĠÐ¿Ð¾Ð»Ð¾Ð² Ð¸Ð½Ð°
ĠÐºÐ¾ÑĢÐ¾ÑĤÐºÐ¾Ð¼ ÐµÑĤÑĢÐ°Ð¶
Ñģ Ð¸Ñı
ĠÐ·Ð° Ð¶
ĠÐ·Ð° ÑĢÐ°Ð½
ĠÑģÐµÑĢÑĮ ÐµÐ·
ĠÐ½Ð¾Ð² Ð¾Ð´
ĠÑĢÐ¾Ð´ Ð¸ÑĤÐµÐ»ÐµÐ¹
ÑĩÐµÑģÑĤÐ² Ð°
ĠÐ½ÐµÐ¼ÐµÑĨ ÐºÐ°Ñı
ĠÑĢÐ¸Ð¼ ÑģÐºÐ¾Ð³Ð¾
ĠÑģÑħ Ð¾Ð¶
ĠÐ²Ð¾ÑĢ Ð¾Ð±
ĠÐ´ÑĢÑĥÐ¶ Ð±Ñĭ
ĠÐ´ ÑĥÐ±Ð»
ĠÐ±ÑĢÐ¸ÑĤ Ð°Ð½ÑģÐºÐ¾Ð³Ð¾
ĠÐ¾ÐºÑĢÑĥÐ¶ Ð°ÑİÑīÐµÐ¹
ĠÐ½ÐµÑĦ ÑĤÐ¸
ĠÐ¼Ð»ÐµÐº Ð¾Ð¿Ð¸ÑĤ
ÑĢÐ°Ð» ÑģÑı
ĠÐºÐ°Ð½ Ð°Ð´Ðµ
ĠÐ¾ÑģÑĤÐ°ÑĤ ÐºÐ¸
Ñģ Ð¸Ñģ
Ð· Ñĥ
Ð¸Ð² ÑĪÐ°Ñı
Ð¸Ð· Ð¼Ñĥ
ĠÑģÐ° ÑĥÐ´
ĠÐ¿ÑĢÐ¾Ð²Ð¾Ð´ Ð¸Ð»Ð¸ÑģÑĮ
ĠÐ±Ñĭ ÑĤÐ¾Ð²
ĠÑģÑİÐ¶ ÐµÑĤÐ°
ĠÐ¿ÑĢÐµÐ´ÐµÐ» Ñĭ
Ð· Ð°Ñģ
ĠÐ¾ÑĤ Ð½ÐµÑģ
ĠÐ¾ÑģÐ½Ð¾Ð²Ð°Ð½ Ð½ÑĭÐµ
ĠÐ±ÑĭÐ² ÑĪÐ°Ñı
ĠÐ´ÑĢÐµÐ² Ð½ÐµÑĢ
ĠÐ·ÐµÐ» Ð°Ð½Ð´Ð¸Ð¸
ĠÑĦÐ¸Ð»Ð¾ÑģÐ¾ÑĦ Ð¸Ñı
ĠÑĢÐ°Ð·Ð²ÐµÐ´ ÐºÐ¸
Ð½ Ð¾Ð»
Ð¾Ð¶ Ð°Ð½
ĠÐ¿ÐµÑĢÐµÐ¸Ð¼ÐµÐ½ Ð¾Ð²Ð°Ð½Ð¾
ĠÐ³ Ñİ
ĠÐ¿Ð¾ÑģÐ¾Ð»ÑĮ ÑģÑĤÐ²Ð¾
ÐµÐ¹ ÑĢÐ¾
ĠÐ½Ð°Ð·ÑĭÐ² Ð°ÑĤÑĮ
ĠÑģÑĥÐ¿ ÐµÑĢÐº
ĠÐºÐ¾ÑĢÐ¾ÑĤ ÐºÐ¾
ĠÐ¿Ð»Ð°Ð² Ð»ÐµÐ½Ð¸Ñı
ÑĤ ÐµÑĢÐ°
ĠÐ²Ð°Ñģ Ð¸Ð»
ĠÑģÐµÐºÑĢÐµÑĤ Ð°ÑĢÐ¸
ĠÐ¾Ð± Ð¾ÑģÐ½Ð¾Ð²
ĠÐ¾ÑĤ ÑĢÐ°Ñģ
ĠÐ²Ð½ ÑĥÐº
ĠÑģÐ¾ÑģÑĤÐ¾Ñı Ð»Ð°
ĠÐ°Ðº ÑĨÐ¸Ð¹
ĠÐ¿ÑĢÐ°Ð²Ð¸Ð» Ð°Ñħ
ĠÑĢÑĭÐ½ ÐºÐµ
ÑĤÐ¾ ÑĦ
Ð°Ð¹ Ð´
ĠÑģÐ» Ð¸Ñı
ĠÑģÐ» ÐµÐ¿
ĠÐ¾Ð´Ð¸Ð½ Ð°Ðº
ĠÐ³ÑĢÐ°Ð½ Ð¸ÑĨÐ°
ĠÐ¼ÑĥÐ¶ ÑģÐºÐ¾Ð¹
ĠÐºÐ°Ð¶Ð´ ÑĭÐµ
ĠÑĤÑĢÐ°Ð´ Ð¸ÑĨÐ¸Ñı
ÑĢÐ°Ð½ ÑĤÐ¾Ð²
ĠÑĥÑĤ Ð²ÐµÑĢÐ´
ĠÐ¶ Ð¸ÑĤÐµÐ»ÑĮ
ĠÐ¿ÑĢÐ¸Ð³ Ð¾ÑĤÐ¾Ð²
ĠÑĤÑĢÐµÑĤÑĮ ÐµÐ¼
ĠÑĢÐ°Ð±Ð¾Ñĩ ÐµÐ³Ð¾
ĠÑĩÑĳÑĢ Ð½Ð¾Ð³Ð¾
ĠÑģÐµÑĢÐ´ ÑĨÐ°
ĠÐ¾ÑĤÐ¾Ð± ÑĢÐ°Ð¶
ĠÑĩ Ð°ÑĪ
ĠÐ½ÐµÐ¼ ÑĨÑĭ
ĠÑģÑĤÐ°ÑĤÑĮÑı Ð¼
ĠÐ¾Ð¿ÑĢÐµÐ´ÐµÐ» Ð¸ÑĤÑĮ
ĠÐ¼ÐµÐ» ÐºÐ¸Ñħ
ĠÐ²Ð°ÑĢÐ¸Ð°Ð½ÑĤ Ð¾Ð²
ĠÑģÐµÐ· Ð¾Ð½Ð¾Ð²
Ñħ ÑĢÐ¾Ð½
Ð¿ Ð¾ÑĢ
ĠÐ·Ð°Ð¿Ð°Ð´ Ð½ÑĭÑħ
Ð°ÑģÑģ Ð¸
ĠÐ¾ÑĤÐ´ÐµÐ» Ð¾Ð¼
ĠÐ¼Ð¸ÑĢÐ¾Ð² Ð¾Ð³Ð¾
ĠÑģÐ¾ÑħÑĢÐ°Ð½ Ð¸ÑĤÑĮ
ĠÐºÐ»Ð°ÑģÑģÐ¸ÑĦ Ð¸ÐºÐ°ÑĨÐ¸Ñı
Ð¸ÑģÑĤ ÑĭÐµ
Ð¸ÑĤÐ° ÑİÑĤ
ĠÐ°Ð¼ÑģÑĤ ÐµÑĢÐ´
Ð¾Ñĩ ÐµÑĤ
ĠÑģÐ´ÐµÐ» Ð°Ð»Ð¸
ĠÑĢÐ°Ð·ÑĢÐ°Ð±Ð¾ÑĤ Ð°Ð½
ĠÑĩÑĳÑĢ Ð½Ð°Ñı
ĠÑĥÐ²Ð¸Ð´ ÐµÐ»
ĠÐ²ÑģÐµÐ» ÐµÐ½Ð½Ð¾Ð¹
Ð°Ð½Ð¾Ð² ÑģÐºÐ¸Ð¹
ĠÐ½Ð°Ð³ ÑĢÐ°Ð´Ð°
ÑİÑĢ ÑĤ
ĠÐ³Ð¾Ð»Ð¾Ñģ Ð¾Ð²Ð°Ð½Ð¸Ðµ
ĠÐ²Ð¼ ÑĦ
Ð¾Ð» Ð¾Ðº
ÑĭÐ² Ð°ÑĤÑĮÑģÑı
ĠÑĥÑģÑĤÐ°Ð½Ð¾Ð² Ð»ÐµÐ½Ð¾
ĠÐ¾Ð±ÑĢÐ°Ñī ÐµÐ½Ð¸Ðµ
ĠÐ¼ÑĥÐ¶Ñĩ Ð¸Ð½Ð°
ĠÑįÑĦ Ð¸ÑĢ
ĠÐ¿ÑĥÑĤÐµÑĪÐµÑģÑĤÐ² Ð¸Ðµ
ĠÐ¿Ð»Ð° ÑĨ
Ð¾ÑĢ Ð¶
Ð°ÑĤ Ð¾Ð³Ð¾
ĠÐºÑĢ Ð¸Ñģ
ĠÐ³Ð¸Ð´ ÑĢ
ĠÑĢÐ¾Ð¶Ð´ ÐµÑģÑĤÐ²ÐµÐ½
ĠÐ±Ð» ÑįÐº
ĠÐ²Ð¼ Ñģ
ĠÐ»ÐµÐº ÑĨÐ¸Ð¸
ĠÑĢÐµÐºÐ¾Ð½ÑģÑĤÑĢÑĥÐº ÑĨÐ¸Ð¸
ĠÐ¾Ð¿Ð¸Ñģ ÑĭÐ²Ð°ÐµÑĤ
ĠÐ´Ð¸Ð½Ð°Ð¼ Ð¸ÐºÐ°
ĠÐºÐ¸ÑĪ Ð¸Ð½
ĠÐ²Ð¾Ð· Ð½ÐµÑģ
ÐµÐ½ÑĮ Ðµ
ĠÑģÐ¾Ñĩ Ð¸
ĠÑįÑĤÐ½ Ð¾Ð³ÑĢÐ°ÑĦ
ĠÐ¿ ÑĢÐ°Ð³
ÑĪ Ð¸Ð¿
ÐµÐ»ÑĮ Ð½Ð¾
ÐµÑģ Ð½
ĠÐ¿ÑĢÐ¾Ð¸Ñģ ÑĪÐµÑģÑĤÐ²
ĠÐ¶Ð°Ð½ ÑĢÑĭ
ĠÐ½ÑĤ Ð·
ĠÐ¼Ð¾ÑĢÐ° Ð»ÑĮ
Ñı Ð¼Ð°
Ð¾Ð² ÐºÐ¸
ĠÐ³ ÑĥÐ¼
ĠÐ³ ÑĥÑģÑĤ
Ð°ÑĢ Ð½Ð¾Ð¹
Ð¾Ð»ÑĮ Ð½ÑĭÑħ
ĠÐ¿ÑĢÐ¾ ÑĢÐ°Ð±Ð¾ÑĤ
ĠÐµÐ¶ ÐµÐ´Ð½ÐµÐ²
ĠÐ½ÐµÐ´Ð¾Ð¿ ÑĥÑģÑĤ
ĠÐ· Ð°Ð»Ðµ
ĠÑĢÐ°Ð· ÑĢÑıÐ´
ĠÐ²Ð· Ð»
ĠÐ°ÑĢÑĤÐ¸ÑģÑĤ ÐºÐ°
ĠÐ¸ ÐºÐ¾Ð½Ñĭ
ĠÐ¼ ÑĤ
ĠÐ°ÐºÑĤ ÑĳÑĢÐ°
ĠÐ¾ÑĢÐ³Ð°Ð½Ð¸Ð· Ð¾Ð²Ð°Ð»
ĠÐ³Ð²Ð°ÑĢÐ´ÐµÐ¹ ÑģÐºÐ¸Ð¹
ĠÐµÑģÑĤÐµÑģÑĤÐ²ÐµÐ½ Ð½Ð¾
Ð¾Ð¿ Ð¾Ð»Ñı
ĠÐ¿ÑĢÐ¸Ð½ ÑĨÐ°
ĠÐ¼ÐµÐ´ Ð°Ð»ÐµÐ¹
ĠÐ¿Ð¾Ð»Ð¸ÑĤ Ð¸ÑĩÐµÑģÐºÐ¾Ð³Ð¾
ĠÑģÐ»ÑĥÐ¶ Ð¸ÑĤÑĮ
ĠÐ¾ÑĨÐµÐ½ ÐºÑĥ
ĠÐ°ÑĦÑĢ Ð¸ÐºÐµ
Ð· ÐµÑĢ
Ð¿ ÑĥÑĢ
ĠÐºÐ¾Ð» Ð¾Ð´
ĠÐ°Ð´ Ð¾Ð»ÑĮÑĦ
ĠÐ¿Ð¾Ð² Ð»Ð¸Ñı
ÑĥÐ¶Ð´ ÐµÐ½Ð¸Ñı
ĠÐºÑĥÑĢ Ð¾ÑĢÑĤ
ĠÑħÑĥÐ´Ð¾Ð¶ÐµÑģÑĤÐ²ÐµÐ½ Ð½Ð¾Ð³Ð¾
ĠÐºÐ¾Ð½ÐºÑĢÐµÑĤ Ð½Ð¾
ĠÐ¼ ÑĥÑĤ
Ð½Ð¾ Ñĩ
ĠÐ´Ð· ÐµÑĢÐ¶
ĠÐ·Ð°ÑĢÐ°Ð½ ÐµÐµ
Ñħ Ð¸Ð½
ĠÐºÐ¾Ð¼ Ð¸
ĠÐ¾ÑĤÐº ÑĢÐ¾Ð²
ĠÐ¿ÑĢÐ¸Ð² ÐµÑĤ
ĠÐ²Ð»Ð°ÑģÑĤ ÐµÐ¹
ĠÐ³Ð»ÑĥÐ± Ð¸Ð½Ð°
ĠÐ¼ÐµÑĤÐµ Ð¾ÑĢ
Ñħ Ð¸Ð¼
ĠÑį ÑģÑĤÐ°ÑĦ
ĠÐ½Ð°Ð·Ð² Ð°Ð½Ð¸Ð¸
ĠÑĤÑĢÑĥÐ´ Ð¾ÑģÐ¿Ð¾ÑģÐ¾Ð±
Ð°ÐµÐ¼ Ð¾Ð¹
ĠÐºÐ¸Ð½ Ð¾ÑģÑĤÑĥÐ´
ĠÐ³ Ð¾Ð²
ĠÐ½Ð° Ð²Ð¾Ð´
ĠÐºÑĢÐ° Ðµ
ĠÐ¸ÑģÐ¿Ð¾Ð»Ð½ ÐµÐ½Ð¸Ñı
ĠÐ¿Ð¾ÑıÑģ Ð½
ĠÐ¼ÐµÐ´Ð¸ÑĨ Ð¸Ð½ÑģÐºÐ¾Ð³Ð¾
ĠÐ±Ð¾ÑĢÑĮ Ð±Ñĥ
ĠÑĢÐ°Ð±Ð¾ÑĤ Ð°Ñħ
ĠÑĢÐµÐ· Ð¾Ð½
ĠÑģÐ»ÑĥÐ¶ Ð¸ÑĤ
ĠÐ°Ð²Ð¸Ð°ÑĨÐ¸Ð¾Ð½ Ð½Ð¾Ð¹
ĠÑĥ Ð½Ð¸
ĠÑĦ ÑĢÑĥÐ½
ĠÑģÑĥÐ´ Ð½Ð¾
ĠÑģÐµÐºÑĢÐµÑĤ Ð°ÑĢÑı
ĠÐ·Ð°Ð¼ÐµÑģÑĤ Ð¸ÑĤÐµÐ»Ñı
ĠÐ¿ Ð¸ÑĢÐ°ÑĤ
ĠÐ» ÑĮÑİ
ÑĥÑħ Ð¾Ð²
ĠÐ¿Ð¾ÑĤ Ð¾Ðº
ÑıÑī ÐµÐµ
ĠÑħÑĢÐ°Ð¼ Ðµ
ĠÐºÑĢÐµÐ¿ Ð¾ÑģÑĤ
ĠÐ²Ð¾Ð·Ð´ÑĥÑĪ Ð½ÑĭÑħ
ĠÐµÐ² Ð°Ð½Ð³ÐµÐ»
ĠÐ·Ð°Ð³ Ð¾ÑĤÐ¾Ð²
ÐµÐ½ Ð½Ð¾Ð¼Ñĥ
ĠÐ³ Ð»Ð°Ð³
ĠÑĥ ÑĢÐ°
ĠÐ¿ÑĥÐ±Ð» Ð¸ÐºÐ°ÑĨÐ¸Ñı
Ð½Ð¸ÑĨ ÐºÐ¸Ð¹
ĠÑģÐ²ÐµÐ´ ÐµÐ½Ð¸Ð¹
ĠÐº ÑĥÑĪ
ĠÐ²Ð½ ÐµÐ·Ð°Ð¿
ĠÐ±ÐµÐ»Ð¾ÑĢÑĥÑģ ÑģÐºÐ¾Ð³Ð¾
Ð¸Ð¼ ÐµÑĤ
ĠÐ¿ÑĢÐ°Ð² Ð¸ÑĤÐµÐ»Ð¸
ĠÑĦÐ°Ð¹ Ð»Ð¾Ð²
ĠÑįÐ» Ð»Ð¸
ĠÑĤÐ¾Ðº Ð¸Ð¾
ĠÐ±ÑĥÐ´Ð° Ð¿ÐµÑĪ
ĠÐ¿ÐµÑĤ ÐµÑĢ
ĠÑĢÑĭ Ð±Ñĭ
ĠÑģÐ¸Ð¼ ÑĦÐµÑĢ
ĠÐ³ ÐµÑĢÐ°Ð»ÑĮÐ´
ĠÐ½ÐµÐ¿ Ð¾Ð»
ĠÐ½Ð°Ð¿Ð¸Ñģ Ð°Ð½Ñĭ
ĠÑĢÐ°Ð·Ð»Ð¸Ñĩ Ð½ÑĭÐ¼Ð¸
ĠÐ¿ÑĢÐ¾Ð²ÐµÐ´ ÐµÐ½Ð¸Ðµ
ĠÑģÐ¾ÑĩÐ¸Ð½ ÐµÐ½Ð¸Ð¹
ĠÐ²ÑĭÐ¿ÑĥÑģÑĤ Ð¸Ð»Ð°
ĠÑĦÐµÐ¾Ð´ Ð¾Ñģ
Ð°Ð¼ Ðµ
ĠÐ°ÑĢ Ð±
ĠÑĢÐ°ÑģÐ¿ Ð°Ð´Ð°
ĠÐ²ÑĭÑģÐ¾Ðº Ð¸Ðµ
ĠÐºÐ°ÑĢÐ» Ð¾Ñģ
ĠÑĤÑĢÐ°Ð½Ñģ ÑĦÐ¾ÑĢÐ¼
ĠÐ±ÑĥÐ¼ Ð°Ð¶
ĠÐ°Ð´ ÑĬ
ĠÐ·Ð°Ð½ ÑıÐ»Ð¸
ĠÐºÑĢ Ð¸Ð¿
ĠÐºÐ¾Ð½ÑĨÐµÐ¿ ÑĨÐ¸Ð¸
ĠÐ±Ð°Ð²Ð°ÑĢ Ð¸Ñı
ĠÐ¾ÑĤÐ´ÑĭÑħ Ð°
ĠÐº Ñħ
ĠÐ± Ð°Ð»Ð°
ÑĥÑģ Ñĭ
ÑĢÐ¾ ÑĨ
ĠÐ¼Ð°ÑĤ ÑĢ
ĠÐ²ÑĭÐ¿Ð¾Ð»Ð½ ÐµÐ½Ð¸Ñı
ĠÑģÐ²Ñı ÑĤÐ¾
Ð½Ð°Ð´ÑĨ Ð°ÑĤÑĮ
ĠÐºÐ²Ð°Ð»Ð¸ÑĦ Ð¸ÐºÐ°ÑĨÐ¸Ð¸
Ð´Ð¶ Ð°
ĠÐ²Ð¾ Ð¸Ð½Ð¾Ð²
ĠÐ¼ÐµÐ» ÐºÐ¸Ðµ
ĠÐ¿ÑĢÐ¾Ð¿ ÑĥÑģÑĤ
ĠÑģÑĤ ÑĢÐ°Ð´
ĠÐ²Ð¾ Ð¸Ð½
ĠÑĤÑĢÐµ Ðº
ĠÐºÐ°Ð¼ Ð±
Ð°Ð» Ðº
ĠÐ° ÑĥÑĤ
ÑĢÐ¾Ð½ Ð¾Ð²
ĠÐ¿Ð°ÑĢ ÑĥÑģ
ĠÐ¸Ð¼Ðµ Ñı
ĠÐ³ÑĢÐ°Ð½ Ð¸ÑĨÑĥ
ĠÐ¿ÑĢÐ¾Ð¶ Ð¸Ð²Ð°Ð»
ÑĮ ÑģÑı
ĠÐ¿Ð¾Ð´ ÑģÐµÐ¼ÐµÐ¹
ĠÐ±ÐµÑĢ ÑĳÑĤ
ĠÐ¾ÑĦÐ¸ÑĨÐ¸Ð°Ð»ÑĮ Ð½ÑĭÐ¼
ĠÐ¿Ð¾ÑģÑĢÐµÐ´ Ð½Ð¸ÑĩÐµ
ĠÐ±ÑĭÐ² ÑĪÐ¸Ñħ
ĠÐ·Ð°Ð¼ÐµÐ½ Ð¸ÑĤÑĮ
ĠÑģÑĤÑİ Ð°ÑĢÑĤ
ĠÐ½ÐµÐ´ Ð¾Ð²Ð¾Ð»ÑĮ
ĠÐ¿ÑĢÐ¾Ñģ Ð²ÐµÑĤ
ĠÐ²ÑĥÐ» ÐºÐ°Ð½
ĠÐº Ð»Ñİ
ĠÐ½ Ð¾Ð¹
ĠÐ± Ð»Ð¸Ð¶Ðµ
ĠÐ¸Ð½ Ñģ
ĠÐ¿ÑĢÐ¾Ð²Ð¾Ð´ Ð¸ÑĤ
ĠÑįÐºÑģÐ¿Ð»ÑĥÐ°ÑĤÐ° ÑĨÐ¸Ñİ
ĠÑĥ ÑįÐ¹
ĠÐ· Ð»Ð¾
Ð¸ÑĩÐµ ÑģÑĤÐ²Ð°
ĠÑģÐ¿Ð¾ÑĢÑĤÐ¸Ð² Ð½Ð¾Ð¹
ĠÐ¾Ð³Ð½ ÑĳÐ¼
Ð°ÑĤ Ð»Ð¾Ð½
ĠÑĩÐ¸Ñģ Ð»Ñĥ
ĠÑĩÐ»ÐµÐ½ Ð°Ð¼Ð¸
ĠÑįÐ¼Ð± Ð»ÐµÐ¼
ĠÐ¿Ð¾Ð» ÑĥÐ¿
ĠÑģÐ²ÐµÑĢÐ´Ð»Ð¾Ð² ÑģÐºÐ¾Ð¹
Ð¾Ð»Ð¾Ð³ Ð¸ÑĩÐµÑģÐºÐ¾Ðµ
ĠÐ¿ÑĢÐ¸Ð· ÑĳÑĢÑĭ
ĠÑįÑģÑĤ ÐµÑĤ
ĠÐ¾ÑĤÐ¼ÐµÑĩ Ð°ÐµÑĤ
ĠÐ·Ð°Ð¼ÐµÑĤ Ð¸Ð»
ĠÐ±ÐµÐ»Ð¾ÑĢÑĥÑģ ÑģÐºÐ¸Ð¹
ĠÑĢ Ñİ
ĠÐ»Ð¸ÑĤ Ð¾Ð²
ĠÐ»Ð¸Ñĩ Ð½Ð¾Ð³Ð¾
ĠÑģÐ° ÑĦ
Ð¼ ÑĥÐ½Ð´
ÐµÑĢ Ð½Ð¾Ð³Ð¾
ĠÑĤ ÑıÐ³
ĠÐ²Ñĭ ÐºÑĥÐ¿
ĠÑģÐµÑĢ Ð²ÐµÑĢ
ĠÐ½Ð°Ð¿ ÐµÑĩÐ°ÑĤ
ĠÐ±Ð°ÑĢ Ð½Ð°
ĠÑģÐ¾Ð²ÑĢÐµÐ¼ ÐµÐ½Ð½Ð°Ñı
ĠÐ¿ÑĢÐ¾Ð¶ Ð¸Ð²Ð°ÐµÑĤ
ĠÐ¾ÑĢÐ¸Ð³Ð¸Ð½ Ð°Ð»ÑĮÐ½Ð¾Ð¹
ĠÑģÑĤÐµÑĦ Ð°Ð½
ÑĮ ÐµÐ³Ð¾
Ð°Ð² ÑĪÐ¸ÐµÑģÑı
ĠÑĥÐ»ÑĥÑĩÑĪ ÐµÐ½Ð¸Ñı
ĠÐ¿ÑĢÐ¾Ð´ÑĥÐº ÑĨÐ¸Ñı
ÑģÑĤ ÑĢÐ¾
ĠÑįÑĤ Ð¸Ð¼Ð¸
Ð°Ð½ÑĤ Ðµ
ĠÑĥÐ¿ ÑĢÐ¾Ñī
ĠÐ¸ÑĤ Ð°Ð»
ĠÑģÑĤÐ°Ð» Ð¸Ð½Ð°
ĠÑģÑĥÐ´ Ð½Ð°
ĠÑģÐ¾Ð±ÑģÑĤÐ²ÐµÐ½ Ð½Ð¾ÑģÑĤÐ¸
ĠÑĤÑĥÑĢÐ½Ð¸ ÑĢÐ°Ñħ
Ñħ Ð°ÑĢÐ´
ĠÐ» Ð¸ÑĨÐµ
ĠÐ²Ð¸Ð´ Ð¸ÑĤ
ĠÐ½Ð°ÑħÐ¾Ð´ Ð¸Ð»Ð¾ÑģÑĮ
ĠÐ¾Ð· Ð½Ð°ÐºÐ¾Ð¼
ĠÐ¸Ð½ÑģÑĤÑĢÑĥÐ¼ÐµÐ½ÑĤ Ð¾Ð²
ĠÐºÐ°ÑĢÐ´Ð¸Ð½ Ð°Ð»
ĠÐ¿ÑĢÐ¸Ð· ÑĭÐ²
ĠÐºÐ²Ð°ÑĢÑĤ Ð¸ÑĢÐ°
ĠÐ¶Ð¸Ð²Ð¾Ð¿ Ð¸ÑģÑĮ
ĠÐ¶ Ð¸ÑĤÐµÐ»Ñı
ĠÐ·Ð½Ð°Ñĩ Ð¸ÑĤÐµÐ»ÑĮÐ½Ð¾Ðµ
ĠÑģÐ°Ð¼Ð¾ ÑĥÐ±Ð¸Ð¹
ĠÐºÐ¾Ð½ÑģÑĤÐ°Ð½ÑĤÐ¸Ð½ Ð¾Ð¿Ð¾Ð»ÑĮ
ĠÑįÐ½Ð´ ÐµÐ¼
ĠÑħÐ» Ð¾Ð¿
ĠÐ°Ð¿Ð¿ Ð°ÑĢÐ°ÑĤÐ°
ĠÐ¿ÑĢÐ¾Ð·Ð²Ð¸ ÑīÐµ
ĠÐ¸Ð·Ð±ÐµÐ¶ Ð°ÑĤÑĮ
Ðº Ð¾Ðº
ĠÐ± ÑĳÑĢ
ÐµÐ´ Ð¾Ð¼
ÐµÐ² Ðµ
ĠÐ¾ÑĤÐ´ÐµÐ»ÑĮ Ð½Ð°Ñı
ĠÐ±ÑĢÐ¸ÑĤ Ð°Ð½ÑģÐºÐ°Ñı
ĠÐºÐ¾ÑģÑĤ Ð°
ĠÐ¾ÑģÑĤ Ð°Ð»Ð°ÑģÑĮ
Ð½ Ð°Ð²
ĠÑĦ Ð°ÑĢÐ°
ĠÐºÐ°Ð· Ð°Ð½ÑĮ
ĠÑģ Ð¸ÑĤ
ĠÑģÐ¿ Ð»Ð°Ð²
ĠÐ¹ Ð¾Ñħ
ĠÐ¼ÐµÐ´ Ð¸
ĠÑģÐ°Ð¹ÑĤ Ñĭ
ĠÐ»Ð¸ÑģÑĤ ÑĮÑı
ĠÐ¿Ð¾Ð»Ð½Ð¾ ÑĨÐµÐ½
ĠÑĩÐµÑħÐ¾ÑģÐ»Ð¾Ð² Ð°ÐºÐ¸Ð¸
ÑģÑĤÐ² Ð¸Ð¹
ĠÑģÐ¼ Ð¾Ð¶ÐµÑĤ
ĠÐ»Ð¸ÑĤÐµÑĢÐ°ÑĤÑĥÑĢ Ð½ÑĭÐ¹
ĠÐ¾Ð±ÑĢÐ°Ñī ÐµÐ½Ð¸Ñı
ĠÐ½Ð°ÑĢ ÐºÐ¾ÑĤ
ĠÐ»ÐµÐ¶ Ð¸ÑĤ
ĠÑİ Ð°ÑĢ
ĠÑħÐ¾ÑĢÐ¾ÑĪ ÐµÐ¹
ĠÐ´Ð¾ÐºÑĥÐ¼ÐµÐ½ÑĤ Ð°Ð»ÑĮÐ½ÑĭÐ¹
ĠÐ°ÑĢÑħÐ¸ÑĤÐµÐºÑĤÐ¾ÑĢ Ñĭ
ĠÐ´Ðµ ÑĦ
ĠÑħ Ñį
ĠÑĤÐµÐ» Ðµ
ĠÐ¿ÑĢÐ¾Ð´ Ð¾Ð²Ð¾Ð»ÑĮ
ĠÐ»Ð¸Ð½ Ð¸Ð¹
ĠÐ·ÐµÐ»Ñĳ Ð½ÑĭÐ¹
Ð´Ð° Ñħ
ÐµÐ· Ðµ
ĠÐ²ÑĭÐ± Ð¸ÑĢÐ°
ĠÐ´Ð¾ÑģÑĤÐ¸Ð³ Ð°ÐµÑĤ
ĠÐ¿Ð¾Ð»ÑĮÐ·Ð¾Ð² Ð°ÑĤÐµÐ»ÐµÐ¹
ĠÑģÐ¾ÑĦ Ð¸Ñı
ĠÐ¼ ÐµÑģÐ°
ĠÐ³ Ð°ÑĤ
ĠÐ²Ñĭ Ð»
ĠÐ¸Ð·Ð´ Ð°Ð»
ĠÐ´ÐµÑĤ ÑģÑĤÐ²Ðµ
ĠÐ»Ð¸Ð½ Ð¸Ñİ
ĠÐ·Ð°Ð³ Ð¾Ð²Ð¾ÑĢ
ĠÐºÐ¾Ð»Ð¸ÑĩÐµ ÑģÑĤÐ²Ð¾Ð¼
ĠÐºÐ¾ÑģÐ¼ Ð¾Ñģ
Ð± ÑĢÐ°Ð½
ĠÐ¿Ð¾Ð´ Ð»ÐµÐ¶
ĠÑģÐ¾Ð± Ð°Ðº
ĠÐ¸Ð´ ÑĤÐ¸
ĠÑħÑĥÐ´Ð¾Ð¶ ÐµÑģÑĤÐ²
ĠÐ³ÑĢ Ð¸ÑĦ
ĠÑģÐ½ ÑıÑĤÑĮ
ĠÐ±Ð» Ð¾ÐºÐ°
ĠÐ³Ð²Ð°ÑĢÐ´ÐµÐ¹ ÑģÐºÐ°Ñı
ĠÐºÑĢÐ¸Ð· Ð¸Ñģ
Ð² Ð¸ÐºÐ¸
ĠÐ³ ÑįÑģ
ÐµÐ» Ð¸Ð¸
ĠÐ± Ðº
ĠÐ¾ÑĢÐ³Ð°Ð½Ð¸Ð· Ð°ÑĨÐ¸Ñİ
ĠÐ´ÐµÑĤ ÑģÑĤÐ²Ð°
ĠÐ¼ÑĥÐ»ÑĮÑĤ Ñģ
ĠÐ¿Ð¾Ñĩ Ð²
ĠÐ¼Ð¾Ñī Ð½Ð¾ÑģÑĤÑĮÑİ
ĠÐ¼Ð¸Ð»Ð»Ð¸ Ð¾Ð½Ð°
ĠÑģÐ¿ÐµÐºÑĤÐ°Ðº Ð»ÑĮ
ĠÑģ Ð´Ð°
ĠÑģÑĤÐ°Ð» Ð¸Ð½Ð³ÑĢÐ°Ð´
ĠÐ±ÑĢÐ¾Ð½ ÐµÑĤ
ĠÑĥÐ·Ð½ Ð°ÑĤÑĮ
ĠÐ· Ð°Ð»Ð°
ĠÑĢ ÑĥÑĤ
ĠÐ°Ð²ÑĤÐ¾Ð¼Ð¾Ð± Ð¸Ð»Ñı
ĠÐ¿ÑĢÐ¾Ð¼ÐµÐ¶ ÑĥÑĤÐ¾Ñĩ
Ð¸Ð¼ Ð¾Ð¹
ĠÑĪ Ð°Ð»
ĠÐ½ÐµÐ±Ð¾Ð»ÑĮÑĪ Ð¸Ðµ
ĠÐºÐ°ÑĦÐµÐ´ ÑĢÐµ
ĠÐ¿Ð¾Ñģ Ð»Ð°Ð½
ĠÐ½Ð°ÑģÐµÐ»ÐµÐ½Ð¸Ðµ Ð¼
ĠÐ·Ð°ÐºÐ»ÑİÑĩ Ð°ÐµÑĤÑģÑı
ĠÐ¿Ð» Ð°Ð½Ñĭ
Ð·ÑĭÐ² Ð°ÐµÑĤÑģÑı
ĠÐºÑĥÑĢ ÑģÐ°
Ñģ Ð°Ð»
ĠÐ¾ ÑĢÐµÑħ
ĠÐ¼Ð¾ÑĢ ÑĦ
ĠÐ³ÑĢÐ°Ð¶Ð´Ð°Ð½ Ðµ
Ð¸ÑģÑĤ Ð¾Ð¹
ĠÐ¸Ð·Ð¼ÐµÐ½ Ð¸ÑĤÑĮ
Ð¾Ð±ÑĢÐ°Ð· Ð¾Ð²Ð°ÑĤÐµÐ»ÑĮ
ĠÑĦÐ¾ÑĢ Ð¼Ð¸ÑĢÑĥ
ĠÐ¿ÑĢÐ¸ÑģÐ²Ð¾ ÐµÐ½
ĠÐºÑĢÐ¸ÑģÑĤÐ°Ð» Ð»
ĠÐºÑĭ Ð·Ñĭ
ĠÐ¿ÑĢÐ¸ÐµÐ· Ð¶
ĠÐ´ ÑįÐ½
Ð°ÑĢ Ð½Ð¾Ð³Ð¾
ĠÐ½Ðµ Ð°Ð¿
ĠÑĩÐ°ÑģÑĤ ÑıÑħ
ĠÐ½Ð¸Ðº Ð¾Ð»ÑĮ
ĠÐ´Ð»Ð¸Ð½ Ñĥ
ĠÐºÐ¸Ñģ Ð»Ð¾ÑĤ
ĠÐ¾Ð±Ð¾ÑĢÐ¾Ð½ Ñĥ
ĠÐ¸ÑģÐº Ð°Ð¶
ĠÑĤÑĢÐ¸ Ð¶Ð´Ñĭ
ĠÑĤÐµÐ»ÐµÐºÐ°Ð½ Ð°Ð»Ð°
ĠÐ¸ÑģÐº Ð¾Ð¿
ĠÑģÑĤÐ°Ð½Ð¾Ð² ÑıÑĤÑģÑı
ĠÐ°ÑįÑĢÐ¾Ð¿ Ð¾ÑĢÑĤÐ°
ĠÐ¿ÐµÑĢÐµÑĩ ÐµÐ½ÑĮ
Ð´ Ð¾Ðº
ĠÐ´ Ð¾Ð´
Ð¸Ð² Ñĭ
Ð°Ð½Ð´ Ð¸Ñı
ĠÑģÑĢÐµÐ´ Ð½Ð¸Ðµ
Ð¸Ð² Ð½Ð¾Ð¹
ĠÐ¿Ð¾Ñģ Ð¾Ð»
ĠÐ¸Ð¼ Ð¼
ĠÐµÐ´Ð¸Ð½ÑģÑĤÐ²ÐµÐ½ Ð½Ð°Ñı
ĠÐºÐ¾Ð¼Ð°Ð½Ð´Ð¸ÑĢ Ñĭ
ĠÐºÐ¾Ð¼Ð¼ÑĥÐ½Ð¸ÑģÑĤ Ð¸ÑĩÐµÑģÐºÐ¾Ð¹
ĠÐ¾Ð±ÑĢÐ°Ð±Ð¾ÑĤ ÐºÐ¸
ĠÐ¾ÑĢÐºÐµÑģÑĤ ÑĢ
ĠÑģÐµÐ¼Ð¸Ð½Ð°ÑĢ Ð¸Ð¸
ĠÐ¸Ð¼ ÑĳÐ½
ĠÑģÐ¾ÑģÑĤÐ°Ð² Ð¸Ð»Ð¸
ÑĥÐ»ÑĮ Ñģ
ĠÐ·Ð½ Ð°Ð»
ĠÐ¾ÑĤÐ»Ð¸Ñĩ Ð°ÑİÑĤÑģÑı
ĠÐ½Ð°Ð³ÑĢÐ°Ð´ Ñĥ
ĠÐ½Ð°Ñĥ ÐºÐµ
ĠÑįÐºÑģÐ¿Ð»Ñĥ Ð°ÑĤ
ĠÐ²Ð°Ð»ÐµÐ½ÑĤ Ð¸Ð½Ð°
ĠÐ±Ð°ÑĢÐ° Ð±
ĠÐ¿Ð°ÑĢÐ°Ð¼ÐµÑĤ ÑĢÑĭ
Ð½ Ðº
ĠÐ¿ÐµÑĢ ÐµÐ»
ĠÐ²Ð¾Ð´ Ð½ÑĭÑħ
ĠÐ·Ð½ Ð°ÑĤ
ĠÐ²Ð»Ð°Ð´Ð¸Ð¼Ð¸ÑĢ ÑģÐºÐ¾Ð¹
ĠÑĥÐ± Ð¸ÑĤÑĮ
ĠÑĥÐ² Ð»ÐµÐº
ĠÐ¿Ð°ÑĢÐ°Ð¼ÐµÑĤ ÑĢ
ĠÑĥÑģÐ» ÑĭÑĪ
ĠÐ³Ð¾ÑĢÐ¾Ð´ ÑģÐºÐ¾Ð¼
ĠÐ½Ð°Ð³ Ð¾ÑĢ
ĠÑĦÐ°Ðº ÑĤÐ¾Ð²
ĠÐ²ÐµÑĢ Ð¾
ĠÐ¶Ð¸Ð² ÑĥÑĤ
ĠÐ¿ÑĢÐµÐ¿Ð¾Ð´ Ð¾Ð±
ĠÐºÑĢÑĥÐ³ Ð°
ĠÐ¶ÐµÐ»ÐµÐ·Ð½Ð¾Ð´Ð¾ÑĢÐ¾Ð¶ Ð½ÑĭÐ¹
ĠÐºÐ¾Ð½ÑģÐµÑĢÐ² Ð°ÑĤÐ¸Ð²
ĠÑİÑĢÑĮ ÐµÐ²Ð¸Ñĩ
Ð¿ Ð°ÑĤ
ĠÑĩ Ðµ
ĠÐ±Ð¾ÑĢ Ð¸ÑģÐ°
ĠÑģÑĤÑĥÐ´ Ð¸Ñı
ĠÐ·Ð°ÐºÑĢÑĭÑĤ Ð¸Ñı
ĠÐº Ð±
ĠÐ½Ðµ Ð¾ÑĤ
ĠÐ¼ Ð²
ĠÑıÐ² Ð»ÐµÐ½Ð¸Ðµ
ĠÐ¶ÐµÐ½ ÑģÐºÐ¾Ð¹
ĠÐ³ÑĢ Ð¾ÑģÑģ
ĠÐ¿Ð¾Ð¼Ð¾Ñī Ð½Ð¸ÐºÐ¾Ð¼
ĠÑģÐ¿Ð¾ÑĢÑĤÑģÐ¼ÐµÐ½ Ð¾Ð²
ĠÐ½Ð°ÑĩÐ¸Ð½Ð° ÑİÑĤ
ĠÑĦÑĢÐ°Ð· Ð°
ĠÐ¾Ð´ Ð½Ð¸
ĠÐ¿ÐµÑĢÐµÑħÐ¾Ð´ Ð°
ĠÐ»ÑİÐ´Ð¼ Ð¸Ð»Ð°
ĠÐº ÐµÑĢÐ°Ð¼
ÐµÑĤ ÑĤÐ¸
ĠÑĦ Ð°ÑĤ
Ð¾Ñĩ Ðµ
Ð¸Ð½Ð³ Ðµ
ĠÐ³Ð»Ð°Ð² Ð½ÑĥÑİ
ĠÑĥÑģÑĤ Ð°ÑĢÐµÐ²
ĠÑĤÑĢÐ°Ð½ Ð·
ĠÑĥÑĩÐ°ÑģÑĤÐ² ÑĥÐµÑĤ
ĠÐ¿ÑĢÐ¸Ñħ Ð¾Ð´Ð°
ĠÐ¿ÑĢÑıÐ¼Ð¾ ÑĥÐ³Ð¾Ð»ÑĮ
Ð½ Ñģ
Ð°Ð² ÑĪÐ¸ÑģÑĮ
ĠÐ¾Ð±ÐµÑģÐ¿ÐµÑĩ Ð¸Ð²
Ð°Ð½ ÑģÐºÐ¾Ðµ
ĠÐ³ ÑĥÐ½
ĠÑĤÑĢÐ°ÐºÑĤ Ð¾ÑĢ
ĠÐµÐ»Ð¸Ð·Ð°Ð² ÐµÑĤÐ°
ĠÐ¿Ð¾Ð´ ÑĥÐ¼
ĠÐ½Ð°ÑĥÑĩ Ð½ÑĭÐ¼
ĠÑģÑĥÐ» ÑĤ
ĠÐºÐ¾Ð»ÑĮ ÑĨÐ¾
ĠÑģ Ð½ÐµÐ¶
ĠÐ² ÑĥÐ´
ĠÐ¾ÑĤ ÑģÑĭ
ÐµÐ· Ñĥ
ĠÑģÐ½ Ð³
ĠÑĩÐ¸ÑĤ Ð°Ð»
ĠÐ¾Ð±Ð»Ð¾Ð¶ ÐºÐ¸
ĠÑĥ ÑĢÐ¾Ðº
ĠÑģÐµÐº ÑĨÐ¸Ð¸
ĠÑĥÑģÐ» ÑĥÐ³Ð¸
ĠÐ°Ð½Ð°ÑĤÐ¾Ð»ÑĮ ÐµÐ²Ð¸Ñĩ
ĠÑĢÐ¸Ð¼ Ð°
ĠÐ¿Ð°ÑĤÑĢÐ¸ Ð¾ÑĤ
ĠÐ¾ÑĨÐµÐ½ Ð¸ÑĤÑĮ
ĠÑģÑĤ ÑĢÑĥ
ÑĤÐ¸ ÑĢÑĥ
ÑĩÐµ ÑģÐºÐ¸Ñħ
ĠÐ·Ð½ Ð°Ð½Ð¸Ð¹
Ð½ÐµÐ² Ð¾ÑģÑĤ
ĠÑģÐ¾Ð±ÑģÑĤÐ²ÐµÐ½ Ð½ÑĭÐ¹
ĠÐ¿Ð¾ÑģÑĤÐ¾ÑıÐ½ Ð½Ð¾Ð³Ð¾
ĠÑı Ð½Ð°
ĠÐ´ÑĢÑĥÐ³ Ð¾Ð¼Ñĥ
ĠÐ·Ð² Ð°Ð½Ð¸Ð¸
ĠÐ·Ð°Ð´ ÑĥÐ¼
ĠÑģÐµÑĢÐµÐ±ÑĢÑı Ð½ÑĭÐµ
ĠÑĤÑĢÐ¾ Ð¸ÑĨ
ĠÐ¿ÑĢÐµÐ´Ð¿Ð¾Ñĩ ÑĤ
ĠÐ¿ÑĢÐµÑģÐ² ÑıÑĤÐ¾Ð¹
ĠÐ°ÐºÐ°Ð´ÐµÐ¼ Ð¸ÐºÐ°
ĠÑĢ Ð²
ĠÑħ ÐµÑĢÑģÐ¾Ð½
ĠÐ¿Ð°Ð½ Ðº
ĠÐ¿ÑĢÐµÐ¾Ð± ÑĢÐ°Ð¶
ĠÐ½Ð°ÑĢÐ¾Ð´ Ñĭ
ĠÐ»Ð¸Ð³ Ñĥ
ĠÐ¿ÐµÑĢÐµÑĪ Ð»Ð¸
ĠÐ°Ð½Ð°Ð»Ð¾Ð³ Ð¸ÑĩÐ½Ð¾
ĠÐ¶ÐµÐ½ ÑģÐºÐ°Ñı
ĠÑĥÐºÐ°Ð· Ð°Ð½Ð¸Ñı
ĠÑĥÑģÑĤÐ°Ð½Ð¾Ð² ÐºÐ°
ĠÐ¾ÑģÐ¿ Ð¾ÑĢ
Ð± Ð°Ð¹
ĠÐ´Ð° ÑİÑĤ
ĠÐ°ÑĢÑħÐ°Ð½Ð³ÐµÐ»ÑĮ ÑģÐºÐ¾Ð¹
ĠÑĥÐ²Ð¾Ð» ÐµÐ½
Ð¸Ðº Ð°Ñħ
ĠÑģÐ¾Ð±ÑģÑĤÐ²ÐµÐ½ Ð½Ð¾Ð³Ð¾
ĠÑħÐ¾Ð´ Ñĥ
ĠÐ±ÐµÐ»Ð°ÑĢ ÑĥÑģÐ¸
ĠÐ½Ð°Ð¿ÑĢÑı Ð¶
ĠÑĢÐµÐ°Ð±Ð¸Ð» Ð¸ÑĤ
ĠÐ»ÐµÐ¹ Ðº
ĠÐ´ÑĢÐµÐ² Ð½ÐµÐ³
ĠÐ½Ð°ÑĢÑĥÑĪ Ð°ÐµÑĤ
ĠÐ½Ð°ÑĪ Ð»Ð¸
ĠÑĩÐ¸ÑģÑĤ Ð¾
ĠÑįÑĦ Ð¸Ð¾Ð¿
ĠÑģÐ²Ð¾Ðµ Ð¾Ð±ÑĢÐ°Ð·
ĠÑĤ ÐµÐ³
ÑĦ Ðµ
ĠÐ·Ð° Ð±Ð¾ÑĤ
ĠÑģÐ¾Ð¾Ð±Ñī Ð°ÐµÑĤ
ĠÐ¿Ð¾Ñħ Ð¸Ñī
ĠÐ° ÑĤÐ°
ĠÐ¾Ð±Ð»Ð°ÑģÑĤ ÑıÑħ
ĠÐ´ÐµÑĢÐµÐ² Ð½Ñİ
ĠÐ²Ð¸Ðº ÑĤÐ¾ÑĢÐ°
Ð·ÑĭÐ²Ð° ÑİÑĤÑģÑı
ĠÐ¿ÑĢÐ¸Ð½ÑĨ ÐµÑģÑģ
ÐµÐ² Ð°ÐµÑĤ
Ð¿ÑĢ Ð¸Ð¿
ĠÐ»ÐµÑĤ Ð¾Ð¿
ĠÐ¾ÑģÐ½Ð¾Ð² Ð¾Ð¹
ĠÐ°Ð½Ð³Ð» Ð¾ÑıÐ·ÑĭÑĩ
ĠÐ´Ð² Ð¾
ĠÑģÐ¾Ð·Ð´Ð°Ð½ Ð½ÑĭÐ¹
ĠÐ±Ð°ÑĢÐ° Ð±Ð°Ð½
ĠÑĢÐ¾Ð´ Ð½Ð¾Ð¹
Ð¸ÑĢÐ¾Ð²Ð°Ð½ Ð½Ð¾Ðµ
ĠÐ¾ÑģÐ½ Ð¾Ð²Ð°Ð½Ð¸Ðµ
ĠÐ¼ÑĥÐ½Ð¸ÑĨÐ¸Ð¿Ð°Ð» Ð¸ÑĤÐµÑĤÐ°
ĠÐ°ÑĢÐ¸ÑģÑĤ Ð¾ÐºÑĢÐ°ÑĤ
ĠÐºÐ°Ð¼ Ð½Ñı
ĠÐºÐ°Ð¼ ÑĩÐ°ÑĤ
ĠÑģÑģÑĭÐ» ÐºÐµ
ĠÑģÑĤÐ¾Ð» Ð¸ÑĨÐµ
ĠÐ¾ÑĦÐ¸ÑĨÐ¸Ð°Ð»ÑĮ Ð½ÑĭÐµ
ĠÐ¿Ð¾ÑģÑĤÐ°Ð½Ð¾Ð² ÑīÐ¸Ðº
ĠÐ¿ÑĢÐµÐ± ÑĭÐ²Ð°Ð½Ð¸Ñı
ÑĢ Ð¸ÐºÐ°
ĠÑģÑĤÐ°ÑĤÑĥÑģ Ð¾Ð¼
ĠÐ¶ÑĥÑĢÐ½Ð°Ð» Ñĭ
ĠÑĢÐ°ÑģÑĪÐ¸ÑĢ ÐµÐ½Ð¸Ðµ
ĠÐ½Ð°Ðº Ð¾Ð¿
ĠÐ³ÐµÐ½ÑĢÐ¸Ñħ Ð°
ĠÐ°ÑĥÐ´ Ð¸ÑĤ
ĠÐ² Ð½Ð¾Ñģ
ĠÐ´ ÑĢÐ°Ð¼Ð°
ĠÐ» Ð¸ÑĦ
ĠÐ²Ð¾Ð· Ð½Ð¸ÐºÐ°
ÑĳÑĤ Ðµ
ĠÐ¾ÑĤÐ´ÐµÐ»ÑĮ Ð½Ð¾Ð³Ð¾
ĠÐ´Ð°Ð»ÑĮ Ð½ÐµÐ³Ð¾
ĠÐ¿Ð¾ÑĤÐµÑĢ ÑıÐ»
ĠÐ³Ð°Ð± ÑĢÐ¸
Ð´Ð¶ Ð¸
ĠÐ¿ÑĢÐ¾ÑģÑĤ Ð¾Ð¹
ĠÐ²ÑĭÑģÐ¾Ðº Ð°Ñı
ĠÐ¾ÑĦÐ¸ÑĨÐ¸Ð°Ð»ÑĮ Ð½Ð¾Ð³Ð¾
ĠÑģÐ¾Ð±ÑĭÑĤ Ð¸Ðµ
Ð¾ ÑıÑĤÐµÐ»ÑĮ
ĠÑĥÐ· Ð»Ð¾Ð²
ĠÐ¾ÑĢÐ³Ð°Ð½Ð¸Ð·Ð° ÑĨÐ¸ÐµÐ¹
ĠÐ²Ð» Ð¸ÑıÑĤ
ĠÐ½Ð°ÑģÐµÐºÐ¾Ð¼ ÑĭÑħ
ĠÐ±Ð°ÑĢÑģÐµÐ» Ð¾Ð½Ð°
ĠÐ± ÐµÐ»Ñı
Ð»Ñı Ð»ÑģÑı
ĠÑħ Ð¾Ð¼
ĠÐ½Ð°ÑħÐ¾Ð´ ÑıÑģÑĮ
ĠÑĢÐµÐ²Ð¾Ð»Ñİ ÑĨÐ¸Ñı
ĠÐºÐ¾Ð½ÐµÑĩ Ð½Ð¾Ð¼
ĠÐ³ÑĥÐ³ Ð»
ĠÑģÑĩÐ°ÑģÑĤ Ð»Ð¸Ð²
ÑĤ ÐµÐ¹
ĠÐ° ÑĦÑĦ
ĠÑģÑĤ ÐµÐ±
ĠÑģÐµÐ¼ ÑĮÑİ
Ð±Ð° ÐµÐ²
ĠÐ´Ñį Ð²
ĠÐ¿Ð¾Ð»ÑĥÐ¾ÑģÑĤÑĢÐ¾Ð² Ð°
ĠÐ½Ð°Ð±Ð»Ñİ Ð´Ð°ÐµÑĤÑģÑı
ĠÐ´Ð¸Ð·Ð°Ð¼Ð± Ð¸Ð³
Ñİ Ð±
ĠÑĪ Ð¸ÑĪ
ĠÐ¼ÑĥÐ½Ð¸ÑĨÐ¸Ð¿ Ð°Ð»ÑĮÐ½ÑĭÐ¹
ĠÑģÐµÑĢÐ´ ÐµÑĩ
ĠÐ»Ð¾Ð´ ÐºÐ¸
ĠÐºÑĢÐ¸ÑģÑĤÐ°Ð» Ð»Ñĭ
ÐµÐ´ Ðµ
ÐµÐ· Ð¸
ĠÑģÐ°Ð¼ Ñĥ
ĠÐ²Ð°Ð» ÑİÑĤ
ĠÐ±Ð¾Ðµ Ð¿ÑĢÐ¸Ð¿
ĠÐ·Ð½Ð°Ñĩ Ð¸ÑĤÐµÐ»ÑĮÐ½Ð¾Ð¹
ĠÐ¿ÑĢÐ¾Ð²Ð¾Ð´ Ð¸ÑĤÑĮ
ĠÐ±Ð°ÑĪÐºÐ¾ÑĢÑĤÐ¾ÑģÑĤ Ð°Ð½Ð°
Ð´ ÐµÐ»ÑĮ
ĠÐ·Ð°Ðº Ð¾Ð½Ñĭ
ĠÐ¿Ð¾Ð¿ Ð¾Ð²
ĠÐ¿Ð¾Ð»Ð¸ÑĤ Ð¸ÐºÑĥ
ĠÐ½ÐµÐ±Ð¾Ð»ÑĮÑĪ Ð¸Ñħ
ĠÐ¿Ð¾Ð´ÑĩÐ¸Ð½ ÑıÐµÑĤÑģÑı
Ð°Ð»ÑĮ ÑģÐºÐ¸Ð¹
ĠÐ· Ð¸Ð³
ĠÐ» Ð°Ð½Ð³
Ñį ÑĪ
ĠÑĥÐ´ ÐµÐ»ÑĮÐ½Ð°Ñı
ĠÐ½Ð°ÑĨÐ¸Ð¾Ð½ Ð°Ð»
ĠÐ±ÐµÑĢ ÑĤ
Ð°Ñī Ð¸Ð¹
ĠÐ±ÑĥÐ´ÑĥÑī ÐµÐµ
ĠÐ½Ð°Ð¼ Ð½Ð¾Ð³Ð¾
ĠÐ¸Ð·Ð´Ð°Ð½Ð¸Ñı Ñħ
ĠÐº ÑĢÐ¾
Ð¸Ðº ÑĤ
ĠÐºÑĢÐ°ÑĤ ÐµÑĢÐ°
ĠÐ»ÐµÐ² Ð¾Ð¹
ĠÐ¿ÑĢÐ¾Ñģ Ð¼Ð¾ÑĤ
Ð°Ð´ Ð·Ðµ
ĠÐ³Ð¾Ð» Ð¾Ð´
ĠÐ°Ð¼ÐµÑĢ Ð¸ÐºÐ°
ĠÐ»ÑĮ Ð²Ð°
ĠÐ¿ÑĢÐ¸Ð¾ÑĢ Ð¸ÑĤÐµÑĤ
Ð· Ð¸Ð¹
ĠÑĢ ÑıÐ±
ĠÐ½Ð°Ñģ ÑĩÑĳÑĤ
ĠÐ»ÑİÐ± ÑĭÐµ
ĠÐ½Ð°ÑĨÐ¸Ð¾Ð½Ð°Ð»ÑĮ Ð½ÑĭÐµ
ĠÑĩÐµÐ¼Ð¿Ð¸Ð¾Ð½Ð°ÑĤ Ð°Ñħ
ĠÑģÐºÐ°Ð¶ ÐµÐ¼
ĠÑĤÐ¸ÑħÐ¾ Ð¾ÐºÐµ
ĠÑĢ Ð¸ÑĤÑĥ
Ð°Ð½Ð´ ÑĢÐ¸ÑĤ
ĠÑĪÑĤ Ð°ÑĤÐ¾Ð²
ĠÐ²ÐºÐ»ÑİÑĩ Ð°ÑİÑĤ
ĠÐºÐ»Ð°ÑģÑģ Ðµ
ĠÐ±Ð°Ð» ÑĤ
ĠÐ³ÑĢÑĥÐ· Ð¾Ð²
ĠÐ¼Ð¸Ð»Ð»Ð¸ Ð¾Ð½
ĠÐ¼ÑĥÐ·ÑĭÐºÐ°Ð½ÑĤ Ð¾Ð²
ĠÐºÐ¾Ð½ÑĤÐµÐº ÑģÑĤÐµ
ĠÐ½ÐµÐ¼ÐµÑĨ ÐºÐ¾Ð¼
ĠÐ¸ÑģÑħÐ¾Ð´ Ñı
ĠÐ¿ÑĢÐµÐ´ÑĪ ÐµÑģÑĤÐ²
ĠÑģÐ¾Ð°Ð²ÑĤÐ¾ÑĢ ÑģÑĤÐ²Ðµ
ÑĮ Ð¸Ñħ
ĠÐ·Ð¾Ð»Ð¾ÑĤ ÑĭÐµ
ĠÐ± ÐµÐ½Ð·
Ð¸Ð½ Ð¾Ðº
ĠÐ²Ð¾ÐºÐ· Ð°Ð»
ĠÑħÑĢÐ°Ð± ÑĢ
ĠÑģ Ð°Ð³
ĠÐ´ ÑĥÐ½Ð°
ĠÑįÑĤ Ð½Ð¾Ñħ
ĠÐ²Ð¿ ÐµÑĢÑĳÐ´
ĠÐ»ÐµÐ³ ÐµÐ½Ð´Ð°
ĠÐºÐ¾ÑĢÐ¾Ð»ÐµÐ² Ñĭ
ĠÑĢÐ°Ð±Ð¾Ñĩ ÐµÐ¹
ĠÑģÐ¼Ð¾Ð³ Ð»Ð°
ĠÐ³Ð¸Ð¿ ÐµÑĢ
ĠÐºÑĥÑģÑĤ Ð°ÑĢ
ĠÐ²ÑĭÑģ ÑĪÐ°Ñı
ĠÐµÐ¿Ð¸ÑģÐºÐ¾Ð¿ Ð¾Ð¼
ĠÑĥÑħ ÑĥÐ´
ĠÐºÐ°ÑĤ Ð¾
ĠÐ¸Ð½ÑĤÐµÑĢ Ð½Ð°ÑĨÐ¸Ð¾Ð½
ĠÐ¾Ð±Ð½Ð°ÑĢÑĥÐ¶ Ð¸Ð»
ĠÐ½Ð¾Ð³ Ð¸
ĠÑģÐ¾Ð»Ð´ Ð°ÑĤÑĭ
ĠÐ° ÑĨ
Ñİ ÑĢÐ°
ĠÐ¿Ð¾Ð´ Ð³
ĠÐ¿Ð¾Ð´ ÑħÐ¾Ð´Ð¸ÑĤ
ĠÑĨÐµÐ½ÑĤ ÑĢÐ¾Ð²
ÑĤÐ¾ÑĢÐ° Ð¼Ð¸
ĠÐºÑĢÐµ Ñī
ĠÐ¾ÑĢÐ¸Ð³Ð¸Ð½ Ð°Ð»
ĠÐ´Ð¸Ð²Ð¸Ð·Ð¸Ð¾Ð½ Ðµ
ĠÑĢÑıÐ· Ð°Ð½ÑģÐºÐ¾Ð¹
ĠÐ¾Ð´Ð½Ð¾Ð·Ð½Ð°Ñĩ Ð½Ð¾
ĠÑģ ÐµÑĩ
ĠÑĤ Ñı
Ð°Ð² Ð»Ð¾Ð²
ĠÐ¿Ð¾ÑħÐ¾Ð´ Ð°
ĠÐ½Ð°ÑģÐµÐºÐ¾Ð¼ ÑĭÐµ
ĠÐ¾Ð¿Ñĭ ÑĤÐ°
ĠÐ³ÑĢÐ°Ð½Ð¸Ñĩ Ð¸ÑĤ
ĠÐ¼ÐµÐ´Ð¸ÑĨ Ð¸Ð½ÑģÐºÐ¸Ð¹
ĠÐ¾Ð±Ð½Ð°ÑĢÑĥÐ¶ ÐµÐ½Ñĭ
ĠÐ´Ð¸Ð°Ð³ Ð½Ð¾ÑģÑĤ
Ð¸Ð»ÑĮ Ð²
ĠÑĤÐµÐ¼Ð¿ÐµÑĢÐ°ÑĤ ÑĥÑĢÑĭ
ĠÑįÑĤÐ½Ð¾Ñħ Ð¾ÑĢÐ¾Ð½
ĠÐºÐ½ Ð¾Ð¿
ĠÑĢÐ¾Ð¼ Ð°Ð½Ðµ
ĠÐ¿ÑĢÐ¾ÑĦÐµÑģÑģ Ð¸Ñı
ĠÐ¿ÑĢÐ¾ÑĨÐµÑģÑģ Ñĭ
ĠÐ½Ð°Ð¸Ð±Ð¾Ð»ÑĮÑĪ ÐµÐµ
ĠÐ»Ð¾ÑĪ Ð°Ð´
ĠÐ¿Ð¾Ð²ÑĭÑĪ ÐµÐ½Ð¸Ñı
ĠÐºÐ»ÐµÑĤ ÐºÐ¸
ĠÐ¿ Ñĩ
Ð¼ Ð¾Ð¼
ĠÐ¿ÐµÑĢÐ² ÑĭÐ¼Ð¸
ĠÑıÐ²Ð»Ñı Ð»Ð¸ÑģÑĮ
ĠÐºÐ¾Ð»Ð¸ÑĩÐµ ÑģÑĤÐ²Ñĥ
ĠÐ¿ÑĢÐ¸Ð½ÑĨÐ¸Ð¿ Ñĭ
ĠÐ¾Ð±ÑīÐµ Ð¾Ð±ÑĢÐ°Ð·Ð¾Ð²Ð°ÑĤÐµÐ»ÑĮ
ĠÐ² Ð³
ĠÐ´ ÐµÐ³
ÑģÑı Ð½
ĠÐ¸ÑģÐ¿ Ð¾Ð²ÐµÐ´
ĠÐ²ÐµÐ» Ð°
ĠÐ²Ð¾Ð» Ð¾Ðº
ĠÐ±Ð¾Ð³ Ð¾Ñģ
ĠÐ¿ÑĢÐ¸ÐºÐ°Ð· Ð°Ð»
ĠÐ¼ÐµÐ¼Ð¾ÑĢ Ð¸Ð°Ð»
ĠÐ½Ð°ÑģÑĩÐ¸ÑĤÑĭÐ² Ð°Ð»Ð¾ÑģÑĮ
ĠÑįÑĤÐ½Ð¾ÑħÐ¾ÑĢÐ¾Ð½ Ð¸Ð¼
Ñĥ Ð·Ñĭ
Ð¼ ÑĥÐ´
ĠÐ´ Ð¸ÑĤ
Ð¾Ð³ Ð¾Ð´
Ð¸ÑģÑĤ ÑģÐºÐ¸Ñħ
ĠÐ¿ÐµÑĢÐµÐ´ Ð°Ð½
ĠÐºÐ»Ð°ÑģÑģ Ð¸ÑĩÐµÑģÐºÐ¾Ð¹
ĠÐ°Ð´Ð¼Ð¸Ð½Ð¸ÑģÑĤÑĢÐ°ÑĤÐ¸Ð² Ð½ÑĭÐ¼
ĠÐ´Ð°Ð² Ð»ÐµÐ½Ð¸Ñı
ĠÐ¿ÑĢÐµÑģÑĤ Ð¸Ð¶
ĠÐ´Ð¸Ð°Ð¼ÐµÑĤ ÑĢ
ĠÑģÑĥÐ¿ÐµÑĢÐº ÑĥÐ±
ĠÐ¿Ð¾Ñģ Ð¼Ð¾ÑĤ
ĠÐ¸Ð·Ð´ Ð°Ð½
ĠÐ¿ÑĢÐ¸Ð·ÑĳÑĢ Ð¾Ð¼
ĠÐºÑĢÐµÐ¹Ñģ ÐµÑĢ
ĠÐºÑĢÑĭÐ»ÑĮ Ñı
ĠÐºÐ¾ÑĢ ÑĤ
ĠÐ¼Ð¾Ð½ ÑĤÐ°Ð¶
ĠÐ²Ð²ÐµÑĢ Ñħ
Ñī Ð¸Ð½Ñĭ
Ð°Ð´ Ð¾Ð»Ð³Ð¾
ĠÐ¸Ð¼ ÑħÐ¾
ĠÑģÑĢÐµÐ´ Ð½Ð¸Ñħ
ĠÐ±Ð¾ÐºÑģ ÑĳÑĢ
ĠÐ¸Ð·Ð¼ÐµÑĢ ÐµÐ½Ð¸Ñı
ĠÐ´Ð¶Ð¾Ð²Ð°Ð½ Ð½Ð¸
ĠÐ¿ ÑĥÑĢ
Ð¸Ð± Ð°
ĠÐ²Ð¾Ð¹ ÑģÐºÐ¾
ĠÐ·ÐµÐ¼ Ð»ÐµÑĤ
ĠÐºÑĢÐ¸ÑĤÐµÑĢ Ð¸ÐµÐ²
ĠÐ¿ÑĢÐ¸ÐºÐ°Ð· Ñĥ
ĠÑģÐ¿ÑĥÑĤ Ð½Ð¸ÐºÐ¾Ð²
ĠÐ²ÑĢÐ°ÑĤ Ð°ÑĢÑĮ
Ð¾ÑĤ Ð°Ð²Ð»Ð¸Ð²
ĠÑģÐ¾Ð² Ð¼
ĠÐ²ÐµÐ»Ð¸Ðº Ð¾Ð»
ĠÑģÑģÑĭÐ» ÐºÐ°Ð¼Ð¸
ĠÐ¾ÑģÑĤÑĢÐ¾Ð² Ð°Ñħ
ĠÐ»Ð¸Ñĩ Ð½ÑĭÐµ
ĠÐ² Ðµ
ĠÐ¿Ð¾Ð· Ð²Ð¾Ð½
ĠÐ´Ð¾Ð± Ð»
ĠÑİÑĢ Ð¸Ñı
ĠÐ¿ÑĢÐ¸ÑĢ Ð¾Ð´Ðµ
ĠÑĤÐµÐ°ÑĤÑĢÐ°Ð»ÑĮ Ð½ÑĭÐ¹
ĠÐ·ÐµÐ¼Ð»ÐµÑĤ ÑĢÑıÑģ
ĠÐº Ð°Ð»Ð°
ĠÑģÐ¾Ð² ÑħÐ¾Ð·Ð°
ĠÐ±ÑĢÐ°Ð¹ Ð°Ð½
ĠÑĢÐ¾Ð·ÑĭÐ³ ÑĢÑĭÑĪ
ĠÐ´ ÐµÑģÑĤ
ĠÑĩ Ð°Ð½
ĠÑĢÐµÐ³ Ð»Ð°Ð¼ÐµÐ½ÑĤ
ĠÐ°Ð» ÑĤ
ĠÑħÐ¾ÑĢÐ¾ÑĪ Ð¸Ðµ
ĠÑģÐ¸Ð½Ð´ ÑĢÐ¾Ð¼
ĠÐºÐ¾Ð¼Ð¿ Ð°Ð½Ð¸Ñİ
ĠÐ¿ÐµÑĤ ÑĢÐ¾Ð¿
ĠÑĥÑĤ ÑĢÐ¾Ð¼
ĠÐ²ÑĭÐ± Ð¾ÑĢÐ°
ĠÑģÐ¿Ð¾ÑĢÑĤÐ¸Ð² Ð½ÑĭÐ¹
ĠÐ´ÐµÐ²ÑĥÑĪ ÐºÐ¸
ĠÑĥÐ¸Ð»ÑĮÑıÐ¼ Ñģ
ĠÐ·Ð°Ð¼ÑĥÐ¶ ÐµÐ¼
ĠÐ±Ñĭ ÑĤ
ĠÐ´Ð°Ð² ÑĭÐ´
ĠÑĥÑĤÐ²ÐµÑĢÐ¶Ð´ ÑĳÐ½
ĠÑģÐ¾ÑĤÑĢÑĥÐ´Ð½Ð¸ÑĩÐµ ÑģÑĤÐ²Ð¾
ĠÑģÐ²ÐµÑĤÐ» Ð°Ð½Ð°
Ñĥ Ð°ÑĢ
Ð»Ð¸ ÑĦ
ĠÐ°Ð½ Ð°ÑĤÐ¾Ð¼
ĠÐ¾ÑĦÐ¸ÑĨÐ¸Ð°Ð»ÑĮ Ð½Ð¾Ðµ
ĠÐºÐ¾Ð¼Ð¼ÐµÐ½ÑĤÐ°ÑĢ Ð¸Ð¹
ĠÐ¼Ð¾Ð½Ð°ÑģÑĤÑĭ ÑĢ
ĠÑģÑĥÑĤ ÐºÐ¸
ĠÐ»Ð°Ð½Ð´ ÑĪÐ°
ĠÑħ Ð¸Ñī
Ð¸ÑģÑĤ ÑĭÑħ
ÑĭÐ² Ð°Ð½Ð¸Ðµ
ĠÐ¿ÑĢÐ¾Ð²Ð¾Ð´ ÑıÑĤÑģÑı
ĠÑĩÐ¸ÑĤ Ð°ÑĤÐµÐ»ÐµÐ¹
ĠÑģÐ°ÑĢÐ°ÑĤ Ð¾Ð²ÑģÐºÐ¾Ð¹
ĠÐ´ Ð°Ð¼Ð°
ĠÐºÐ¾ÑĢ ÐµÐ¸
ĠÑĦÐ¸Ð»ÑĮ Ð¼Ñĥ
ĠÐ²Ð¾ÐµÐ½ Ð½Ð¾Ð¼
ĠÐ¿Ð¾ÑģÑĤÑĢÐ¾ Ð¸Ð»
ĠÐ²ÐµÑĢÑħÐ¾Ð² Ð½ÑĭÐ¹
ĠÐ± Ñħ
ĠÐºÐ¾Ð¼Ð¿ Ð°ÐºÑĤ
ĠÐ½Ð°Ð¿ Ð¾Ð¼Ð¸Ð½Ð°
ĠÐ³ÑĢÐ°Ð¶Ð´Ð°Ð½ ÑģÐºÐ¾Ð³Ð¾
ĠÑĤÐ°Ð½ ÐºÐ°
ĠÐ½Ð¸Ð¶ Ð½ÐµÐ¼
ĠÐ´Ð¼Ð¸ÑĤÑĢ Ð¸Ñı
ĠÐ²Ð¾ÑĢÐ¾Ð½ÐµÐ¶ ÑģÐºÐ¾Ð¹
ĠÑģÑĤ Ð¸Ð¼
ĠÐºÐ¾Ð½ÑĨ ÐµÑĢÑĤÐ°
ĠÐ»Ð¸Ñĩ Ð½ÑĭÑħ
ĠÐ¿ÐµÑĢÐµÑĪ Ð»Ð°
ĠÐ¼ ÑĥÑĩÐµÐ½
ĠÐ³ Ð¸ÑĢ
ĠÐ¿ÑĢ Ð¾Ð¹ÑĤÐ¸
ĠÐ¶ÐµÐ½ ÑģÐºÐ¾Ð³Ð¾
ĠÐ¼Ð° ÑĢÐ°ÑĦ
ĠÐ²Ð¾Ð¾ÑĢÑĥÐ¶ ÑĳÐ½Ð½ÑĭÐµ
ĠÐ½Ð°ÑĢ ÐºÐ¾Ð¼
ĠÐ²Ð¾ÑģÐ¿ÑĢ Ð¸ÑıÑĤ
ĠÐ¼ ÐµÑĨ
ĠÐ± Ð°ÑģÑĤ
ĠÑĥ Ð¾ÑĤ
ĠÐ±ÑĥÐ´ ÑĤÐ¾
ĠÐ¿Ð¾Ð»Ð¾Ð¶ ÐµÐ½Ð¸Ð¸
ĠÐ°Ð»ÑĮÑĦ ÑĢÐµÐ´
ĠÑĤ Ð¾ÑĢÐ¾Ð½
Ð¾Ð²Ð°Ð½ Ð½Ð¾Ð³Ð¾
ĠÐ²ÐµÑĢ ÑĪÐ¸Ð½
ĠÑĤÑĥÑĢ Ð±
ĠÑĦÐ°ÐºÑĥÐ»ÑĮÑĤ ÐµÑĤÐµ
ĠÐ»ÑİÑĤ ÐµÑĢÐ°Ð½
ĠÐ´ÑıÐ´ Ñı
Ð¾Ð½ Ð¾Ð²Ð¸Ñĩ
Ð½Ð¾ÑģÑĤ ÑıÐ¼
ĠÑĥÑģÐ°Ð´ÑĮ Ð±Ð°
ĠÐ² Ð»ÑİÐ±
ĠÑĥ ÐµÐ·Ð´Ðµ
ĠÐºÑĢ Ð¸ÑĪ
ÑįÐ½ ÑĤ
ĠÑĢÑĭ ÑĨ
ĠÐ½ Ð¾ÐºÐ°
Ð¾Ð²Ð°Ð½ Ð½Ð°Ñı
ĠÐ¼Ð°ÑĢ Ð¸Ð½Ð°
ÑĥÐ» Ð¸Ð½
ĠÐ½Ð¾Ð² Ð¾Ðº
ÑĩÐµ ÑģÐºÐ¾Ð³Ð¾
ĠÐ¿ÐµÑĢÐµÐ¸Ð· Ð´
ĠÐ»Ð°Ð³ÐµÑĢ Ñı
Ð»Ð¸Ð½ ÑģÐºÐ¸Ð¹
ĠÐ¸ÑģÐ¿Ð¾Ð»Ð½ Ð¸ÑĤÐµÐ»Ð¸
ĠÑģÐ²Ð¾Ð±Ð¾Ð´ Ñĥ
ĠÑģÐ¼Ð¸ÑĢ Ð½Ð¾Ð²
ĠÐ°ÑĢÑħÐ¸Ð¼ Ð°Ð½Ð´ÑĢÐ¸ÑĤ
ĠÐ½Ð°ÑĨÐ¸Ð¾Ð½Ð°Ð»ÑĮ Ð½ÑĥÑİ
ĠÑĤÐ¾Ñĩ ÐºÑĥ
ĠÐ¼Ð¸Ð½ÑĥÑĤ Ðµ
Ð½ÐµÐ¹ ÑĪÐ¸Ñħ
ĠÑĨÐµÑĢÐº Ð²ÐµÐ¹
ĠÑĢÐµÐ°Ðº ÑĨÐ¸Ñı
ÑĮ Ñĳ
ĠÐ°ÑĤÐ»ÐµÑĤ Ð¸ÐºÐµ
ĠÑĢ Ð¾Ð¹
ĠÐ¾Ñģ Ð»Ð°Ð±
Ð»Ðµ Ñı
ĠÐ°Ð» Ð³
ĠÐ½Ð°Ð´ ÑĳÐ¶
ĠÐ²Ð¾Ð» Ð¾ÑģÑĤ
ĠÐ¿ÑĢÐ¾Ð³ Ð¾Ð»Ð¾Ñģ
ĠÐ±ÐµÐ»Ð¾ÑĢÑĥÑģ ÑģÐºÐ¾Ð¹
Ð»Ð° Ð¼ÐµÐ½
ĠÐ³Ð¾Ð» Ð»Ð¸Ð²
ĠÑģÑĤÐ°ÑĤÑĮÑı Ð¼Ð¸
Ð´ÐµÐ½ Ð±ÑĥÑĢÐ³
ĠÐ²Ð¾Ð·Ð² ÑĢÐ°ÑĤ
ĠÐ½Ð°ÑģÐ»ÐµÐ´ Ð¸Ðµ
ĠÐ´ÐµÐ»ÐµÐ³ Ð°ÑĤÑĭ
ĠÐ¸Ð½ÑĤÐµÑĢÐ¿ ÑĢÐµÑĤÐ°
ĠÑģÐ°ÑĥÐ½Ð´ ÑĤ
ĠÑĥ ÑĦÐ°
ĠÐ¶ Ð¸ÑĤÐ¾Ð¼
ĠÑĢÐ°Ð·Ð² Ð¸Ð²
ĠÐ±Ð¾ÐºÑģ ÑĳÑĢÑĭ
ĠÐ² ÐµÐ»Ð¸
ĠÐ¾Ñģ Ð¸
ĠÐºÐ»ÐµÑĤ Ð¾Ðº
ĠÐ¾ÑĤÐ²ÐµÑĤÑģÑĤÐ²ÐµÐ½ Ð½Ð¾ÑģÑĤÑĮ
ĠÑģÐµÑĢÐµÐ± ÑĢÐ¾
ĠÐ´ÑĢÐµÐ²Ð½ÐµÐ³ ÑĢÐµ
Ð· ÐµÐ½
ĠÐ° ÑĢÐ°Ð³
ĠÐ¾ÑĤ ÑĢÐµÐ·
ĠÐ¸Ð½ ÑĨÐ¸Ð´
ĠÐ±Ð°Ðº ÑĤÐµÑĢ
ĠÑĥÐ»ÑĥÑĩÑĪ ÐµÐ½Ð¸Ñİ
ĠÐ°ÑĦÐ°Ð½ Ð°ÑģÑĮ
ĠÐ²Ð½ Ð¸Ð·
ĠÑĨÐ°ÑĢ ÑģÑĤÐ²Ð°
ĠÑĩÐ°ÑģÐ¾Ð² Ð½Ñı
ĠÐ²ÑĭÑģÐ¾ÑĤ Ñĥ
ĠÑĥÑħÐ¾Ð´ Ð°
ĠÑĪ Ð²Ð°ÑĢ
ĠÐ³Ð¾ÑĢ Ðµ
ĠÐ³Ð¾ÑĢ Ð±
ĠÑģÑĤÐ¸Ñħ Ð¾Ð²
ÑĪÑĥÑİ ÑģÑı
ĠÑĢÐ°ÑģÑģÐ¼Ð°ÑĤÑĢÐ¸Ð² Ð°ÑĤÑĮ
ĠÐ¿ÐµÑĢÐ²ÐµÐ½ ÑģÑĤÐ²Ð°
ĠÑģÐºÐ¾ÑĤ ÑĤ
ĠÐ°ÑĤÐ¼Ð¾Ñģ ÑĦÐµÑĢ
Ð½Ñĭ ÑĪ
ĠÑĪ Ñĥ
ĠÑĩÐ¸Ñģ ÐµÐ»
ĠÑģÐ°Ð½ Ðº
ĠÑĢÐ°Ð·Ð´ÐµÐ» Ñĭ
ĠÐ±Ð°Ðº Ð°Ð»
ĠÐµÐºÐ°ÑĤÐµÑĢ Ð¸Ð½Ñĭ
ĠÑĤÐµÑĢÑĢÐ¾ÑĢ Ð¸ÑģÑĤ
Ð¾ÑĢ Ð¾Ð´Ð°
ĠÐ´ÑĢÑĥÐ³ Ñĥ
ĠÐ¿Ð¾Ð¼ ÐµÑĪ
Ð°ÑİÑī ÑĥÑİ
ĠÐ²Ð°Ð³ Ð¾Ð½
ĠÐºÐ¾Ð¼ÐµÐ´ Ð¸Ð¸
Ð¸Ñĩ ÐµÐ²
ĠÐ·Ð°ÑĤ Ð¾
ĠÐ´ÐµÐ² ÑıÑĤÑĮ
ĠÑĢÐµÐ»Ð¸Ð³ Ð¸Ñı
ĠÑģÐ¾Ð´ÐµÑĢÐ¶Ð¸Ð¼ Ð¾Ðµ
ĠÐ¼Ð¸Ð½Ð½ÐµÑģ Ð¾ÑĤÐ°
ĠÐ½Ð° ÑĢÑĥ
ĠÐ¼Ð°Ñģ Ð»Ð¾
ĠÐµÐ´ Ð²Ð°
ĠÐ´Ð²Ð°Ð´ÑĨ Ð°ÑĤÑĮ
ĠÑĢÐµÑĪ ÐµÐ½Ð¾
ĠÑĩÐµÑĢÐ½ Ð¾Ð³
ĠÐ½ÐµÐ² ÐµÑĢ
ĠÐ²ÐµÑģ Ðµ
ĠÐ¼Ð¾Ð»Ð¾Ð´ÑĳÐ¶ Ð½Ð¾Ð¹
ĠÐ°Ð³ÐµÐ½ÑĤ ÑģÑĤÐ²Ð¾
ĠÑįÑģ Ð¼Ð¸Ð½
ĠÐº Ð¸ÐµÐ²Ð°
Ð¸Ð´ Ð¶Ð¸
ĠÐ°Ð´Ð¼Ð¸ ÑĢÐ°Ð»Ð°
ĠÐ¿ÑĦ Ð°Ð»ÑĮÑĨ
ĠÑĢÐ¾Ð´ Ñĭ
ÑĳÑĢ Ðº
ĠÐ²Ð¸Ð´Ð¸Ð¼ Ð¾Ð¼Ñĥ
ĠÐ²Ð¾ÐµÐ²Ð¾Ð´ ÑģÑĤÐ²Ð°
ĠÑģÐµÐ²Ð°ÑģÑĤ Ð¾Ð¿Ð¾Ð»ÑĮ
ĠÑĤ Ñħ
ĠÐ± Ð¾Ð½Ð´
ĠÐºÐ°Ð· Ð°ÐºÐ¾Ð²
ĠÐ¿ÑĢ Ð¸ÑıÑĤ
ĠÐµÐ´Ð¸Ð½ Ð¾Ð¹
ĠÑģÐµÐº ÑĤÐ¾ÑĢ
ĠÐ³Ð» ÑĥÑħ
ĠÑĥÑĢ Ð¾Ð¶Ð´
ĠÑĤÐ±Ð¸Ð» Ð¸ÑģÐ¸
ÑĢÐµ ÑģÐ°
ĠÑģÐ²Ð¾Ð±Ð¾Ð´ Ð½Ð¾Ð³Ð¾
ĠÐ²Ð¾Ð¾ÑĢÑĥÐ¶ ÐµÐ½Ð¸Ñı
ĠÑĤÐ¾Ð¿ Ð¾Ð³ÑĢÐ°ÑĦ
ĠÑĦÐ¾ÑĢ ÑĥÐ¼Ðµ
Ð° Ð¶Ð´
ÐµÐº ÑģÐ°
ĠÑħ ÐµÑĢ
Ð¼Ð° ÑĪ
ĠÐ¿Ð¾Ðº Ð¾ÑĢ
ĠÑĥÐºÐ°Ð· Ð°Ð½Ñĭ
ĠÑĦÑĢÐ°Ð½ÑĨÑĥÐ· ÑģÐºÐ¸Ñħ
ĠÐºÐ¸Ð½ Ð¾Ðº
ĠÑģÐ¾Ð·Ð´Ð°Ð½ Ð½ÑĭÐµ
ĠÑĦÑĥÐ½ ÑĤÐ¾Ð²
ĠÐµÐ²Ð³ ÐµÐ½ÑĮ
ĠÐ¿Ð¾Ð¿ Ð°Ð´Ð°ÐµÑĤ
ĠÐ°ÑĢÑħ Ð¸
ĠÐºÐ½Ð¸Ð³ Ð°Ñħ
ĠÑĥÐ²Ð°Ð¶ Ð°ÐµÐ¼ÑĭÐ¹
ĠÐ¸Ð¼Ð¼ Ð¸Ð³
ĠÑģÑĥÐ´ ÐµÐ¹
ĠÐ¿ÑĢÐ¾ÑĪ Ð»Ð¾
ĠÑģÐ¿Ð¾ÑģÐ¾Ð± Ð¾Ð¼
ĠÑĥÑĩÑĢÐµÐ¶Ð´ ÐµÐ½Ð¸Ðµ
ĠÐº ÐµÐ»
ĠÐ³Ð¾ÑĢ Ð½ÑĭÐ¹
ĠÑģÐ°Ð¼ Ð¾Ð¼Ñĥ
ĠÑĢÐ¾Ð¼ Ð°Ð½Ñĭ
ĠÑħÑĢÐ°Ð¼ Ñĭ
ĠÐ¼Ð°ÑĢÑĪ Ð°Ð»
ĠÐºÐ°ÑĦÐµÐ´ ÑĢÐ°
ĠÑģÐ¾Ð»Ð½ ÑĨÐµ
ĠÐºÐ¾Ð»Ð»ÐµÐº ÑĨÐ¸Ñı
ĠÐ½Ð¾ÐºÐ° ÑĥÑĤ
ĠÐ¼ Ð°Ð½ÑĤ
Ð°ÑĢ Ð¼Ð¾Ð½
ĠÐ³Ð¾ÑģÑĥÐ´Ð°ÑĢ ÑģÑĤÐ²Ð¾Ð¼
ĠÐ²Ð½ Ð¸Ð·Ñĥ
ĠÐ²Ð¾Ð» Ð¶
ĠÐ¿ÐµÑĤÑĢ Ð¾Ð³ÑĢÐ°Ð´
ĠÐ»ÐµÐ½Ð¸Ð½Ð³ ÑĢÐ°Ð´Ðµ
ĠÑģ Ð¸Ð½Ð°
ĠÐº ÐµÐ²
ĠÐ³Ð¾ÑĢ Ð½ÑĭÑħ
ĠÐ·Ð°Ðº Ð¾Ð½Ð¾Ð²
ĠÑĥÑĩÐµÐ½ Ð¸ÐºÐ°Ð¼Ð¸
ĠÐ¾Ð³ÑĢÐ°Ð½Ð¸Ñĩ ÐµÐ½Ð¸Ñı
ĠÑģÑĢÐ¾Ðº Ð°
Ð» Ð¾Ð¹
Ñĥ ÑĢÐ°ÑĤ
ĠÐ´ Ð°Ðº
ĠÑĤ ÑĢÑĥÐ¿Ð¿
ĠÑģÐ¾ÑĨÐ¸Ð°Ð»ÑĮ Ð½Ð¾Ð³Ð¾
ĠÐ²ÐµÑĩ ÐµÑĢÐ¾Ð¼
ĠÐ²Ð»Ð°Ð´ÐµÐ» ÐµÑĨ
ĠÑĥÐ³ÑĢ Ð¾Ð¶
ĠÐº ÐµÐ½Ð½
ÑĦ Ñĥ
ĠÐ¾ÑĤ ÑĤÐ¾
ĠÐ¼ÐµÐ¶Ð´ÑĥÐ½Ð°ÑĢÐ¾Ð´ Ð½ÑĭÐ¼
ĠÐ½Ð°ÑĢÑĥÑĪ ÐµÐ½Ð¸Ð¹
ĠÐ¿ÑĥÑĤÐµÑĪ ÐµÑģÑĤÐ²ÐµÐ½
ĠÐ¿Ð¾Ð´Ð²ÐµÐ´ ÑĳÐ½
Ð¼ Ñı
Ñĩ Ð°Ðº
ÐµÐ´ Ð¸
ĠÑĪ ÑĳÐ»
ĠÐ¾ÑĤÐ²ÐµÑĤ Ð¸Ð»
ĠÐ°ÑĢÐ¼ÑıÐ½ ÑģÐºÐ¾Ð¹
ĠÑģÑĤÐ¾Ð»ÐµÑĤ Ð¸Ñı
ĠÑĢÐ°ÑģÑģÑĤÑĢ ÐµÐ»ÑıÐ½
ĠÐ°Ð½Ð³Ð»Ð¸Ñĩ Ð°Ð½
ĠÐ´ ÑĭÐ¼
Ð¸Ñĩ Ð½ÑĥÑİ
ĠÑĥÑĩ Ð¸ÑĤÐµÐ»Ñı
ĠÐ¿ÐµÑĢÐµÐ´ Ð°Ð»
ĠÐ¸Ð·Ð´Ð°ÑĤÐµÐ»ÑĮ ÑģÑĤÐ²Ð°
ĠÐ¾ÑĢÐ»Ð¾Ð² ÑģÐºÐ¾Ð¹
ĠÐ½Ð° Ð¶
ĠÑĪ ÑĢÐ¸ÑĦ
ĠÑħÐ¾ÑĢ Ð¾
ĠÑģÐµÐºÑĢÐµÑĤ Ð°ÑĢÑĳÐ¼
ĠÐ¾Ð¿ÑĥÐ±Ð» Ð¸ÐºÐ¾Ð²
ĠÐ½Ð¾Ð± ÐµÐ»ÐµÐ²
ĠÐ± ÑĢÐ¾
Ð½Ð¾Ð² ÑģÐºÐ¸Ð¹
ÐµÑģÑģ Ð¸
ĠÐ°Ð»ÑĮ ÑıÐ½
ĠÐ³Ð¾Ð» Ð°
Ð¸ÑĨÑĭ Ð½
ĠÐ¿Ð¾Ð´Ð³Ð¾ÑĤÐ¾Ð² ÐºÑĥ
ĠÑģÐ¾Ð¾ÑĢÑĥÐ¶ ÐµÐ½Ð¸Ð¹
ĠÐ² ÑĬ
ĠÐµ Ð´Ð¸
ĠÐ¿ÑĢÐ¾Ð´ ÐµÐ¼
ĠÐºÐ¾Ð½Ñģ ÑĥÐ»
ĠÐ¿ÑĢÐ¾ÑĦÐµÑģÑģÐ¸Ð¾Ð½ Ð°Ð»ÑĮÐ½Ð¾Ð³Ð¾
ĠÐ¼ÑıÑĩ ÐµÐ¹
ĠÐ¿ Ð°Ð¹
ĠÑģÐ² Ð¾Ð±Ð¾Ð´Ð°
ĠÐ¿Ð¾Ð´Ð´ÐµÑĢÐ¶ Ð¸Ð²Ð°ÐµÑĤ
ĠÑģÑĤÑĢÐµÐ»ÐºÐ¾Ð² ÑĭÐ¹
ĠÐ·Ð°Ð¼ÐµÐ½ Ñĥ
ĠÐ½Ð¾Ñĩ Ð¸
Ð¼ Ñģ
Ð°Ð½ ÑĨÐµÐ²
ĠÑĢÑĥÑģ ÑĮ
ĠÐ¿ÑĢÐ¸Ð±Ñĭ Ð»Ð¸
ĠÐ¿ ÑĥÑĩ
ĠÐ³ ÐµÑģÑģ
ĠÑĦ ÐµÑħ
Ð¸Ñħ ÑģÑı
ĠÐ¿ÑĥÑĤ Ð¸Ð½
ĠÐ·Ð°ÑıÐ² Ð»ÐµÐ½Ð¸Ðµ
ĠÑģÑĤÐ°Ð² Ð¸ÑĤÑĮ
ĠÑĤÐ¾Ð² Ð°ÑĢÐ¾Ð²
ĠÐ½Ð°Ð½ Ð¾Ñģ
ĠÑĩÐµÐ»Ñı Ð±Ð¸Ð½
Ð± ÐµÑĢÑĤ
ĠÑĢÐµ ÑģÑĤÐ¾
ĠÐ¿Ð¾Ð´ Ð¾ÑĪ
ĠÐ¸ÑĤÐ°Ð»ÑĮÑıÐ½ ÑģÐºÐ¾Ð¹
ĠÐ±Ð¾Ð»Ð³Ð°ÑĢ Ð¸Ñı
ĠÐ¼ ÑĥÑģÑĤ
ĠÐ¿Ð¾Ðº Ð¸Ð´
ĠÐ»Ð¸Ñĩ Ð½Ð¾Ð¹
ĠÐ±ÑĢÐ¾Ð½Ð· Ð¾Ð²ÑĭÐµ
ĠÐ¿Ð¾Ð´Ðº ÑĢÐµÐ¿
ĠÑĤÐ¾ÑĢÐ¿ÐµÐ´ Ð¾
Ñĩ Ð¾
ĠÐ´ Ð¸Ð»
ĠÑı Ð»
ÑĥÑĤ Ñĭ
ĠÑĦÐ¸Ð· Ð¸Ðº
ĠÐ¿ÑĢÐ°Ð²Ð¾ÑģÐ»Ð°Ð² Ð½ÑĭÐµ
ĠÐºÐ°Ð´ ÐµÑĤ
ĠÑĦÐµÐ´ÐµÑĢÐ°Ð»ÑĮ Ð½Ð¾Ð¹
ĠÐºÑĥÐ·Ð½ÐµÑĨ Ð¾Ð²
ĠÐ½ÐµÐ¾Ð¶Ð¸Ð´ Ð°Ð½Ð½Ð¾
ÐµÐ½ Ð´Ðµ
ĠÑĢÐµ Ð¶Ðµ
ĠÐ¼ÐµÐ´ Ð¸Ð°
ĠÐ´ÐµÐ¹ÑģÑĤÐ² Ð¸ÑĤÐµÐ»ÑĮÐ½Ð¾ÑģÑĤÐ¸
ĠÐ°ÐºÑĤÐ¸Ð² Ð½Ð¾ÑģÑĤÑĮ
ĠÐ»ÑİÐ´ Ð¾Ð²
ĠÐ¿ÑĢÐ¾Ð²Ð¸Ð½ ÑĨ
ĠÐ°Ð²Ð°Ð½Ð³ Ð°ÑĢÐ´
ĠÑĢ Ð¸ÑĦ
ÐµÐº Ð¾Ð²
ĠÐ´Ð¾Ð» Ð¸Ð½Ðµ
ĠÐ° ÑĢÐ°Ð½
ĠÐ¿ÑĢÐ¾ ÑīÐµ
ĠÐ±Ð¾Ð» Ð¸Ð²
Ð¼ÐµÑĤ ÑĢ
ĠÐ³ÐµÐ¾ÑĢÐ³ Ð¸ÐµÐ²Ð¸Ñĩ
ĠÑģÐ¸Ð¼Ð²Ð¾Ð» Ð¾Ð²
ĠÐµÐ²ÑĢÐµÐ¹ ÑģÐºÐ¾Ð¹
ĠÐ¾Ð´Ðµ Ð¶Ð´Ñĭ
ĠÑį Ð¼Ð¸
ĠÐ¿Ð¾Ð´ ÑĢÑĥÐ³
Ð½Ñı Ð²
ĠÑģÐ¾ ÑĪ
ĠÑģÑĢÐµÐ´ Ð½ÑİÑİ
ĠÐ²Ð¾Ð· Ð¼
ĠÐ²ÐµÑĢ Ñĭ
ĠÑĪÐ¸ÑĢ Ð¸Ð½Ð¾Ð¹
ĠÐ°Ð½ÑĤ Ð¸Ð¿
ĠÐ¾ÑĦÐ¸ÑĨÐ¸Ð°Ð»ÑĮ Ð½Ð¾Ð¹
ĠÐ»ÐµÑģ Ð½Ð¾Ð¹
ĠÐ½Ð¾ÑĢÐ¼ Ð°ÑĤÐ¸Ð²
ĠÑĥÑĩÐµÐ± Ð½ÑĭÐµ
ĠÐ»Ð¸Ð´ ÐµÑĢÐ¾Ð¼
ĠÐ¸ÑģÐ¿ÑĢÐ°Ð² Ð¸ÑĤÑĮ
Ð´ Ð¾ÑĢ
ĠÐ´Ð¾Ð± Ð¸ÑĤÑĮÑģÑı
ĠÐ·Ð°Ð± Ð»
ĠÐ° Ð»Ñı
ĠÐ¶ ÐµÑĢÑĤ
ĠÑĤÑĢ Ð¾Ð½
ĠÑģÑĢÐµÐ´ Ð½ÐµÐµ
ĠÐ¿Ð¾Ð»ÑĥÑĩ Ð°ÑİÑĤ
ĠÑĦÐ¾ÑĢÐ¼ Ð°ÑĤÐµ
ĠÐ°Ð½Ð³ Ð»Ð¾
ĠÐºÐ¾ Ð¾Ð¿
ĠÐ²Ð°Ð¶ Ð½ÑĭÑħ
ĠÐ²Ð¾Ð·Ð½Ð¸Ðº Ð»Ð°
ĠÑĢ Ñģ
ĠÐ´Ð² Ð¸Ð½
ĠÑĤÐµÑĢÑĢÐ¸ÑĤÐ¾ÑĢÐ¸Ð°Ð»ÑĮ Ð½Ð¾Ðµ
ĠÐ°Ð²Ð¸Ð°ÐºÐ¾Ð¼Ð¿ Ð°Ð½Ð¸Ð¸
ĠÑĤ ÐºÐ°Ð½
ĠÐ¿ÑĢÐµÐ´ Ð²Ð¾Ð´
Ð¼Ð°Ð½ Ð¾Ð¼
ĠÐ¼Ð¾ÑĢ ÑģÐºÐ¸Ðµ
ĠÐ¿ÑĢÐ¾Ð¸Ð·Ð²Ð¾Ð´ ÑģÑĤÐ²Ñĥ
ĠÐ¿ÐµÑĢÐµÐ¸Ð¼ÐµÐ½ Ð¾Ð²Ð°Ð½Ð¸Ðµ
ĠÐ¿Ð¾Ð¼Ð¾Ð³ Ð°ÐµÑĤ
ÐµÑģ Ð¸
ĠÐ±ÐµÑĢ ÐµÐ¼
ĠÑĤÐ¸Ð¿ Ñĭ
ĠÑĦÑĢÐ°Ð½ÑĨÑĥÐ· ÑģÐºÐ¾Ð¼
ĠÑĦÐ°Ð±ÑĢ Ð¸ÐºÐ°
ĠÐ¾ÑĤ ÑĢÑĭÐ²
ĠÐ³Ð¸Ð»ÑĮ Ð´
ĠÐ½ Ð¸ÐºÐ°
ĠÐ¸ ÐµÑĢÐ°ÑĢ
Ð°ÑĢ ÑģÐºÐ°Ñı
ĠÑģÐ¸Ð» Ð¾Ð¹
ĠÐºÐ¾Ð»Ð»ÐµÐºÑĤ Ð¸Ð²Ð°
Ð½ Ð°Ð¼Ð¸
ĠÐ·Ð² ÑĥÐºÐ°
ĠÐ»ÐµÐ¹ Ð¿ÑĨ
ĠÐ²ÐµÐº Ð°Ñħ
ĠÐ¿ÑĢÐ¾Ð±Ð»ÐµÐ¼ Ñĥ
ĠÐ·Ð°Ð²Ð¾ÐµÐ² Ð°Ð»Ð°
ĠÑģÐµÑģÑĤ ÑĢÑĭ
ĠÐ² ÐµÐ·Ð´Ðµ
ĠÑģÐ¿ Ð°ÑģÑĤÐ¸
ĠÐ³Ð¾ÑģÑĥÐ´Ð°ÑĢÑģÑĤÐ²ÐµÐ½ Ð½Ð¾Ðµ
ĠÐ¶ÐµÐ½ ÑģÐºÐ¸Ð¹
ĠÑģÐ¾Ð²ÑĢÐµÐ¼ ÐµÐ½Ð½Ð¾Ð¼
ĠÐ½ÐµÐ² ÑģÐºÐ¾Ð³Ð¾
ĠÑģÐ¾ÐµÐ´Ð¸Ð½ ÐµÐ½Ð¸Ð¹
ĠÐ¿Ð¾ÑģÑĤÐ°Ð½Ð¾Ð² Ð»ÐµÐ½Ð¸Ðµ
ĠÐºÐ¾Ð½ÑĦÐµÑĢÐµÐ½ ÑĨÐ¸Ñı
ĠÐ¿Ð¾ÐµÐ´Ð¸Ð½ ÐºÐµ
ĠÐ² ÑĢÐ°Ð¶Ð´
ÐµÐ» Ð»Ñĭ
ĠÐ¾Ð± Ð»ÐµÐ³
ĠÐ¾ÑģÐ½Ð¾Ð² Ð°ÑĤÐµÐ»ÐµÐ¹
ĠÐ¿Ð¾Ð»ÑĥÑĩ Ð¸Ð»Ð¾
ĠÐºÑĢÑĭ Ð»Ð°
ĠÑĢÐ° Ð½Ð¾
ĠÑĢ Ð¾ÑģÐº
ĠÐ¿Ð¾Ð» Ð½Ð°Ñı
ĠÐ¿ÐµÑĤ ÑĢÐ¾Ð·
ĠÐ¼Ð¾Ð´ ÐµÐ»ÐµÐ¹
ĠÐ´Ð°Ð² Ð°ÑĤÑĮ
ĠÐ¼Ð°Ð³ Ð½
ĠÐ²ÐµÑģ Ð¾Ð¼
ĠÑģÐ»Ð°Ð± Ð¾
ĠÐ¿Ð¾Ð»Ð¾Ñģ Ñĭ
ĠÑĪ Ð¸Ð½
ĠÑģÐ¾Ð²ÐµÑĤ Ðµ
ĠÑģÑĥÐ± Ð±Ð¾ÑĤ
ĠÐ¼ÐµÐ¼Ð¾ÑĢ Ð¸Ð°Ð»ÑĮÐ½Ð°Ñı
ĠÑĤÐ¸Ð± ÐµÑĤ
ĠÐ²ÑĭÑģÐ¾Ñĩ Ð°Ð¹
ĠÐ±ÐµÐ·ÑĥÑģÐ»Ð¾Ð² Ð½Ð¾
ĠÐ¾ÑĤ ÑĢÐ°Ð·
ĠÐ²Ð· ÑĢÑĭÐ²Ð°
ĠÐ°Ð½Ð³ Ð»Ð¾Ð²
ĠÐ¼Ð°Ð» Ð¾Ð³Ð¾
ĠÑģÐ»ÐµÐ´ÑĥÑİÑī ÐµÐ³Ð¾
ĠÐ¼Ð»Ð°Ð´ ÑĪÐµÐ³Ð¾
Ð½ Ñĸ
ĠÐ³ Ñį
ĠÑĥÑĩ Ð¸ÑĤÐµÐ»ÐµÐ¼
ĠÐºÐ¾ÑĢ Ð¾Ð½Ð°
ĠÐ±ÐµÐ» Ð¾Ðº
ĠÐ±Ð¸ Ð°ÑĤÐ»Ð¾Ð½
ĠÐ¼Ð¸Ð½Ð¸ Ð°ÑĤ
ÑİÑīÐµÐ¹ ÑģÑı
ĠÐ± ÑĢÐµÑĤ
Ð¸Ð½ Ð°Ð²
Ð»Ð¾ ÑĪ
ĠÐ°ÑĢÑĤ ÐµÐ¼
ĠÐ¿ÑĢÐ¾ÑĤÐ¸Ð²Ð¾ÑĢÐµÑĩ Ð¸ÑĤ
ĠÐ¿Ð³ ÑĤ
ĠÑĢÐµÑĦÐµÑĢ ÐµÐ½Ð´
ĠÐ¾Ð±ÑĢÐ°Ð· Ð¾Ð²Ð°Ð½Ð°
ĠÐ¸Ð´Ðµ Ñİ
ĠÐ²ÑĭÐ¸Ð³ ÑĢÐ°Ð²
ĠÐ¿Ð¾Ð´ÑĬ ÑĳÐ¼
ÐµÐ½ ÑģÑĤÐ²Ð°
Ð»Ð° Ð¶Ð´
ÐµÐº Ðµ
Ð¸ÑĦ Ð¸ÐºÐ°ÑĨÐ¸Ñı
ÐµÑī ÐµÐ½Ð¸Ðµ
ĠÐ¿ÑĢÐµÐ´ÑĥÐ¿ÑĢÐµÐ¶Ð´ ÐµÐ½Ð¸Ñı
ĠÐ¿Ð¾Ð´ ÑģÑĤ
ĠÐºÑĢÑĥÐ¿ Ð½ÑĭÐ¼
ĠÑģÑĤÐ°Ð´Ð¸Ð¾Ð½ Ðµ
ĠÐ¿Ð¾Ð»Ð½Ð¾Ð¼Ð¾Ñĩ Ð¸Ð¹
ĠÐ¼ÑĳÑĢÑĤ Ð²
ÑĪ ÐµÑĢ
ĠÐ¿ÑĢ Ð¾ÑģÐ»Ð°Ð²
ĠÑĦ Ð°Ð»
ĠÐ¿ÑĢÐµ Ð²Ñĭ
ĠÐ¿ÑĢÐ¾ÑĤÐ¸Ð² Ð¾ÑĤÐ°Ð½
ĠÐ°Ðº ÑĨÐ¸Ð¸
ĠÐ¾Ð· ÑĳÑĢÐ°
ĠÐ»Ð¸Ñĩ Ð½Ð¾ÑģÑĤÑĮ
ĠÐ¸Ð± ÑĢÐ°Ð³
ĠÑģ ÑĥÐº
ĠÐ¾Ð± ÑĢÑıÐ´
Ð¸Ñģ Ð»Ð¾Ð²
ĠÐ¸Ð· Ð°Ð±
ĠÑĢÐ°Ð· Ð±Ð¸
ĠÐ»ÑİÐ± Ð¸ÑĤ
ĠÐ±Ð» Ð¾Ð³
ĠÑĢÐµÐ»Ð¸Ð³Ð¸Ð¾Ð· Ð½ÑĭÑħ
ĠÐ¼Ð¸ÑĦ Ð¾Ð»Ð¾Ð³Ð¸Ð¸
Ð» Ð°ÑĤÑĭ
Ð¸Ð¹ ÑģÐºÐ¸Ð¼
ĠÐºÐ° ÑĢÐ°Ð³
ĠÐ²ÐµÑĢ Ð±
ĠÑĢÐ¾Ð´ Ð¾ÑģÐ»Ð¾Ð²
ĠÐ·Ð°Ð¿ ÑĥÑī
ĠÐ·Ð°Ð¿ Ð¸ÑģÐºÐ¸
ĠÐ±Ð»Ð°Ð³ Ð¾Ñĩ
ĠÐ¿Ð¾Ð´Ð¾Ð± Ð½Ð¾Ðµ
ĠÐ¿Ð¾ÐºÐ¸Ð½ ÑĥÑĤÑĮ
ĠÑĢÐ¸ÑĤ Ð¼
ĠÑģÑĤÑĥÐ´Ð¸Ð¹ Ð½ÑĭÐ¹
ÑĳÐ½ Ð½Ð¾ÑģÑĤÐ¸
ÐµÐ»Ñı Ð¼Ð¸
ĠÑĤÐµÐ» ÐµÑģÐº
ĠÐ½Ð°Ð¿ Ð¾Ð»Ð½
ĠÐºÑĢ Ð¾ÑģÑģ
ĠÑģÐ»Ð¾Ð² Ð°ÐºÐ¸Ð¸
ĠÐ¾ÑĪÐ¸Ð± Ð¾Ðº
ĠÐ½Ð°Ð¿Ð°Ð´ ÐµÐ½Ð¸Ñı
ÑĢÐ° ÑĨÐ¸Ñİ
Ð¸Ð¼ ÑĭÐ¼
ĠÑģÐ¾Ð² ÐµÑī
ĠÑģÐ¾Ð· ÑĭÐ²
ĠÐ¾ÑģÐ¾Ð± Ð¾Ðµ
ĠÐ²Ð´ ÑĢÑĥÐ³
ĠÑħÐ¾ÐºÐºÐµ Ð¸ÑģÑĤÑĭ
ĠÐ¿Ð¾ÑģÐµÑĤ Ð¸Ð»
ĠÐ³ÑĢ ÑįÐ¼
ĠÑĤÐ¾Ñĩ ÐµÐº
ĠÐºÐ°Ð·Ð°ÑħÑģÑĤ Ð°Ð½ÑģÐºÐ¾Ð¹
ĠÑĤÐ°Ð½ÐºÐ¾Ð² Ð¾Ð¹
ĠÐ¿ÑĢÐ¾Ð· ÑĢÐ°Ñĩ
ĠÐ½ÐµÐ½ Ð°Ð²
ĠÐ¿Ð°ÑĢÑĤÐ½ ÑĳÑĢ
ĠÐ¿ÐµÑĤÑĢÐ¾Ð· Ð°Ð²Ð¾Ð´
Ðº ÐµÑĤ
ÑĢÐµ Ðµ
ĠÑĢ Ð¸Ð´
ĠÐ¿Ð¾Ð» ÐµÐ¼
ĠÐ¿ÐµÑĢÐµÐ´ Ð°Ð²
ĠÐ¼Ð¸Ð» Ð¸ÑĨÐ¸Ð¸
ĠÑĤÑİ Ð¼ÐµÐ½
ĠÑģÐ¾Ð³Ð»Ð°ÑĪ ÐµÐ½Ð¸Ñı
ĠÐ¼ÑĥÐ»ÑĮÑĤÑĦÐ¸Ð»ÑĮ Ð¼Ñĭ
ĠÑİÑģÑĤ Ð¸ÑĨÐ¸Ð¸
ĠÐ¿ÑĢÐ¾ÑģÐ² ÐµÑīÐµÐ½Ð¸Ñı
ĠÐ½ÐµÐ¼ÐµÐ´ Ð»ÐµÐ½Ð½Ð¾
Ð¾ÑĤ ÐµÑħ
ÐµÑĢÐ° ÐºÑĤ
ĠÐ¿ÑĢÐ¸Ð² ÑĳÐ»
ĠÐ²Ð¾ÑģÑĤÐ¾Ñĩ Ð½ÑĭÑħ
ĠÐ²Ð·Ð°Ð¸Ð¼Ð¾Ð´ÐµÐ¹ÑģÑĤÐ² Ð¸Ñı
ĠÑĤÐ°Ð³ Ð°Ð½
ĠÐ½Ð°Ð¿Ð¾Ð¼Ð¸Ð½ Ð°ÐµÑĤ
ĠÐ¾Ð± Ð¾Ð³
ĠÐ°Ð½ ÑĢÐ¸
ĠÐ´Ð½ Ðº
Ð½Ð¾ Ñİ
ĠÐ¿Ð¾Ð² Ð¾ÑĢÐ¾ÑĤ
ĠÐ¿Ð¾Ð½ ÑĢÐ°Ð²
ĠÑģÐ¾Ð¾ÑĤÐ²ÐµÑĤÑģÑĤÐ² ÑĥÑİÑīÐ¸Ðµ
ĠÐ¾Ð±ÐµÑģÐ¿ÐµÑĩ Ð¸ÑĤÑĮ
ĠÐ°Ð±Ð± Ð°ÑĤ
ĠÑĢÐµÐºÐ¾Ð¼ÐµÐ½Ð´Ð° ÑĨÐ¸Ð¸
ĠÑĢÐµ Ð°Ð³
ĠÐ¼ÐµÐ´ Ð°Ð»ÑıÐ¼Ð¸
ĠÐ½ÐµÐ¼ Ð½Ð¾Ð³
ĠÐ·Ð¾Ð» Ð¾ÑĤÐ°
ĠÐ¿ÑĢÐ¸Ð½ÑĨ ÐµÑģÑģÐ°
ĠÐ¾Ð±ÐµÑģÐ¿ÐµÑĩ Ð¸Ð²Ð°ÐµÑĤ
ĠÑĢÐµÑĨÐµÐ½Ð· Ð¸Ð¸
ĠÐ°ÑĢÐ³ÐµÐ½ÑĤ Ð¸Ð½Ð°
Ð´ ÐµÑĤ
ĠÐ± ÑĢÑĥÐº
ĠÐ²Ð¸Ð´ Ð¾Ð¼
ĠÑħÑĥ Ð¶Ðµ
ĠÐ´Ð¾ÐºÐ°Ð·Ð°ÑĤÐµÐ»ÑĮ ÑģÑĤÐ²Ð°
ĠÐ»ÑĳÑĤ ÑĩÐ¸Ðº
ĠÐºÐ¾ÑģÑĤÑĢÐ¾Ð¼ ÑģÐºÐ¾Ð¹
ĠÐ´ ÑĥÐ½
ĠÐµ Ð»
ĠÑĩÐ°ÑģÑĤ Ð¸ÑĨ
ĠÑĤÑĥÑĢ ÑĨÐ¸Ñı
ĠÐ²ÑĭÑĪ Ð»Ð¾
ĠÐ³ÐµÑĢÑĨ ÐµÐ³Ð¾Ð²
ĠÐ¼ÑĥÑħÐ°Ð¼Ð¼ Ð°Ð´
ĠÑįÐ»Ð¸Ð· Ð°Ð±ÐµÑĤ
Ð¸Ð¹ ÑģÐºÐ¾Ðµ
Ð¸Ñĩ Ð½ÑĭÐ¼Ð¸
ĠÑģÐ» Ð¾Ð¼
ĠÐºÐ°Ð· Ð°Ð½Ð¸
ĠÑĤÐ°Ð±Ð»Ð¸ÑĨ Ñĭ
ĠÐ´Ð²Ð¸Ð¶ ÐµÐ½Ð¸Ð¸
ĠÑģÐºÐ¾ÑĢ Ð¾
ĠÐ³ Ð°Ð»ÑĮ
ĠÑħ Ð°Ð·
ĠÐºÐ¾Ð½ Ð²ÐµÐ½
ĠÑģÐ¾Ðº ÑĢÐ°ÑĤ
ĠÐ¼ÑĥÐ· ÐµÐ¸
ĠÑģÑĥÐ¼ Ð¼Ð°
ĠÑģÑħ Ð²Ð°ÑĤ
ĠÐ¿ÑĢÐµÑģÑģ Ðµ
ĠÐ¿Ð¾Ð´Ñĩ ÐµÑĢÐº
Ð°Ð¹ ÐºÐ°Ð»ÑĮ
ĠÑģÑĤÐµÐ¿ Ð°Ð½Ð¾Ð²
ĠÐ¿ÑĢÐµÐ´ÑĥÐ¿ÑĢÐµÐ¶Ð´ ÐµÐ½Ð¸Ðµ
ĠÐ²Ð·ÑĢÐ¾ÑģÐ» ÑĭÑħ
ĠÐ½ Ð¸Ð»
ĠÐ´ Ð¸Ð´
Ð°ÑĤ ÑĢÑĥÐ»Ð¸
ĠÐºÐ¾Ð½ÑģÑĤÐ°Ð½ÑĤ Ð¸Ð½Ð¾Ð²
ÑİÑīÐ¸Ð¼ ÑģÑı
ĠÑįÐ½ÑĨÐ¸ÐºÐ»Ð¾Ð¿ÐµÐ´ Ð¸ÑĩÐµÑģÐºÐ¸Ð¹
ĠÑģÑĤÐ¾ÑĢÐ¾Ð½ Ð½Ð¸ÐºÐ¾Ð²
ĠÐ¼ÐµÑĢÐ¾Ð¿ÑĢÐ¸ÑıÑĤ Ð¸Ñı
ĠÑĢ Ð¸Ð½
ĠÐ¿Ð¾Ð»ÑĥÑĩ ÐµÐ½Ð¸Ðµ
ĠÑģÐ½ Ð¸Ð·
Ð½Ð°Ñģ Ð»ÐµÐ´
ĠÐºÐ»ÑİÑĩ ÐµÐ²ÑĭÐµ
ĠÐ²Ð´Ð¾Ñħ Ð½Ð¾Ð²
ĠÑħ Ð¾ÑĢÐ°
Ð¾Ð¿ Ð»Ð°Ð½
ĠÑģÑĤÐ°Ð½ ÑĨÐ¸Ñİ
ĠÐ¿Ð¾Ð±ÐµÐ´ Ð¸ÑĤÐµÐ»Ð¸
ĠÐ¿ÑĢÐ¾Ð¸Ð·Ð²Ð¾Ð´ Ð¸ÑĤÑģÑı
Ð°ÑĨÐ¸Ð¾Ð½ Ð½ÑĭÑħ
ĠÑĥÑĩÐ° Ñī
Ð°Ð» Ð°Ñħ
ĠÑĥ ÑģÐ¾Ð²ÐµÑĢÑĪ
ÐµÐ¼ Ð¾ÑģÑĤÑĮ
ĠÐ°ÑĢ ÐºÑĤ
ĠÐ½Ð¾Ð² Ð¾Ð¼Ñĥ
ĠÐ½Ð¸Ðº Ð¸ÑĤÐ°
ĠÐ¿ÑıÑĤ ÑĭÐ¹
ĠÐ¿Ð¾Ð·Ð²Ð¾Ð» ÑıÑİÑĤ
ĠÑĤÑĢÐµÑĤÑĮ Ð¸Ð¼
ĠÐ½Ð°Ð¸Ð¼ÐµÐ½ Ð¾Ð²Ð°Ð½Ð¸Ñı
ĠÐºÑĢÐ°ÑģÐ½Ð¾Ð´ Ð°ÑĢÑģÐºÐ¾Ð³Ð¾
ĠÐ¾Ð´Ð¸Ð½Ð¾Ñĩ Ð½Ð¾Ð¼
ÑĥÐ¼ Ñĭ
ĠÐ¾Ð±ÑĢÐ°Ð· ÑĨÐ°
ĠÐ¿Ð¾Ð¿ Ð¾Ð»Ð½
ĠÐ¸Ð´ ÑĥÑĤ
ĠÐºÐ¾Ð»Ð»ÐµÐ³ Ð¸Ð¸
ĠÐºÐ°Ð¼Ð¿ Ð°Ð½Ð¸Ñı
ĠÑĥÑħÑĥÐ´ ÑĪ
ĠÐ¿ÑĢÐ°Ð² Ð¾Ð¹
ĠÐ¼Ð¸Ð½ Ð¾Ð½Ð¾Ñģ
ĠÐ¼ÑĥÐ·ÑĭÐº Ð°Ð»ÑĮÐ½Ð°Ñı
ĠÐ»Ðµ Ð¾Ð¿Ð¾Ð»ÑĮ
ĠÐ²Ð¾ÐµÐ² Ð¾Ð´Ð°
ĠÐ¿ÑĢÐ¸ÑģÑĤ Ð°Ð²
ĠÑĤÑĢÐ¸Ð± ÑĥÐ½
ĠÑħÐ²Ð°ÑĤ Ð°ÐµÑĤ
Ð°ÑĤ Ð¾Ð¹
ĠÑĤ ÐºÐ°
ĠÑĤ ÐµÐ¹Ð»
ĠÐ± Ñģ
ĠÑģÑĤ Ð±
ÐµÐ² ÑģÐºÐ¾Ð¹
ĠÑĢÐ°Ð· Ð½Ð¸ÑĨÐ°
ĠÐ¿Ð¾Ð· Ð¸ÑĨÐ¸Ð¾Ð½
ĠÐ¿Ð¾ÑģÐ»ÐµÐ´ ÑĥÑİÑīÐ¸Ñħ
ĠÐ¿Ð¾ÑĢ Ð¾Ð´Ñĭ
ĠÐ½Ð°Ð·ÑĭÐ² Ð°Ð»Ð°ÑģÑĮ
ĠÑĩÐµÐ»Ð¾Ð²ÐµÑĩÐµ ÑģÐºÐ¾Ð³Ð¾
ĠÐ²ÐµÐ½ÐµÑĨ Ð¸Ð°Ð½
Ð» Ð°Ð½Ð´Ð°
ĠÐ± Ð¸Ñģ
ÑĪ Ñĥ
ĠÐ¸Ð· Ð»Ð¸ÑĪ
ĠÐ¿ÑĢÐ¸ ÑģÑı
ĠÐ¼Ðµ Ñī
ĠÐ¾ÑĤÐºÑĢÑĭÑĤ Ð¾Ð¼
ĠÑĢÐµÐ¼ ÐµÑģ
ĠÐ¿ÑĢÐ¾Ð´ÐµÐ¼ Ð¾Ð½ÑģÑĤÑĢ
ĠÐ²ÐµÑĢÑģ Ð¸Ð¹
ĠÐ¾Ð¿ÑĥÐ±Ð»Ð¸Ðº Ð¾Ð²Ð°Ð½Ð°
ĠÐ¼ÐµÑĩ ÐµÑĤÑĮ
Ð¾Ð² ÐµÐ´ÐµÐ½Ð¸Ñı
ĠÑĤÐ°Ðº Ñģ
ĠÐ²Ð¾ Ð¸Ð½ÑģÐºÐ¸Ðµ
ĠÐ°Ð» Ð°Ð½
ĠÐ¸Ð·Ð¾Ð±ÑĢÐ°Ð¶ ÐµÐ½Ð¸ÐµÐ¼
ĠÐ¿ÑĢÐ¾Ð¸Ð·Ð²Ð¾Ð´ ÑģÑĤÐ²Ðµ
ĠÐ³ÑĢÐµ ÑĨÐ¸Ñı
ĠÐ¸Ð½ÑĤÐµÑĢÐµÑģ Ñĭ
ĠÐ¾ÑĨÐµÐ½ ÐºÐµ
ĠÐ¿ÑĢÐ¸Ð´ Ð²Ð¾ÑĢ
ĠÑģÑĦ ÐµÑĢÑĭ
ÑĩÐ¶ Ð¾Ñĥ
ĠÐ¿ÑĢÐµÐ´Ð¼ ÐµÑĤÑĭ
Ð² Ð¸Ñĩ
ĠÐ² ÐµÐ»ÑĮ
ĠÐ³Ð¾ÑĢÐ¾Ð´ Ð¾Ðº
ĠÐ¼Ð½Ð¾Ð³ Ð¸Ð¼Ð¸
ĠÐºÐ¾Ð¼Ð¿Ð¾Ð·Ð¸ÑĤ Ð¾ÑĢÐ°
ĠÑĨÑĭ Ð³Ð°Ð½
Ð² Ð¸Ð½Ð°
ĠÐ·Ð° ÑĩÐ¸Ñģ
ÐµÑĢÐ° ÑĨÐ¸Ñı
ĠÐ²Ð¾Ð» Ð¾Ð´
ĠÑĦÐ¸Ð» Ð°ÑĢÐ¼Ð¾Ð½
ĠÑįÐºÐ¾Ð½Ð¾Ð¼ Ð¸ÑĩÐµÑģÐºÐ¸
ĠÑĨÐµÐ» ÑĭÐ¹
ĠÑģÐ¾ÑĤÑĢÑĥÐ´Ð½Ð¸ÑĩÐµ ÑģÑĤÐ²Ð°
ĠÐ¼ Ð°Ñĩ
Ð¸Ð· Ð°ÑĨÐ¸Ñİ
ĠÐ¿Ð¾Ð» Ð¸ÑĨÐ¸Ñı
ĠÐ¾ÑģÐ½Ð¾Ð² Ð½ÑĥÑİ
ĠÐ²Ð½ÐµÑĪ Ð½Ð¸Ð¹
ÑĪÑĤ ÐµÐ¹Ð½Ð°
ĠÐ²ÑĢÐ° Ð³Ð°
ĠÐ°ÑĢÑħÐ¸Ð¿ ÐµÐ»
ÐµÐ½ ÑģÐ°
Ð¾ÑĤ Ð¾Ð¿
ĠÑģÐ»ÐµÐ´ ÑģÑĤÐ²Ð¸Ðµ
ĠÐ°Ðº Ð²Ð°ÑĢ
ĠÐ±Ð» ÐµÑģÑĤ
ĠÐ±ÑĥÐ¼ Ð°Ð³
ĠÐ½Ð° ÑĢÑĥÐ¶
ÑĨ ÐµÑĢ
ĠÐ¿ÐµÑĢÐ² Ð¾
ĠÑĩÐµÑĢ Ð²
ĠÐ½Ð°Ð·ÑĭÐ² Ð°ÑĤÑĮÑģÑı
ĠÑī ÐµÑĢÐ±
ĠÐ¿Ð¾ÑĩÑĳÑĤ Ð½Ð¾Ð³Ð¾
ĠÐ½Ð¾Ð²Ð¾ÑģÐ¸Ð±Ð¸ÑĢ ÑģÐº
ĠÑĦÐ¾Ð»ÑĮÐºÐ» Ð¾ÑĢ
ĠÐ¿Ð¾ÐºÐ°Ð· Ð°Ð»Ð¸
Ð¸Ð´Ðµ ÑģÑıÑĤ
ĠÑĢÑĥÐ±ÐµÐ¶ Ð¾Ð¼
ĠÑĢÐµÐ»ÑĮ ÐµÑĦ
ĠÐ½Ð¾Ð²Ð¾ÑĢ Ð¾ÑģÑģ
Ð½ ÑĥÐ»ÑģÑı
Ð¼ ÑĥÑİ
Ð°ÑĤ Ð¾ÑĢÐ¸Ñı
ĠÐ¾ÑĤÐ²ÐµÑĤ ÑģÑĤÐ²ÐµÐ½Ð½ÑĭÐ¹
ĠÐ¿Ð¾Ð¶ ÐµÑĢÑĤÐ²
ĠÐ½Ð°ÑģÑĤÑĥÐ¿ Ð»ÐµÐ½Ð¸Ñı
ĠÑĦÐ¾ÑĤÐ¾Ð³ÑĢÐ°ÑĦ Ð¸Ð¹
ĠÐ¾ÑĩÐµÑĢ ÐºÐ¸
ĠÑĥÑģÐ¾Ð²ÐµÑĢÑĪ ÐµÐ½ÑģÑĤÐ²
ÑĢ Ð¸Ð²Ð°ÐµÑĤ
ÐºÐ¾Ð² ÑĭÐ¼
ĠÑģÐ¾Ð² ÑħÐ¾Ð·
ĠÐ¿ÑĢÐ¸Ð± ÑĢÐµÐ¶
ĠÐ¶ÑĥÑĢÐ½Ð°Ð» Ð¸ÑģÑĤÐ¾Ð²
ĠÐ¿ÐµÑĢÐµÐ¸Ð¼ÐµÐ½ Ð¾Ð²
ĠÐ¼Ð¸Ð½ÑĥÑĤ Ñĭ
ĠÐ»Ð¸ÐºÐ²Ð¸Ð´ Ð°ÑĨÐ¸Ð¸
ĠÐ²Ð¾Ð·ÑĢ Ð¾Ð¶Ð´ÐµÐ½Ð¸Ñı
ĠÑģÑĤÑĥÐ´ÐµÐ½ÑĤ Ð°Ð¼Ð¸
ÑĢÐ¾ÑģÐ¾Ð² ÐµÑģÑĤ
ĠÐ¿ÐµÑĤÑĢÐ¾Ð¿ Ð°Ð²Ð»Ð¾Ð²
ĠÐ½ Ð¸Ð½Ð°
ĠÐ± ÑĥÑį
ĠÑĥ Ð°Ð¹ÑĤ
ĠÐ¶ ÐµÐ¼
ĠÑĩÑĤ ÐµÐ½Ð¸Ñı
ĠÐ²ÐµÑģ Ð¾Ð²Ð¾Ð¹
ĠÑĢÐ°Ð·ÑĢÐ°Ð±Ð¾ÑĤ ÐºÑĥ
ĠÐ±Ð¸Ð·Ð½ ÐµÑģÐ°
ĠÐ¾ÑĤ Ð¾ÑĪ
ĠÐ½Ð¾Ñģ Ð¸ÑĤÐµÐ»ÑĮ
ĠÑĥÑģÐ¿ÐµÑħ Ð¸
ĠÐ´Ð¾ÑģÑĤÑĥÐ¿ Ð°
ĠÐ¿ÑĢÐ¾ÑĦ Ð¸Ð»
ĠÐ°Ð´Ð° Ð¿
ĠÐ²Ð·Ð² Ð¾Ð´Ð°
ĠÐ¿ Ð·
ĠÐ¸ Ð½ÑĭÐµ
ĠÑģÑĤ ÑĢÐ°Ð¶
Ð¾Ð· Ðµ
Ð¸Ð´ ÐµÐ¼
ĠÐºÐ¾ÑĢ ÐµÐ¹
ĠÐ¾Ð±Ñī ÐµÐ¿
ĠÐ¼Ð°Ð½ Ñģ
ĠÐºÐ¸ÑĤÐ°Ð¹ ÑģÐºÐ¸Ð¹
ĠÐ¾Ñĩ ÐµÑĢÐº
ĠÑİÑĢ Ð¸ÑģÑĤ
ĠÐ¾Ð±ÑĬÐµÐ´Ð¸Ð½ Ð¸ÑĤÑĮ
ĠÐ¿ÑĢÐµÐ´Ð¼ÐµÑĤ Ð¾Ð²
ÐµÐ½ ÐµÑĨ
ĠÑĤ ÑĥÐ¼
ĠÐ´Ð¶ Ð¾Ð·ÐµÑĦ
ĠÐ´Ð¸ÑģÐº Ð°
ĠÐ¼Ð¸ÑĪ ÐµÐ»ÑĮ
ÐµÑĢ ÑģÐºÐ¾Ð¹
ĠÐ¼ ÐµÑģ
ĠÐ» ÐµÐ½ÑĤ
Ð¸Ð² Ð½ÑĭÑħ
ĠÑħ Ð°ÑĢÐ´
ĠÐ¾Ð¿ ÑĥÑģÑĤ
ĠÑĤÐ°Ð» Ð»Ð¸Ð½
Ð¿ Ð°Ð½
ĠÐ³ Ð¾ÑĢÐ°Ñħ
ĠÐ± ÑĢÐ¾ÑĪ
ĠÑĢÐ°Ñģ ÑģÑĤÑĢÐ¾Ð¹
ĠÑĢÐµÑĪ Ð¸ÑĤÑĮ
ĠÐ²Ð°Ð¶ Ð½ÑĥÑİ
ĠÑģÐ¾Ð±ÑĭÑĤ Ð¸ÑıÑħ
ĠÑĤÐµÐ¿Ð» Ð¾ÑĤÐ°
Ð¾ ÑĢÐ°ÑĤ
Ð¾Ð» Ð»
Ð»Ð¸ Ð¿
ĠÐ¼Ð¸Ð½ Ð¾Ð¼
ĠÐºÑĢÑĥÐ¿ Ð½Ð¾Ð³Ð¾
ĠÐ¸Ð½Ð³ ÑĥÑĪ
ĠÑĥ Ð½Ð°ÑģÐ»ÐµÐ´
ĠÑĢÐµ Ð°ÐºÑĤÐ¸Ð²
ĠÐ¾Ð±Ñī Ð¸Ñħ
ĠÐ´ÐµÑĢÐµÐ² Ð°
ĠÐ¼Ð¾ÑĢ Ð´
ĠÐ¼Ð° ÑģÐº
ĠÑģÐ¿Ð¾ÑĢÑĤÐ¸Ð² Ð½Ð°Ñı
ĠÐ²Ð¾Ð·Ð´ÑĥÑĪ Ð½Ð¾Ð¹
ĠÐµÐ²ÑĢÐµÐ¹ ÑģÐºÐ¾Ð³Ð¾
ĠÑĤÐ²Ð¾ÑĢÑĩÐµÑģÑĤÐ² Ðµ
ĠÑģÐºÑĥÐ»ÑĮÐ¿ÑĤ ÑĥÑĢÑĭ
ĠÐºÐ°Ð»ÑĥÐ¶ ÑģÐºÐ¾Ð¹
Ð½ ÐµÐ¿
ĠÐ¼ Ð¾Ñĩ
Ð¸ÑĢÐ¾Ð² ÐºÑĥ
ĠÐ´ÐµÑĢÐµÐ² ÐµÐ½ÑĮ
ĠÐ¶ÑĥÑĢÐ½Ð°Ð» Ð¸ÑģÑĤÑĭ
Ð¾ÑĢ Ð¾ÑĤÐ°
Ð°Ðº Ð¸Ñı
ĠÐ¼ÐµÑģÑĤ Ñĥ
ĠÐºÐ°ÑĢÑĤ Ð¸Ð½Ñĥ
ĠÑģÐ¾Ð¾ÑĤÐ²ÐµÑĤÑģÑĤÐ² ÑĥÑİÑīÐ¸Ñħ
ĠÑįÐ¿Ð¸Ð· Ð¾Ð´Ðµ
ĠÐ² Ñĩ
ÑĢÐ° Ñı
ĠÐ± Ð¸Ð»Ð»
Ð¸Ð»ÑĮ Ð¸
Ð¾Ð»Ð¾Ð³ Ð¾Ð¼
ĠÐ¼Ð¾Ð½ Ð¾Ð³ÑĢÐ°ÑĦ
ĠÑĥÐºÑĢÐ° Ð¸Ð½ÑģÐºÐ¸Ñħ
ĠÐ°Ð½Ð³ ÐµÐ»
ĠÐ²ÑħÐ¾Ð´ Ð¸Ð»Ð¾
ĠÐ³Ð° ÑĢÐ°Ð½ÑĤ
ĠÐ¶Ð¸Ð» Ð¾Ð¹
ĠÐ¿Ð¾ÑĤÐµÐ½ÑĨ Ð¸Ð°Ð»
ĠÐ»ÐµÐ½Ð¸Ð½Ð³ ÑĢÐ°Ð´Ð°
ĠÐ´ Ð°ÐµÑĤ
ÑĦ ÑİÑĢ
ĠÑı Ð·
ĠÑģÐ¿ ÑĥÑģÐº
ĠÐºÐ°Ð·Ð°Ñħ ÑģÐºÐ¾Ð¹
ĠÐ¾Ð±ÑīÐµÑģÑĤÐ²ÐµÐ½ Ð½ÑĭÐµ
ĠÐ¼Ð¸ÑģÑģ Ð¸Ð¾Ð½
ĠÑįÐ»ÐµÐºÑĤÑĢÐ¾Ð½ Ð½Ð¾Ð¹
ĠÑģÐ²ÐµÐ´ÐµÐ½Ð¸Ñı Ð¼
ĠÐ°Ð½ÑģÐ°Ð¼Ð± Ð»ÑĮ
ĠÐ¿Ð¾ÑģÐ¾Ð± Ð¸Ðµ
ÑĪ Ð¸ÑĦ
ĠÐ´ÐµÑĢÐµÐ² ÑĮÐµÐ²
ĠÐ¿Ð°ÑĢ ÑĦ
ĠÐºÐ¾Ð½ÑĤ Ð°Ðº
ĠÐ·Ð°Ð½Ð¸Ð¼ Ð°Ð»Ð°ÑģÑĮ
ĠÐ¾ÑĤÐ»Ð¸Ñĩ Ð¸Ð»ÑģÑı
ĠÑĪÐ²ÐµÐ¹ÑĨÐ°ÑĢ Ð¸Ñı
ĠÐ²ÑĭÐ´Ð° ÑİÑīÐ¸ÐµÑģÑı
ĠÑĩÐ¸ÑģÐ» Ð¸Ð»Ð¾ÑģÑĮ
Ð°Ð¼Ð±Ñĥ Ð»Ðµ
ĠÐ· Ð°Ð½Ð¾Ð²Ð¾
ĠÑģÐ¿ ÑĢÐ¸Ð½
ĠÐ¿Ð¾Ð· Ð¸ÑĨÐ¸Ð¹
ĠÑģÐµÐ± Ð°ÑģÑĤ
ĠÑģÐºÐ°Ð· ÐºÐ¸
ĠÐ»Ð¸ÑĤÐµÑĢÐ°ÑĤÑĥÑĢ Ð¾Ð²ÐµÐ´
ĠÑĥÐ»ÑĮ ÑĤ
ĠÐ´Ð¸Ðº ÑĤ
ĠÐ´Ð¾ÑĩÐµÑĢ ÑĮÑİ
ÐµÑĢÐ° ÑĤÐ¾ÑĢ
ÑİÑī ÐµÐ³Ð¾ÑģÑı
ĠÐ²ÐµÑĢ Ð½ÑĥÐ»Ð°ÑģÑĮ
ĠÑĢÐµÐ³Ð¸Ð¾Ð½ Ð°Ð»ÑĮÐ½Ð¾Ð³Ð¾
ĠÐ»ÑĥÑĩ ÑĪÐµÐµ
ĠÐ´Ð¾Ð¿Ð¾Ð»Ð½ Ð¸ÑĤÐµÐ»ÑĮÐ½ÑĭÑħ
ĠÐ»ÐµÐ´ Ð¸
ĠÐ¿Ð¸ÑģÑĤ Ð¾Ð»ÐµÑĤ
ĠÐ²Ñĭ Ð·ÑĭÐ²
ĠÑĪ Ð»Ð°
ĠÑģÑĤÑĢÐ°Ð½ Ð½Ð¾
ĠÐ¾Ð±ÑĬ ÐµÐ¼
ĠÐ¿Ð¾Ð¿ ÐµÑĢÐµÑĩ
ĠÐ¿ÑĢÐ¸Ñģ Ð¿
ĠÑģÐ½ Ð¸Ð·Ñĥ
ĠÐ¿ÑĢÐ¸Ð± ÑĭÑĤ
ĠÐ¾ÑĤÐ¿ÑĢÐ°Ð² Ð¸Ð»
ĠÑĤÐµÐ»ÐµÐ²Ð¸Ð´ ÐµÐ½Ð¸Ð¸
Ð°ÑĢ Ð½Ð°Ñı
Ð°ÑĢ Ð¼ÐµÐ¹
ĠÑĢ ÑĤ
ĠÑĤÑĢ Ð¸Ð¿
ĠÐ¼Ð°Ð½ Ð³
ĠÑĤÐµÑĩ ÐµÐ½Ð¸Ñİ
ĠÑĤÑĢÐµÐ± Ð¾Ð²Ð°Ð½Ð¸Ð¹
ĠÐ¼ÐµÐºÑģ Ð¸ÐºÐ°
ĠÐºÑĢÐµÐ¹Ñģ ÐµÑĢÐ°
ĠÐ¾ÑģÐ¼Ð°Ð½ ÑģÐºÐ¾Ð¹
ĠÑħ Ð°Ð½Ñģ
ĠÐ¼Ð¾Ð»Ð¾Ð´ Ð°Ñı
ĠÐ¿ÑĢÐ°ÐºÑĤ Ð¸ÐºÐ¸
ĠÐ¿ÑĢÐµÐ´ÑģÑĤÐ°Ð²Ð»Ñı ÐµÑĤÑģÑı
ĠÐ´Ð²Ð¸Ð³ Ð°ÑĤÐµÐ»ÐµÐ¹
ĠÑģÐ¸Ð¼ Ð¾Ð½
Ð°ÐµÐ¼ Ð°Ñı
ĠÑĦÐ¸Ð½Ð»ÑıÐ½Ð´ Ð¸Ñı
ĠÐ¼Ð¾ Ñĳ
ĠÑĤÐµÑĢ Ð¿
ĠÐ´ÐµÐ» Ð°ÑİÑĤ
ĠÐ½Ð°Ð·Ð½Ð°Ñĩ Ð¸Ð»
ĠÐ´Ð¾ÐºÑĥÐ¼ÐµÐ½ÑĤ Ð°Ñħ
Ð¾Ð½Ñģ Ð¾
Ðº Ð»Ð¸
ĠÐ¼ ÑĢÐ°Ð¼
Ð¸Ð½ ÑĨÐµÐ²
ĠÑĢÐ¾Ð± Ð¸Ð½
ĠÐ½Ð°Ð¿ Ð¸ÑĪ
ĠÐ´ÐµÑĤ ÑģÐºÐ°Ñı
ĠÐ´ÐµÐ±ÑİÑĤ Ð½ÑĭÐ¹
ĠÐ¸Ð½ÑģÐ¿ ÐµÐºÑĤÐ¾ÑĢ
ĠÐ¶ÐµÐ»ÐµÐ· Ð½ÑĭÑħ
ĠÑģÐ²Ð¾Ð±Ð¾Ð´ Ð½Ð¾Ð¹
ĠÐºÐ¸ÐµÐ² ÑģÐºÐ¸Ð¹
ĠÐ¸Ð·ÑĥÑĩ ÐµÐ½Ð¸Ñİ
ĠÐºÐ¾Ð»ÑĮ ÑĨÐ°
ĠÐ¸ÑģÑģÐ»ÐµÐ´Ð¾Ð² Ð°ÑĤÐµÐ»ÐµÐ¹
ĠÑĢ ÑĥÐ¶
ĠÐ¸Ð·Ð± Ð°Ð²
ĠÑģÑĥÐ¼ Ð¼Ñĥ
ĠÐ¼Ð°ÑĢÐº Ð³ÑĢÐ°ÑĦ
Ð¸ÑģÐ¿ Ð¾Ð»ÐºÐ¾Ð¼Ð°
Ðº Ð¸Ð½ÑģÐºÐ¸Ð¹
Ð¾Ð» ÐµÐ¹
ĠÑĦ ÐµÐ½Ð¾Ð¼
ĠÑĦÑĢÐ°Ð½ ÑĩÐµ
ĠÑħÑĢÐ°Ð½ ÐµÐ½Ð¸Ñı
ĠÐ½Ð°Ð¿ÑĢÑı Ð¼ÑĥÑİ
ĠÑĤÐ¾ÑĢÐ¾Ð½ ÑĤÐ¾
ĠÐ¸ ÑĥÐ´
ĠÐ´Ð¾Ð± Ð¸Ð»ÑģÑı
ĠÑģÐ¾Ð¾ÑĤÐ²ÐµÑĤÑģÑĤÐ² Ð¸Ñı
ĠÑĨÐ²ÐµÑĤ Ð¾Ð²
ĠÐ¿Ð¾Ð´Ð¾Ð± Ð½Ð¾Ð³Ð¾
ĠÐ½ÐµÐ±Ð¾Ð»ÑĮÑĪ Ð°Ñı
ĠÐ±Ð¾Ð»ÑĮ Ð½Ð¸ÑĨÑĭ
ĠÐ¿Ð°ÑĢÐ°Ð¼ÐµÑĤ ÑĢÐ°
ĠÐ²Ð¾Ð´Ð¾ÑħÑĢÐ°Ð½Ð¸Ð»Ð¸ ÑīÐ°
ĠÑģÑĥÑīÐµÑģÑĤÐ² Ð¾Ð²Ð°Ð»Ð¾
ĠÐµÐ²ÑĢÐ¾Ð¿ Ð°
ĠÐ¿ÑĢÐ¸ÐºÐ»ÑİÑĩ ÐµÐ½Ð¸Ñı
Ð¸Ð¼ Ð¸ÑĢ
ĠÑĢÐ¾ÑģÑģ Ð¸ÐµÐ¹
ĠÐ²ÐµÑĢÑħ Ð½Ðµ
Ð¼Ð°ÑĤ ÑĢÐ¸Ð²Ð°ÐµÑĤ
ĠÑĢÐµÐ¿ ÐµÑĢÑĤ
ĠÐ¾Ð±ÑĢÐ°ÑĤ Ð¸Ð»ÑģÑı
ĠÑįÐºÐ² Ð¸Ð²Ð°Ð»
Ð¸ Ñĥ
ĠÑģÐ¿Ð¾ÑĢÑĤÐ¸Ð² Ð½ÑĭÑħ
ĠÑģÑĤ Ð¾ÑĢÐ¾Ð¶
ĠÐ¾Ð³ Ð»Ñĭ
ĠÑģÐ»Ð°Ð² Ð°
ĠÐ¾ÑĢÑĥÐ¶ Ð¸ÐµÐ¼
ÑĢ Ð¸Ð½Ð°
ÑĪ Ð¾Ð²
ĠÐ¼Ð¾Ð»Ð¾Ð´ ÑĭÐµ
ĠÐ¿Ð¾Ð»Ð½Ð¾Ð¼Ð¾Ñĩ Ð¸Ñı
ĠÑĦÑĢÐ°Ð½ ÑĨÐ¸Ñİ
ĠÐ·Ð°Ð³ Ð°Ð´
ĠÐ¶ÑĥÑĢÐ½Ð°Ð» Ð¾Ð²
ĠÐ¾ÑĤÑģÑĥÑĤÑģÑĤÐ² Ð¸Ð¸
ĠÐ¿Ð¾Ð´Ð³Ð¾ÑĤÐ¾Ð² ÐºÐ°
ĠÐ´ÑĥÐ± ÑĢÐ¾Ð²
ĠÑģÑĨÐµÐ½Ð°ÑĢ Ð¸Ñı
ĠÐ¾ÑĤÑĢÑıÐ´ Ñĭ
ĠÐºÑĢÐ¸ÑĤ Ð¸ÑĩÐµÑģÐºÐ°Ñı
ĠÐ²Ð°Ð» ÐµÐ½Ñģ
Ð°Ð¹ ÑģÐºÐ¾Ð³Ð¾
ĠÐ¾Ð´ ÐµÑģÑģÐ°
ĠÐ¿ÑĢÐ¾Ð² ÐµÐ»Ð°
ĠÐ¿Ð¾Ð¼ ÐµÑĢÐ°Ð½
ĠÐ±ÐµÑĢ Ð´
ĠÑĢÐ°Ð·Ð»Ð¸Ñĩ Ð¸Ñı
ĠÑĥÐ¿ÑĢÐ°Ð² Ð»ÐµÐ½Ð¸Ñİ
ĠÐ¼Ð¾Ñī Ð½Ð¾ÑģÑĤÐ¸
ĠÐ¿ÑĢÐ¾Ð¸Ð·Ð¾ÑĪ Ð»Ð°
ĠÑĥÑģÑĤÑĢÐ¾Ð¹ ÑģÑĤÐ²
Ð» Ð¸Ð¸
ĠÐ¿ÑĢÐ¾Ñģ Ð¸ÑĤ
ĠÐ¾ÑģÐ²Ð¾Ð± Ð¾Ð¶Ð´ÐµÐ½Ð¸Ðµ
ĠÐ¸Ð½Ð´Ð¾Ð½ÐµÐ· Ð¸Ð¸
ĠÑģ Ð°Ð´Ð°
Ð¸Ð» Ñĭ
ÑĦ ÐµÐ»ÑĮÐ´
ĠÐ¿Ð¾Ð¼ ÐµÐ½
ĠÑĤÑĢÐµ Ð²
ĠÑĢÐ¾Ð» ÐµÐ¹
ĠÐ±ÐµÐ½ ÐµÐ´
ĠÐ¿ÑĢÐµÐ´ÑĥÑģ Ð¼Ð°ÑĤÑĢÐ¸Ð²
ĠÑģÐ°ÐºÑģÐ¾Ð½ Ð¸Ñı
Ñį Ð»Ñı
ĠÐ¸Ð·Ð²ÐµÑģÑĤ Ð¸Ñı
ĠÑįÐ»ÐµÐºÑĤ ÑĢÐ¾ÑģÑĤÐ°Ð½
ĠÐ½Ð°Ð·Ð½Ð°Ñĩ ÐµÐ½Ð¸Ðµ
ĠÐºÐ¾Ð½ÑģÑĤÐ°Ð½ÑĤ Ð¸Ð½Ð°
ĠÑĤÑİÑĢÑĮ Ð¼Ñĭ
ĠÐ² Ð¸Ñĩ
ĠÐ¿ÑĢÐ¾Ð¼ ÑĭÑģ
ĠÑĪÐ¸ÑĢÐ¾Ðº Ð¾Ðµ
ĠÐ´ÑĥÐ± Ð»Ð¸
Ð¾ÑģÐº Ð¾Ð²
ĠÐ¿Ð°Ð´ ÐµÐ½Ð¸Ñı
ĠÐ¾ÑĤÐ²ÐµÑĩ Ð°ÐµÑĤ
ĠÐ¾ÑĤ ÑĤÐµÐ½
ĠÐ¸Ð¼ ÐµÐ»Ð¾
ĠÐ²ÐµÐ» Ð¾Ñģ
ĠÑĤÐµÑĢÑĢÐ¸ÑĤÐ¾ÑĢÐ¸Ð°Ð»ÑĮ Ð½Ð¾Ð³Ð¾
ĠÐ´ ÑĭÑħ
ÐµÐ»ÑĮ Ð½Ð¾Ðµ
ĠÑģÐ°Ð¼ Ð¸Ð¼
ĠÑĤÐµÐ± Ñı
ĠÑįÐ½Ð´ÑĢ Ñİ
Ð°ÑĢ Ð¸Ð½
Ð¸Ð¹ ÑĨÐµÐ²
ĠÑĢ Ð³
ĠÐ¶ Ð¸Ð»Ð°
ĠÐ²ÐµÑĢ Ð½Ð¾
ĠÐ½Ð°Ð´ Ð·
ĠÐ¸Ð´ÐµÐ½ÑĤÐ¸ÑĦ Ð¸ÐºÐ°ÑĨÐ¸Ð¾Ð½Ð½ÑĭÐ¹
ĠÐºÐ¾Ð¿ Ð¸Ñı
ĠÐ¼ÐµÑħÐ°Ð½ Ð¸Ð·Ð¸ÑĢÐ¾Ð²Ð°Ð½
ĠÐ²ÑģÐµÐ¼Ð¸ÑĢ Ð½Ð¾Ð³Ð¾
ĠÐ¿ÑĢÐµÐ´Ð¾ÑĤÐ² ÑĢÐ°Ñī
Ð¿ Ð¾
ĠÑĤ Ð¸ÑĦ
Ð»Ð° Ð¼Ð°
ĠÐ½Ð¸Ð¶ Ð½ÐµÐ³Ð¾
ĠÐ·Ð²ÑĥÑĩ Ð¸ÑĤ
ĠÐºÐ¾ÑįÑĦÑĦÐ¸ÑĨ Ð¸ÐµÐ½ÑĤ
ÐµÐ· Ñĭ
ĠÑģÐº ÑĢÑĭÐ²
ĠÐ²Ð¿ ÐµÑĢÐµÐ´
ĠÐ¾ÑĢÐ³Ð°Ð½Ð¸Ð· Ð°ÑĤÐ¾ÑĢ
ĠÐ±Ð¾Ð³ Ð¾Ð¼
Ð½Ñĥ Ð»Ð¸
ĠÑıÐ¿Ð¾Ð½ ÑģÐºÐ°Ñı
ĠÐ´Ð²Ð¾ÑĢ ÑĨÐµ
ĠÐ²Ð°ÑĪ Ð°
ĠÑĢÐµÐ¿ ÑĥÑĤÐ°
ĠÐ¿ÑĢÐ¸Ð½Ñı ÑĤÐ°
ĠÐ°Ð»ÑĦÐ°Ð² Ð¸ÑĤ
ĠÐ³Ð² Ð¸Ð½Ðµ
ĠÑĤÑİÑĢÑĮ Ð¼Ðµ
ĠÐ³ÑĢÐ¾Ð´ Ð½
ĠÐ¶Ð¸ÑĤÐ¾Ð¼ Ð¸ÑĢ
Ð¸Ð² ÑĪÐµÐ³Ð¾ÑģÑı
ĠÑĥÐ´ ÐµÐ»Ñı
ĠÑĩÐµÑĢ ÐºÐ°Ñģ
Ð»Ð¾Ð¶ ÐµÐ½Ð¸Ñı
ĠÐ¾ÑĤÐ´ÐµÐ»ÑĮ Ð½ÑĥÑİ
ĠÐ¿ÑĢÐ¸Ð½Ð¸Ð¼ Ð°Ð»Ð°
ĠÑģÑĤÑĢÑĥÐºÑĤ ÑĥÑĢÑĥ
ĠÐ¸ÑģÐ¿ÑĭÑĤ Ð°Ð½Ð¸Ð¹
ĠÑįÐ¼Ð¾ ÑĨÐ¸Ð¾Ð½
ĠÐ¾ÑģÑĤ Ð°Ð½Ð°Ð²Ð»Ð¸Ð²
ĠÐ¿ÐµÑĢÐµ ÑħÐ¾Ð´Ð¸ÑĤ
ĠÐµÐ´Ð¸Ð½ÑģÑĤÐ²ÐµÐ½ Ð½Ð¾Ð¹
ĠÑģÐ¸Ð±Ð¸ÑĢ ÑģÐºÐ¾Ð³Ð¾
ĠÑĦ ÑĥÑĢ
ĠÐ¿ÐµÑĢÐµÐ´ Ð°Ð½Ñĭ
ÑĢÑĭ Ð¼
ĠÐ²ÐµÐ» Ð¾Ð³Ð¾Ð½
ĠÐ²Ð· ÑıÐ»Ð¸
ĠÐ¾ÑģÐ¾Ð± Ð¾Ð¹
ĠÐ°ÐºÑĤÐ¸Ð² Ð½ÑĭÐ¼Ð¸
ĠÐ¼ÐµÑĤÐ°Ð» Ð»Ð¾Ð²
ĠÐ¸Ð·Ð´ÐµÐ» Ð¸Ð¹
ĠÐ²Ð°Ð² Ð¸Ð»
ĠÐ½ÐµÑģÐ²Ð¾Ð±Ð¾Ð´ Ð½ÑĭÐµ
Ð°ÑĤ ÑĭÐµ
ĠÐ¸Ð¼ Ð¼ÑĥÐ½
ĠÑģÐ¾ÑİÐ· Ð½Ð¸ÐºÐ¾Ð²
ĠÐ¾ÑģÐ½Ð¾Ð²Ð°Ð½ Ð¸Ð¹
ĠÐ½Ð¾ÑĢÐ¼ Ð°Ð»ÑĮÐ½Ð¾
ĠÐ¿ÑĢÐ¾ÑĤÐµÑģÑĤ Ð°Ð½ÑĤ
Ñĥ ÑģÐ¿
ĠÐ±ÑĥÐºÐ² Ð°Ð»ÑĮÐ½Ð¾
ĠÑģÐµÐ³Ð¾Ð´Ð½ÑıÑĪ Ð½Ð¸Ð¹
ĠÐ° Ð»Ñİ
ĠÐ½ÐµÐ·Ð°Ð²Ð¸ÑģÐ¸Ð¼ ÑĭÐµ
ĠÑĥÐ´Ð° ÑĳÑĤÑģÑı
ĠÐ¿ÑĢÐµÐ´Ð¿Ð¾Ð»Ð°Ð³ Ð°ÐµÑĤÑģÑı
Ð´ Ð°Ð»
ĠÐ» Ð°Ð¼Ð¿
ÐµÐº Ð²Ð°ÑĤ
ĠÑĤÐµÑħÐ½ Ð¸ÑĩÐµÑģÐºÐ¾Ð¹
ĠÑĢÐ°Ð² Ð½
ĠÐ°ÑĢÑĤÐ¸Ð»Ð» ÐµÑĢ
ĠÐ¾ÑĦ Ð¸Ñģ
ĠÐºÐ°Ð±Ð¸Ð½ ÐµÑĤ
ĠÐ¼ ÑĢ
ĠÐºÐ°Ð· Ð½Ð¸
ĠÑĢÐ°Ð·Ð¼ Ð½Ð¾Ð¶
ĠÐ´ÑĢÐ°Ð¼Ð°ÑĤ Ð¸ÑĩÐµÑģÐºÐ¸Ð¹
ĠÐ¿ÑĢÐ¾ÑĪÐ» Ð¾Ðµ
ĠÐº ÑĳÐ½
ĠÐ´ ÑĢÐ°Ðº
ĠÑħ Ñħ
ĠÐ²Ð¾Ðº Ð°Ð»Ð¸ÑģÑĤ
ĠÐ¶Ð°Ð½ ÑĢÐ°
ĠÐ²ÑĭÐ·Ð² Ð°Ð»Ð¾
ĠÐ±ÑĢÑİ ÑĪ
Ð¾Ð²Ð°Ð½ Ð½ÑĭÐ¼
ÑĢÐ¾ ÑĦÐ°
ÑĥÐ¿ Ð¾ÑĤÑĢÐµÐ±
ĠÐ¼Ð°Ð½ ÑĮ
ĠÐ±Ð¸Ð±Ð»Ð¸Ð¾ÑĤÐµÐº Ðµ
ĠÐ¾Ð±Ð»ÐµÐ³ Ñĩ
ĠÑĤ ÑıÐ½
ĠÐ¼Ð¸Ð½ ÑģÐºÐ¾Ð¹
ĠÑģÐ²ÑıÐ· ÐµÐ¹
ĠÐ¼Ð°ÑĤÐµÑĢ ÑĮÑİ
ĠÑĤÐµÑĩ ÑĳÑĤ
ĠÑħÐ°ÑĢÑĮÐºÐ¾Ð² ÑģÐºÐ¾Ð¹
ĠÐ³ Ð»ÐµÐ±
Ð°ÑĤ Ð°Ð¼Ð¸
ĠÐ°Ð»ÐµÐºÑģ Ð°
ĠÐºÐ°ÑĢÑĤ Ð¸Ð½Ðµ
ĠÐ¿ÑĢÐ¸Ð·Ð½ Ð°Ð»
ĠÐ±ÐµÐ»Ð¾ÑĢ ÑĥÑģÑģÐ¸Ñı
ĠÐ¿ÑĢÐ¾Ð²ÐµÑĢ Ñı
ĠÐ²ÐµÑĢÑĪ Ð¸Ð½Ñĭ
Ð°Ð± Ð°
ĠÐ°ÑĤ ÑĢÐ¸Ð±
ĠÑĤÑĢÐµÐ½ Ð¸ÑĢÐ¾Ð²
ĠÐ¿ÐµÑĢÐµÐ´Ð° ÑĩÐ°
ĠÐ¿Ñĥ Ð³Ð°
ĠÐ¿Ð¾ÑģÐ¿ Ð¾Ð»Ð¸ÑĤ
ĠÐ¶Ð¸Ð² Ð¾Ð¹
ĠÐ¿ÐµÐ´Ð°Ð³Ð¾Ð³ Ð¸ÑĩÐµÑģÐºÐ¾Ð³Ð¾
ĠÑĤÑĢÐ¾Ð»Ð»ÐµÐ¹Ð± ÑĥÑģ
ĠÐ¿ ÐµÑģÑĤ
ĠÐ´ Ð¸Ðµ
Ð¸Ñģ ÑģÐ°
Ð¾Ðº Ñĥ
ĠÐ¾Ð¿ÑĥÐ±Ð»Ð¸Ðº Ð¾Ð²Ð°Ð½Ñĭ
ĠÑĢÐ°Ð·Ð¼ÐµÑī ÐµÐ½Ð¸Ñı
ĠÐºÐ¾Ð»Ð»ÐµÐ´ Ð¶Ð°
ĠÐ°Ð´ÑĬ ÑİÑĤ
ÐµÑĤ Ñģ
ĠÐ¾ÑĢ Ð»Ðµ
ĠÐ±Ð»Ð°Ð³ Ð¾ÑĢÐ¾Ð´
ĠÐ´ÐµÑģÑıÑĤ ÐºÐ¾Ð²
ĠÑģÑĥÐ¿ÑĢÑĥÐ³ Ð¸
ĠÑĦÐ°Ñģ Ð°Ð´
ĠÐ°Ð»Ð³Ð¾ÑĢÐ¸ÑĤ Ð¼
ĠÐ¸ Ð²Ð°
ĠÑĢ Ð¾ÐºÐ°
Ð¸Ð² Ð½ÑĭÐµ
ĠÑĢÑĭ Ð¶
ĠÐ³ÑĢÐµ ÐºÐ¾
ĠÑĨÐµÐ» Ð¸ÐºÐ¾Ð¼
ĠÐ»Ð¸ÑĨÐµÐ½Ð· Ð¸Ð¸
ĠÑģÑĭÐ½Ð¾Ð² ÑĮÑı
ĠÐ½Ð° Ð²Ñĭ
ÑĨ Ðº
ĠÐ» Ð¾Ð½Ð³
ĠÑĦ Ð°Ð²
ĠÐ¸Ð¼Ðµ ÑİÑīÐ¸Ñħ
ĠÐºÑĢÐ¸ÑĤ Ð¸ÐºÐµ
ĠÑħÑĥÐ´Ð¾Ð¶ÐµÑģÑĤÐ²ÐµÐ½ Ð½ÑĭÑħ
ĠÐºÐ¸ÑĢÐ¾Ð² ÑģÐºÐ¾Ð¹
ÑĨ Ð¸Ðº
ĠÐºÐ¼ ÐµÑĤ
ĠÐ¿Ð°ÑĢÐ° Ð³
ĠÐ¿ÑĢÐ¸Ð´ ÑĳÑĤÑģÑı
ĠÐºÐ¾Ð¼Ð¸ÑģÑģ Ð°ÑĢ
ĠÐ±ÑĢÑİ ÑģÑģ
ĠÑĢÐ°ÑģÐ¿ÑĢÐµÐ´ ÐµÐ»ÐµÐ½Ð¸Ðµ
ĠÐ²ÐµÐ»Ð¾Ñģ Ð¸Ð¿ÐµÐ´
ĠÐ· Ð°ÑĢÑı
ĠÐ¾ÑĤ Ð½
ĠÐ¿ÐµÐ´ ÑĢÐ¾
ĠÐ¿Ð¾ÑģÑĤÐ°Ð½Ð¾Ð² ÐºÐ°
ĠÐ²ÑĭÐ¿ÑĥÑī ÐµÐ½Ð¾
ĠÑĥÐ²ÐµÐ»Ð¸Ñĩ ÐµÐ½Ð¸Ðµ
ĠÐºÐ¾Ð¼Ð± Ð¸Ð½Ð°
ĠÐ±Ð°ÐºÐ°Ð» Ð°Ð²
ĠÐ½Ðµ ÑıÑģ
ĠÐ¿ÑĢÐ¸Ð² ÑĭÑĩ
ĠÐ¶ÐµÐ»ÐµÐ·Ð½Ð¾Ð´Ð¾ÑĢÐ¾Ð¶ Ð½Ð¾Ð³Ð¾
ĠÐºÐ¾Ð½ÑĨÐµÐ¿ ÑĨÐ¸Ñı
ĠÑĪÐµÐº ÑģÐ¿
ĠÐ¿Ð»Ð°ÑĨ Ð´Ð°ÑĢ
ĠÑİ Ð½Ðµ
ĠÐ¼Ð¾Ð½ ÑĢÐµ
ĠÐ»Ð¸ÑĤÐµÑĢÐ°ÑĤÑĥÑĢ Ð½Ð¾Ð¹
ĠÑģÑĢÐ°Ð²Ð½ Ð¸ÑĤÐµÐ»ÑĮÐ½Ð¾
ĠÐ¿ÑĢÐ¾ÑıÐ² Ð»ÐµÐ½Ð½ÑĭÐµ
ĠÐ¶Ñĥ ÑĢÐ°Ð²
Ð» Ð°Ðº
ĠÐ² Ð°Ð»ÑĮÐ´
ĠÐ´ ÑįÐ¹
ĠÐ° ÑĤÐµ
ĠÑĩÐ°ÑģÑĤ Ð¾ÑĤ
ĠÐ¿Ð¾ÑģÐ²ÑıÑī ÐµÐ½Ð°
ĠÑĢÐµÑģÑĥÑĢ ÑģÑĭ
ĠÐ½Ð°Ðº Ð»Ð¾Ð½
ĠÑģÑįÐ¹ Ñİ
ĠÑģ ÑĮÑİ
Ñİ ÐºÐ¾Ð²
ÑģÑģ Ð°
ĠÐ¾Ð½ ÑĤ
ĠÐ²ÐºÐ»ÑİÑĩ ÐµÐ½Ð°
ĠÐ¿Ð¾Ð´ÑĢÐ°Ð·Ð´ÐµÐ» ÐµÐ½Ð¸Ð¹
Ñħ Ð²
ĠÑĢÐ°Ð· Ð½ÑĭÐ¼
ĠÑģÑĢÐµÐ´ Ð½Ðµ
ĠÐ½Ð°Ð¿ Ð¸ÑĤ
ĠÐ¿Ð°ÑĢ Ð½Ð¾Ð¼
ĠÐ¾Ñĩ Ð¸ÑģÑĤ
ĠÐ²Ð¾Ð» Ð³Ð°
ĠÐ¿ÑĢÐ¸Ð± Ð°Ð»
ĠÑĦÐ¸Ð· Ð¸ÐºÐ°
ĠÑģÐ¸Ð½Ð³ Ð°Ð¿
ĠÐ¾Ð³ÑĢÐ¾Ð¼ Ð½Ð¾Ðµ
ĠÑĢÐµÐ³Ð¸ÑģÑĤ ÑĢÐ°ÑĨÐ¸Ð¸
ĠÑģÐ¾ Ð¾Ð±
ĠÐµÐ´Ð¸Ð½ÑģÑĤÐ²ÐµÐ½ Ð½Ð¾Ðµ
ĠÐ²ÑĭÐ´ Ð²Ð¸Ð³
ĠÑĥÑĤÐ²ÐµÑĢÐ¶Ð´ Ð°Ð»
ĠÐ¿Ð¾Ð½Ð¸Ð¼ Ð°ÐµÑĤ
ĠÐ¿ÐµÑħÐ¾ÑĤ Ð½ÑĭÐ¹
ĠÐ³ÑĢÐ°Ð½Ð¸ÑĨ Ð°Ñħ
ĠÐ²Ð¾ÐµÐ½Ð°ÑĩÐ°Ð»ÑĮ Ð½Ð¸Ðº
Ð½ Ð¸ÑģÑĤ
ĠÑģÑĤ Ð¾Ð¿
Ð¸Ð¾Ð½ Ð¾Ð²
ĠÑģÐ¾Ð±ÑģÑĤÐ²ÐµÐ½ Ð½ÑĥÑİ
ĠÑĨÐµÐ½ÑĤÑĢÐ°Ð»ÑĮ Ð½Ð¾Ð¼
ĠÑĢÐµÐ´Ð°Ðº ÑĤÐ¾ÑĢÐ°
ĠÑģ ÑĦÐµÑĢ
ÑĩÐµ ÑģÐºÐ°Ñı
ĠÐ²Ð¾ÑģÑģÑĤ Ð°Ð½Ð°Ð²Ð»Ð¸Ð²
ĠÐ¸Ð³ÑĢÐ° Ð»Ð°
ĠÐ·Ð½Ð°Ð¼ Ñı
ĠÐ¿ÑĢÐ¾ÑĦÐµÑģÑģÐ¸Ð¾Ð½ Ð°Ð»ÑĮÐ½Ð¾Ð¹
ĠÐ¾ÑĤÐ²ÐµÑĢ ÑģÑĤ
ÐµÐ½ Ñĩ
ĠÐ·Ð°Ð¿ Ð»Ð°Ð½
ĠÐ´Ð°Ð½ Ð¾
ĠÐ´Ð°Ð»ÑĮ Ð½ÐµÐ²Ð¾ÑģÑĤ
ÑİÑīÐ°Ñı ÑģÑı
Ð¸ÑĨ Ð¸ÑıÑħ
ĠÑĢÐ°Ð· ÑĭÐ³
ĠÐ°Ð½ Ð°ÑĢÑħ
ĠÐ½Ð¾Ð² ÐµÐ¹
ÑĤÐµ ÑĦ
ĠÐ¿Ð¾ÑĩÑĤÐ¾Ð² ÑĭÑħ
ĠÐºÑĢÑĭ Ð¼Ñĥ
ĠÐ²ÑĭÑģÐ¾Ðº Ð¸Ð¼
ĠÐ¿Ð° ÑĢÐµ
ĠÐ¾ÑĤÐ² ÐµÑĤÐ°
ĠÐ½Ð°Ð»Ð¸Ñĩ Ð¸Ñı
ĠÐºÐ¾Ð»Ð»ÐµÐº ÑĨÐ¸Ð¾Ð½
ĠÐ±ÑĥÑĢÐ³ ÑĥÐ½Ð´
Ð´ÐµÐ» Ð°
ĠÐ¿ÑĢÐ¾ÑĦÐµÑģÑģÐ¸Ð¾Ð½ Ð°Ð»ÑĮÐ½ÑĭÑħ
ĠÐ² ÑİÑĢÑĤ
ĠÑģÐµÐ²ÐµÑĢ Ð½ÐµÐµ
ĠÐ¸Ð¼Ðµ ÑİÑīÐ¸Ðµ
ĠÐ¿Ð¾ÑģÐ»ÐµÐ´ Ð½ÐµÐ¼
ĠÐ°Ð³ ÑĢÐ°ÑĢ
ĠÐ¿ÑĢÐ¾Ð²Ð¾Ð´ Ð¸Ð»
ĠÐ¿ÑĢÐ¸Ð½Ð°Ð´Ð»ÐµÐ¶ Ð°ÑĤ
ĠÐ´Ð¾ÐºÐ°Ð· Ð°ÑĤÑĮ
ĠÑħÐ¾ÐºÐºÐµ Ð¸ÑģÑĤ
ĠÐ½Ð°Ð¹Ð´ ÐµÐ½Ñĭ
ĠÐ¼Ð¾Ð½Ð³Ð¾Ð» Ð¸Ð¸
ĠÑĤÑĢÐ°Ð½ÑģÐ»Ð¸ ÑĢÐ¾Ð²
ĠÐ»ÐµÐ¹Ð¿ÑĨ Ð¸Ð³
Ð¸Ð» ÐµÐ³
ĠÐ°ÑģÑģ Ð°Ð¼Ð±
ĠÐ¿Ð¾Ð¿ÑĭÑĤ Ð°Ð»ÑģÑı
ĠÐ¼ÐµÐ½ÑĮ ÑĪÐ¸Ð½
ĠÐ¾ÑĤÐ¿ Ð°ÑĤÑĢÑĥÐ»Ð¸
ÐµÑĢ Ð½ÑĭÐ¹
ĠÑĩ Ð¼
Ð¸Ð· Ð¼Ñĭ
ĠÐ¿Ð¾Ñģ ÑĩÐ¸ÑĤ
ĠÐ±Ð¾Ð»ÑĮ Ð½Ð¸ÑĨÐ°
Ð¾Ð·Ð½ Ð°Ð½Ð¸Ñı
ĠÐ²Ð¼ÐµÑĪ Ð°ÑĤÐµÐ»ÑĮ
ĠÐ¿Ð°ÑĢ Ð¾Ð´
ĠÐ°Ð¼ÐµÑĢÐ¸ÐºÐ°Ð½ ÑģÐºÐ¸Ðµ
ĠÑĤÑĢÐ°Ð½ ÑģÑĦ
ĠÑĢÐ°ÑģÑģÐºÐ°Ð· Ð¾Ð²
ĠÐ´Ð¸Ð½Ð°ÑģÑĤ Ð¸Ñı
ĠÐ»ÑİÐ±Ð¸ÑĤÐµÐ»ÑĮ ÑģÐºÐ¸Ñħ
ĠÐ²Ð¾ÐµÐ½Ð½Ð¾ÑģÐ»ÑĥÐ¶ Ð°ÑīÐ¸Ñħ
ĠÑģÑĤ Ð°Ð¶
Ð¾ÑģÑĤ ÑĢÐµÐ»
Ð¾Ð»ÑĮ Ð½Ð¾Ð³Ð¾
ĠÐ¾ÑĦÐ¸ÑĨ ÐµÑĢÑĭ
ĠÐ¼Ð¾ÑĢ Ð´Ð¾Ð²
ĠÐ°Ð½ÑĤ Ð¸Ñģ
ĠÐºÐ¾Ð½ÑĦÐ»Ð¸Ðº ÑĤÐ¾Ð²
ĠÑĦÑĢÐ¸Ð´ÑĢÐ¸Ñħ Ð°
Ġ Ò
ÑģÐ¿ Ð¾ÑĢ
Ð´Ð¸Ð½ Ð¾
ĠÐ³ÑĢÐ°Ð½ Ð´
ĠÐ¾ÑģÑĤÐ°Ð² Ð¸Ð²
ĠÐ¼ÑĥÐ¶ ÑģÐºÐ¾Ð³Ð¾
ĠÐ²ÐµÑĤ Ð²Ð¸
ĠÐ¼ÐµÐ½ÑĮ ÑĪÐµÐ¹
ĠÐ²ÑİÑĢÑĤ ÐµÐ¼
ĠÐ± ÑĮ
ĠÑĪ Ð°ÑģÑģÐ¸
ĠÐºÐ¾Ð¼ ÐµÐ½Ð´
ĠÐ²Ð¸Ðº Ð¸Ð´
ĠÑĥÐ»Ð¸ÑĨ Ñĥ
ĠÐ¸ÑģÑĤÐ¾ÑĢ Ð¸
ĠÐ°Ð± ÑģÑĤ
ĠÑĦÐ» Ð°Ð½Ð³
ĠÐ¿ÑĢÐ°Ð²Ð¸ÑĤÐµÐ»ÑĮ ÑģÑĤÐ²Ðµ
ĠÑģÐ¾ÑħÑĢÐ°Ð½ ÐµÐ½Ð¸Ñı
ĠÐ³ÐµÑĢÐ° ÑģÐ¸Ð¼
ĠÐº Ð¾ÑģÑĤÐ¸
ĠÐºÑĢÐ°Ñģ Ð½Ð¾Ðµ
ĠÑĦÐ¸Ð» Ð°ÑĤ
ĠÐ´Ð¾ÐºÑĤÐ¾ÑĢ ÑģÐºÑĥÑİ
ĠÐ²Ð½ÐµÑĪ Ð½Ð¸Ñħ
ĠÐ²Ð·Ð³Ð»ÑıÐ´ Ñĭ
ĠÐ¸ÑģÐ¿Ð¾Ð»Ð½Ñı ÐµÑĤ
ĠÐ°ÑĢÐ±Ð¸ÑĤÑĢÐ°Ð¶ Ð½ÑĭÐ¹
Ð¾Ð· Ð²
ĠÐºÐ¾Ð¼ Ð¼
ĠÑģÐº Ð²ÐµÑĢ
ĠÐ°Ðº ÑĥÑģÑĤ
ĠÐ´Ð¾Ð¿ Ð¸Ñģ
ĠÑĥÑģÑĤÐ°Ð½Ð¾Ð² Ð¸Ð»
ĠÐ¾ÑĤÐºÑĢÑĭÑĤ Ð¾Ð³Ð¾
ĠÑĥÑĩÐµÐ± Ð½Ð¾Ðµ
ĠÑģÐ¾ÑĨÐ¸Ð°Ð»ÑĮ Ð½Ð°Ñı
ĠÐºÐ¾Ð½ÑĦÐ»Ð¸Ðº ÑĤÑĭ
ĠÑģÑĩÐ¸ÑĤÐ° ÑİÑĤÑģÑı
ĠÐ¸ÑĢÐ»Ð°Ð½Ð´ Ð¸Ñı
ĠÐ°ÑĢÐ±Ð¸ÑĤ ÑĢÐ¾Ð²
ĠÑĤÑĥÐ»ÑĮ ÑģÐºÐ¾Ð¹
ĠÐºÐ¸Ð½Ð¾ÑĢÐµÐ¶Ð¸ÑģÑģ ÑĳÑĢ
ĠÑĢÐ¾Ð´ ÑĢÐ¸Ð³
ĠÐ´ÐµÑĤ Ð°Ð»Ð¸
ĠÐºÐ¾Ð½Ð³ÑĢÐµÑģÑģ Ð°
ÑĢÐ° Ð¿
ĠÐ¿Ð» Ð°Ðº
ĠÐ¼ÐµÑģÑĤ Ð½Ð¾ÑģÑĤÑĮ
ÐµÑĢÑģ Ð¸
ĠÑģÐµÐ· Ð¾Ð½Ñĭ
ĠÐ¿Ð¾ÑĢÑĤ Ñĥ
ĠÐ²ÐµÐ´ ÑĥÑĤ
ĠÑįÐºÐ¾Ð½Ð¾Ð¼ Ð¸ÑĩÐµÑģÐºÐ¸Ð¹
ĠÐ´Ð¼Ð¸ÑĤ ÑĢÐ¾Ð²
ĠÐ´ÐµÑģÑıÑĤ ÐºÐ¸
ĠÐ°Ð²ÑĤÐ¾Ð´Ð¾ÑĢ Ð¾Ð³Ðµ
ĠÑģÑĥÐ²Ð¾ÑĢ Ð¾Ð²Ð°
ĠÑģÑĤÐ¾Ðº Ð³Ð¾Ð»ÑĮ
ĠÐº Ð±Ñĥ
ĠÐ¿ÑĢÐ¸Ð² ÑıÐ·
ĠÑģÐµÑĢÐ³ Ð¸ÐµÐ²
ĠÐ¸ÑģÐ¿Ð¾Ð»Ð½ Ð¸ÑĤÐµÐ»ÐµÐ¹
ĠÐ²ÑģÑĤÑĢÐµ ÑĩÐµ
ĠÐ¼Ð°ÑģÑĤ ÐµÑĢÐ¾Ð²
ĠÐ²Ð¾Ð·Ð²ÑĢÐ°Ñī ÐµÐ½Ð¸Ð¸
ĠÐ¾ÑĤÐ½Ð¾ÑĪÐµÐ½Ð¸Ñı Ñħ
ĠÐ²Ð¾ÑģÐ¿Ð¸ÑĤÐ°Ð½ Ð½Ð¸Ðº
Ñı ÐºÐ¾Ð²
Ð°Ð½ ÑģÐ°
ĠÑħ ÐµÐ½
ĠÐ¿Ð¾Ð´ Ð»Ð¸Ð½
ĠÐ´ÐµÑĤ ÑĮÐ¼Ð¸
ĠÐ¿Ð¾ÑģÐµÐ» ÐµÐ½Ð¸Ð¹
ĠÑĤÑĢÐ¸ ÑĥÐ¼
ĠÐ¸Ð²Ð°Ð½Ð¾Ð² Ð°
ĠÐ±Ñİ ÑģÑĤ
ĠÐ²Ð°Ð³ Ð¾Ð½Ð¾Ð²
ĠÐ±ÑĢÐ¸ÑĤÐ°Ð½ ÑģÐºÐ¸Ñħ
ĠÐ·Ð°Ð´Ð°Ñĩ ÐµÐ¹
ĠÐº Ñİ
ÐµÑĨ ÐºÐ¾Ð¼
ĠÐºÐ» ÐµÐ¼
ĠÐ»ÐµÑĤ Ð½ÐµÐ³Ð¾
ĠÐºÑĥÑĢ ÑĤ
ĠÐ·Ð¾Ð»Ð¾ÑĤ ÑĥÑİ
ĠÐ±ÑĢÐ¾Ð½ ÐµÐ½Ð¾Ñģ
ĠÐµÐ²ÑĢÐ¾Ð¿ÐµÐ¹ ÑģÐºÐ¸Ð¹
ĠÐ¿ÑĢÐ¾Ð²ÐµÐ´ ÐµÐ½Ð°
Ð¸ÑģÐ¿ Ð¾Ð²ÐµÐ´
ĠÐ¸Ð· Ð¾Ð»
ĠÐ·Ð½Ð°Ñĩ ÐµÐ½Ð¸Ð¹
ĠÐ¿Ð¾Ð¿ Ð°Ð»Ð°
ĠÑģÐ¸Ð±Ð¸ÑĢ ÑĮ
Ð¾Ð¿ Ð¾ÑĤ
ÑģÑĤÐ²ÐµÐ½ Ð½Ð¾Ð¼
ĠÐºÐ° ÑĢÐ°Ð¼
ĠÐºÐ¾Ð¼Ð°Ð½Ð´ ÑĥÑİÑīÐµÐ³Ð¾
ĠÐ¾ÑĦÐ¾ÑĢÐ¼ Ð»ÐµÐ½Ð¸Ñı
ĠÐ±Ð¾Ð¶ Ð¸ÐµÐ¹
ĠÑĤÑĳÐ¼ Ð½Ð¾
ĠÐ°Ð½Ð°ÑģÑĤÐ°Ñģ Ð¸Ñı
ÑĤ ÐµÑģÑĮ
Ð°ÑĢ Ð½ÑĭÐµ
ĠÐ³Ð¾ÑĢÐ¾Ð´ ÑģÐºÐ°Ñı
ĠÐºÐ² Ð°Ð»Ð¸ÑĦÐ¸ÑĨ
ĠÐºÑĢÐ°ÑģÐ½Ð¾ Ð°ÑĢÐ¼ÐµÐ¹
ĠÐ³Ð¾Ð»Ð»Ð¸Ð² ÑĥÐ´
ĠÐ²Ð¾Ð¿ Ð»Ð¾Ñī
ĠÐºÐ¾Ð¿ Ð¸Ð¹
ÑĢÐ°Ðº ÑĤÐ°
ĠÐ¸Ð½Ð¶ÐµÐ½ ÐµÑĢÑĭ
Ð¾Ð²Ð°Ð² ÑĪÐ¸Ñħ
Ð°ÑİÑīÐ¸Ð¹ ÑģÑı
ĠÑģÐ¸Ð¼Ð¿ Ð°ÑĤ
Ð¾ ÑĥÑģÑĤ
ĠÑĢÐ°Ð· Ð½ÑĭÐ¼Ð¸
ĠÐ²Ð¾Ñģ ÑħÐ¾Ð´
ĠÐ¶ÐµÐ» ÑĥÐ´
ĠÐ³Ð°Ð² ÑĢÐ¸Ð»
ĠÑĤÑĥÑĢÐº ÐµÑģÑĤ
ĠÐ±Ð°Ð»ÑĤÐ¸Ð¹ ÑģÐºÐ¾Ð³Ð¾
ĠÑİÐ½Ð¸ Ð¾ÑĢÐ¾Ð²
ĠÐ¾Ðº Ð½Ð°
ĠÑĦÐ¸Ð» Ð°Ð´
ĠÐ¿Ð° ÑĢÐ°Ð·
ĠÐ¼Ð¸ÑģÑģ Ð¸Ñģ
ĠÐºÐ»Ð¸ Ð¿
ĠÐ½Ðµ ÑĢÐ°Ð·
ĠÑģÐ² ÐµÑĤÐµ
ĠÑĥÐ¿ÑĢÐ°Ð² Ð»ÐµÐ½Ð¸Ð¸
ĠÑĢÑıÐ´ Ñĭ
ĠÐ¿ÑĢÐ¾Ð¸Ð·Ð¾ÑĪ ÑĳÐ»
ĠÑħ ÐµÐ»ÑĮÑģ
ĠÐ¿ÑĢÐ°Ð² Ð¾Ð¼Ñĥ
ĠÐ¿ÑĢÐ¸Ð½ ÑıÐ²
ĠÐ¿Ð¾Ñĩ ÑĤÐ°
Ð¸Ð°Ð»ÑĮ Ð½Ð¾Ðµ
ĠÐ¼ÐµÑĤ Ð¾Ð´Ð°
ĠÐ¿ÑĢÐ¸ÑģÑĥÑĤÑģÑĤÐ² ÑĥÑİÑĤ
ĠÐ¿ÑĢÐ¾ÑģÑĮ Ð±Ð¾Ð¹
ĠÐ¸ Ð½Ð¾
Ñħ Ð°ÑĤ
ĠÐ²Ñĭ ÑĢÐ°Ð¶ÐµÐ½Ð¸Ðµ
ÑĭÐ² Ð°Ð»Ð°
ĠÐ³Ð¾ÑģÑĥÐ´Ð°ÑĢÑģÑĤÐ²ÐµÐ½ Ð½ÑĥÑİ
Ñģ Ð¼
ĠÐ½ Ñİ
ĠÐ¸Ð½ Ð²Ð°Ð»
Ð»Ñİ Ð·
ĠÑĩÑĳÑĢ Ð½Ð¾Ð¹
ĠÑıÑĢ Ð¼Ð°ÑĢ
ĠÑģÐµÑĢÑĮÑĳÐ· Ð½Ð¾
ĠÐ¼Ð¾ÑĤ Ð¾ÑģÑĤÑĢÐµÐ»
ĠÑĩÑĢÐµÐ·Ð²ÑĭÑĩÐ°Ð¹ Ð½Ð¾
ĠÑĤÑĳ Ð¿Ð»
ĠÐ³ ÐµÐ»
ÑĥÑģ Ðµ
ĠÑĦÑĢÐ°Ð½ÑĨÑĥÐ· ÑģÐºÐ¸Ðµ
ĠÐ¸Ð½Ð¶ÐµÐ½ ÐµÑĢÐ°
ĠÐ³ÐµÐ¾Ð³ÑĢÐ°ÑĦ Ð¸ÑĩÐµÑģÐºÐ¸Ñħ
ĠÑĢÐµÐ»Ð¸Ð³Ð¸Ð¾Ð· Ð½ÑĭÐµ
ĠÐ´Ð¸Ð°Ð¼ÐµÑĤ ÑĢÐ¾Ð¼
ĠÐ¼ÐµÑģÑĤÐ¾ÑĢ Ð¾Ð¶Ð´ÐµÐ½Ð¸Ñı
ĠÑĪ ÑĥÐ±
ĠÑĢÐ¾Ð´ Ð½Ð¾Ð¼
ĠÑĢÐ°Ð·Ð´ÐµÐ» Ð¾Ð²
ĠÐ¼Ð¾Ð¼ÐµÐ½ÑĤ Ñĥ
ĠÐ°Ð²Ð¸Ð°ÑĨÐ¸Ð¾Ð½ Ð½Ð°Ñı
ĠÑģÑĤÑĢÐ¾Ðº Ð¸
ĠÐ¿Ð¾ÑĢÐ°Ð¶ ÐµÐ½Ð¸Ð¹
Ð¾ÑĦÐ¸ÑĨ Ð¸Ð°Ð»ÑĮÐ½ÑĭÐ¹
ĠÐ¿Ð¾Ð´Ð±Ð¾ÑĢ Ñĭ
Ð½ ÑĤ
ĠÐ² Ð°ÑģÑģ
Ð± Ð°ÑĢ
ÐµÑĢ ÑģÐºÐ°Ñı
ĠÐ» ÐµÐ·
ÐµÐº Ð¸
ĠÐ¿Ð°Ð² Ð¸Ð»ÑĮ
ĠÐ°ÑĢÑĤÐ¸Ð»Ð»ÐµÑĢÐ¸Ð¹ ÑģÐºÐ¸Ð¹
ĠÐ²ÑĭÐ½ÑĥÐ¶Ð´ ÐµÐ½Ñĭ
ĠÑģÐ¼ÐµÐ½ Ð¸Ð»
ĠÑģÐ¸Ð¼ÑĦÐµÑĢ Ð¾Ð¿Ð¾Ð»ÑĮ
ĠÑĥ ÑĦÐ¸Ð¼
ĠÑĢÐ° ÑĪ
Ð¸ÑĩÐµ ÑģÑĤÐ²Ð¾
Ð½Ð°Ñĩ Ð°Ð»Ðµ
ĠÑģÑĤÐ°ÑĤÑĮ ÑĳÐ¹
ÑĦÐ¾ÑĢÐ¼ Ð°ÑĤ
ĠÐ°Ð½ÑĤ Ð°ÑĢÐºÑĤ
ĠÐ°Ð²ÑĤÐ¾Ð¼Ð¾Ð± Ð¸Ð»Ð¸
ĠÐ¸ÑģÑģÐ»ÐµÐ´Ð¾Ð²Ð°ÑĤÐµÐ»ÑĮ ÑģÐºÐ¸Ð¹
ĠÐ²ÑĢÑĥÑĩ ÐµÐ½Ð¸ÐµÐ¼
ĠÑģÑĤÐ¸Ð» Ð¸ÑģÑĤ
ĠÐ½Ð¸Ð³ Ð´Ðµ
ĠÑİÐ½Ðµ ÑģÐºÐ¾
Ð¸Ð¹ ÑĨÑĭ
ĠÑģÐ¾Ð·Ð´ Ð°Ð»Ð¸
ĠÐ³ÑĢÐ°ÑĦ ÑģÑĤÐ²Ð¾
ĠÐ´Ð¾Ð¿Ð¾Ð»Ð½ Ð¸ÑĤÐµÐ»ÑĮÐ½Ð¾
ĠÑĪÐ¸ÑĢÐ¾Ðº Ð¸Ð¹
ĠÑĪÐ²ÐµÐ´ ÑģÐºÐ¸Ð¹
ĠÐ·Ð°Ð½ÑıÑĤ Ð¸Ñı
ĠÐ² Ð½Ð°ÑĩÐ°Ð»Ðµ
ĠÐº ÑįÑĤ
ĠÐ½ Ð¼
ĠÐ° Ð¼Ð¸Ð½
Ñĳ Ð½Ð°
ÐµÐ¼ ÑĥÑİ
ĠÐ²Ñģ Ð»ÐµÐ´
ĠÐ²Ð¾Ð·Ð¼Ð¾Ð¶ Ð½ÑĭÐ¼
ĠÑģÐ²Ð¾Ð±Ð¾Ð´ Ð½Ð¾Ðµ
ĠÐ¿ÑĢÐµÐ´ÑĭÐ´ÑĥÑī Ð¸Ñħ
ĠÐ´Ð¾Ñģ ÑĢ
ÑĥÑĤ Ð¾Ð²
ĠÐ¼Ð°ÑĢ ÐºÐ¾
Ð´Ð¶ Ð¸Ð½
ĠÑģÑĤÐ°ÑĤÑĥÑģ Ðµ
ĠÐ½ÐµÐºÐ¾ÑĤÐ¾ÑĢ ÑĭÐ¼Ð¸
ĠÑĢÐ°ÑģÐ¿ÑĢÐ¾ÑģÑĤÑĢÐ°Ð½ ÐµÐ½Ñĭ
ĠÑħÐ¸Ð¼ Ð¸Ðº
ĠÐ¿Ð¾Ð¸ÑģÐº Ð°Ñħ
ĠÑĥÐ¸Ð»ÑĮ ÑıÐ¼Ð°
ĠÐ¾Ð±ÑģÐµÑĢÐ² Ð°ÑĤÐ¾ÑĢÐ¸Ð¸
ĠÑĦÐµÑĢÐ´Ð¸Ð½ Ð°Ð½Ð´
ĠÐ² Ð¾Ð½
Ð°Ñģ Ð¸
ĠÑģÑĩÐ¸ÑĤ Ð°Ð»Ð¸
ÑĤÐ¾Ð½ Ð¸
ĠÐ¾ÑĤÑĢÐ° ÑģÐ»Ð¸
ĠÑĦÑĢÑĥÐ½ Ð·Ðµ
ĠÑĦÐ¸Ð»Ð°Ð´ ÐµÐ»ÑĮÑĦ
ÐµÐ½ Ñĥ
ĠÐ°ÐºÑĤ ÑĳÑĢÐ¾Ð²
ÑģÑĮ ÐºÐ°
ĠÐ¿Ð¾Ð´ÑĢÐ°Ð·Ð´ÐµÐ» ÐµÐ½Ð¸Ðµ
ĠÐ¸ÑģÐ¿Ð¾Ð»ÑĮÐ·Ð¾Ð²Ð°Ð» Ð°ÑģÑĮ
ĠÐºÐ¸Ð¿ ÐµÐ½Ð¸Ñı
ĠÐ´Ð¾Ð½ÐµÑĨ ÐºÐ¾Ð¹
ĠÐºÐ¾Ð¼ÐµÐ´ Ð¸Ð¹
ĠÐ¿Ð¾Ð·Ð½Ð°ÐºÐ¾Ð¼ Ð¸Ð»ÑģÑı
Ð¸Ð½ Ð¾Ð²Ð°
Ð¸ÑĤ ÐµÐ»Ñİ
ĠÐ¸Ð·Ð´ Ð°Ð½Ð¸Ð¸
ĠÐ¸ÑĤÐ¾Ð³ Ð¾Ð²
ĠÑĥÐ³ Ð¾Ð´Ð½Ð¾
ĠÐ¸ÑģÐºÑĥÑģÑģÑĤÐ² Ð¾Ð²ÐµÐ´
ĠÐºÐ°Ð½ÑĨ ÐµÐ»Ñı
ĠÐº Ð°Ñħ
ĠÐ¼ Ð°Ð¶
ĠÐ¿Ð¾ÑģÐ»ÐµÐ´ Ð¾Ð²
ĠÐ¿ÑĢÐµÐ¼ Ð¸Ð¹
ĠÐ¿Ð»Ð°Ð½ Ð¸ÑĢÑĥÐµÑĤÑģÑı
ĠÑĢÐ°Ð·ÑĢÐ°Ð±Ð¾ÑĤ Ð°Ð»
ĠÐ¿ÑĢÐµÐ·Ð¸Ð´ÐµÐ½ÑĤ Ñĭ
ĠÑģÐ»Ð¾Ð¶ Ð½ÑĭÑħ
ĠÐºÐ°Ð½Ð´Ð¸Ð´ Ð°ÑĤÑĭ
ĠÐ´ÑĥÑĪ Ð¸
ĠÐ¼Ð°ÑĢÐº Ð¸Ð·
ĠÐ¿ÑĢÐ¸Ð½ÑıÑĤ Ð¸Ðµ
ĠÐ¼Ð°Ð»ÑĮ ÑĩÐ¸Ðº
ĠÑĢÐµÐ¹ÑĤÐ¸Ð½Ð³ Ðµ
Ñģ Ð±ÐµÑĢÐ³
Ð¸Ð½ ÑģÐº
Ð»Ð¸ Ð³
ĠÑĨÐµÐ½ÑĤ ÑĢÑĭ
ĠÐ·Ð½Ð°Ñĩ Ð¸ÑĤÐµÐ»ÑĮÐ½ÑĭÐµ
ĠÑģÑĤÑĢÐ°Ð½ Ð°Ð¼
ĠÐ¸ÑģÐ¿Ð¾Ð»Ð½Ñı Ð»
ĠÐ´Ñĥ ÑįÑĤ
ĠÑģÐ°Ð¼Ð¾ÑĥÐ¿ÑĢÐ°Ð²Ð»ÐµÐ½Ð¸Ñı Ð¾ÑĦÐ¸ÑĨÐ¸Ð°Ð»ÑĮÐ½ÑĭÐ¹
ĠÑħÐ¾ÑĢÐ¾ ÑĪÐ¸Ð¹
ĠÑĩ ÑĥÐ³
ĠÑı ÑĩÐµÐ¹
ĠÐ¼ÐµÑģÑĤ ÐµÑĩ
ĠÐ¿ÑĢÐ¸Ð¼ ÑĭÐºÐ°
ĠÑģÑĩÐ¸ÑĤ Ð°Ñı
ĠÐ´Ð¸ÑĢÐµÐºÑĤ Ð¾ÑĢÐ¾Ð²
ĠÑĢÐ°ÑģÑĪÐ¸ÑĢ ÐµÐ½Ð¸Ñı
ĠÑĥÐ¿ÑĢÐ°Ð·Ð´Ð½ ÑĳÐ½
ĠÐ³ ÐµÐ¼
ĠÐ´ÐµÐ¹ÑģÑĤÐ² Ð¾Ð²Ð°ÑĤÑĮ
ĠÐ´ÐµÐ¹ÑģÑĤÐ² ÑĥÑİÑĤ
ĠÐ¼Ð°Ð»ÐµÐ½ÑĮ ÐºÐ¸Ð¹
ĠÑĢÐ°ÑĥÐ½ Ð´Ð°
ĠÑĥÐ¹ ÑĤÐ¸
Ð¾Ð» ÐµÐ·
ĠÐ» Ð¸Ð·
ĠÑĤÐµÐ»ÐµÑĦ Ð¸Ð»ÑĮ
ĠÐ¾ÑĤÐºÐ°Ð· Ð°ÑĤÑĮÑģÑı
ĠÐ¿ÐµÑħ Ð¾ÑĤÐ°
ĠÐ¿ÑĢÐ¾Ð³ÑĢÐ°Ð¼Ð¼ Ð½Ð¾Ðµ
ĠÐ·Ð°Ð¼ÐµÑĤ Ð½Ð¾
Ð¾Ð·Ð½ Ð°Ð²
ĠÐºÐ°Ð»Ð¸ÑĦÐ¾ÑĢ Ð½Ð¸Ð¸
ÑĢÐµÑħ ÑĤ
ĠÐ²ÐµÑĢÐ½ÑĥÐ² ÑĪÐ¸ÑģÑĮ
Ð¸ ÑĢÐ°ÑĤÑĮ
Ð½ Ñħ
Ð» ÑĳÐ²
ÑĢÐ° ÑĤÐ¾ÑĢ
Ð°ÑĢ ÐºÐ¸
ĠÑĩ Ð¸ÑĤÐ°
ĠÐ¼Ð¾ Ð¸Ñģ
ĠÐ¼Ð°ÑĤÐµÐ¼Ð°ÑĤ Ð¸ÑĩÐµÑģÐºÐ¸Ñħ
ĠÐ·Ð½Ð° ÐµÑĤÐµ
ĠÐ¿Ð¾ÐµÐ·Ð´ Ð¾Ð²
ĠÐºÐ°Ð½Ð°Ð´ ÑģÐºÐ¸Ð¹
Ð¶ Ð°Ð½
ĠÑģÑĤ Ð¸Ð¿
ĠÐ¼Ð¸Ð½ ÐµÑĢÐ°Ð»ÑĮ
ĠÐ¿Ð¾Ð²ÑĭÑĪ ÐµÐ½Ð¸Ðµ
ĠÐ¾Ð±ÑĬÑıÑģÐ½ Ð¸ÑĤÑĮ
ĠÐ²ÐµÑĢÐ¾ Ð¸ÑģÐ¿Ð¾Ð²ÐµÐ´
ĠÐ±ÑĥÑį Ð½Ð¾Ñģ
ĠÑģ Ð½Ð¾Ñģ
ĠÐ»Ð¸Ð´ ÐµÑĢÐ°
ĠÐ¿Ð¾Ð¼ÐµÑī ÐµÐ½Ð¸Ñı
ĠÐ¿Ð»ÐµÐ¼ ÐµÐ½Ð¸
ĠÑģÐ½Ñı Ð»
ĠÐ°Ð³ÐµÐ½ÑĤ ÑģÑĤÐ²Ð°
ÑįÐ»ÐµÐºÑĤ ÑĢ
ĠÐ¾Ð±Ñī ÑĥÑİ
ĠÐ´Ð°Ð½ Ð½ÑĥÑİ
ĠÐ¿Ð¾Ð¿ Ð°ÑģÑĤÑĮ
ĠÐºÑĥÑĢ ÑģÐ¾Ð²
ĠÐ±Ð°Ð» Ð»Ð¾Ð²
ĠÑĢÐ°ÑģÑģ Ðµ
ĠÑģÐ¼Ð¾ÑĤ ÑĢÐµÑĤÑĮ
ĠÐ¾Ð»Ð¸Ð¼Ð¿Ð¸ Ð°Ð´Ñĭ
Ð¾Ð½ ÑģÐºÐ¾Ð¹
ĠÐµ Ñİ
ĠÐ´Ð¾ ÑĨÐµÐ½ÑĤ
ĠÐ¼Ð¾Ð»Ð¾Ð´ Ð¾Ð³Ð¾
ĠÐ¸ÑĤÐ°Ð»ÑĮÑıÐ½ ÑģÐºÐ¾Ð³Ð¾
ĠÑĢÑĥÐº Ð¾Ð¿Ð¾Ð»Ð¾Ð¶
ĠÐºÐ¾ÑĢ Ð´
ĠÐ¼Ð¾ ÑĪ
ĠÐ¿ÑĢÐ¾Ð¿ Ð¸Ñģ
ĠÐ¶Ð¸Ð» ÑĭÑħ
ĠÑĤÑİ ÑĢÐµÐ¼
Ð¾Ð¾ÑĤ Ð²ÐµÑĤ
ĠÐ½ Ð¸Ðµ
ĠÑĥ ÑħÐ¾Ð´Ð¸ÑĤ
ĠÐ°ÑĢ Ðº
ĠÐ¼Ð¾Ð» Ñĩ
ĠÐ»Ð¸ÑĤ Ð¾Ð²ÑģÐºÐ¾Ð³Ð¾
ĠÐ»ÐµÐ² Ð¾Ð¼Ñĥ
ĠÐ³Ð°Ð» Ð¸Ð½Ð°
ĠÑģÐ¿ÐµÑĨÐ¸Ð°Ð»ÑĮ Ð½Ð¾Ð¹
ĠÐºÐ¾Ð»ÑĥÐ¼Ð± Ð¸Ñı
ĠÐ²Ð¸ÐºÐ¸ÑģÐºÐ»Ð°Ð´ Ðµ
ĠÑĨ Ð°
ĠÑģÐº Ð²Ð¾Ð·
Ð¸ÑģÐº Ð¾
ĠÐ³ÑĢÐ°Ð½ Ð¸
ĠÐ¾ÑĤÐ¿ÑĢÐ°Ð² Ð»ÑıÐµÑĤÑģÑı
ĠÐ¿ÑĢÐ¾Ð¿ ÑĥÑģÐº
ĠÐ°Ð´Ð¼Ð¸Ð½Ð¸ÑģÑĤÑĢÐ°ÑĤÐ¾ÑĢ Ñĭ
ĠÐ³Ð¸ÑĤÐ°ÑĢ Ð¸ÑģÑĤ
ĠÑĤÐº Ð°Ð½Ð¸
Ð¾Ðº Ð»Ð°ÑģÑģ
Ð¾Ð· Ð¾Ð²
ĠÐ¼Ð°ÑĢ Ð³Ð¸Ð½
ĠÑħÑĥÐ´Ð¾Ð¶ Ð½Ð¸ÐºÐ¾Ð¼
ĠÐ¿ÑĢÐ¾Ð³ Ð½Ð¾Ð·
ĠÐ»Ð°ÑĤ Ð¸Ð½
ĠÐºÐ¾ÑĢÐ¾ÑĤ ÐºÐ¸Ðµ
ĠÐ±Ð°Ð´ ÐµÐ½
ĠÑĥ Ð¼Ð¸ÑĢÐ°
ÑĳÐ½ Ð½Ð¾Ð¼Ñĥ
ĠÐ¿Ð¾Ð² ÐµÑĢ
ĠÐ´ÐµÑĤ ÑģÐºÐ¸Ñħ
ĠÑģÑģÑĭÐ» ÐºÐ¾Ð¹
Ñĭ Ð·
ĠÑģ ÐºÐ¸
ĠÐ½Ð° ÑĥÐ¼
ÐµÐ¼ ÑģÑı
ĠÑģÐ¿ Ð¾Ð½Ñģ
ĠÑģÐ¾Ð·Ð´ Ð°ÑĤÐµÐ»ÑĮ
ĠÐ¾Ñĩ ÐºÐ°
ĠÐ± Ð¸Ð½
ĠÐ± ÑįÐ¹
ĠÐ¿ÑĢÐ¾ÑĤÐ¸Ð² Ð½Ð¸Ðº
ĠÐ¿ÑģÐµÐ²Ð´Ð¾Ð½Ð¸Ð¼ Ð¾Ð¼
Ð» Ð¾Ð±
ÐµÑģÑĤ Ð¾Ñĩ
ĠÐ¸Ð³ÑĢÐ° ÑİÑĤ
ĠÐ¿ÑĢÐ¸ÑĪ Ð»Ð°
ĠÐ¿ÑĢÐµÐ¾Ð±ÑĢÐ°Ð· Ð¾Ð²Ð°Ð½
ĠÐ´Ð¶Ð¾ÑĢÐ´Ð¶ Ð°
ĠÐ·Ð°Ð±Ð»Ð¾Ðº Ð¸ÑĢÐ¾Ð²Ð°Ð½
Ó Ļ
Ð» Ð·
ÑĮ Ð¾Ð½
ĠÐ½Ð° ÐºÐ°Ð½
ĠÑĢ ÐµÐ½ÑĤ
ĠÑħ ÑĢ
ĠÐ¾Ð±ÑĢÐ°Ð· Ð¾Ð²Ð°Ð½Ð¾
ĠÐ»ÑİÐ± Ð¾Ðµ
ĠÐ´ÐµÐ¿ Ð¾ÑĢÑĤ
ĠÐ½Ð°ÑģÑĤÐ¾ÑıÑī ÐµÐ³Ð¾
ĠÐ±ÐµÑģÐ¿ Ð¾ÑĢÑıÐ´
ĠÐºÑĢÐ°ÑģÐ½Ð¾ÑıÑĢ ÑģÐºÐ¾Ð³Ð¾
ÐµÐ³ Ð¸
ĠÐ½Ðµ ÑĢÐ°Ð²
ĠÑĪ ÑĥÐ»ÑĮ
ĠÐ·Ð°Ð± Ð°Ð¹ÐºÐ°Ð»ÑĮ
ĠÐ´ÐµÐº Ð»Ð°
ĠÐ¾Ð¿ÑĢÐµÐ´ÐµÐ»Ñı ÐµÑĤ
ĠÑĥ ÐµÑħÐ°Ð»
ĠÐ´Ð¶ Ð¸Ð½
ĠÐºÐ» Ð¾Ð´
ĠÑģÑĤÐ°Ð» Ð¸Ð½
ĠÐ¿Ð¾Ð³ Ð»Ð¾Ñī
ĠÐ¿Ð¾ÑģÑĤÐ¾ÑıÐ½ Ð½Ð¾Ð¹
ĠÐ¿ÑĢÐ¸ÑģÐ¿ Ð¾ÑģÐ¾Ð±
Ñı Ð½Ð¾Ð¹
ĠÑĥÑĤ ÑĢÐ°Ñĩ
ĠÑģÐ´ÐµÐ» Ð°Ð½
ĠÐ½ÐµÑģ Ð¾Ð¾ÑĤÐ²ÐµÑĤ
ĠÐ²ÐµÑĢÐ¾ÑıÑĤ Ð½Ð¾ÑģÑĤÑĮ
ĠÐ»ÐµÑĩ ÐµÐ±
Ð°ÑĢÐ° Ð±
ĠÐ°ÑĢÐ¼ ÐµÐ½Ð¸Ñı
ĠÐºÑĢ Ð¸Ðº
ĠÑĢÑĭ Ð±Ð°
ĠÐ²Ð¸Ð»ÑĮ Ð½
ĠÑĪÐ°ÑĢ Ð»Ð¾ÑĤ
ĠÑĤÐµÐ¾ÑĢ Ð¸Ñİ
ĠÑĢÐ¸ÑģÑĥÐ½ Ð¾Ðº
ĠÑĥ ÑģÑĭ
ÐºÐ° Ð¹
Ð¸ÑĢ Ð¸
ĠÐ¿ÑĢÐ¾Ðº ÑĥÑĢÐ°ÑĤ
ĠÑĥÐ½Ð¸ÑĩÑĤÐ¾Ð¶ Ð¸Ð»
ĠÑĢÐµÑĨÐµÐ½Ð· Ð¸Ñı
ĠÑĢÐ¾Ð² Ð½Ð¾
ĠÐ¼ÐµÑĢÐ¾Ð¿ÑĢÐ¸ÑıÑĤ Ð¸Ð¹
ĠÑĥÐ¶Ð°Ñģ Ð¾Ð²
ĠÑģ ÐµÐºÑģ
ĠÐ½Ð° Ð²Ð°ÑĢ
ĠÐµ Ð¶ÐµÐ½
ĠÐ¿Ð¾Ð² ÑıÑĤ
ĠÐ²ÑĤÐ¾ÑĢ Ð¾ÑģÑĤÐµÐ¿
ĠÑįÐ½ Ð½
ĠÑĢÐ°Ð±Ð¾Ñĩ Ðµ
ĠÑĢÐµÐ´Ð°Ðº ÑĨÐ¸Ñı
ĠÐºÐ°ÑĦ Ðµ
Ð¸ ÑģÐºÐ¾Ð¼
ĠÑģÐ²Ð¾Ð¹ ÑģÑĤÐ²
ĠÐ¿Ð¾Ð¿ÑĭÑĤ ÐºÑĥ
ĠÑĢÑĥÐ¼ÑĭÐ½ Ð¸Ñı
ĠÐ±Ð°ÑĤÐ°ÑĢÐµ Ð¸
ĠÐ°Ð»Ñİ Ð¼Ð¸Ð½
Ð¾Ð¹ Ñģ
ĠÑģÑĤ ÑĢÑĥÐ½
Ð¾Ð¶ Ñĥ
Ð¸ÑģÑĤ ÑģÐºÐ¾Ð³Ð¾
ĠÑĢÐ°Ð· Ð½Ð¾Ð³
ĠÐ¿Ð¾ÑģÑĳÐ» ÐºÐ¸
ĠÐ¿ÐµÑĤÐµÑĢÐ±ÑĥÑĢÐ³ ÑģÐºÐ¸Ð¹
ĠÐ¿ÑĤ Ð¸ÑĨÐ°
ĠÑįÐºÑģÐ¿ÐµÐ´ Ð¸ÑĨÐ¸Ñı
ĠÐ²ÑģÐµÐ¼Ð¸ÑĢ Ð½Ð¾Ð¹
ĠÑĢÐµÐºÐ¾Ð¼ÐµÐ½Ð´ ÑĥÐµÑĤÑģÑı
ĠÐ½ÐµÐ» ÐµÐ³
Ð¸Ð´ Ð·
ÑĢÑĭ Ð·
ĠÑĩÐµÐ»Ð¾Ð²ÐµÐº Ñĥ
ĠÑĤÐµÑĩ ÐµÐ½Ð¸Ñı
ĠÐ¿ÑĢÐ¸Ð½Ð°Ð´Ð»ÐµÐ¶ Ð°Ð»
ĠÑĨÐ°ÑĢ ÑģÑĤÐ²
ĠÐºÑĢÑĥÐ¿Ð½ÐµÐ¹ ÑĪÐ¸Ð¹
ĠÐº Ð°Ð½Ð¾
ĠÐ¾Ð±ÑĢÐ°Ð· ÑĥÑİÑĤ
Ð¸ÑģÐº Ð°
ĠÑįÐ¿ Ð¸Ð´ÐµÐ¼
ĠÐºÐ¾Ð¼Ð¼Ñĥ Ð½Ð¸ÐºÐ°
ĠÑĤÑĢÐ°Ð² Ð¼Ñĭ
ĠÑģÑĨ ÐµÐ½Ð°
ĠÑģÐ¸Ð¼Ð¿ ÑĤÐ¾Ð¼
ĠÑĢÐ° ÐºÐ°
ĠÐ¾ÑĤ Ð²Ð°
ĠÐ½Ð¸Ðº Ð¾Ð¼Ñĥ
ĠÐ·Ð°ÑıÐ² Ð»ÐµÐ½Ð¸Ñı
ĠÑģÑĥ ÑĦÑĦ
ĠÐ»Ð¸ÑĤÐµÑĢÐ°ÑĤÑĥÑĢ Ð½ÑĭÐµ
ĠÑĩÐµÑĤÐ²ÐµÑĢ ÑĤ
ĠÐ»ÐµÑĩ ÐµÐ½Ð¸Ðµ
ĠÑĤÑıÐ¶ÑĳÐ» Ð¾Ð¹
ĠÑįÑĢÐ½ ÑģÑĤ
ĠÑĪÐ°ÑħÑĤ ÑĳÑĢ
ĠÐµÐ¶ÐµÐ½ ÐµÐ´
ĠÑĢ Ð¸Ð±
ĠÑģÐº ÑĢÐ¾Ð¼
ĠÐ»ÑİÐ± ÑĭÑħ
ĠÑģÐ¾Ð» Ð¸Ð´
ĠÐ»Ð¸ÑĨ Ð¾Ð¼
ĠÑģÐ¾ÑĨÐ¸Ð°Ð»Ð¸ÑģÑĤ Ð¸ÑĩÐµÑģÐºÐ¾Ð¹
ĠÐº Ð¸ÑģÑĤ
ĠÐ± ÑĢÐµÐ´
ĠÐ¿ÐµÑĢ ÐµÑħ
Ð¸ÑĤÐµÐ»ÑĮ Ð½Ð¾ÑģÑĤÑĮÑİ
ĠÐ¼Ð°ÑĢ Ð¸Ð½
ÑĥÑİÑī ÐµÐ¼
ĠÐ°ÑĦÑĢ Ð¸ÐºÐ°
ĠÑĤÐ°Ð¸Ð» Ð°Ð½Ð´
Ð¸ÑĢÑĥ Ñİ
ĠÐ¼Ð°Ð» ÑĭÐµ
ĠÑĢÐµÐ¹ Ñģ
ĠÐ»Ð¸ÑĤÐµÑĢÐ°ÑĤÑĥÑĢ Ð½Ð¾Ð³Ð¾
ĠÐ¿ÑĢÐ¾Ð¸Ð·Ð¾ÑĪ ÐµÐ´
ĠÐ²Ð»Ð°Ð´Ð¸Ð¼Ð¸ÑĢÐ¾Ð² Ð½Ð°
ĠÑįÐºÑģÑĤ ÑĢÐµÐ¼
ĠÐ¸ÑģÐ° Ð°Ðº
ĠÐ¸ÐµÑĢÐ°ÑĢ Ñħ
ĠÐ¿Ð¾Ð´ Ð°Ð»
ĠÐ¿ÑĢÐ¾Ð¿ Ð¾ÑĢ
Ñĳ Ð±
ÐµÐ»ÑĮ Ð½ÑĭÐ¼
ĠÐ¸Ð· ÑıÑī
ĠÐ¿ÐµÑģ Ð½Ðµ
ĠÐ¿Ð° ÑĥÐ»Ñĥ
ĠÐ¿ÐµÑĢÑģ Ð¾Ð½Ñĭ
ĠÐ¿ÑĢÐ¾ÑħÐ¾Ð´ Ð¸Ð»Ð°
ĠÐ¿Ð¾ÑģÐ¼Ð¾ÑĤ ÑĢÐ¸ÑĤÐµ
ĠÑģÑĤ Ñĭ
ÐµÐ½ÑĮ Ñı
ĠÐ¿Ð¾Ð¿ ÐµÑĩ
ĠÐ¿ÐµÑĢÐµÐ´ Ð°Ð½Ð°
ĠÐ°ÑĢÑĤ ÑĳÐ¼
ÑĥÐ² ÑģÑĤÐ²
ĠÑĥÑĩÐµÐ± Ð½Ð¾Ð³Ð¾
ĠÐºÐµÐ¼ Ð±
ĠÐ¾ÑģÑĤ Ð°Ð»ÑĮÐ½Ð¾Ðµ
ĠÐºÑĢÐ°Ñģ Ð½ÑĭÑħ
ĠÑģÐ»Ð¾Ð² Ð¾Ð¼
ĠÑģÐ¾ÑħÑĢÐ°Ð½ Ð¸Ð»Ð¾ÑģÑĮ
ĠÑĦÑĢÐ¾Ð½ ÑĤÐ°Ñħ
ĠÐ¿ÑĢÐµÐ´Ð½Ð°Ð·Ð½Ð°Ñĩ ÐµÐ½
ĠÐ¼Ð¸ÑģÑĤ ÐµÑĢ
Ð» Ñģ
ĠÐ½Ð° ÑĪÐ°
ĠÐ¼Ð°ÑĢ Ð³
ĠÑĢÑĥ ÐºÑĥ
ĠÐ½Ð°ÑĨÐ¸Ð¾Ð½Ð°Ð»ÑĮ Ð½Ð¾Ðµ
ĠÐ¿ÐµÑĢÐµÐ²Ð¾Ð´ Ñĭ
ĠÑĦÐµÐ´ÐµÑĢÐ°Ð»ÑĮ Ð½ÑĭÐ¼
ĠÐ¾ÑĤÑģÑĤ ÑĢÐ°Ð½
ĠÑģÐº Ð°Ð»
ĠÐ²Ð°ÑĢÐ¸Ð°Ð½ÑĤ Ðµ
ĠÑĢÐ°ÑģÑģÐ¼Ð°ÑĤÑĢÐ¸Ð² Ð°ÐµÑĤÑģÑı
ĠÑģÑĢÐµÐ´Ð½ÐµÐ²ÐµÐº Ð¾Ð²
ĠÐ°Ð´Ð²Ð¾Ðº Ð°ÑĤ
ĠÐ½Ð°ÐºÐ°Ð½ ÑĥÐ½Ðµ
ĠÐ¸ Ð¶
ĠÐºÐ°ÑĢ Ð´
ĠÑĢÑį Ð¿
ĠÐºÐ¸Ð½Ð¾ÐºÐ¾Ð¼ ÐµÐ´Ð¸Ð¸
ĠÐ½Ð°Ð¸Ð² ÑĭÑģ
ĠÑģÐ¾ÑģÑĤ Ð¾ÑıÑĤ
ĠÐ¾ÑĢ Ð´Ð¸Ð½
ĠÐ·Ð½Ð°ÑĩÐ¸Ð¼ ÑĭÑħ
ĠÑĢÑĥÐºÐ¾Ð²Ð¾Ð´ Ð¸ÑĤÐµÐ»ÐµÐ¹
ĠÐ¾ÑģÑĤÐ°Ð² Ð»ÐµÐ½Ð°
ĠÐ²Ð½ÑĥÑĤÑĢÐµÐ½ Ð½Ð¸Ðµ
ĠÐ¸Ð³ÑĢÐ° Ð»Ð¸
ĠÐ±Ð¾Ð»ÑĮ Ð½ÑĭÑħ
ĠÐ¿Ð°ÑĢÐ°Ð¼ÐµÑĤ ÑĢÐ¾Ð²
ĠÑĢÐ¾Ð´ Ð¸Ð½Ðµ
ĠÐ²Ð»Ð°Ð´ ÐµÐ½Ð¸Ðµ
ĠÑĥÐ»ÑĥÑĩÑĪ Ð¸ÑĤÑĮ
ĠÐ¿ÑĭÑĤ Ð°Ð»Ð¸ÑģÑĮ
ĠÐ³ÑĢÐµÑĩÐµ ÑģÐºÐ¾Ð³Ð¾
ĠÐ·Ð°Ð¿ÑĢÐ¾Ñģ Ñĭ
ÑĮ ÐµÐ½
Ð¸Ð´ Ð¸
ĠÑģÐ» Ð¾
ĠÐ¿ÑĢÐµÐ´ÑģÑĤÐ°Ð² Ð¸ÑĤÐµÐ»ÑıÐ¼Ð¸
ĠÐ´ÐµÐ¹ÑģÑĤÐ² Ð¸ÑĤÐµÐ»ÑĮÐ½ÑĭÐ¹
Ñĸ Ð¹
ĠÐ²Ð½ÐµÑĪ Ð½Ð¸Ðµ
ĠÐ±Ð°Ð¹ Ð´Ð°ÑĢ
ĠÑģÐ¼ÐµÑĢÑĤÑĮ Ñİ
ĠÑģÐ¾Ð·Ð´Ð° ÑĳÑĤ
ĠÐ¸Ð·Ð³ Ð¾ÑĤÐ°Ð²Ð»Ð¸Ð²
ĠÑįÐ¼Ð¸Ð³ ÑĢÐ°ÑĨÐ¸Ð¸
ĠÐ· Ñĥ
ĠÐ» Ð¸Ð»
ĠÐ¿ÑĢÐ°Ð² ÐºÐ°
ÑĥÐ· ÐµÐ½
ĠÐ¾ÑģÐ²ÐµÑī ÐµÐ½Ð¸Ðµ
ĠÐ¾Ð±Ð»Ð°Ð´Ð° ÑİÑĤ
Ð» Ð¾Ð½Ð¾Ð¼
Ð¼ Ð¾Ð»
ĠÑĢÐµ Ð¼Ð¾Ð½
ÑĥÐ± Ð°
ĠÐ¿ÑĢÐ¸Ð½ ÑĥÐ´
ĠÐ¿ÑĢÐµÐ´ÑģÑĤÐ°Ð² Ð¸ÑĤÑĮ
ĠÐ¿Ð¾ÑĢ ÑĤÐ°
ĠÑĢÐ°Ð·Ð¼ÐµÑĢ Ðµ
ĠÐ¿ÑĢÐ¸Ð» ÐµÐ³
ĠÐ²Ð¾ÑĢ Ð¾ÑĪ
ĠÐ¿ÑĢÐµÐ´Ð¿Ð¾Ñĩ Ð¸ÑĤ
ĠÑĢÐ°Ð·Ð½Ð¾Ð³ Ð»Ð°Ñģ
ĠÑĢÐ° ÑģÐ¾Ð²
ĠÐ´Ð¶ ÑĥÐ»Ð¸
ĠÑģÑĤÑĢ Ð¾Ñı
ĠÐ³Ð¸ÑĤ Ð»ÐµÑĢÐ¾Ð²
ĠÐ°ÑĢÑĤÐ¸Ð»Ð» ÐµÑĢÐ¸Ñı
ĠÐ·Ð°Ð¿Ð¸Ñģ Ð°Ð½
Ð¾Ð³Ð¾ÑĢ ÑģÐº
ĠÐ°ÑĢÑĤÐ¸Ð»Ð»ÐµÑĢÐ¸Ð¹ ÑģÐºÐ¾Ð³Ð¾
ĠÐ½Ð°Ð±Ð»Ñİ Ð´Ð°
ĠÑĥÑĩÐ°ÑģÑĤ ÐºÐ¸
Ð¾Ð²Ð¸Ñĩ Ð¸
ĠÐ¿Ð° ÑĨ
ĠÐ¸ÑģÑĤÐ¾ÑĩÐ½Ð¸Ðº Ðµ
ĠÑħÐ¾ÑĢÐ¾ÑĪ Ð°Ñı
ĠÐ¿ÑĢÐ¾Ð¼ÑĭÑĪÐ»ÐµÐ½ Ð½ÑĭÑħ
ĠÑģÑĭÐ³ ÑĢÐ°Ð²
ÐµÑĤ Ñĥ
ĠÐ¾Ð¿ Ð¸ÑĢÐ°
ĠÑģÐ°Ð¼ Ð¸Ñħ
ĠÐ²Ð¾Ð·Ð¼Ð¾Ð¶ Ð½ÑĭÑħ
ĠÑįÐ»ÐµÐºÑĤ ÑĢÐ¾Ð´
ĠÐ½ÐµÑģ Ð¾Ð¼Ð½
ĠÐ¿Ð¾Ð»ÑĮ ÑģÐºÐ¸Ñħ
ĠÐ¾Ð±ÑģÐ»ÑĥÐ¶ Ð¸Ð²Ð°Ð½Ð¸Ñı
ĠÐ¾ÑĢÐ³Ð°Ð½Ð¸Ð· Ð°ÑĨÐ¸Ð¾Ð½
ĠÐ°Ð´Ð¼Ð¸Ð½Ð¸ÑģÑĤÑĢÐ°ÑĤÐ¸Ð² Ð½ÑĭÑħ
ĠÑĦÐ¸Ð· Ð¸ÑĩÐµÑģÐºÐ¸Ðµ
ĠÐºÐ¾Ð»Ð»ÐµÐ´ Ð¶Ðµ
ĠÐ¿ÑĢÐµÐ²ÑĭÑĪ Ð°ÐµÑĤ
ĠÐ¿ÐµÑĢÐµÐ½Ð°Ð¿ÑĢÐ°Ð² Ð»ÐµÐ½Ð¸Ñı
Ð½Ð¾ ÑĤ
Ð¾ÑĤ ÐµÑĢÐ°Ð¿
ÐµÑĩ Ð½ÑĭÐ¹
ĠÐºÐ¾Ð¼Ð¿ ÐµÑĤ
ĠÐ¿Ð¾Ðº Ð¾Ð¹
ĠÐ°Ð´Ð¼Ð¸Ð½Ð¸ÑģÑĤÑĢÐ°ÑĤÐ¸Ð² Ð½Ð¾Ð¼Ñĥ
Ð¸Ð½Ð¾Ð² ÐºÐ°
ĠÑģÐ¿ÐµÑĨÐ¸Ð°Ð» Ð¸ÑģÑĤÑĭ
ĠÐµÑĦ ÑĢÐµÐ¼
ĠÑģ ÑĥÐ³
ÑĢÐµ ÑĨ
ĠÑģÑĤÑĢÐ°Ð½ Ð°Ð¼Ð¸
ĠÐ¾ÑģÐ½Ð¾Ð²Ð°Ð½ Ð½ÑĭÐ¹
Ð¾Ð½Ð°Ñĩ Ð°Ð»ÑĮ
ĠÑħÐ°ÑĢ ÑĢÐ¸Ñģ
ĠÐ°Ð²ÑĤÐ¾Ð± Ð¸
ĠÐ¾ÑĢÐ± Ð¸ÑĤÑĭ
ĠÐ¼ÑĥÐ´ ÑĢ
ĠÑĢ Ð¾Ñī
Ð°Ð½Ð¾Ð² ÐºÐ°
ĠÐ·Ð°Ð½Ð¸Ð¼ Ð°Ð»Ð¸ÑģÑĮ
ĠÑĦÐ¾ÑĤÐ¾ Ð°Ð¿
ĠÑĦÑĢÐ°Ð½ÑĨÐ¸ÑģÐº Ð¾
ĠÑĢÐ°Ð·Ð² Ð¾Ð´
ĠÐºÐ°Ð¶Ð´ Ð¾Ð¼Ñĥ
ĠÑĢÐ°Ð±Ð¾Ñĩ Ð¸Ðµ
ÑĥÐ¹ ÑĤÐµ
ĠÐ²ÑĭÐ¿Ð¾Ð»Ð½ ÑıÑĤÑĮ
ĠÐ¿ÐµÑĢÐµÐ¹ ÑĤÐ¸
ÐµÐ» Ð°Ð½Ð´
Ð¾Ñģ Ð¾ÑĩÐµÑĤ
ĠÐ²Ñĭ ÑĢÐ°Ð¶ÐµÐ½Ð¸Ñı
ÑĢÐ¾Ð² ÑĭÐ¹
ĠÐºÐ¾Ð¼Ð¿ Ð»ÐµÐº
ĠÐ¾ÑģÑĤ Ð°ÐµÑĤÑģÑı
ĠÑģÐ¾Ð¾ÑĤÐ²ÐµÑĤÑģÑĤÐ² ÑĥÑİÑĤ
ĠÐºÐ°Ð¶Ð´ Ð¾Ðµ
ĠÐ¿ÑĢÐ¸Ð» Ð°Ð³
ĠÐ¿ Ð°ÑģÑģ
ÑĢÐµ ÐºÐ¸
ĠÐ¾ÑĤ ÑĢÐ°Ð²
ĠÑģÐµÐ»ÑĮ ÑģÐºÐ¾Ð¼
ĠÐºÐ°Ð· Ð°Ð½ÑģÐºÐ¾Ð³Ð¾
ĠÐ¼ÐµÑĩ Ð°Ð¼Ð¸
ĠÐ´Ð¸ÑģÑģÐµÑĢÑĤÐ° ÑĨÐ¸Ð¸
ĠÑģÐµÐ»ÑĮÑģÐºÐ¾ÑħÐ¾Ð·ÑıÐ¹ ÑģÑĤÐ²ÐµÐ½Ð½ÑĭÑħ
ĠÑģ ÑĥÐ·
ĠÐ¸ Ð¾ÑĢÐ´
ĠÐ¼Ð¾ ÐµÐ³Ð¾
ĠÑī ÐµÐ»
ĠÐ¸Ð»Ð»ÑİÑģÑĤ ÑĢÐ°ÑĨÐ¸Ð¸
ĠÑįÐºÐ² Ð°Ð´
Ð¾ ÑĨÐ¸Ð¸
ÑĥÑĪ Ð°
ĠÐ¾ÑģÐ¾Ð± ÑĭÐ¹
ĠÑĢÑĥÐ´ Ð¾Ð»ÑĮÑĦ
ĠÐ°ÑĢÑħÐµ Ð¾Ð»Ð¾Ð³
ĠÐ¼Ð°ÑĢÐ¾Ðº ÐºÐ¾
ĠÑģÐ°Ð¹ ÑĤÐ¾Ð²
ĠÑĩÐµÑĢ Ðº
ĠÐ²ÑĭÑģÑĤÑĥÐ¿ Ð°Ð»Ð¸
ĠÐ°ÑĤ Ð°Ð¼
ĠÑĪÐ°Ð±Ð»Ð¾Ð½ Ðµ
ĠÐ² Ð°Ð·
ĠÐ± ÑĢÐ¾Ðº
ĠÑĩ ÐµÐ¹
Ð¸Ð² ÑĪÐ°ÑıÑģÑı
ĠÐ·Ð° ÑĢÐµÑĩ
ÐµÑħ Ð°Ð½
ĠÑĥÑģÐ¿ ÐµÐ»
ĠÐ²Ð»Ð°ÑģÑĤ ÑıÐ¼Ð¸
ÐµÑĢÐ¾ ÑıÑĤ
ĠÐ¼ÐµÑĪ Ð°ÐµÑĤ
Ð¾Ð² ÐµÑĤ
Ð¾Ð» Ð¾Ð³Ð¾
Ð¾Ð¼ Ð¾ÑĢÑĦ
Ð°Ðº Ðµ
Ð¸Ð¼ Ð¾Ð²Ð°
ĠÐ¿ÑĢÐ°Ð² Ð¸ÑĤÑĮ
ĠÐ½Ð°Ð·Ð² Ð°Ð½Ñĭ
ĠÐ¿ÐµÑĢÐµÐ´ Ð²Ð¸Ð¶
ĠÐ¶ÐµÐ½ ÑģÐºÑĥÑİ
ĠÐ¿Ð¾Ð½ Ð¸Ð¶
ĠÑĩÐ°Ñģ Ñĭ
ĠÐ²Ð»Ð°ÑģÑĤ ÑĮÑİ
ĠÐ¿Ð¾Ð»ÑĮÐ· Ð¾Ð²Ð°ÑĤÐµÐ»ÑĮ
ĠÐ´Ñį Ð²Ð¸Ñģ
ĠÐ¿ÑĢÐ¾ÑĢ ÑĭÐ²
ĠÐ¾Ð¿ÑĢÐ¾Ð² ÐµÑĢÐ³
ĠÐ¾Ð± ÐºÐ¾Ð¼Ð°
Ð¸ÑĨ ÐºÐ°Ñı
ĠÐ¾ÑģÑĤ Ð°ÑĤÑĮÑģÑı
ĠÐ¿ÑĢÐ¸Ð² Ð°ÑĤ
ĠÑĤÐ°Ð¼ Ð¾Ð¶
ĠÐ¿Ð°ÑĤ ÑĢÐ¸Ðº
ĠÑģÐ¾Ð²ÐµÑĢÑĪ ÐµÐ½ÑģÑĤÐ²
ĠÑģÐ¸Ð½Ð³ Ð»Ð°
ÑĩÐ°ÑĤ ÑĭÐµ
ĠÐ²ÑĭÑģÑĤÑĥÐ¿ Ð¸Ð»Ð°
ĠÑģÐ¾Ð³Ð»Ð°Ñģ Ð¸Ñı
ĠÐ¼ÑĥÐ·ÑĭÐº Ð°Ð»ÑĮÐ½Ð¾Ðµ
ĠÑħÐ¾Ñĩ ÐµÑĤÑģÑı
ĠÐ¿ÐµÑĢÐµÑģÑĤ ÑĢÐ¾
Ð¾Ñİ ÑĢÐ¾Ð´
ĠÐ¾ÑĢÐµÐ½Ð±ÑĥÑĢÐ³ ÑģÐºÐ¾Ð¹
ĠÐ´Ð¸Ð°Ð¿Ð°Ð· Ð¾Ð½
ĠÐ¿Ð¾ Ñı
Ð¾Ð± ÐµÑĢÐµÐ¶
ĠÐ¸Ð· Ð¼
ĠÐºÐ¾ÑĢ Ð¾Ð²
ĠÐ´ÐµÐ¹ÑģÑĤÐ² ÑĥÑİÑīÐµÐ¹
ĠÐ¿Ð¾ÐºÐ°Ð· Ð°Ð½
ĠÐ½Ð¸Ñĩ ÐµÐ¼
ĠÑĦÐ¸Ð»Ð¸Ð¿ Ð¿Ð°
ĠÐ´Ð¸Ð°Ð» Ð¾Ð³
ĠÐ¿ ÑĢÐ°Ð¹
Ð¾Ð½ Ð½Ð°
ĠÑģÑĤ Ð¾ÑıÑī
ĠÑĤÐµ Ð¾Ð´Ð¾ÑĢ
ĠÐ¿ÑĢÐµÐ´ÑģÑĤÐ°Ð² Ð¸ÑĤÐµÐ»ÐµÐ¼
ĠÑĩÐ¸Ñģ Ð»Ð¾Ð¼
ĠÐ¿ÐµÑĢÐµÐ´ Ð°ÑĤÑĮ
Ð°ÐµÐ¼ ÑĭÐ¼
ĠÑĪÐµÑģÑĤ Ð¾Ð¹
ĠÐ¿ Ð°Ð»Ð°
ĠÐ½Ð° ÑĪÐµ
Ð¸Ð½ Ð°Ð¼Ð¸
ĠÐ·Ð½Ð°Ñĩ Ð¸ÑĤÐµÐ»ÑĮÐ½ÑĭÐ¹
ĠÐ³ÑĢÑĥÐ¿Ð¿ Ð¸ÑĢÐ¾Ð²ÐºÐ¸
ĠÑįÐºÐ¾Ð½Ð¾Ð¼ Ð¸ÑĩÐµÑģÐºÐ¸Ðµ
ĠÑģÐ¿Ð¸ÑģÐº Ñĥ
ĠÐ»ÑİÐºÑģÐµÐ¼ Ð±ÑĥÑĢÐ³
ĠÐ°Ð»Ð³ ÐµÐ±
ĠÑĢÐ°Ð· Ñĥ
ĠÑıÐ¿Ð¾Ð½ ÑģÐºÐ¾Ð³Ð¾
ĠÑĢÐµÐºÑĤ Ð¾ÑĢ
ĠÐ¾Ð± Ñĭ
ĠÑĪ Ð»Ñı
ĠÑĥÑĩ ÐµÐ½Ð¸Ðµ
ĠÐ²ÐµÐ»Ð¸Ðº Ð¾Ð¼
ĠÑĨÐµÑĢÐºÐ¾Ð² ÑĮÑİ
ĠÐ»Ð°ÑĤ ÑĭÑĪ
ĠÐ¼ Ð°ÑĢÐ°
ĠÑĢÐµ Ð°Ð»ÑĮÐ½Ð¾ÑģÑĤÐ¸
ĠÐ°Ð»ÐµÐºÑģÐ°Ð½Ð´ ÑĢÐ¾Ð¼
ĠÐ´Ð¾Ð± ÑĢÐ¾ÑģÐ¾Ð²ÐµÑģÑĤ
ĠÐ¶ÐµÐ» Ð°ÑĤÐµÐ»ÑĮÐ½Ð¾
ĠÐ¿ÑĢÐ¾Ð´Ð¾Ð»Ð¶ Ð¸ÑĤÑĮ
ĠÑģÐ¸Ð½ ÑħÑĢÐ¾Ð½
ĠÐ¿Ð°Ð½ Ð¾ÑĢÐ°
ĠÑıÑĢ ÐºÐ¾
ĠÐ½ Ð´
ĠÐ·Ð° ÑħÐ¾Ð´
ĠÐ¿ÑĥÐ½ÐºÑĤ Ñĥ
Ð¾ÑĦ Ð¾Ð½
ĠÐ¿Ð¾Ð´Ð¿ Ð¾Ð»ÑĮ
ĠÐºÐ½ÑıÐ· ÐµÐ¹
ĠÐ³Ð¾Ð½ ÐºÐ°
ĠÐ¾Ð¿ÑĥÐ±Ð»Ð¸Ðº Ð¾Ð²Ð°Ð½Ð¾
ĠÐ¼Ð¾Ð»ÐµÐº ÑĥÐ»ÑıÑĢ
Ð¸Ð½ ÑĨÑĭ
[...]
