{"!":0,"\"":1,"#":2,"$":3,"%":4,"&":5,"'":6,"(":7,")":8,"*":9,"+":10,",":11,"-":12,".":13,"/":14,"0":15,"1":16,"2":17,"3":18,"4":19,"5":20,"6":21,"7":22,"8":23,"9":24,":":25,";":26,"<":27,"=":28,">":29,"?":30,"@":31,"A":32,"B":33,"C":34,"D":35,"E":36,"F":37,"G":38,"H":39,"I":40,"J":41,"K":42,"L":43,"M":44,"N":45,"O":46,"P":47,"Q":48,"R":49,"S":50,"T":51,"U":52,"V":53,"W":54,"X":55,"Y":56,"Z":57,"[":58,"\\":59,"]":60,"^":61,"_":62,"`":63,"a":64,"b":65,"c":66,"d":67,"e":68,"f":69,"g":70,"h":71,"i":72,"j":73,"k":74,"l":75,"m":76,"n":77,"o":78,"p":79,"q":80,"r":81,"s":82,"t":83,"u":84,"v":85,"w":86,"x":87,"y":88,"z":89,"{":90,"|":91,"}":92,"~":93,"¡":94,"¢":95,"£":96,"¤":97,"¥":98,"¦":99,"§":100,"¨":101,"©":102,"ª":103,"«":104,"¬":105,"®":106,"¯":107,"°":108,"±":109,"²":110,"³":111,"´":112,"µ":113,"¶":114,"·":115,"¸":116,"¹":117,"º":118,"»":119,"¼":120,"½":121,"¾":122,"¿":123,"À":124,"Á":125,"Â":126,"Ã":127,"Ä":128,"Å":129,"Æ":130,"Ç":131,"È":132,"É":133,"Ê":134,"Ë":135,"Ì":136,"Í":137,"Î":138,"Ï":139,"Ð":140,"Ñ":141,"Ò":142,"Ó":143,"Ô":144,"Õ":145,"Ö":146,"×":147,"Ø":148,"Ù":149,"Ú":150,"Û":151,"Ü":152,"Ý":153,"Þ":154,"ß":155,"à":156,"á":157,"â":158,"ã":159,"ä":160,"å":161,"æ":162,"ç":163,"è":164,"é":165,"ê":166,"ë":167,"ì":168,"í":169,"î":170,"ï":171,"ð":172,"ñ":173,"ò":174,"ó":175,"ô":176,"õ":177,"ö":178,"÷":179,"ø":180,"ù":181,"ú":182,"û":183,"ü":184,"ý":185,"þ":186,"ÿ":187,"Ā":188,"ā":189,"Ă":190,"ă":191,"Ą":192,"ą":193,"Ć":194,"ć":195,"Ĉ":196,"ĉ":197,"Ċ":198,"ċ":199,"Č":200,"č":201,"Ď":202,"ď":203,"Đ":204,"đ":205,"Ē":206,"ē":207,"Ĕ":208,"ĕ":209,"Ė":210,"ė":211,"Ę":212,"ę":213,"Ě":214,"ě":215,"Ĝ":216,"ĝ":217,"Ğ":218,"ğ":219,"Ġ":220,"ġ":221,"Ģ":222,"ģ":223,"Ĥ":224,"ĥ":225,"Ħ":226,"ħ":227,"Ĩ":228,"ĩ":229,"Ī":230,"ī":231,"Ĭ":232,"ĭ":233,"Į":234,"į":235,"İ":236,"ı":237,"Ĳ":238,"ĳ":239,"Ĵ":240,"ĵ":241,"Ķ":242,"ķ":243,"ĸ":244,"Ĺ":245,"ĺ":246,"Ļ":247,"ļ":248,"Ľ":249,"ľ":250,"Ŀ":251,"ŀ":252,"Ł":253,"ł":254,"Ń":255,"er":256,"en":257,"ei":258,"ch":259,"Ġd":260,"Ġs":261,"un":262,"Ġa":263,"ie":264,"ein":265,"Ġn":266,"Ġein":267,"in":268,"st":269,"Ġb":270,"Ġv":271,"ll":272,"an":273,"Ġz":274,"Ġw":275,"sch":276,"ge":277,"Ġf":278,"Ã¼":279,"Ġm":280,"on":281,"Ġeins":282,"te":283,"Ġder":284,"Ġk":285,"Ġun":286,"Ġdie":287,"or":288,"es":289,"Ã¤":290,"ar":291,"ur":292,"ich":293,"Ġh":294,"Ġne":295,"Ġnu":296,"it":297,"Ġnull":298,"ung":299,"wei":300,"Ġund":301,"Ġin":302,"at":303,"Ġi":304,"Ġau":305,"Ġneun":306,"Ġp":307,"al":308,"rei":309,"Ġzwei":310,"Ġl":311,"ier":312,"de":313,"Ġg":314,"cht":315,"as":316,"Ġr":317,"isch":318,"ten":319,"ĠfÃ¼":320,"ben":321,"hr":322,"Ġge":323,"em":324,"Ġt":325,"der":326,"el":327,"ter":328,"den":329,"au":330,"Ã¶":331,"Ġer":332,"gen":333,"Ġsie":334,"Ġj":335,"Ġacht":336,"Ġver":337,"ol":338,"is":339,"Ġvon":340,"ber":341,"Ġbe":342,"Ġan":343,"Ġse":344,"Ġst":345,"Ġdrei":346,"Ġzu":347,"am":348,"chs":349,"ig":350,"nf":351,"lich":352,"ĠfÃ¼nf":353,"et":354,"Ġvier":355,"Ġo":356,"ra":357,"Ġsieben":358,"ion":359,"Ġsch":360,"Ġmit":361,"om":362,"Ġden":363,"Ġsechs":364,"Ġdas":365,"eit":366,"us":367,"il":368,"Ġdes":369,"and":370,"Ġim":371,"Ġal":372,"um":373,"ut":374,"ent":375,"ir":376,"ach":377,"Ġauf":378,"ck":379,"ro":380,"ik":381,"ÃŁ":382,"se":383,"Ġc":384,"re":385,"Ġaus":386,"ft":387,"ischen":388,"Ġe":389,"kt":390,"ann":391,"ste":392,"Ġde":393,"sen":394,"ahr":395,"Ġals":396,"Ġdem":397,"le":398,"sp":399,"ah":400,"icht":401,"Ġwur":402,"ĠfÃ¼r":403,"Ġre":404,"ff":405,"Ġbei":406,"Ã¤n":407,"Ġeine":408,"Ġist":409,"ien":410,"Ġso":411,"Ġsp":412,"ri":413,"ad":414,"ger":415,"Ġnach":416,"Ġsich":417,"Ã¼ber":418,"ische":419,"he":420,"Ġam":421,"men":422,"ver":423,"iel":424,"Ġfr":425,"Ġab":426,"ungen":427,"Ġauch":428,"ab":429,"ul":430,"os":431,"Ġvor":432,"ot":433,"ation":434,"Ġwurde":435,"ĠÃ¼ber":436,"och":437,"Ġwer":438,"scha":439,"Ġka":440,"Ġunter":441,"Ġsein":442,"ne":443,"la":444,"eil":445,"ist":446,"Ġjahr":447,"urch":448,"chen":449,"ind":450,"utsch":451,"Ġwar":452,"ru":453,"Ġwir":454,"und":455,"ern":456,"ort":457,"Ġum":458,"rie":459,"Ġent":460,"ungs":461,"Ġdeutsch":462,"Ġdurch":463,"op":464,"lle":465,"sten":466,"Ġar":467,"Ã¼n":468,"hn":469,"im":470,"be":471,"ing":472,"teg":473,"Ġes":474,"orie":475,"eich":476,"Ġber":477,"Ġch":478,"Ġle":479,"schaft":480,"og":481,"hen":482,"ser":483,"etz":484,"ster":485,"all":486,"Ġgr":487,"iv":488,"ang":489,"Ã¤t":490,"Ġkateg":491,"Ġbis":492,"Ġme":493,"Ġwie":494,"Ġkategorie":495,"ag":496,"Ã¼r":497,"Ġwerden":498,"Ġeiner":499,"Ã¤r":500,"Ġzur":501,"hl":502,"Ġoder":503,"Ġnicht":504,"ischer":505,"Ġwe":506,"Ġmin":507,"Ġpro":508,"Ã¶r":509,"lie":510,"Ġwird":511,"ze":512,"ige":513,"igen":514,"Ġkon":515,"Ġzum":516,"sb":517,"gel":518,"nen":519,"pp":520,"Ġen":521,"che":522,"Ġma":523,"art":524,"rÃ¤":525,"Ġher":526,"Ġsind":527,"aus":528,"stell":529,"Ġwei":530,"adt":531,"we":532,"lin":533,"Ã¶n":534,"anz":535,"lichen":536,"her":537,"hal":538,"tel":539,"sam":540,"ug":541,"wer":542,"ic":543,"Ġihr":544,"gr":545,"end":546,"land":547,"gt":548,"Ġall":549,"ant":550,"ord":551,"Ġje":552,"Ġhat":553,"qu":554,"ke":555,"Ġda":556,"geb":557,"Ġmini":558,"Ġbr":559,"iert":560,"tet":561,"Ġeinem":562,"Ġkl":563,"Ã¼ck":564,"liche":565,"mer":566,"ahl":567,"mein":568,"Ġkom":569,"ner":570,"orm":571,"pt":572,"Ġhe":573,"Ġte":574,"det":575,"zen":576,"reich":577,"urg":578,"ill":579,"ers":580,"pf":581,"Ġmar":582,"me":583,"Ġeinen":584,"auf":585,"elt":586,"Ġdass":587,"fÃ¼":588,"ken":589,"uss":590,"ass":591,"spiel":592,"Ġstadt":593,"Ġgeb":594,"Ġland":595,"ht":596,"Ġste":597,"ia":598,"ĠkÃ¶n":599,"atur":600,"Ġfe":601,"wa":602,"bl":603,"Ġgen":604,"Ġgro":605,"id":606,"Ġpol":607,"setz":608,"Ġthe":609,"Ġzw":610,"Ġneu":611,"llen":612,"iz":613,"od":614,"Ġfl":615,"ick":616,"gl":617,"Ġei":618,"ÃŁen":619,"Ġgesch":620,"Ġdar":621,"ess":622,"ks":623,"ob":624,"rit":625,"Ġman":626,"Ġander":627,"Ġbes":628,"Ġgegen":629,"fl":630,"keit":631,"ekt":632,"Ġgl":633,"Ġwurden":634,"ard":635,"ap":636,"Ã¤hr":637,"del":638,"dert":639,"Ġzeit":640,"uch":641,"Ġet":642,"Ġor":643,"Ġro":644,"alt":645,"atz":646,"Ġnur":647,"weise":648,"ust":649,"fen":650,"ud":651,"dem":652,"ho":653,"Ã¤u":654,"ler":655,"wie":656,"Ġmehr":657,"ild":658,"Ġbet":659,"Ġbez":660,"ib":661,"Ġweiter":662,"Ġha":663,"ĠÃ¶":664,"eiten":665,"Ġjo":666,"fe":667,"Ġverb":668,"rich":669,"ial":670,"tes":671,"heit":672,"enn":673,"Ġmus":674,"tern":675,"Ġlie":676,"tz":677,"ss":678,"ph":679,"Ġdies":680,"Ġteil":681,"reis":682,"Ġger":683,"ank":684,"Ã¤l":685,"Ġdiese":686,"Ġel":687,"bar":688,"onder":689,"Ġreg":690,"itz":691,"Ġbl":692,"ok":693,"Ġgew":694,"aten":695,"fol":696,"zu":697,"per":698,"Ġvom":699,"nis":700,"berg":701,"Ġgemein":702,"ahn":703,"Ġseit":704,"Ġho":705,"ha":706,"Ġisb":707,"Ġisbn":708,"ied":709,"burg":710,"att":711,"fer":712,"Ġhin":713,"ktion":714,"teil":715,"Ġnoch":716,"ichte":717,"fÃ¼hr":718,"Ġaber":719,"ak":720,"pl":721,"sk":722,"ieren":723,"ale":724,"Ġu":725,"Ġzwischen":726,"arb":727,"ast":728,"Ġph":729,"iker":730,"oll":731,"Ġverw":732,"Ġeinz":733,"amm":734,"Ġeines":735,"hun":736,"ian":737,"ĠgroÃŁ":738,"stand":739,"Ġhoch":740,"ierung":741,"itÃ¤t":742,"Ġtr":743,"Ġpl":744,"Ġus":745,"Ġbeg":746,"ute":747,"net":748,"olog":749,"Ġex":750,"Ġjahrhun":751,"ffen":752,"gesch":753,"zeit":754,"mus":755,"Ġsta":756,"ierte":757,"eln":758,"iger":759,"aum":760,"arl":761,"Ġdieser":762,"Ġfol":763,"Ġwelt":764,"Ġsy":765,"du":766,"Ġwas":767,"io":768,"Ġsel":769,"Ġdam":770,"Ġjahrhundert":771,"als":772,"Ã¤nd":773,"Ġqu":774,"enz":775,"glich":776,"hm":777,"Ġdeutscher":778,"Ġpolit":779,"ĠsÃ¼":780,"Ġrei":781,"Ġwieder":782,"eist":783,"pr":784,"kl":785,"ÃŁer":786,"imm":787,"Ġla":788,"Ġseine":789,"Ġkann":790,"fahr":791,"wo":792,"ften":793,"Ġsowie":794,"tra":795,"bst":796,"eits":797,"lag":798,"Ġsa":799,"annt":800,"eine":801,"ult":802,"Ġur":803,"nung":804,"Ã¶l":805,"ikan":806,"oren":807,"ma":808,"bau":809,"Ġmo":810,"alen":811,"ans":812,"lung":813,"schen":814,"Ġhau":815,"ath":816,"utz":817,"igkeit":818,"rupp":819,"ov":820,"tem":821,"vers":822,"amen":823,"Ġba":824,"Ġlin":825,"Ġlit":826,"Ġwo":827,"Ġjed":828,"Ġbund":829,"Ġth":830,"iet":831,"form":832,"wick":833,"Ġeur":834,"ium":835,"los":836,"Ġseiner":837,"Ġbo":838,"Ġerst":839,"Ġeigen":840,"Ġof":841,"Ġleben":842,"eim":843,"Ġwaren":844,"Ġpr":845,"ition":846,"ce":847,"rist":848,"Ġkir":849,"Ġjahre":850,"issen":851,"ingen":852,"assen":853,"Ġmen":854,"mann":855,"ow":856,"nah":857,"Ġins":858,"ember":859,"Ã¶s":860,"ip":861,"Ġnie":862,"stem":863,"Ġschw":864,"Ġzusam":865,"Ġange":866,"fin":867,"rieg":868,"Ġpar":869,"Ġfin":870,"Ġzusammen":871,"Ġamer":872,"Ġober":873,"ron":874,"hÃ¶r":875,"Ġfrei":876,"Ġmon":877,"ater":878,"Ġarb":879,"Ġetwa":880,"ker":881,"Ġgel":882,"ommen":883,"Ġkur":884,"Ġbundes":885,"ĠfÃ¼hr":886,"Ġspiel":887,"fall":888,"reu":889,"Ġversch":890,"Ġjedoch":891,"entr":892,"ts":893,"ĠkÃ¶nig":894,"Ġbau":895,"anden":896,"Ġhatte":897,"mit":898,"Ġrecht":899,"tt":900,"dr":901,"Ġdeutschland":902,"Ġfranz":903,"ieden":904,"Ġbesch":905,"ive":906,"ĠsÃ¼d":907,"Ġant":908,"Ġort":909,"age":910,"Ġy":911,"Ã¤ch":912,"Ã¤hl":913,"dern":914,"raf":915,"eld":916,"Ġverl":917,"ĠspÃ¤":918,"ÃŁe":919,"if":920,"Ġhaupt":921,"glie":922,"ald":923,"Ġpers":924,"ĠhÃ¶":925,"abe":926,"Ã¤d":927,"halten":928,"hmen":929,"Ġfor":930,"Ġberlin":931,"gan":932,"aut":933,"ine":934,"Ġbek":935,"iele":936,"tschaft":937,"Ġaut":938,"Ġkam":939,"Ġgrund":940,"auer":941,"Ġhier":942,"Ġbest":943,"Ġbezeich":944,"rach":945,"ĠwÃ¤hr":946,"ilm":947,"Ġto":948,"rat":949,"Ġliter":950,"rift":951,"Ġeinge":952,"Ġlu":953,"vor":954,"Ġsu":955,"rad":956,"andel":957,"unden":958,"Ġkomm":959,"ander":960,"Ġlei":961,"Ġind":962,"Ġben":963,"si":964,"Ġx":965,"Ġweb":966,"kehr":967,"Ġjahren":968,"Ġausge":969,"Ġuni":970,"Ġnord":971,"ĠgrÃ¶":972,"lage":973,"Ġdeutschen":974,"ibt":975,"ell":976,"Ġentwick":977,"Ġko":978,"ĠmÃ¼n":979,"gung":980,"Ġdi":981,"ert":982,"rieb":983,"ĠwÃ¤hrend":984,"ett":985,"old":986,"Ġwest":987,"ĠkÃ¶nnen":988,"ober":989,"Ġersten":990,"spieler":991,"Ġnation":992,"Ġeurop":993,"ismus":994,"ark":995,"ĠspÃ¤ter":996,"gang":997,"Ġaug":998,"Ġamerikan":999,"orden":1000,"Ġnieder":1001,"eister":1002,"chn":1003,"Ġem":1004,"Ġheute":1005,"lieÃŁ":1006,"Ġad":1007,"Ġart":1008,"ital":1009,"zw":1010,"stadt":1011,"Ġvers":1012,"ĠfrÃ¼":1013,"str":1014,"iss":1015,"sto":1016,"yp":1017,"Ġselbst":1018,"ed":1019,"Ġmittel":1020,"Ġsei":1021,"ionen":1022,"Ġbel":1023,"ek":1024,"zial":1025,"inn":1026,"eter":1027,"Ġfrank":1028,"Ġbeispiel":1029,"Ġsoll":1030,"br":1031,"Ġihre":1032,"ding":1033,"Ġliteratur":1034,"orf":1035,"acht":1036,"ens":1037,"Ġhaben":1038,"Ġeben":1039,"hne":1040,"Ã¶glich":1041,"stein":1042,"ys":1043,"riff":1044,"Ġzahl":1045,"stra":1046,"Ġerfol":1047,"Ġbede":1048,"licher":1049,"ierten":1050,"geben":1051,"Ġstaat":1052,"gte":1053,"ffent":1054,"Ġuntersch":1055,"Ġsiehe":1056,"spr":1057,"Ġstra":1058,"gemein":1059,"halb":1060,"Ġgibt":1061,"Ġunivers":1062,"Ġand":1063,"Ġis":1064,"sterreich":1065,"for":1066,"Ġjan":1067,"tete":1068,"Ġgleich":1069,"Ġform":1070,"istor":1071,"Ġob":1072,"Ġii":1073,"Ġvert":1074,"mal":1075,"ruck":1076,"Ġfu":1077,"gend":1078,"Ġco":1079,"Ġjun":1080,"Ġkonn":1081,"recht":1082,"Ġalle":1083,"schaften":1084,"ign":1085,"bt":1086,"gar":1087,"ultur":1088,"Ġwa":1089,"stellt":1090,"Ġvol":1091,"ym":1092,"Ġdeutsche":1093,"Ġdamit":1094,"Ġli":1095,"Ġfest":1096,"Ġaugust":1097,"Ġerh":1098,"ĠgehÃ¶r":1099,"Ġcom":1100,"Ã¤lt":1101,"Ġaller":1102,"Ġchrist":1103,"Ġgeschichte":1104,"igt":1105,"Ġverein":1106,"Ġklein":1107,"min":1108,"Ġjul":1109,"Ġbeim":1110,"Ġkomp":1111,"stellung":1112,"Ġanderen":1113,"cken":1114,"setzt":1115,"Ġwen":1116,"schl":1117,"eid":1118,"Ã¼rger":1119,"xt":1120,"Ġgemeinde":1121,"zer":1122,"ĠmÃ¤r":1123,"ac":1124,"ĠzurÃ¼ck":1125,"Ġbereits":1126,"eichen":1127,"Ġviel":1128,"th":1129,"ubl":1130,"bert":1131,"Ġbeste":1132,"Ã¤m":1133,"uer":1134,"Ġneben":1135,"Ġpf":1136,"Ġengl":1137,"Ġpart":1138,"ationen":1139,"grÃ¼n":1140,"olf":1141,"wir":1142,"ĠgrÃ¼n":1143,"elle":1144,"Ġfried":1145,"Ġbild":1146,"hin":1147,"ont":1148,"ius":1149,"man":1150,"Ã¤nder":1151,"Ġwenn":1152,"Ġerste":1153,"ĠÃ¶sterreich":1154,"Ã¤nger":1155,"Ġdab":1156,"Ġkr":1157,"sell":1158,"ball":1159,"onen":1160,"Ġende":1161,"Ġinter":1162,"Ġwasser":1163,"ĠprÃ¤":1164,"pro":1165,"Ġstand":1166,"Ġschl":1167,"unde":1168,"Ġdabei":1169,"Ġmed":1170,"Ġdort":1171,"sy":1172,"Ġdann":1173,"heim":1174,"Ġfilm":1175,"Ġintern":1176,"issenschaft":1177,"Ġletz":1178,"Ġrel":1179,"Ġsonder":1180,"bru":1181,"mÃ¤":1182,"ogen":1183,"igung":1184,"Ġat":1185,"Ġbil":1186,"inz":1187,"hau":1188,"stÃ¤nd":1189,"ucht":1190,"Ġra":1191,"Ã¤ng":1192,"ologie":1193,"itt":1194,"ĠfranzÃ¶s":1195,"ub":1196,"Ġmal":1197,"Ġmitglie":1198,"ĠÃ¤":1199,"dent":1200,"Ġrom":1201,"Ġpo":1202,"Ġnov":1203,"Ġhei":1204,"hof":1205,"Ġmai":1206,"akt":1207,"ott":1208,"Ġjoh":1209,"isches":1210,"fr":1211,"cke":1212,"ere":1213,"orn":1214,"ina":1215,"unkt":1216,"Ġson":1217,"links":1218,"Ġwel":1219,"Ġweblinks":1220,"ule":1221,"Ġersch":1222,"amil":1223,"Ġseinen":1224,"iff":1225,"grund":1226,"na":1227,"bild":1228,"Ġhistor":1229,"bahn":1230,"uar":1231,"Ġbar":1232,"Ġihn":1233,"werk":1234,"Ġnamen":1235,"cher":1236,"Ġokt":1237,"ges":1238,"Ġphil":1239,"elm":1240,"Ġmil":1241,"hem":1242,"Ġgest":1243,"Ġjohann":1244,"Ġband":1245,"Ġsehr":1246,"haus":1247,"unk":1248,"Ġverschieden":1249,"unst":1250,"Ġmet":1251,"Ġsep":1252,"Ġmusik":1253,"uten":1254,"Ġper":1255,"Ġdez":1256,"Ġherr":1257,"sicht":1258,"ka":1259,"Ġfolgen":1260,"Ġweitere":1261,"sg":1262,"Ġkar":1263,"sta":1264,"oph":1265,"ga":1266,"annte":1267,"richt":1268,"Ġzun":1269,"mittel":1270,"ellen":1271,"Ġkeine":1272,"Ġbi":1273,"halt":1274,"Ġseinem":1275,"Ġlan":1276,"Ġihrer":1277,"Ġbas":1278,"Ġwil":1279,"urt":1280,"Ġfra":1281,"Ġkultur":1282,"Ġnah":1283,"lagen":1284,"Ġregel":1285,"ĠauÃŁer":1286,"Ġschwei":1287,"kreis":1288,"Ġju":1289,"are":1290,"Ġmenschen":1291,"Ġbesonder":1292,"steller":1293,"zeich":1294,"Ġjanuar":1295,"Ġapr":1296,"ĠmÃ¶glich":1297,"Ġbzw":1298,"esen":1299,"Ġverwen":1300,"Ġschrift":1301,"Ġtra":1302,"zahl":1303,"Ġoktober":1304,"ĠrÃ¶":1305,"Ġgra":1306,"Ġhand":1307,"ame":1308,"alter":1309,"Ġlandes":1310,"Ġeinzeln":1311,"ct":1312,"Ġkrieg":1313,"Ġmann":1314,"Ġgef":1315,"Ġohne":1316,"mar":1317,"ps":1318,"az":1319,"Ġverlag":1320,"wohn":1321,"ĠmÃ¼":1322,"rieben":1323,"Ġstatt":1324,"ister":1325,"Ġjuni":1326,"Ġhal":1327,"ĠfuÃŁ":1328,"Ġallem":1329,"Ġihm":1330,"Ġkais":1331,"Ġsol":1332,"ruppen":1333,"Ġprodu":1334,"inger":1335,"Ġkin":1336,"Ġev":1337,"essen":1338,"Ġkarl":1339,"sche":1340,"Ġkreis":1341,"zie":1342,"kon":1343,"nehmen":1344,"Ġarch":1345,"Ġwirtschaft":1346,"isten":1347,"ativ":1348,"ate":1349,"achweise":1350,"ite":1351,"Ġstell":1352,"Ġdezember":1353,"Ġeinzelnachweise":1354,"Ġzentr":1355,"ktur":1356,"bach":1357,"ĠmÃ¤rz":1358,"Ġcl":1359,"Ġjuli":1360,"sw":1361,"Ġdr":1362,"chsen":1363,"tember":1364,"Ġta":1365,"zeug":1366,"fte":1367,"ffentlich":1368,"Ġstr":1369,"Ġseptember":1370,"prÃ¤":1371,"Ġser":1372,"Ġgab":1373,"schn":1374,"Ġpri":1375,"Ġabge":1376,"Ġapril":1377,"falls":1378,"rechen":1379,"fang":1380,"Ġfriedrich":1381,"satz":1382,"Ã¼tz":1383,"fÃ¼hrt":1384,"keiten":1385,"ĠbÃ¼rger":1386,"pg":1387,"unktion":1388,"Ã¶lker":1389,"Ã¼b":1390,"Ġstud":1391,"Ġsk":1392,"Ġhein":1393,"unter":1394,"sellschaft":1395,"Ġital":1396,"samt":1397,"Ġbahn":1398,"ielt":1399,"meister":1400,"Ġnovember":1401,"Ġsystem":1402,"stoff":1403,"Ġdir":1404,"Ġfern":1405,"ruppe":1406,"Ġdiesem":1407,"av":1408,"ĠwÃ¼r":1409,"Ġbef":1410,"trag":1411,"Ġfrau":1412,"Ã¤uf":1413,"Ġehem":1414,"Ġbezeichnet":1415,"Ġliegt":1416,"Ġhandel":1417,"Ġtext":1418,"eile":1419,"yn":1420,"Ġsom":1421,"nahme":1422,"ond":1423,"Ġspe":1424,"Ġkonnte":1425,"Ġgener":1426,"ika":1427,"ock":1428,"Ġjpg":1429,"of":1430,"Ġost":1431,"Ġrh":1432,"Ġreich":1433,"tr":1434,"Ġakt":1435,"Ġpolitiker":1436,"Ã¤nde":1437,"gleich":1438,"kr":1439,"org":1440,"dete":1441,"hren":1442,"Ã¤tz":1443,"Ġkirche":1444,"Ġimmer":1445,"Ġru":1446,"asse":1447,"Ġkunst":1448,"els":1449,"feld":1450,"Ġfamil":1451,"Ġderen":1452,"sehen":1453,"ogra":1454,"Ġandere":1455,"Ã¼t":1456,"Ġorgan":1457,"Ġtro":1458,"Ġol":1459,"ienst":1460,"Ġdis":1461,"itel":1462,"ations":1463,"Ġsondern":1464,"Ġdan":1465,"ins":1466,"ou":1467,"Ġinner":1468,"Ġfahr":1469,"Ġsozial":1470,"ppen":1471,"Ġneue":1472,"legen":1473,"Ġnatur":1474,"aul":1475,"Ġlang":1476,"mals":1477,"Ġrad":1478,"eum":1479,"fahren":1480,"Ġitalien":1481,"Ġmill":1482,"ffiz":1483,"Ġinternation":1484,"sa":1485,"Ġbrit":1486,"Ġerz":1487,"Ġwicht":1488,"Ġschau":1489,"kant":1490,"Ġerw":1491,"Ġhol":1492,"ator":1493,"Ġtechn":1494,"Ġfre":1495,"weg":1496,"Ġvi":1497,"Ġflug":1498,"Ġalt":1499,"reten":1500,"mÃ¤ÃŁ":1501,"wohl":1502,"ĠrÃ¼ck":1503,"altung":1504,"Ġdav":1505,"ritt":1506,"raft":1507,"Ġca":1508,"Ġschon":1509,"dings":1510,"fach":1511,"eiter":1512,"Ġkaiser":1513,"ĠmÃ¼nchen":1514,"Ġdieses":1515,"kir":1516,"oten":1517,"ons":1518,"hÃ¤lt":1519,"fÃ¤":1520,"ublik":1521,"Ġvoll":1522,"Ġbeiden":1523,"reg":1524,"Ġnational":1525,"kommen":1526,"oge":1527,"Ġviele":1528,"Ġkein":1529,"Ġelekt":1530,"Ġproz":1531,"Ġbefin":1532,"Ġdessen":1533,"Ġallerdings":1534,"ĠgroÃŁen":1535,"Ġbestimm":1536,"Ġdah":1537,"Ġchr":1538,"gabe":1539,"rache":1540,"lo":1541,"Ġbay":1542,"krieg":1543,"Ġeinzel":1544,"Ġrund":1545,"Ã¼nst":1546,"ograph":1547,"gebiet":1548,"ve":1549,"ĠuniversitÃ¤t":1550,"Ġbuch":1551,"Ġoft":1552,"iere":1553,"Ġeinige":1554,"Ġmag":1555,"chte":1556,"Ġneuen":1557,"Ġern":1558,"Ġdat":1559,"zug":1560,"klÃ¤r":1561,"stru":1562,"Ġhochkant":1563,"chter":1564,"lossen":1565,"eitung":1566,"gew":1567,"Ġfebru":1568,"wig":1569,"Ġhar":1570,"chten":1571,"Ġfebruar":1572,"Ġhr":1573,"ore":1574,"Ġkont":1575,"Ġsal":1576,"co":1577,"annten":1578,"weil":1579,"verb":1580,"Ġlebens":1581,"Ġwill":1582,"one":1583,"Ġregion":1584,"reit":1585,"buch":1586,"Ġamerikanischer":1587,"Ġkm":1588,"emen":1589,"Ġhaus":1590,"Ġzweiten":1591,"angen":1592,"Ġdu":1593,"Ġverm":1594,"punkt":1595,"Ġerl":1596,"reichen":1597,"was":1598,"anken":1599,"ĠfuÃŁball":1600,"jekt":1601,"Ġihren":1602,"Ã¤s":1603,"Ġwien":1604,"ĠgroÃŁe":1605,"gegen":1606,"Ġges":1607,"Ġschwer":1608,"Ġherz":1609,"Ġze":1610,"bung":1611,"Ġluft":1612,"helm":1613,"Ġtod":1614,"uf":1615,"Ġmeist":1616,"Ġkan":1617,"Ġschul":1618,"Ã¤chst":1619,"Ġdazu":1620,"Ġaufge":1621,"Ġbekannt":1622,"Ġehemal":1623,"ies":1624,"Ġpeter":1625,"Ġham":1626,"Ġdenen":1627,"hung":1628,"hol":1629,"wend":1630,"Ġmich":1631,"eren":1632,"Ġstar":1633,"Ġnew":1634,"ats":1635,"ren":1636,"Ġebenfalls":1637,"Ġsc":1638,"Ġhrsg":1639,"dung":1640,"Ġrechts":1641,"fÃ¼r":1642,"Ġschwe":1643,"vÃ¶lker":1644,"hÃ¶":1645,"itÃ¤r":1646,"Ġruss":1647,"Ġkurz":1648,"eig":1649,"lieÃŁlich":1650,"hlen":1651,"ĠhÃ¤uf":1652,"ight":1653,"Ġmitglied":1654,"Ġheil":1655,"Ġbegriff":1656,"umen":1657,"ko":1658,"Ġmei":1659,"raum":1660,"Ġverwendet":1661,"hÃ¤ng":1662,"Ġwilhelm":1663,"fas":1664,"Ġed":1665,"Ġzer":1666,"Ġkath":1667,"ĠgrÃ¶ÃŁ":1668,"Ġalso":1669,"sweise":1670,"Ġwegen":1671,"ĠrÃ¶m":1672,"Ġberg":1673,"reuz":1674,"Ġjahrhunderts":1675,"rÃ¤ger":1676,"achen":1677,"loss":1678,"einander":1679,"druck":1680,"ven":1681,"gehen":1682,"arten":1683,"utung":1684,"Ġworden":1685,"Ġentsch":1686,"urn":1687,"ient":1688,"iner":1689,"Ġfort":1690,"bo":1691,"hard":1692,"ĠstÃ¤d":1693,"ions":1694,"Ġgil":1695,"pen":1696,"Ġwerk":1697,"inen":1698,"Ġkrit":1699,"Ġsen":1700,"Ġurspr":1701,"Ġwin":1702,"ider":1703,"Ġpra":1704,"zentr":1705,"Ġwahr":1706,"red":1707,"utt":1708,"rau":1709,"Ġter":1710,"hand":1711,"son":1712,"stit":1713,"Ġpa":1714,"omm":1715,"Ã¼ss":1716,"wohner":1717,"nisse":1718,"sd":1719,"esse":1720,"fern":1721,"sbes":1722,"Ġhinter":1723,"cker":1724,"ity":1725,"Ġaufgrund":1726,"fass":1727,"Ġon":1728,"Ġspan":1729,"pel":1730,"Ġfunktion":1731,"Ġdom":1732,"alis":1733,"Ã¶ffentlich":1734,"ller":1735,"Ġlandkreis":1736,"Ġverkehr":1737,"ĠzunÃ¤chst":1738,"Ġzei":1739,"ument":1740,"ichten":1741,"schule":1742,"Ġcon":1743,"zeu":1744,"pol":1745,"Ġsteht":1746,"Ġallgemein":1747,"wert":1748,"Ġweit":1749,"itzen":1750,"Ġschauspieler":1751,"ĠmilitÃ¤r":1752,"Ġwissenschaft":1753,"Ġverk":1754,"Ġunterschied":1755,"Ã¤hlt":1756,"Ġwahl":1757,"Ġkap":1758,"ament":1759,"Ġvolks":1760,"Ã¤nge":1761,"igten":1762,"Ġhans":1763,"Ġwirk":1764,"Ġlinks":1765,"ure":1766,"Ġmax":1767,"spro":1768,"Ġwes":1769,"sprechen":1770,"Ġport":1771,"Ġvar":1772,"Ġschwar":1773,"Ġjeweil":1774,"Ġalb":1775,"Ã¶rper":1776,"Ã¤re":1777,"Ġmor":1778,"Ġheinrich":1779,"Ġgesellschaft":1780,"Ġfall":1781,"so":1782,"Ġres":1783,"erk":1784,"aler":1785,"Ġmark":1786,"Ġricht":1787,"straÃŁe":1788,"ordnung":1789,"erg":1790,"Ġschriftsteller":1791,"ĠeuropÃ¤":1792,"fÃ¼hrung":1793,"Ã¤ft":1794,"ĠkÃ¼":1795,"ischof":1796,"Ġerfolg":1797,"publik":1798,"urm":1799,"Ġir":1800,"ĠbevÃ¶lker":1801,"Ġarbeit":1802,"innen":1803,"gestellt":1804,"Ġmot":1805,"Ġinsbes":1806,"uren":1807,"stellen":1808,"Ã¤che":1809,"igte":1810,"ondere":1811,"Ġinsbesondere":1812,"Ġtyp":1813,"lauf":1814,"Ġreichs":1815,"fel":1816,"Ġgenannt":1817,"Ġsport":1818,"Ġgesetz":1819,"Ġkinder":1820,"Ġperson":1821,"legt":1822,"Ġhil":1823,"ue":1824,"Ġstein":1825,"ase":1826,"ĠverÃ¶ffentlich":1827,"Ġoffiz":1828,"Ġgilt":1829,"yr":1830,"amp":1831,"anzen":1832,"Ġdiesen":1833,"Ġbeispielsweise":1834,"Ġheut":1835,"ograf":1836,"gaben":1837,"ca":1838,"ĠbÃ¼":1839,"Ġanfang":1840,"indung":1841,"ex":1842,"Ġpartei":1843,"Ġzuge":1844,"ikt":1845,"Ġanderem":1846,"ĠverfÃ¼":1847,"ĠgegrÃ¼n":1848,"Ġpat":1849,"Ġkirchen":1850,"Ġeng":1851,"Ġlud":1852,"schluss":1853,"Ġkommun":1854,"deten":1855,"scher":1856,"Ġschne":1857,"da":1858,"Ġkn":1859,"Ġnot":1860,"Ġrhein":1861,"ution":1862,"Ġag":1863,"Ġalign":1864,"anten":1865,"Ġdaher":1866,"Ġheraus":1867,"ade":1868,"eiden":1869,"Ġbern":1870,"Ã¼cke":1871,"genommen":1872,"Ġabs":1873,"fluss":1874,"angel":1875,"Ġsollte":1876,"tag":1877,"reiche":1878,"Ġbetrieb":1879,"ums":1880,"Ġrot":1881,"Ġpaul":1882,"Ġentwicklung":1883,"iges":1884,"oc":1885,"Ġbra":1886,"Ġkathol":1887,"ipp":1888,"Ġend":1889,"furt":1890,"Ġkompon":1891,"Ġsan":1892,"Ã¤us":1893,"Ġorganis":1894,"Ġnun":1895,"Ġdarauf":1896,"Ġmitte":1897,"utlich":1898,"Ġprov":1899,"Ġbesonders":1900,"Ġak":1901,"sÃ¤tz":1902,"Ġmehrere":1903,"ift":1904,"Ġgebiet":1905,"Ġbesteht":1906,"Ġsh":1907,"setzung":1908,"Ġsyn":1909,"Ġjohn":1910,"yl":1911,"enden":1912,"Ġlehr":1913,"gramm":1914,"Ġkor":1915,"geschichte":1916,"ost":1917,"ĠhÃ¤ufig":1918,"Ġmoder":1919,"ĠÃ¤l":1920,"Ġroman":1921,"Ġbedeutung":1922,"stag":1923,"Ġalten":1924,"Ġpap":1925,"standen":1926,"Ġkat":1927,"osition":1928,"heiten":1929,"Ġheim":1930,"Ġraum":1931,"ĠÃ¼b":1932,"emat":1933,"nahmen":1934,"ĠlÃ¶":1935,"Ġgu":1936,"Ġhtt":1937,"Ġrich":1938,"Ġtem":1939,"Ġweil":1940,"ment":1941,"Ġich":1942,"kel":1943,"Ġmath":1944,"schnitt":1945,"Ġjose":1946,"jahr":1947,"Ġmuss":1948,"Ġminiatur":1949,"derung":1950,"Ġinform":1951,"ix":1952,"eitet":1953,"Ġsil":1954,"ork":1955,"Ġrelig":1956,"Ġfrankreich":1957,"deutsch":1958,"Ġbu":1959,"schutz":1960,"Ġtitel":1961,"schrift":1962,"Ġfran":1963,"bel":1964,"pfer":1965,"Ġcar":1966,"Ġusa":1967,"Ã¼l":1968,"Ġentste":1969,"Ġstaats":1970,"ĠÃ¤hn":1971,"Ã¤hn":1972,"Ġsin":1973,"utter":1974,"hausen":1975,"fra":1976,"eite":1977,"Ġplan":1978,"Ġdrit":1979,"ikel":1980,"Ġplatz":1981,"Ġmeisten":1982,"Ġeisen":1983,"Ġgem":1984,"osoph":1985,"ĠkÃ¼nst":1986,"ile":1987,"Ġgrie":1988,"Ġgeboren":1989,"ĠgegenÃ¼ber":1990,"istischen":1991,"stre":1992,"deck":1993,"ienen":1994,"Ġdre":1995,"nete":1996,"folge":1997,"iven":1998,"Ġbezie":1999,"Ġliste":2000,"Ġbereich":2001,"Ġgraf":2002,"Ġbefindet":2003,"Ġstamm":2004,"Ġerstmals":2005,"Ġkal":2006,"ae":2007,"Ġeinwohner":2008,"hei":2009,"arch":2010,"Ġpersonen":2011,"Ġjap":2012,"zt":2013,"Ġtri":2014,"Ġsicher":2015,"ĠgrÃ¶ÃŁer":2016,"ĠursprÃ¼n":2017,"Ġunterst":2018,"Ġgeorg":2019,"urger":2020,"Ġstre":2021,"Ġgemeinsam":2022,"lex":2023,"Ã¶t":2024,"lichkeit":2025,"Ġwider":2026,"wirtschaft":2027,"Ġhatten":2028,"Ġbeginn":2029,"lungen":2030,"mb":2031,"ĠauÃŁerdem":2032,"Ġentsprechen":2033,"ange":2034,"Ġludwig":2035,"Ġren":2036,"ustrie":2037,"ement":2038,"Ġtrad":2039,"Ġpriv":2040,"Ġschm":2041,"kan":2042,"sident":2043,"Ġgut":2044,"Ġfa":2045,"ssen":2046,"Ġpal":2047,"Ġku":2048,"Ġburg":2049,"teilung":2050,"Ġevangel":2051,"Ġcol":2052,"Ġschla":2053,"Ġsogen":2054,"Ġerhielt":2055,"chsel":2056,"est":2057,"ide":2058,"Ġstark":2059,"Ġwob":2060,"Ġoffen":2061,"Ġbru":2062,"Ġunternehmen":2063,"see":2064,"sport":2065,"hle":2066,"Ġrein":2067,"Ġpreu":2068,"Ġschloss":2069,"Ġwolf":2070,"Ġwobei":2071,"Ġsohn":2072,"alitÃ¤t":2073,"Ġgo":2074,"ĠfrÃ¼her":2075,"Ġangeb":2076,"Ġmuseum":2077,"orben":2078,"Ġgeneral":2079,"Ġletzten":2080,"irk":2081,"Ġrev":2082,"gesetz":2083,"Ġgesam":2084,"Ġkommt":2085,"Ġcomp":2086,"kenn":2087,"Ġstaaten":2088,"dig":2089,"ative":2090,"Ġkop":2091,"Ġtradition":2092,"tlich":2093,"Ġged":2094,"Ġerhalten":2095,"Ġkol":2096,"Ġfast":2097,"verkehr":2098,"ologe":2099,"Ġnachdem":2100,"ry":2101,"Ġke":2102,"etzt":2103,"Ġniederl":2104,"Ġherzog":2105,"Ġdaten":2106,"ierungs":2107,"racht":2108,"system":2109,"Ġlauf":2110,"Ġsee":2111,"Ġoper":2112,"Ġmart":2113,"Ġmat":2114,"sych":2115,"frie":2116,"Ã¶ff":2117,"Ġjugend":2118,"ĠfÃ¼hrte":2119,"anst":2120,"ĠmÃ¤n":2121,"aren":2122,"Ġinnerhalb":2123,"iken":2124,"Ġmillionen":2125,"Ġeuropa":2126,"tragen":2127,"iden":2128,"Ã¤ss":2129,"ende":2130,"ĠerklÃ¤r":2131,"Ġwohn":2132,"Ġverd":2133,"Ġfolge":2134,"herr":2135,"ekte":2136,"unft":2137,"Ġchem":2138,"urs":2139,"Ġfrauen":2140,"Ġexist":2141,"Ġerrich":2142,"ĠfÃ¤":2143,"Ġbegann":2144,"Ġenglisch":2145,"Ġmy":2146,"Ġalex":2147,"Ġjapan":2148,"Ġgar":2149,"Ġparis":2150,"abhÃ¤ng":2151,"Ġseines":2152,"denten":2153,"Ġgot":2154,"oster":2155,"Ġmacht":2156,"Ġbed":2157,"aub":2158,"kirche":2159,"Ġallen":2160,"Ġsetz":2161,"Ġforsch":2162,"Ġton":2163,"ise":2164,"Ġhttps":2165,"zept":2166,"Ġnorm":2167,"Ġunters":2168,"Ġstu":2169,"Ġerm":2170,"Ġfach":2171,"Ġschweizer":2172,"wort":2173,"Ġep":2174,"Ġweiteren":2175,"fest":2176,"Ġmicha":2177,"Ġap":2178,"Ġrah":2179,"Ġwelche":2180,"platz":2181,"ba":2182,"ton":2183,"mo":2184,"laden":2185,"amer":2186,"Ġbesitz":2187,"Ġprof":2188,"ĠkÃ¶l":2189,"minister":2190,"Ġnor":2191,"ese":2192,"Ġfamilie":2193,"Ġsprach":2194,"Ã¤ude":2195,"Ġklass":2196,"bet":2197,"Ġwor":2198,"riften":2199,"Ġbestehen":2200,"Ġott":2201,"Ġhohen":2202,"Ġstat":2203,"Ġblie":2204,"Ġerg":2205,"Ġinstit":2206,"Ġfrankfurt":2207,"Ġvo":2208,"Ġlat":2209,"Ġschn":2210,"itter":2211,"istische":2212,"hmer":2213,"othe":2214,"Ġas":2215,"akter":2216,"stÃ¶r":2217,"Ġmode":2218,"Ġdirekt":2219,"Ã¤ndern":2220,"Ġbestand":2221,"sburg":2222,"gten":2223,"Ġchar":2224,"sprach":2225,"kte":2226,"ica":2227,"Ġkomponist":2228,"utzt":2229,"Ġthom":2230,"Ġtage":2231,"Ġinsel":2232,"Ġtie":2233,"Ġscha":2234,"Ġzug":2235,"Ġgruppe":2236,"Ġschiff":2237,"Ġzudem":2238,"Ġpe":2239,"Ġww":2240,"ochen":2241,"Ġdenn":2242,"Ġdoch":2243,"Ġerne":2244,"genden":2245,"Ġoffizie":2246,"oss":2247,"Ġweg":2248,"Ġdavon":2249,"Ġlange":2250,"altungs":2251,"int":2252,"Ġwald":2253,"Ġweltkrieg":2254,"Ġphilosoph":2255,"Ġschweiz":2256,"Ġdo":2257,"Ġfinden":2258,"Ġnutz":2259,"Ġos":2260,"Ġunbe":2261,"Ġamt":2262,"ias":2263,"atten":2264,"wahl":2265,"nungen":2266,"jet":2267,"rachen":2268,"teilt":2269,"schein":2270,"Ġziel":2271,"Ġul":2272,"gesamt":2273,"Ã¤ten":2274,"licht":2275,"ison":2276,"Ġide":2277,"Ġdon":2278,"Ġsitz":2279,"Ġarbeits":2280,"Ġstutt":2281,"Ġcarl":2282,"Ġbad":2283,"Ġregierung":2284,"ille":2285,"port":2286,"Ã¶st":2287,"liches":2288,"Ġgott":2289,"Ġeinsatz":2290,"iegel":2291,"Ġpolitik":2292,"Ġtag":2293,"Ġmain":2294,"Ġwww":2295,"Ġdruck":2296,"Ġiii":2297,"ose":2298,"Ġinsgesamt":2299,"ĠunterstÃ¼tz":2300,"uter":2301,"icher":2302,"gart":2303,"schw":2304,"dorf":2305,"Ġempf":2306,"Ġmarkt":2307,"Ġverschiedenen":2308,"esser":2309,"Ġname":2310,"Ã¤tze":2311,"Ġihrem":2312,"Ġrahmen":2313,"Ġverst":2314,"ome":2315,"bereich":2316,"fert":2317,"Ġnat":2318,"Ġarten":2319,"ĠnÃ¤":2320,"ĠnÃ¶r":2321,"Ġbro":2322,"Ġganz":2323,"Ġfer":2324,"Ġdisk":2325,"pe":2326,"Ġstehen":2327,"Ġteilweise":2328,"Ġsprache":2329,"Ġerster":2330,"ette":2331,"mon":2332,"Ġzwar":2333,"Ġfinanz":2334,"immen":2335,"Ġseite":2336,"Ġfindet":2337,"Ġmein":2338,"Ġprozent":2339,"olution":2340,"Ġautor":2341,"Ġprobl":2342,"kunft":2343,"Ġkreuz":2344,"zeichen":2345,"heits":2346,"weit":2347,"Ġrolle":2348,"ĠstraÃŁen":2349,"Ġmichael":2350,"bildung":2351,"Ġmensch":2352,"ĠschlieÃŁlich":2353,"yer":2354,"Ġverschiedene":2355,"Ġnr":2356,"bes":2357,"ĠhÃ¶ch":2358,"ĠnÃ¶rd":2359,"ieg":2360,"ĠbevÃ¶lkerung":2361,"Ġalter":2362,"Ġhamburg":2363,"ĠkÃ¶rper":2364,"Ġjahres":2365,"ĠgegrÃ¼ndet":2366,"ergie":2367,"Ġfar":2368,"ĠauÃŁen":2369,"Ġfeld":2370,"Ġget":2371,"Ġang":2372,"Ġsow":2373,"macht":2374,"Ġdatei":2375,"welt":2376,"Ġve":2377,"nehmer":2378,"Ġsowohl":2379,"Ġhel":2380,"lungs":2381,"Ġgemeinden":2382,"zogen":2383,"wegung":2384,"Ġpsych":2385,"wand":2386,"ichtet":2387,"Ġkommen":2388,"stelle":2389,"wehr":2390,"itu":2391,"Ġehren":2392,"steil":2393,"ĠfÃ¼hrt":2394,"lager":2395,"Ġdad":2396,"Ġbew":2397,"spiele":2398,"Ġright":2399,"Ġlassen":2400,"Ã¼nd":2401,"Ã¤sst":2402,"Ã¤ren":2403,"Ġphys":2404,"Ġwert":2405,"Ã¤chen":2406,"vent":2407,"Ġauflage":2408,"ling":2409,"stens":2410,"yle":2411,"Ġerd":2412,"Ġdefin":2413,"Ġgeist":2414,"isse":2415,"ire":2416,"endung":2417,"ĠmaÃŁ":2418,"ache":2419,"wasser":2420,"Ġkil":2421,"Ġentstanden":2422,"ĠzusÃ¤tz":2423,"Ġarchite":2424,"bli":2425,"Ġhabe":2426,"Ġstuttgart":2427,"Ġfil":2428,"Ġartikel":2429,"Ġpop":2430,"arr":2431,"Ġlo":2432,"vo":2433,"arbeit":2434,"ichts":2435,"sse":2436,"frei":2437,"Ġbele":2438,"schul":2439,"Ġseiten":2440,"Ġtrans":2441,"ĠunabhÃ¤ng":2442,"Ġsowjet":2443,"iten":2444,"glichen":2445,"ice":2446,"Ġsam":2447,"ĠgehÃ¶rt":2448,"Ã¤uÃŁer":2449,"ĠbÃ¶":2450,"Ġeu":2451,"Ġgren":2452,"Ġprinz":2453,"Ġvielen":2454,"Ġhen":2455,"ĠfuÃŁballspieler":2456,"handel":2457,"ĠhÃ¶her":2458,"ymp":2459,"zig":2460,"Ġleist":2461,"Ġmitt":2462,"jÃ¤hr":2463,"Ġaussch":2464,"iga":2465,"Ġhy":2466,"Ġtre":2467,"stimm":2468,"Ġkriegs":2469,"iens":2470,"Ġjeweils":2471,"Ġeinfach":2472,"Ġmaler":2473,"Ġcd":2474,"Ġtor":2475,"Ġgesamt":2476,"Ġansch":2477,"Ġsehen":2478,"ox":2479,"Ġboden":2480,"ehmen":2481,"richtung":2482,"ennt":2483,"teten":2484,"des":2485,"Ġprogramm":2486,"Ġernst":2487,"Ġwort":2488,"omen":2489,"Ġbezeichnung":2490,"ii":2491,"Ġgelegen":2492,"off":2493,"ĠhÃ¶he":2494,"samm":2495,"weis":2496,"Ġfernse":2497,"ande":2498,"Ġtour":2499,"Ġeigenen":2500,"Ġthomas":2501,"rÃ¤gt":2502,"Ã¼cken":2503,"Ġkonnten":2504,"par":2505,"Ġstru":2506,"Ġsomit":2507,"omat":2508,"Ġdadurch":2509,"Ġwohl":2510,"Ġdur":2511,"Ġgold":2512,"Ġyork":2513,"ĠtÃ¼r":2514,"rid":2515,"Ġhof":2516,"Ġauft":2517,"Ġzahlreiche":2518,"ĠstÃ¤dte":2519,"unt":2520,"ieten":2521,"aterial":2522,"Ġfand":2523,"bei":2524,"Ġpreis":2525,"etten":2526,"Ġsommer":2527,"fassung":2528,"iete":2529,"je":2530,"fasst":2531,"verein":2532,"Ġop":2533,"Ġlond":2534,"Ġnacht":2535,"Ġheutigen":2536,"elte":2537,"eth":2538,"Ġbedeuten":2539,"neten":2540,"Ġanal":2541,"ographie":2542,"win":2543,"Ġdel":2544,"Ġmeter":2545,"Ġnahe":2546,"fahrt":2547,"Ġdop":2548,"rÃ¤n":2549,"Ġlok":2550,"ĠfranzÃ¶sischen":2551,"ĠjÃ¤hr":2552,"gent":2553,"Ġhor":2554,"ĠpersÃ¶n":2555,"Ġging":2556,"eidung":2557,"Ġerwei":2558,"bte":2559,"Ġwal":2560,"ikation":2561,"ĠÃ¶ffent":2562,"stÃ¤t":2563,"ĠkÃ¼nstler":2564,"flÃ¤che":2565,"Ġlondon":2566,"rag":2567,"izin":2568,"Ġwesent":2569,"Ġbeide":2570,"Ġbeit":2571,"Ġdienst":2572,"wind":2573,"rech":2574,"burger":2575,"Ġmiss":2576,"met":2577,"ystem":2578,"Ġblei":2579,"Ġbon":2580,"ole":2581,"ĠfrÃ¼h":2582,"dens":2583,"Ġholz":2584,"gende":2585,"Ġddr":2586,"Ġbischof":2587,"Ġpass":2588,"Ġkant":2589,"Ġbayern":2590,"Ġkraft":2591,"Ġmartin":2592,"lieÃŁen":2593,"line":2594,"okrat":2595,"Ġpfl":2596,"Ġmer":2597,"ufen":2598,"ĠerÃ¶ff":2599,"wiesen":2600,"Ġweniger":2601,"Ġehe":2602,"film":2603,"Ġkloster":2604,"Ġhalb":2605,"Ġeingesetzt":2606,"Ġtran":2607,"Ġinnen":2608,"Ġwichtig":2609,"leben":2610,"iam":2611,"Ġschutz":2612,"wald":2613,"ĠdafÃ¼r":2614,"ÃŁt":2615,"iver":2616,"peratur":2617,"ja":2618,"ĠkÃ¶ln":2619,"ifiz":2620,"Ġmittelalter":2621,"Ã¼ge":2622,"ometer":2623,"Ġrobert":2624,"ith":2625,"nahm":2626,"Ġtau":2627,"Ġeinfluss":2628,"Ġberuf":2629,"Ġtheater":2630,"Ġbaden":2631,"Ġerschein":2632,"Ġcor":2633,"Ġdok":2634,"ham":2635,"Ġleip":2636,"Ġschrei":2637,"Ġpost":2638,"Ġlage":2639,"Ġbeschrei":2640,"Ġwind":2641,"yt":2642,"Ġfolgenden":2643,"igkeiten":2644,"Ġindustrie":2645,"zeitig":2646,"Ġwein":2647,"Ġsamm":2648,"ĠerwÃ¤hn":2649,"use":2650,"Ġten":2651,"Ã¤mpf":2652,"kop":2653,"uchte":2654,"Ã¼d":2655,"schiff":2656,"Ġdeutlich":2657,"itze":2658,"aktion":2659,"Ã¤chlich":2660,"ay":2661,"gangen":2662,"Ġmu":2663,"Ġjur":2664,"Ġfot":2665,"Ġchristian":2666,"Ġvater":2667,"Ġtrotz":2668,"kten":2669,"ĠÃ¤uÃŁer":2670,"Ġrichtung":2671,"zi":2672,"gra":2673,"schrei":2674,"Ġentfern":2675,"ĠfÃ¶r":2676,"Ġihnen":2677,"techn":2678,"Ġmaria":2679,"ward":2680,"Ġzehn":2681,"uth":2682,"rÃ¤ge":2683,"ichter":2684,"Ġwappen":2685,"ĠlÃ¤sst":2686,"Ġmutter":2687,"ike":2688,"ara":2689,"Ġgeht":2690,"Ġherrschaft":2691,"Ġmittler":2692,"Ġwinter":2693,"wissenschaft":2694,"ĠsÃ¤":2695,"Ġeis":2696,"df":2697,"Ã¼gel":2698,"stÃ¤ndig":2699,"Ġrepublik":2700,"ĠzerstÃ¶r":2701,"ĠlieÃŁ":2702,"produ":2703,"Ġno":2704,"Ġdamals":2705,"Ġtruppen":2706,"Ġmusste":2707,"wÃ¤r":2708,"ĠmÃ¶":2709,"schau":2710,"Ġmel":2711,"Ġungar":2712,"Ã¶sung":2713,"auft":2714,"Ġpla":2715,"hÃ¤us":2716,"ĠgÃ¶":2717,"berger":2718,"Ġotto":2719,"Ġhann":2720,"ĠgehÃ¶ren":2721,"Ġproduktion":2722,"eitete":2723,"utet":2724,"Ġprovinz":2725,"Ã¤nden":2726,"hÃ¤ltnis":2727,"Ġverwaltungs":2728,"Ġster":2729,"Ġwerke":2730,"ana":2731,"bin":2732,"ĠstraÃŁe":2733,"llt":2734,"ammen":2735,"sel":2736,"Ġnahm":2737,"Ġlog":2738,"Ġgriech":2739,"Ġeinigen":2740,"Ġdanach":2741,"sent":2742,"hang":2743,"up":2744,"haupt":2745,"Ġsim":2746,"kom":2747,"Ġna":2748,"Ġsachsen":2749,"Ġentstand":2750,"Ġstruktur":2751,"Ġbrei":2752,"ffer":2753,"Ġmathemat":2754,"Ġhum":2755,"Ġolymp":2756,"Ġbisher":2757,"inal":2758,"Ġlau":2759,"ĠeuropÃ¤ischen":2760,"Ġhochge":2761,"Ġarme":2762,"Ġgelang":2763,"ĠgrÃ¶ÃŁten":2764,"eier":2765,"Ġnachfol":2766,"Ġerrei":2767,"Ġnorden":2768,"Ġschlacht":2769,"vert":2770,"Ġverbunden":2771,"enter":2772,"get":2773,"Ġass":2774,"Ġjohannes":2775,"rigen":2776,"Ġsub":2777,"our":2778,"schlag":2779,"Ġnamens":2780,"ĠdÃ¤n":2781,"Ġanwend":2782,"Ġhinaus":2783,"Ġselten":2784,"Ġmaxim":2785,"bare":2786,"Ġtal":2787,"Ġebenso":2788,"asen":2789,"Ġgrenz":2790,"ema":2791,"struktur":2792,"reise":2793,"Ġvergleich":2794,"ĠtÃ¤t":2795,"ĠtrÃ¤ger":2796,"ong":2797,"polit":2798,"Ġdenk":2799,"ografie":2800,"Ġfamilien":2801,"Ġerweiter":2802,"Ġans":2803,"sprache":2804,"Ġbor":2805,"Ġther":2806,"ĠhÃ¶r":2807,"Ġbekannte":2808,"Ġlaut":2809,"Ġdig":2810,"kung":2811,"Ġstyle":2812,"Ġfrieden":2813,"pa":2814,"Ġelektr":2815,"Ġblieb":2816,"ino":2817,"ĠursprÃ¼nglich":2818,"test":2819,"Ġsied":2820,"ĠstÃ¤r":2821,"lehr":2822,"baren":2823,"flug":2824,"Ġfeuer":2825,"alz":2826,"fred":2827,"Ġkern":2828,"Ġja":2829,"spru":2830,"ings":2831,"Ġkleine":2832,"Ġfir":2833,"Ġwissen":2834,"Ġbeteil":2835,"Ġenergie":2836,"Ġehemaligen":2837,"Ġgenau":2838,"Ġproblem":2839,"Ġhervor":2840,"Ġaka":2841,"urnal":2842,"immt":2843,"geschlossen":2844,"Ã¤um":2845,"Ġergeb":2846,"ski":2847,"Ġverbrei":2848,"ĠmÃ¼ssen":2849,"sph":2850,"Ġbilden":2851,"cc":2852,"kam":2853,"Ġamerikanische":2854,"geber":2855,"Ġerhe":2856,"Ġrud":2857,"ĠbÃ¼rgermeister":2858,"ĠweiÃŁ":2859,"Ġgol":2860,"ossen":2861,"len":2862,"gruppe":2863,"Ġleicht":2864,"seite":2865,"denk":2866,"Ġhochgeladen":2867,"ĠdarÃ¼ber":2868,"Ġregie":2869,"stellungen":2870,"isierung":2871,"Ġfluss":2872,"isiert":2873,"Ġdarunter":2874,"Ġfernseh":2875,"bliothe":2876,"Ġspezie":2877,"ict":2878,"Ġiv":2879,"Ġjeder":2880,"ola":2881,"Ġsicht":2882,"chan":2883,"Ġfehl":2884,"itten":2885,"ines":2886,"lav":2887,"temberg":2888,"amt":2889,"Ġortsteil":2890,"lei":2891,"hafen":2892,"Ġspr":2893,"Ġdreh":2894,"Ġaktiv":2895,"grÃ¶":2896,"organ":2897,"werke":2898,"derte":2899,"Ġreform":2900,"inner":2901,"arlament":2902,"ĠfranzÃ¶sischer":2903,"ttemberg":2904,"di":2905,"rug":2906,"Ġlicht":2907,"Ġrichard":2908,"Ġkampf":2909,"itÃ¤ten":2910,"ata":2911,"orge":2912,"reifen":2913,"Ġkrie":2914,"fried":2915,"Ġakadem":2916,"zeuge":2917,"Ġeigene":2918,"ĠÃ¶st":2919,"Ġwoll":2920,"Ġq":2921,"gehend":2922,"Ġval":2923,"Ġetwas":2924,"fÃ¤h":2925,"gebaut":2926,"Ġmitglieder":2927,"Ġschnell":2928,"Ġreihe":2929,"lecht":2930,"Ġinstitut":2931,"ama":2932,"weisen":2933,"ware":2934,"Ġmach":2935,"ors":2936,"ennen":2937,"Ġphilipp":2938,"ĠwÃ¼rttemberg":2939,"fs":2940,"mel":2941,"Ġast":2942,"ologische":2943,"mÃ¤ÃŁig":2944,"Ġbot":2945,"Ġjoseph":2946,"alten":2947,"west":2948,"Ġlag":2949,"Ġeuro":2950,"Ã¼lt":2951,"Ġhom":2952,"Ġanton":2953,"ession":2954,"Ġliegen":2955,"unn":2956,"ima":2957,"etter":2958,"Ġmeer":2959,"Ġandre":2960,"Ġheimat":2961,"Ġbur":2962,"Ġleipzig":2963,"part":2964,"ĠkÃ¶nigs":2965,"Ġzuvor":2966,"Ġmos":2967,"Ġsieg":2968,"Ġstellen":2969,"Ġvolk":2970,"aden":2971,"Ġkontro":2972,"Ġzeigt":2973,"zy":2974,"Ġcharakter":2975,"ilien":2976,"Ġaktu":2977,"Ġzweite":2978,"ech":2979,"Ġbaum":2980,"haft":2981,"Ġinternational":2982,"uchs":2983,"Ġstandard":2984,"wen":2985,"abil":2986,"ime":2987,"Ġsogar":2988,"Ġwechsel":2989,"grenz":2990,"lam":2991,"Ġwik":2992,"Ã¤ngen":2993,"Ġles":2994,"echt":2995,"les":2996,"sbe":2997,"ĠgrÃ¶ÃŁte":2998,"eg":2999,"Ġpolitische":3000,"Ġalexander":3001,"Ġmeister":3002,"gren":3003,"Ġdien":3004,"ical":3005,"Ġkonz":3006,"ĠsÃ¤nger":3007,"Ġobwohl":3008,"Ġzul":3009,"Ġhandelt":3010,"Ġven":3011,"ches":3012,"Ġmasch":3013,"Ġtex":3014,"ĠgewÃ¤hlt":3015,"kraft":3016,"abr":3017,"Ġvorge":3018,"attung":3019,"Ġzentral":3020,"Ġkonst":3021,"Ġbeob":3022,"Ġbrie":3023,"Ġtrat":3024,"kÃ¼":3025,"Ġeinzelnen":3026,"ckt":3027,"ane":3028,"ĠfÃ¼hren":3029,"Ġsold":3030,"Ġteile":3031,"Ġopt":3032,"allen":3033,"reter":3034,"ĠpreuÃŁ":3035,"ames":3036,"Ġgruppen":3037,"Ġgesp":3038,"ĠjÃ¼d":3039,"Ġrelativ":3040,"rop":3041,"Ġerfor":3042,"ĠsÃ¼den":3043,"ĠgebÃ¤ude":3044,"Ġhermann":3045,"Ġnetz":3046,"Ġfrac":3047,"Ġfert":3048,"Ġcenter":3049,"Ġfolgende":3050,"sh":3051,"rh":3052,"onnen":3053,"dienst":3054,"ĠzÃ¤hl":3055,"ĠbegrÃ¼n":3056,"Ġentdeck":3057,"Ġorig":3058,"ozial":3059,"Ġmedizin":3060,"Ġdauer":3061,"Ġjen":3062,"Ġair":3063,"Ġsalz":3064,"ari":3065,"rachte":3066,"wagen":3067,"Ġpoln":3068,"usst":3069,"Ġtochter":3070,"Ġweiterhin":3071,"abel":3072,"Ġwenig":3073,"Ġalte":3074,"amb":3075,"Ã¼sse":3076,"Ġpubl":3077,"lang":3078,"ance":3079,"Ġkauf":3080,"fÃ¶r":3081,"Ġtats":3082,"Ġverwendung":3083,"Ġleg":3084,"entwick":3085,"Ġverfahren":3086,"Ġamts":3087,"Ġverz":3088,"Ġpolitischen":3089,"Ġquellen":3090,"Ġjournal":3091,"Ġhu":3092,"bÃ¼":3093,"Ġverbindung":3094,"zeichnet":3095,"ĠerhÃ¶":3096,"leist":3097,"Ġwestf":3098,"Ġregen":3099,"Ġstellt":3100,"Ã¼ter":3101,"Ġstern":3102,"Ġgez":3103,"Ġorient":3104,"eben":3105,"Ġcharl":3106,"eta":3107,"ritten":3108,"Ġbahnhof":3109,"Ġschwarz":3110,"urop":3111,"gangs":3112,"wesen":3113,"Ġsign":3114,"Ġwesten":3115,"Ġmess":3116,"Ġlatein":3117,"eiger":3118,"Ġsteuer":3119,"Ġminde":3120,"Ġschule":3121,"Ġkleinen":3122,"Ġvan":3123,"Ġmont":3124,"Ġwolfgang":3125,"ppe":3126,"Ġbem":3127,"Ã¼tzen":3128,"ĠgehÃ¶rte":3129,"Ġrie":3130,"Ġprot":3131,"Ġmotor":3132,"Ġvorh":3133,"Ġvertrag":3134,"Ġtier":3135,"sver":3136,"voll":3137,"gefÃ¼hrt":3138,"lingen":3139,"Ġhohe":3140,"Ġbraun":3141,"Ġident":3142,"Ġparlament":3143,"Ġtur":3144,"gef":3145,"komm":3146,"Ġkind":3147,"eigen":3148,"ĠdÃ¼r":3149,"Ġlinie":3150,"Ġberliner":3151,"Ġara":3152,"Ã¶m":3153,"Ġwilliam":3154,"wor":3155,"Ġuntersuch":3156,"que":3157,"sitzen":3158,"tum":3159,"Ġkosten":3160,"han":3161,"Ġdeshalb":3162,"ĠÃ¤lter":3163,"Ġosten":3164,"Ġprojekt":3165,"Ġzunehmen":3166,"Ġmedien":3167,"Ġminister":3168,"sidenten":3169,"gebung":3170,"bruch":3171,"Ġgegensatz":3172,"Ġbayer":3173,"Ġfal":3174,"Ġhilfe":3175,"windigkeit":3176,"Ġuniversity":3177,"Ġsymb":3178,"Ġstil":3179,"scht":3180,"Ġarmee":3181,"Ġerrichtet":3182,"ĠjÃ¼n":3183,"Ġgleichzeitig":3184,"fehl":3185,"wegen":3186,"Ã¶hn":3187,"Ġsaison":3188,"Ġstift":3189,"Ġlou":3190,"Ġeher":3191,"Ġerreich":3192,"Ġpapst":3193,"Ġstudien":3194,"ierenden":3195,"tzen":3196,"Ġeinheit":3197,"unkte":3198,"Ã¼rz":3199,"Ġvir":3200,"wiegend":3201,"Ã¼st":3202,"leitung":3203,"Ġkamen":3204,"Ġbezieh":3205,"spl":3206,"kungen":3207,"preis":3208,"Ġbelie":3209,"Ġerreicht":3210,"Ġga":3211,"ĠÃ¤g":3212,"Ġheiligen":3213,"li":3214,"res":3215,"Ġproduz":3216,"Ġcal":3217,"Ġkanad":3218,"Ġvern":3219,"Ġengland":3220,"kund":3221,"Ġehr":3222,"Ġprozess":3223,"Ġgerman":3224,"stu":3225,"gesellschaft":3226,"Ġzentrum":3227,"auben":3228,"Ġpark":3229,"ante":3230,"tens":3231,"ĠÃ¤lte":3232,"sprochen":3233,"ĠÃ¶ffentlich":3234,"formen":3235,"Ġfel":3236,"Ġentwickelt":3237,"Ġarbeiten":3238,"Ġgestorben":3239,"zehn":3240,"Ġschauspielerin":3241,"Ġvorhanden":3242,"oth":3243,"ote":3244,"Ġdarstellung":3245,"Ġarn":3246,"Ġleft":3247,"schung":3248,"Ġdorf":3249,"Ġdyn":3250,"alsozial":3251,"ini":3252,"anze":3253,"ĠtÃ¶":3254,"Ã¤ufer":3255,"Ġgre":3256,"park":3257,"igur":3258,"gesetzt":3259,"Ġgenutzt":3260,"frika":3261,"bus":3262,"Ġsor":3263,"Ġelektron":3264,"Ġsing":3265,"ager":3266,"Ġcm":3267,"Ġhit":3268,"Ġspd":3269,"Ġsinn":3270,"Ġgast":3271,"Ġdamal":3272,"Ġletzte":3273,"Ã¤dag":3274,"uther":3275,"Ġbenutz":3276,"ierungen":3277,"ĠmÃ¤nn":3278,"Ġfarb":3279,"ĠprÃ¤sident":3280,"zentrum":3281,"ktor":3282,"Ġby":3283,"kennt":3284,"bez":3285,"Ġmodell":3286,"Ġstellte":3287,"bs":3288,"ios":3289,"schaffen":3290,"Ġentwickelte":3291,"Ġregierungs":3292,"Ġmehreren":3293,"stehen":3294,"Ġadel":3295,"ĠrÃ¶mischen":3296,"inge":3297,"Ġapp":3298,"Ġtsche":3299,"ĠfranzÃ¶sische":3300,"Ġkirch":3301,"Ġsprachen":3302,"assung":3303,"Ġnationalsozial":3304,"ĠzÃ¼r":3305,"schu":3306,"Ġspieler":3307,"lehn":3308,"Ġeisenbahn":3309,"kar":3310,"Ġmod":3311,"obil":3312,"Ġexp":3313,"indungen":3314,"Ġanzahl":3315,"Ġdoppel":3316,"Ġausl":3317,"Ġbefinden":3318,"arf":3319,"Ġerschien":3320,"eller":3321,"Ġbus":3322,"Ġkilometer":3323,"Ġgegeben":3324,"iti":3325,"Ġinteg":3326,"Ġpil":3327,"Ġsilber":3328,"hrm":3329,"Ġzeich":3330,"Ġbeding":3331,"Ġdokument":3332,"Ġsv":3333,"Ġwalter":3334,"ildet":3335,"sammlung":3336,"isation":3337,"staat":3338,"Ġbevor":3339,"Ġdavid":3340,"ĠvÃ¶":3341,"Ġkolon":3342,"Ġbeein":3343,"Ġrevolution":3344,"Ġalbum":3345,"Ġmaterial":3346,"ĠgeprÃ¤":3347,"mund":3348,"Ġonline":3349,"ĠÃ¶sterreichischer":3350,"Ġthr":3351,"ologischen":3352,"inde":3353,"Ġpdf":3354,"Ġzie":3355,"ta":3356,"acher":3357,"ele":3358,"edia":3359,"gemeinde":3360,"verw":3361,"Ġann":3362,"ĠfrÃ¼hen":3363,"ativen":3364,"Ġveranst":3365,"Ġsetzte":3366,"Ġehemalige":3367,"kur":3368,"stat":3369,"Ġbildung":3370,"Ġwett":3371,"verband":3372,"wur":3373,"ahnen":3374,"med":3375,"Ġamerikanischen":3376,"Ã¤lfte":3377,"Ġsolche":3378,"Ġaustr":3379,"Ġrat":3380,"Ġportug":3381,"Ġerbau":3382,"Ġerfolgte":3383,"Ġgewesen":3384,"over":3385,"Ġac":3386,"museum":3387,"Ġgolden":3388,"Ġblut":3389,"Ġmerk":3390,"Ġledig":3391,"ĠheiÃŁt":3392,"Ġdagegen":3393,"Ġerober":3394,"Ġjung":3395,"ision":3396,"Ġversion":3397,"Ġposition":3398,"ĠschÃ¶n":3399,"mehr":3400,"iter":3401,"Ġsand":3402,"Ġfrom":3403,"ala":3404,"Ġmol":3405,"Ġpos":3406,"kreuz":3407,"ĠhÃ¤t":3408,"ĠlÃ¤nder":3409,"ĠenthÃ¤lt":3410,"ĠnatÃ¼r":3411,"Ġlediglich":3412,"Ġvoraus":3413,"fÃ¼hrer":3414,"ĠlÃ¼":3415,"stÃ¤nde":3416,"Ġhan":3417,"Ġtschech":3418,"Ġeinsch":3419,"Ġtop":3420,"geln":3421,"eck":3422,"hoben":3423,"ley":3424,"ĠkÃ¶nn":3425,"ĠblÃ¼":3426,"Ġverlauf":3427,"tent":3428,"rÃ¤fte":3429,"Ġrum":3430,"Ġtest":3431,"Ġgrab":3432,"Ġentspr":3433,"Ġgottes":3434,"Ġsum":3435,"ish":3436,"Ġtele":3437,"bi":3438,"Ġcomputer":3439,"Ġstet":3440,"idu":3441,"Ġanteil":3442,"Ġvereinigten":3443,"Ġmachen":3444,"rhein":3445,"Ġpfarr":3446,"Ġjean":3447,"Ġwahrschein":3448,"auen":3449,"Ġinf":3450,"Ġeinmal":3451,"cl":3452,"eis":3453,"Ġbd":3454,"altet":3455,"Ġspielen":3456,"ĠzusÃ¤tzlich":3457,"Ġbesser":3458,"Ġstrom":3459,"Ġball":3460,"ffe":3461,"Ġaufl":3462,"Ġfrage":3463,"Ġmetho":3464,"Ġfein":3465,"ĠbeschÃ¤ft":3466,"Ġarm":3467,"Ġhaupts":3468,"republik":3469,"Ġpet":3470,"gb":3471,"Ã¼f":3472,"Ġmm":3473,"Ġlandschaft":3474,"ĠfÃ¼rst":3475,"lieÃŁend":3476,"xik":3477,"Ġsogenannten":3478,"Ġerf":3479,"Ġdemokrat":3480,"Ġstelle":3481,"Ġgewann":3482,"Ġautob":3483,"ĠniederlÃ¤nd":3484,"Ġsah":3485,"Ġaustral":3486,"Ġtemperatur":3487,"eicher":3488,"Ġnachfolger":3489,"Ġabsol":3490,"Ġpolen":3491,"Ġsinne":3492,"Ġnik":3493,"Ġallein":3494,"Ġsonst":3495,"uel":3496,"auch":3497,"istik":3498,"Ġdomin":3499,"Ġmatt":3500,"Ġgleichen":3501,"Ġmathrm":3502,"Ġmass":3503,"ular":3504,"Ġneuer":3505,"igungs":3506,"antwort":3507,"llig":3508,"Ġflor":3509,"ierter":3510,"bischof":3511,"wachsen":3512,"Ġverkehrs":3513,"zeugen":3514,"emente":3515,"Ġrussland":3516,"Ġoben":3517,"wÃ¼r":3518,"iell":3519,"Ġinternationalen":3520,"Ġrock":3521,"Ġgelten":3522,"xis":3523,"Ġerneut":3524,"fa":3525,"Ġprakt":3526,"ĠgÃ¶tt":3527,"Ġpress":3528,"Ġindem":3529,"Ġhistorische":3530,"Ġpflanzen":3531,"Ġbal":3532,"Ġstad":3533,"Ġorts":3534,"ĠberÃ¼":3535,"Ġalbert":3536,"Ġeg":3537,"etzen":3538,"Ġzeichen":3539,"schriften":3540,"yse":3541,"ĠwÃ¼rde":3542,"bil":3543,"Ġbildet":3544,"richtungen":3545,"ĠÃ¤hnlich":3546,"Ġzahlen":3547,"itar":3548,"ĠlÃ¤ndern":3549,"Ġfreund":3550,"kap":3551,"Ġbasis":3552,"Ġbrand":3553,"Ġzusammenhang":3554,"Ġsoldaten":3555,"ds":3556,"Ġbranden":3557,"iedel":3558,"heorie":3559,"Ġdial":3560,"izei":3561,"iums":3562,"atte":3563,"ingt":3564,"Ġaf":3565,"Ġwiderstand":3566,"Ġbruder":3567,"Ġdichter":3568,"Ġkenn":3569,"Ġwichtige":3570,"ĠgeschÃ¤ft":3571,"ĠnÃ¤he":3572,"din":3573,"Ġkron":3574,"Ġrudolf":3575,"Ġschle":3576,"Ġnotwend":3577,"Ġkna":3578,"Ġteam":3579,"ĠverhÃ¤ltnis":3580,"Ã¼m":3581,"Ġcan":3582,"Ġerfolgt":3583,"Ġerfolgreich":3584,"gericht":3585,"Ġbunde":3586,"Ġprivat":3587,"ierende":3588,"gliche":3589,"Ġumwelt":3590,"Ġsollten":3591,"ona":3592,"Ġwol":3593,"arbeiten":3594,"Ġstarb":3595,"Ġkopf":3596,"yd":3597,"Ġbie":3598,"Ġjes":3599,"ymn":3600,"zeichnung":3601,"Ġlandwirtschaft":3602,"arbeiter":3603,"Ġereig":3604,"spekt":3605,"Ġchina":3606,"iew":3607,"Ġmik":3608,"ĠÃ¼bern":3609,"va":3610,"linie":3611,"Ġintegr":3612,"Ġkritik":3613,"stieg":3614,"fÃ¼hren":3615,"Ġeigent":3616,"Ġdro":3617,"Ġinn":3618,"Ġenthalten":3619,"Ġtechnik":3620,"Ġprinzip":3621,"ars":3622,"arm":3623,"ĠgroÃŁer":3624,"Ġfiel":3625,"Ġbud":3626,"Ã¼ssel":3627,"kunde":3628,"Ġaben":3629,"ĠverÃ¤nder":3630,"antin":3631,"Ġsogenannte":3632,"Ġanz":3633,"Ġjag":3634,"eigt":3635,"roffen":3636,"Ġsollen":3637,"Ġkaum":3638,"spruch":3639,"ĠtÃ¼rk":3640,"Ġill":3641,"ĠgrÃ¼ndung":3642,"handlung":3643,"teile":3644,"ividu":3645,"Ġfo":3646,"Ġerb":3647,"pfl":3648,"itsch":3649,"Ġwochen":3650,"Ġjuden":3651,"Ġstart":3652,"osa":3653,"gress":3654,"Ġverteid":3655,"chse":3656,"verfahren":3657,"rim":3658,"ĠnÃ¤ch":3659,"Ġverlie":3660,"iment":3661,"Ġeff":3662,"bÃ¼rger":3663,"gn":3664,"ĠeinfÃ¼hrung":3665,"Ġdarin":3666,"Ġspielte":3667,"Ġwenige":3668,"namen":3669,"Ġnom":3670,"ĠbrÃ¼":3671,"Ġinstr":3672,"Ġphysik":3673,"ĠzÃ¼rich":3674,"uchen":3675,"Ġwall":3676,"serv":3677,"Ġche":3678,"Ġlangen":3679,"ĠwÃ¶r":3680,"erst":3681,"Ġhauptstadt":3682,"Ġluther":3683,"Ġisra":3684,"Ġstadtteil":3685,"Ġtheor":3686,"ĠhÃ¤lfte":3687,"Ġlib":3688,"Ġsymbol":3689,"nam":3690,"ican":3691,"quenz":3692,"Ġweib":3693,"cy":3694,"wart":3695,"Ġradio":3696,"Ġindividu":3697,"abl":3698,"Ġlager":3699,"Ġgeld":3700,"Ġmusiker":3701,"bliothek":3702,"Ġumfang":3703,"Ġjac":3704,"law":3705,"ĠschÃ¶":3706,"Ġtu":3707,"ĠschÃ¼":3708,"Ġhinzu":3709,"Ġschles":3710,"Ġprop":3711,"Ġfranc":3712,"Ġmindestens":3713,"Ġserie":3714,"ya":3715,"Ġschwed":3716,"Ġdres":3717,"ischem":3718,"ĠspÃ¤t":3719,"Ġbelg":3720,"Ġinternet":3721,"Ġinternationale":3722,"Ġverhalten":3723,"las":3724,"bewer":3725,"pers":3726,"ĠerzÃ¤hl":3727,"stÃ¼ck":3728,"bten":3729,"Ġaufgenommen":3730,"Ġgrenze":3731,"ink":3732,"ivil":3733,"Ġjosef":3734,"Ġkonstru":3735,"Ġsonnen":3736,"plan":3737,"za":3738,"ordnet":3739,"Ġsem":3740,"ission":3741,"name":3742,"strecke":3743,"Ġgi":3744,"beg":3745,"Ġwiener":3746,"osten":3747,"Ġfischer":3748,"Ġquad":3749,"Ġheer":3750,"lÃ¤ss":3751,"agement":3752,"ford":3753,"Ġeinzige":3754,"ode":3755,"Ġhun":3756,"Ġergebnis":3757,"sÃ¤":3758,"Ġerreichen":3759,"Ġhir":3760,"tell":3761,"Ġunmittel":3762,"oper":3763,"gest":3764,"Ġmad":3765,"stÃ¤d":3766,"Ġorganisation":3767,"Ġbrandenburg":3768,"Ġbritischer":3769,"Ġvarian":3770,"funk":3771,"bro":3772,"Ġbald":3773,"Ġox":3774,"Ġakademie":3775,"funktion":3776,"Ġkeinen":3777,"Ġexper":3778,"ĠÃ¤nder":3779,"Ġaufbau":3780,"kret":3781,"Ġsoft":3782,"por":3783,"Ġurs":3784,"Ġjak":3785,"Ġsym":3786,"omie":3787,"ĠbetrÃ¤gt":3788,"hil":3789,"Ġhelm":3790,"Ġmachte":3791,"Ġerreichte":3792,"Ġbezirk":3793,"ielten":3794,"Ġav":3795,"Ġil":3796,"etzung":3797,"Ġgeschlossen":3798,"Ġerinner":3799,"Ġgesund":3800,"Ġverwand":3801,"Ġwirtschafts":3802,"anlagen":3803,"sdorf":3804,"Ġwehr":3805,"kirchen":3806,"ain":3807,"fft":3808,"Ã¤ngt":3809,"Ġihres":3810,"Ġgas":3811,"hi":3812,"Ġflag":3813,"ypt":3814,"Ġarab":3815,"Ġkompl":3816,"ano":3817,"Ġdt":3818,"technik":3819,"gegeben":3820,"Ġchines":3821,"Ġbewegung":3822,"azz":3823,"Ġkas":3824,"hlung":3825,"Ġletzter":3826,"Ġwerner":3827,"Ġbrun":3828,"isseur":3829,"band":3830,"Ġstreit":3831,"Ġcdu":3832,"Ġerde":3833,"Ġlen":3834,"Ġwebsi":3835,"reichs":3836,"gs":3837,"Ġdist":3838,"ĠgroÃŁb":3839,"eidet":3840,"arbeitung":3841,"Ġfrem":3842,"Ġzwe":3843,"Ġuhr":3844,"nehm":3845,"fallen":3846,"Ġwelches":3847,"Ġerheb":3848,"krank":3849,"Ã¤ndert":3850,"Ġjames":3851,"Ġschrieb":3852,"Ġverband":3853,"stern":3854,"Ġumst":3855,"barkeit":3856,"setzungen":3857,"Ġunion":3858,"Ġweltweit":3859,"ĠverÃ¶ffentlicht":3860,"anne":3861,"Ġnied":3862,"ĠverstÃ¤r":3863,"Ã¤tzen":3864,"Ġcdot":3865,"Ġsatz":3866,"Ġhannover":3867,"Ġislam":3868,"Ġgewalt":3869,"gelÃ¶st":3870,"Ġpan":3871,"Ġenglischen":3872,"essor":3873,"Ġreligion":3874,"Ġker":3875,"riffen":3876,"Ġbestimmten":3877,"Ġschriften":3878,"ĠpreuÃŁen":3879,"Ġerschienen":3880,"Ġredu":3881,"fassungs":3882,"immer":3883,"Ġklasse":3884,"Ġsl":3885,"Ġaltern":3886,"illa":3887,"entwicklung":3888,"Ġautoren":3889,"Ġhessen":3890,"Ġbesitzt":3891,"otte":3892,"Ġpunkt":3893,"mat":3894,"agen":3895,"zwischen":3896,"Ġtransport":3897,"anlage":3898,"Ġverkauf":3899,"ĠanschlieÃŁend":3900,"Ġentstehen":3901,"Ġschein":3902,"Ġvari":3903,"Ġbein":3904,"ĠÃ¼bernahm":3905,"stimmung":3906,"Ġspanien":3907,"Ġhimm":3908,"Ġblock":3909,"Ġsuper":3910,"Ġscien":3911,"union":3912,"Ġbenannt":3913,"Ġreise":3914,"ĠlÃ¤nge":3915,"mitt":3916,"Ġkonf":3917,"Ġvide":3918,"Ġbeobacht":3919,"ilian":3920,"swahl":3921,"rauch":3922,"Ġpu":3923,"Ġvorder":3924,"Ġtheorie":3925,"Ġwebsite":3926,"Ġbin":3927,"ĠerwÃ¤hnt":3928,"Ġbritischen":3929,"Ġbit":3930,"xu":3931,"jekte":3932,"ritann":3933,"Ġverloren":3934,"Ġbla":3935,"Ġstimmen":3936,"iller":3937,"Ġkrank":3938,"Ġverbreit":3939,"gruppen":3940,"Ġblick":3941,"ibel":3942,"Ġmannschaft":3943,"ĠmÃ¤nner":3944,"Ġunver":3945,"ĠlÃ¤nger":3946,"Ġvertreter":3947,"olit":3948,"ates":3949,"Ġklaus":3950,"Ġglas":3951,"Ġgepl":3952,"ĠkÃ¶nigreich":3953,"Ġritter":3954,"Ġdipl":3955,"Ġparall":3956,"ĠgemÃ¤ÃŁ":3957,"Ġwollte":3958,"Ġbank":3959,"maÃŁ":3960,"Ġgeorge":3961,"fÃ¶rm":3962,"Ġcharles":3963,"Ġhart":3964,"Ġlouis":3965,"rige":3966,"ĠgroÃŁbritann":3967,"Ġbegl":3968,"lichkeiten":3969,"Ġnachbar":3970,"derungen":3971,"Ġentspricht":3972,"Ġvorher":3973,"Ġweltmeister":3974,"recher":3975,"Ġaust":3976,"ymnas":3977,"Ġkonzentr":3978,"Ġblau":3979,"Ġdritten":3980,"Ġweise":3981,"ĠmÃ¶glichkeit":3982,"Ġhingegen":3983,"Ġfund":3984,"blick":3985,"Ġauseinander":3986,"mens":3987,"Ġverhin":3988,"stellte":3989,"Ġzog":3990,"Ġkons":3991,"ĠvollstÃ¤ndig":3992,"Ġid":3993,"Ġstraf":3994,"Ġanderer":3995,"Ġreaktion":3996,"Ġhistorischen":3997,"ennung":3998,"Ġdenkmal":3999,"Ġneg":4000,"Ġjer":4001,"Ġkonfl":4002,"erseits":4003,"ders":4004,"ĠnÃ¼r":4005,"Ġforschung":4006,"strÃ¤ger":4007,"Ġisrael":4008,"ulation":4009,"Ġgust":4010,"Ġrechte":4011,"Ġwestfalen":4012,"Ġverantwort":4013,"ĠsÃ¼dlich":4014,"beck":4015,"flÃ¤chen":4016,"Ġdigital":4017,"dt":4018,"ĠnÃ¶rdlich":4019,"hnen":4020,"Ġgerade":4021,"Ġallgemeinen":4022,"Ġhall":4023,"haltung":4024,"gebiete":4025,"agt":4026,"kn":4027,"Ġpoly":4028,"ĠspÃ¤teren":4029,"Ġsant":4030,"ĠÃ¶ffentlichen":4031,"fassen":4032,"Ġtief":4033,"Ġhell":4034,"Ġbras":4035,"Ġwh":4036,"eilen":4037,"Ġgesamte":4038,"ĠauÃŁerhalb":4039,"Ġformen":4040,"gerichtet":4041,"Ġkab":4042,"Ġausgabe":4043,"Ġstammt":4044,"vel":4045,"ume":4046,"Ġchron":4047,"ula":4048,"Ġmittels":4049,"by":4050,"go":4051,"Ġwaffen":4052,"Ġopfer":4053,"Ġhab":4054,"Ġitalienischer":4055,"ĠverfÃ¼gung":4056,"gner":4057,"Ġentsprechend":4058,"uche":4059,"Ġforschungs":4060,"Ġbilder":4061,"ld":4062,"Ġzugleich":4063,"lands":4064,"Ġgefunden":4065,"Ġmaschinen":4066,"Ġgesamten":4067,"umente":4068,"Ġlim":4069,"anen":4070,"Ġstrecke":4071,"ĠabhÃ¤ng":4072,"atoren":4073,"mbh":4074,"Ġrang":4075,"liegen":4076,"Ġbeschrieben":4077,"eien":4078,"Ġkomplex":4079,"krie":4080,"ĠausschlieÃŁlich":4081,"ssystem":4082,"Ġwild":4083,"ekten":4084,"Ã¤cht":4085,"Ġsoc":4086,"Ġkatholischen":4087,"Ġregional":4088,"Ġvermutlich":4089,"Ã¤uft":4090,"osen":4091,"will":4092,"Ġbestimmte":4093,"Ġbetrieben":4094,"Ġanders":4095,"Ġoffizielle":4096,"Ġkro":4097,"ĠerhÃ¤lt":4098,"Ġerzeug":4099,"ĠhauptsÃ¤chlich":4100,"ĠbenÃ¶t":4101,"Ġweitgehend":4102,"andid":4103,"Ã¤sser":4104,"kor":4105,"ics":4106,"Ġadolf":4107,"Ġamerican":4108,"ienten":4109,"Ġangel":4110,"Ġdaneben":4111,"Ġfolgte":4112,"Ġred":4113,"Ġposit":4114,"nfahr":4115,"markt":4116,"Ġdaraufhin":4117,"kra":4118,"omet":4119,"Ã¤te":4120,"own":4121,"ace":4122,"Ġhandels":4123,"Ġrec":4124,"insel":4125,"Ġjede":4126,"Ġanschluss":4127,"Ġmechan":4128,"ary":4129,"altungen":4130,"Ġwikip":4131,"ils":4132,"Ġlern":4133,"Ġbir":4134,"ĠgrÃ¶ÃŁere":4135,"lieÃŁt":4136,"Ġgal":4137,"ĠvÃ¶lker":4138,"Ġobjekt":4139,"Ġjeweiligen":4140,"Ġreal":4141,"ival":4142,"atik":4143,"ĠgrÃ¶ÃŁe":4144,"Ġsoftware":4145,"Ġkranken":4146,"chester":4147,"Ġstunden":4148,"fter":4149,"elten":4150,"Ġdoll":4151,"Ġstammen":4152,"ux":4153,"Ġcr":4154,"Ġfolgt":4155,"far":4156,"deutschen":4157,"musik":4158,"ĠschÃ¼ler":4159,"Ġwand":4160,"Ġdient":4161,"ĠwÃ¤r":4162,"Ġrath":4163,"Ġmas":4164,"Ã¤ger":4165,"Ġgmbh":4166,"Ġbeispiele":4167,"Ġbrief":4168,"hod":4169,"lege":4170,"mitglie":4171,"ĠunterstÃ¼tzung":4172,"ĠjÃ¼nger":4173,"ĠmÃ¼nster":4174,"Ġferdin":4175,"iÃ¶":4176,"istisch":4177,"Ġturm":4178,"fon":4179,"arbeitet":4180,"ĠbevÃ¶lkerungs":4181,"Ġgeh":4182,"Ġbedeutet":4183,"Ġspann":4184,"Ġgeburt":4185,"zess":4186,"ikanischen":4187,"anger":4188,"Ġteilen":4189,"rechte":4190,"ĠgroÃŁbritannien":4191,"ĠnÃ¼rn":4192,"Ġrest":4193,"schwei":4194,"Ġersetzt":4195,"richten":4196,"Ġjakob":4197,"fre":4198,"Ġhafen":4199,"Ġvis":4200,"Ġtodes":4201,"masch":4202,"strom":4203,"Ġtill":4204,"Ġinseln":4205,"Ġpatri":4206,"Ġferdinand":4207,"mÃ¼":4208,"Ġseien":4209,"Ġkre":4210,"stÃ¤ndige":4211,"Ġtim":4212,"Ġstoff":4213,"text":4214,"ĠwÃ¤re":4215,"omot":4216,"wander":4217,"Ġmir":4218,"Ġastron":4219,"uk":4220,"Ġkombin":4221,"Ġspielt":4222,"Ġmoderne":4223,"Ġmetall":4224,"Ġib":4225,"Ġungarn":4226,"ĠermÃ¶glich":4227,"Ġele":4228,"Ġgetr":4229,"oche":4230,"Ġbezug":4231,"Ġalfred":4232,"Ġjust":4233,"stoffe":4234,"liefer":4235,"Ġangriff":4236,"Ġzivil":4237,"Ġpublik":4238,"Ġverfol":4239,"Ġinformationen":4240,"Ġfc":4241,"gÃ¤nger":4242,"Ġumfasst":4243,"Ġeigenschaften":4244,"Ġerle":4245,"Ġmac":4246,"Ġbesuch":4247,"Ġtheod":4248,"reisen":4249,"fort":4250,"Ġvorsitzen":4251,"Ã¼hr":4252,"akte":4253,"gemeinschaft":4254,"ĠtÃ¤":4255,"ausch":4256,"legung":4257,"Ġpfalz":4258,"Ġzahlreichen":4259,"ferenz":4260,"Ġflughafen":4261,"ĠĠ":4262,"Ġspiegel":4263,"aust":4264,"Ġaugen":4265,"Ġbestimmt":4266,"ĠarchÃ¤":4267,"ĠstÃ¼ck":4268,"Ġcap":4269,"Ã¼cht":4270,"Ġbetrach":4271,"Ġbundestag":4272,"Ġauftrag":4273,"ĠwÃ¤hl":4274,"Ġinzwischen":4275,"Ġstimm":4276,"Ġspezial":4277,"Ġtat":4278,"bank":4279,"Ġherkunft":4280,"Ġverpf":4281,"ĠeingefÃ¼hrt":4282,"Ġbritische":4283,"Ġphilosophie":4284,"Ġgeworden":4285,"Ġris":4286,"Ġwiederum":4287,"orgung":4288,"Ã¶gen":4289,"auern":4290,"ritor":4291,"iat":4292,"Ġwid":4293,"aud":4294,"Ġspiele":4295,"Ġtar":4296,"gelegt":4297,"Ġverwaltung":4298,"Ġglauben":4299,"sberg":4300,"Ġrand":4301,"ĠgeprÃ¤gt":4302,"Ġandreas":4303,"Ġfakt":4304,"Ġanwendung":4305,"nfahrer":4306,"Ġmult":4307,"Ġpfer":4308,"Ġgebaut":4309,"Ġqual":4310,"orte":4311,"Ġsw":4312,"Ġmem":4313,"Ġbundesl":4314,"Ġsur":4315,"Ġentscheiden":4316,"ai":4317,"ĠmÃ¼ller":4318,"wechsel":4319,"angs":4320,"Ġbach":4321,"Ġbrachte":4322,"ĠzwÃ¶l":4323,"Ġquelle":4324,"gÃ¼lt":4325,"hel":4326,"Ġliber":4327,"Ġgarten":4328,"ĠflÃ¤che":4329,"hte":4330,"Ġleit":4331,"pret":4332,"staaten":4333,"Ġring":4334,"Ġmarc":4335,"ĠgefÃ¤hr":4336,"cks":4337,"Ġaufgaben":4338,"ichtete":4339,"netz":4340,"eichs":4341,"zeiten":4342,"Ġjazz":4343,"press":4344,"Ġmassen":4345,"betrieb":4346,"abeth":4347,"kennen":4348,"Ġverbesser":4349,"Ġfritz":4350,"Ġhistoriker":4351,"Ġdamaligen":4352,"Ã¼rgen":4353,"anzer":4354,"Ġnimmt":4355,"steuer":4356,"Ġdennoch":4357,"ktionen":4358,"Ġcamp":4359,"nach":4360,"Ġverbreitet":4361,"Ġalph":4362,"derten":4363,"Ġsauer":4364,"Ġparallel":4365,"Ġbauern":4366,"ction":4367,"Ġhoff":4368,"Ġgalt":4369,"mark":4370,"last":4371,"Ã¤tter":4372,"Ġbom":4373,"isierte":4374,"schulen":4375,"Ġgenannten":4376,"Ġuns":4377,"Ġnum":4378,"amme":4379,"Ġpolizei":4380,"zeichnungen":4381,"ieÃŁ":4382,"Ġszen":4383,"Ġgustav":4384,"ita":4385,"Ġwander":4386,"Ġgemacht":4387,"auff":4388,"Ġheutige":4389,"Ġint":4390,"sper":4391,"Ġzeitpunkt":4392,"ĠgÃ¼n":4393,"eten":4394,"Ġsitu":4395,"Ġausbildung":4396,"regierung":4397,"Ġdahin":4398,"Ġausdruck":4399,"Ġnap":4400,"Ġsach":4401,"Ġdresden":4402,"ml":4403,"Ġbill":4404,"ones":4405,"ĠÃ¼berwiegend":4406,"Ġumgebung":4407,"Ġschlag":4408,"Ġkontin":4409,"zus":4410,"Ġheinz":4411,"Ġhierbei":4412,"Ġfertig":4413,"Ġdefinition":4414,"stÃ¤tte":4415,"Ġabt":4416,"Ġabsch":4417,"garten":4418,"Ġwirkung":4419,"wak":4420,"ros":4421,"Ġkleiner":4422,"gas":4423,"alisierung":4424,"Ġvertreten":4425,"drÃ¼ck":4426,"Ġfas":4427,"Ġmehrheit":4428,"agn":4429,"Ġwikipedia":4430,"Ġnic":4431,"Ġelement":4432,"Ġdor":4433,"lla":4434,"ungsweise":4435,"Ġpartner":4436,"Ġbron":4437,"inc":4438,"Ġmyth":4439,"Ġtheologe":4440,"Ġarbeiter":4441,"Ġkarte":4442,"ĠgÃ¼ter":4443,"Ġprotest":4444,"Ġdurchschnitt":4445,"Ġnahr":4446,"hrer":4447,"Ġauswahl":4448,"verwaltung":4449,"Ġkonzept":4450,"pfen":4451,"ĠverÃ¶ffentlichte":4452,"Ġwichtigsten":4453,"fu":4454,"Ġgemeinschaft":4455,"linge":4456,"ĠÃ¶l":4457,"Ġlor":4458,"Ġversucht":4459,"ku":4460,"schlÃ¤":4461,"lass":4462,"iar":4463,"Ġworld":4464,"Ġgru":4465,"Ġgall":4466,"Ġheidel":4467,"Ġgeringer":4468,"Ġknapp":4469,"serie":4470,"Ġcomm":4471,"zif":4472,"Ġzeigen":4473,"Ġmodernen":4474,"Ã¼gen":4475,"Ġjedes":4476,"hÃ¤user":4477,"prÃ¤sident":4478,"ĠergÃ¤n":4479,"Ġgymnas":4480,"Ġinst":4481,"reffen":4482,"inzen":4483,"har":4484,"Ġgehen":4485,"Ã¶der":4486,"hagen":4487,"Ġgrundlage":4488,"Ġbeginnt":4489,"gebÃ¤ude":4490,"Ġrob":4491,"ĠbestÃ¤t":4492,"Ġdeutschlands":4493,"Ġholl":4494,"eicht":4495,"Ġmussten":4496,"haber":4497,"Ġerzbischof":4498,"gebir":4499,"ĠeuropÃ¤ische":4500,"Ġbeeinfl":4501,"Ġlinien":4502,"weder":4503,"Ġfanden":4504,"Ġnichts":4505,"zahlen":4506,"Ġsod":4507,"ĠthÃ¼r":4508,"aters":4509,"ots":4510,"row":4511,"bewegung":4512,"Ġanh":4513,"Ġsubst":4514,"ther":4515,"Ġterritor":4516,"send":4517,"Ġbesatz":4518,"lu":4519,"Ġstudenten":4520,"Ġdiffer":4521,"Ġunmittelbar":4522,"bungen":4523,"Ġbesondere":4524,"halts":4525,"amin":4526,"ief":4527,"Ġtiere":4528,"Ġbietet":4529,"kultur":4530,"lieben":4531,"lau":4532,"Ġaward":4533,"ĠerfÃ¼":4534,"sprÃ¤":4535,"Ġoriginal":4536,"Ġzunehmend":4537,"Ġros":4538,"Ġprim":4539,"zog":4540,"Ġgerhard":4541,"tau":4542,"ĠhÃ¶hen":4543,"Ġarbeitete":4544,"Ġhintergrund":4545,"itzer":4546,"Ġentgegen":4547,"ago":4548,"Ġdarm":4549,"riebe":4550,"Ġchristoph":4551,"rig":4552,"Ġschweden":4553,"Ġgebiete":4554,"Ġbundesrepublik":4555,"leg":4556,"alismus":4557,"ĠgefÃ¼hrt":4558,"Ġunbek":4559,"Ġbeschreibung":4560,"Ġentweder":4561,"jÃ¤hrigen":4562,"Ġmikro":4563,"politik":4564,"Ġhielt":4565,"Ġlab":4566,"po":4567,"rum":4568,"Ġroy":4569,"Ġunge":4570,"Ġthema":4571,"don":4572,"Ġglie":4573,"ua":4574,"Ġpier":4575,"Ġselben":4576,"Ġinterpret":4577,"Ġkamer":4578,"Ġsig":4579,"Ġdach":4580,"Ġschwier":4581,"fil":4582,"ĠweiÃŁen":4583,"Ġerkennt":4584,"linien":4585,"ĠberÃ¼hm":4586,"vi":4587,"male":4588,"Ġdargestellt":4589,"under":4590,"spart":4591,"hÃ¶he":4592,"Ġlos":4593,"Ġedu":4594,"Ġlux":4595,"ĠgeschÃ¤fts":4596,"rak":4597,"ĠerÃ¶ffnet":4598,"wurf":4599,"okal":4600,"Ġunser":4601,"Ġdiskuss":4602,"Ġord":4603,"ulen":4604,"Ġroten":4605,"handlungen":4606,"Ġmond":4607,"Ġminuten":4608,"Ã¼sseld":4609,"Ġgewer":4610,"Ġentlang":4611,"Ġgegner":4612,"Ġjungen":4613,"apie":4614,"Ġbetriebs":4615,"Ġit":4616,"ĠfÃ¼hrung":4617,"hauer":4618,"igr":4619,"Ġkatholische":4620,"Ġnet":4621,"Ġstahl":4622,"Ġzeitung":4623,"alle":4624,"Ġbre":4625,"Ġchor":4626,"ĠdÃ¼sseld":4627,"Ġut":4628,"gol":4629,"Ġaufnahme":4630,"ĠkÃ¶nnte":4631,"vention":4632,"Ġindian":4633,"Ġrathaus":4634,"Ġzit":4635,"Ġsat":4636,"Ġelis":4637,"merk":4638,"kampf":4639,"Ġtom":4640,"ĠflÃ¤chen":4641,"kat":4642,"Ġbezir":4643,"ĠgrÃ¶ÃŁeren":4644,"Ġunten":4645,"Ġelemente":4646,"Ġdollar":4647,"Ġzy":4648,"Ġjahrzehn":4649,"lÃ¤ufer":4650,"etische":4651,"ĠbeschrÃ¤n":4652,"mÃ¶glich":4653,"fasste":4654,"dar":4655,"illen":4656,"schie":4657,"Ġstation":4658,"ĠjÃ¤hrlich":4659,"Ġjournalist":4660,"Ġbol":4661,"Ġschu":4662,"Ġleistungs":4663,"Ġweiterer":4664,"Ġbonn":4665,"Ġzustand":4666,"Ġzeitschrift":4667,"ĠÃ¼bertragen":4668,"Ġordens":4669,"lern":4670,"Ġspricht":4671,"Ġcode":4672,"Ġquer":4673,"Ġdienen":4674,"Ġebene":4675,"Ġfreien":4676,"Ġram":4677,"halle":4678,"raten":4679,"iguren":4680,"Ġwahrscheinlich":4681,"Ġschmid":4682,"oz":4683,"Ġklima":4684,"sbild":4685,"Ġanerk":4686,"Ġerbaut":4687,"Ġextr":4688,"iers":4689,"ordneten":4690,"ada":4691,"Ġheft":4692,"stellten":4693,"Ġherbst":4694,"zÃ¤hl":4695,"brÃ¼cke":4696,"Ġorg":4697,"ĠbeitrÃ¤ge":4698,"Ġverfassung":4699,"nes":4700,"Ġalles":4701,"ĠstÃ¶r":4702,"ico":4703,"Ġunterscheiden":4704,"ows":4705,"Ġeffekt":4706,"klus":4707,"mot":4708,"zel":4709,"achst":4710,"Ġulrich":4711,"Ġprie":4712,"ĠschÃ¤":4713,"lassen":4714,"Ġeinst":4715,"ĠrÃ¶misch":4716,"eisen":4717,"Ġeltern":4718,"Ġrech":4719,"Ġgericht":4720,"Ġzeitraum":4721,"histor":4722,"Ġdiv":4723,"Ġkass":4724,"Ġtit":4725,"Ġauftreten":4726,"Ġberu":4727,"ĠzerstÃ¶rt":4728,"Ġfinn":4729,"ales":4730,"gefÃ¤hr":4731,"Ġpraxis":4732,"Ġzuletzt":4733,"Ġback":4734,"Ġsm":4735,"geschwindigkeit":4736,"ĠÃ¶sterreichischen":4737,"Ġbart":4738,"famil":4739,"ĠkÃ¤mpf":4740,"Ġentfernt":4741,"Ġht":4742,"Ġsar":4743,"Ġss":4744,"Ġreiches":4745,"Ġbeweg":4746,"ĠdurchgefÃ¼hrt":4747,"Ġwestlichen":4748,"Ġargent":4749,"anal":4750,"Ġcas":4751,"Ġsowjetunion":4752,"Ġturn":4753,"ĠfÃ¼rsten":4754,"Ġklar":4755,"ĠerklÃ¤rt":4756,"Ġreduz":4757,"ages":4758,"Ġiniti":4759,"Ġanti":4760,"Ġautom":4761,"zip":4762,"Ġgriechen":4763,"Ġgefangen":4764,"Ġtages":4765,"Ġkos":4766,"prÃ¤sent":4767,"Ġarchitektur":4768,"anischen":4769,"Ġtrainer":4770,"fan":4771,"Ġrussischen":4772,"Ġunterschiedliche":4773,"Ġvul":4774,"Ġdeta":4775,"Ġcont":4776,"Ġarchitekt":4777,"ĠgrÃ¼nden":4778,"ony":4779,"ckey":4780,"Ġline":4781,"Ġordnung":4782,"Ġarg":4783,"Ġadam":4784,"Ġgeben":4785,"Ġneut":4786,"Ġteils":4787,"Ġsetzt":4788,"Ġbeck":4789,"lowak":4790,"Ġbleibt":4791,"uropa":4792,"Ġdynast":4793,"ĠjÃ¼rgen":4794,"su":4795,"ces":4796,"ĠnÃ¤chsten":4797,"Ã¤nk":4798,"Ġdaraus":4799,"Ġjagd":4800,"amerika":4801,"graf":4802,"ĠzwÃ¶lf":4803,"Ġdeutschsprach":4804,"Ġkarls":4805,"Ġherstellung":4806,"ouver":4807,"Ġgrad":4808,"Ġausnahme":4809,"gau":4810,"leit":4811,"ĠreligiÃ¶":4812,"ĠbÃ¼cher":4813,"Ġmis":4814,"Ġethn":4815,"industrie":4816,"schnit":4817,"Ġentsteht":4818,"rechts":4819,"Ġeinzelne":4820,"Ġherrscher":4821,"Ġhalten":4822,"Ġbenutzer":4823,"Ġflugzeug":4824,"Ġliebe":4825,"eme":4826,"Ġstiftung":4827,"Ġtabe":4828,"Ġkurt":4829,"Ġprodukt":4830,"entum":4831,"ĠfÃ¤llen":4832,"Ġvogel":4833,"Ġdonau":4834,"stÃ¤r":4835,"Ġner":4836,"ziehen":4837,"halte":4838,"dessen":4839,"Ġfreie":4840,"ted":4841,"Ġschott":4842,"Ġrosen":4843,"dam":4844,"holz":4845,"bund":4846,"Ġbernhard":4847,"Ġabger":4848,"Ġtragen":4849,"Ġparteien":4850,"irekt":4851,"deut":4852,"Ġkanton":4853,"komp":4854,"Ġkub":4855,"Ġunterschiedlichen":4856,"ĠkÃ¶":4857,"Ġbetrei":4858,"reform":4859,"Ġlehn":4860,"Ġklin":4861,"selben":4862,"Ġsicherheit":4863,"ript":4864,"Ġumfassen":4865,"baum":4866,"Ġergibt":4867,"wohnern":4868,"spolit":4869,"Ã¤st":4870,"Ġgestellt":4871,"Ġwiederhol":4872,"issenschaften":4873,"Ġtrieb":4874,"Ġmehrfach":4875,"Ġleitung":4876,"sein":4877,"ĠstÃ¤dten":4878,"Ġgebildet":4879,"anien":4880,"Ġgene":4881,"Ġbeen":4882,"Ġbenutzt":4883,"ki":4884,"leger":4885,"Ġkard":4886,"Ġabst":4887,"rom":4888,"Ġantike":4889,"Ġkehr":4890,"Ġcest":4891,"ĠkurfÃ¼r":4892,"ieur":4893,"Ġpre":4894,"Ġgeeig":4895,"ĠstÃ¤rker":4896,"spann":4897,"Ġabschnitt":4898,"Ġthemen":4899,"Ġarchiv":4900,"ĠÃ¼bernommen":4901,"umm":4902,"Ġasp":4903,"ĠÃ¤r":4904,"ifik":4905,"Ġspekt":4906,"Ġgenommen":4907,"staur":4908,"wertung":4909,"Ġdin":4910,"Ġwesentlich":4911,"Ġneues":4912,"pfel":4913,"Ġest":4914,"Ġtritt":4915,"sichts":4916,"lad":4917,"geschrieben":4918,"zÃ¼ge":4919,"Ġkrist":4920,"asst":4921,"Ġgebracht":4922,"westen":4923,"wÃ¤rts":4924,"Ġfreiheit":4925,"Ġbri":4926,"Ġwagen":4927,"Ġherren":4928,"mitteln":4929,"lers":4930,"Ġatom":4931,"Ġoffiziell":4932,"Ġgeschaffen":4933,"ington":4934,"abrik":4935,"Ġrichter":4936,"Ġganze":4937,"emann":4938,"Ġlive":4939,"Ġrem":4940,"Ġverbreitung":4941,"ĠÃ¼bersetzung":4942,"grenze":4943,"Ġverfassungs":4944,"ney":4945,"kal":4946,"Ġbege":4947,"Ġberech":4948,"Ġgebur":4949,"ĠendgÃ¼lt":4950,"beding":4951,"Ġsvg":4952,"fur":4953,"Ġleop":4954,"Ġweimar":4955,"sitz":4956,"hoch":4957,"Ġallgemeine":4958,"Ġhyp":4959,"ĠtatsÃ¤chlich":4960,"messer":4961,"Ġcity":4962,"Ġach":4963,"Ġluc":4964,"ridge":4965,"Ġsammlung":4966,"Ġtheodor":4967,"Ġtv":4968,"achim":4969,"ĠtrÃ¤gt":4970,"Ġwirken":4971,"Ġnutzung":4972,"Ġterr":4973,"Ġsche":4974,"Ġwelcher":4975,"ĠunabhÃ¤ngig":4976,"Ġbleiben":4977,"Ġprem":4978,"Ġgrenzen":4979,"ĠÃ¤gyp":4980,"Ġplat":4981,"Ġtel":4982,"vest":4983,"krit":4984,"hu":4985,"Ġbetroffen":4986,"rÃ¤t":4987,"konstru":4988,"gelassen":4989,"mode":4990,"ĠgrundsÃ¤tz":4991,"Ġbrem":4992,"hilfe":4993,"ĠsÃ¼dlichen":4994,"ĠÃ¶sterreichische":4995,"ichtung":4996,"Ġentstehung":4997,"neter":4998,"Ġkart":4999,"Ġexpl":5000,"Ġbremen":5001,"Ġstets":5002,"ĠreprÃ¤sent":5003,"Ġmanch":5004,"Ã¤ne":5005,"autor":5006,"tags":5007,"hor":5008,"ij":5009,"eider":5010,"werte":5011,"war":5012,"Ġdeb":5013,"llehrer":5014,"ĠunabhÃ¤ngigkeit":5015,"ĠsÃ¶":5016,"sichtlich":5017,"Ġjoachim":5018,"Ġmonate":5019,"car":5020,"Ġsto":5021,"Ġkonrad":5022,"obel":5023,"ifikation":5024,"etischen":5025,"Ġschulen":5026,"Ġkrieges":5027,"Ġjetzt":5028,"Ġstock":5029,"Ġbesitzen":5030,"Ġeber":5031,"ĠregelmÃ¤ÃŁig":5032,"riere":5033,"Ġjedem":5034,"Ġnav":5035,"Ġsong":5036,"Ġmes":5037,"Ġinhalt":5038,"Ġerk":5039,"ĠzÃ¤hlen":5040,"Ġkontakt":5041,"heimer":5042,"Ġgeschrieben":5043,"Ġgeschlecht":5044,"erken":5045,"Ġelektro":5046,"Ġtot":5047,"Ġfranken":5048,"Ġjurist":5049,"tal":5050,"Ġbegrenz":5051,"Ġumge":5052,"achten":5053,"stÃ¤ndigen":5054,"ĠqualitÃ¤t":5055,"ĠrÃ¤um":5056,"Ġintens":5057,"grad":5058,"ĠÃ¶ffentliche":5059,"Ġeint":5060,"Ġminer":5061,"act":5062,"Ġgeheim":5063,"Ġlehrer":5064,"Ġwenigen":5065,"Ġlas":5066,"risten":5067,"Ġpopul":5068,"Ġwettbewer":5069,"Ġprofessor":5070,"Ġinformation":5071,"Ġautobahn":5072,"ĠtÃ¤tig":5073,"Ġangesehen":5074,"Ġgrafen":5075,"Ġheira":5076,"blatt":5077,"mannschaft":5078,"Ġelisabeth":5079,"Ġsodass":5080,"wan":5081,"Ġcolor":5082,"vier":5083,"Ġliterar":5084,"iedlung":5085,"skir":5086,"ffel":5087,"irol":5088,"Ġschnitt":5089,"ĠfrÃ¼he":5090,"teilen":5091,"ric":5092,"Ġorte":5093,"Ġangaben":5094,"Ġfriedhof":5095,"ĠnÃ¼rnberg":5096,"Ġatt":5097,"Ġschwarzen":5098,"ĠhÃ¤tte":5099,"Ġminder":5100,"Ġstabil":5101,"bb":5102,"swÃ¼r":5103,"Ġalli":5104,"Ġglob":5105,"Ġwod":5106,"Ġschei":5107,"gebracht":5108,"Ġgattung":5109,"Ġserv":5110,"Ġmur":5111,"Ġhergestellt":5112,"ĠprÃ¤sidenten":5113,"stechn":5114,"ĠÃ¶stlich":5115,"Ġerforder":5116,"Ġargentin":5117,"Ġpi":5118,"aubt":5119,"Ġholstein":5120,"kÃ¼rz":5121,"ĠkÃ¶nigin":5122,"spielt":5123,"Ġgriechischen":5124,"lant":5125,"Ġsaint":5126,"ĠhÃ¤us":5127,"chron":5128,"reif":5129,"ĠgrÃ¼ndete":5130,"Ġdarf":5131,"Ġmagnet":5132,"Ġmenge":5133,"Ġlaufe":5134,"Ġgeographie":5135,"anzler":5136,"Ġhuman":5137,"Ġvec":5138,"ets":5139,"Ġdra":5140,"Ġfisch":5141,"Ġleon":5142,"weile":5143,"gÃ¤nge":5144,"stud":5145,"tement":5146,"Ġgesehen":5147,"Ġnehmen":5148,"Ġgehalten":5149,"Ġfrucht":5150,"Ġdiente":5151,"Ġanna":5152,"setzen":5153,"enk":5154,"ĠdÃ¼sseldorf":5155,"Ġsi":5156,"iede":5157,"Ġnutzen":5158,"ĠmÃ¶glicher":5159,"fÃ¤higkeit":5160,"bezirk":5161,"krÃ¤fte":5162,"ĠfranzÃ¶sisch":5163,"athl":5164,"ommern":5165,"icherung":5166,"rang":5167,"Ġkle":5168,"versammlung":5169,"Ġhug":5170,"unternehmen":5171,"Ġsexu":5172,"Ġbasel":5173,"Ġff":5174,"frau":5175,"Ġregionen":5176,"Ġrestaur":5177,"dehn":5178,"Ġvergangen":5179,"achtet":5180,"ordin":5181,"Ġbekannten":5182,"Ġnordrhein":5183,"Ġopp":5184,"forschung":5185,"Ġprobleme":5186,"Ġmitarbeiter":5187,"rolle":5188,"schauer":5189,"irn":5190,"Ġkolle":5191,"Ġdritte":5192,"Ġnomin":5193,"ĠbrÃ¼cke":5194,"alische":5195,"Ġengel":5196,"Ġmission":5197,"Ġleiter":5198,"Ġdick":5199,"Ġtun":5200,"Ġerfahr":5201,"Ġns":5202,"Ġvideo":5203,"stÃ¤ndnis":5204,"unkten":5205,"Ġgute":5206,"gemeinden":5207,"cen":5208,"gut":5209,"ĠdÃ¼n":5210,"Ġnachge":5211,"Ġklav":5212,"Ġenglischer":5213,"wÃ¤rt":5214,"handelt":5215,"ques":5216,"Ġgebir":5217,"Ġbedeutend":5218,"Ġenglische":5219,"ĠÃ¶k":5220,"kopf":5221,"region":5222,"Ġfehlen":5223,"Ġbereit":5224,"Ġheidelberg":5225,"Ġmittlerweile":5226,"statt":5227,"Ġdunk":5228,"Ġbul":5229,"fÃ¤lle":5230,"Ġzo":5231,"Ġinterv":5232,"Ã¼cksicht":5233,"schullehrer":5234,"Ġalpen":5235,"Ġnort":5236,"ory":5237,"born":5238,"ĠfrÃ¼heren":5239,"ms":5240,"Ġgramm":5241,"Ġregisseur":5242,"Ġblack":5243,"fiel":5244,"ĠzÃ¤hlt":5245,"wirkung":5246,"Ġky":5247,"Ġunternehmer":5248,"Ġessen":5249,"Ġtechnische":5250,"Ġbab":5251,"swissenschaft":5252,"Ġbildungs":5253,"Ġpen":5254,"alog":5255,"Ġjeden":5256,"Ġpubliz":5257,"ielle":5258,"Ġemp":5259,"Ġdurchs":5260,"Ã¼fung":5261,"sbach":5262,"ustr":5263,"Ġec":5264,"Ġkg":5265,"zellen":5266,"ĠÃ¤lteste":5267,"Ġverur":5268,"zenz":5269,"Ġkonserv":5270,"Ġdaniel":5271,"ĠgrÃ¤":5272,"Ġeigentlich":5273,"wechs":5274,"frage":5275,"Ġstrecken":5276,"frastruktur":5277,"Ġsituation":5278,"weite":5279,"Ġmarien":5280,"ĠpreuÃŁischen":5281,"Ġschleswig":5282,"sende":5283,"Ġkommand":5284,"ĠrÃ¶mische":5285,"Ġvergl":5286,"Ġbeziehungen":5287,"Ġstellung":5288,"Ġmanchmal":5289,"pft":5290,"Ġversuchte":5291,"Ġjunge":5292,"Ġedition":5293,"Ġbesten":5294,"Ġbetrachtet":5295,"Ġhon":5296,"ĠlÃ¤ng":5297,"umb":5298,"ĠfÃ¼hrten":5299,"ora":5300,"mung":5301,"way":5302,"Ġwestlich":5303,"onym":5304,"Ġstefan":5305,"horn":5306,"Ġwellen":5307,"Ġerkennen":5308,"Ġaufgabe":5309,"Ġbefand":5310,"Ġanf":5311,"Ġfreiburg":5312,"Ġgitar":5313,"Ġbist":5314,"Ġschr":5315,"losen":5316,"Ġgeden":5317,"iode":5318,"phen":5319,"Ġwag":5320,"Ġzukunft":5321,"Ġhalle":5322,"Ġhard":5323,"Ġafrika":5324,"Ġbraunschwei":5325,"ausgabe":5326,"gliedert":5327,"Ġunterschiedlich":5328,"Ġtrocken":5329,"ziehung":5330,"ura":5331,"Ġmetern":5332,"Ġpot":5333,"ĠflÃ¼ss":5334,"ĠgewÃ¤hr":5335,"Ġscience":5336,"klÃ¤rung":5337,"ĠnÃ¤her":5338,"Ġsieht":5339,"mente":5340,"Ġhimmel":5341,"Ġkult":5342,"Ġmisch":5343,"ĠunterstÃ¼tzt":5344,"kord":5345,"Ġumstritten":5346,"Ġanlage":5347,"Ã¶ss":5348,"Ġentscheidung":5349,"indest":5350,"Ġmail":5351,"nitz":5352,"ĠstÃ¤dt":5353,"Ġfunktionen":5354,"Ġmarie":5355,"wissenschaftler":5356,"kau":5357,"wal":5358,"kern":5359,"ĠanhÃ¤nger":5360,"kÃ¶rper":5361,"zent":5362,"Ġkohlen":5363,"Ã¤nglich":5364,"die":5365,"tliche":5366,"oks":5367,"omp":5368,"Ġreichen":5369,"Ġtechnischen":5370,"bahnen":5371,"Ġbildhauer":5372,"Ġandererseits":5373,"Ġadr":5374,"ĠstÃ¤nd":5375,"Ġanfangs":5376,"seit":5377,"ĠnÃ¶rdlichen":5378,"Ġleistung":5379,"Ġbewusst":5380,"nungs":5381,"Ġkonkur":5382,"gewicht":5383,"nft":5384,"Ġexistieren":5385,"Ġfen":5386,"Ġzweit":5387,"ĠverfÃ¼gt":5388,"Ġwodurch":5389,"Ġkommunal":5390,"Ġzuerst":5391,"Ġwerde":5392,"gor":5393,"alischen":5394,"ĠberÃ¼cksicht":5395,"ĠpersÃ¶nlichkeiten":5396,"Ġzeiten":5397,"ĠrumÃ¤n":5398,"Ġverbin":5399,"Ġteilnehmer":5400,"grenzen":5401,"Ġcro":5402,"ĠÃ¶ffentlichkeit":5403,"bauten":5404,"ĠgehÃ¶rten":5405,"kul":5406,"bern":5407,"dp":5408,"inus":5409,"rimin":5410,"Ġlebte":5411,"ĠdÃ¶r":5412,"Ġzusammenarbeit":5413,"igungen":5414,"iko":5415,"werks":5416,"verse":5417,"Ġderzeit":5418,"Ġfeier":5419,"rt":5420,"Ġhochschullehrer":5421,"Ġfirma":5422,"Ã¤dagog":5423,"Ġauss":5424,"eisch":5425,"Ġcolle":5426,"ĠblÃ¼ten":5427,"Ġzusammenge":5428,"Ġstarken":5429,"col":5430,"Ġsonne":5431,"Ġpaar":5432,"Ġthron":5433,"Ġlied":5434,"Ã¶nig":5435,"bu":5436,"Ġbayerischen":5437,"Ġclub":5438,"dat":5439,"Ġlexik":5440,"Ġtrag":5441,"kunden":5442,"Ġrep":5443,"zustellen":5444,"Ġautomat":5445,"Ġwesentlichen":5446,"wÃ¶r":5447,"Ġspeicher":5448,"ppel":5449,"endorf":5450,"Ġflagge":5451,"Ġbeziehungsweise":5452,"no":5453,"Ġflie":5454,"Ġolympischen":5455,"Ġmund":5456,"ĠvÃ¶llig":5457,"Ġerich":5458,"Ġhenry":5459,"Ġstrateg":5460,"Ġkontroll":5461,"Ġlad":5462,"legte":5463,"Ġstarke":5464,"Ġdynastie":5465,"ologisch":5466,"lehre":5467,"kauf":5468,"Ġpriester":5469,"bek":5470,"Ġetabl":5471,"Ġyo":5472,"Ġvict":5473,"Ġtempel":5474,"Ġeingesch":5475,"Ġgesundheit":5476,"Ġuntersuchungen":5477,"Ġangeboten":5478,"stÃ¤tten":5479,"Ġmainz":5480,"ĠsÃ¼dwest":5481,"Ġinfolge":5482,"Ġleopold":5483,"ĠhÃ¶chste":5484,"spiegel":5485,"zust":5486,"Ġjesu":5487,"Ġneur":5488,"Ġcat":5489,"alem":5490,"Ġwissenschaften":5491,"tragung":5492,"Ġpresse":5493,"Ġerscheint":5494,"schicht":5495,"ĠglÃ¼ck":5496,"kas":5497,"Ġnas":5498,"Ġmarine":5499,"ĠÃ¼brigen":5500,"rate":5501,"Ġbos":5502,"Ġunterscheidet":5503,"Ġverg":5504,"Ġgewonnen":5505,"Ġsoziale":5506,"Ġvorkommen":5507,"ieÃŁen":5508,"jen":5509,"kw":5510,"Ġmaur":5511,"Ġinneren":5512,"ittel":5513,"Ġtru":5514,"ĠbehÃ¶r":5515,"kont":5516,"Ġkb":5517,"Ġfolgender":5518,"bad":5519,"Ġfrancis":5520,"Ġindien":5521,"Ġdefiniert":5522,"Ġberufs":5523,"Ġmc":5524,"Ġbreite":5525,"Ġklassischen":5526,"Ġsho":5527,"well":5528,"Ġweiteres":5529,"Ġgemeinder":5530,"Ġstadion":5531,"Ġkapital":5532,"zone":5533,"ologen":5534,"Ġinteress":5535,"ĠfÃ¤h":5536,"Ġfarben":5537,"een":5538,"Ġguten":5539,"Ġspanischen":5540,"walt":5541,"Ġangegeben":5542,"ris":5543,"ec":5544,"Ġphot":5545,"Ġkandid":5546,"Ġpor":5547,"Ġref":5548,"Ġhitler":5549,"schall":5550,"gelt":5551,"ĠsÃ¶hne":5552,"Ġviol":5553,"Ġrheinland":5554,"val":5555,"Ġcy":5556,"Ġrezept":5557,"liefert":5558,"Ġnapole":5559,"Ġzweck":5560,"Ġquadrat":5561,"sl":5562,"Ġinstrument":5563,"Ġverlassen":5564,"Ġzeitgen":5565,"ĠsehenswÃ¼r":5566,"Ġpian":5567,"Ġhelmut":5568,"Ġabend":5569,"Ġdiplomat":5570,"Ã¤dagoge":5571,"punkte":5572,"Ġschick":5573,"Ġfehler":5574,"ramm":5575,"ĠausfÃ¼hr":5576,"ram":5577,"sachsen":5578,"irm":5579,"hlt":5580,"Ġgeburts":5581,"Ġfeder":5582,"Ġfarbe":5583,"igem":5584,"bahnhof":5585,"Ġew":5586,"Ġmarx":5587,"Ġmb":5588,"etik":5589,"istischer":5590,"Ġmi":5591,"einheit":5592,"sky":5593,"inter":5594,"Ġgesprochen":5595,"Ġcir":5596,"ziplin":5597,"organisation":5598,"Ġfront":5599,"Ġtermin":5600,"Ġdv":5601,"Ġanzu":5602,"hur":5603,"ena":5604,"umenten":5605,"Ġabschluss":5606,"Ġukra":5607,"Ġeth":5608,"usion":5609,"Ġlehre":5610,"asien":5611,"essel":5612,"nissen":5613,"Ġbeginnen":5614,"Ġausgeb":5615,"Ġtexte":5616,"Ġfahrzeug":5617,"Ġgeograph":5618,"Ġmethode":5619,"uck":5620,"Ġnationalsozialismus":5621,"Ġverlor":5622,"ĠsÃ¤chs":5623,"Ġentwicklungs":5624,"digkeiten":5625,"Ġdieter":5626,"Ġitalienischen":5627,"Ã¤lde":5628,"Ġeduard":5629,"ĠjÃ¼dischen":5630,"ĠgefÃ¼":5631,"Ġaqu":5632,"ĠÃ¼bersetzt":5633,"Ġnahezu":5634,"Ġimm":5635,"Ġschmidt":5636,"Ġsozi":5637,"Ġrau":5638,"urz":5639,"Ġetc":5640,"Ġingen":5641,"Ġversuch":5642,"gg":5643,"ĠschÃ¼tzen":5644,"ville":5645,"Ġauszu":5646,"ĠwÃ¤rme":5647,"Ġviertel":5648,"Ġzumindest":5649,"reistrÃ¤ger":5650,"Ġdiskussion":5651,"sellschaften":5652,"Ã¼che":5653,"rib":5654,"Ġbeteiligt":5655,"Ġza":5656,"Ġkarriere":5657,"Ġweder":5658,"Ġhochschule":5659,"ĠverlÃ¤nger":5660,"cklen":5661,"Ġaltstadt":5662,"Ġelf":5663,"leistung":5664,"Ġbefehl":5665,"Ġnachrichten":5666,"bas":5667,"ĠdÃ¤nem":5668,"Ġarzt":5669,"dungs":5670,"bed":5671,"Ġjack":5672,"Ġinfrastruktur":5673,"Ġoff":5674,"Ġlieder":5675,"kriegs":5676,"Ġnordwest":5677,"Ġregeln":5678,"Ġruhr":5679,"Ġherbert":5680,"straÃŁen":5681,"Ġosman":5682,"Ġtrei":5683,"Ġevangelische":5684,"Ġganzen":5685,"Ġsed":5686,"Ġgeschwindigkeit":5687,"iana":5688,"Ġvariante":5689,"vin":5690,"Ġevangelisch":5691,"Ġkurze":5692,"Ġverurs":5693,"ida":5694,"Ġkennt":5695,"Ġhtml":5696,"ses":5697,"fekt":5698,"ruf":5699,"Ġbelegt":5700,"Ġphase":5701,"Ġcent":5702,"Ġlangsam":5703,"Ġjos":5704,"Ġmatth":5705,"Ġinteressen":5706,"Ġdiet":5707,"istr":5708,"Ġgewinn":5709,"Ġwissenschaftliche":5710,"empl":5711,"Ġseitdem":5712,"ani":5713,"Ġinvest":5714,"Ġklavier":5715,"Ġvorgesehen":5716,"ehr":5717,"meer":5718,"Ġeisho":5719,"Ġfilme":5720,"schuss":5721,"Ġsag":5722,"Ġhig":5723,"wirkungen":5724,"ĠÃ¶kon":5725,"Ġzentrale":5726,"ĠmÃ¶glicherweise":5727,"Ġgefahr":5728,"ehen":5729,"ĠzurÃ¼ckge":5730,"Ġinde":5731,"Ġbefest":5732,"Ġgelegentlich":5733,"ĠlÃ¶sung":5734,"ĠgelÃ¤nde":5735,"hs":5736,"Ġverbindungen":5737,"ĠgrundsÃ¤tzlich":5738,"Ġpierre":5739,"hrop":5740,"Ġstadtgebiet":5741,"ĠÃ¶ff":5742,"una":5743,"ĠwÃ¼rden":5744,"Ġkarten":5745,"Ġeinwohnern":5746,"Ġgreg":5747,"Ġroll":5748,"ĠspÃ¤tere":5749,"ungsver":5750,"Ġmio":5751,"Ġauton":5752,"Ġhersteller":5753,"ĠsehenswÃ¼rdigkeiten":5754,"Ġunterschieden":5755,"Ġanb":5756,"mÃ¼n":5757,"Ġexistiert":5758,"Ã¶sterreich":5759,"Ġsozialen":5760,"Ġzell":5761,"Ġspir":5762,"Ġentdeckt":5763,"Ġgrand":5764,"rÃ¤ume":5765,"krieges":5766,"Ġhem":5767,"Ġverliehen":5768,"Ġbraunschweig":5769,"ene":5770,"geleitet":5771,"Ġschritt":5772,"Ġwerte":5773,"hafte":5774,"stands":5775,"Ã¤nen":5776,"Ġeinheiten":5777,"maler":5778,"frist":5779,"stad":5780,"Ġstanden":5781,"Ġheiratete":5782,"Ġdrehbuch":5783,"ĠauflÃ¶sung":5784,"Ġdram":5785,"Ġbreiten":5786,"Ġrote":5787,"stab":5788,"atischen":5789,"istan":5790,"zte":5791,"station":5792,"ĠÃ¤gypten":5793,"spielen":5794,"ĠgÃ¶ttingen":5795,"gers":5796,"verkehrs":5797,"zell":5798,"Ġvize":5799,"gern":5800,"herzog":5801,"ĠmÃ¶n":5802,"Ġdaran":5803,"hielt":5804,"Ġzahn":5805,"heira":5806,"begriff":5807,"ĠhÃ¶heren":5808,"Ġly":5809,"Ġorden":5810,"ĠwÃ¶rter":5811,"Ġkanal":5812,"Ġausger":5813,"denburg":5814,"heater":5815,"rÃ¼ck":5816,"ria":5817,"gliederung":5818,"Ġmetro":5819,"ĠmaÃŁnahmen":5820,"Ġhex":5821,"Ġmethoden":5822,"werken":5823,"Ġnaturschutz":5824,"sagen":5825,"stock":5826,"kin":5827,"Ġgingen":5828,"Ġgleichnam":5829,"Ġpersonal":5830,"Ġzweiter":5831,"artige":5832,"Ġschriftstellerin":5833,"amik":5834,"ology":5835,"unnel":5836,"Ġverschiedener":5837,"Ġbezeichnete":5838,"Ġinteresse":5839,"Ġbrenn":5840,"iellen":5841,"Ġvorbild":5842,"Ġpse":5843,"hÃ¤ltnisse":5844,"Ġwetter":5845,"Ġfragen":5846,"Ġbat":5847,"Ġweist":5848,"af":5849,"Ġfak":5850,"ĠprÃ¤sent":5851,"Ġsiedlung":5852,"Ġeuropas":5853,"annter":5854,"Ġandr":5855,"ĠgÃ¼lt":5856,"chsp":5857,"Ġsau":5858,"schte":5859,"staben":5860,"Ġkra":5861,"Ġtagen":5862,"ĠgesprÃ¤":5863,"Ġerkrank":5864,"yth":5865,"Ġtreffen":5866,"Ġprom":5867,"Ġopen":5868,"Ġsociet":5869,"Ġzoll":5870,"stil":5871,"Ġmasse":5872,"Ġkupfer":5873,"produktion":5874,"Ġformel":5875,"Ġuner":5876,"Ġbringen":5877,"Ġhotel":5878,"Ġeingestellt":5879,"pul":5880,"Ã¼mer":5881,"Ġrechten":5882,"Ġverpflich":5883,"Ġstudium":5884,"Ġzeigte":5885,"ĠermÃ¶glicht":5886,"stedt":5887,"Ġserb":5888,"ummer":5889,"Ġgebieten":5890,"Ġvgl":5891,"jo":5892,"ĠabkÃ¼rz":5893,"Ġbetrug":5894,"Ġstatus":5895,"gramme":5896,"redit":5897,"Ġfigur":5898,"Ġmeeres":5899,"Ġoberen":5900,"ĠfrÃ¼hjahr":5901,"Ġgymnasium":5902,"Ġblieben":5903,"quen":5904,"Ġsonn":5905,"Ġkaisers":5906,"Ġsper":5907,"ĠvorgÃ¤nger":5908,"uchten":5909,"ĠsÃ¼da":5910,"hungs":5911,"Ġvictor":5912,"Ġbedro":5913,"Ġangenommen":5914,"geschlagen":5915,"Ġferner":5916,"Ġverste":5917,"Ġathen":5918,"Ġkonstantin":5919,"Ġroyal":5920,"Ġvereins":5921,"Ġtab":5922,"lli":5923,"Ġkleinere":5924,"Ġbezirks":5925,"hungen":5926,"ĠhÃ¶here":5927,"orten":5928,"Ġabwei":5929,"Ġverbr":5930,"Ġkoch":5931,"atische":5932,"Ġeck":5933,"aktiv":5934,"Ġchemie":5935,"ci":5936,"ĠÃ¤lteren":5937,"Ġken":5938,"Ġbudd":5939,"hÃ¶rigen":5940,"ĠlÃ¶s":5941,"Ġgedenk":5942,"iegen":5943,"Ġvorber":5944,"iforn":5945,"ĠÃ¤ltesten":5946,"Ġarmen":5947,"Ġmusic":5948,"Ġrede":5949,"kunst":5950,"Ġcount":5951,"Ġafr":5952,"Ġkommunikation":5953,"Ġdrittel":5954,"anische":5955,"Ġbildete":5956,"Ġstandort":5957,"ysi":5958,"Ġnennt":5959,"wege":5960,"var":5961,"Ġwindows":5962,"ĠfÃ¶rder":5963,"Ġevangelischen":5964,"Ġaster":5965,"lÃ¤uf":5966,"menge":5967,"Ġblatt":5968,"Ġbelieb":5969,"Ġmanche":5970,"hre":5971,"Ġfreiwill":5972,"Ġpseud":5973,"ifiziert":5974,"ips":5975,"ĠrÃ¶mer":5976,"Ġauto":5977,"aner":5978,"Ġtoten":5979,"cklenburg":5980,"haben":5981,"finden":5982,"furter":5983,"Ġtol":5984,"ĠgrÃ¼":5985,"schm":5986,"richter":5987,"partner":5988,"Ġbass":5989,"endes":5990,"Ġalbrecht":5991,"chem":5992,"Ġausbau":5993,"ĠflÃ¼gel":5994,"Ġneuzeit":5995,"Ġgegenwart":5996,"ev":5997,"hler":5998,"Ġsysteme":5999,"kamp":6000,"Ġlam":6001,"iertes":6002,"Ġaff":6003,"mension":6004,"Ġare":6005,"Ġabgeschlossen":6006,"gerichts":6007,"Ġbedingungen":6008,"zul":6009,"Ġentsprechenden":6010,"Ġmand":6011,"Ġtakt":6012,"Ġluxem":6013,"lor":6014,"any":6015,"Ġmobil":6016,"otten":6017,"Ġdarmstadt":6018,"Ġreihen":6019,"ktiv":6020,"ble":6021,"zwei":6022,"Ġcast":6023,"Ġgering":6024,"ĠerklÃ¤rte":6025,"Ġgran":6026,"Ġbarbar":6027,"Ġkie":6028,"Ġpunkte":6029,"Ġhandeln":6030,"Ġdifferenz":6031,"stellungs":6032,"Ġsolchen":6033,"Ġwuchs":6034,"Ġkoll":6035,"ĠhÃ¶chst":6036,"Ġregul":6037,"Ġeindeut":6038,"Ġverboten":6039,"Ġpatienten":6040,"cadem":6041,"Ġkomment":6042,"Ġbyz":6043,"Ġlar":6044,"Ġereignisse":6045,"ĠdÃ¤nemark":6046,"gro":6047,"Ġlinken":6048,"sprachen":6049,"ordneter":6050,"arkt":6051,"Ġbegonnen":6052,"Ġpanzer":6053,"Ġkoordin":6054,"Ġmorgen":6055,"Ġot":6056,"Ã¤ndischen":6057,"Ġsha":6058,"Ġwechs":6059,"Ġblo":6060,"Ġjacob":6061,"Ġniederlande":6062,"mod":6063,"ieder":6064,"ĠhÃ¼":6065,"Ġausstellung":6066,"Ġisol":6067,"ĠÃ¼bersetz":6068,"itor":6069,"schreibung":6070,"ĠmÃ¶glichst":6071,"durch":6072,"hodox":6073,"licherweise":6074,"haup":6075,"Ġkonzert":6076,"Ġbefrei":6077,"Ġisland":6078,"Ġtourismus":6079,"Ã¤ure":6080,"Ġglo":6081,"ĠverlÃ¤uft":6082,"Ġtanz":6083,"schaff":6084,"lose":6085,"Ġgerichts":6086,"fahrer":6087,"idae":6088,"Ġkonflikt":6089,"ury":6090,"Ġexistenz":6091,"Ġreicht":6092,"ĠkÃ¼sten":6093,"ique":6094,"Ġsus":6095,"Ġsankt":6096,"Ġneum":6097,"programm":6098,"Ġrus":6099,"ĠverfÃ¼g":6100,"iedelt":6101,"Ġgewicht":6102,"Ġgau":6103,"Ġanne":6104,"Ã¼tzt":6105,"Ġlot":6106,"Ġmauer":6107,"Ġret":6108,"Ġnorweg":6109,"ĠsÃ¤ngerin":6110,"fÃ¼hrte":6111,"jew":6112,"Ġspezif":6113,"Ġround":6114,"Ġstill":6115,"ballspieler":6116,"Ġmotiv":6117,"ĠtÃ¤tigkeit":6118,"ĠÃ¼blich":6119,"rand":6120,"iction":6121,"Ġbrau":6122,"Ġportugies":6123,"sÃ¤tze":6124,"ania":6125,"Ġumben":6126,"pflicht":6127,"behÃ¶r":6128,"zufÃ¼hren":6129,"Ġhaut":6130,"ypen":6131,"Ġherausgegeben":6132,"Ġbeziehung":6133,"ape":6134,"deutsche":6135,"Ġmanfred":6136,"Ġsignal":6137,"ouverne":6138,"Ġformul":6139,"Ġbeschreibt":6140,"Ġorchester":6141,"Ġautomobil":6142,"ĠkÃ¶r":6143,"Ġkammer":6144,"Ġiso":6145,"gler":6146,"Ġgemeinsamen":6147,"anda":6148,"Ġmengen":6149,"Ġatlant":6150,"Ġnotwendig":6151,"Ġentsprechende":6152,"ĠhÃ¶chsten":6153,"Ġbell":6154,"Ġbesuchte":6155,"leiter":6156,"Ġsec":6157,"ienste":6158,"rel":6159,"ĠkÃ¼r":6160,"Ġdeutsches":6161,"Ġscho":6162,"sburger":6163,"kammer":6164,"dor":6165,"tu":6166,"other":6167,"ĠbrÃ¼der":6168,"uster":6169,"imme":6170,"Ġbibel":6171,"Ġkrei":6172,"Ġschreib":6173,"Ġexempl":6174,"Ġmilliar":6175,"kÃ¶nig":6176,"Ġfolgten":6177,"Ġkassel":6178,"hoff":6179,"Ġkapit":6180,"sphÃ¤re":6181,"Ġschreiben":6182,"aÃŁ":6183,"ĠungefÃ¤hr":6184,"Ġgn":6185,"Ġlande":6186,"Ġmathematik":6187,"Ġidee":6188,"Ġschwester":6189,"Ġsaar":6190,"Ġbibliothek":6191,"blei":6192,"Ã¼stung":6193,"samkeit":6194,"kretÃ¤r":6195,"Ġzumeist":6196,"Ġarist":6197,"Ġkolonial":6198,"Ġps":6199,"Ġabstand":6200,"herrschaft":6201,"ĠkÃ¼n":6202,"aka":6203,"rats":6204,"skirche":6205,"Ġmiteinander":6206,"Ġusw":6207,"ĠkrÃ¤":6208,"forderungen":6209,"ĠgrÃ¼nder":6210,"ĠÃ¼berw":6211,"Ġmolek":6212,"hÃ¶rige":6213,"ĠportrÃ¤t":6214,"Ġreser":6215,"Ġausland":6216,"spolitik":6217,"Ġhorn":6218,"Ġerstes":6219,"Ġfle":6220,"Ġeingemein":6221,"ĠdÃ¼rfen":6222,"Ġorthodox":6223,"preu":6224,"ĠtÃ¼b":6225,"esien":6226,"Ġportugal":6227,"gebirge":6228,"ral":6229,"wood":6230,"Ġeinrichtungen":6231,"ĠÃ¼berhaupt":6232,"Ġzuschauer":6233,"Ġvalue":6234,"Ġhundert":6235,"Ã¤dchen":6236,"Ġbenach":6237,"Ġuntersuchung":6238,"witz":6239,"ikanische":6240,"Ġspezielle":6241,"edition":6242,"Ġkindern":6243,"Ġerweitert":6244,"Ġoptim":6245,"Ġweisen":6246,"ston":6247,"teils":6248,"Ġspeziell":6249,"Ġkontrolle":6250,"Ġhamburger":6251,"Ġwiesb":6252,"ĠfÃ¤llt":6253,"Ġmonat":6254,"ĠhÃ¤tten":6255,"Ġstren":6256,"familie":6257,"Ġbehandlung":6258,"Ġlexikon":6259,"its":6260,"Ġbelager":6261,"Ġeishockey":6262,"onstr":6263,"Ġemil":6264,"Ġkonkurr":6265,"Ġmut":6266,"Ġentscheid":6267,"Ġbulgar":6268,"Ġniederlage":6269,"Ġstattdessen":6270,"ordens":6271,"ÃŁig":6272,"Ġernannt":6273,"ero":6274,"Ġansicht":6275,"Ġeich":6276,"owski":6277,"une":6278,"imeter":6279,"dro":6280,"zin":6281,"Ġfunk":6282,"ritte":6283,"Ġtrug":6284,"Ġtode":6285,"Ã¼glich":6286,"ethe":6287,"Ġgenannte":6288,"Ġsicherheits":6289,"Ġhoher":6290,"fÃ¼hrten":6291,"Ġorgel":6292,"ĠabhÃ¤ngig":6293,"Ġwiesbaden":6294,"verl":6295,"ministerium":6296,"arte":6297,"Ġlegte":6298,"Ġwirtschaftliche":6299,"Ġmic":6300,"schei":6301,"quelle":6302,"Ġax":6303,"arn":6304,"Ġerstre":6305,"ckel":6306,"Ġcamb":6307,"Ġwiederauf":6308,"Ġbox":6309,"seits":6310,"archie":6311,"Ġfiguren":6312,"ĠÃ¼berliefer":6313,"regel":6314,"berecht":6315,"issance":6316,"Ġinterview":6317,"Ġsofort":6318,"vis":6319,"Ġnorth":6320,"artet":6321,"sbar":6322,"Ġschall":6323,"aku":6324,"onischen":6325,"Ġerziel":6326,"ĠbÃ¤nde":6327,"ischÃ¶":6328,"aufen":6329,"Ġsort":6330,"Ġvielf":6331,"instr":6332,"ordnete":6333,"ĠgroÃŁes":6334,"Ġnationalen":6335,"liste":6336,"dl":6337,"etisch":6338,"Ġbedeutende":6339,"Ġup":6340,"ĠgrÃ¼nen":6341,"Ġprag":6342,"Ġbestandteil":6343,"ikas":6344,"Ġbened":6345,"Ġschen":6346,"Ġfernsehen":6347,"ĠÃ¤ltere":6348,"icus":6349,"jor":6350,"Ġkennen":6351,"Ġmeistens":6352,"ĠfÃ¼hrer":6353,"cal":6354,"ugen":6355,"ye":6356,"Ġextrem":6357,"Ġng":6358,"Ġjulius":6359,"Ġedward":6360,"Ġkardinal":6361,"Ġacadem":6362,"Ġfahrzeuge":6363,"Ġdigit":6364,"Ġmathematiker":6365,"orien":6366,"Ġschach":6367,"hz":6368,"Ġkeiner":6369,"zern":6370,"wes":6371,"Ġrussische":6372,"Ġsab":6373,"astrop":6374,"Ġreag":6375,"Ġkontra":6376,"Ġmater":6377,"vertrag":6378,"Ġastronom":6379,"Ġsynth":6380,"Ġopern":6381,"Ġtha":6382,"Ġaktion":6383,"annen":6384,"Ġmatthias":6385,"Ġverhindern":6386,"ĠkÃ¶nne":6387,"Ġgere":6388,"Ġklassen":6389,"Ġbronze":6390,"kla":6391,"unehmen":6392,"anteil":6393,"alerie":6394,"ues":6395,"Ġpapier":6396,"bein":6397,"anter":6398,"Ġseb":6399,"Ġabzu":6400,"phan":6401,"Ġverkauft":6402,"Ġrod":6403,"Ġergebnisse":6404,"rot":6405,"Ġplatten":6406,"ĠaufgelÃ¶st":6407,"Ġausreichen":6408,"mauer":6409,"Ġud":6410,"Ġehemaliger":6411,"Ġbeton":6412,"Ġtore":6413,"Ġchristlichen":6414,"Ġnummer":6415,"Ġsociety":6416,"Ġschaff":6417,"Ã¼ndnis":6418,"Ġkohl":6419,"onie":6420,"Ġstellvert":6421,"zburg":6422,"ĠÃ¶stlichen":6423,"Ġhess":6424,"Ġsynchron":6425,"igent":6426,"auten":6427,"do":6428,"Ġfrankfurter":6429,"Ġunternehmens":6430,"opp":6431,"Ġkrankheit":6432,"Ġban":6433,"legten":6434,"bra":6435,"ĠernÃ¤hr":6436,"hy":6437,"Ġerlang":6438,"spe":6439,"alisiert":6440,"Ġalexand":6441,"eland":6442,"Ġwachsen":6443,"Ġstieg":6444,"Ġmun":6445,"Ġklim":6446,"Ġforst":6447,"felder":6448,"Ġerscheinen":6449,"auffÃ¼hr":6450,"Ġhorst":6451,"Ġzwangs":6452,"chern":6453,"Ġriver":6454,"kohol":6455,"Ġmecklenburg":6456,"uern":6457,"Ġpyr":6458,"Ġbeam":6459,"sert":6460,"lÃ¤sslich":6461,"Ġpul":6462,"Ġaufzu":6463,"Ġtonnen":6464,"hauses":6465,"ois":6466,"hes":6467,"Ã¤mpfer":6468,"ĠÃ¤gypt":6469,"Ġneck":6470,"Ġtreten":6471,"alition":6472,"eiert":6473,"Ġek":6474,"Ġurkund":6475,"Ġeugen":6476,"Ġveranstaltungen":6477,"prÃ¤sidenten":6478,"Ġpolitisch":6479,"ĠphÃ¤n":6480,"Ġwom":6481,"ĠspÃ¤ten":6482,"ĠsÃ¤m":6483,"Ġsystems":6484,"klasse":6485,"Ġmittleren":6486,"reicher":6487,"Ġeingeb":6488,"Ġbeitrag":6489,"Ġzent":6490,"dner":6491,"Ġabgeb":6492,"arbeitete":6493,"sm":6494,"Ġgatt":6495,"Ġbesetz":6496,"Ġleiden":6497,"Ġanspruch":6498,"Ġchristen":6499,"Ġhierzu":6500,"forscher":6501,"stÃ¼cke":6502,"Ġhome":6503,"Ġbenachbar":6504,"Ġgrundlagen":6505,"Ġgeringe":6506,"Ġvorsitzender":6507,"aissance":6508,"Ġphysiker":6509,"Ġfallen":6510,"bringen":6511,"Ġking":6512,"verlag":6513,"ulf":6514,"blÃ¤tter":6515,"vol":6516,"ĠjÃ¼dische":6517,"Ġpas":6518,"Ġschild":6519,"Ġliefer":6520,"yen":6521,"Ġunteren":6522,"ĠbenÃ¶tigt":6523,"Ġnennen":6524,"Ġimper":6525,"Ġtrain":6526,"mÃ¤ÃŁige":6527,"Ġsauerstoff":6528,"Ġmargar":6529,"schlÃ¤ge":6530,"scheid":6531,"Ġpartement":6532,"spf":6533,"Ġmaximilian":6534,"Ġoster":6535,"Ġstudie":6536,"Ġgemeinsame":6537,"Ġausgang":6538,"ragen":6539,"Ġweltmeisterschaft":6540,"Ġgrafschaft":6541,"iale":6542,"lÃ¤nge":6543,"Ġeinerseits":6544,"Ġverwendete":6545,"ior":6546,"Ġarthur":6547,"Ġanlagen":6548,"Ġverlust":6549,"esco":6550,"Ã¶glichen":6551,"Ġnahrungs":6552,"Ġbreit":6553,"fb":6554,"liegenden":6555,"iziert":6556,"Ġspringer":6557,"kosten":6558,"Ġgespielt":6559,"Ã¶pf":6560,"Ġrundfunk":6561,"ĠhÃ¤lt":6562,"Ġkonzer":6563,"Ġlov":6564,"Ġnationale":6565,"eige":6566,"Ġpau":6567,"Ġspitze":6568,"Ġmr":6569,"Ġverlei":6570,"lehnt":6571,"Ġsyr":6572,"Ġniedersachsen":6573,"ela":6574,"Ġfriedens":6575,"ĠursprÃ¼nglichen":6576,"ĠrÃ¼ckkehr":6577,"bÃ¼cher":6578,"Ġbewer":6579,"versorgung":6580,"ption":6581,"Ġrett":6582,"Ġeingerichtet":6583,"Ġanmer":6584,"Ã¼rzt":6585,"Ġsieger":6586,"olaus":6587,"Ġgedenkt":6588,"leun":6589,"Ġkorre":6590,"ĠbemÃ¼":6591,"vas":6592,"Ġnobel":6593,"Ġwash":6594,"iteratur":6595,"Ġergeben":6596,"Ġbewir":6597,"Ġvieler":6598,"Ġlyr":6599,"ĠgÃ¶t":6600,"Ġerlaubt":6601,"zep":6602,"ikon":6603,"Ġmilliarden":6604,"bestand":6605,"spunkt":6606,"Ġunterhalb":6607,"ords":6608,"ĠabkÃ¼rzung":6609,"archiv":6610,"itÃ¤ts":6611,"Ġpn":6612,"Ġflo":6613,"Ġverantwortlich":6614,"oid":6615,"stheorie":6616,"Ġapost":6617,"zz":6618,"Ġimpl":6619,"chner":6620,"Ġtaschen":6621,"ĠzÃ¼ge":6622,"Ġkanada":6623,"heiratet":6624,"Ġscheiter":6625,"Ġerhoben":6626,"Ġwu":6627,"ĠgemÃ¤lde":6628,"Ġschwarze":6629,"Ġhaft":6630,"mittelt":6631,"achstum":6632,"Ã¤ter":6633,"Ġoffenbar":6634,"Ġleichtathl":6635,"umin":6636,"anstalt":6637,"Ġarnold":6638,"ĠnÃ¶t":6639,"Ġmars":6640,"ĠÃ¼":6641,"Ġrin":6642,"Ġerhielten":6643,"Ġsitze":6644,"Ġbehaup":6645,"ringer":6646,"anke":6647,"idenz":6648,"ĠanlÃ¤sslich":6649,"Ġbooks":6650,"alb":6651,"azin":6652,"Ġsalzburg":6653,"rick":6654,"Ġnar":6655,"Ġbrut":6656,"hofen":6657,"Ã¼ssen":6658,"Ġabl":6659,"Ġbedeut":6660,"Ġschaffen":6661,"Ġvaters":6662,"istin":6663,"Ġanhand":6664,"Ġfrequenz":6665,"Ġvit":6666,"freiheit":6667,"Ġkristall":6668,"Ġroh":6669,"rochen":6670,"Ġsech":6671,"Ġflucht":6672,"Ġluxemburg":6673,"Ġtsch":6674,"erer":6675,"Ġaustralien":6676,"stufe":6677,"Ġlebten":6678,"Ġmenschlichen":6679,"Ġgewerbe":6680,"Ġlind":6681,"isierten":6682,"Ġkommer":6683,"Ġcre":6684,"usalem":6685,"Ġhistorisch":6686,"Ġsimon":6687,"Ġerzeugt":6688,"Ġmerkmale":6689,"Ġbieten":6690,"ĠweiÃŁe":6691,"wissenschaften":6692,"Ġsprechen":6693,"ĠmilitÃ¤rischen":6694,"rÃ¤cht":6695,"Ġfremd":6696,"Ġvielzahl":6697,"bedingungen":6698,"hten":6699,"ĠÃ¤hnliche":6700,"Ġgriff":6701,"Ġact":6702,"Ã¤b":6703,"ingu":6704,"wn":6705,"Ġstan":6706,"kes":6707,"Ġnormal":6708,"Ġschiffe":6709,"Ġskla":6710,"Ġhugo":6711,"Ġvulkan":6712,"mut":6713,"ĠÃ¼bergang":6714,"eiteten":6715,"worfen":6716,"Ġvorwiegend":6717,"Ġproduziert":6718,"orgen":6719,"Ġstaatliche":6720,"Ġwinkel":6721,"altete":6722,"ota":6723,"ĠthÃ¼ringen":6724,"ji":6725,"Ġdet":6726,"Ġangelegt":6727,"Ġerwer":6728,"Ġstich":6729,"Ġstudierte":6730,"Ġweltkriegs":6731,"ĠgewÃ¶hn":6732,"Ġideen":6733,"Ġnorwegen":6734,"Ġmitgliedern":6735,"bene":6736,"Ġkongress":6737,"ep":6738,"hÃ¼":6739,"inzip":6740,"Ġpolnischen":6741,"ĠeinschlieÃŁlich":6742,"material":6743,"flÃ¼sse":6744,"ais":6745,"gin":6746,"kanzler":6747,"Ġhistory":6748,"landes":6749,"Ġdampf":6750,"Ġkehrte":6751,"Ġausgestat":6752,"Ġmittele":6753,"Ġorigin":6754,"ĠmÃ¤dchen":6755,"Ġwirtschaftlichen":6756,"ĠkurfÃ¼rst":6757,"geld":6758,"Ġsingle":6759,"dio":6760,"Ġvereinigte":6761,"Ġron":6762,"Ġgesetzt":6763,"ĠmilitÃ¤rische":6764,"Ġmexik":6765,"Ġgewinnen":6766,"arts":6767,"Ġgebrauch":6768,"Ġbalt":6769,"Ġbewe":6770,"rechung":6771,"Ġjud":6772,"Ġdeut":6773,"halter":6774,"finder":6775,"Ġsowjetischen":6776,"Ġresult":6777,"Ġhop":6778,"Ġhas":6779,"modell":6780,"Ġvie":6781,"Ġgriechenland":6782,"Ġwissenschaftlichen":6783,"Ġmid":6784,"Ġkonk":6785,"Ġanhalt":6786,"ĠschlÃ¼ssel":6787,"Ġversehen":6788,"Ġbeat":6789,"Ġkommission":6790,"isk":6791,"Ġbester":6792,"Ġplatt":6793,"ruhe":6794,"ĠtÃ¼bingen":6795,"Ġvarianten":6796,"Ġjens":6797,"Ġbekam":6798,"Ġgottfried":6799,"Ġerwachsen":6800,"Ġprovinzen":6801,"ĠwÃ¼":6802,"Ġcounty":6803,"rik":6804,"ĠnÃ¤m":6805,"ĠoberflÃ¤che":6806,"uert":6807,"Ġwagner":6808,"Ġlibr":6809,"flÃ¼gel":6810,"griffen":6811,"maÃŁen":6812,"ring":6813,"Ġpc":6814,"strecken":6815,"haften":6816,"ĠvergrÃ¶":6817,"Ġgemeinderat":6818,"Ġaufstieg":6819,"ĠhÃ¤user":6820,"Ġmeda":6821,"ĠnÃ¤mlich":6822,"rÃ¤uch":6823,"Ġfestgelegt":6824,"Ġfotograf":6825,"rin":6826,"Ġwerken":6827,"Ġsouth":6828,"Ġenzy":6829,"fÃ¤llen":6830,"reihe":6831,"sender":6832,"Ġmagde":6833,"Ġpho":6834,"Ġausb":6835,"Ġalkohol":6836,"Ġverwenden":6837,"gewÃ¶hn":6838,"Ġwit":6839,"Ġinnere":6840,"Ġgezeigt":6841,"Ġliga":6842,"Ġgelehr":6843,"Ġnachgewiesen":6844,"wahr":6845,"Ġcam":6846,"Ġersatz":6847,"ĠÃ¼bert":6848,"ichteten":6849,"pper":6850,"Ġvielfach":6851,"Ġingenieur":6852,"sbildung":6853,"platten":6854,"Ġaussage":6855,"ey":6856,"uste":6857,"Ġneug":6858,"Ġjerusalem":6859,"Ġdata":6860,"Ġschluss":6861,"pression":6862,"Ġhandlung":6863,"ront":6864,"weiht":6865,"Ġfeuerwehr":6866,"Ġbegeg":6867,"ĠkÃ¼ste":6868,"isieren":6869,"Ġausgezeichnet":6870,"schafter":6871,"gebieten":6872,"griff":6873,"Ġbundesliga":6874,"Ã¤mme":6875,"dauer":6876,"Ġcoll":6877,"Ġquell":6878,"skop":6879,"Ã¤ndler":6880,"stattung":6881,"ĠfÃ¤r":6882,"Ġkoalition":6883,"Ġlebensmittel":6884,"ĠendgÃ¼ltig":6885,"preuÃŁen":6886,"Ġerheblich":6887,"Ġkooper":6888,"Ġursprung":6889,"Ġdol":6890,"Ġschweren":6891,"Ġakzept":6892,"grÃ¶ÃŁe":6893,"urei":6894,"Ġaufstand":6895,"Ġreichstag":6896,"Ġanat":6897,"Ġbogen":6898,"Ġgetrennt":6899,"waffen":6900,"Ġdialekt":6901,"Ġgelb":6902,"erkennung":6903,"Ġwichtigste":6904,"anwalt":6905,"Ġdesign":6906,"Ġtabelle":6907,"ĠsÃ¤u":6908,"innung":6909,"manns":6910,"Ġkapelle":6911,"Ġschwere":6912,"oslaw":6913,"Ġwashington":6914,"Ġbeur":6915,"Ġstab":6916,"Ġzufolge":6917,"aph":6918,"brand":6919,"Ġanalyse":6920,"ax":6921,"kol":6922,"Ġendete":6923,"Ġwandel":6924,"Ġzugeordnet":6925,"Ġbarock":6926,"Ġtraditionell":6927,"etts":6928,"vann":6929,"Ġauszeichnungen":6930,"figur":6931,"Ġgeschicht":6932,"winkel":6933,"Ġgebrau":6934,"unsten":6935,"ado":6936,"Ġheide":6937,"Ġdeutschsprachigen":6938,"Ġeiniger":6939,"Ġbig":6940,"mechan":6941,"plÃ¤tze":6942,"Ġbegriffe":6943,"ĠÃ¶konom":6944,"Ġmaximal":6945,"Ġmoskau":6946,"Ġdun":6947,"ĠÃ¼berein":6948,"ĠermÃ¶glichen":6949,"ĠgroÃŁteil":6950,"formation":6951,"stift":6952,"bell":6953,"Ġbesetzt":6954,"Ġstudio":6955,"ĠÃ¶r":6956,"Ġbahnstrecke":6957,"Ġmeinung":6958,"Ġprivate":6959,"Ġvertrau":6960,"Ġgeomet":6961,"Ġbesucher":6962,"Ġkathar":6963,"mith":6964,"daten":6965,"Ġaz":6966,"hedr":6967,"streit":6968,"Ã¤ub":6969,"ĠselbstÃ¤nd":6970,"viertel":6971,"Ġerkenn":6972,"ietes":6973,"Ġsens":6974,"Ġmichel":6975,"Ġrenn":6976,"Ġmusl":6977,"Ġumgeben":6978,"Ġcambridge":6979,"Ġri":6980,"Ġweber":6981,"karte":6982,"oment":6983,"Ġdarstellen":6984,"heil":6985,"Ġbundesver":6986,"Ġdurchmesser":6987,"Ġoffizier":6988,"bildungs":6989,"ird":6990,"Ġerfolgen":6991,"Ġpolitikerin":6992,"Ġoxford":6993,"Ġfestung":6994,"Ġdenken":6995,"Ġgio":6996,"Ġdemonstr":6997,"ran":6998,"ologischer":6999,"maschine":7000,"Ġbewohner":7001,"ĠvermÃ¶gen":7002,"Ġgeplant":7003,"ismen":7004,"Ġessa":7005,"Ġbuchstaben":7006,"Ġbrasilien":7007,"Ġehemals":7008,"Ġdank":7009,"Ġtrier":7010,"Ġserien":7011,"Ġtheologie":7012,"Ġflu":7013,"Ġnationen":7014,"Ġnahmen":7015,"mÃ¼hle":7016,"schel":7017,"Ġdiesel":7018,"aa":7019,"Ġfernsehserie":7020,"Ġwollen":7021,"Ġlem":7022,"treten":7023,"Ġkrone":7024,"Ġbetriebssystem":7025,"Ġhalbinsel":7026,"Ġweihn":7027,"Ġkugel":7028,"Ġaw":7029,"Ġwun":7030,"Ġcoun":7031,"ĠgetÃ¶":7032,"Ġpak":7033,"Ġadels":7034,"Ġleistungen":7035,"Ġbord":7036,"Ġentwickelten":7037,"Ġwende":7038,"Ġmicro":7039,"Ġhyper":7040,"Ġenerg":7041,"Ġverbind":7042,"stete":7043,"Ġstaatsb":7044,"Ġradik":7045,"Ġpremier":7046,"Ġvergangenheit":7047,"Ġmanchen":7048,"Ġstaates":7049,"Ġvorteil":7050,"Ġaur":7051,"Ġitalienische":7052,"iffer":7053,"Ġherzogtum":7054,"Ġverab":7055,"ret":7056,"hÃ¶rigkeit":7057,"Ġindust":7058,"Ġgedanken":7059,"Ġsekund":7060,"Ġveran":7061,"ziger":7062,"fels":7063,"ĠÃ¼berra":7064,"Ġkonstruktion":7065,"Ġbob":7066,"echnet":7067,"Ġsiedlungs":7068,"Ġspitz":7069,"Ġschneider":7070,"Ġillustr":7071,"ump":7072,"bogen":7073,"iation":7074,"Ġbeschl":7075,"ĠmÃ¶glichkeiten":7076,"Ġbio":7077,"Ġrenaissance":7078,"Ġfleisch":7079,"deutschland":7080,"Ġreinhard":7081,"Ġbevorzug":7082,"Ġorten":7083,"Ġrake":7084,"ernen":7085,"Ġstephan":7086,"alender":7087,"Ġterror":7088,"stoÃŁ":7089,"usen":7090,"Ġjug":7091,"achung":7092,"geblich":7093,"ĠhierfÃ¼r":7094,"Ġpaz":7095,"Ġcorn":7096,"Ġsatell":7097,"vorsitzen":7098,"hÃ¼t":7099,"Ġwege":7100,"Ġwitt":7101,"Ġeinzigen":7102,"aux":7103,"able":7104,"Ġvilla":7105,"ĠzeitgenÃ¶ss":7106,"Ġchinesischen":7107,"Ġbericht":7108,"Ġzentralen":7109,"stÃ¤dte":7110,"Ġverringer":7111,"lowakei":7112,"Ġneubau":7113,"Ġunbekannt":7114,"Ġmagn":7115,"ĠehrenbÃ¼rger":7116,"Ġti":7117,"ĠphÃ¤nomen":7118,"Ġgleiche":7119,"ouverneur":7120,"ĠgewÃ¤sser":7121,"mess":7122,"ĠstrÃ¶m":7123,"Ġfdp":7124,"Ġobjekte":7125,"ĠmÃ¼hl":7126,"kehrt":7127,"Ġchamp":7128,"Ġamerikaner":7129,"zn":7130,"Ġstaatlichen":7131,"Ġinnenstadt":7132,"Ġschil":7133,"systeme":7134,"ĠgerÃ¤te":7135,"sson":7136,"Ġvereinigung":7137,"turm":7138,"Ġverstorben":7139,"Ġtet":7140,"Ġdirigent":7141,"Ġbeeinflusst":7142,"Ã¶nt":7143,"Ġlong":7144,"Ġgleichnamigen":7145,"Ġtiefe":7146,"Ġgregor":7147,"Ġsn":7148,"Ġaktuelle":7149,"bezir":7150,"Ġbelgien":7151,"Ġout":7152,"platte":7153,"ĠkÃ¶lner":7154,"fabrik":7155,"ĠflÃ¼cht":7156,"weist":7157,"kÃ¼ste":7158,"Ġoperation":7159,"temperatur":7160,"Ġkapitel":7161,"Ġgeburtstag":7162,"Ġwichtiger":7163,"Ġod":7164,"ket":7165,"Ġaachen":7166,"Ġinstall":7167,"cer":7168,"Ġbruch":7169,"Ġtestament":7170,"Ġszene":7171,"ichert":7172,"herren":7173,"Ġwm":7174,"Ġadmin":7175,"baus":7176,"con":7177,"Ġprodukte":7178,"ĠgegrÃ¼ndete":7179,"omer":7180,"offiz":7181,"ila":7182,"Ġkomponen":7183,"Ġhandbuch":7184,"Ġhl":7185,"fakt":7186,"Ġknoten":7187,"Ġkatal":7188,"ĠerklÃ¤rung":7189,"Ġkombination":7190,"Ġdb":7191,"Ġruf":7192,"Ġrohr":7193,"Ġgelegenen":7194,"Ġelektronen":7195,"ieter":7196,"Ġabd":7197,"anzig":7198,"cia":7199,"Ġstau":7200,"auffÃ¼hrung":7201,"Ġzusatz":7202,"Ġkonflik":7203,"Ġbislang":7204,"Ġprote":7205,"Ġdynam":7206,"eise":7207,"Ġbenedikt":7208,"Ġgewerk":7209,"Ġcarol":7210,"Ġausgehen":7211,"Ġbesonderen":7212,"Ġkunden":7213,"Ġfeind":7214,"Ġleich":7215,"Ġopposition":7216,"Ã¶sen":7217,"ktar":7218,"Ã¤mter":7219,"Ġdemnach":7220,"Ġerforderlich":7221,"Ġvel":7222,"pat":7223,"Ġrussischer":7224,"Ġfakult":7225,"artigen":7226,"Ġnam":7227,"Ġnachweis":7228,"Ġcha":7229,"Ġkontinent":7230,"oden":7231,"ĠfÃ¶rderung":7232,"Ġerfolge":7233,"Ġsebast":7234,"sv":7235,"sheim":7236,"Ġeinzug":7237,"ging":7238,"schiffe":7239,"Ġnass":7240,"Ġzweier":7241,"Ġkontinu":7242,"Ġlebt":7243,"Ġentwickeln":7244,"gener":7245,"Ġbelast":7246,"Ġabteilung":7247,"Ġhoriz":7248,"Ġsanta":7249,"Ġsir":7250,"Ġmangel":7251,"Ġration":7252,"ĠerhÃ¶ht":7253,"stechnik":7254,"schi":7255,"ĠzustÃ¤ndig":7256,"Ġpropag":7257,"Ġfassung":7258,"setzte":7259,"Ġmount":7260,"denz":7261,"Ġbesatzungs":7262,"ader":7263,"Ġorganisationen":7264,"Ġmelod":7265,"Ġpir":7266,"Ã¶rdert":7267,"Ġentfernung":7268,"Ġbuddh":7269,"Ġtraf":7270,"Ġkalk":7271,"bilder":7272,"Ġsegel":7273,"eton":7274,"Ġschnee":7275,"maschinen":7276,"Ġkiel":7277,"gefÃ¼":7278,"Ġspitzen":7279,"Ġgestalt":7280,"ĠzusÃ¤tzliche":7281,"Ġari":7282,"orph":7283,"Ġlandkreises":7284,"ohn":7285,"Ġshe":7286,"Ġurteil":7287,"Ġnikolaus":7288,"kreise":7289,"Ġablehn":7290,"graben":7291,"opt":7292,"Ġfla":7293,"yne":7294,"waff":7295,"Ġzimmer":7296,"Ġbetracht":7297,"teilungen":7298,"Ġful":7299,"tex":7300,"Ġkurzen":7301,"Ġhilfs":7302,"Ġoze":7303,"ieger":7304,"Ġdelt":7305,"Ġleucht":7306,"ĠverÃ¶ffentlichung":7307,"Ġlokal":7308,"Ġmaschine":7309,"Ġweshalb":7310,"Ġverstanden":7311,"edig":7312,"ulpt":7313,"Ġgebiets":7314,"Ġsz":7315,"Ġbeherr":7316,"Ġmak":7317,"ĠgÃ¼nter":7318,"Ġindex":7319,"steile":7320,"Ġdortmund":7321,"Ġbehandelt":7322,"Ġletztlich":7323,"ĠtÃ¶chter":7324,"Ġeinzu":7325,"Ġsturm":7326,"ikum":7327,"geschicht":7328,"opÃ¤d":7329,"Ġpferde":7330,"Ġparad":7331,"Ġfalls":7332,"ĠbefÃ¼r":7333,"ban":7334,"Ġedel":7335,"Ã¤umen":7336,"Ġberichtet":7337,"gem":7338,"Ġmexiko":7339,"pal":7340,"Ġaufgebaut":7341,"ĠÃ¼blicherweise":7342,"opol":7343,"gment":7344,"ozi":7345,"Ġnannte":7346,"Ġneustadt":7347,"aker":7348,"Ġjon":7349,"ĠtÃ¼rkei":7350,"Ġtisch":7351,"ilen":7352,"ĠverÃ¤nderungen":7353,"Ġwichtigen":7354,"Ġjapanischen":7355,"Ġmg":7356,"orient":7357,"Ġstrukturen":7358,"Ġverlags":7359,"karten":7360,"mir":7361,"stÃ¤nden":7362,"Ġpel":7363,"anga":7364,"ĠfrÃ¤nk":7365,"splatz":7366,"Ġprotestant":7367,"Ġsak":7368,"Ġmex":7369,"ronen":7370,"Ġrepubl":7371,"Ġbier":7372,"Ġeingang":7373,"strahlung":7374,"urer":7375,"Ġnsd":7376,"ĠrÃ¼cken":7377,"Ġseen":7378,"Ġmodelle":7379,"Ġdiskut":7380,"yk":7381,"Ġverwendeten":7382,"Ġziele":7383,"Ġpin":7384,"Ġeurope":7385,"Ġvenedig":7386,"rische":7387,"emit":7388,"Ã¤rten":7389,"ĠverÃ¤ndert":7390,"Ġleo":7391,"Ġanalog":7392,"Ã¤ngnis":7393,"Ġweltkrieges":7394,"Ġschwa":7395,"Ġheilige":7396,"Ġamerika":7397,"kle":7398,"Ġbrach":7399,"Ġaufmerk":7400,"schafts":7401,"mitglied":7402,"Ġbgb":7403,"Ġantiken":7404,"ague":7405,"Ã¤ndische":7406,"Ġmah":7407,"Ġviet":7408,"Ġois":7409,"Ã¤ste":7410,"Ġchristus":7411,"Ġirak":7412,"Ġgreen":7413,"Ġgraph":7414,"ĠgrÃ¶ÃŁen":7415,"Ġbildeten":7416,"Ġral":7417,"Ġenger":7418,"Ġeinwohnerzahl":7419,"Ġmuster":7420,"Ġziehen":7421,"Ġmonaten":7422,"ĠschÃ¤tz":7423,"verbindungen":7424,"grenzung":7425,"tlichen":7426,"einheiten":7427,"Ġpng":7428,"Ġaugsburg":7429,"Ġrekonstru":7430,"Ġjacques":7431,"Ġaufent":7432,"eigung":7433,"Ġzucker":7434,"Ġbezieht":7435,"Ġrennen":7436,"Ġgeringen":7437,"Ġpfarrer":7438,"Ġvielmehr":7439,"Ġexperi":7440,"Ġdos":7441,"Ġdietrich":7442,"nÃ¼":7443,"volle":7444,"rischen":7445,"ĠbÃ¼hnen":7446,"ĠlÃ¶wen":7447,"uc":7448,"Ġexpedition":7449,"ĠgrÃ¼ne":7450,"Ġrollen":7451,"Ġboot":7452,"ĠbÃ¶hm":7453,"Ġkz":7454,"Ã¤h":7455,"Ġasien":7456,"ĠspÃ¤te":7457,"auftra":7458,"ĠgÃ¼nst":7459,"Ġstol":7460,"besch":7461,"sÃ¤chs":7462,"Ġalp":7463,"Ġharmon":7464,"ĠfÃ¤hr":7465,"Ġweite":7466,"ĠbÃ¼ndnis":7467,"fahrzeug":7468,"aufnahme":7469,"antas":7470,"Ġtelefon":7471,"Ġschwerpunkt":7472,"Ġtrotzdem":7473,"Ġanerkannt":7474,"Ġproduktions":7475,"ĠkÃ¶nnten":7476,"Ġdichte":7477,"Ġepis":7478,"ĠbestÃ¤tigt":7479,"Ġtypische":7480,"fertigt":7481,"wellen":7482,"Ġdivision":7483,"Ġmineral":7484,"zung":7485,"mes":7486,"Ġlandtag":7487,"Ġverheiratet":7488,"dy":7489,"klar":7490,"Ġehefrau":7491,"Ġermor":7492,"Ġlast":7493,"Ã¤chte":7494,"Ġpflege":7495,"Ġtraditionellen":7496,"zens":7497,"schnitte":7498,"Ġlein":7499,"Ġcur":7500,"ĠverstÃ¤rkt":7501,"Ġheb":7502,"Ġleib":7503,"Ġbinnen":7504,"Ġzugang":7505,"abge":7506,"Ġmodern":7507,"Ġgekommen":7508,"Ġaussagen":7509,"Ġelektrische":7510,"Ġeinfache":7511,"Ġkennzeichen":7512,"Ġkommerzie":7513,"abt":7514,"Ġhill":7515,"Ġgoethe":7516,"ĠbrÃ¼cken":7517,"Ġnsdap":7518,"agne":7519,"Ġevent":7520,"Ġdia":7521,"Ġanerkennung":7522,"gerÃ¤t":7523,"Ġarts":7524,"Ã¶stlich":7525,"Ġwehrmacht":7526,"Ġbeschlossen":7527,"Ġfenster":7528,"ĠrÃ¼":7529,"Ġfraktion":7530,"Ġbezeichnungen":7531,"Ġerrichtete":7532,"Ġlife":7533,"Ġdissert":7534,"Ġfro":7535,"welle":7536,"Ġhalte":7537,"pass":7538,"schauspieler":7539,"Ġjh":7540,"Ġsuche":7541,"Ġsamen":7542,"imir":7543,"Ġbenz":7544,"Ġover":7545,"apel":7546,"Ġdopp":7547,"Ġkleineren":7548,"Ġsoph":7549,"andelt":7550,"Ġklassische":7551,"Ġvill":7552,"Ġbod":7553,"wegs":7554,"Ġvertrieben":7555,"historiker":7556,"Ġgemessen":7557,"jÃ¤hrige":7558,"Ġanger":7559,"Ġgebunden":7560,"Ġteilchen":7561,"mÃ¶glichkeiten":7562,"Ġpublikum":7563,"sem":7564,"Ġskand":7565,"Ġufer":7566,"Ġgoldenen":7567,"Ġanst":7568,"Ġkamp":7569,"direkt":7570,"Ġlieb":7571,"Ġlizenz":7572,"bal":7573,"Ġbesetzung":7574,"Ġfestival":7575,"Ġbegannen":7576,"rix":7577,"ops":7578,"Ġpublic":7579,"cul":7580,"ftet":7581,"ĠwÃ¼rzburg":7582,"ĠgegrÃ¼ndeten":7583,"wÃ¤l":7584,"Ġbakter":7585,"ĠangehÃ¶r":7586,"inett":7587,"feren":7588,"ĠjÃ¼ng":7589,"Ġeigenes":7590,"Ġfranzosen":7591,"ati":7592,"Ġshow":7593,"Ġendet":7594,"Ġkomposition":7595,"ĠgewÃ¤hl":7596,"Ġinformations":7597,"essin":7598,"Ġbedarf":7599,"ĠnatÃ¼rlichen":7600,"wall":7601,"Ġgolf":7602,"Ġmaster":7603,"feuer":7604,"Ġreligions":7605,"demokrat":7606,"Ġscheint":7607,"riger":7608,"Ġrol":7609,"lieb":7610,"endo":7611,"Ġjustiz":7612,"Ġenter":7613,"onien":7614,"mittlung":7615,"Ġkrimin":7616,"sens":7617,"ilde":7618,"Ġlitt":7619,"Ġpositiv":7620,"luft":7621,"verhÃ¤ltnis":7622,"phil":7623,"stoffen":7624,"ĠnatÃ¼rliche":7625,"ĠniederlÃ¤ndischer":7626,"itation":7627,"ĠbÃ¶r":7628,"Ġhub":7629,"Ġpres":7630,"Ġsagen":7631,"ez":7632,"Ġsmith":7633,"leistungen":7634,"zustand":7635,"ĠÃ¤qu":7636,"zeitung":7637,"Ġdunkel":7638,"Ġvergeben":7639,"Ġkost":7640,"zeichnis":7641,"bol":7642,"Ġdikt":7643,"Ġangl":7644,"Ġseel":7645,"rock":7646,"Ġoffiziellen":7647,"Ġbezogen":7648,"got":7649,"deln":7650,"Ġverdienst":7651,"Ġfiction":7652,"Ġstal":7653,"ĠschlieÃŁen":7654,"datum":7655,"Ġadd":7656,"achte":7657,"Ġbibliothe":7658,"Ġsender":7659,"Ġpfarrkirche":7660,"ĠvergrÃ¶ÃŁer":7661,"Ġlagen":7662,"Ġlogo":7663,"Ġwechselte":7664,"Ġwalt":7665,"ĠkÃ¤":7666,"iw":7667,"Ġanmerkungen":7668,"ĠÃ¼berleben":7669,"darsteller":7670,"Ġangeschlossen":7671,"ĠausgefÃ¼hrt":7672,"Ġfoss":7673,"gien":7674,"Ġgrim":7675,"Ġtirol":7676,"Ġmanagement":7677,"Ġbestimmen":7678,"schla":7679,"sc":7680,"Ġchin":7681,"utete":7682,"Ġtennis":7683,"Ġweibchen":7684,"steine":7685,"utn":7686,"Ġsetzen":7687,"Ġmilch":7688,"pd":7689,"Ã¶ch":7690,"weiler":7691,"ammern":7692,"Ġfass":7693,"Ġmuseen":7694,"Ġbestehenden":7695,"Ġmari":7696,"Ġschauspiel":7697,"Ġmay":7698,"Ġmongol":7699,"Ġursache":7700,"ĠuniversitÃ¤ten":7701,"Ġkreises":7702,"analyse":7703,"Ġgg":7704,"Ġeigentlichen":7705,"Ġerinnert":7706,"Ġminim":7707,"ĠverbÃ¼n":7708,"Ġbeeinflus":7709,"ĠdreiÃŁig":7710,"wies":7711,"Ġgang":7712,"Ġwasserstoff":7713,"kirch":7714,"spur":7715,"Ġzeitweise":7716,"ÃŁte":7717,"Ġlegend":7718,"mas":7719,"ĠbeschÃ¤ftigt":7720,"Ġwhite":7721,"ĠkrÃ¤fte":7722,"pla":7723,"Ġoscar":7724,"Ã¶die":7725,"Ġok":7726,"erien":7727,"Ġzellen":7728,"oko":7729,"Ġarabischen":7730,"Ġbrig":7731,"Ġlaw":7732,"Ġkomplett":7733,"ĠverlieÃŁ":7734,"Ġkatholischer":7735,"Ġsog":7736,"hmann":7737,"uell":7738,"Ġkroat":7739,"Ġalternative":7740,"Ġgeschichts":7741,"Ġkonse":7742,"Ġanwendungen":7743,"Ġjesus":7744,"ĠbehÃ¶rden":7745,"Ġschar":7746,"quenzen":7747,"lleg":7748,"Ġhttp":7749,"mor":7750,"hersteller":7751,"Ġliv":7752,"ash":7753,"Ġkohlenstoff":7754,"Ġlandschafts":7755,"ific":7756,"Ġmuseums":7757,"Ġgenehm":7758,"Ġhigh":7759,"Ġgesang":7760,"ĠmÃ¶gliche":7761,"Ġargument":7762,"entin":7763,"ĠmÃ¤":7764,"Ġoxid":7765,"Ġmord":7766,"ameter":7767,"ards":7768,"Ġkw":7769,"Ġwahrnehm":7770,"sprozess":7771,"rÃ¼stung":7772,"skon":7773,"Ġgesetze":7774,"Ġkatastrop":7775,"rÃ¤gen":7776,"Ġip":7777,"Ġbekanntesten":7778,"Ġspanische":7779,"iod":7780,"Ġgeschichten":7781,"Ġdelta":7782,"tend":7783,"Ġll":7784,"pert":7785,"Ġacademy":7786,"Ġumgangs":7787,"Ġwahlen":7788,"spir":7789,"Ġhochschul":7790,"Ġplaneten":7791,"ĠerÃ¶ffnung":7792,"ĠÃ¼berzeug":7793,"stÃ¤rke":7794,"rates":7795,"Ġeroberung":7796,"Ġgerecht":7797,"skl":7798,"Ġsolcher":7799,"soft":7800,"Ġkaliforn":7801,"Ġsichtbar":7802,"ĠpÃ¤":7803,"Ġunited":7804,"ito":7805,"Ġgrau":7806,"ĠverknÃ¼":7807,"Ġvermehr":7808,"Ġmeyer":7809,"maÃŁnahmen":7810,"fuÃŁ":7811,"empf":7812,"auber":7813,"lichem":7814,"ĠjÃ¤ger":7815,"Ġoberl":7816,"ĠgetÃ¶tet":7817,"Ġpur":7818,"Ġkul":7819,"isen":7820,"orea":7821,"schritt":7822,"stamm":7823,"Ã¤ume":7824,"Ġgetragen":7825,"Ġunterricht":7826,"Ġclaud":7827,"ementen":7828,"Ġvirtu":7829,"Ġhad":7830,"Ġgir":7831,"Ġweser":7832,"Ġadler":7833,"Ġwesen":7834,"Ġbauten":7835,"Ġabsolv":7836,"Ġbam":7837,"schten":7838,"Ġtok":7839,"Ġclass":7840,"oberflÃ¤che":7841,"cel":7842,"Ġkrim":7843,"Ġpred":7844,"mag":7845,"Ġstaffel":7846,"Ġvollen":7847,"ĠmÃ¼ndung":7848,"Ġfestge":7849,"gerÃ¤te":7850,"Ġspren":7851,"position":7852,"Ġpraktisch":7853,"tret":7854,"Ġarchitekten":7855,"aw":7856,"metho":7857,"Ġfirmen":7858,"Ġgeschw":7859,"Ġdeck":7860,"Ġplay":7861,"instit":7862,"Ġklang":7863,"schild":7864,"Ġanim":7865,"Ġgesetzes":7866,"ky":7867,"rus":7868,"Ġbast":7869,"rev":7870,"Ġausgetragen":7871,"Ġadl":7872,"rachten":7873,"Ġmarsch":7874,"Ġoberhalb":7875,"Ġdisziplin":7876,"vern":7877,"Ġdarstellt":7878,"Ġny":7879,"Ġell":7880,"Ġheeres":7881,"ysik":7882,"Ġdemokratie":7883,"Ġleague":7884,"Ã¶rg":7885,"Ġverlegt":7886,"Ġzusammenh":7887,"fragen":7888,"Ġverbindet":7889,"Ġbeschleun":7890,"arat":7891,"ĠÃ¼bersetzer":7892,"aute":7893,"Ġzeug":7894,"ĠstraÃŁenbahn":7895,"Ã¶ger":7896,"Ġverlang":7897,"Ġexil":7898,"literatur":7899,"ĠlieÃŁen":7900,"Ġalpha":7901,"sal":7902,"Ġwith":7903,"fÃ¤llig":7904,"Ġreformation":7905,"Ġhorizont":7906,"Ġnon":7907,"Ġbundeswehr":7908,"spannung":7909,"Ġdissertation":7910,"Ġmittlere":7911,"Ġnationalpark":7912,"Ġcaes":7913,"Ġnapoleon":7914,"Ġumbenannt":7915,"iziner":7916,"Ġbyzantin":7917,"Ġverschl":7918,"Ġlinke":7919,"Ġpy":7920,"lar":7921,"Ġdown":7922,"Ġkredit":7923,"mÃ¤ler":7924,"Ġbisherigen":7925,"Ġweiterleitung":7926,"Ġruhe":7927,"Ġsebastian":7928,"ional":7929,"Ġlis":7930,"angriff":7931,"rÃ¼cken":7932,"jan":7933,"ĠgefÃ¤":7934,"com":7935,"Ġaufgestellt":7936,"arme":7937,"Ã¼nden":7938,"Ġtrennung":7939,"xid":7940,"zwe":7941,"uld":7942,"ĠmÃ¤cht":7943,"Ġschmer":7944,"ju":7945,"Ġdirektor":7946,"Ġslow":7947,"Ġjem":7948,"Ġalben":7949,"Ġcop":7950,"Ġsubjekt":7951,"Ġintensiv":7952,"Ġvereine":7953,"Ġleer":7954,"Ġschicht":7955,"vens":7956,"Ġformat":7957,"Ġabgeordneten":7958,"grÃ¤":7959,"sprecher":7960,"Ġoftmals":7961,"Ġgeneration":7962,"verbindung":7963,"sÃ¤ure":7964,"Ġentwurf":7965,"Ġmary":7966,"bauer":7967,"oben":7968,"Ġjugoslaw":7969,"Ġchemiker":7970,"Ġbrasilian":7971,"Ġbundesstaat":7972,"bereiche":7973,"Ġschie":7974,"uhr":7975,"sekretÃ¤r":7976,"Ġcos":7977,"Ġreisen":7978,"freie":7979,"Ġdirekte":7980,"Ġspanischer":7981,"Ġbehin":7982,"Ġpolar":7983,"veranst":7984,"Ġgleicher":7985,"linder":7986,"ĠbeschÃ¤d":7987,"ĠursprÃ¼ngliche":7988,"Ġlee":7989,"Ġlob":7990,"Ġkun":7991,"Ġhektar":7992,"Ġknochen":7993,"Ġgiovann":7994,"krÃ¤":7995,"musiker":7996,"rennfahrer":7997,"mern":7998,"anc":7999,"denkmal":8000,"sprÃ¼che":8001,"ĠanschlieÃŁen":8002,"Ġaktuellen":8003,"Ġinitiative":8004,"Ġnetzwerk":8005,"Ġeinrichtung":8006,"Ġanthrop":8007,"ido":8008,"Ġneckar":8009,"bibliothek":8010,"Ġviell":8011,"Ġlock":8012,"utzung":8013,"version":8014,"Ġdamalige":8015,"Ġhaltung":8016,"vater":8017,"Ġforderte":8018,"fries":8019,"Ġdurchaus":8020,"leute":8021,"Ã¤tzt":8022,"oiden":8023,"anischer":8024,"farben":8025,"Ġibn":8026,"ĠpalÃ¤st":8027,"Ġce":8028,"itus":8029,"Ġgekenn":8030,"gu":8031,"Ġzwer":8032,"Ġhinein":8033,"azitÃ¤t":8034,"Ġausgestattet":8035,"ĠkÃ¶nige":8036,"iktor":8037,"Ġnachfolge":8038,"Ġpatent":8039,"Ġausgew":8040,"Ġstimme":8041,"Ġromant":8042,"Ġeberhard":8043,"ĠansÃ¤ss":8044,"ĠurauffÃ¼hrung":8045,"pfung":8046,"Ġbereichen":8047,"Ġrap":8048,"kanal":8049,"ista":8050,"bÃ¼rgermeister":8051,"rechnung":8052,"systems":8053,"Ġschied":8054,"Ġfinale":8055,"Ġauffassung":8056,"Ġchef":8057,"Ġvielleicht":8058,"hart":8059,"ieht":8060,"Ġgod":8061,"Ġprivaten":8062,"Ġantrieb":8063,"kÃ¤mpf":8064,"Ġnordosten":8065,"ĠministerprÃ¤sident":8066,"waffe":8067,"owitsch":8068,"Ġsul":8069,"Ġpast":8070,"vÃ¶":8071,"tl":8072,"Ġmagdeburg":8073,"Ġapoll":8074,"oma":8075,"Ġgewissen":8076,"Ġums":8077,"Ġgriechische":8078,"tritt":8079,"spar":8080,"Ġverurteilt":8081,"ters":8082,"Ġvoneinander":8083,"oli":8084,"Ġpommern":8085,"ny":8086,"gesellschaften":8087,"greifen":8088,"Ġgek":8089,"ĠÃ¤nderung":8090,"Ġhouse":8091,"Ġauftritt":8092,"Ġfamilienname":8093,"fein":8094,"Ġwirkt":8095,"Ġverletz":8096,"ĠmÃ¶glichen":8097,"ĠprimÃ¤r":8098,"Ġhind":8099,"ĠgerÃ¤t":8100,"itur":8101,"Ġbeher":8102,"Ġprogrammier":8103,"ĠfrÃ¼here":8104,"Ġbeteiligten":8105,"Ġzweimal":8106,"Ġverteilung":8107,"Ġtemp":8108,"Ġhenri":8109,"Ġerweiterte":8110,"ĠniederlÃ¤ndischen":8111,"Ġassoc":8112,"mont":8113,"Ġinse":8114,"zeichnen":8115,"Ġverstehen":8116,"Ġverfasste":8117,"Ġfoot":8118,"Ġry":8119,"ĠausgeprÃ¤":8120,"jahren":8121,"Ġkanadischer":8122,"Ġvorstellung":8123,"ava":8124,"Ġwechseln":8125,"Ġschuld":8126,"Ġantonio":8127,"mt":8128,"ĠhÃ¤ngt":8129,"Ġbegrenzt":8130,"ikanischer":8131,"mond":8132,"ĠgrÃ¼ndungs":8133,"Ġabgesch":8134,"Ġbapt":8135,"Ġmusikp":8136,"Ġgrav":8137,"Ġpolnischer":8138,"Ġfelix":8139,"Ġfilms":8140,"Ġpic":8141,"istrat":8142,"Ġfahrt":8143,"Ġfreizeit":8144,"Ġtime":8145,"Ġue":8146,"oder":8147,"Ġbeendet":8148,"riss":8149,"Ġeb":8150,"Ġwunsch":8151,"Ġregensburg":8152,"sprÃ¤sident":8153,"Ġartik":8154,"ged":8155,"Ã¤g":8156,"Ġausgebaut":8157,"quer":8158,"regisseur":8159,"Ġoffenen":8160,"ĠhÃ¼gel":8161,"Ġunterschiede":8162,"Ġevolution":8163,"vereinigung":8164,"Ġcu":8165,"ĠbezÃ¼glich":8166,"Ġblas":8167,"zwungen":8168,"Ġhydro":8169,"Ġfalle":8170,"Ġtunnel":8171,"itis":8172,"finale":8173,"Ġstattfinden":8174,"ifizierung":8175,"orfen":8176,"strÃ¶m":8177,"Ġrussisch":8178,"Ġgeistes":8179,"Ġservice":8180,"rÃ¶":8181,"mÃ¤ÃŁigen":8182,"nitten":8183,"Ġye":8184,"Ã¤cher":8185,"Ġgedichte":8186,"mitglieder":8187,"Ġweimarer":8188,"tert":8189,"Ġsprecher":8190,"Ġveget":8191,"Ġangebot":8192,"Ġtax":8193,"Ã¼ttel":8194,"Ġpassag":8195,"Ġbauer":8196,"Ġni":8197,"otyp":8198,"Ġom":8199,"ĠmÃ¤nnchen":8200,"Ġvergleichs":8201,"orum":8202,"Ġlateinischen":8203,"afel":8204,"Ġfell":8205,"ĠbeschrÃ¤nkt":8206,"vÃ¶lkerung":8207,"Ġenzykl":8208,"ieb":8209,"Ġvereinbar":8210,"Ġgiovanni":8211,"Ġthemat":8212,"Ġsound":8213,"Ġbernd":8214,"Ġexperiment":8215,"Ġsteiger":8216,"Ġgezogen":8217,"verbÃ¤nde":8218,"Ġbestanden":8219,"ĠhÃ¶hepunkt":8220,"Ġfusion":8221,"Ġdramat":8222,"pu":8223,"Ġrab":8224,"heor":8225,"Ġlautet":8226,"Ġabente":8227,"Ġwomit":8228,"Ġchemische":8229,"Ġbaurei":8230,"genossen":8231,"ausstellung":8232,"Ġhoffmann":8233,"Ġeindeutig":8234,"Ġgouverneur":8235,"olen":8236,"Ġxx":8237,"Ġress":8238,"Ġfriedrichs":8239,"ĠbischÃ¶":8240,"bezeichnung":8241,"gi":8242,"Ġbestehende":8243,"Ġaufnahmen":8244,"Ġsenat":8245,"Ġuntersucht":8246,"Ġpotsd":8247,"ĠhÃ¤r":8248,"frieden":8249,"ĠbÃ¶hmen":8250,"orb":8251,"prÃ¼":8252,"Ġangep":8253,"Ġchristliche":8254,"Ġtherapie":8255,"ĠgÃ¼nther":8256,"Ġgestaltung":8257,"Ġkonvention":8258,"utzen":8259,"Ġech":8260,"losigkeit":8261,"Ġwirkungs":8262,"ato":8263,"Ġkurs":8264,"Ġseele":8265,"Ġeinfachen":8266,"Ġgesundheits":8267,"ska":8268,"Ġkathedr":8269,"Ġacker":8270,"Ġversicher":8271,"zugs":8272,"Ġerlaub":8273,"zunehmen":8274,"bers":8275,"Ġverbot":8276,"werten":8277,"Ġeig":8278,"Ġabgerufen":8279,"Ġerweiterung":8280,"Ġgeeignet":8281,"ants":8282,"Ġbefind":8283,"Ġpion":8284,"Ġbedingt":8285,"Ġschienen":8286,"Ġstammes":8287,"Ã¤le":8288,"skr":8289,"Ġniederlanden":8290,"Ġreduziert":8291,"Ġwunder":8292,"Ġtreu":8293,"ausschuss":8294,"Ġatmo":8295,"Ġablauf":8296,"Ġvog":8297,"Ġorganisiert":8298,"Ġalternativ":8299,"Ġzusammengefasst":8300,"Ġangeblich":8301,"rill":8302,"ikaner":8303,"prozess":8304,"Ġnamensgeber":8305,"ĠsÃ¼dwesten":8306,"Ġschlei":8307,"Ġlokomot":8308,"artikel":8309,"Ġeinkommen":8310,"illon":8311,"Ġneutr":8312,"Ġvii":8313,"Ġinstitute":8314,"Ġgefol":8315,"Ġanforderungen":8316,"brie":8317,"Ġbrunnen":8318,"Ġtan":8319,"Ġbibl":8320,"Ġrunde":8321,"okoll":8322,"Ġbun":8323,"Ġoh":8324,"Ġphasen":8325,"Ġwettbewerb":8326,"Ġscher":8327,"hÃ¶fe":8328,"Ġriesen":8329,"strafe":8330,"eitern":8331,"Ġskulpt":8332,"icherheit":8333,"Ġbibli":8334,"ĠgebrÃ¤uch":8335,"Ġangewand":8336,"Ġneuse":8337,"Ġfab":8338,"Ġclau":8339,"Ġtageb":8340,"ando":8341,"Ġmittelmeer":8342,"Ġsendung":8343,"Ġdiagn":8344,"Ġversionen":8345,"pap":8346,"dlich":8347,"Ġgegenstand":8348,"Ġlaur":8349,"bran":8350,"Ġkonkurrenz":8351,"Ġgoldene":8352,"Ã¤fte":8353,"Ã¼nde":8354,"vollen":8355,"ĠaktivitÃ¤ten":8356,"Ġchic":8357,"Ġschreibt":8358,"Ġverleger":8359,"ĠbesaÃŁ":8360,"Ġalf":8361,"tor":8362,"Ġphysi":8363,"ĠbegrÃ¼ndet":8364,"Ġbestimmung":8365,"ĠÃ¤nderungen":8366,"ĠmÃ¤rchen":8367,"Ġdiff":8368,"Ġjapanischer":8369,"Ġwat":8370,"ardo":8371,"Ġamtszeit":8372,"ierend":8373,"ĠschwÃ¤b":8374,"urb":8375,"Ġfoto":8376,"Ġdm":8377,"Ġdreieck":8378,"Ġschum":8379,"besitz":8380,"uropÃ¤":8381,"Ġeigener":8382,"Ġsiz":8383,"ialen":8384,"Ġyou":8385,"Ġkomponisten":8386,"cus":8387,"iste":8388,"Ġsterne":8389,"Ġvekt":8390,"Ġgrafik":8391,"Ġausgaben":8392,"ĠverÃ¶ffentlichungen":8393,"Ġabbildung":8394,"Ġwiederher":8395,"bevÃ¶lkerung":8396,"Ġwahrheit":8397,"Ġumlauf":8398,"Ġverhandlungen":8399,"wein":8400,"phase":8401,"llung":8402,"gehalt":8403,"Ġflach":8404,"Ġkommunalwahl":8405,"mol":8406,"Ġpolnische":8407,"Ġlaufen":8408,"Ġalphab":8409,"Ġmarkus":8410,"Ġjapanische":8411,"Ġverteidigung":8412,"Ġortschaft":8413,"Ã¼tze":8414,"Ġgeistlicher":8415,"tums":8416,"Ġsciences":8417,"demie":8418,"Ġplanung":8419,"fahrens":8420,"Ġnordwesten":8421,"ĠÃ¼bersicht":8422,"Ġengag":8423,"Ġbenachbarten":8424,"Ġhamm":8425,"zÃ¤hlung":8426,"Ġrezeption":8427,"ĠkÃ¼nste":8428,"Ġumfasste":8429,"marsch":8430,"Ġauswirkungen":8431,"Ġries":8432,"lÃ¶":8433,"Ġflotte":8434,"Ġnaz":8435,"ammer":8436,"Ġpotent":8437,"Ġalliierten":8438,"jenigen":8439,"Ġverpflichtet":8440,"Ġfikt":8441,"Ġeid":8442,"Ġglaubens":8443,"Ġwissenschaftler":8444,"rium":8445,"medizin":8446,"lÃ¶sung":8447,"weiten":8448,"ĠsÃ¤mtliche":8449,"atorium":8450,"Ġschool":8451,"hold":8452,"Ġkel":8453,"Ġtraum":8454,"Ġnordamerika":8455,"lagert":8456,"fÃ¤hig":8457,"Ġpunkten":8458,"ĠpÃ¤dagog":8459,"Ġmethod":8460,"Ġhandelte":8461,"ĠgÃ¶r":8462,"ope":8463,"Ġrainer":8464,"Ġkrieger":8465,"Ġereignis":8466,"Ġras":8467,"iveau":8468,"ador":8469,"Ġkontext":8470,"Ġlett":8471,"Ġspuren":8472,"pflanzen":8473,"Ġerfinder":8474,"Ġearl":8475,"Ġmehrerer":8476,"versicherung":8477,"arischen":8478,"ĠaufgefÃ¼hrt":8479,"Ġwoche":8480,"ĠgÃ¶tter":8481,"Ġtraten":8482,"Ġath":8483,"quart":8484,"sÃ¤nger":8485,"zusetzen":8486,"jekten":8487,"Ġerre":8488,"ometern":8489,"Ġhinsichtlich":8490,"ĠÃ¤uÃŁeren":8491,"ack":8492,"ĠÃ¤t":8493,"Ġhob":8494,"ĠgroÃŁherzog":8495,"Ġschiffs":8496,"Ġbesie":8497,"Ġperspekt":8498,"Ġniedriger":8499,"Ġgegenseit":8500,"anb":8501,"Ġniederschlag":8502,"Ġerrichtung":8503,"etto":8504,"macher":8505,"Ġmoll":8506,"Ġpolitischer":8507,"roph":8508,"Ġleitet":8509,"Ã¤tt":8510,"Ġevangelischer":8511,"Ġlink":8512,"stes":8513,"kloster":8514,"Ġpower":8515,"Ġserver":8516,"Ġski":8517,"Ġpader":8518,"Ġped":8519,"Ġschuf":8520,"Ġbezahl":8521,"Ġmittelpunkt":8522,"Ġoldenburg":8523,"Ġcup":8524,"Ġwillen":8525,"Ġspeziellen":8526,"Ġkarlsruhe":8527,"eder":8528,"Ã¤ufe":8529,"Ġherausgeber":8530,"Ġhild":8531,"Ġansatz":8532,"Ġblockiert":8533,"onia":8534,"Ġseither":8535,"Ġfrancisco":8536,"wanderung":8537,"sinn":8538,"laub":8539,"Ġpariser":8540,"Ġabb":8541,"Ġchristi":8542,"stuhl":8543,"ĠÃ¼bertragung":8544,"Ġfrance":8545,"wirken":8546,"Ġaktuell":8547,"Ġhung":8548,"Ġts":8549,"mitte":8550,"Ġgemisch":8551,"Ġchristentum":8552,"Ġgelegene":8553,"Ġtherm":8554,"ĠfÃ¶der":8555,"Ġbeider":8556,"Ġwahrscheinlichkeit":8557,"teilte":8558,"Ġdokumentation":8559,"runde":8560,"ĠstraÃŁ":8561,"Ġgroup":8562,"ckte":8563,"Ġentschied":8564,"ĠlÃ¶ste":8565,"Ġtieren":8566,"holm":8567,"Ġpianist":8568,"auss":8569,"Ġversuche":8570,"ĠerÃ¶ffnete":8571,"Ġfunde":8572,"Ġfix":8573,"Ġtiefen":8574,"Ġbasket":8575,"Ġfertiggestellt":8576,"ĠreligiÃ¶sen":8577,"Ġsofern":8578,"Ġverbrau":8579,"ĠostpreuÃŁen":8580,"litz":8581,"Ġweihnacht":8582,"Ġrasch":8583,"inten":8584,"Ġbruno":8585,"Ġauseinandersetzungen":8586,"lÃ¤nder":8587,"gegangen":8588,"onom":8589,"Ġnahrung":8590,"angeb":8591,"Ġnan":8592,"Ġbasil":8593,"Ġkritisiert":8594,"Ġsamuel":8595,"ĠstÃ¤rke":8596,"Ġzugelassen":8597,"Ġresidenz":8598,"pflanz":8599,"Ġwiederholt":8600,"Ġbereiche":8601,"Ġelektrischen":8602,"Ġbarbara":8603,"Ġentdeckung":8604,"Ġverehr":8605,"ĠeigenstÃ¤ndige":8606,"Ġspec":8607,"Ġnegativ":8608,"Ġchrom":8609,"grafen":8610,"Ġgeblieben":8611,"Ġverdr":8612,"Ġrettungs":8613,"unen":8614,"Ġfalsch":8615,"ipl":8616,"Ġcob":8617,"Ġkem":8618,"Ġalumin":8619,"Ġdigitalis":8620,"Ġdvd":8621,"Ġlorenz":8622,"Ġhagen":8623,"motor":8624,"ly":8625,"ameister":8626,"Ġgekennzeichnet":8627,"gard":8628,"ĠtÃ¤glich":8629,"ĠsÃ¼dosten":8630,"ĠschÃ¶ne":8631,"Ġeindruck":8632,"stages":8633,"Ġfeucht":8634,"Ġwies":8635,"osop":8636,"page":8637,"tÃ¤t":8638,"Ġvorbe":8639,"barer":8640,"Ġcer":8641,"schafft":8642,"Ġamster":8643,"ghan":8644,"Ġpont":8645,"ams":8646,"ianischen":8647,"Ġvorbei":8648,"Ġrisiko":8649,"Ġdj":8650,"lieÃŁung":8651,"versen":8652,"Ġgrenzt":8653,"Ġkla":8654,"itim":8655,"Ġtrin":8656,"Ġmetal":8657,"schaffung":8658,"oni":8659,"Ġbedeutendsten":8660,"Ġannahme":8661,"Ġtemperaturen":8662,"Ġank":8663,"Ġgei":8664,"ogramm":8665,"strahl":8666,"Ġzogen":8667,"Ġantis":8668,"spartei":8669,"Ġcla":8670,"Ġhauses":8671,"paar":8672,"Ġgift":8673,"Ġchir":8674,"Ġmarken":8675,"stÃ¤ndigkeit":8676,"ĠaufklÃ¤rung":8677,"iki":8678,"Ġumsetzung":8679,"Ġbiele":8680,"verteilung":8681,"ĠerzÃ¤hlung":8682,"Ġbres":8683,"Ġherrschafts":8684,"Ġmig":8685,"Ġehrendo":8686,"einrichtungen":8687,"Ġchi":8688,"hardt":8689,"ĠblÃ¤tter":8690,"Ġmetz":8691,"Ġunterb":8692,"grÃ¼nder":8693,"Ġirland":8694,"ault":8695,"boden":8696,"Ġstellten":8697,"webe":8698,"Ġlebenden":8699,"Ġberufen":8700,"ĠrÃ¶mischer":8701,"ctor":8702,"Ġzar":8703,"Ġkeller":8704,"Ġbiograph":8705,"Ġrolf":8706,"Ġrecords":8707,"weiger":8708,"ĠjÃ¤hrigen":8709,"Ġseltener":8710,"Ġgefallen":8711,"Ġstick":8712,"Ġua":8713,"Ġsaal":8714,"Ġbotan":8715,"Ġgestein":8716,"Ġdarstellungen":8717,"Ġjahrzehnten":8718,"Ġquanten":8719,"kow":8720,"hebung":8721,"inar":8722,"rian":8723,"Ġweis":8724,"ras":8725,"Ġdub":8726,"ĠÃ¶ster":8727,"Ġschi":8728,"Ġklosters":8729,"bnis":8730,"Ġgrupp":8731,"Ġversorgung":8732,"freien":8733,"Ġlokalen":8734,"Ġverfilm":8735,"ĠÃ¼blichen":8736,"Ġnormaler":8737,"ĠverstÃ¤ndnis":8738,"Ġmannheim":8739,"ĠergÃ¤nzt":8740,"emens":8741,"Ã¶z":8742,"Ġvierten":8743,"rohr":8744,"ĠausdrÃ¼ck":8745,"Ã¼ndung":8746,"Ġsiegfried":8747,"Ġanwesen":8748,"Ġconc":8749,"Ġhypoth":8750,"Ġstei":8751,"Ġgegend":8752,"Ġslowen":8753,"Ġchicago":8754,"Ġvent":8755,"Ġmythologie":8756,"Ġeigentliche":8757,"Ġhandlungs":8758,"Ġschwedischen":8759,"Ġexport":8760,"Ġdistanz":8761,"Ġbett":8762,"Ġgesichert":8763,"oro":8764,"Ġcollege":8765,"spitze":8766,"Ġprogramme":8767,"Ġgenauer":8768,"schirm":8769,"Ġbewaff":8770,"quellen":8771,"ĠbundesstraÃŁe":8772,"arzt":8773,"format":8774,"ĠkÃ¶niglichen":8775,"Ġkulturelle":8776,"fÃ¤ll":8777,"Ġentschieden":8778,"Ġkantons":8779,"Ġleichtathlet":8780,"Ġfett":8781,"Ġinfekt":8782,"Ġverteilt":8783,"liegt":8784,"zeln":8785,"ergeb":8786,"arth":8787,"Ġfilmen":8788,"Ġjener":8789,"Ġsklaven":8790,"Ġagr":8791,"partei":8792,"ĠverfÃ¼gen":8793,"Ġsuhr":8794,"ĠblÃ¼te":8795,"Ã¤fen":8796,"block":8797,"Ġschmel":8798,"kins":8799,"iro":8800,"Ġsun":8801,"sko":8802,"Ġmediziner":8803,"Ġunfall":8804,"Ġpyram":8805,"Ġpremierminister":8806,"Ġsult":8807,"Ġmonte":8808,"Ġschlug":8809,"Ġbrust":8810,"bleiben":8811,"ĠpÃ¤p":8812,"Ġbag":8813,"Ġpflicht":8814,"Ġgeriet":8815,"bold":8816,"Ġkamera":8817,"Ġabstra":8818,"Ġanderes":8819,"Ġfreundschaft":8820,"ĠunterstÃ¼tzen":8821,"Ġeinzig":8822,"gessen":8823,"Ġdich":8824,"zenten":8825,"ffizien":8826,"Ġzieht":8827,"kette":8828,"heber":8829,"zo":8830,"Ġkrankenhaus":8831,"Ġabgeleitet":8832,"dichte":8833,"hent":8834,"ĠidentitÃ¤t":8835,"vp":8836,"Ġmoritz":8837,"Ġausdehn":8838,"Ġludwigs":8839,"ĠzugÃ¤nglich":8840,"pon":8841,"Ġortes":8842,"ĠsÃ¼dafrika":8843,"Ġvorgehen":8844,"Ġfeste":8845,"ĠzerstÃ¶rung":8846,"Ġtimes":8847,"Ġstrahl":8848,"weisung":8849,"Ġlabor":8850,"Ġsou":8851,"Ġschlaf":8852,"Ġslaw":8853,"orfer":8854,"ĠjÃ¼ngeren":8855,"nee":8856,"Ġfahren":8857,"Ġanges":8858,"swald":8859,"ĠoberflÃ¤chen":8860,"Ġcompany":8861,"Ã¤rung":8862,"Ġexpress":8863,"Ġgriechisch":8864,"Ġelbe":8865,"dis":8866,"ĠwestfÃ¤l":8867,"Ġone":8868,"Ġpant":8869,"Ġverblieben":8870,"hyd":8871,"Ġburgen":8872,"Ġkosm":8873,"ural":8874,"Ġvermeiden":8875,"teor":8876,"ickt":8877,"Ġtypen":8878,"Ġgipfel":8879,"Ġerworben":8880,"Ġerfahrungen":8881,"gungen":8882,"Ġjuan":8883,"Ġehrendoktor":8884,"Ġiran":8885,"ĠeingeschrÃ¤n":8886,"steiger":8887,"lekt":8888,"hÃ¤l":8889,"artig":8890,"unken":8891,"Ġeinheim":8892,"Ġleitete":8893,"gab":8894,"Ġberge":8895,"ĠbekÃ¤mpf":8896,"Ġukraine":8897,"Ġvirgin":8898,"hÃ¤usern":8899,"ĠpreuÃŁische":8900,"kurs":8901,"Ġrelev":8902,"Ġprinzessin":8903,"Ġabgrenzung":8904,"Ġliegenden":8905,"Ġumgekehrt":8906,"star":8907,"Ġrechen":8908,"urgie":8909,"Ġtraditionelle":8910,"urus":8911,"Ġbritish":8912,"Ġboch":8913,"lied":8914,"orp":8915,"Ġaktien":8916,"deckt":8917,"ĠbedÃ¼r":8918,"dre":8919,"Ġunterteilt":8920,"Ġchurch":8921,"ĠoberbÃ¼rgermeister":8922,"Ġmeisterschaft":8923,"kenntnis":8924,"Ġregionale":8925,"Ġzugunsten":8926,"Ġsterben":8927,"Ġmachten":8928,"sbruck":8929,"Ġabgelehnt":8930,"Ġkalender":8931,"Ġmittelalterlichen":8932,"Ġmd":8933,"marke":8934,"Ġnassau":8935,"Ġroland":8936,"ides":8937,"brochen":8938,"Ġtib":8939,"ĠÃ¼bernehmen":8940,"fordert":8941,"Ġerzb":8942,"ĠlÃ¼beck":8943,"verhalten":8944,"titel":8945,"geschÃ¤ft":8946,"Ġmailand":8947,"Ġdrehbuchautor":8948,"Ġrd":8949,"ĠvorlÃ¤ufer":8950,"utnant":8951,"zut":8952,"Ġbezeichnen":8953,"Ġentscheidungen":8954,"Ġaluminium":8955,"nummer":8956,"Ġvorstellungen":8957,"Ġmeine":8958,"Ġbeobachtet":8959,"Ġbriefe":8960,"Ġerbe":8961,"ogn":8962,"Ġerstreckt":8963,"einer":8964,"Ġquart":8965,"ĠuniversitÃ¤ts":8966,"Ġverteidigungs":8967,"Ġaspekte":8968,"ĠschÃ¤d":8969,"Ġaufgehoben":8970,"Ġnikola":8971,"ziel":8972,"schrau":8973,"Ġbismar":8974,"setzten":8975,"Ġschlecht":8976,"Ġbeauftra":8977,"Ġoste":8978,"Ġing":8979,"siden":8980,"Ġsatelliten":8981,"Ġbert":8982,"ĠsÃ¼ÃŁ":8983,"Ġharry":8984,"ungsgebiet":8985,"management":8986,"uen":8987,"Ġschmal":8988,"Ġdemokratischen":8989,"sth":8990,"Ġfur":8991,"Ġric":8992,"Ġnachkommen":8993,"Ġfesten":8994,"Ġriv":8995,"ĠpopulÃ¤r":8996,"gehende":8997,"fÃ¶rmig":8998,"Ġrose":8999,"Ġteilnahme":9000,"ĠfÃ¼hrungs":9001,"brun":9002,"Ġmannschaften":9003,"Ġbeliebt":9004,"swahlen":9005,"Ġpiet":9006,"Ġspielten":9007,"ĠhÃ¤ufiger":9008,"ĠstÃ¤dtepartner":9009,"Ġaustausch":9010,"Ġerdbe":9011,"ici":9012,"Ġunterscheidung":9013,"kapelle":9014,"Ġdal":9015,"ĠfakultÃ¤t":9016,"Ġnick":9017,"Ġmaterialien":9018,"Ġlichten":9019,"Ġuntergebracht":9020,"Ġsystematik":9021,"Ġerreichten":9022,"gru":9023,"arbon":9024,"Ã¤nderung":9025,"Ġamsterdam":9026,"not":9027,"ativer":9028,"meda":9029,"Ġstatistik":9030,"wendet":9031,"Ġfotos":9032,"bildungen":9033,"klÃ¤rt":9034,"Ġroth":9035,"Ġworauf":9036,"eiche":9037,"Ġempir":9038,"ĠkÃ¼nd":9039,"Ġinfanter":9040,"ĠrumÃ¤nien":9041,"chspiel":9042,"Ġprotein":9043,"Ġtrop":9044,"Ġgesicht":9045,"Ġlinden":9046,"Ġausgest":9047,"Ġlegende":9048,"Ġwell":9049,"pommern":9050,"agon":9051,"Ġsympt":9052,"ĠmÃ¼nchner":9053,"bilden":9054,"Ġbewohn":9055,"Ġdicht":9056,"Ġkathedrale":9057,"speicher":9058,"gebietes":9059,"Ġgelegt":9060,"itionen":9061,"ĠÃ¼bersch":9062,"Ġquant":9063,"ĠreligiÃ¶se":9064,"Ġbauwerke":9065,"Ġfem":9066,"elekt":9067,"omb":9068,"ĠvielfÃ¤lt":9069,"Ġpalast":9070,"Ġcommun":9071,"ĠwÃ¤l":9072,"Ġgraz":9073,"osion":9074,"Ġard":9075,"Ġextra":9076,"Ġreine":9077,"mÃ¤cht":9078,"Ġengagement":9079,"ĠberÃ¼hmte":9080,"Ġcentr":9081,"ners":9082,"Ġeast":9083,"Ġgon":9084,"ĠtatsÃ¤ch":9085,"Ġstrei":9086,"Ġsib":9087,"Ã¼se":9088,"Ġfaktoren":9089,"Ġmitteleuropa":9090,"Ġermordet":9091,"fo":9092,"Ġausgeschlossen":9093,"arett":9094,"Ġarchive":9095,"Ġvas":9096,"ordnungen":9097,"drom":9098,"Ġpsychologie":9099,"Ġregelung":9100,"Ġschaden":9101,"Ġreiter":9102,"ĠpreuÃŁischer":9103,"Ġmesse":9104,"Ġbran":9105,"Ġrub":9106,"Ġcsu":9107,"ĠÃ¼berliefert":9108,"ĠerzÃ¤hlungen":9109,"opÃ¤die":9110,"put":9111,"wl":9112,"Ġtrenn":9113,"gesetzes":9114,"Ġerrichten":9115,"Ġtschechos":9116,"Ġfung":9117,"bf":9118,"Ġblues":9119,"olith":9120,"Ġkatharina":9121,"ual":9122,"ĠspÃ¤testens":9123,"Ġthail":9124,"zur":9125,"Ġlinux":9126,"Ġgrundlegen":9127,"Ġnachhalt":9128,"Ġwollten":9129,"Ġschwedischer":9130,"ize":9131,"Ġprozesse":9132,"Ã¶mm":9133,"frequenz":9134,"adel":9135,"bron":9136,"haut":9137,"Ġxii":9138,"Ġwirkte":9139,"ĠgezÃ¤hlt":9140,"Ġbm":9141,"Ġauseinandersetzung":9142,"Ġurkundlich":9143,"rÃ¤umen":9144,"Ġkalifornien":9145,"esheim":9146,"Ġwitten":9147,"Ġautobi":9148,"Ġcod":9149,"gestaltung":9150,"Ġbecken":9151,"lechter":9152,"ugh":9153,"Ġvat":9154,"Ġloch":9155,"Ġzusammensetzung":9156,"fiz":9157,"Ġhist":9158,"bezogen":9159,"ubil":9160,"Ġgoog":9161,"Ġwood":9162,"Ġbosn":9163,"Ġgefahren":9164,"Ġantrag":9165,"Ġregistr":9166,"Ġlove":9167,"Ġanlass":9168,"Ġabkommen":9169,"Ġprinc":9170,"beam":9171,"Ġzwang":9172,"Ġtauf":9173,"Ġhirsch":9174,"ĠmÃ¼nzen":9175,"Ġplast":9176,"prÃ¼fung":9177,"Ġinterpretation":9178,"Ġentw":9179,"Ġwiesen":9180,"ĠeinschrÃ¤n":9181,"Ġvinc":9182,"Ġtrifft":9183,"Ġungl":9184,"schloss":9185,"udes":9186,"Ġkohle":9187,"Ġwis":9188,"Ġgh":9189,"ĠschlieÃŁt":9190,"Ã¤rn":9191,"fahrzeuge":9192,"Ġwesentliche":9193,"Ġritu":9194,"Ġverbreitete":9195,"rÃ¤um":9196,"Ġbringt":9197,"Ġdiverse":9198,"pern":9199,"Ġwachstum":9200,"Ġortsteile":9201,"Ġgenaue":9202,"Ġfan":9203,"Ġpaderborn":9204,"Ġgalerie":9205,"Ġsiedlungen":9206,"ifa":9207,"Ġfuchs":9208,"parks":9209,"Ġbelagerung":9210,"Ġki":9211,"Ġdirekten":9212,"Ġdna":9213,"Ġviktor":9214,"Ã¼rtel":9215,"Ġarzn":9216,"Ġprofession":9217,"Ġbesatzung":9218,"lein":9219,"ĠdÃ¤nischen":9220,"Ġstellvertreten":9221,"Ġpositionen":9222,"Ġdiskutiert":9223,"olas":9224,"fahrts":9225,"Ġsagte":9226,"Ġold":9227,"Ġwart":9228,"wirt":9229,"Ġhis":9230,"ĠstÃ¼tz":9231,"ĠerfÃ¼llt":9232,"Ġmarburg":9233,"Ġgeschlechts":9234,"Ġjord":9235,"Ġjones":9236,"Ã¤rt":9237,"Ġbeweis":9238,"Ġerinnerung":9239,"Ġbetroffenen":9240,"Ã¼g":9241,"Ġrekord":9242,"Ġforscher":9243,"zÃ¼gen":9244,"mÃ¤n":9245,"mÃ¶gen":9246,"ĠjÃ¶rg":9247,"Ġfreunde":9248,"Ġkritiker":9249,"ĠerklÃ¤ren":9250,"Ġsamt":9251,"Ġschatten":9252,"Ġeinger":9253,"befehl":9254,"mand":9255,"Ġschalt":9256,"dungen":9257,"ĠhieÃŁ":9258,"Ġverkl":9259,"olo":9260,"ĠbÃ¼ro":9261,"itiv":9262,"aube":9263,"Ġkatholisch":9264,"streifen":9265,"Ġbasiert":9266,"Ġindustri":9267,"Ġseil":9268,"Ġov":9269,"Ġstadtrat":9270,"inos":9271,"Ġharald":9272,"Ġic":9273,"Ġcomic":9274,"Ġjar":9275,"ĠsÃ¤chsischen":9276,"Ġlesen":9277,"Ġstufe":9278,"Ġpt":9279,"still":9280,"denken":9281,"Ġbeschloss":9282,"Ġafghan":9283,"Ġintell":9284,"ĠheiÃŁen":9285,"oxid":9286,"hauptstadt":9287,"ĠgrÃ¶ÃŁtenteils":9288,"Ġchlor":9289,"Ġinstitutionen":9290,"Ġbielefeld":9291,"Ġortschaften":9292,"Ġmenschliche":9293,"ĠmaÃŁgeblich":9294,"ĠstÃ¼cke":9295,"rÃ¼":9296,"Ġbistum":9297,"Ġgaben":9298,"sid":9299,"ĠgÃ¤n":9300,"pra":9301,"Ġhund":9302,"wappen":9303,"Ġerzielte":9304,"Ġfaktor":9305,"lassung":9306,"nern":9307,"asi":9308,"Ġlew":9309,"ĠhÃ¶l":9310,"Ġfootball":9311,"Ġbeziehen":9312,"preistrÃ¤ger":9313,"ĠgefÃ¤ngnis":9314,"iae":9315,"Ġpie":9316,"ĠprÃ¼f":9317,"noten":9318,"zelle":9319,"kommun":9320,"Ġfahrer":9321,"Ġassociation":9322,"stimmen":9323,"Ġty":9324,"geschehen":9325,"syl":9326,"Ġbaureihe":9327,"rol":9328,"ĠstreitkrÃ¤fte":9329,"Ġbomben":9330,"Ġinstitution":9331,"Ġkontinuier":9332,"bericht":9333,"Ġerkennbar":9334,"Ġgoogle":9335,"Ġnest":9336,"Ġzustimmung":9337,"achtung":9338,"dimension":9339,"Ã¼stet":9340,"Ġgenerell":9341,"geschlecht":9342,"Ġmoz":9343,"Ġsud":9344,"Ã¤den":9345,"Ġhinweis":9346,"Ġteuf":9347,"Ġscott":9348,"reite":9349,"osh":9350,"Ġberechnung":9351,"Ġauge":9352,"Ġinstrumente":9353,"Ġerkenntnis":9354,"Ġkurzer":9355,"Ġzauber":9356,"ĠbegrÃ¼nder":9357,"uz":9358,"atus":9359,"Ġvorhandenen":9360,"Ġabweichen":9361,"Ġbeseit":9362,"Ġtechnologie":9363,"Ġstufen":9364,"ĠjÃ¼ngere":9365,"Ġrio":9366,"Ġumfangreiche":9367,"schnitts":9368,"Ġentz":9369,"Ġnationalsozialisten":9370,"Ġmob":9371,"Ġaufrecht":9372,"Ġtypisch":9373,"Ġsowjetische":9374,"ĠpreistrÃ¤ger":9375,"becken":9376,"Ġindischen":9377,"Ġniedrig":9378,"Ġamb":9379,"meter":9380,"Ġfreder":9381,"Ġfundament":9382,"Ġgeregelt":9383,"Ġatem":9384,"Ġspur":9385,"ĠvorÃ¼ber":9386,"Ġeuropameister":9387,"Ġsolid":9388,"yo":9389,"erne":9390,"etscher":9391,"gebra":9392,"Ġsuhrkamp":9393,"Ġscheiterte":9394,"andern":9395,"Ġerneuer":9396,"onische":9397,"Ġakk":9398,"Ġinc":9399,"Ġgewisse":9400,"Ġunterschiedlicher":9401,"Ġpokal":9402,"Ġjena":9403,"eo":9404,"Ġalgor":9405,"ĠkÃ¤mpfen":9406,"Ġaufweisen":9407,"Ġdev":9408,"Ġhistorischer":9409,"Ġterritorium":9410,"field":9411,"Ġkomponenten":9412,"Ġversteht":9413,"Ġschichten":9414,"anie":9415,"Ġvietnam":9416,"Ġbiographie":9417,"bacher":9418,"druckt":9419,"Ġdorn":9420,"Ġreflex":9421,"senz":9422,"code":9423,"ĠgegenwÃ¤rt":9424,"Ġbeendete":9425,"revolution":9426,"swert":9427,"anes":9428,"Ġhauptbahnhof":9429,"Ġhandwerk":9430,"Ġfeb":9431,"Ġhanse":9432,"Ġinspir":9433,"Ġverfas":9434,"ĠniederÃ¶sterreich":9435,"Ġgamm":9436,"Ġerstellt":9437,"ĠzÃ¤hlte":9438,"tausend":9439,"opf":9440,"mutter":9441,"iern":9442,"ĠabhÃ¤ngigkeit":9443,"Ġargentinien":9444,"ibil":9445,"Ġanalys":9446,"ĠmÃ¶r":9447,"Ġreste":9448,"Ġfrankreichs":9449,"ores":9450,"ormen":9451,"gewalt":9452,"Ġgetroffen":9453,"Ġverletzt":9454,"Ġdrama":9455,"ufer":9456,"Ġdec":9457,"lings":9458,"Ġarbeitgeber":9459,"Ġdigitalisat":9460,"Ġice":9461,"Ġmitbe":9462,"Ġbauwerk":9463,"Ġbetreffen":9464,"Ġabra":9465,"Ġfranzis":9466,"ause":9467,"ĠstÃ¤mme":9468,"Ġbaute":9469,"Ġangeles":9470,"Ġkreise":9471,"ĠÃ¼bernahme":9472,"Ġvolle":9473,"Ġbeschluss":9474,"Ã¼bung":9475,"Ġdortigen":9476,"Ġhilf":9477,"Ġchemischen":9478,"Ġanson":9479,"Ġspannung":9480,"terung":9481,"ausbildung":9482,"adi":9483,"Ġmehrmals":9484,"Ġlokale":9485,"Ġmuslim":9486,"Ġhus":9487,"grÃ¶ÃŁte":9488,"Ġsumme":9489,"gh":9490,"ĠvollstÃ¤ndige":9491,"fir":9492,"ĠungewÃ¶hn":9493,"Ġelect":9494,"Ġcass":9495,"Ġinsekten":9496,"hlich":9497,"Ġrats":9498,"isl":9499,"Ġdatum":9500,"teles":9501,"eigten":9502,"Ġinnsbruck":9503,"ĠflieÃŁt":9504,"Ġlust":9505,"Ġstarben":9506,"leitungen":9507,"ĠÃ¼berblick":9508,"Ġbergen":9509,"Ġblue":9510,"ĠkÃ¼hl":9511,"Ġdoc":9512,"Ġerzeugen":9513,"utu":9514,"Ġviii":9515,"Ġbergbau":9516,"Ġgegebenen":9517,"Ġsaale":9518,"stufen":9519,"Ġchinesische":9520,"Ġloth":9521,"Ġschlos":9522,"sbet":9523,"Ġarbeitet":9524,"Ġwach":9525,"Ġkorn":9526,"Ġpest":9527,"Ġletztere":9528,"Ġspektrum":9529,"ĠerwÃ¤hnung":9530,"Ġaar":9531,"Ġvolumen":9532,"ĠunterstÃ¼tzte":9533,"Ġschien":9534,"Ġumgew":9535,"mÃ¤r":9536,"pil":9537,"rem":9538,"Ġbeteiligung":9539,"Ġels":9540,"Ġclemens":9541,"Ġcirc":9542,"ĠtÃ¤n":9543,"Ġdog":9544,"gendes":9545,"ĠglÃ¤ub":9546,"Ġmagazin":9547,"Ġmetropol":9548,"Ġlaus":9549,"ĠhÃ¼t":9550,"Ġinte":9551,"Ġanth":9552,"Ġbase":9553,"Ġaussicht":9554,"schlÃ¼sse":9555,"Ġjene":9556,"Ġspace":9557,"Ġschneller":9558,"Ġgrundschule":9559,"nacht":9560,"Ġangesichts":9561,"bom":9562,"Ġbucht":9563,"Ġtausend":9564,"Ġversuchen":9565,"Ġaer":9566,"ĠausfÃ¼hrung":9567,"Ġangek":9568,"iot":9569,"Ġreis":9570,"ebene":9571,"Ġzugr":9572,"alisch":9573,"Ġcham":9574,"ella":9575,"ĠÃ¤uÃŁerst":9576,"Ġkonstit":9577,"Ġursachen":9578,"Ġmillion":9579,"Ġhenn":9580,"ablen":9581,"Ġlehnte":9582,"sturm":9583,"Ġbewusstsein":9584,"Ġcra":9585,"ĠÃ¼bers":9586,"ĠzulÃ¤ss":9587,"skar":9588,"ĠfÃ¤lle":9589,"Ġdiplom":9590,"vard":9591,"Ġpad":9592,"geschoss":9593,"Ġinne":9594,"Ġketten":9595,"Ġerzie":9596,"ĠplÃ¤ne":9597,"Ġbrown":9598,"Ġinszen":9599,"Ġwilhelms":9600,"Ġerwarb":9601,"Ġwirklichkeit":9602,"bele":9603,"Ġmoment":9604,"Ġquar":9605,"Ġhomepage":9606,"Ġmarke":9607,"Ġreligionen":9608,"Ã¤hne":9609,"miral":9610,"aria":9611,"Ġasteroiden":9612,"Ġlaub":9613,"Ġnationalmannschaft":9614,"alisierte":9615,"bergs":9616,"gleichung":9617,"Ġdigitale":9618,"Ġpod":9619,"Ġwester":9620,"Ġverhindert":9621,"Ġgun":9622,"Ġanstelle":9623,"Ã¼ren":9624,"Ġchan":9625,"jahre":9626,"friedhof":9627,"Ġumfeld":9628,"Ġbremer":9629,"nation":9630,"Ġpoten":9631,"Ġgetrei":9632,"Ġyor":9633,"Ã¶ster":9634,"Ġcle":9635,"Ġmeteor":9636,"landschaft":9637,"Ġansonsten":9638,"verbr":9639,"Ġsynag":9640,"wuchs":9641,"bergt":9642,"ĠpersÃ¶nlichkeit":9643,"ĠberÃ¼cksichtigt":9644,"Ġderselben":9645,"Ġimpul":9646,"Ġhammer":9647,"ĠlÃ¶sch":9648,"Ġsonstiges":9649,"Ġmanager":9650,"Ġalters":9651,"Ġberuht":9652,"Ġgemeindegebiet":9653,"Ġhandballspieler":9654,"legungen":9655,"wandel":9656,"probl":9657,"Ġportal":9658,"Ġtheorien":9659,"Ġkabinett":9660,"Ġidentisch":9661,"Ġraketen":9662,"ĠnÃ¤chste":9663,"reibung":9664,"Ġchile":9665,"Ã¼ckt":9666,"beginn":9667,"Ġausreichend":9668,"ĠmusikpÃ¤dagoge":9669,"ĠÃ¼bertrag":9670,"Ġkf":9671,"usk":9672,"Ġsq":9673,"bauen":9674,"Ġlateinisch":9675,"ns":9676,"Ġangrenzen":9677,"Ġschwanger":9678,"Ġkaiserlichen":9679,"Ġholly":9680,"gene":9681,"Ġmicrosoft":9682,"Ġabenteuer":9683,"Ġgehei":9684,"Ġberat":9685,"Ġsonstige":9686,"Ġdialog":9687,"Ġfremden":9688,"Ġtob":9689,"Ġzeugen":9690,"Ġbecker":9691,"Ġbeinhal":9692,"Ġkulturen":9693,"Ġbewahr":9694,"bergen":9695,"nell":9696,"Ġzugrunde":9697,"Ġaden":9698,"Ġstir":9699,"ĠbÃ¼rgerkrieg":9700,"tretung":9701,"Ġvand":9702,"okraten":9703,"Ġintegration":9704,"Ġanordnung":9705,"Ġaudio":9706,"Ġschwedische":9707,"Ġgemeint":9708,"ova":9709,"Ġhydr":9710,"Ġfirst":9711,"Ġexperimente":9712,"ateur":9713,"ĠstÃ¤rk":9714,"Ġfantas":9715,"Ġerhol":9716,"Ġbewegen":9717,"ĠnÃ¶tig":9718,"rollen":9719,"Ġmhz":9720,"decken":9721,"fahrten":9722,"Ġsekunden":9723,"schreiten":9724,"Ġspanisch":9725,"pflege":9726,"Ġfuhr":9727,"Ġgedicht":9728,"Ġbundesregierung":9729,"Ġsinfon":9730,"Ġstaub":9731,"flugzeug":9732,"Ã¼ch":9733,"Ġkast":9734,"inseln":9735,"Ġflex":9736,"Ġhaar":9737,"Ġdetails":9738,"ĠverhÃ¤ltnisse":9739,"Ġvoraussetzungen":9740,"schlesien":9741,"Ġgestaltet":9742,"falt":9743,"ĠlÃ¤nd":9744,"alte":9745,"ikations":9746,"projekt":9747,"Ġproblemat":9748,"sau":9749,"sum":9750,"Ġbayerische":9751,"Ġgeschlagen":9752,"Ġduis":9753,"german":9754,"Ġinhalts":9755,"Ġgib":9756,"Ġproduzent":9757,"Ġsonntag":9758,"Ġkod":9759,"Ġday":9760,"Ġkindheit":9761,"iser":9762,"fÃ¶rmige":9763,"ĠgrÃ¼nde":9764,"Ġreserv":9765,"wel":9766,"dien":9767,"olph":9768,"legenheiten":9769,"ĠÃ¤mter":9770,"isationen":9771,"ĠgÃ¼":9772,"ators":9773,"Ġoffene":9774,"Ġble":9775,"ili":9776,"Ġstif":9777,"Ġess":9778,"Ġzen":9779,"autob":9780,"Ġfielen":9781,"bc":9782,"swissenschaftler":9783,"greg":9784,"shaber":9785,"Ġnow":9786,"Ġlernte":9787,"wÃ¤hn":9788,"Ġfaust":9789,"roll":9790,"Ġleisten":9791,"Ġintegriert":9792,"ĠstÃ¼r":9793,"winden":9794,"Ġausgedehn":9795,"Ġturnier":9796,"Ġrosa":9797,"Ġmedia":9798,"Ġprivile":9799,"Ġstrand":9800,"ĠpersÃ¶nlichen":9801,"bart":9802,"Ġgebe":9803,"Ġantisemit":9804,"Ġangst":9805,"Ġbegleitet":9806,"Ġwurzel":9807,"Ġroger":9808,"ĠverÃ¶ffentlichten":9809,"ikal":9810,"Ġvermutet":9811,"sendung":9812,"ppert":9813,"Ġthor":9814,"Ġdoug":9815,"direktor":9816,"sprung":9817,"Ġbeschreiben":9818,"Ã¤uden":9819,"Ġtrink":9820,"Ġvereinz":9821,"Ġbiografie":9822,"Ġprofit":9823,"wett":9824,"Ġlanger":9825,"Ġressour":9826,"Ġment":9827,"Ġgallen":9828,"Ġverordnung":9829,"Ġerlangen":9830,"ochem":9831,"attet":9832,"Ġbetreiben":9833,"Ġreh":9834,"elemente":9835,"Ġjahrhunderte":9836,"Ġrass":9837,"Ġplus":9838,"Ġeigenschaft":9839,"Ġnachkriegs":9840,"Ġbefanden":9841,"ĠbeschÃ¤ftigte":9842,"freund":9843,"Ġstunde":9844,"stehenden":9845,"Ġvoraussetzung":9846,"Ġschottland":9847,"Ġgeor":9848,"Ġsiegel":9849,"Ġhelden":9850,"hammer":9851,"Ġmodernis":9852,"ĠstÃ¤ndig":9853,"zwald":9854,"Ġkrise":9855,"Ġsenk":9856,"ĠÃ¶sterreichs":9857,"Ġsiegen":9858,"mack":9859,"staates":9860,"ĠvÃ¶gel":9861,"ws":9862,"Ġdarum":9863,"wicklung":9864,"Ġschwein":9865,"kÃ¶r":9866,"ĠsÃ¼dost":9867,"Ġlippe":9868,"Ġconst":9869,"Ġostsee":9870,"Ġerhebung":9871,"Ġlohn":9872,"Ġali":9873,"Ġforce":9874,"hÃ¤ndler":9875,"ĠzukÃ¼":9876,"Ġcountr":9877,"Ġemigr":9878,"Ġdokumente":9879,"heben":9880,"Ġkonferenz":9881,"ira":9882,"mittelalter":9883,"Ġpom":9884,"berge":9885,"splan":9886,"Ġstreifen":9887,"Ġvereinten":9888,"verarbeitung":9889,"ĠlÃ¤ngere":9890,"Ġpav":9891,"rete":9892,"reuth":9893,"Ġgelangen":9894,"produzent":9895,"ĠgenÃ¼":9896,"Ġfasch":9897,"ylor":9898,"Ġabraham":9899,"reste":9900,"Ġinternationaler":9901,"wechseln":9902,"Ġabsatz":9903,"Ġmonument":9904,"handels":9905,"sidentschaft":9906,"verlauf":9907,"ĠzukÃ¼nft":9908,"hain":9909,"Ġattent":9910,"Ġfat":9911,"Ġrevol":9912,"Ġrig":9913,"Ġuniversal":9914,"Ġtschechien":9915,"Ġbauen":9916,"Ġig":9917,"Ġgeschehen":9918,"Ġleser":9919,"gefangen":9920,"undet":9921,"Ġdienten":9922,"fÃ¶rmigen":9923,"illes":9924,"Ġolympia":9925,"zene":9926,"schenden":9927,"Ġturb":9928,"Ã¶tz":9929,"Ġerlebte":9930,"post":9931,"ordnen":9932,"ject":9933,"Ġausdehnung":9934,"Ġeinstellung":9935,"Ġkreu":9936,"kil":9937,"Ġkau":9938,"Ġlingu":9939,"Ġsuch":9940,"Ġwarum":9941,"Ġumgang":9942,"Ġphilosop":9943,"ĠmaÃŁe":9944,"Ġgert":9945,"Ġkonstantinop":9946,"Ġvergleichsweise":9947,"Ġfabrik":9948,"Ġmessen":9949,"Ġangebracht":9950,"Ġkonzern":9951,"Ġleichter":9952,"ĠbÃ¼hne":9953,"Ġkolonie":9954,"atter":9955,"Ġleb":9956,"reift":9957,"ĠflÃ¼sse":9958,"kÃ¤":9959,"Ġbauf":9960,"Ġpfeil":9961,"Ġsammel":9962,"drÃ¼ckt":9963,"misch":9964,"ĠverfÃ¼gte":9965,"Ġkulturellen":9966,"ĠmÃ¼nz":9967,"Ġgesellschaftlichen":9968,"Ġmalerei":9969,"Ġaufgegeben":9970,"ĠdÃ¶rfer":9971,"Ġblumen":9972,"Ġprojekte":9973,"ĠkÃ¼nft":9974,"Ġstate":9975,"prov":9976,"etor":9977,"Ġuwe":9978,"Ġphon":9979,"hochschule":9980,"ĠstÃ¤dtischen":9981,"Ġgezwungen":9982,"Ġarbeitsk":9983,"Ġmedizinische":9984,"Ġome":9985,"trÃ¤cht":9986,"Ġsex":9987,"Ġcons":9988,"Ġada":9989,"Ġkunststoff":9990,"bourg":9991,"farbe":9992,"Ġindianer":9993,"Ġsongs":9994,"rone":9995,"ĠnatÃ¼rlich":9996,"Ġchronik":9997,"grÃ¼ndung":9998,"Ġgemark":9999,"Ġanwendungs":10000,"Ġglocken":10001,"Ġbut":10002,"Ġwestliche":10003,"Ġbewegungen":10004,"atisch":10005,"Ġbands":10006,"Ã¤tzung":10007,"jÃ¤hriger":10008,"ĠpÃ¤dagoge":10009,"zepte":10010,"Ġliebes":10011,"Ġbildern":10012,"Ġoliver":10013,"Ġtatsache":10014,"Ġfreu":10015,"itte":10016,"Ġverstorbenen":10017,"oin":10018,"ĠkÃ¤l":10019,"Ġhass":10020,"Ġsymp":10021,"ĠgesprÃ¤ch":10022,"Ġnormalerweise":10023,"lichten":10024,"Ġumgesetzt":10025,"phi":10026,"Ġdamen":10027,"Ġhubert":10028,"Ġkreisstadt":10029,"Ġfels":10030,"rÃ¤g":10031,"Ġhistorisches":10032,"Ġgebirge":10033,"samen":10034,"klin":10035,"Ġkleines":10036,"Ġmarkgraf":10037,"Ġverantwortung":10038,"ioden":10039,"Ġmang":10040,"Ġbekommen":10041,"Ġsozialdemokrat":10042,"Ġkriterien":10043,"Ġmosche":10044,"Ġantarkt":10045,"wirk":10046,"alteten":10047,"Ġcet":10048,"ritts":10049,"Ġfortan":10050,"ĠersterwÃ¤hn":10051,"Ġvergleichbar":10052,"ysen":10053,"Ġnight":10054,"Ġgenug":10055,"Ġkino":10056,"Ġunesco":10057,"Ġstadtteile":10058,"Ġhahn":10059,"wÃ¼rfe":10060,"Ġbindung":10061,"Ġloc":10062,"igkeits":10063,"hrt":10064,"Ġzut":10065,"ids":10066,"album":10067,"sey":10068,"Ġverbesserung":10069,"Ġfulda":10070,"Ġkandidaten":10071,"Ġabwehr":10072,"Ġkaufmann":10073,"ĠerfÃ¼llen":10074,"orgt":10075,"cell":10076,"gehenden":10077,"Ġkalten":10078,"riel":10079,"Ġsteigt":10080,"Ġteilnehmen":10081,"club":10082,"Ġtaschenbuch":10083,"Ġresp":10084,"ĠkÃ¼che":10085,"produkt":10086,"Ġmcc":10087,"ffekt":10088,"Ġromane":10089,"Ġbesetzten":10090,"Ġah":10091,"Ġenge":10092,"Ġwirklich":10093,"Ġtypischen":10094,"Ġangepasst":10095,"Ġintelligen":10096,"uelle":10097,"abteilung":10098,"zeichnete":10099,"Ġperiode":10100,"Ġkommando":10101,"Ġalgebra":10102,"Ġjahrzehnte":10103,"fristig":10104,"Ġgedenktafel":10105,"Ġfok":10106,"Ġzone":10107,"Ġlegt":10108,"ĠprÃ¤z":10109,"Ġzentimeter":10110,"reiben":10111,"Ġmaus":10112,"Ġvorgenommen":10113,"Ġobst":10114,"Ġpaulus":10115,"Ġkritische":10116,"Ġszenen":10117,"Ġhinweise":10118,"Ġfilmregisseur":10119,"ems":10120,"Ġkompeten":10121,"Ġerlangte":10122,"wendung":10123,"Ġcolon":10124,"Ġverhaltens":10125,"Ġstro":10126,"Ġbriten":10127,"ĠabgelÃ¶st":10128,"aller":10129,"Ġbedeutenden":10130,"Ġkonstanz":10131,"Ġbip":10132,"Ġmorph":10133,"Ġvia":10134,"Ġinvas":10135,"Ġforschungen":10136,"oter":10137,"ahme":10138,"ĠdreiÃŁigjÃ¤hrigen":10139,"ĠkÃ¤rn":10140,"Ġhalt":10141,"Ġross":10142,"etiker":10143,"Ġurkunde":10144,"Ġsprung":10145,"Ġfri":10146,"sprechung":10147,"Ġbundeskanzler":10148,"hus":10149,"zoll":10150,"Ġvorlage":10151,"harmon":10152,"arische":10153,"asp":10154,"Ġteams":10155,"anus":10156,"Ġpx":10157,"Ġensem":10158,"Ġkarol":10159,"Ġobere":10160,"ĠÃ¤sth":10161,"Ġdetail":10162,"Ġsuchen":10163,"via":10164,"Ġdot":10165,"Ġzweig":10166,"Ġabbau":10167,"Ġmyst":10168,"vir":10169,"termin":10170,"iano":10171,"Ġcountry":10172,"ĠgeÃ¤ndert":10173,"Ġmarok":10174,"eidungs":10175,"Ġnunmehr":10176,"Ġlernen":10177,"ĠhebrÃ¤":10178,"Ġinfl":10179,"ĠkurfÃ¼rsten":10180,"Ġvors":10181,"Ġkobl":10182,"Ġperu":10183,"abgeordneter":10184,"ĠbegrÃ¼ndung":10185,"Ġkonzerte":10186,"Ġwahrnehmung":10187,"Ġkaiserreich":10188,"Ġhochzeit":10189,"muster":10190,"Ġbeant":10191,"Ġentdeckte":10192,"Ġflora":10193,"Ġverbands":10194,"Ġbean":10195,"Ġthese":10196,"Ġherrn":10197,"ĠlÃ¶sen":10198,"bungs":10199,"Ġmitunter":10200,"Ġstehenden":10201,"stadion":10202,"ildeten":10203,"Ġemot":10204,"Ġlegitim":10205,"uni":10206,"Ġstoffe":10207,"Ġsteuern":10208,"ĠgeschÃ¤tzt":10209,"kind":10210,"agramm":10211,"Ġnato":10212,"Ġbelegte":10213,"Ġerfahrung":10214,"ĠgeschÃ¼tz":10215,"ĠgefÃ¶rdert":10216,"zentren":10217,"Ġbernard":10218,"sperre":10219,"Ġhals":10220,"reaktion":10221,"Ã¤ttern":10222,"ophon":10223,"Ġgep":10224,"messen":10225,"Ġformal":10226,"Ġbrachten":10227,"osse":10228,"digen":10229,"ĠwÃ¤ren":10230,"Ġpenn":10231,"agnet":10232,"Ġflugzeuge":10233,"Ġbetre":10234,"Ġgarant":10235,"kommt":10236,"rÃ¤glich":10237,"Ġzentriert":10238,"Ġungarischen":10239,"Ġmindest":10240,"Ġclaude":10241,"Ġversamm":10242,"Ġmul":10243,"Ġsache":10244,"Ġentlassen":10245,"Ġbetreu":10246,"Ġharz":10247,"Ġirgend":10248,"Ġkalt":10249,"Ġvorschlag":10250,"Ġmake":10251,"fecht":10252,"dom":10253,"gast":10254,"oe":10255,"Ġcru":10256,"orts":10257,"ĠbegrÃ¼ndete":10258,"Ġerwachsenen":10259,"ausb":10260,"lichung":10261,"Ġwurzeln":10262,"ĠgeschÃ¼tzt":10263,"etti":10264,"unterricht":10265,"ull":10266,"Ġign":10267,"Ġbegriffs":10268,"vÃ¶gel":10269,"Ġhollywood":10270,"Ġanbau":10271,"Ġwebseite":10272,"Ġempfe":10273,"Ġfinnland":10274,"Ġaristo":10275,"Ġbochum":10276,"Ġomega":10277,"uliert":10278,"leistungs":10279,"Ġentscheidend":10280,"trÃ¤ger":10281,"Ġhallen":10282,"Ġexter":10283,"Ġwlad":10284,"ĠwÃ¤hler":10285,"Ġbehei":10286,"Ġparlaments":10287,"Ġkhan":10288,"Ġlandrat":10289,"ĠwÃ¼n":10290,"Ġmahl":10291,"Ġerziehung":10292,"entsch":10293,"ĠgroÃŁkreuz":10294,"Ġreihenfolge":10295,"same":10296,"Ġmoderner":10297,"yll":10298,"decker":10299,"Ġzusammenschluss":10300,"Ġcornel":10301,"Ġset":10302,"anner":10303,"Ġverbinden":10304,"ads":10305,"Ġbeschrieb":10306,"reitung":10307,"spruchs":10308,"Ġhonor":10309,"gÃ¼nst":10310,"ĠdaÃŁ":10311,"Ġbakterien":10312,"schlacht":10313,"ures":10314,"cycl":10315,"ĠÃ¤rzte":10316,"anntes":10317,"gebrauch":10318,"Ġspen":10319,"Ġorganist":10320,"Ġeingegliedert":10321,"andt":10322,"inav":10323,"ĠmÃ¼sse":10324,"onne":10325,"ĠgeÃ¶ff":10326,"Ġrefer":10327,"Ġkategorien":10328,"Ġasi":10329,"Ġspeich":10330,"ungsmittel":10331,"Ġeva":10332,"Ġabtei":10333,"Ġessay":10334,"Ġdsch":10335,"Ġmythos":10336,"Ġmotoren":10337,"Ġsetzten":10338,"Ġkondens":10339,"Ġrowohl":10340,"ĠverÃ¤nderung":10341,"Ġbundestags":10342,"Ġfestgestellt":10343,"Ġvordergrund":10344,"Ġford":10345,"Ġbenj":10346,"Ġkonsum":10347,"Ġimplement":10348,"Ġalfons":10349,"Ġfon":10350,"steten":10351,"ĠdÃ¼rfte":10352,"Ġspiritu":10353,"spflicht":10354,"Ġleder":10355,"ĠumstÃ¤nden":10356,"Ġlord":10357,"Ġentworfen":10358,"Ġaufgeteilt":10359,"eing":10360,"stich":10361,"linger":10362,"Ġantwort":10363,"issar":10364,"Ġnormalen":10365,"Ġbewegungs":10366,"fÃ¤llt":10367,"Ġergab":10368,"Ġverursacht":10369,"Ġoskar":10370,"Ġeingeweiht":10371,"Ġxi":10372,"ĠfÃ¤higkeiten":10373,"Ġumgangssprach":10374,"Ġforum":10375,"Ġinstituts":10376,"Ġgern":10377,"Ġfreier":10378,"ĠregelmÃ¤ÃŁige":10379,"Ġnorbert":10380,"Ġcalc":10381,"aturen":10382,"illerie":10383,"Ġacc":10384,"Ġsitzen":10385,"Ġhipp":10386,"Ġtyr":10387,"Ġenden":10388,"Ġhabsburg":10389,"Ġgliederung":10390,"sprachigen":10391,"Ġrauch":10392,"Ġhilde":10393,"gÃ¤ng":10394,"istenz":10395,"Ġhinten":10396,"Ġurheber":10397,"Ġosn":10398,"Ġumgewandelt":10399,"Ġhours":10400,"Ġpositive":10401,"Ġimmun":10402,"Ġerfahren":10403,"ianer":10404,"Ġschwach":10405,"Ġmarcus":10406,"Ġvorpommern":10407,"Ġwdr":10408,"ierbar":10409,"Ġwirtschaftlich":10410,"Ġmadrid":10411,"brunnen":10412,"Ġsr":10413,"ori":10414,"abschnitt":10415,"Ġzeitalter":10416,"Ġorb":10417,"ĠmÃ¼s":10418,"Ġtotal":10419,"Ġabgerissen":10420,"Ġnoten":10421,"Ġweibliche":10422,"Ġtrugen":10423,"Ġborn":10424,"Ġmedaille":10425,"ves":10426,"ĠÃ¤nderte":10427,"Ġadvent":10428,"Ġerrichteten":10429,"Ġgehirn":10430,"ĠverfÃ¼gbar":10431,"Ġauszeichnung":10432,"Ġerwin":10433,"Ġplant":10434,"ĠpersÃ¶nliche":10435,"Ġalger":10436,"Ġausbildungs":10437,"Ġnag":10438,"lehrer":10439,"mete":10440,"Ġtrib":10441,"ĠpalÃ¤":10442,"gemÃ¤ÃŁ":10443,"Ġtaylor":10444,"Ġnutzte":10445,"mord":10446,"ential":10447,"Ġunend":10448,"Ġaussehen":10449,"Ġvertrags":10450,"Ġems":10451,"Ġsizilien":10452,"pus":10453,"Ġlig":10454,"Ġanp":10455,"Ġattra":10456,"ĠÃ¼bergeben":10457,"inea":10458,"ĠmÃ¤nnern":10459,"Ġdokumentar":10460,"uay":10461,"Ġermittelt":10462,"verfol":10463,"Ġachse":10464,"Ġeinsetz":10465,"ithm":10466,"Ġcann":10467,"Ġms":10468,"Ġbrauer":10469,"Ġgerd":10470,"athan":10471,"Ġpflanz":10472,"Ġlogik":10473,"Ġgabriel":10474,"Ġzugeschrieben":10475,"iler":10476,"ĠprÃ¤sidentschaft":10477,"Ġkoblenz":10478,"enner":10479,"oto":10480,"brÃ¼cken":10481,"Ġzin":10482,"Ġfans":10483,"Ġlist":10484,"Ġlebe":10485,"ible":10486,"Ġparks":10487,"arrow":10488,"Ġdei":10489,"Ġmajor":10490,"Ġhochschulen":10491,"Ġdurfte":10492,"ester":10493,"fuhr":10494,"Ġilleg":10495,"Ġeier":10496,"ĠniederlÃ¤ndische":10497,"aki":10498,"akten":10499,"Ġmie":10500,"rennen":10501,"rey":10502,"Ġsoweit":10503,"ikern":10504,"ĠdiÃ¶z":10505,"Ġbedient":10506,"Ġtexten":10507,"Ġdritt":10508,"Ã¶te":10509,"Ġarte":10510,"Ġglaub":10511,"Ġjohnson":10512,"Ġerdbeben":10513,"ruch":10514,"Ã¤ule":10515,"ĠÃ¤uÃŁere":10516,"Ġgattungen":10517,"orgungs":10518,"Ġalth":10519,"ĠfrÃ¼hl":10520,"Ġkolonien":10521,"zesse":10522,"osexu":10523,"behÃ¶rde":10524,"ism":10525,"Ġenz":10526,"amente":10527,"Ġrechner":10528,"bÃ¶":10529,"Ġpassen":10530,"Ġdfb":10531,"Ġcampus":10532,"Ġkim":10533,"Ġerwart":10534,"Ġmittelalters":10535,"tirol":10536,"ĠflieÃŁ":10537,"Ġgotth":10538,"Ġlev":10539,"ĠallmÃ¤":10540,"span":10541,"hner":10542,"Ġque":10543,"Ġhause":10544,"Ġleipziger":10545,"Ġdinge":10546,"Ġorth":10547,"Ġbenannte":10548,"Ġkey":10549,"strukturen":10550,"roskop":10551,"Ġhochwasser":10552,"Ġausgesprochen":10553,"Ġtexas":10554,"lÃ¤ufig":10555,"armee":10556,"Ġpotsdam":10557,"Ġsultan":10558,"Ġneapel":10559,"pfalz":10560,"Ġhexen":10561,"ĠfÃ¤l":10562,"prof":10563,"bay":10564,"regeln":10565,"hoven":10566,"Ġdurchschnittlich":10567,"verlÃ¤ss":10568,"Ġverschie":10569,"Ġtabellen":10570,"Ġnad":10571,"reiten":10572,"Ġumsatz":10573,"Ġburgund":10574,"Ġpopular":10575,"Ġfun":10576,"Ġeingetragen":10577,"Ġdritter":10578,"Ġverwandten":10579,"Ġphosph":10580,"ĠprÃ¼fung":10581,"Ġschwimm":10582,"sprinzip":10583,"akteur":10584,"Ġkell":10585,"Ã¤ndischer":10586,"Ġaktiven":10587,"Ġlothar":10588,"Ġdeswegen":10589,"ĠfÃ¼hrenden":10590,"retern":10591,"Ġdrogen":10592,"ĠermÃ¶glichte":10593,"sive":10594,"Ġverwandtschaft":10595,"char":10596,"erson":10597,"duktion":10598,"stoÃŁen":10599,"ckung":10600,"Ġautomatisch":10601,"ince":10602,"gelÃ¤nde":10603,"Ġstrahlen":10604,"ĠvÃ¶l":10605,"Ġlip":10606,"Ġnaturwissenschaft":10607,"let":10608,"wider":10609,"Ġverh":10610,"Ġkonzentration":10611,"Ġunger":10612,"itas":10613,"Ġpok":10614,"ĠschÃ¤den":10615,"ĠauswÃ¤rt":10616,"Ġintelle":10617,"Ġsystemen":10618,"ifizierte":10619,"Ġbetreibt":10620,"Ġentwicklungen":10621,"Ġaktive":10622,"eting":10623,"Ġbah":10624,"schwer":10625,"Ġix":10626,"Ġlamb":10627,"Ġeishockeyspieler":10628,"Ġbewegt":10629,"Ġvollkommen":10630,"Ġprotokoll":10631,"Ġfalken":10632,"Ġzir":10633,"Ġrese":10634,"Ġzufluss":10635,"Ġliterarische":10636,"Ġbismarck":10637,"lach":10638,"Ġunklar":10639,"Ġzwischenzeit":10640,"Ġlith":10641,"ĠdÃ¤nischer":10642,"Ġexpans":10643,"gÃ¤ngen":10644,"Ġionen":10645,"haven":10646,"Ġbreis":10647,"schreiber":10648,"bend":10649,"ĠsÃ¼dliche":10650,"kreisen":10651,"ĠlÃ¤uft":10652,"Ġsac":10653,"Ġadministrat":10654,"Ġpunk":10655,"Ġelementen":10656,"ental":10657,"Ġentf":10658,"ĠbrÃ¼ssel":10659,"Ġdimension":10660,"Ġfehlt":10661,"ivitÃ¤t":10662,"Ġabstamm":10663,"Ġtank":10664,"Ġbeobachten":10665,"theorie":10666,"Ġents":10667,"abrÃ¼ck":10668,"Ġverfolgt":10669,"ario":10670,"Ġassozi":10671,"Ġweiterentwicklung":10672,"Ġdatenbank":10673,"Ġukrain":10674,"ous":10675,"Ġleiten":10676,"Ġgeschieht":10677,"Ġfinger":10678,"Ġselbstbe":10679,"ĠhÃ¶ren":10680,"Ġjenseits":10681,"kos":10682,"Ġwelle":10683,"Ġerfolgreichen":10684,"Ġoberst":10685,"Ġperiod":10686,"Ġabgesehen":10687,"ĠerlÃ¤u":10688,"ĠdÃ¤m":10689,"Ġniger":10690,"Ġaufeinander":10691,"laufen":10692,"varian":10693,"rein":10694,"wende":10695,"enhagen":10696,"onds":10697,"eda":10698,"Ġhandlungen":10699,"Ġwandte":10700,"Ġverabschie":10701,"Ġstationen":10702,"schied":10703,"Ġvoran":10704,"Ġverwirk":10705,"ĠjÃ¤hrige":10706,"Ġreden":10707,"ĠschlÃ¤":10708,"Ġeinzelner":10709,"Ġbusch":10710,"ĠmÃ¤nnlichen":10711,"ĠÃ¼berlieferung":10712,"ĠpÃ¤pst":10713,"back":10714,"jahres":10715,"archite":10716,"Ġrowohlt":10717,"usch":10718,"Ġpsycho":10719,"uan":10720,"Ġeinsp":10721,"Ġgeografie":10722,"Ġmario":10723,"gasse":10724,"ĠrealitÃ¤t":10725,"Ġgeplanten":10726,"Ġbekannteste":10727,"ĠverzÃ¶ger":10728,"ensis":10729,"grÃ¼nden":10730,"Ġyoutu":10731,"Ġumbau":10732,"Ġstrahlung":10733,"Ġentstandenen":10734,"ĠkÃ¼rzer":10735,"Ġaufmerksamkeit":10736,"bereit":10737,"Ġverwandt":10738,"Ġeindr":10739,"Ġumgebaut":10740,"Ġverbrachte":10741,"Ġwilliams":10742,"ians":10743,"Ġeinteilung":10744,"Ġlungen":10745,"ĠerhÃ¤ltlich":10746,"ree":10747,"Ġfact":10748,"Ġbezeichneten":10749,"Ġunserer":10750,"Ġsla":10751,"Ġbenn":10752,"ĠkrÃ¶n":10753,"Ġschwaben":10754,"uts":10755,"Ġever":10756,"Ġtechnisch":10757,"ĠmÃ¼ndet":10758,"ĠlÃ¼ne":10759,"Ġtextil":10760,"ĠosnabrÃ¼ck":10761,"rifft":10762,"Ġwarn":10763,"Ġdurchge":10764,"Ġlake":10765,"Ġconrad":10766,"Ġlateinische":10767,"ĠhÃ¤ft":10768,"innern":10769,"Ġstartete":10770,"Ġdurchsetzen":10771,"Ġbenjamin":10772,"Ġeinher":10773,"Ġcell":10774,"Ã¤ssern":10775,"Ġkriminal":10776,"Ġerobert":10777,"kamer":10778,"Ġkabel":10779,"Ġnukle":10780,"itischen":10781,"Ġadams":10782,"Ġresearch":10783,"Ġschreibweise":10784,"Ġbehandel":10785,"rede":10786,"Ġbesiedel":10787,"Ġausgesetzt":10788,"Ġreda":10789,"holt":10790,"Ġstreich":10791,"Ġgenutz":10792,"Ġbull":10793,"Ġhg":10794,"Ġantik":10795,"Ġozean":10796,"ĠbÃ¤":10797,"izismus":10798,"Ġideal":10799,"ĠsÃ¼dafr":10800,"Ġangesiedelt":10801,"Ġkelt":10802,"entz":10803,"teilten":10804,"Ġimport":10805,"entums":10806,"werden":10807,"Ġanzut":10808,"ni":10809,"omorph":10810,"Ġpfar":10811,"Ġursprungs":10812,"Ġvolksrepublik":10813,"Ġsymmet":10814,"apeut":10815,"gie":10816,"Ġfut":10817,"Ġcant":10818,"ĠempfÃ¤nger":10819,"Ġregelungen":10820,"Ġabsolut":10821,"Ġvogt":10822,"Ġsax":10823,"Ġmonarchie":10824,"Ġprofil":10825,"ĠÃ¤hnlichen":10826,"Ġnormen":10827,"ithmus":10828,"Ġernen":10829,"Ġindones":10830,"Ġkriegsende":10831,"Ġlieben":10832,"verbot":10833,"Ġschwierigkeiten":10834,"ĠdÃ¼":10835,"ĠrÃ¶nt":10836,"horst":10837,"Ġpac":10838,"sphase":10839,"trieben":10840,"Ġwelchem":10841,"Ġbraucht":10842,"Ġple":10843,"Ġgur":10844,"Ġitalienisch":10845,"vereins":10846,"uÃŁ":10847,"Ġbatt":10848,"Ġkriegsgefangen":10849,"vorsitzender":10850,"Ġausgesch":10851,"Ġvorrang":10852,"forderung":10853,"ĠhÃ¶rspiel":10854,"person":10855,"Ġkv":10856,"ĠsÃ¼damerika":10857,"Ġvernunft":10858,"Ġtarif":10859,"Ġsperr":10860,"Ġstreng":10861,"Ġbesonderheit":10862,"autobahn":10863,"Ġves":10864,"Ġscharf":10865,"Ġheck":10866,"Ġbessere":10867,"Ġinnov":10868,"Ġelef":10869,"komplex":10870,"rÃ¤der":10871,"Ġspar":10872,"zucht":10873,"Ã¼chte":10874,"ĠhÃ¤n":10875,"Ġepoche":10876,"Ġji":10877,"ĠÃ¼berregion":10878,"Ġsorgte":10879,"hofer":10880,"Ġerr":10881,"Ġradi":10882,"Ġabitur":10883,"Ġsorg":10884,"Ã¤her":10885,"aro":10886,"ĠnÃ¶rdliche":10887,"Ġmessung":10888,"Ġverbrechen":10889,"knoten":10890,"Ġversuchten":10891,"Ġheid":10892,"Ġplural":10893,"ĠatmosphÃ¤re":10894,"Ġdeleg":10895,"Ġvorteile":10896,"Ġaltar":10897,"Ġarbeitnehmer":10898,"organisationen":10899,"ĠfÃ¤higkeit":10900,"Ġverleihung":10901,"Ġdement":10902,"Ġgelangte":10903,"Ġwilson":10904,"Ġschill":10905,"Ġausnahmen":10906,"qualitÃ¤t":10907,"wandlung":10908,"Ġyoutube":10909,"Ġapple":10910,"otto":10911,"Ġkonstantinopel":10912,"Ġkindes":10913,"Ġchromos":10914,"Ġdum":10915,"Ġrepar":10916,"masse":10917,"schend":10918,"Ġanten":10919,"Ġbook":10920,"Ġgeleitet":10921,"Ġselbstver":10922,"Ġprofess":10923,"Ġstatue":10924,"Ġliechten":10925,"Ġvictoria":10926,"Ġbeherbergt":10927,"ibus":10928,"klass":10929,"Ġhauptdarsteller":10930,"hringen":10931,"ĠzurÃ¼ckzufÃ¼hren":10932,"Ġion":10933,"Ġstephen":10934,"brÃ¼":10935,"ĠerzÃ¤hlt":10936,"bur":10937,"Ġgood":10938,"Ġberichte":10939,"Ġsob":10940,"essern":10941,"Ġfree":10942,"dik":10943,"Ġsend":10944,"Ġregister":10945,"Ġgleichung":10946,"Ġarag":10947,"Ġtw":10948,"Ġvorstand":10949,"ingung":10950,"Ġhead":10951,"Ġosmanischen":10952,"ĠernÃ¤hrung":10953,"Ġerfolgreiche":10954,"unus":10955,"ĠgewÃ¼n":10956,"Ġregionalen":10957,"fehler":10958,"Ġkav":10959,"icum":10960,"Ġostfries":10961,"Ġtransp":10962,"Ã¤chtnis":10963,"Ġrib":10964,"ierender":10965,"Ġreiste":10966,"Ġferr":10967,"gon":10968,"Ġfrisch":10969,"Ġpilot":10970,"Ġkrankheiten":10971,"Ġstalin":10972,"Ġuntereinander":10973,"inson":10974,"Ġkonj":10975,"Ġneuseeland":10976,"Ġherausra":10977,"Ġfelsen":10978,"Ġzens":10979,"Ġexemplare":10980,"Ġiron":10981,"Ġzweifel":10982,"Ġbade":10983,"stÃ¶rungen":10984,"Ġbevorzugt":10985,"Ġkooperation":10986,"Ġreinen":10987,"Ġbemerk":10988,"nieder":10989,"Ġleute":10990,"Ġweiten":10991,"Ġeuropean":10992,"Ġressourcen":10993,"ĠÃ¼bergangs":10994,"Ġvolker":10995,"Ġbaron":10996,"Ġluftwaffe":10997,"Ġtouristen":10998,"riet":10999,"Ġkilometern":11000,"rip":11001,"Ġvorles":11002,"Ġgras":11003,"Ġregierungsbezirk":11004,"Ġgent":11005,"Ġimp":11006,"Ġbott":11007,"ĠgieÃŁen":11008,"Ġcott":11009,"ĠgrÃ¼ndeten":11010,"Ġgesellschaften":11011,"Ġetym":11012,"denkmÃ¤ler":11013,"Ġhohl":11014,"Ġteles":11015,"Ġvort":11016,"Ġlandtags":11017,"ĠbegÃ¼nst":11018,"Ġsolo":11019,"Ġheinrichs":11020,"Ġkoordinaten":11021,"Ġliechtenstein":11022,"Ġaufgeb":11023,"Ġwestern":11024,"Ġsg":11025,"schichten":11026,"Ġgefl":11027,"Ġeichen":11028,"formationen":11029,"Ġcorps":11030,"Ġvergessen":11031,"Ġgedre":11032,"stande":11033,"isters":11034,"ĠsÃ¤ulen":11035,"jÃ¤ger":11036,"Ġteilung":11037,"Ġbreslau":11038,"Ġtitan":11039,"sdienst":11040,"stal":11041,"Ġfahrrad":11042,"medaille":11043,"hamm":11044,"uge":11045,"Ġsyl":11046,"prom":11047,"haltungs":11048,"osophie":11049,"Ġzugriff":11050,"Ġgitarrist":11051,"Ġwiederaufbau":11052,"cu":11053,"ankt":11054,"Ġagrar":11055,"ĠdurchfÃ¼hrung":11056,"Ġbestimmter":11057,"Ġkommunistischen":11058,"Ġkroatien":11059,"Ġeinkauf":11060,"ĠwÃ¶rterbuch":11061,"unge":11062,"Ġnit":11063,"Ġsynonym":11064,"Ġcaesar":11065,"waren":11066,"Ġvierte":11067,"Ġwahrgenommen":11068,"ĠzusÃ¤tzlichen":11069,"ĠerhÃ¶hte":11070,"Ġpseudonym":11071,"ĠstaatsbÃ¼rger":11072,"beweg":11073,"stellers":11074,"Ġrostock":11075,"Ġcolumb":11076,"Ġbestehend":11077,"Ġnominierung":11078,"Ġpent":11079,"Ġfries":11080,"ĠzurÃ¼ckzu":11081,"ampe":11082,"Ġkopenhagen":11083,"ĠunabhÃ¤ngige":11084,"Ġbischofs":11085,"Ġcarlos":11086,"Ã¤udes":11087,"Ġgis":11088,"Ġtam":11089,"Ġmodul":11090,"Ġerschienenen":11091,"Ġausstellungen":11092,"Ġhed":11093,"Ġkontakte":11094,"ĠdÃ¤nische":11095,"feln":11096,"nimmt":11097,"Ġzdf":11098,"ĠhÃ¤ufigsten":11099,"Ġfachwerk":11100,"Ġehrungen":11101,"Ġgreif":11102,"Ġverkaufte":11103,"Ġreaktionen":11104,"Ġtypischer":11105,"schnitten":11106,"Ġamph":11107,"Ġausgangs":11108,"Ġphar":11109,"Ġlaser":11110,"Ġsynagoge":11111,"ee":11112,"Ġtum":11113,"quis":11114,"Ġboeing":11115,"Ġsiedler":11116,"iber":11117,"Ġjeff":11118,"Ġmedik":11119,"Ġgrabst":11120,"Ġislamischen":11121,"Ġbetriebe":11122,"ĠpersÃ¶nlich":11123,"Ġabweich":11124,"Ġbewertung":11125,"haftet":11126,"Ġverschw":11127,"Ġabsolute":11128,"Ġbamberg":11129,"hÃ¤lter":11130,"reiter":11131,"rest":11132,"Ġspin":11133,"Ġweltraum":11134,"Ġwidth":11135,"arbeitern":11136,"Ġsalv":11137,"ĠÃ¼bernimmt":11138,"Ġvirginia":11139,"Ġskandinav":11140,"era":11141,"Ġbekannter":11142,"oire":11143,"lland":11144,"Ġschwierig":11145,"Ġberechnet":11146,"Ġgewid":11147,"Ġverluste":11148,"funktionen":11149,"Ġgetreide":11150,"Ġulm":11151,"Ġverbindungs":11152,"ĠÃ¼berall":11153,"Ġneuere":11154,"Ġkatalog":11155,"Ġsternen":11156,"Ġdim":11157,"Ġvok":11158,"ione":11159,"weilen":11160,"Ġray":11161,"Ġordnungs":11162,"bundes":11163,"Ġgame":11164,"Ġjubil":11165,"Ġammon":11166,"opfer":11167,"Ġerhaltene":11168,"Ġflorenz":11169,"enthal":11170,"Ġparty":11171,"gestellten":11172,"reicht":11173,"Ġforderungen":11174,"spezif":11175,"Ġbeamten":11176,"Ġkorres":11177,"Ġcorpor":11178,"hut":11179,"Ġwerbe":11180,"Ġvenez":11181,"Ġinfanterie":11182,"ĠplÃ¤tze":11183,"Ġheirat":11184,"Ġzwecke":11185,"Ġkfz":11186,"ĠÃ¼berlegen":11187,"Ġlitau":11188,"ĠkÃ¶nigreichs":11189,"brief":11190,"fangen":11191,"Ġfeiert":11192,"ĠbetÃ¤t":11193,"tran":11194,"Ġtoler":11195,"Ġreport":11196,"bronn":11197,"Ã¼bt":11198,"Ġeinwohnerentwicklung":11199,"Ġprominen":11200,"ĠstÃ¶":11201,"schÃ¼":11202,"Ġparameter":11203,"verbund":11204,"ĠsekundÃ¤r":11205,"riz":11206,"Ġdiam":11207,"ĠkÃ¶rpers":11208,"ĠsÃ¼dk":11209,"stÃ¤dt":11210,"eins":11211,"ares":11212,"Ġgor":11213,"skÃ¤mpfer":11214,"ĠeuropÃ¤ischer":11215,"Ġbedeutender":11216,"gerichtshof":11217,"ĠnÃ¤hr":11218,"schatz":11219,"Ġnel":11220,"ierer":11221,"igner":11222,"Ġgross":11223,"Ġmusical":11224,"sÃ¤chsischen":11225,"yc":11226,"Ġou":11227,"rÃ¤te":11228,"Ġbabyl":11229,"ĠsÃ¤uget":11230,"ĠausdrÃ¼cklich":11231,"Ġerfolgl":11232,"Ġencycl":11233,"Ġherum":11234,"atis":11235,"Ġgul":11236,"Ġerfurt":11237,"Ġcross":11238,"Ġaugustus":11239,"Ġmarktplatz":11240,"Ġjim":11241,"Ġausbruch":11242,"Ġheter":11243,"kÃ¶mm":11244,"Ġliefert":11245,"geschichten":11246,"Ġakte":11247,"Ġgeplante":11248,"Ġdemokratische":11249,"dingen":11250,"produkte":11251,"Ġakten":11252,"Ġforderung":11253,"elles":11254,"Ġapothe":11255,"Ġanalyt":11256,"glas":11257,"Ġstreet":11258,"Ġpferd":11259,"Ġzweites":11260,"Ġzucht":11261,"hou":11262,"Ġchristop":11263,"faktor":11264,"aufnahmen":11265,"zeuger":11266,"ifizieren":11267,"Ġnegative":11268,"wÃ¤":11269,"Ġfliegen":11270,"verk":11271,"icke":11272,"Ġsouver":11273,"ĠverschwÃ¶r":11274,"Ġduisburg":11275,"ray":11276,"Ġsaarb":11277,"Ġsqu":11278,"Ġschlossen":11279,"Ġaltes":11280,"Ġverbundenen":11281,"Ġkonzil":11282,"Ġgeograf":11283,"grammen":11284,"Ġweinbau":11285,"schlagen":11286,"ĠstÃ¤dtische":11287,"Ġerinnern":11288,"Ġvorgestellt":11289,"sil":11290,"Ġmodel":11291,"chnungs":11292,"marschall":11293,"figuren":11294,"ĠrÃ¶ntgen":11295,"eiermark":11296,"ĠbedÃ¼rf":11297,"real":11298,"Ġpublikationen":11299,"Ġwidmete":11300,"ĠstÃ¤dtepartnerschaften":11301,"Ġmanuel":11302,"Ġbeta":11303,"fÃ¼hrungen":11304,"work":11305,"Ġdag":11306,"yrer":11307,"Ġyoung":11308,"Ġdouglas":11309,"Ġausgewiesen":11310,"Ġvorzu":11311,"Ġkatzen":11312,"Ġmigr":11313,"Ġausstellungs":11314,"gentur":11315,"risch":11316,"berts":11317,"ĠangehÃ¶rigen":11318,"amerikanischen":11319,"Ġsprachraum":11320,"Ġnutzt":11321,"Ġempfangen":11322,"Ġorthodoxen":11323,"Ġgekr":11324,"itee":11325,"beteil":11326,"Ġsahen":11327,"Ġpm":11328,"Ġreiche":11329,"Ġfrag":11330,"Ġbitte":11331,"Ġmissb":11332,"Ġphilosophen":11333,"felde":11334,"Ġolympias":11335,"nommen":11336,"Ġschol":11337,"ĠrÃ¼cktritt":11338,"ĠverlÃ¤ngerung":11339,"bezirke":11340,"Ġlet":11341,"spreis":11342,"Ġentstandene":11343,"emer":11344,"Ġlief":11345,"sprechend":11346,"gow":11347,"arta":11348,"Ġminderheit":11349,"Ġstammte":11350,"Ġabgegeben":11351,"aga":11352,"Ġslowakei":11353,"italien":11354,"Ġerkannte":11355,"Ġsyrien":11356,"seiten":11357,"Ġverfasst":11358,"vereine":11359,"klassen":11360,"Ġae":11361,"Ġimage":11362,"Ġroute":11363,"Ġverweiger":11364,"Ġelektronische":11365,"Ġmultipl":11366,"Ġinklus":11367,"punkten":11368,"emm":11369,"Ġbesonderer":11370,"Ġeintritt":11371,"Ġirr":11372,"Ġautorennfahrer":11373,"sterben":11374,"Ġbesiedelt":11375,"Ġgeteilt":11376,"Ġvorherr":11377,"russ":11378,"dach":11379,"ĠangehÃ¶rige":11380,"kers":11381,"Ġale":11382,"Ġmeg":11383,"schwung":11384,"Ġobersten":11385,"familien":11386,"ohlen":11387,"uchtung":11388,"Ġstudent":11389,"Ġkriege":11390,"Ġdokumentarfilm":11391,"Ġoe":11392,"Ġlitauen":11393,"Ġtafel":11394,"ĠkÃ¼nstlern":11395,"Ġkok":11396,"fÃ¶rderung":11397,"ĠbeeintrÃ¤cht":11398,"wÃ¶rter":11399,"ĠenzyklopÃ¤die":11400,"ĠÃ¤ndern":11401,"skrit":11402,"ĠbÃ¼rgerlichen":11403,"frac":11404,"Ġbemerken":11405,"iren":11406,"rechtlich":11407,"Ġpreise":11408,"Ġgala":11409,"Ġbetont":11410,"Ġwohnung":11411,"Ġschlesien":11412,"Ġcentral":11413,"Ġthal":11414,"scheibe":11415,"Ġeric":11416,"Ġfilmschauspieler":11417,"dienste":11418,"Ġerfasst":11419,"Ġalltag":11420,"Ġeta":11421,"ologien":11422,"Ã¤nderungen":11423,"Ġgraben":11424,"Ġheilig":11425,"Ġliegende":11426,"Ġhildesheim":11427,"steig":11428,"Ġanc":11429,"Ġautorin":11430,"Ġkabarett":11431,"cast":11432,"Ġaufw":11433,"Ġgeorges":11434,"fung":11435,"Ġpanor":11436,"Ġintellekt":11437,"oul":11438,"ieu":11439,"Ġbang":11440,"Ġhabsburger":11441,"Ġnerven":11442,"Ġgeste":11443,"Ġgenf":11444,"Ġfred":11445,"ĠrÃ¤":11446,"Ġamateur":11447,"bedarf":11448,"stÃ¶":11449,"mengen":11450,"Ġrumpf":11451,"Ġredaktion":11452,"ĠvolkszÃ¤hlung":11453,"wettbewer":11454,"Ġmani":11455,"eman":11456,"Ġuntere":11457,"Ġbesiedlung":11458,"Ġpath":11459,"book":11460,"chor":11461,"spark":11462,"Ġtrium":11463,"Ġmelodie":11464,"Ġisa":11465,"Ġtenn":11466,"flag":11467,"Ġsturz":11468,"Ġharn":11469,"ĠerhÃ¶hen":11470,"Ġsinnvoll":11471,"Ġversuchs":11472,"Ġrealisiert":11473,"Ġhardware":11474,"afrika":11475,"Ġsyndrom":11476,"Ġhellen":11477,"Ġnachteil":11478,"Ġcit":11479,"Ġfac":11480,"verzeichnis":11481,"herrn":11482,"Ġabsolvierte":11483,"Ġay":11484,"Ġeigentum":11485,"verbandes":11486,"Ġdid":11487,"planung":11488,"Ġwalther":11489,"reiches":11490,"Ġnominiert":11491,"lines":11492,"ovi":11493,"franken":11494,"Ġmoral":11495,"ĠauÃŁenminister":11496,"jag":11497,"Ġrez":11498,"Ġplanet":11499,"sex":11500,"Ġerscheinungs":11501,"henden":11502,"ident":11503,"to":11504,"Ġbebau":11505,"ĠplÃ¶tz":11506,"ĠzugehÃ¶rigkeit":11507,"Ġgitarre":11508,"Ġinhalte":11509,"Ġregime":11510,"Ġhosp":11511,"bstoff":11512,"ĠfrÃ¼chte":11513,"Ġgreat":11514,"Ġhirn":11515,"Ġhinweg":11516,"Ġdienste":11517,"tin":11518,"Ġschwerer":11519,"Ġangeordnet":11520,"fle":11521,"Ġsour":11522,"Ġbanken":11523,"Ġvermin":11524,"Ġdrucker":11525,"ĠstÃ¶rungen":11526,"Ġagen":11527,"Ã¶ten":11528,"Ġworten":11529,"Ġspannungs":11530,"Ġfi":11531,"Ġwon":11532,"Ġseg":11533,"teln":11534,"Ġschwarzer":11535,"Ġzeichner":11536,"Ġsophie":11537,"ceae":11538,"ichen":11539,"ĠverbÃ¤nde":11540,"Ġkeramik":11541,"Ġstrategie":11542,"Ġlyn":11543,"Ġunterstellt":11544,"Ġultra":11545,"Ġexpon":11546,"Ġtschechischer":11547,"ĠersterwÃ¤hnung":11548,"einsatz":11549,"ĠlÃ¤ngen":11550,"open":11551,"Ġgefolgt":11552,"Ġdauerhaft":11553,"erbe":11554,"oms":11555,"Ġangewendet":11556,"ansicht":11557,"Ġboston":11558,"Ġebenen":11559,"Ġbarcel":11560,"Ġmusikalische":11561,"Ġkonzentrations":11562,"Ġstory":11563,"Ġbedeutete":11564,"Ġmalt":11565,"Ġlisten":11566,"Ġsad":11567,"Ġmedizinischen":11568,"ĠnÃ¼rnberger":11569,"Ġlands":11570,"ĠerhÃ¶hung":11571,"Ġschicksal":11572,"psych":11573,"Ġpolyn":11574,"Ġhinsicht":11575,"Ġluftfahrt":11576,"Ġindividuen":11577,"Ġhoffnung":11578,"atsch":11579,"Ġgitter":11580,"raben":11581,"Ġempfind":11582,"Ġerkannt":11583,"wehren":11584,"Ġlebensraum":11585,"schers":11586,"Ġwerkzeug":11587,"has":11588,"frem":11589,"yter":11590,"Ġpastor":11591,"Ġerbaute":11592,"Ġsteigen":11593,"ĠhÃ¤u":11594,"Ġschwert":11595,"Ġsang":11596,"phy":11597,"Ġjudent":11598,"lexikon":11599,"hon":11600,"Ġcard":11601,"Ġvorne":11602,"quote":11603,"bler":11604,"klen":11605,"Ġwales":11606,"Ġsiedel":11607,"Ġurban":11608,"Ġstatthalter":11609,"Ġgrafiker":11610,"instrument":11611,"istisches":11612,"ĠsÃ¼dtirol":11613,"Ġbernstein":11614,"front":11615,"Ġengine":11616,"Ġexpliz":11617,"Ġschre":11618,"breite":11619,"Ġverfolgung":11620,"ĠschÃ¤del":11621,"Ġstickstoff":11622,"Ġencyclop":11623,"gemeinschaften":11624,"ĠthÃ¼ringer":11625,"Ġgletscher":11626,"Ġschwanz":11627,"vey":11628,"zonen":11629,"Ġug":11630,"Ġdrachen":11631,"Ġabgel":11632,"ĠgroÃŁem":11633,"ĠprÃ¼":11634,"hÃ¼tte":11635,"ĠeinflÃ¼sse":11636,"imes":11637,"ĠmÃ¤rt":11638,"Ġberichten":11639,"Ġbestre":11640,"sprachige":11641,"ĠbÃ¤ume":11642,"Ġbere":11643,"Ġallianz":11644,"Ġlil":11645,"Ġdio":11646,"amtes":11647,"Ġsichern":11648,"Ġsende":11649,"ĠverstÃ¤nd":11650,"Ġangabe":11651,"meyer":11652,"hÃ¤use":11653,"Ġweiblichen":11654,"inth":11655,"Ġschuss":11656,"Ġkeines":11657,"Ġgeographische":11658,"sign":11659,"Ġhaw":11660,"Ġerforschung":11661,"Ġsektion":11662,"Ġerfindung":11663,"Ġmaterie":11664,"Ġleber":11665,"boot":11666,"studien":11667,"Ġneumann":11668,"ĠnobelpreistrÃ¤ger":11669,"oine":11670,"ices":11671,"stehende":11672,"Ġthailand":11673,"lob":11674,"beruf":11675,"Ġdame":11676,"Ã¤mmen":11677,"Ġrail":11678,"Ġstates":11679,"ĠoberÃ¶sterreich":11680,"Ġpum":11681,"Ġcall":11682,"mil":11683,"etal":11684,"ktoren":11685,"Ġausgestellt":11686,"Ġinformatik":11687,"Ġausgebildet":11688,"Ġvieh":11689,"Ġsqrt":11690,"Ġzeigten":11691,"Ġeinzugs":11692,"Ġsenkrecht":11693,"hans":11694,"oi":11695,"Ġplas":11696,"Ġjackson":11697,"Ġreformen":11698,"Ġarena":11699,"Ġchampions":11700,"Ġdiss":11701,"Ġliberalen":11702,"stationen":11703,"gelegen":11704,"auflage":11705,"Ġzahlreicher":11706,"Ġsap":11707,"Ġwr":11708,"Ġgebraucht":11709,"Ġpoliz":11710,"ĠrÃ¤t":11711,"verhÃ¤ltnisse":11712,"Ġpatrick":11713,"ĠÃ¼berd":11714,"ĠunmÃ¶glich":11715,"ĠgÃ¤ng":11716,"Ġcab":11717,"Ġwuppert":11718,"nutzung":11719,"Ġult":11720,"Ġdauern":11721,"alm":11722,"Ġdurchbruch":11723,"izitÃ¤t":11724,"grÃ¶ÃŁen":11725,"ĠeingeschrÃ¤nkt":11726,"Ġtang":11727,"Ġdecken":11728,"Ġabzug":11729,"ĠÃ¼berarbeitete":11730,"Ġfreima":11731,"Ġstudies":11732,"prinzip":11733,"ĠfÃ¶rdern":11734,"feier":11735,"Ġschatz":11736,"strahlt":11737,"Ġtechniken":11738,"borg":11739,"Ġkore":11740,"syn":11741,"Ġerhaltenen":11742,"Ġschmerz":11743,"lÃ¤ndischen":11744,"Ġlight":11745,"Ġhumbold":11746,"dorff":11747,"ives":11748,"Ġworm":11749,"Ġrechtliche":11750,"ĠgedÃ¤chtnis":11751,"Ġrichtete":11752,"Ġhelfen":11753,"Ġproduzierte":11754,"Ġgermanischen":11755,"Ġsorgen":11756,"Ġvereinzelt":11757,"adbach":11758,"ssitz":11759,"Ġabgeordneter":11760,"Ġfinanziellen":11761,"Ġphr":11762,"ĠmÃ¶chte":11763,"Ġregiment":11764,"Ġsupp":11765,"ĠjÃ¼discher":11766,"ĠhÃ¤m":11767,"eto":11768,"Ġveranstaltung":11769,"Ġerzbist":11770,"Ġbeinhaltet":11771,"Ġlese":11772,"Ġschwestern":11773,"Ġjugendlichen":11774,"ĠgewÃ¶hnlich":11775,"Ġtfrac":11776,"Ġweiterentwick":11777,"Ġdeport":11778,"Ġull":11779,"Ġgelingt":11780,"aya":11781,"Ġbeigesetzt":11782,"Ġtrauer":11783,"Ġandrea":11784,"Ġblaue":11785,"Ġsubstanz":11786,"akademie":11787,"Ġvorschriften":11788,"kreises":11789,"Ġzert":11790,"Ġalan":11791,"Ġfestland":11792,"Ġschmuck":11793,"Ġappro":11794,"Ġblitz":11795,"ingenieur":11796,"Ġsozialistischen":11797,"Ġallgemeines":11798,"Ã¼hren":11799,"Ġnachdruck":11800,"Ġentsprach":11801,"lerin":11802,"Ġpfei":11803,"ommel":11804,"Ġwladimir":11805,"Ġenthielt":11806,"Ġgesamm":11807,"Ġsatur":11808,"Ġvw":11809,"ĠmÃ¼hlen":11810,"Ġjugendliche":11811,"Ġrestlichen":11812,"ĠhÃ¶hlen":11813,"Ġbodensee":11814,"ĠbischÃ¶fe":11815,"lohn":11816,"gewÃ¤":11817,"Ġwolken":11818,"Ġdoppelt":11819,"Ġartillerie":11820,"Ġbisherige":11821,"Ġhomo":11822,"ĠtÃ¤ter":11823,"ĠmolekÃ¼l":11824,"Ġbulgarien":11825,"Ġbiologie":11826,"lagerung":11827,"Ġhimmels":11828,"Ġorange":11829,"immel":11830,"Ġpetersburg":11831,"ĠspÃ¤tant":11832,"Ġvin":11833,"ienne":11834,"Ġiss":11835,"Ġsav":11836,"omon":11837,"Ġsocial":11838,"plÃ¤tzen":11839,"Ġreinbek":11840,"Ġgamma":11841,"Ã¶sser":11842,"saal":11843,"Ġweihnachts":11844,"Ġzelle":11845,"Ġholoc":11846,"Ġbedien":11847,"Ġinschrift":11848,"Ġgefertigt":11849,"folgen":11850,"ĠauslÃ¤nder":11851,"menten":11852,"ĠlÃ¶sungen":11853,"Ġeventuell":11854,"Ġgna":11855,"vertretung":11856,"ritz":11857,"Ġpis":11858,"igtes":11859,"Ġvorgeschlagen":11860,"Ġchal":11861,"Ġliterarischen":11862,"ĠunterhÃ¤lt":11863,"Ġrichtig":11864,"Ġbesitzer":11865,"Ġsher":11866,"ĠbÃ¤ren":11867,"Ġclaus":11868,"Ġgeschlossenen":11869,"Ġjava":11870,"Ġumgeb":11871,"Ġverdienste":11872,"Ġfinanzierung":11873,"Ġbug":11874,"ĠgÃ¤ste":11875,"Ġurauf":11876,"Ġfont":11877,"Ġjugoslawien":11878,"ĠausgewÃ¤hl":11879,"Ġpall":11880,"Ġerzielt":11881,"Ġgerne":11882,"Ġelektrol":11883,"Ġelektrom":11884,"Ġhomosexu":11885,"Ġkaffe":11886,"Ġharr":11887,"Ġtiefer":11888,"Ġoperat":11889,"asste":11890,"uler":11891,"deckung":11892,"Ġkatastrophen":11893,"Ġdatiert":11894,"ĠverkÃ¼n":11895,"Ġnm":11896,"Ġzwingen":11897,"Ġamerica":11898,"Ġschwarzwald":11899,"Ġheran":11900,"Ġcharlotte":11901,"Ġask":11902,"Ġhut":11903,"Ġausgra":11904,"Ġvertret":11905,"schef":11906,"Ġakust":11907,"hiop":11908,"Ġwissens":11909,"hai":11910,"Ġplattform":11911,"Ġdein":11912,"iffern":11913,"vogel":11914,"odes":11915,"Ġmoham":11916,"Ġbarcelona":11917,"Ġsid":11918,"Ġplatte":11919,"Ġlutherischen":11920,"Ġjeweilige":11921,"Ġorganisierte":11922,"Ġran":11923,"Ġrenov":11924,"schwitz":11925,"Ġlehren":11926,"Ġpublizist":11927,"deutet":11928,"prÃ¼ft":11929,"ĠzuverlÃ¤ss":11930,"verteid":11931,"Ġnachbargemeinden":11932,"ĠberÃ¼hmten":11933,"ĠrÃ¤ume":11934,"Ġqualifikation":11935,"Ġsoziologie":11936,"Ġbefreiung":11937,"ĠverbÃ¼ndeten":11938,"Ġpionier":11939,"ausgaben":11940,"ĠmÃ¤nnliche":11941,"Ġapostol":11942,"pan":11943,"flÃ¼ss":11944,"Ġermord":11945,"ossa":11946,"Ġtower":11947,"mangel":11948,"Ġvorname":11949,"dukt":11950,"Ġtai":11951,"app":11952,"Ġzeitungen":11953,"Ġbauch":11954,"Ġtote":11955,"Ġnationalsozialistischen":11956,"kischen":11957,"Ġbarb":11958,"Ġfire":11959,"Ã¤hrt":11960,"Ġradrennfahrer":11961,"Ġrechtsanwalt":11962,"deutscher":11963,"Ġerhebliche":11964,"Ġrast":11965,"Ġmans":11966,"Ġbundesrat":11967,"Ġlebensweise":11968,"ĠbÃ¼r":11969,"ĠpfÃ¤l":11970,"Ġerscheinung":11971,"worten":11972,"Ġhong":11973,"Ġjas":11974,"Ġplaton":11975,"hum":11976,"Ġeinnahmen":11977,"Ġzirk":11978,"Ġbeach":11979,"Ġbilanz":11980,"fc":11981,"Ġvorgang":11982,"Ġlegen":11983,"ĠstraÃŁburg":11984,"lan":11985,"Ġbundestagswahl":11986,"kehren":11987,"Ġmoschee":11988,"ĠmÃ¼hle":11989,"Ã¼rzte":11990,"Ġarmy":11991,"Ġweich":11992,"aver":11993,"Ġbog":11994,"quert":11995,"typ":11996,"utions":11997,"iva":11998,"Ġmagen":11999,"ĠfÃ¼rstentum":12000,"Ġholocaust":12001,"Ġausstattung":12002,"Ġnachlass":12003,"Ġhyb":12004,"Ġvenus":12005,"Ġglobal":12006,"behÃ¶rden":12007,"Ġrunden":12008,"necht":12009,"Ġblauen":12010,"kriege":12011,"sbarkeit":12012,"Ġbearbeitung":12013,"Ġaufkommen":12014,"Ġumfassende":12015,"ieber":12016,"Ġverstand":12017,"ĠÃ¼bersetzungen":12018,"Ġspielfilm":12019,"ĠgrundstÃ¼ck":12020,"frÃ¤nk":12021,"knÃ¼":12022,"jewitsch":12023,"ect":12024,"oide":12025,"Ġgefeiert":12026,"walde":12027,"Ġlewis":12028,"Ġfreimaurer":12029,"Ġhur":12030,"Ġjoe":12031,"Ġmagnus":12032,"Ġziegel":12033,"Ġnachfrage":12034,"Ġcharts":12035,"liegende":12036,"Ġwy":12037,"Ã¶ll":12038,"Ġgenossen":12039,"Ġermordung":12040,"meier":12041,"wil":12042,"okomot":12043,"Ġbotschafter":12044,"Ġamaz":12045,"ĠallmÃ¤hlich":12046,"iqu":12047,"Ġdichtung":12048,"ahe":12049,"folger":12050,"etischer":12051,"verordnung":12052,"Ġwiedervereinigung":12053,"ĠtÃ¼rken":12054,"hers":12055,"stÃ¤dten":12056,"Ġnebel":12057,"Ġstrafe":12058,"Ġvertrat":12059,"Ġkomplexe":12060,"jon":12061,"Ġehemaliges":12062,"Ġunsere":12063,"Ġwend":12064,"Ġequ":12065,"Ġkatholiken":12066,"Ġshift":12067,"Ġslowak":12068,"ckten":12069,"gelÃ¶":12070,"Ġbestimmungen":12071,"Ġveranlas":12072,"weiÃŁ":12073,"Ġminute":12074,"box":12075,"Ġscham":12076,"Ġpiloten":12077,"fÃ¼rst":12078,"Ġie":12079,"anspruch":12080,"ichtungs":12081,"elli":12082,"ĠkapitÃ¤n":12083,"Ġmesser":12084,"ĠmatthÃ¤us":12085,"ĠwÃ¤hlte":12086,"kandid":12087,"otischen":12088,"ĠgelÃ¶":12089,"ĠverlÃ¤ngert":12090,"Ġbeer":12091,"Ġbeobachtung":12092,"fi":12093,"Ġspek":12094,"Ã¼bertragung":12095,"Ġgesellschaftliche":12096,"Ġlex":12097,"Ġkru":12098,"gerufen":12099,"ĠÃ¼berwie":12100,"Ġdetaill":12101,"gungs":12102,"Ġzustande":12103,"beschreibung":12104,"Ġvorbereitung":12105,"Ġtil":12106,"Ġschaum":12107,"versuch":12108,"ĠprÃ¤fekt":12109,"Ġhandschrift":12110,"Ġklassischer":12111,"otherapie":12112,"Ġont":12113,"Ġschal":12114,"haar":12115,"uellen":12116,"Ġnil":12117,"gestellte":12118,"Ã¤uren":12119,"Ġlabel":12120,"Ġgalten":12121,"dienstkreuz":12122,"Ġwho":12123,"Ġreferenz":12124,"icz":12125,"issionen":12126,"Ġhot":12127,"Ġguer":12128,"ymne":12129,"Ġcarlo":12130,"gerechnet":12131,"Ġgelangt":12132,"Ġkenntnis":12133,"brechen":12134,"wirtschafts":12135,"Ġkonsul":12136,"Ġschiffen":12137,"Ġtown":12138,"Ġsolange":12139,"lebt":12140,"Ġliss":12141,"ladung":12142,"wenden":12143,"Ġdefen":12144,"periode":12145,"steinen":12146,"Ġansichten":12147,"finanz":12148,"Ġphysikalische":12149,"Ġdy":12150,"ĠlÃ¼b":12151,"Ġolympische":12152,"Ġarabische":12153,"Ġstockholm":12154,"Ã¼hl":12155,"Ġkrypt":12156,"swissenschaften":12157,"Ġlinear":12158,"hammad":12159,"Ġborg":12160,"Ġstehende":12161,"Ġkonflikte":12162,"tter":12163,"nfte":12164,"Ġbahnhofs":12165,"Ġumgangssprachlich":12166,"erung":12167,"Ġeintrag":12168,"Ġversen":12169,"ĠgebÃ¤uden":12170,"Ġneueren":12171,"Ġfotografie":12172,"Ġnavig":12173,"uri":12174,"Ġadmiral":12175,"Ġkonservativen":12176,"Ġerik":12177,"Ġsteiner":12178,"Ã¶stlichen":12179,"stimmt":12180,"Ġvolkes":12181,"Ġstandards":12182,"Ġausrichtung":12183,"anna":12184,"Ġbenediktiner":12185,"Ġbrutt":12186,"Ġkolumb":12187,"ĠaktivitÃ¤t":12188,"Ġzeichnungen":12189,"Ġcel":12190,"Ġbohr":12191,"Ġbeliebte":12192,"Ġsolle":12193,"ĠplÃ¼n":12194,"Ġprophe":12195,"Ġerkrankungen":12196,"Ġausgangspunkt":12197,"Ġbreisgau":12198,"vekt":12199,"Ġungleich":12200,"Ġsprech":12201,"Ġaufwand":12202,"Ġunterrich":12203,"Ġbelegen":12204,"Ġungarischer":12205,"Ġraub":12206,"altar":12207,"Ġhingerichtet":12208,"ilon":12209,"Ġgriechischer":12210,"pum":12211,"Ġhang":12212,"Ġatlantik":12213,"hÃ¤u":12214,"Ġsuchte":12215,"Ġmitge":12216,"Ġbeige":12217,"Ġerlassen":12218,"sprogramm":12219,"bewegungen":12220,"yon":12221,"Ġeingebaut":12222,"Ġuv":12223,"Ġsuff":12224,"brig":12225,"ĠauÃŁerorden":12226,"Ġpflanze":12227,"schreiben":12228,"ĠÃ¤uÃŁerte":12229,"mÃ¤chte":12230,"ĠwÃ¤":12231,"irr":12232,"Ġengen":12233,"ektes":12234,"staats":12235,"Ġkritisch":12236,"Ġsachver":12237,"zien":12238,"stall":12239,"Ġkent":12240,"skraft":12241,"Ġbegeister":12242,"Ġbegriffskl":12243,"Ġgotha":12244,"spartner":12245,"Ġhunde":12246,"Ġnahen":12247,"Ġeinfacher":12248,"Ġmerkmal":12249,"abelle":12250,"Ġvorn":12251,"Ã¤rer":12252,"sgruppe":12253,"achse":12254,"Ġdonald":12255,"Ġmittelalterliche":12256,"Ġwater":12257,"Ġarmin":12258,"Ġdarsteller":12259,"marken":12260,"izen":12261,"Ġruder":12262,"ĠgeprÃ¤gten":12263,"ĠÃ¼bernahmen":12264,"Ġverbreiteten":12265,"Ġnatrium":12266,"Ġkomplexen":12267,"Ġpfarrei":12268,"eichert":12269,"pfe":12270,"Ġlinz":12271,"brÃ¼ck":12272,"Ġkonzip":12273,"Ġjura":12274,"alia":12275,"Ġfrancesco":12276,"utage":12277,"Ġfres":12278,"stuft":12279,"nehmern":12280,"Ġbotaniker":12281,"Ġkrebs":12282,"Ġsagt":12283,"Ġwerbung":12284,"Ġweichen":12285,"Ġheutz":12286,"Ġgeschmack":12287,"ĠbeschÃ¤digt":12288,"Ġhielten":12289,"Ġversetzt":12290,"swesen":12291,"Ġfranziskan":12292,"Ġheutzutage":12293,"Ġhim":12294,"tels":12295,"Ġverzwei":12296,"Ġibm":12297,"gesetze":12298,"Ġmischung":12299,"Ġngc":12300,"Ã¶kon":12301,"Ġholland":12302,"phal":12303,"Ġausgerichtet":12304,"hende":12305,"ĠgegenstÃ¤nde":12306,"richen":12307,"Ġhohem":12308,"ĠĠĠĠ":12309,"Ġcad":12310,"Ġjahrhunderten":12311,"rechtliche":12312,"Ġonkel":12313,"Ġbuchen":12314,"ĠÃ¤gyptischen":12315,"Ġablehnung":12316,"Ġbeheima":12317,"viel":12318,"Ġkanzler":12319,"Ġgesen":12320,"icken":12321,"aco":12322,"Ġfortsetzung":12323,"Ġmathbb":12324,"Ġdauerte":12325,"wÃ¼rde":12326,"Ġautonomie":12327,"Ġaristoteles":12328,"Ġwilly":12329,"Ġvermehrt":12330,"zimmer":12331,"Ġhessischen":12332,"andert":12333,"Ġverhaftet":12334,"Ġzwanzig":12335,"Ġverzichtet":12336,"Ġerkrankung":12337,"Ġeingemeindet":12338,"Ġvorfahren":12339,"ianische":12340,"ofern":12341,"Ġwatch":12342,"lÃ¶s":12343,"Ġnei":12344,"Ġlahn":12345,"Ġurkunden":12346,"stunden":12347,"grÃ¼":12348,"Ġschlechte":12349,"Ġdrag":12350,"Ġbetrachten":12351,"Ġverbessern":12352,"owitz":12353,"ĠrÃ¼ckzug":12354,"gebiets":12355,"Ġverpflicht":12356,"Ġshin":12357,"aton":12358,"Ġschiller":12359,"Ġfound":12360,"kritiker":12361,"Ġnorwegischer":12362,"Ġkpd":12363,"iak":12364,"Ġangelegenheiten":12365,"Ġfortschritt":12366,"Ġpack":12367,"Ġbreiter":12368,"Ġzylinder":12369,"Ġansehen":12370,"Ġmuskel":12371,"itions":12372,"Ġpalm":12373,"ĠbeschÃ¤ftigten":12374,"ĠwÃ¤hlen":12375,"Ã¼le":12376,"oba":12377,"riter":12378,"stel":12379,"lehnung":12380,"Ġcolumbia":12381,"bewahr":12382,"Ġberecht":12383,"Ġbeanspru":12384,"Ġlangu":12385,"verlust":12386,"Ġlittle":12387,"Ġfinanzielle":12388,"Ġdresdner":12389,"Ġmrd":12390,"cz":12391,"Ġunder":12392,"Ġaufnehmen":12393,"Ġnationalversammlung":12394,"ĠdebÃ¼t":12395,"schÃ¼tzen":12396,"Ġselber":12397,"Ġmoor":12398,"ĠunabhÃ¤ngigen":12399,"Ġerkenntnisse":12400,"Ġanzutreffen":12401,"Ġunru":12402,"alben":12403,"ĠschÃ¼l":12404,"fenster":12405,"zeitschrift":12406,"Ġluis":12407,"Ġspeyer":12408,"ĠÃ¼bliche":12409,"Ġverstarb":12410,"Ġhumboldt":12411,"Ġbundesminister":12412,"Ġwilli":12413,"Ġmarkiert":12414,"Ġuntersuchungs":12415,"Ġlyrik":12416,"leb":12417,"wacht":12418,"Ġprince":12419,"Ġindo":12420,"Ġfracht":12421,"angebot":12422,"enzel":12423,"windigkeiten":12424,"Ġsicherung":12425,"Ġverwandte":12426,"Ġhohenzoll":12427,"trainer":12428,"Ġsingles":12429,"ĠschrÃ¶der":12430,"studium":12431,"Ġniemals":12432,"Ġserbien":12433,"ĠfrÃ¤nkischen":12434,"Ġmall":12435,"aris":12436,"Ġnament":12437,"ampf":12438,"Ġbrot":12439,"ĠhÃ¤nde":12440,"Ġersetzen":12441,"Ġversammlung":12442,"Ġcav":12443,"ĠÃ¼berlegungen":12444,"Ġbegab":12445,"Ġhandball":12446,"eiern":12447,"Ġprobe":12448,"Ġvertretern":12449,"Ġsorten":12450,"ĠÃ¤thiop":12451,"Ġverfahrens":12452,"Ġlondoner":12453,"Ġprinzipien":12454,"schlieÃŁen":12455,"verg":12456,"Ġgruyter":12457,"Ġbasketball":12458,"Ġgord":12459,"Ġerwarten":12460,"hÃ¶fen":12461,"Ġelefanten":12462,"eitig":12463,"Ġstadtmauer":12464,"Ġruh":12465,"Ġdementsprechend":12466,"Ġmagd":12467,"Ġbekl":12468,"Ġnochmals":12469,"Ġjournalisten":12470,"ĠdÃ¼nn":12471,"ĠfÃ¤rÃ¶":12472,"uropÃ¤ischen":12473,"oy":12474,"Ġkot":12475,"Ġzeitschriften":12476,"Ġgrimm":12477,"Ġunternahm":12478,"ythmus":12479,"Ġguter":12480,"Ġfolgezeit":12481,"Ġerfunden":12482,"Ġexpansion":12483,"Ġfile":12484,"Ġgb":12485,"Ġlyriker":12486,"ĠtÃ¤nzer":12487,"asch":12488,"Ġvil":12489,"Ġstor":12490,"Ġaussprache":12491,"Ġkirchlichen":12492,"Ġverlief":12493,"ĠflÃ¼ssigkeit":12494,"institut":12495,"Ġeingriff":12496,"Ġdesselben":12497,"Ġgesellschafts":12498,"Ġmerc":12499,"kons":12500,"ĠberÃ¼hmt":12501,"Ġnasa":12502,"such":12503,"Ġenkel":12504,"Ġkartoff":12505,"Ġadresse":12506,"Ġkreisen":12507,"ĠerdÃ¶l":12508,"Ġkanadische":12509,"Ġuefa":12510,"eira":12511,"Ġblind":12512,"konferenz":12513,"Ġkonstant":12514,"Ġfour":12515,"Ġpius":12516,"Ġecht":12517,"Ġbachel":12518,"Ġfestungs":12519,"ĠauslÃ¶":12520,"bury":12521,"ols":12522,"fell":12523,"Ġluise":12524,"austausch":12525,"Ġdeutschsprachige":12526,"Ġethik":12527,"Ġadress":12528,"istent":12529,"sbl":12530,"klam":12531,"Ġlipp":12532,"Ġaufwend":12533,"Ġuntergrund":12534,"inae":12535,"Ġdurften":12536,"Ġsteuerung":12537,"heer":12538,"comp":12539,"Ġstgb":12540,"Ġstattf":12541,"ried":12542,"ĠerwÃ¤r":12543,"Ġspannungen":12544,"Ġbahnen":12545,"Ã¼sen":12546,"Ġbesucht":12547,"Ġvertrieb":12548,"Ġgestalten":12549,"Ġschnelle":12550,"ĠsaarbrÃ¼cken":12551,"Ġsteiermark":12552,"antrieb":12553,"Ġdoktor":12554,"Ġangriffe":12555,"onanz":12556,"Ġweltgeschehen":12557,"Ġthat":12558,"Ġsprachgebrauch":12559,"ĠkÃ¶nigsberg":12560,"Ġstellvertreter":12561,"archen":12562,"Ġgam":12563,"Ġaufweist":12564,"ĠeigentÃ¼mer":12565,"Ġradar":12566,"Ġbundesverfassungs":12567,"Ġbundesverdienstkreuz":12568,"Ġbj":12569,"Ġgeschah":12570,"Ġzyklus":12571,"Ġgemarkung":12572,"Ġdau":12573,"ĠbrÃ¤":12574,"Ġverp":12575,"Ġchap":12576,"ĠkomÃ¶die":12577,"Ġsteck":12578,"ĠkÃ¼hn":12579,"Ġlt":12580,"Ġmarschall":12581,"kommission":12582,"Ġfreiherr":12583,"Ġmedium":12584,"hielten":12585,"Ġcurt":12586,"irs":12587,"Ġastronomie":12588,"Ġmarcel":12589,"Ġaquar":12590,"isor":12591,"Ġheiz":12592,"Ġsepar":12593,"Ġchris":12594,"ĠbÃ¼chern":12595,"Ġpartnerschaft":12596,"basis":12597,"Ġgewinnt":12598,"ĠuraufgefÃ¼hrt":12599,"Ġva":12600,"Ġuran":12601,"Ġmitteln":12602,"Ġschweizerischen":12603,"Ġauthent":12604,"Ġaxel":12605,"Ġdiagnost":12606,"Ġdreimal":12607,"aufgaben":12608,"ollen":12609,"Ġsieb":12610,"Ġwarschau":12611,"Ġmiller":12612,"Ġminderheiten":12613,"Ġbegin":12614,"rechtlichen":12615,"zentrale":12616,"handlungs":12617,"Ġmenschheit":12618,"Ġpetrus":12619,"Ġmale":12620,"Ġechte":12621,"Ġdavor":12622,"ymbol":12623,"Ġpict":12624,"Ġminden":12625,"ymmet":12626,"Ġdauert":12627,"Ġturk":12628,"ĠsÃ¼dwestlich":12629,"ibliothek":12630,"Ġsky":12631,"Ġschulter":12632,"Ġhitlers":12633,"Ġpilger":12634,"ĠnÃ¤chst":12635,"Ġeinnahme":12636,"Ġpia":12637,"Ġsteil":12638,"ometrie":12639,"ĠvorÃ¼bergehend":12640,"Ġbent":12641,"Ġorder":12642,"Ġbaro":12643,"ynamik":12644,"Ġfernsehfilm":12645,"steuerung":12646,"Ã¶tt":12647,"Ġabgebaut":12648,"steins":12649,"frauen":12650,"Ġchristopher":12651,"Ġinklusive":12652,"sor":12653,"Ġheiliger":12654,"Ġverkehren":12655,"Ġfranco":12656,"korde":12657,"erz":12658,"Ġgeweiht":12659,"Ġverbesserte":12660,"itive":12661,"Ġdialekte":12662,"cs":12663,"absicht":12664,"schlÃ¤gen":12665,"Ġgrammatik":12666,"Ġgeometrie":12667,"Ġaufenthalt":12668,"Ġdip":12669,"ami":12670,"Ġselekt":12671,"Ġbroad":12672,"liga":12673,"tiere":12674,"Ġsteine":12675,"folg":12676,"ituation":12677,"ĠgewÃ¤hlten":12678,"ĠÃ¤ra":12679,"Ġteufel":12680,"Ġwork":12681,"Ġvornehm":12682,"Ġkleidung":12683,"uda":12684,"ĠkapazitÃ¤t":12685,"Ġlauter":12686,"Ġdigitalen":12687,"Ġkommentar":12688,"orchester":12689,"etta":12690,"Ġtschechoslowakei":12691,"Ġgescheiter":12692,"hÃ¶hle":12693,"Ġgerechtigkeit":12694,"pi":12695,"Ġzinn":12696,"venz":12697,"llte":12698,"ĠbefÃ¶r":12699,"krater":12700,"Ġvektor":12701,"fot":12702,"fix":12703,"Ġmau":12704,"Ġnumer":12705,"Ġabsicht":12706,"Ġmaj":12707,"Ġune":12708,"esa":12709,"Ġvorange":12710,"Ġdokumentiert":12711,"Ġputsch":12712,"Ġengeren":12713,"Ġsten":12714,"ĠaufklÃ¤r":12715,"Ġeffizien":12716,"Ġabfall":12717,"Ġroter":12718,"Ġbesseren":12719,"Ġnt":12720,"Ġsteve":12721,"ĠtÃ¼rkischen":12722,"Ġsymph":12723,"Ġzeitweil":12724,"regionen":12725,"Ġshakes":12726,"bard":12727,"ettet":12728,"iuse":12729,"Ġerfuhr":12730,"Ġwelchen":12731,"Ġmusikalischen":12732,"Ġdavis":12733,"Ġindustrialisierung":12734,"Ġsingen":12735,"Ġverarbeitet":12736,"Ġprotag":12737,"ĠnordÃ¶stlich":12738,"Ġatlas":12739,"Ġmemor":12740,"Ġverbraucher":12741,"effiz":12742,"Ġabu":12743,"Ġdateien":12744,"Ġmaximale":12745,"Ġbuddhismus":12746,"Ġperspektive":12747,"Ġoperatorn":12748,"ĠstieÃŁ":12749,"igi":12750,"Ġstadtrecht":12751,"Ġolden":12752,"ĠverÃ¤ndern":12753,"Ġindigen":12754,"ĠunglÃ¼ck":12755,"ĠflieÃŁen":12756,"Ġmannes":12757,"Ġfahrzeugen":12758,"Ġawards":12759,"Ġliefern":12760,"index":12761,"Ġverarbeitung":12762,"Ġwarm":12763,"Ġwink":12764,"Ġvirus":12765,"Ġchinesischer":12766,"ĠmÃ¤hr":12767,"stellern":12768,"Ġmov":12769,"Ġschwefel":12770,"Ġvielfalt":12771,"Ġvermein":12772,"bereitung":12773,"gewinnung":12774,"Ġcirca":12775,"Ġtheat":12776,"Ġshakespe":12777,"Ã¤nke":12778,"Ġafrikanischen":12779,"Ġcultur":12780,"ssr":12781,"heide":12782,"Ġlimburg":12783,"igsten":12784,"Ġverschoben":12785,"Ġpfad":12786,"Ġpropaganda":12787,"Ġgeologie":12788,"oskop":12789,"Ġzwill":12790,"Ġmoderator":12791,"Ġfair":12792,"Ġeffekte":12793,"ĠÃ¶rtlichen":12794,"Ġschieds":12795,"Ġafghanistan":12796,"ĠschÃ¤fer":12797,"Ġtak":12798,"Ġtraditionen":12799,"lebens":12800,"ĠÃ¶stliche":12801,"ĠgefÃ¼hl":12802,"Ġlebewesen":12803,"olin":12804,"Ġpraktische":12805,"Ġfertigstellung":12806,"Ġinterpretiert":12807,"Ġgiuse":12808,"brunn":12809,"Ġvariet":12810,"Ġmotive":12811,"Ġroad":12812,"svertrag":12813,"Ġerziehungs":12814,"Ġoperatorname":12815,"pÃ¤dagog":12816,"Ġspring":12817,"Ġverlaufen":12818,"enburg":12819,"Ġkeim":12820,"Ġohr":12821,"Ġbesicht":12822,"Ġgedacht":12823,"fertigung":12824,"Ġniedrigen":12825,"disziplin":12826,"Ġrechtlichen":12827,"Ġmodus":12828,"gens":12829,"herstellung":12830,"these":12831,"Ġgie":12832,"Ġmassiv":12833,"nik":12834,"Ġanarch":12835,"Ġnachfolgenden":12836,"Ġkenne":12837,"Ġweste":12838,"Ġpolnisch":12839,"Ġhartmann":12840,"Ġmt":12841,"ĠgefÃ¤r":12842,"Ġschachspiel":12843,"ĠkÃ¶nigliche":12844,"Ġfreiwilligen":12845,"Ġausgehend":12846,"Ġbeeinflussen":12847,"ls":12848,"Ġpun":12849,"geboren":12850,"Ġfunktions":12851,"ĠministerprÃ¤sidenten":12852,"Ġfis":12853,"Ġaufer":12854,"Ġnordost":12855,"Ġmechanische":12856,"Ġsynthese":12857,"Ġabstammung":12858,"wid":12859,"Ġinsofern":12860,"Ġisot":12861,"krise":12862,"ĠgeÃ¶ffnet":12863,"mauern":12864,"then":12865,"Ã¤mpft":12866,"Ġskel":12867,"methode":12868,"can":12869,"utes":12870,"zert":12871,"Ġbeet":12872,"gleis":12873,"ĠstaatsprÃ¤sident":12874,"Ġfeldzug":12875,"Ġteleskop":12876,"Ġwonach":12877,"eide":12878,"otter":12879,"bayern":12880,"Ġrac":12881,"ianus":12882,"oÃŁ":12883,"uv":12884,"umpf":12885,"Ġlehen":12886,"Ġreduktion":12887,"aster":12888,"sbuch":12889,"Ġmetaph":12890,"Ġgewidmet":12891,"onist":12892,"stimmungen":12893,"Ġbaumeister":12894,"Ġkanz":12895,"ildete":12896,"Ġnachwuchs":12897,"Ġherange":12898,"Ġjulia":12899,"ĠprÃ¤sentiert":12900,"hund":12901,"out":12902,"Ġdete":12903,"Ġschulden":12904,"Ġtransk":12905,"Ġflusses":12906,"Ġolympiasieger":12907,"ĠbÃ¤r":12908,"iche":12909,"Ġoberbefehl":12910,"Ġsucht":12911,"Ġmathcal":12912,"Ġcic":12913,"werker":12914,"bor":12915,"fg":12916,"Ġderart":12917,"Ġobserv":12918,"Ġwaffe":12919,"alisieren":12920,"ente":12921,"stÃ¤ndiger":12922,"dliche":12923,"takt":12924,"stÃ¼cken":12925,"cle":12926,"Ġmust":12927,"Ġcin":12928,"Ġkirchengemeinde":12929,"Ġphilosophischen":12930,"Ġphilippe":12931,"Ġmeilen":12932,"Ġdella":12933,"trages":12934,"Ġinsol":12935,"Ġlaufzeit":12936,"iness":12937,"Ġluzern":12938,"Ġhaushalt":12939,"Ġvortrag":12940,"Ġberichtete":12941,"Ġbezog":12942,"ĠansÃ¤tze":12943,"Ġfelder":12944,"methoden":12945,"Ġbeute":12946,"Ġheiden":12947,"kugel":12948,"ĠlÃ¼neburg":12949,"ali":12950,"reihen":12951,"angaben":12952,"ĠkÃ¤rnten":12953,"ĠgrÃ¶ÃŁerer":12954,"Ġkirchliche":12955,"Ġmillimeter":12956,"Ġwiki":12957,"ĠbefÃ¼rwor":12958,"ĠklÃ¶ster":12959,"demann":12960,"felden":12961,"ĠberÃ¼cksichtigung":12962,"Ġwann":12963,"onna":12964,"Ġlap":12965,"Ġfron":12966,"blÃ¼":12967,"objekt":12968,"Ġehrenamt":12969,"abilitÃ¤t":12970,"ariat":12971,"ĠausgelÃ¶st":12972,"Ġweiss":12973,"ogene":12974,"offizier":12975,"ĠfÃ¼hrende":12976,"Ġkleinste":12977,"Ġdieselbe":12978,"Ġgelie":12979,"Ġunbeding":12980,"Ġsubstanzen":12981,"Ġbeachten":12982,"Ġsammlungen":12983,"Ġvorgegeben":12984,"Ġeman":12985,"quartier":12986,"Ġeinb":12987,"stei":12988,"Ġspiels":12989,"Ġverbessert":12990,"asser":12991,"ahne":12992,"formel":12993,"Ġbotschaft":12994,"Ġsage":12995,"ĠkÃ¶niglich":12996,"Ġcour":12997,"Ġpatriarch":12998,"ifferenz":12999,"ĠkÃ¼ndigte":13000,"oo":13001,"Ġeil":13002,"ĠaffÃ¤re":13003,"Ġsibir":13004,"Ġkomprom":13005,"chnungen":13006,"Ġtriumph":13007,"Ġeinziger":13008,"Ġvergleichen":13009,"Ġsinfonie":13010,"Ġfreis":13011,"Ġgelesen":13012,"Ġhaushalts":13013,"Ġwissenschafts":13014,"Ġtyps":13015,"Ġregierungszeit":13016,"Ġgedreht":13017,"ĠgrÃ¶n":13018,"Ġtrafen":13019,"Ġvolkst":13020,"Ġanstieg":13021,"Ġzueinander":13022,"Ġtony":13023,"Ġbrock":13024,"ĠkÃ¤mpfe":13025,"Ġbatter":13026,"Ġverfasser":13027,"Ġtee":13028,"skap":13029,"Ġbesonderheiten":13030,"Ġernannte":13031,"Ġappl":13032,"Ġnamentlich":13033,"Ġpyth":13034,"Ġexek":13035,"Ġjohanna":13036,"Ġpiper":13037,"Ġlothringen":13038,"Ġaufschwung":13039,"ikationen":13040,"Ġhain":13041,"Ġkeinem":13042,"zweig":13043,"mÃ¶":13044,"Ġwiederer":13045,"Ġgiuseppe":13046,"polizei":13047,"rath":13048,"Ġiwan":13049,"otische":13050,"eldung":13051,"Ġphilip":13052,"hab":13053,"Ġzeilen":13054,"Ġempfunden":13055,"schende":13056,"Ġschlosses":13057,"Ġfig":13058,"Ġspl":13059,"Ġgeraten":13060,"geschÃ¤fte":13061,"Ġbachelor":13062,"Ġdc":13063,"Ġverbleiben":13064,"Ġmdb":13065,"flagge":13066,"Ġeinver":13067,"Ġnachwei":13068,"dorfer":13069,"Ġbeibe":13070,"Ã¤uer":13071,"bereichen":13072,"ĠstÃ¤nde":13073,"led":13074,"Ġmast":13075,"Ġklagen":13076,"ĠherkÃ¶mm":13077,"ross":13078,"ags":13079,"filme":13080,"schrauber":13081,"Ġfilter":13082,"color":13083,"Ġpazifik":13084,"Ġtokio":13085,"cript":13086,"ĠplÃ¤nen":13087,"Ġanteile":13088,"ĠÃ¤hnliches":13089,"stetten":13090,"deuten":13091,"zeugung":13092,"Ġgenerationen":13093,"sprobl":13094,"Ġerinnerungen":13095,"Ġensemble":13096,"Ġelektromagnet":13097,"ĠausrÃ¼stung":13098,"ĠwÃ¤hrungs":13099,"ĠkÃ¼m":13100,"Ġgesetzlichen":13101,"Ġvorsitzenden":13102,"ĠstoÃŁ":13103,"ground":13104,"kete":13105,"Ġlandkreise":13106,"Ġrout":13107,"Ġversicherungs":13108,"Ġblin":13109,"imo":13110,"Ġmanusk":13111,"Ġnordsee":13112,"Ġerschlossen":13113,"ĠschÃ¶nen":13114,"Ġsigma":13115,"Ġpazif":13116,"Ġpharma":13117,"fÃ¤r":13118,"Ġgig":13119,"ĠrÃ¼st":13120,"Ġuntert":13121,"Ġwichtiges":13122,"Ġkritischen":13123,"ĠrÃ¤umen":13124,"Ġberater":13125,"Ġelektronischen":13126,"Ġlokomotiven":13127,"atra":13128,"Ġlon":13129,"messung":13130,"elbe":13131,"Ġstreu":13132,"Ġgottesdienst":13133,"sohn":13134,"Ġorientierung":13135,"Ġveranstaltet":13136,"atio":13137,"Ġumliegenden":13138,"findet":13139,"ĠarchÃ¤ologische":13140,"wechselt":13141,"Ġabgebrochen":13142,"Ġbewirkt":13143,"Ġverbliebenen":13144,"Ġrassen":13145,"Ġspont":13146,"Ġunterird":13147,"Ġplut":13148,"Ġspreng":13149,"ĠsÃ¼dÃ¶stlich":13150,"Ġernest":13151,"Ġgewannen":13152,"Ġepisode":13153,"ĠÃ¼bertragungs":13154,"Ġfame":13155,"Ġamtes":13156,"werfen":13157,"Ġphilosophische":13158,"Ġgt":13159,"Ġdiversen":13160,"Ġkaiserin":13161,"ĠkÃ¼nstlerische":13162,"isser":13163,"Ġsportler":13164,"Ġaggress":13165,"Ġetabliert":13166,"Ġboliv":13167,"Ġsank":13168,"iem":13169,"Ġoden":13170,"Ġungen":13171,"Ġtuch":13172,"Ġlaien":13173,"Ġxiv":13174,"Ġgleichgewicht":13175,"loh":13176,"Ġlibrary":13177,"ĠpalÃ¤stin":13178,"Ġdifferential":13179,"kritik":13180,"Ġalphabet":13181,"Ġmithilfe":13182,"Ġfinal":13183,"Ġrichtet":13184,"fers":13185,"einrichtung":13186,"Ġhuss":13187,"Ġdomain":13188,"Ġepi":13189,"grab":13190,"Ġtraining":13191,"oda":13192,"sammlungen":13193,"Ġkollegen":13194,"Ġproport":13195,"gesetzten":13196,"Ġsoldat":13197,"instrumente":13198,"Ġkrak":13199,"Ġtast":13200,"Ġvorliegen":13201,"Ġdurchschnittliche":13202,"Ġnenn":13203,"Ġfus":13204,"Ġmayer":13205,"Ġausgelegt":13206,"Ġjemand":13207,"Ġrief":13208,"ĠwiderstandskÃ¤mpfer":13209,"low":13210,"atius":13211,"ulationen":13212,"Ġrichtungen":13213,"cil":13214,"hall":13215,"Ġhamil":13216,"Ġgy":13217,"ĠfÃ¼nften":13218,"Ġjahrbuch":13219,"Ġpsychiat":13220,"van":13221,"Ġzwick":13222,"Ġvereinen":13223,"Ġproblemen":13224,"ĠgefÃ¤hrdet":13225,"Ġbefindlichen":13226,"Ġkronpr":13227,"Ġgegliedert":13228,"rud":13229,"ingham":13230,"Ġnadel":13231,"Ġmaurice":13232,"Ġderartige":13233,"Ġerfolgten":13234,"Ġnordwestlich":13235,"Ġreakt":13236,"Ġeingeteilt":13237,"systemen":13238,"Ġuntergang":13239,"alp":13240,"Ġkler":13241,"Ã¼nstler":13242,"Ġerleicht":13243,"donien":13244,"Ġstirbt":13245,"geht":13246,"Ġpek":13247,"Ġrebell":13248,"Ġhavel":13249,"Ġkritisierte":13250,"Ġpolymer":13251,"pot":13252,"eimittel":13253,"Ġbene":13254,"Ġpfing":13255,"Ġcover":13256,"Ġangrenzenden":13257,"Ġhohenzollern":13258,"greif":13259,"Ġerheblichen":13260,"Ġalgorithmus":13261,"Ġrespekt":13262,"spaltung":13263,"zar":13264,"Ġmike":13265,"Ġnachricht":13266,"Ġdurchgesetzt":13267,"Ġzeitlich":13268,"strÃ¶":13269,"hÃ¶hen":13270,"Ġaktionen":13271,"Ġglaube":13272,"Ġjulian":13273,"stÃ¤dter":13274,"ĠgrÃ¤ber":13275,"Ġentscheidungs":13276,"Ġwolfen":13277,"ĠkrÃ¤ft":13278,"Ġbock":13279,"ĠergÃ¤nz":13280,"auso":13281,"Ġmangeln":13282,"Ġgottlieb":13283,"Ġseitens":13284,"sius":13285,"steiner":13286,"Ġbritann":13287,"Ġflugplatz":13288,"Ġrekonstruktion":13289,"motoren":13290,"Ġerzielen":13291,"wissen":13292,"Ġspenden":13293,"Ġweiden":13294,"Ġgeistlichen":13295,"Ġindustriellen":13296,"Ġmathematische":13297,"Ġpage":13298,"Ġrhetor":13299,"Ġhypothese":13300,"Ġausgestorben":13301,"theater":13302,"rucht":13303,"Ġborder":13304,"Ġzeichnung":13305,"Ġreclam":13306,"Ġoriginalt":13307,"ĠgebrÃ¤uchlich":13308,"ĠmÃ¤rtyrer":13309,"ahlen":13310,"Ġperman":13311,"ĠbundeslÃ¤ndern":13312,"Ġspecial":13313,"Ġsard":13314,"schlÃ¼ssel":13315,"verwaltungs":13316,"banken":13317,"kre":13318,"ĠlÃ¤ngeren":13319,"Ġpositiven":13320,"rahmen":13321,"Ġherab":13322,"kraftwerk":13323,"Ġstrat":13324,"konzept":13325,"Ġoperationen":13326,"Ġanschau":13327,"Ġexperten":13328,"Ġzwerg":13329,"gattung":13330,"Ġgesell":13331,"Ġgleichs":13332,"status":13333,"ements":13334,"Ġsanti":13335,"iwod":13336,"gewÃ¤chse":13337,"Ġnaum":13338,"ĠschÃ¤r":13339,"verfassung":13340,"abor":13341,"ĠwÃ¤hrung":13342,"Ġoliv":13343,"Ġbeteiligte":13344,"Ġwettkampf":13345,"Ġgenauso":13346,"Ġlieber":13347,"Ġrup":13348,"ĠlÃ¤ngs":13349,"Ġmedaillen":13350,"Ġberger":13351,"Ġchristine":13352,"Ġgeheimnis":13353,"zweck":13354,"loch":13355,"wusst":13356,"hoe":13357,"Ġladen":13358,"Ġwoiwod":13359,"Ġvalentin":13360,"warte":13361,"olet":13362,"igter":13363,"Ġgleit":13364,"Ġkarne":13365,"Ġmelan":13366,"journal":13367,"ĠbegriffsklÃ¤rung":13368,"hÃ¤ngt":13369,"eler":13370,"Ġoffensichtlich":13371,"Ġbeobachtungen":13372,"Ġbedroht":13373,"Ġronald":13374,"Ġartikeln":13375,"kie":13376,"Ġpeters":13377,"ĠwestfÃ¤lischen":13378,"Ġfantasy":13379,"anas":13380,"Ġpkw":13381,"Ġgenre":13382,"Ã¤hern":13383,"inte":13384,"Ġtos":13385,"Ġaufbewahr":13386,"Ġabbildungen":13387,"lasten":13388,"Ġoberste":13389,"Ġmonats":13390,"Ġsubstant":13391,"ĠsÃ¤chsische":13392,"Ġopf":13393,"apest":13394,"Ġmitglieds":13395,"Ġgetrenn":13396,"Ġsource":13397,"Ġsiege":13398,"Ġschwing":13399,"Ġraumfahrt":13400,"Ġgeis":13401,"ussia":13402,"Ġanderson":13403,"Ġprinzen":13404,"ĠfuÃŁgÃ¤nger":13405,"Ġreinhold":13406,"ibilitÃ¤t":13407,"gger":13408,"Ġfreud":13409,"kraut":13410,"Ġkanon":13411,"ple":13412,"yers":13413,"Ġprogress":13414,"physik":13415,"Ġeliz":13416,"Ġbetreiber":13417,"ĠgrÃ¤fin":13418,"Ġniveau":13419,"Ġvalle":13420,"ĠanfÃ¼hrer":13421,"plung":13422,"klang":13423,"Ġbelastung":13424,"kÃ¤mpfe":13425,"ĠfÃ¤lsch":13426,"Ġdanzig":13427,"ĠhÃ¶hle":13428,"Ġeuropap":13429,"Ġandrew":13430,"ĠbehÃ¶rde":13431,"Ġleichte":13432,"stÃ¼tz":13433,"Ġsiemens":13434,"ĠansprÃ¼che":13435,"Ġbudapest":13436,"Ġlutherische":13437,"Ġzerem":13438,"Ġaustralischer":13439,"Ġprinzipiell":13440,"bÃ¼ttel":13441,"Ġcart":13442,"Ġskulpturen":13443,"Ġkongo":13444,"Ġnobelpreis":13445,"grie":13446,"Ġdesto":13447,"Ġbalkan":13448,"Ġbetrachtung":13449,"Ã¼rt":13450,"osaur":13451,"Ġgnu":13452,"Ġapostel":13453,"versuche":13454,"Ġbiber":13455,"lagern":13456,"Ġlibretto":13457,"Ġklage":13458,"Ġpon":13459,"Ġherzogs":13460,"Ġwuppertal":13461,"mos":13462,"ĠgÃ¤rten":13463,"Ġalice":13464,"vermÃ¶gen":13465,"Ġkai":13466,"Ġversorgungs":13467,"reser":13468,"Ġanthony":13469,"hÃ¤fen":13470,"Ġangemessen":13471,"Ġargentinischer":13472,"ĠmÃ¼ll":13473,"Ġschwerin":13474,"shut":13475,"Ġorientierte":13476,"Ġphysikalischen":13477,"Ġbackground":13478,"Ġfonts":13479,"Ġaspekt":13480,"Ġnich":13481,"gefÃ¤":13482,"Ġantoine":13483,"orff":13484,"Ġgelegenheit":13485,"Ġbesiegt":13486,"gei":13487,"fleisch":13488,"Ġbedrohung":13489,"Ġhawa":13490,"Ġsavo":13491,"Ġstandes":13492,"Ġpersonenn":13493,"Ġendlich":13494,"Ġzyp":13495,"Ġjob":13496,"athon":13497,"Ġzahlungs":13498,"Ġkies":13499,"usste":13500,"schew":13501,"Ġnotwendige":13502,"Ġverbreitungsgebiet":13503,"Ġudssr":13504,"initi":13505,"Ġrezens":13506,"Ġclient":13507,"Ġerreichbar":13508,"Ġortsnamen":13509,"Ġapollo":13510,"ĠaufwÃ¤nd":13511,"Ġheld":13512,"Ġwerks":13513,"Ġhd":13514,"Ġbundesstaaten":13515,"Ġantonius":13516,"medien":13517,"Ġrasse":13518,"Ġankunft":13519,"Ġkeinerlei":13520,"Ġdion":13521,"Ġanhalten":13522,"Ġbrian":13523,"Ġverglichen":13524,"Ġfortpflanz":13525,"Ġpalais":13526,"Ġbelege":13527,"Ġausschuss":13528,"ght":13529,"Ġerwar":13530,"ĠÃ¤quival":13531,"Ġdiktatur":13532,"nischen":13533,"gewÃ¤sser":13534,"wesens":13535,"Ġjesuiten":13536,"Ġreflekt":13537,"Ġmozart":13538,"ĠsouverÃ¤n":13539,"Ġif":13540,"aue":13541,"uba":13542,"Ġbefasst":13543,"Ġerbfolge":13544,"kod":13545,"Ġschad":13546,"achstums":13547,"Ã¤ser":13548,"Ġanl":13549,"achel":13550,"Ġpakistan":13551,"amo":13552,"Ġlp":13553,"fÃ¼gt":13554,"kÃ¼r":13555,"Ġbedeckt":13556,"Ġmold":13557,"standes":13558,"Ġhauptrolle":13559,"farb":13560,"Ġmitten":13561,"Ġfragment":13562,"kab":13563,"olt":13564,"Ġbourb":13565,"abilit":13566,"Ġkandidat":13567,"Ġpens":13568,"Ġumsch":13569,"Ġstuhl":13570,"Ġstetig":13571,"Ġtransportiert":13572,"gÃ¤rten":13573,"Ġsever":13574,"Ġauguste":13575,"Ġverdienstordens":13576,"swerte":13577,"Ã¤ck":13578,"Ġhorm":13579,"Ġtrend":13580,"Ġeinwander":13581,"Ġwatt":13582,"ĠschrÃ¤g":13583,"Ġentt":13584,"skrieg":13585,"Ġschnellen":13586,"Ġfavor":13587,"Ġbeinahe":13588,"Ġmarokko":13589,"Ġunterbrochen":13590,"Ġstaatlich":13591,"Ġposten":13592,"ĠwÃ¶rtlich":13593,"Ġchance":13594,"Ġvorsitzende":13595,"Ġherrscht":13596,"Ġdocument":13597,"anon":13598,"Ġedmund":13599,"Ġeinheimischen":13600,"Ġanlehnung":13601,"Ġantiqu":13602,"Ġey":13603,"ppt":13604,"izierte":13605,"Ġattrib":13606,"Ġanbieter":13607,"malerei":13608,"kilometer":13609,"ete":13610,"fisch":13611,"ĠheiÃŁ":13612,"peten":13613,"range":13614,"Ġdraht":13615,"Ġtagebuch":13616,"abkommen":13617,"Ġabgeschafft":13618,"schiffen":13619,"Ġgegebenenfalls":13620,"Ġske":13621,"Ġcarolina":13622,"gibt":13623,"Ġsd":13624,"sbil":13625,"Ġplot":13626,"Ġepik":13627,"Ġlegisl":13628,"Ġnavy":13629,"sees":13630,"Ġorche":13631,"Ġangewiesen":13632,"Ġduke":13633,"Ġbestandteile":13634,"rode":13635,"Ġroch":13636,"strateg":13637,"ĠlÃ¶we":13638,"Ġzunehmende":13639,"ĠkonfÃ¶der":13640,"Ġanstatt":13641,"Ġbegangen":13642,"Ġsozialer":13643,"vari":13644,"Ġerben":13645,"rufen":13646,"Ġumwandlung":13647,
[...]
