{"!":0,"\"":1,"#":2,"$":3,"%":4,"&":5,"'":6,"(":7,")":8,"*":9,"+":10,",":11,"-":12,".":13,"/":14,"0":15,"1":16,"2":17,"3":18,"4":19,"5":20,"6":21,"7":22,"8":23,"9":24,":":25,";":26,"<":27,"=":28,">":29,"?":30,"@":31,"A":32,"B":33,"C":34,"D":35,"E":36,"F":37,"G":38,"H":39,"I":40,"J":41,"K":42,"L":43,"M":44,"N":45,"O":46,"P":47,"Q":48,"R":49,"S":50,"T":51,"U":52,"V":53,"W":54,"X":55,"Y":56,"Z":57,"[":58,"\\":59,"]":60,"^":61,"_":62,"`":63,"a":64,"b":65,"c":66,"d":67,"e":68,"f":69,"g":70,"h":71,"i":72,"j":73,"k":74,"l":75,"m":76,"n":77,"o":78,"p":79,"q":80,"r":81,"s":82,"t":83,"u":84,"v":85,"w":86,"x":87,"y":88,"z":89,"{":90,"|":91,"}":92,"~":93,"¡":94,"¢":95,"£":96,"¤":97,"¥":98,"¦":99,"§":100,"¨":101,"©":102,"ª":103,"«":104,"¬":105,"®":106,"¯":107,"°":108,"±":109,"²":110,"³":111,"´":112,"µ":113,"¶":114,"·":115,"¸":116,"¹":117,"º":118,"»":119,"¼":120,"½":121,"¾":122,"¿":123,"À":124,"Á":125,"Â":126,"Ã":127,"Ä":128,"Å":129,"Æ":130,"Ç":131,"È":132,"É":133,"Ê":134,"Ë":135,"Ì":136,"Í":137,"Î":138,"Ï":139,"Ð":140,"Ñ":141,"Ò":142,"Ó":143,"Ô":144,"Õ":145,"Ö":146,"×":147,"Ø":148,"Ù":149,"Ú":150,"Û":151,"Ü":152,"Ý":153,"Þ":154,"ß":155,"à":156,"á":157,"â":158,"ã":159,"ä":160,"å":161,"æ":162,"ç":163,"è":164,"é":165,"ê":166,"ë":167,"ì":168,"í":169,"î":170,"ï":171,"ð":172,"ñ":173,"ò":174,"ó":175,"ô":176,"õ":177,"ö":178,"÷":179,"ø":180,"ù":181,"ú":182,"û":183,"ü":184,"ý":185,"þ":186,"ÿ":187,"Ā":188,"ā":189,"Ă":190,"ă":191,"Ą":192,"ą":193,"Ć":194,"ć":195,"Ĉ":196,"ĉ":197,"Ċ":198,"ċ":199,"Č":200,"č":201,"Ď":202,"ď":203,"Đ":204,"đ":205,"Ē":206,"ē":207,"Ĕ":208,"ĕ":209,"Ė":210,"ė":211,"Ę":212,"ę":213,"Ě":214,"ě":215,"Ĝ":216,"ĝ":217,"Ğ":218,"ğ":219,"Ġ":220,"ġ":221,"Ģ":222,"ģ":223,"Ĥ":224,"ĥ":225,"Ħ":226,"ħ":227,"Ĩ":228,"ĩ":229,"Ī":230,"ī":231,"Ĭ":232,"ĭ":233,"Į":234,"į":235,"İ":236,"ı":237,"Ĳ":238,"ĳ":239,"Ĵ":240,"ĵ":241,"Ķ":242,"ķ":243,"ĸ":244,"Ĺ":245,"ĺ":246,"Ļ":247,"ļ":248,"Ľ":249,"ľ":250,"Ŀ":251,"ŀ":252,"Ł":253,"ł":254,"Ń":255,"ĠÐ":256,"Ð¾":257,"Ð°":258,"Ðµ":259,"Ð¸":260,"Ñģ":261,"Ð½":262,"ÑĤ":263,"ÑĢ":264,"Ð¾Ð":265,"Ð»":266,"Ðº":267,"Ñĥ":268,"Ñı":269,"Ð²":270,"Ñĭ":271,"ĠÐ¿":272,"Ð¼":273,"ĠÑģ":274,"ĠÐ²":275,"Ð´":276,"ÑĮ":277,"ÑģÑĤ":278,"ÐµÐ½":279,"ÑĢÐ°":280,"Ñĩ":281,"ĠÐº":282,"ĠÐ½":283,"ĠÐ¸":284,"Ð¾Ð²":285,"Ð¹":286,"ĠÐ¾":287,"Ð·":288,"Ñħ":289,"Ð¿":290,"Ð³":291,"Ð±":292,"ÐµÑĢ":293,"ÑģÐº":294,"Ð¾ÑĢ":295,"Ð°Ð½":296,"ĠÑ":297,"Ð¾Ð´":298,"ĠÐ´":299,"ĠÐ¼":300,"ĠÐ³":301,"Ð¾Ð»":302,"Ð°ÑĤ":303,"Ð°Ð»":304,"ÐµÐ»":305,"Ð¾Ð¼":306,"ĠÑĤ":307,"Ð½Ñĭ":308,"ÑĢÐµ":309,"ĠÐ±":310,"ĠÐ½Ð°":311,"Ð¸Ñı":312,"Ð¾Ð½":313,"ÑĨ":314,"ĠÐ°":315,"Ñİ":316,"Ð¾Ð³":317,"ÐµÑĤ":318,"Ð¶":319,"Ð¸Ð½":320,"Ð¾Ð¹":321,"Ð¸ÑĤ":322,"Ð¸Ðµ":323,"ÑĪ":324,"ĠÐ¿ÑĢ":325,"ĠÑĥ":326,"Ð¸Ðº":327,"Ð°ÑĢ":328,"ĠÐ·":329,"Ð½Ð¾":330,"Ð¾ÑĤ":331,"Ð¸Ð»":332,"Ð¸Ð¹":333,"Ð¸Ð¸":334,"Ð¾Ñģ":335,"Ð¾Ð³Ð¾":336,"ĠÑĩ":337,"Ñī":338,"ĠÑĢÐ°":339,"Ð°Ðº":340,"ĠÐ»":341,"Ð»Ð°":342,"Ð¸Ð¼":343,"ÑģÑĤÐ²":344,"ĠÑģÑĤ":345,"ÑĦ":346,"Ñĳ":347,"ÐµÐ¼":348,"ĠÑĦ":349,"Ð°Ñı":350,"Ð¸Ñĩ":351,"ĠÑĢ":352,"ÐµÐ´":353,"ÑģÑı":354,"ĠÐ³Ð¾Ð´":355,"ÐµÐ³":356,"Ð°Ð¼":357,"ĠÐ¿Ð¾":358,"ÐµÐ²":359,"ÐµÐº":360,"ÐµÐ¹":361,"ĠÐ¾Ð±":362,"ĠÑį":363,"Ð¸Ñģ":364,"Ð°Ð²":365,"Ð¸Ð²":366,"Ð¾Ðº":367,"ÐµÐ»ÑĮ":368,"Ð¾Ð±":369,"ĠÐ½Ðµ":370,"ĠÐµ":371,"Ð¾ÑģÑĤ":372,"ÑĢÑĥ":373,"ĠÐ¾ÑĤ":374,"ĠÐ¿ÐµÑĢ":375,"Ð»Ñı":376,"Ð¸Ñħ":377,"Ð»Ð¸":378,"ÐµÐ½Ð¸Ðµ":379,"Ð°Ð»ÑĮ":380,"Ð½ÑĭÐ¹":381,"ĠÐ±Ñĭ":382,"ĠÐ¸Ð·":383,"ÐµÐ½Ð¸Ñı":384,"ÑĤÐ¾":385,"Ð¾Ð»ÑĮ":386,"Ð¾Ð¶":387,"ĠÑĢÐµ":388,"ĠÐ·Ð°":389,"ĠÑħ":390,"Ð½Ð¾Ð¹":391,"ĠÐ²Ñĭ":392,"ÐºÐ°":393,"Ð¾Ð·":394,"Ð¸ÑĢ":395,"Ð¸Ð·":396,"ĠÐºÐ°ÑĤ":397,"ĠÑı":398,"Ð¾ÑĢÐ¸Ñı":399,"Ð¾Ð¿":400,"Ð½ÑĭÑħ":401,"ÐµÐ½ÑĤ":402,"ĠÐ¿ÑĢÐµ":403,"Ð½Ð¸Ðº":404,"ÑģÐºÐ¸Ð¹":405,"Ð½Ð°":406,"ĠÐºÐ°ÑĤÐµÐ³":407,"Ð°ÑĤÑĮ":408,"ÐµÑģÑĤ":409,"Ð½ÑĭÐµ":410,"ÑĢÐ°Ð²":411,"Ð¸Ð´":412,"ĠÐºÐ°ÑĤÐµÐ³Ð¾ÑĢÐ¸Ñı":413,"Ð¸ÑĨ":414,"ĠÐ¶":415,"Ð¸ÑģÑĤ":416,"ÐµÑģ":417,"Ð½Ð¾Ð³Ð¾":418,"Ð¸ÑĩÐµ":419,"ĠÐ³Ð¾Ð´Ð°":420,"ÑģÐºÐ¾Ð¹":421,"ÑģÐºÐ¾Ð³Ð¾":422,"ĠÑĪ":423,"ÑĢÐ°Ð½":424,"ÑĤÐ°":425,"ÑĥÑĢ":426,"Ð¾Ð²Ð°Ð½":427,"Ð»ÑĮ":428,"ÑģÐ¿":429,"Ð´Ð°":430,"ÑĥÑİ":431,"ÑĥÑĤ":432,"Ð¸Ð¾Ð½":433,"Ð°Ð¹":434,"Ð½Ð¾ÑģÑĤ":435,"Ð°Ñģ":436,"ĠÐ¿Ð¾Ð»":437,"ĠÑģÐ²":438,"ĠÐ¿Ð¾Ñģ":439,"ÑĥÐ´":440,"ĠÐ¿ÑĢÐ¾":441,"ĠÑĨ":442,"Ð°ÑģÑĤ":443,"Ð½Ð°Ñı":444,"ĠÑĤÐ°Ðº":445,"ÑıÑĤ":446,"ĠÐ¿Ð¾Ð´":447,"Ð¾Ðµ":448,"Ð¾Ñĩ":449,"ĠÑĢÐ°Ð·":450,"Ð°Ð´":451,"ÐºÑĤ":452,"ÐºÐ¸":453,"ÑĥÑģ":454,"ÑĢÑı":455,"ÐµÑĢÐ°":456,"Ð½ÑĭÐ¼":457,"ÐµÐ·":458,"ĠÐºÐ¾Ð¼":459,"ĠÐ¸Ð½":460,"ÑĥÑĩ":461,"ĠÑĩÑĤÐ¾":462,"ĠÐ±ÑĭÐ»":463,"Ð°ÐµÑĤ":464,"ÑĥÐ±":465,"Ñį":466,"Ð¶Ðµ":467,"ĠÐ¸Ð¼":468,"ĠÐ³Ð¾Ð´Ñĥ":469,"Ð¸Ð³":470,"ĠÐºÐ¾Ð½":471,"ÐµÐ½Ð°":472,"ĠÑģÐ¿":473,"Ð¾ÑĤÐ¾ÑĢ":474,"Ð¸Ñİ":475,"ÑĨÐ¸Ð¸":476,"Ð·Ñĭ":477,"ĠÐ°Ð²":478,"Ð½Ñı":479,"ÐµÑģÑĤÐ²":480,"ĠÑģÐ¾":481,"Ð¶Ð´":482,"ÐµÐµ":483,"ĠÐºÐ°Ðº":484,"ĠÑĥÑĩ":485,"Ð°Ð½Ð´":486,"ÑĥÐ½":487,"ÐºÐ¾Ð²":488,"ÑħÐ¾Ð´":489,"ĠÑģÐ»":490,"ĠÐ¾Ñģ":491,"Ð¸ÑĩÐµÑģÐº":492,"Ð°Ñħ":493,"Ð»ÐµÐ½":494,"ÑģÑģ":495,"ĠÐ¿ÑĢÐµÐ´":496,"Ð»Ðµ":497,"ÑİÑĤ":498,"Ð±ÑĢÑı":499,"ĠÐ¾Ð´":500,"ÑĤÐ¾ÑĢ":501,"Ð¸ÑĤÐµÐ»ÑĮ":502,"ĠÑģÐ¾ÑģÑĤ":503,"Ð°Ð½Ð¸Ðµ":504,"ĠÑįÑĤ":505,"ĠÐºÐ¾ÑĤÐ¾ÑĢ":506,"Ð¸Ð»ÑĮ":507,"ÑĢÐ¾Ð²":508,"ÑĭÐ¹":509,"ÑĭÐµ":510,"ĠÐ²Ð¾":511,"Ð¸Ð¿":512,"ĠÐ°ÑĢ":513,"Ð°Ð·":514,"Ð¸Ð½Ð°":515,"ĠÑĢÐ°Ð¹":516,"Ð³Ð¾":517,"Ð½Ð¾Ðµ":518,"Ð°Ð¼Ð¸":519,"ĠÐ°Ð½":520,"ĠÐ´Ð»Ñı":521,"ÐµÑĩ":522,"Ð½Ð¾Ð¼":523,"ĠÐ²Ñģ":524,"Ð¸ÑĤÑĮ":525,"Ð¾Ñı":526,"ĠÑĢÐ°Ð¹Ð¾Ð½":527,"ÐµÐ¿":528,"ĠÐ¾Ð½":529,"ÑĳÐ½":530,"ÑĭÑħ":531,"ÑĢÐ°ÑĤ":532,"Ð»Ð°Ð²":533,"ÐµÐ³Ð¾":534,"ÑĢÐµÐ¼":535,"ÐºÐ¾":536,"ĠÐ³Ð¾ÑĢ":537,"Ð¸Ð±":538,"ÑģÐºÐ°Ñı":539,"ĠÐ¾Ð¿":540,"ĠÑģÐ¾Ð²":541,"ÑĢÑĥÐ³":542,"ÑĢÐ¾":543,"ÑĢÑĭ":544,"Ð¼ÐµÑĢ":545,"ÑĢÐ°Ð·":546,"ÑĥÐ¶":547,"ÑĥÐ¿":548,"ÑĥÐ¼":549,"Ð½Ð¾Ð²":550,"Ð¾ÑģÑģ":551,"ĠÑģÐ¾ÑģÑĤÐ°Ð²":552,"ĠÐ¾Ðº":553,"Ð¿ÑĢÐ°Ð²":554,"ĠÐ¿ÑĢÐ°Ð²":555,"Ð°ÑĢÑĤ":556,"ĠÐ´Ð²":557,"ĠÐ¿ÐµÑĢÐ²":558,"Ð°Ð±":559,"Ð¼Ð¸":560,"ĠÐµÐ³Ð¾":561,"ĠÐ´Ð¾":562,"Ð±Ð¾ÑĤ":563,"ÑĢÐµÐ´":564,"ĠÐ¾ÑĢ":565,"Ð°Ð»Ð°":566,"Ð»Ð°ÑģÑĤ":567,"Ð»ÐµÐ½Ð¸Ðµ":568,"ÑģÐºÐ¾Ð¼":569,"Ð½Ð¾ÑģÑĤÐ¸":570,"ÐµÑĨ":571,"Ð½Ð¾ÑģÑĤÑĮ":572,"ĠÐ¸ÑģÑĤ":573,"ÐµÑħ":574,"Ð°Ð½Ð¸Ñı":575,"ĠÑİ":576,"Ð»ÐµÐº":577,"Ð½Ð°Ñĩ":578,"ĠÑĢÐ¾ÑģÑģ":579,"Ð°Ð»Ð¸":580,"ÐµÑĤÑģÑı":581,"ÐµÐ»Ñı":582,"ĠÑģÑĤÐ°ÑĤÑĮ":583,"ĠÐ¿Ð»":584,"ĠÐ¼ÐµÑģÑĤ":585,"Ð¾ÑĢÐ¼":586,"ÑģÑĤÐ²ÐµÐ½":587,"Ð°Ð½Ð¾Ð²":588,"ĠÐ¼Ð°ÑĢ":589,"ÑģÑĤÐ°Ð²":590,"ĠÐ¿ÑĢÐ¸":591,"ĠÐ¸Ð³":592,"ÑĨÐ¸Ð¾Ð½":593,"ĠÐºÐ°":594,"ÑĥÐ»ÑĮ":595,"ĠÐ²Ð¸Ð´":596,"Ð¿ÑĢ":597,"ÑİÑī":598,"Ð¾ÑĢÐ°":599,"ĠÐ³Ð¾ÑĢÐ¾Ð´":600,"Ð°ÑĤÐµÐ»ÑĮ":601,"ĠÐ²Ð¾Ð·":602,"ĠÐ½Ð°Ñģ":603,"ĠÐ¸ÑģÐ¿":604,"ĠÑģÐ°Ð¼":605,"ÑģÑĤÐ²Ð¾":606,"ÑĥÑī":607,"Ð²Ð°":608,"Ð¸ÑģÑĮ":609,"ĠÐºÐ¾ÑĢ":610,"ĠÑĤÐ°ÐºÐ¶Ðµ":611,"ĠÐ½Ð¾":612,"Ð½Ðµ":613,"ÑģÑĤÐ²Ð°":614,"Ð¸ÑĢÐ¾Ð²":615,"ÑģÐºÐ¸Ñħ":616,"ĠÑįÑĤÐ¾":617,"Ð°Ð³":618,"ÑĨÐ¸Ñı":619,"ĠÐ²ÑĢÐµÐ¼":620,"ĠÐ½Ð°Ð·":621,"ĠÑģÐµÑĢ":622,"ĠÑģÐ²Ð¾":623,"Ð»Ñİ":624,"ĠÐ¾Ð±Ð»Ð°ÑģÑĤ":625,"Ð»Ð°Ð´":626,"ÑĥÐ»":627,"Ð¸ÐºÐ¸":628,"Ð»ÐµÐ´":629,"ĠÐ½Ð¾Ð²":630,"ĠÐ²ÐµÑĢ":631,"ĠÐ½Ð°Ñĩ":632,"ÐµÐºÐ°":633,"Ð¾Ð»ÑĮÑĪ":634,"ÐºÐµ":635,"ÑĢÐ¸ÑĤ":636,"ÑģÐºÐ¾Ðµ":637,"ĠÑĤÐ¾":638,"ÑĳÑĤ":639,"ÑĥÑģÑĤ":640,"ĠÑĢÐ¾Ð´":641,"ĠÑĥÑĩÐ°ÑģÑĤ":642,"Ð°Ð½Ð°":643,"Ð¸ÐºÐ°":644,"ĠÑĩÐ°ÑģÑĤ":645,"ĠÐ¸Ñİ":646,"ÐµÑĤÐ°":647,"ÐµÐ±":648,"ĠÑģÐ¼":649,"Ð°Ð½ÑĤ":650,"ĠÐ¾Ð±Ñī":651,"ĠÑĢÐ°Ð±Ð¾ÑĤ":652,"Ð¾Ð²Ð°Ð½Ð¸Ñı":653,"Ð°ÑĤÐ°":654,"Ð´Ðµ":655,"Ð½ÑĥÑİ":656,"ĠÐºÐ¾Ð»":657,"ĠÑĥÐ´":658,"Ð°Ð»ÑĮÐ½ÑĭÐ¹":659,"ÑĬ":660,"ÐµÐ½ÑĮ":661,"Ð¾ÑĢÑĤ":662,"ĠÐ¸Ð»Ð¸":663,"Ð¾Ð½Ð°":664,"Ð½Ð¸":665,"ĠÐ¼Ð¾":666,"Ð¸Ð»Ð¸":667,"Ð¸ÑĦ":668,"ĠÐ¿Ð¾ÑģÐ»Ðµ":669,"ÐºÑĥ":670,"ĠÐ´ÑĢÑĥÐ³":671,"ÑĢÐ°ÑĦ":672,"ÑĢÐ°Ð¶":673,"ÐµÑģÑģ":674,"ĠÐ²Ð¾Ð¹":675,"ĠÐ·Ð°Ð¿":676,"ÑıÐ±ÑĢÑı":677,"ĠÑĤÑĢ":678,"ÐµÐºÑĤ":679,"ÑĢÑĥÐ¿":680,"Ð»Ð¾Ð²":681,"ĠÐ²ÑĭÑģ":682,"Ð°ÐµÑĤÑģÑı":683,"Ð°ÑĢÐ°":684,"Ð´ÐµÐ»":685,"ÑĤÐ¸":686,"ĠÐºÐ°ÑĢ":687,"Ð¾Ð»ÑĮÐºÐ¾":688,"Ð¾Ð»Ð¾Ð³":689,"ÑĥÐ»ÑĮÑĤ":690,"Ð¿ÑĢÐ°Ð²Ð»ÐµÐ½Ð¸Ðµ":691,"ĠÑĩÐµÐ¼":692,"ÑĭÐ¼":693,"ĠÐ´Ðµ":694,"ĠÐ³ÐµÑĢ":695,"ĠÑģÐº":696,"Ð¼Ð°":697,"ĠÑıÐ·Ñĭ":698,"ĠÐ¼Ð¸Ð½":699,"ĠÑģÐ¾Ð±":700,"ĠÐ´Ð¶":701,"Ð²Ð°ÑĢ":702,"ĠÑıÐ²":703,"ĠÐ¹":704,"ĠÐ¼Ðµ":705,"ĠÐ½Ð°Ð·Ð²":706,"Ð¸Ð½Ñĭ":707,"ĠÐ¾Ð±Ñģ":708,"ĠÐºÑĢÐ°":709,"ĠÐ´ÐµÑĢ":710,"ÐµÐ»ÐµÐ½Ð¸Ðµ":711,"ĠÐ¿ÑĢÐ¾ÑĤ":712,"ÐµÐ»Ð¸":713,"Ð»Ð¸ÑĨ":714,"ĠÐ¿ÑĢÐ¸Ð½":715,"ÑĥÐº":716,"ÑıÐ½":717,"Ð°ÑĪ":718,"Ð¸Ð½Ð³":719,"ĠÐ±Ð¾Ð»ÑĮÑĪ":720,"ĠÐ¼Ñĥ":721,"ÑģÐºÐ¸Ðµ":722,"ĠÐ±ÑĭÐ»Ð¾":723,"ĠÐºÐ»":724,"ĠÐ¿Ð¾Ñĩ":725,"ĠÑįÐº":726,"ĠÐ¼Ð¾Ð¶":727,"ĠÑģÐµÐ»ÑĮ":728,"Ð¾Ð²Ð°":729,"ĠÐ±ÑĭÐ»Ð°":730,"ĠÐ³Ð»Ð°Ð²":731,"ĠÐ²ÑĢÐµÐ¼Ñı":732,"ÑĤÑĮ":733,"Ð¾ÑģÑĮ":734,"ĠÑĩÐµÐ»":735,"ĠÑĨÐµÐ½ÑĤ":736,"ÐµÐ½Ð¸Ð¸":737,"Ð»ÐµÐºÑģ":738,"ĠÐ¿ÐµÑĢÐµÐ½Ð°":739,"ĠÐ¾Ð±Ð»Ð°ÑģÑĤÐ¸":740,"ĠÐ´Ð¾Ð»":741,"Ð¸Ð¼Ð¸":742,"ĠÐ´Ð°Ð½":743,"ĠÐ²Ð¿":744,"ĠÐ»Ñİ":745,"Ð»Ð¾":746,"ĠÐ¿Ð¾ÑģÑĤ":747,"ĠÐ¼Ð°ÑĤ":748,"ĠÐ±Ð¾Ð»":749,"Ð½ÑĭÐ¼Ð¸":750,"ĠÑģÐ¾Ð·":751,"Ð¸ÑĢÐ¾Ð²Ð°Ð½":752,"ÑĳÑĢ":753,"ĠÐ¿ÐµÑĢÐµÐ½Ð°Ð¿ÑĢÐ°Ð²Ð»ÐµÐ½Ð¸Ðµ":754,"Ð²ÐµÑĢ":755,"ĠÑĢÑĥÑģ":756,"ĠÐºÐ¾Ð¼Ð¿":757,"ĠÑģÑĢÐµÐ´":758,"Ð¾Ð¼Ñĥ":759,"ĠÐ»ÐµÑĤ":760,"ĠÐ³Ð¾Ñģ":761,"ĠÐ¿Ð¾Ðº":762,"ĠÐ½Ð¸Ðº":763,"ĠÐ°Ð´":764,"ÑĢÐ°Ð¼":765,"ĠÑģÐ°Ð¹":766,"Ð¾Ð»ÑĮÐ·":767,"Ð¸Ð¶":768,"ĠÐ¶Ðµ":769,"ĠÐ¿ÑĢÐ¾Ð²":770,"Ð°Ð½Ð¸Ð¸":771,"ÑĥÑħ":772,"Ð¸Ð»Ð°":773,"ĠÐ±ÑĭÐ»Ð¸":774,"ĠÑģÐ¾Ð²ÐµÑĤ":775,"ÐºÐ°Ð·":776,"ĠÐ¾Ð±ÑĢÐ°Ð·":777,"ÑĥÑĪ":778,"ÑĳÐ»":779,"ÐµÑģÑĤÐ²ÐµÐ½":780,"ĠÐ´ÐµÑĢÐµÐ²":781,"Ð²ÐµÑĤ":782,"ĠÐ¼ÐµÑģÑĤÐ¾":783,"ĠÐ·Ð°Ðº":784,"ÑģÑĤÑĮ":785,"ÑĥÑİÑī":786,"Ð»ÑİÑĩ":787,"ÐµÐ½Ð¸Ð¹":788,"ÑĢÐ°Ð´":789,"ĠÑĢÐ°ÑģÐ¿":790,"Ð¸Ð»ÑģÑı":791,"Ð½Ð¸ÐºÐ¾Ð²":792,"ĠÑıÐ²Ð»Ñı":793,"ĠÑĤÐµÑĢ":794,"Ð³Ð°Ð½":795,"ÐµÐ½Ñĭ":796,"ĠÐ¾ÑģÑĤ":797,"ÑĤÐµÑĢ":798,"ÑĪÐ°":799,"Ð±Ð¾ÑĢ":800,"ÐµÐ½Ð¸":801,"Ð¸ÑģÐº":802,"ĠÑıÐ½":803,"ĠÑĤÐµÐ»":804,"ĠÑĩÐµÐ»Ð¾Ð²":805,"ĠÐ¾ÑģÐ½Ð¾Ð²":806,"ÑĮÑİ":807,"ĠÐ·Ð°Ð²":808,"Ð¾Ð¶Ð´":809,"ÑıÐ·":810,"Ð½Ð¸ÐºÐ¸":811,"ĠÐ·Ð½Ð°Ñĩ":812,"ÑĢÐ¾Ñģ":813,"ĠÐ°Ð»ÐµÐºÑģ":814,"ÑĢÐ¾Ð¼":815,"Ð¸Ð°Ð»ÑĮ":816,"Ð»ÐµÐ½Ð¸Ñı":817,"ĠÐµÐ²":818,"ÑİÑĤÑģÑı":819,"ÑĢÐ¾Ð½":820,"Ð½ÐµÐ¹":821,"ÑģÑĤÑĥÐ¿":822,"Ð¸ÑĪ":823,"Ð¾Ð³Ð´Ð°":824,"Ð»Ð°Ñģ":825,"ĠÑĩÐµÑĢ":826,"ĠÑģÑĤÐ°ÑĤ":827,"ÑĦÐ¾ÑĢÐ¼":828,"ĠÐ¿Ð¾Ð»ÑĥÑĩ":829,"ÑģÑĭ":830,"ÑĥÐ´Ð°ÑĢ":831,"ÑĥÐ±Ð»":832,"ĠÐ¼Ð¾ÑģÐº":833,"Ð½ÐµÐµ":834,"ĠÐ°Ð»ÑĮ":835,"Ð¸Ð·Ð²":836,"Ð°ÑģÑĮ":837,"ĠÐ¾Ð´Ð½":838,"ĠÑĥÐº":839,"ĠÑĤÐ¾Ð¼":840,"ÑĢÑĥÐ¿Ð¿":841,"Ð¾ÑĢÐ¸Ð¸":842,"ÑĤÐ¾Ð²":843,"Ð°ÑĨÐ¸Ð¸":844,"ÐµÑĢÐ¶":845,"ĠÐ¿Ð¾Ð·":846,"ĠÐ³Ð¾ÑģÑĥÐ´Ð°ÑĢ":847,"Ð¸ÑĤÑģÑı":848,"ĠÐ²ÑĭÐ¿":849,"ÑģÑģÑĢ":850,"ĠÐ²Ð½":851,"Ð¼Ð¸Ð½":852,"ĠÐ½Ð°ÑģÐµÐ»":853,"ĠÑģÑĤÑĢÐ°Ð½":854,"ÑĢÐ¾Ð¿":855,"Ð¾Ñī":856,"ÐµÑĢÑģ":857,"ÑĳÐ¼":858,"Ð¸ÑĢÐ°":859,"ÐµÐ¶":860,"ĠÐºÐ¾Ð¼Ð°Ð½Ð´":861,"ĠÑĤÐµÐ¼":862,"ĠÐ²ÐµÐ»":863,"ĠÑĦÑĢÐ°Ð½":864,"ĠÐ¿ÑĢÐ¾Ð´":865,"ÑĭÐ²":866,"ĠÑĥÐ´Ð°Ð»":867,"ÑģÐ»Ð¸":868,"Ð¾Ð»Ð½":869,"Ð³Ð°":870,"ĠÐ³Ð¾Ð»":871,"ĠÑĩÐµÐ¼Ð¿":872,"ĠÐ³ÑĢÑĥÐ¿Ð¿":873,"ĠÑĦÐ¸Ð»ÑĮ":874,"Ð°Ð»ÑģÑı":875,"ĠÐ¿Ð¾Ð²":876,"Ð¾ÑĤÐ°":877,"Ð¸Ð°Ð»":878,"ĠÐ¾ÐºÑĤ":879,"Ð¸ÑĨÐ°":880,"ÐµÐ½Ð½Ð¾":881,"ĠÐ¾Ð±ÑĬ":882,"ĠÑĢÐ¾ÑģÑģÐ¸Ð¸":883,"ĠÐ¸Ð½Ð´":884,"ĠÐ±ÑĥÐ´":885,"ĠÐ½Ð°Ð¿":886,"ĠÑģÐµÐ»":887,"ĠÐ¼ÐµÐ¶Ð´":888,"ĠÐ½Ð°ÑĨÐ¸Ð¾Ð½":889,"ĠÑģÐ¾Ð·Ð´":890,"ĠÐ¸Ñħ":891,"ĠÐ¼Ð½":892,"ĠÐ¿Ð¾Ð¼":893,"ĠÑģÐµÐ¼":894,"ÑĦÐ¸ÑĨ":895,"ĠÑĥÐ¿":896,"ÐµÐ½Ð¸Ñİ":897,"ĠÑģÐµÐ½ÑĤ":898,"ĠÑĢÐµÐ³":899,"ÑĥÐ·":900,"ĠÐ¸ÑģÐ¿Ð¾Ð»ÑĮÐ·":901,"ÑģÐ°":902,"ÑĤÐµ":903,"ÑĢÐ¾Ðº":904,"ÑıÐ²":905,"Ð½Ð¸ÐºÐ°":906,"ĠÐ²Ð¸Ðº":907,"ÐµÐ¹ÑģÑĤÐ²":908,"ÐµÑĪ":909,"Ð¾Ð³ÑĢÐ°ÑĦ":910,"Ð²ÐµÑģÑĤ":911,"ĠÑĥÐ½":912,"ĠÑĩÐµÐ¼Ð¿Ð¸Ð¾Ð½":913,"ĠÐ¿Ð°ÑĢ":914,"Ð¾ÑģÑĤÐ¸":915,"ĠÐ½Ð¾Ñı":916,"Ð³ÑĥÑģÑĤ":917,"ĠÐ´ÐµÐ»":918,"ĠÑģÑģÑģÑĢ":919,"ĠÑĢÐ°Ð¹Ð¾Ð½Ð°":920,"Ð½Ð¸Ðµ":921,"ĠÐ¿Ð¾Ð¿":922,"ĠÑģÐµÐ²":923,"Ð¸ÑģÑģ":924,"ĠÐ·Ð°Ð¼":925,"ĠÐ°Ð²Ð³ÑĥÑģÑĤ":926,"ĠÐ°ÐºÑĤ":927,"ÐµÐ½Ð¾":928,"ĠÑĤÐµ":929,"ĠÐ¼ÐµÑĤ":930,"ÑĢÐ¾Ð´":931,"ĠÐ±ÐµÐ»":932,"Ð¼Ñĥ":933,"ĠÐ¸ÑĤ":934,"ĠÐµÑģÐ»Ð¸":935,"ĠÑĢÐ¾ÑģÑģÐ¸Ð¹":936,"ÑĮÑı":937,"ĠÑĤÐ¾Ð»ÑĮÐºÐ¾":938,"Ð°Ð»Ð¾":939,"ĠÐ±ÐµÐ·":940,"ĠÑĤÑĢÐµ":941,"ÑĪÐ¸Ð¹":942,"ÑģÐ¾Ð²":943,"ĠÐ½Ð°Ð·Ð²Ð°Ð½Ð¸Ðµ":944,"ĠÐ¿ÑĢÐ¾ÑĤÐ¸Ð²":945,"ĠÐ°Ð»":946,"Ð¾Ð²Ð°Ð½Ð¸Ðµ":947,"ÐµÐ»ÐµÐ¹":948,"ĠÐ·Ð°Ð½":949,"ĠÐ¾Ñĩ":950,"ĠÐ²ÑĤÐ¾ÑĢ":951,"ĠÐµÑĳ":952,"ĠÐ¼Ð¾Ð½":953,"ĠÐµÑģÑĤÑĮ":954,"ÐµÑī":955,"ĠÐ¼Ð°Ñı":956,"ĠÐ¿Ð¾ÑĤ":957,"ĠÐºÐ¼":958,"ĠÐ³ÐµÐ½":959,"ÑĢÐ¸":960,"ĠÐ·Ð²":961,"Ð¼ÐµÐ½":962,"ĠÐ½Ð°Ð´":963,"ĠÑıÐ½Ð²Ð°ÑĢ":964,"ĠÑĥÐºÑĢÐ°":965,"ĠÐ¿ÐµÑĤ":966,"ĠÐ´Ð¾Ð¼":967,"ĠÐ¼ÐµÐ´":968,"ĠÐ°Ð²ÑĤ":969,"ĠÐ°Ð¿ÑĢ":970,"ÐµÐ²Ð¸Ñĩ":971,"ĠÐ±Ð¾Ð»ÐµÐµ":972,"ĠÐ´Ð¾ÑģÑĤ":973,"ĠÐ´Ð°":974,"ĠÑĢÐ°Ñģ":975,"ĠÐ¿ÑĢÐ¾Ð¸Ð·Ð²":976,"ÑĭÑĤ":977,"Ð»Ð¸Ñĩ":978,"ÑĭÑĪ":979,"Ð´Ð¸Ð½":980,"ĠÐ±ÐµÑĢ":981,"Ð¸ÑĩÐµÑģÐºÐ¾Ð¹":982,"ÑīÐµ":983,"ÑĦÐµÑģÑģ":984,"ĠÑıÐ·ÑĭÐº":985,"ĠÐ³Ð´Ðµ":986,"ĠÐ¿ÑĢÐ¸Ð¼":987,"ĠÐ¿ÑĢÐµÐ´ÑģÑĤÐ°Ð²":988,"ĠÐ°ÑĢÐ¼":989,"ĠÑĢÐµÐ·":990,"ĠÑĩÐ¸Ñģ":991,"ĠÑģÑĩ":992,"ĠÑıÐ½Ð²Ð°ÑĢÑı":993,"ÐµÐ²ÑĢÐ°":994,"ĠÐ´Ð¾Ð»Ð¶":995,"ĠÐ½Ð¾ÑıÐ±ÑĢÑı":996,"ĠÑĥÑģÑĤ":997,"ĠÐ¾ÑĦÐ¸ÑĨ":998,"Ð¾ÑĢÐ¾Ð½":999,"ÑĢÑĥÐ´":1000,"ĠÑĦÐµÐ²ÑĢÐ°":1001,"ĠÐ²ÑģÐµ":1002,"ĠÐºÐ¾Ð´":1003,"Ð¾ÑĪ":1004,"ĠÐ·Ð´":1005,"ĠÐ½Ð°ÑħÐ¾Ð´":1006,"ĠÐ¸Ð·Ð²ÐµÑģÑĤ":1007,"ĠÐ¸ÑģÐº":1008,"ĠÐ°Ð²ÑĤÐ¾ÑĢ":1009,"ĠÐ´ÐµÐºÐ°":1010,"ĠÐ´ÐµÐºÐ°Ð±ÑĢÑı":1011,"ĠÑĦÐ¸Ð»ÑĮÐ¼":1012,"ĠÑģÐµÐ²ÐµÑĢ":1013,"ĠÑįÐ½":1014,"ÑĥÑīÐµÑģÑĤÐ²":1015,"ÑıÑī":1016,"ÐµÐ´Ð¸Ð½":1017,"Ð·ÑĭÐ²":1018,"ÑĥÑĢÐ³":1019,"ÑıÑĤÑĮ":1020,"ÐµÐ½Ð¸ÐµÐ¼":1021,"ĠÐºÑĢÐ°Ñģ":1022,"ĠÐ´Ð°ÑĤÐ°":1023,"ĠÐ²Ð»Ð°Ð´":1024,"ĠÐ¼Ð°ÑĢÑĤÐ°":1025,"Ð¸ÐµÐ¹":1026,"ĠÐ¾ÑĢÐ³Ð°Ð½":1027,"ĠÐ¸Ð¼Ðµ":1028,"Ð»Ð°Ð³":1029,"Ð¾Ð½Ñĩ":1030,"ĠÐ²Ð¾Ð»":1031,"ÑĥÐµÑĤ":1032,"ĠÐ¾ÐºÑĤÑıÐ±ÑĢÑı":1033,"Ð¾ÑģÑĤÑĮ":1034,"ĠÑģÐ¼ÐµÑĢ":1035,"Ð¸ÑģÐ¸":1036,"ĠÑģÐ»ÐµÐ´":1037,"ÑĢÐµÑĤ":1038,"Ð¸ÑĤÐµÑĤ":1039,"ĠÑģÐµÐ½ÑĤÑıÐ±ÑĢÑı":1040,"Ð¾Ð²Ð¸Ñĩ":1041,"ĠÐ°Ð²Ð³ÑĥÑģÑĤÐ°":1042,"ĠÐ²Ðº":1043,"Ð¸ÑĩÐµÑģÐºÐ¸Ñħ":1044,"Ð¼ÐµÑģÑĤ":1045,"Ð°ÑĤÐ¾ÑĢ":1046,"ÑĥÐ³":1047,"ĠÑĨÐµÐ½ÑĤÑĢÐ°":1048,"Ð¾Ð²Ð°Ð»":1049,"ĠÐ°Ð»ÐµÐºÑģÐ°Ð½Ð´":1050,"ÑĨÐ°":1051,"ĠÐ°ÑĢÑħ":1052,"ÑģÐºÐ°":1053,"ÐºÐ¾Ð¹":1054,"Ð´Ð¸":1055,"ĠÑĢÑĥ":1056,"ĠÑģÑĤÐ°ÑĤÑĮÐ¸":1057,"Ð¾Ð±Ñĭ":1058,"Ð²Ð¾Ð»":1059,"ĠÑĢÐ°Ð¹Ð¾Ð½Ðµ":1060,"ĠÑĤÐµÑħ":1061,"ĠÑĤÑĥÑĢ":1062,"ĠÐºÐ»ÑĥÐ±":1063,"ÐµÑĦ":1064,"ĠÐ¸ÑİÐ»Ñı":1065,"ĠÑıÐ²Ð»ÑıÐµÑĤÑģÑı":1066,"ÐºÐ¾Ð¼":1067,"ĠÐ´ÐµÐ¹ÑģÑĤÐ²":1068,"ĠÑģÑĪÐ°":1069,"ÑıÑĤÐµÐ»ÑĮ":1070,"ĠÐ´ÐµÑĢÐµÐ²Ð½Ñı":1071,"ĠÐ¾ÑĤÐ½Ð¾":1072,"ĠÐºÐ¾ÑĤÐ¾ÑĢÑĭÐ¹":1073,"ĠÐ²ÐµÐ»Ð¸Ðº":1074,"ĠÐ³Ð¾ÑģÑĥÐ´Ð°ÑĢÑģÑĤÐ²ÐµÐ½":1075,"ĠÑĥÐ¶Ðµ":1076,"ĠÑĢÐ°Ð·Ð²":1077,"Ð¾Ñħ":1078,"ĠÑĩÐµÐ»Ð¾Ð²ÐµÐº":1079,"ĠÐ¸ÑģÑĤÐ¾Ñĩ":1080,"Ð°ÑĤÑĭ":1081,"Ð¼Ð°Ð½":1082,"ĠÐ¸Ð½ÑĤÐµÑĢ":1083,"ĠÐ¸ÑİÐ½Ñı":1084,"ĠÐ²Ð·":1085,"ĠÐ¿Ð¾ÑģÐ»ÐµÐ´":1086,"ĠÐ¾ÑĤÐº":1087,"Ð¸ÑĩÐµÑģÐºÐ¸Ð¹":1088,"Ð¾Ð¼Ð¸Ð½":1089,"ÑĨÐµÐ²":1090,"ĠÐ½ÐµÐ¼":1091,"ĠÐ°Ð¿ÑĢÐµÐ»Ñı":1092,"ĠÐ¿Ð¾Ð±":1093,"ĠÐ¿ÐµÑĢÐµÐ´":1094,"Ð¸ÑĢÑĥ":1095,"Ð¸ÑĤÑĥ":1096,"Ð¾Ð½Ñĭ":1097,"ÑĢÐµÐ½":1098,"ĠÐ²Ð¾Ð´":1099,"Ð¸Ð²ÐµÑĢÑģ":1100,"ĠÑĦÐ¾ÑĢÐ¼":1101,"ĠÐ²Ð¾Ñģ":1102,"Ð¸ÑĨÑĭ":1103,"Ð¸ÑĩÐµÑģÐºÐ¾Ð³Ð¾":1104,"Ð¾Ð»Ð¾Ð¶":1105,"Ð¾Ð²Ð¾Ð¹":1106,"ĠÐ¸Ð·Ð¾Ð±":1107,"ĠÑĦÐµÐ²ÑĢÐ°Ð»Ñı":1108,"ÑĩÐµ":1109,"Ð°ÑİÑī":1110,"ÑĥÑĢÐ°":1111,"ĠÐ¾ÑģÐ½":1112,"ĠÐºÐ°ÑĢÑĤ":1113,"ĠÐ¼Ð¾ÑĢ":1114,"ĠÑģÑĤÐ°ÑĢ":1115,"ĠÐ¶ÐµÐ½":1116,"ĠÐ´Ð¾Ðº":1117,"ĠÐ¿ÑĢÐ¸Ð²":1118,"ĠÑģÑĤÐ°Ð»":1119,"Ð°Ð»Ðµ":1120,"ĠÐ¼Ð¾Ð»":1121,"ÑĥÐ¶Ð´":1122,"ĠÑĥÐ»Ð¸ÑĨ":1123,"Ð¾Ð½Ð¾Ð¼":1124,"ĠÐ¾ÐºÑĢÑĥÐ³":1125,"ĠÐ¸Ð·Ð´":1126,"ĠÐ½ÐµÐº":1127,"ÑģÐºÐ¸Ð¼":1128,"ĠÐ¼Ð¾Ð³":1129,"ÑĪÐ¸Ñħ":1130,"Ð»Ð¸Ð½":1131,"ĠÐ²Ð¾ÑģÑĤ":1132,"ĠÐ¸Ð²":1133,"ĠÐ°Ð´Ð¼Ð¸Ð½":1134,"Ð±Ð°":1135,"ĠÑģÑĭ":1136,"ĠÐ°Ð½Ð³":1137,"ĠÐºÐ°Ð·":1138,"ĠÐ¾Ð¿Ð¸Ñģ":1139,"ĠÑĥÐ½Ð¸Ð²ÐµÑĢÑģ":1140,"ĠÐºÐ½":1141,"ÑĨÐµÐ½":1142,"ĠÐ¸Ð¼Ð¿":1143,"ĠÐ¾Ð½Ð°":1144,"ĠÑĪÐº":1145,"ÑĨÐ¸Ñİ":1146,"ĠÐ¾Ð½Ð¸":1147,"Ð¸ÐºÐ°Ð½":1148,"ĠÐ¼Ð¾Ð¶ÐµÑĤ":1149,"Ð´Ð¶":1150,"ĠÑĤÐ¾Ð³Ð¾":1151,"ĠÐ¿ÐµÑĢÐµÐ¿":1152,"ĠÑĢÐµÑĪ":1153,"ĠÐ½ÐµÑĤ":1154,"ĠÐ¿ÐµÑĢÐµ":1155,"ÐµÐºÑģ":1156,"Ð¾Ð²Ð¾ÑĢ":1157,"ĠÑģÑĤÑĢÐ°":1158,"ĠÐ¸Ð½ÑģÑĤ":1159,"Ð°Ð¿":1160,"ĠÐ½Ð°Ð³":1161,"ĠÐ°Ð´Ð¼Ð¸Ð½Ð¸ÑģÑĤ":1162,"ĠÐ¼Ð°Ðº":1163,"ĠÐ¾Ð´Ð¸Ð½":1164,"Ð°ÑĤÑĮÑģÑı":1165,"ĠÐ¿ÑĢÐµÐ¼":1166,"Ð¸ÑģÑĤÐµÐ¼":1167,"ĠÑĩÐ»ÐµÐ½":1168,"ĠÐ¿ÑĥÐ½":1169,"Ð±Ð¾Ð»":1170,"ĠÐ»Ð¸ÑĤ":1171,"ÑıÐ´":1172,"ĠÐ¿Ð¾ÑģÐµÐ»ÐµÐ½Ð¸Ðµ":1173,"ĠÑĨÐµÑĢ":1174,"Ð¸Ð·Ð½":1175,"ÑĪÐ¸Ðµ":1176,"ÑĤÐ¾ÑĢÐ°":1177,"ĠÑģÐ¼ÐµÑĢÑĤÐ¸":1178,"Ð¸Ð½Ð¾":1179,"ĠÑģÐ±Ð¾ÑĢ":1180,"Ð¸ÑĩÐµÑģÐºÐ¸Ðµ":1181,"ĠÐ¼ÑĥÐ·Ñĭ":1182,"ĠÐ»ÑİÐ±":1183,"ÑĢÐ°Ð»":1184,"ÑħÐ¾Ð´Ð¸ÑĤ":1185,"Ð°ÐºÐ¾":1186,"ĠÑģÐ²ÑıÐ·":1187,"ÑģÐ»":1188,"ĠÐ¾ÑĢÐ³Ð°Ð½Ð¸Ð·":1189,"ĠÐ¿Ð¾Ð»Ð¸ÑĤ":1190,"ĠÐ±Ð¾ÑĢ":1191,"ĠÐ³Ð¾ÑĢÐ¾Ð´Ð°":1192,"ÑĪÐµ":1193,"Ð»ÐµÐ¼":1194,"ĠÐ²Ð¾Ð¹Ð½Ñĭ":1195,"ĠÑģÑĤÐ°ÑĤÑĮÑı":1196,"ĠÑģÐ¸ÑģÑĤÐµÐ¼":1197,"ÐµÑĢÐ°ÑĤ":1198,"Ð¼ÐµÐ½ÑĤ":1199,"ĠÐ·Ð½":1200,"Ð»ÐµÐºÑĤ":1201,"ĠÐ¸Ð´":1202,"ĠÑĤÐ°Ð±":1203,"ĠÑĤÐµÑĢÑĢÐ¸ÑĤ":1204,"ĠÐ½ÐµÑģÐº":1205,"ĠÑĩÑĤ":1206,"ĠÐºÐ¾ÑĤÐ¾ÑĢÑĭÐµ":1207,"ÐµÑĢÐ±":1208,"ĠÐºÐ°Ð¼":1209,"ĠÑĢÐµÐ³Ð¸Ð¾Ð½":1210,"ĠÐ´ÐµÑĤ":1211,"ĠÐºÐ¾Ð½ÑĨ":1212,"ĠÐºÐ¾Ð³Ð´Ð°":1213,"ÑİÐ·":1214,"Ð°Ð¶":1215,"ĠÐ¾Ð»":1216,"ĠÑĦÐ¸Ð½":1217,"ĠÐ¼ÐµÐ½":1218,"ĠÐ¾Ð´Ð½Ð°ÐºÐ¾":1219,"ÐµÑģÑĮ":1220,"ÐµÑĢÑĭ":1221,"ĠÑģÐ¾Ð³":1222,"ĠÑģÑĥÐ´":1223,"ĠÐ¿Ð¾ÑĢ":1224,"Ð¼Ð¾Ð¶":1225,"Ð´ÐµÐ½":1226,"ĠÐ¸Ð³ÑĢÐ¾Ðº":1227,"ĠÐ´Ð¾Ð±":1228,"ĠÐ¿Ð°ÑĢÑĤ":1229,"ĠÐ¸Ð·Ð¾Ð±ÑĢÐ°Ð¶":1230,"ĠÐ¶ÐµÐ»":1231,"ĠÑģÐ°Ð½":1232,"ĠÑįÑĤÐ¾Ð³Ð¾":1233,"ĠÐ·Ð°Ð¿Ð°Ð´":1234,"ĠÐ¿ÑĢÐ¾ÑģÑĤ":1235,"ĠÐ¼Ð¾Ð¶Ð½Ð¾":1236,"ÐµÑĤÑĭ":1237,"ĠÑĦÑĥÑĤ":1238,"ĠÐ½Ð¸ÐºÐ¾Ð»":1239,"Ð½Ð¾Ð¼Ñĥ":1240,"Ð¸ÑĤÐ°":1241,"ĠÐ»ÑĥÑĩ":1242,"ÑĢÐ°Ð¶Ð´":1243,"Ð¸Ð¿ÐµÐ´":1244,"ĠÐ´Ð¸":1245,"Ð°Ð½Ð¾":1246,"Ð½Ð¸Ð¹":1247,"ĠÐºÑĢÐµ":1248,"ĠÑħÑĥÐ´":1249,"ĠÑģÐ»ÑĥÑĩ":1250,"ĠÐ°Ð¼ÐµÑĢ":1251,"ĠÐ²Ð¾ÐµÐ½":1252,"ĠÐºÐ¾Ð½ÑĤ":1253,"Ð¾ÑīÐ°Ð´":1254,"ÑĥÑĢÑĭ":1255,"ĠÐ½Ð°ÑĥÑĩ":1256,"ÑįÑĤ":1257,"ĠÑģÐ¾ÑģÑĤÐ¾Ñı":1258,"ĠÐ¿Ð»Ð¾ÑīÐ°Ð´":1259,"ĠÑįÑĤÐ¾Ð¼":1260,"ÑıÑģ":1261,"ĠÐ³Ðµ":1262,"ĠÐ·ÐµÐ¼":1263,"ĠÐ¿Ð¾ÑĩÑĤÐ¾Ð²":1264,"Ð¸Ð½Ðµ":1265,"Ð°ÑĢÐ¸":1266,"Ð¾Ð´Ð°":1267,"ÑĢÐ°Ð±Ð¾ÑĤ":1268,"ÑīÑĳ":1269,"ĠÐ¸ÑģÑĤÐ¾ÑĢ":1270,"Ð¸ÐµÐ¼":1271,"Ð¸ÐµÐ²":1272,"ĠÐ¿ÑĥÐ½ÐºÑĤ":1273,"ÑĩÐµÑģÑĤÐ²":1274,"ÐµÐ¼Ñĥ":1275,"ÑĢÑĭÑĤ":1276,"ĠÑĪÑĤ":1277,"ĠÐ¿Ð¸Ñģ":1278,"Ð°Ð»Ð¸ÑģÑĮ":1279,"ĠÐºÑĢ":1280,"ĠÐ·Ð°ÑĤ":1281,"ĠÐºÐ°Ð½":1282,"ĠÐ²Ð¸ÐºÐ¸Ð¿ÐµÐ´":1283,"ÑĨÑĭ":1284,"ĠÐ°Ð»ÑĮÐ±":1285,"ĠÐ°Ðº":1286,"ĠÑģÑĤÑĢ":1287,"ĠÑģÑĤÐ°Ð½":1288,"ĠÑĪÐºÐ¾Ð»":1289,"ÑĢÐ°Ñī":1290,"ĠÑģÑģÑĭ":1291,"ÐºÐ°Ð´":1292,"Ð°ÐºÑĤ":1293,"ÑĥÑģÐº":1294,"ĠÐµÑīÑĳ":1295,"ÐµÐ²Ð°":1296,"ĠÑĥÑĩÐ°ÑģÑĤÐ½Ð¸Ðº":1297,"ĠÐ¿Ð¾Ð½":1298,"ĠÐ½ÐµÐ´":1299,"Ð¸ÐºÐ¾Ð²":1300,"ÐµÑĢÐ½":1301,"ĠÑħÑĥÐ´Ð¾Ð¶":1302,"ÑĢÐµÐ²":1303,"Ð¾ÑĤÐ¾Ð²":1304,"ĠÐ¾Ð³":1305,"ÑģÐ¾Ð½":1306,"ĠÐ´ÐµÑıÑĤÐµÐ»ÑĮ":1307,"Ð¾ÑĦ":1308,"ĠÑĩÑĤÐ¾Ð±Ñĭ":1309,"ĠÑģÐ¿ÐµÑĨ":1310,"ĠÑħÐ¾ÑĤ":1311,"ĠÐ½Ð°ÑĢÐ¾Ð´":1312,"Ð»Ð¾Ð½":1313,"ĠÐºÐ½Ð¸Ð³":1314,"ĠÑĤÐ°Ð±Ð»Ð¸ÑĨ":1315,"ÐµÑĢÑĤ":1316,"ĠÐ²Ð¾Ð¿":1317,"ĠÑĥÐ±":1318,"ĠÐ¼Ð°Ð»":1319,"ĠÐ°Ð±":1320,"ÐºÐ¸Ð¹":1321,"ĠÑģÐ¾Ð¾ÑĤ":1322,"ĠÑĪÐ¸ÑĢ":1323,"ĠÐ²ÑĭÑģÑĤÑĥÐ¿":1324,"ÑģÑĤÑĢ":1325,"ĠÑĢÐµÐ·ÑĥÐ»ÑĮÑĤ":1326,"ĠÐ·Ð½Ð°ÑĩÐ¸Ð¼":1327,"ĠÑĢÐµÑģÐ¿":1328,"ĠÑģÐ»ÑĥÐ¶":1329,"ĠÑģÑĤÐ°ÑĤÑĥÑģ":1330,"ÐµÑĢÑĪ":1331,"ĠÐ°ÑĤ":1332,"ĠÑģÐ¾ÑģÑĤÐ°Ð²Ð»Ñı":1333,"ĠÐ¿ÐµÑĢÐµÐ²":1334,"ĠÑģÐ»Ð¾Ð²":1335,"Ð²Ð¾ÑĢ":1336,"ĠÐ²Ð²":1337,"ĠÐ±ÑĭÑĤÑĮ":1338,"ĠÐ³ÑĢ":1339,"ĠÑģÑģÑĭÐ»":1340,"Ð°ÑĨÐ¸Ñı":1341,"Ð¾Ð¶Ð´ÐµÐ½Ð¸Ñı":1342,"ĠÐ²Ð½ÑĥÑĤ":1343,"ĠÐ³ÐµÐ½ÐµÑĢÐ°":1344,"ĠÑĤÐ°Ð¼":1345,"ĠÑĦÐ¸Ð»":1346,"ĠÐºÐ»Ð°":1347,"Ð¸ÑĩÐµÑģÐºÐ°Ñı":1348,"ĠÑĢÐµÑģÐ¿ÑĥÐ±Ð»":1349,"ĠÐ³Ð¾Ð´Ñĭ":1350,"ĠÐ¿ÐµÑģ":1351,"ĠÑĦÐµÐ´":1352,"ĠÑģÑĥÑīÐµÑģÑĤÐ²":1353,"ÑĮÐµ":1354,"Ð°ÑģÑģ":1355,"ĠÐ²Ð¾Ð·Ð¼Ð¾Ð¶":1356,"ĠÐºÑĥÐ»ÑĮÑĤ":1357,"Ð°ÑĤÐµ":1358,"Ð¾Ð±Ñī":1359,"ĠÐ¼Ð½Ð¾Ð³":1360,"Ð»Ð¾Ð¶":1361,"ĠÑģÐµÐ»Ð¾":1362,"ĠÑģÐµÐ±":1363,"Ð°ÑİÑĤ":1364,"ÑįÐ½":1365,"Ð¸ÐºÐµ":1366,"Ð¸ÑĤÐµÐ»ÑĮÐ½Ð¾":1367,"ĠÐ²ÐºÐ»ÑİÑĩ":1368,"ĠÐ¼ÐµÐ¶Ð´Ñĥ":1369,"ĠÐ¿Ð¾Ð±ÐµÐ´":1370,"ĠÑĤÐ¸Ð¿":1371,"ÑĥÑĢÐ½":1372,"ĠÐµÐ´Ð¸Ð½":1373,"ÑģÐºÑĥÑİ":1374,"ĠÐ³Ð¾":1375,"ĠÐ°Ð½Ð³Ð»":1376,"ĠÐ²ÐµÑĢÑħ":1377,"Ð½Ð¸Ñħ":1378,"ĠÑģÑĤÐµÐ¿":1379,"ĠÐ°ÐºÐ°Ð´":1380,"ÑĢÐµÐ¹":1381,"ĠÐºÑĥÑĢ":1382,"ĠÑģÐ¾Ð³Ð»Ð°Ñģ":1383,"ÑĦÐµÑģÑģÐ¸Ð¾Ð½":1384,"ĠÐ·Ð°Ð½Ð¸Ð¼":1385,"ĠÐ¿ÐµÑĢÐ¸":1386,"ĠÐ²Ð¾Ð¿ÑĢÐ¾Ñģ":1387,"ÐºÐ°Ñħ":1388,"Ð¸Ð¼Ð¿":1389,"ÑĢÐµÐ±":1390,"ĠÐ¿ÑĢÐ¾Ð³":1391,"ĠÐ¿ÐµÑĢÐµÐ¿Ð¸ÑģÐ¸":1392,"ĠÑĥÑģ":1393,"ÐºÐ¾Ð²Ð¾Ð´":1394,"ĠÐ½Ð°Ð¿Ð¸Ñģ":1395,"ÐµÐ·Ð´":1396,"ĠÐ¿ÑĥÑĤ":1397,"ĠÐ°ÐºÐ°Ð´ÐµÐ¼":1398,"ĠÐ°Ð½ÑĤ":1399,"ĠÐ¾ÐºÐ¾Ð½Ñĩ":1400,"ĠÐµÐ²ÑĢÐ¾Ð¿":1401,"ÐµÐ½Ð½ÑĭÐ¹":1402,"Ð°Ð½Ñĭ":1403,"ÑģÑģÐ»ÐµÐ´":1404,"ĠÐ²Ð°Ñģ":1405,"ĠÐ¿ÑĢÐµÐ·":1406,"Ð°ÑĢÐ´":1407,"ĠÐ¸Ð½ÑĦÐ¾ÑĢÐ¼":1408,"ĠÑĢÐ°ÑģÐ¿Ð¾Ð»Ð¾Ð¶":1409,"ĠÐ¿ÑĢÐ¸Ñģ":1410,"ÑĥÐ»Ñı":1411,"ĠÑģÐ¾Ð¾ÑĤÐ²ÐµÑĤ":1412,"ĠÐ²ÑĭÑģÐ¾ÑĤÐ°":1413,"ÑĥÑĢÐµ":1414,"ĠÐºÐ¾Ð½ÑģÑĤ":1415,"ĠÐ²Ð¼ÐµÑģÑĤ":1416,"ÑĢÑĥÐ¶":1417,"ĠÐ²ÐµÐºÐ°":1418,"ĠÑĤÐµÐº":1419,"ĠÐ½ÐµÐºÐ¾ÑĤÐ¾ÑĢ":1420,"ÑıÐ»":1421,"Ð±Ñĭ":1422,"ĠÑĩÐµÑĢÐµÐ·":1423,"ĠÑĤÑĭ":1424,"ÑĨÐ¸Ð¹":1425,"ĠÑģÐ¸Ð»":1426,"ĠÑĤÐ°Ð±Ð»Ð¸ÑĨÐµ":1427,"ĠÐ½Ð°ÑĨÐ¸Ð¾Ð½Ð°Ð»ÑĮ":1428,"Ð¸Ð»Ð¸ÑģÑĮ":1429,"ÑĢÐ°ÐºÑĤ":1430,"ÑģÑĤÐ²Ðµ":1431,"ĠÐ½Ð°ÑģÐµÐ»ÑĳÐ½":1432,"ĠÑģÐµÐ·":1433,"ĠÑĢÐµÐ´":1434,"ĠÐ°Ð²ÑĤÐ¾Ð¼":1435,"ĠÐ¶Ð¸Ð²":1436,"ĠÐºÐ¾ÑĤ":1437,"ĠÑĢÑĥÐºÐ¾Ð²Ð¾Ð´":1438,"ĠÐ°Ð½Ð´":1439,"Ð°Ð»Ð°ÑģÑĮ":1440,"ĠÐ¼Ð¸Ñħ":1441,"Ð¼Ñĭ":1442,"ĠÐ¶ÑĥÑĢÐ½":1443,"ĠÐ½Ð¸":1444,"Ð¸Ð»Ð°ÑģÑĮ":1445,"ĠÐ¿Ð¾ÑģÐµÐ»":1446,"ÑĢÐ°ÑĤÐ¸Ð²":1447,"ÐµÑĢÐ³":1448,"ĠÑĢÐµÐ¶":1449,"ĠÐ½Ð°ÑģÑĤ":1450,"Ð¸Ð°Ð»ÑĮÐ½ÑĭÐ¹":1451,"ĠÐ¼Ð¸ÑĢÐ°":1452,"ĠÐ´Ð²Ð°":1453,"ĠÑħÐ¾ÑĢ":1454,"ÐµÑĢÐ²":1455,"Ð¾ÐµÐ²":1456,"ĠÑĢÐ°Ð½":1457,"ĠÐ¾Ð·":1458,"ĠÑģÑĤÑĢÐ¾":1459,"Ð°ÑĢÐ¾Ð´":1460,"ĠÐ¿ÑĢÐµÐ·Ð¸Ð´":1461,"ĠÑģÐ¾ÑİÐ·":1462,"ĠÐ¼Ð°ÑĤÐµÑĢ":1463,"ĠÐ¿ÑĢÐ¾Ð¸Ð·Ð²Ð¾Ð´":1464,"Ð½Ð¾ÑģÑĤÑĮÑİ":1465,"ĠÑĪÐ°Ð±":1466,"Ð°Ð´Ð°":1467,"ĠÐ´ÐµÐ¿":1468,"ĠÑĢÐµÐºÐ¸":1469,"ĠÐºÐ»Ð°ÑģÑģ":1470,"ĠÑĦÐ°Ð¹":1471,"Ð¸ÑĤÐµÑĤÐ°":1472,"Ð°ÑĢÑĮ":1473,"Ð¸Ð»Ð¾":1474,"ÑıÐ¼":1475,"ĠÐ±Ð¾Ð³":1476,"ĠÑĥÑĤ":1477,"Ð´ÐµÑĢÐ¶":1478,"ĠÑĤÐµÐ°ÑĤ":1479,"ĠÐ¼Ð¾ÑģÐºÐ¾Ð²":1480,"Ð°Ð»Ð¸Ð·":1481,"ĠÐ¾ÑģÐ¾Ð±":1482,"ĠÐ¸ÑĤÐ¾Ð³":1483,"ĠÑĥÐ¿Ð¾Ð¼Ð¸Ð½":1484,"ĠÐ¾ÑĤÐ´":1485,"ĠÐ½Ð°ÑģÐµÐ»ÐµÐ½Ð¸Ñı":1486,"ĠÐ»ÐµÐ½":1487,"ĠÐ¿Ð°Ð¼":1488,"ÑĪÐµÐ¹":1489,"ĠÐ¸ÑģÑģÐ»ÐµÐ´":1490,"ĠÐ°Ð»ÑĮÐ±Ð¾Ð¼":1491,"Ð¸Ð½ÑģÐºÐ¸Ð¹":1492,"ÐµÐ½ÑĤÐ°":1493,"ĠÐ¼Ð¸Ð½Ð¸ÑģÑĤ":1494,"ĠÑįÐºÑģÐ¿":1495,"ĠÐ°ÑĢÑĤ":1496,"ĠÐ¿ÑĢÐ¾ÑĨ":1497,"ĠÑĩÐ°ÑģÑĤÑĮ":1498,"ĠÐ»Ð¸Ð½":1499,"ÐµÑĢÐ¾Ð²":1500,"ĠÐ¿ÑĢÐ¾ÐµÐºÑĤ":1501,"Ð¸ÑĤÐµÐ»ÐµÐ¹":1502,"ĠÐºÐ²":1503,"ÐµÐ½Ð½ÑĭÐµ":1504,"ÑĢÑĮ":1505,"ĠÐ±ÑĥÐ´ÐµÑĤ":1506,"ÐµÐ½ÐºÐ¾":1507,"ĠÐºÐ¾ÑĢÐ¾Ð»":1508,"ÑĩÐ¸":1509,"Ð»Ð°Ð½Ð´":1510,"ĠÐ¼ÐµÐ¶Ð´ÑĥÐ½":1511,"ĠÐ·Ð°Ð³":1512,"ĠÐ³ÑĢÐ°Ð½":1513,"Ð¾Ð»Ð¾":1514,"ĠÐ¾Ð±ÑģÑĥÐ¶Ð´":1515,"ĠÐ´Ð¾ÑĢ":1516,"ĠÐ°Ð·":1517,"ĠÐ±ÑĢ":1518,"ĠÐ¼ÐµÐ¶Ð´ÑĥÐ½Ð°ÑĢÐ¾Ð´":1519,"ÐµÑĢÐµ":1520,"ĠÑģÐ¾Ð¾Ð±Ñī":1521,"Ð¾ÑĢÐ¾Ð´":1522,"Ð¿Ð¾Ð½":1523,"ĠÐ°Ð¼ÐµÑĢÐ¸ÐºÐ°Ð½":1524,"ÐµÐ½Ð´":1525,"ĠÐºÑĢÐ¸ÑĤ":1526,"ĠÑįÑĤÐ¾ÑĤ":1527,"ĠÐ¾ÑģÑĤÐ°Ð²":1528,"Ð¾Ð²Ð°ÑĤÑĮ":1529,"Ð¸Ð²Ð¸Ð·":1530,"ĠÐ¿ÑĢÐ¸Ñĩ":1531,"ĠÑĥÐ³":1532,"ĠÑĢÐ¾Ð¼":1533,"ĠÐ½Ð°ÑĨÐ¸Ð¾Ð½Ð°Ð»ÑĮÐ½ÑĭÐ¹":1534,"ĠÐ´Ð¾Ð¿":1535,"ĠÑĥÐ»Ð¸ÑĨÐ°":1536,"Ð¾ÑĢÐ³":1537,"ĠÑģÐ½":1538,"ĠÐ¿ÐµÑĢÐ¸Ð¾Ð´":1539,"ĠÐ²Ð½ÑĥÑĤÑĢÐµÐ½":1540,"Ð¸ÑĩÐµÑģÐºÐ¸":1541,"Ð¾Ð½Ðµ":1542,"Ð»Ð¸Ð·":1543,"ĠÐºÐ¾ÑĤÐ¾ÑĢÑĭÑħ":1544,"ĠÐ¸Ð·Ð±":1545,"ÐµÐ»ÐµÐ¼":1546,"ĠÐ¿Ð¾ÑıÐ²":1547,"ĠÐ½ÐµÑģÐºÐ¾Ð»ÑĮÐºÐ¾":1548,"ĠÑĦÐµÐ´ÐµÑĢÐ°":1549,"Ð¾Ð»Ð¶":1550,"ĠÐ¼ÑĥÐ¶":1551,"ĠÑģÐ¾ÑĨ":1552,"ĠÑģÐ¾ÑģÑĤÐ°Ð²Ðµ":1553,"Ð¸Ð±Ð¾":1554,"ĠÐ¿Ð¾Ð³":1555,"ĠÐºÐ°ÑĩÐµÑģÑĤÐ²":1556,"Ð¸Ð°Ð½":1557,"ĠÑģÐ°Ð¹ÑĤ":1558,"ÑĢÑĥÑĪ":1559,"Ð¸ÐºÐ»":1560,"ĠÐºÑĥÐ±":1561,"ĠÑģÐ¾Ð´":1562,"Ð¾ÑĢÐ¾Ð²":1563,"ĠÐ¿Ð¾ÑĢÑĤ":1564,"Ð²Ñĭ":1565,"Ð¸Ð»Ð»":1566,"Ð¼Ð¾ÑĤ":1567,"Ð²Ð¸":1568,"ĠÐ³ÑĥÐ±":1569,"ÑĭÐ¼Ð¸":1570,"ĠÐ°ÐºÑĤÐ¸Ð²":1571,"ÑĥÐ´Ð°":1572,"ÑĢÐ°Ñħ":1573,"ÐµÐ½Ð½ÑĭÑħ":1574,"ĠÐ³Ð¾Ð´Ð°Ñħ":1575,"Ð°Ð»Ð¾ÑģÑĮ":1576,"Ð¼ÐµÑĤ":1577,"ÑĪÐµÐ³Ð¾":1578,"ÑģÑĤÐ²Ð¾Ð¼":1579,"ĠÐ²ÐµÐ´":1580,"ĠÑĤÑĢÐ°Ð½":1581,"ĠÐ¾Ð»Ð¸Ð¼Ð¿":1582,"ĠÑģÐ¿Ð¸Ñģ":1583,"ĠÐ¾Ð¿ÑĢÐµÐ´":1584,"ĠÐ¿ÑĢÐ¾Ð±":1585,"ĠÑĩÐ°ÑģÑĤÐ¸":1586,"ĠÑģÑĢÐµÐ´Ð¸":1587,"ĠÑĦÑĥÑĤÐ±Ð¾Ð»":1588,"ĠÐ½Ð°Ð¿ÑĢ":1589,"ĠÐ¼Ð°Ð¹":1590,"ĠÐ´ÑĢÑĥÐ³Ð¸Ñħ":1591,"ĠÐ±Ð°ÑĢ":1592,"ĠÑįÑĤÐ°":1593,"ĠÐ¿ÑĢÐ¾ÑĪ":1594,"ĠÑĦÑĢÐ°Ð½ÑĨ":1595,"ĠÑĤÐµÐ»ÐµÑĦ":1596,"ĠÐ¿ÐµÑĢÐ²ÑĭÐ¹":1597,"Ð¾ÑĤÑĭ":1598,"ĠÐ·Ð°Ñī":1599,"ĠÑĤÐ¾Ñĩ":1600,"ĠÐ¾Ð±Ð»Ð°ÑģÑĤÑĮ":1601,"ĠÐ¿Ð¾ÑįÑĤ":1602,"Ð²Ðµ":1603,"ÑıÐ¶":1604,"ĠÑģÐ°Ð¹ÑĤÐ°":1605,"ÑĥÑİÑĤ":1606,"ĠÑİÐ¶":1607,"ĠÐ´Ð¸Ð²Ð¸Ð·":1608,"ĠÑģÐ¾Ð¾ÑĤÐ²ÐµÑĤÑģÑĤÐ²":1609,"Ð»Ð¸Ð²":1610,"ĠÐ²ÑģÐµÐ³Ð¾":1611,"ĠÐºÑĢÑĥÐ¿":1612,"ĠÑģÐ¿Ð¸ÑģÐ¾Ðº":1613,"ĠÑĥÐºÐ°Ð·":1614,"Ð°ÑĨÐ¸Ð¾Ð½":1615,"ĠÐ³ÑĢÐ°ÑĦ":1616,"ĠÐ±Ð°Ð»":1617,"ĠÐ¼ÑĥÐ½":1618,"ĠÐ¾Ð¿Ð¸ÑģÐ°Ð½Ð¸Ðµ":1619,"Ð¿Ð¸ÑĤ":1620,"ĠÑįÐ»ÐµÐºÑĤ":1621,"ĠÐ½ÐµÐ·":1622,"ĠÐ¾ÑģÑĤÑĢÐ¾Ð²":1623,"ĠÐ²ÑĤÐ¾ÑĢÐ¾Ð¹":1624,"ĠÐ¼ÑĥÐ·ÑĭÐº":1625,"ĠÑĤÐµÐºÑģÑĤ":1626,"ĠÐ´Ð²ÑĥÑħ":1627,"ĠÑģÐ´ÐµÐ»":1628,"ĠÐ½Ð¸Ñħ":1629,"ĠÑĤÐµÑħÐ½":1630,"ĠÐ²ÑģÑĤ":1631,"ĠÑģÐµÐ»ÑĮÑģÐºÐ¾Ðµ":1632,"ĠÐ¸ÑģÐºÑĥÑģ":1633,"ÑĳÐ²":1634,"ĠÐ¼Ð°Ñģ":1635,"ĠÑģÐ»ÐµÐ´ÑĥÑİÑī":1636,"ĠÐ·Ð°ÑĤÐµÐ¼":1637,"Ð¾Ð·Ñı":1638,"ĠÐ»Ð¸ÑĪ":1639,"ĠÑĦÐ°Ð¹Ð»":1640,"Ð½ÑıÑı":1641,"ĠÐ»Ð¸ÑĤÐµÑĢÐ°ÑĤ":1642,"ÑĢÑĥÐ·":1643,"Ð¾Ð½Ð´":1644,"ĠÐ»Ð¸":1645,"ÐµÐ´ÐµÐ½Ð¸Ñı":1646,"ĠÐ¿Ð¾ÐºÐ°Ð·":1647,"ĠÐ°Ð´Ð¼Ð¸Ð½Ð¸ÑģÑĤÑĢÐ°ÑĤÐ¸Ð²":1648,"ĠÐ¼Ð¾Ð´":1649,"ĠÐ¿ÐµÑĢÐ²Ð¾Ðµ":1650,"ĠÐ³Ð°Ð·":1651,"ÐµÑģÐ¿":1652,"ĠÑĢÐ°Ð·Ð¼ÐµÑĢ":1653,"Ð½ÐµÐ²":1654,"Ð¸ÑģÑĤÑĭ":1655,"ĠÐ¸Ð´ÐµÐ½ÑĤ":1656,"ĠÐ½Ð¾Ð¼":1657,"Ð¸Ð¼ÐµÑĢ":1658,"ĠÐ±Ð»":1659,"ĠÐ²ÑģÐµÑħ":1660,"Ð¼Ð°ÑĤ":1661,"ĠÑģÐ²ÑıÑĤ":1662,"ĠÐ°Ð¿":1663,"ĠÐ¶ÐµÐ»ÐµÐ·":1664,"ĠÐ¸Ñģ":1665,"ÑģÐºÐ¾":1666,"ĠÐ²ÑģÑĳ":1667,"ĠÑģÐ¾Ð²ÑĢÐµÐ¼":1668,"ĠÐ¾ÐºÐ¾Ð»Ð¾":1669,"ĠÑĦÐ»":1670,"Ð¸ÑĤÐµÐ»Ñı":1671,"ÑĥÐ¼ÐµÐ½ÑĤ":1672,"ĠÐ²Ð»Ð°Ð´Ð¸Ð¼":1673,"ĠÐ¼Ñĭ":1674,"ĠÑĥÑģÑĤÐ°Ð½Ð¾Ð²":1675,"ĠÐ±Ð¸":1676,"ĠÑĢÐ¾ÑģÑģÐ¸Ð¹ÑģÐºÐ¾Ð¹":1677,"ĠÐºÐ°Ð»":1678,"ĠÑĤÐµÐ»ÐµÑĦÐ¾Ð½":1679,"ĠÑĢÑĭ":1680,"ÑĢÐ°Ð¶Ð´Ð°Ð½":1681,"ĠÑģÐ¿Ð¾ÑĢÑĤ":1682,"ÑĦÑĦ":1683,"ĠÑįÑĤÐ¾Ð¹":1684,"ĠÐ¿ÑĢÐ¾Ð³ÑĢÐ°Ð¼":1685,"ĠÐ¼Ð°Ð½":1686,"ĠÐ¾ÑĦÐ¸ÑĨÐ¸Ð°Ð»ÑĮÐ½ÑĭÐ¹":1687,"Ð¸ÑĨÐ¸Ð¸":1688,"Ð°Ð»ÑĮÐ½ÑĭÐµ":1689,"ĠÐ»Ð¸Ñĩ":1690,"ĠÐºÐ°Ð¶Ð´":1691,"ĠÑģÐ¸Ð¼":1692,"Ð¸Ð½Ñĥ":1693,"ĠÐ³ÑĢÐ°Ð¶Ð´Ð°Ð½":1694,"ĠÐ¿ÑĢÐ¾Ð´Ð¾Ð»Ð¶":1695,"Ð°Ðµ":1696,"ĠÐ¸Ð³ÑĢÐ¾ÐºÐ¸":1697,"ĠÑĢÐ°Ð·Ð´ÐµÐ»":1698,"ÐºÐ¸Ñħ":1699,"Ñĸ":1700,"Ð¸Ð¼ÐµÐ½":1701,"ĠÑģÐµÐº":1702,"ĠÐºÑĢÑĭ":1703,"ĠÐ¿Ð°ÑĢÐ°":1704,"Ð¾Ð½Ð¾Ð²":1705,"ĠÑģÐ¾Ðº":1706,"ĠÐ¸Ð¼ÐµÐ½Ð¸":1707,"Ð¸ÑĤÐµ":1708,"ĠÑģÑĩÐ¸ÑĤ":1709,"Ð¾ÑģÐ¾Ð±":1710,"ĠÐ´Ð°Ð¶Ðµ":1711,"ĠÐ¾ÑĢÐ´ÐµÐ½":1712,"ĠÑĤÑĢÐ¸":1713,"ĠÐ½Ð°Ð¿ÑĢÐ¸Ð¼ÐµÑĢ":1714,"ĠÐ¾ÑĤÐ»Ð¸Ñĩ":1715,"ĠÐ¸Ð´ÐµÐ½ÑĤÐ¸ÑĦ":1716,"Ð¸ÑĨÐ¸Ð¿":1717,"ĠÐ¼ÑĥÐ·":1718,"Ð¸ÑĤÐµÐ»Ð¸":1719,"ĠÑĥÐ²":1720,"Ð¸Ð½Ð¾Ð²":1721,"ĠÑĢÐ°Ð·Ð²Ð¸ÑĤ":1722,"ĠÑģÐ¾Ð´ÐµÑĢÐ¶":1723,"ÐµÐ½Ñģ":1724,"ĠÑĤÐ°Ð½":1725,"Ð¾Ð»Ð¾Ð²":1726,"ĠÐ³ÑĢÑĥÐ¿Ð¿Ñĭ":1727,"Ð¸Ð½ÑģÐºÐ¾Ð³Ð¾":1728,"ĠÑĤÑĢÐµÐ½":1729,"ĠÑįÐ¿":1730,"ĠÐ³Ð¾Ð²Ð¾ÑĢ":1731,"ĠÐ½ÐµÑģ":1732,"ĠÐºÐ¾ÑĤÐ¾ÑĢÐ¾Ð¹":1733,"ĠÐ¼Ð¾Ð»Ð¾Ð´":1734,"ÐµÑĢÐ¾Ð¼":1735,"ĠÐ±Ð»Ð°Ð³":1736,"ĠÐ°Ð»ÐµÐºÑģÐ°Ð½Ð´ÑĢ":1737,"ĠÐ¼ÑĥÐ½Ð¸ÑĨÐ¸Ð¿":1738,"ÑİÑģ":1739,"ĠÐ°Ð³":1740,"ĠÐ¾ÑĩÐµÐ½ÑĮ":1741,"Ð°Ð»ÑĮÐ½Ð¾":1742,"ĠÑĢÐ°Ð±Ð¾ÑĤÑĭ":1743,"Ð¸ÑĨÐµ":1744,"Ð¾ÑĢÐ°Ñı":1745,"ĠÐ¿Ð°Ð¼ÑıÑĤ":1746,"Ð²Ð°ÑĤ":1747,"ÐµÑģÑĤÐ¸":1748,"ĠÐ´Ð°Ð²":1749,"ĠÐ¸Ð¼ÐµÐµÑĤ":1750,"ĠÐ¸ÑģÑĤÐ¾ÑĢÐ¸Ð¸":1751,"Ð°Ð»ÑĮÐ½ÑĭÑħ":1752,"ĠÐºÐ½Ñı":1753,"Ð¿Ð¾Ð´":1754,"ĠÐ·Ð¾Ð»":1755,"ĠÐ¿ÑĢÐ¾Ð¸Ñģ":1756,"ÑĢÐ¾ÑģÑĤ":1757,"ĠÑĤÐµÑĢÑĢÐ¸ÑĤÐ¾ÑĢÐ¸Ð¸":1758,"ĠÐ²ÑĭÐ¿ÑĥÑģÐº":1759,"ĠÑĥÐ·":1760,"ĠÐ²Ð¾ÑģÑĤÐ¾Ñĩ":1761,"ĠÐ»ÑİÐ´":1762,"Ð¾Ð·ÑıÐ¹":1763,"ĠÐ¿Ð»Ð°Ð½":1764,"ĠÐ²ÐµÐ½":1765,"ĠÐ²Ð°Ð»":1766,"Ð½Ñĥ":1767,"ĠÑģÐ¸Ð½":1768,"ĠÑģÐ¾Ð²ÐµÑĤÐ°":1769,"ĠÐ¾ÑĤÐ½Ð¾ÑĪ":1770,"ĠÐºÐ¾ÑĤÐ¾ÑĢÐ°Ñı":1771,"ÑĩÐ°":1772,"ĠÐ¿ÑĢÐµÐ¶":1773,"ĠÑĩÐ°Ñģ":1774,"ĠÐ¿Ð¾Ð¼Ð¾Ñī":1775,"ÑħÑĢÐ°Ð½":1776,"ĠÐ»Ñĥ":1777,"ĠÑįÐºÐ¾Ð½Ð¾Ð¼":1778,"Ð¾Ð±Ð¾Ð´":1779,"Ð²ÐµÐ´":1780,"ĠÐ½ÑĥÐ¶":1781,"ĠÐµÐ¼Ñĥ":1782,"ĠÐºÐ¾":1783,"ÑĪÐ°Ñı":1784,"ĠÐ²Ð¼ÐµÑģÑĤÐµ":1785,"ĠÐ¶ÐµÐ½Ñī":1786,"Ð¸ÑĤÑĮÑģÑı":1787,"ĠÑĢÐ°Ð·Ð»Ð¸Ñĩ":1788,"ĠÑģÑĤÐ°ÑĤÑĮÑİ":1789,"Ð°Ð»Ð¸Ð¸":1790,"ĠÐ³ÑĥÐ±ÐµÑĢÐ½":1791,"ĠÑģÐ²Ð¾ÐµÐ¹":1792,"ĠÑģÐµÑĢÐ³":1793,"Ð»Ð¾Ð¼":1794,"ĠÐ¾Ð¿ÐµÑĢÐ°":1795,"ÑĢÐ¾Ð¹":1796,"Ð±Ð¸":1797,"ĠÐ¿Ð¾Ð´Ð´ÐµÑĢÐ¶":1798,"Ð°Ð½Ð¸Ð¹":1799,"ĠÐ¿Ð¾ÑģÑĳÐ»":1800,"ÑĥÑĤÑģÑĤÐ²":1801,"ÑĦÐµÑģÑģÐ¸Ð¾Ð½Ð°Ð»ÑĮÐ½ÑĭÐ¹":1802,"ÑıÑħ":1803,"ĠÐ·Ð°Ð±":1804,"ĠÐ½ÐµÐ²":1805,"ĠÑģÑĤÐ¾Ð»":1806,"ĠÐ¿Ð¾Ð»ÑĥÑĩÐ¸Ð»":1807,"ĠÐ¼Ð½Ð¾Ð³Ð¾":1808,"ĠÐ»Ð°":1809,"ĠÑĢÐµÐº":1810,"ĠÐ¿ÑĢÐ¸Ð·":1811,"Ð¸ÑıÑĤ":1812,"ĠÐ¸Ð·Ð¼ÐµÐ½":1813,"Ð°ÑĢÐ¾Ð²":1814,"ĠÐ¾ÑģÐ½Ð¾Ð²Ð°Ð½Ð¸Ñı":1815,"ĠÑĥÐ»":1816,"ĠÑĥÐ¼ÐµÑĢ":1817,"ÐµÐ½Ð½Ð¾Ð¹":1818,"ĠÐ¸Ð²Ð°Ð½Ð¾Ð²":1819,"ĠÑĥÐ¿ÑĢÐ°Ð²":1820,"ĠÐ¼Ð°Ð³":1821,"Ð½ÐµÐ³Ð¾":1822,"ÑĨÐ¸ÐºÐ»":1823,"ĠÐ¾ÑĤÐ´ÐµÐ»":1824,"Ð°Ð»ÑĮÐ½Ð°Ñı":1825,"Ð¾ÑģÐ»Ð°Ð²":1826,"ÑĢÑĥÐºÑĤ":1827,"ĠÑĤÐµÐ»ÐµÑĦÐ¾Ð½Ð½ÑĭÐ¹":1828,"ĠÐ½ÐµÐ¼ÐµÑĨ":1829,"ĠÑĤÑĢÑĥÐ´":1830,"Ð°Ð»ÑĮÐ½Ð¾Ð¹":1831,"Ð°ÑĢÑħ":1832,"ĠÑĥÑģÐ¿":1833,"Ð¾Ð¿ÐµÐ´":1834,"Ð½Ð¸ÐºÐ¾Ð¼":1835,"ĠÐ¿Ð°ÑĤ":1836,"ÑıÐ±":1837,"Ð¸ÑģÐ°":1838,"Ð°ÐµÐ¼":1839,"ĠÐ½Ð°ÑħÐ¾Ð´Ð¸ÑĤÑģÑı":1840,"ĠÐ¿Ð¾ÑģÐµÐ»ÐµÐ½Ð¸Ñı":1841,"Ð¾ÑĢÑĥÐ¶":1842,"ÑģÑĢ":1843,"ĠÐ·Ð´ÐµÑģÑĮ":1844,"Ð»Ð°ÑģÑĮ":1845,"ÑĢÐ¾Ð¼Ðµ":1846,"ĠÐ³Ð»":1847,"ÑĮÐµÑĢ":1848,"ĠÐ¿ÑĢÐ¸Ð±":1849,"ĠÐ¿Ð¾Ñħ":1850,"Ð°ÑĤÐ¾Ð²":1851,"ĠÐ±ÑĢÐ°":1852,"ĠÐ°ÑĢÐ¼Ð¸Ð¸":1853,"Ð¾ÑĢÐ¾Ð½Ñĭ":1854,"ĠÐ¸Ð¼Ð¿ÐµÑĢ":1855,"ĠÑıÐ¿Ð¾Ð½":1856,"ĠÑĢÐ°ÑģÑģ":1857,"Ð±Ñĥ":1858,"ĠÑģÐ¾ÑĤ":1859,"ĠÑģÑĤÑĢÐ°Ð½Ñĭ":1860,"ĠÐ¿ÐµÑĤÐµÑĢÐ±":1861,"ĠÐºÐ¸ÑĤ":1862,"ĠÐ¿Ð¾Ð´Ð¿":1863,"Ð°Ð»ÑĮÐ½Ð¾Ð³Ð¾":1864,"ĠÐ³Ð»Ð°Ð²Ñĭ":1865,"ÐµÑģÑĤÐ²Ð°":1866,"ĠÐºÐ°ÑĩÐµÑģÑĤÐ²Ðµ":1867,"ĠÐ´ÐµÐ¼":1868,"ĠÑĥÐºÑĢÐ°Ð¸Ð½Ñĭ":1869,"ĠÑĢÐ¾Ð¶Ð´ÐµÐ½Ð¸Ñı":1870,"ĠÐ½Ð°Ð·Ð½Ð°Ñĩ":1871,"ĠÐ½Ð°ÑģÐµÐ»ÐµÐ½Ð¸Ðµ":1872,"ĠÑģÐ°Ð¹ÑĤÐµ":1873,"ĠÐ²ÑĭÑģÐ¾Ðº":1874,"ĠÑĥÐ½Ð¸Ð²ÐµÑĢÑģÐ¸ÑĤÐµÑĤ":1875,"Ð¸Ð·Ð¼":1876,"ÐºÐ¾Ð³Ð¾":1877,"ÑĩÐ¸Ð½":1878,"ĠÑĥÑĢÐ¾Ð²":1879,"ĠÐºÐ¾Ð½ÑĦ":1880,"ĠÐ¾Ð»Ð¸Ð¼Ð¿Ð¸Ð¹":1881,"ĠÐ²Ð¸Ð´Ðµ":1882,"Ð¾Ð»Ð¾Ð³Ð¸Ð¸":1883,"ÑĢÐ°ÑģÑĤ":1884,"ĠÐºÐ¾Ð»Ð¸ÑĩÐµ":1885,"ĠÐ¸Ð´ÐµÐ½ÑĤÐ¸ÑĦÐ¸Ðº":1886,"ÑĨÐ¸ÐºÐ»Ð¾Ð¿ÐµÐ´":1887,"Ð¾Ð±ÑĢÐ°Ð·":1888,"Ð¸Ð¼Ð¾":1889,"ĠÐ¿Ð»Ð¾ÑīÐ°Ð´ÑĮ":1890,"ÑģÐµÐ´":1891,"ĠÐ´ÐµÐ½ÑĮ":1892,"ÑĪÐ¸Ð¼":1893,"ĠÑħÐ¾ÑĤÑı":1894,"ÐµÐºÑĤÐ°":1895,"ĠÐ¾ÑĤÐºÑĢÑĭÑĤ":1896,"Ð°ÑĤÐµÐ»Ñı":1897,"ÑĢÐ°Ð±":1898,"ĠÑģÑĤÑĢÐ°Ð½Ð¸ÑĨÐ°":1899,"Ð¾Ð´Ðµ":1900,"ĠÑģÑĤÑĢÐ¾Ð¸ÑĤÐµÐ»ÑĮ":1901,"ĠÐµÐ¿":1902,"ĠÐºÐ°ÑĢÑĤÐ°":1903,"ĠÐ¶ÑĥÑĢÐ½Ð°Ð»":1904,"ĠÑİÑĢ":1905,"Ð²Ð¸Ð½":1906,"Ð¾ÑıÑī":1907,"ĠÐ¾ÑģÐ½Ð¾Ð²Ð°Ð½":1908,"ĠÐ°ÑĦ":1909,"ĠÐ½Ð°Ð³ÑĢÐ°Ð´":1910,"ÑģÐºÐ¾Ð¼Ñĥ":1911,"ÑĳÑħ":1912,"ĠÐ³ÐµÑĢÐ¼":1913,"ĠÐ°Ð¼":1914,"ĠÐ²ÑĭÑĪ":1915,"ĠÐºÐ¾Ð½Ðº":1916,"ĠÐ´ÑĢÑĥÐ³Ð¸Ðµ":1917,"ĠÐ¿Ð°Ð²":1918,"ĠÑģÐ¾Ð±ÑģÑĤÐ²ÐµÐ½":1919,"ĠÐ¸Ð½Ð´ÐµÐºÑģ":1920,"ĠÐ°Ð²Ð¸":1921,"ĠÑĦÑĢÐ°Ð½ÑĨÑĥÐ·":1922,"ÐµÑĤÐµ":1923,"ĠÐ¾ÑģÐ²":1924,"ĠÐ²ÐµÑĢÑģ":1925,"ĠÑģÐ¾Ð»":1926,"Ð¸Ð»Ð¾ÑģÑĮ":1927,"ĠÐ¼Ð¸ÑĢÐ¾Ð²":1928,"ĠÐºÑĢÐ¾Ð¼Ðµ":1929,"ÑĢÑıÐ´":1930,"ĠÑģÐµÐ»ÑĮÑģÐ¾Ð²":1931,"ĠÐ¸ÑģÑĤÐ¾ÑĢÐ¸Ñı":1932,"Ð°Ð½Ð³":1933,"ÑĭÑĩ":1934,"ĠÐ»ÐµÐ¹":1935,"Ð½ÐµÐ¼":1936,"ÑĥÐ»ÑıÑĢ":1937,"ĠÑĨÐ¸ÑĦ":1938,"Ð²Ð¾Ð´":1939,"ĠÐ·Ð¾Ð»Ð¾ÑĤ":1940,"Ð¸ÑģÑĤÐ¾Ð²":1941,"ĠÐ¾ÑĤÐ´ÐµÐ»ÑĮ":1942,"ÐµÑģÑĤÐ²ÐµÐ½Ð½Ð¾Ð¹":1943,"ĠÑģÐµÐ±Ñı":1944,"ĠÐ¶Ð¸Ð·":1945,"ĠÐ¾ÑĤÐµÑĩ":1946,"ĠÐºÐ°Ð²":1947,"ĠÐºÑĢÐ°ÑĤ":1948,"ĠÑģÐ¾Ð³Ð»Ð°ÑģÐ½Ð¾":1949,"ĠÑįÐ½ÑĨÐ¸ÐºÐ»Ð¾Ð¿ÐµÐ´":1950,"ĠÑĥÑĩÐ°":1951,"ĠÑĢÐµÐ¹":1952,"ÑĢÐ°ÑĤÑĮ":1953,"ĠÑħÐ°ÑĢÐ°":1954,"ĠÑĢÑıÐ´":1955,"ĠÐ²ÐµÐº":1956,"ĠÐ¿ÑĢÐ¾Ð±Ð»ÐµÐ¼":1957,"ĠÐ¸Ð¼ÐµÐ½Ð°":1958,"ĠÐºÐ°ÑĢÑĤÑĭ":1959,"Ð°ÑĢÑı":1960,"ĠÐºÐ¾Ð½ÑĦÐµÑģÑģÐ¸Ð¾Ð½Ð°Ð»ÑĮÐ½ÑĭÐ¹":1961,"Ð¸ÑĤÑĥÑĤ":1962,"ĠÐ¿Ð°":1963,"ĠÐ¼Ð¸ÑĢ":1964,"ĠÑĥÐ¿Ð¾Ð¼Ð¸Ð½Ð°Ð½Ð¸Ðµ":1965,"ÐºÐ¸Ð½":1966,"ĠÐ½Ð°Ð±":1967,"ĠÐ²ÑħÐ¾Ð´Ð¸ÑĤ":1968,"ĠÐ»ÐµÐ²":1969,"ĠÑĦÐ¾ÑĤ":1970,"ĠÑģÑĤÐ°ÑĤÑĮÐµ":1971,"ĠÐ¼Ð¸Ð»":1972,"ĠÑĥÐ¼":1973,"ÑĢÐ°Ð³":1974,"ĠÑĨÐµÑĢÐºÐ¾Ð²":1975,"ĠÐ¿Ð¾ÑģÑĤÑĢÐ¾":1976,"ĠÐ½ÐµÐ¹":1977,"ĠÑĥÑĩÐ°ÑģÑĤÐ¸Ðµ":1978,"ĠÐ²ÑĢÐµÐ¼ÐµÐ½Ð¸":1979,"ĠÐ¿ÑĢÐ¾ÑĦÐµÑģÑģ":1980,"ĠÐºÐ¸Ð½":1981,"ĠÐ¸ÑģÐ¿Ð¾Ð»Ð½":1982,"ĠÐ¿ÑĢÐ°Ð²Ð¸ÑĤÐµÐ»ÑĮ":1983,"ĠÐ´Ð¾ÑĢÐ¾Ð³":1984,"ĠÐ°Ð²ÑĤÐ¾Ð¼Ð¾Ð±":1985,"ĠÐ±ÑĭÐ²":1986,"ĠÑĨÐµÐ½ÑĤÑĢ":1987,"ĠÑĦÐ°Ðº":1988,"ĠÐ¿ÑĢÐ¾Ñģ":1989,"Ð°Ñİ":1990,"ĠÐ´Ð²Ð¸Ð¶":1991,"ĠÐ´Ð°Ð»ÑĮ":1992,"ĠÐ¿Ñģ":1993,"ĠÑģÐºÐ¾ÑĢ":1994,"ĠÐ½Ð°Ð¿ÑĢÐ°Ð²":1995,"ĠÐ·Ð°Ñı":1996,"Ð¸ÑĩÐµÑģÐºÐ¾Ðµ":1997,"ĠÑĥÐ½Ð¸Ð²ÐµÑĢÑģÐ¸ÑĤÐµÑĤÐ°":1998,"ĠÐ²ÑħÐ¾Ð´":1999,"ĠÐ²Ð¾ÑģÑĤÐ¾Ðº":2000,"ĠÐ²Ð»Ð°ÑģÑĤ":2001,"Ð»ÐµÐ½Ð°":2002,"ÐµÑģÑĤÑĮ":2003,"ĠÑĢÐµÑģÐ¿ÑĥÐ±Ð»Ð¸ÐºÐ¸":2004,"ÑįÐ¹":2005,"ĠÐ³Ð¾Ð´Ð¾Ð²":2006,"ÑĥÐ½Ð´":2007,"ĠÐ¸Ð½ÑģÑĤÐ¸ÑĤÑĥÑĤ":2008,"Ð¾ÑıÐ½":2009,"ĠÑĩÐ¸ÑģÐ»Ðµ":2010,"ĠÐ½ÐµÐ¾Ð±":2011,"ĠÐ³ÑĢÐµ":2012,"ĠÐ³Ð°Ð»":2013,"Ð·ÑĭÐ²Ð°":2014,"ĠÐ´Ð²Ð¾ÑĢ":2015,"ÑĤÐµÐ½":2016,"ĠÐ½Ð¿":2017,"ĠÐ¶Ð¸Ð·Ð½Ð¸":2018,"Ð¾ÑĢÐ´":2019,"ĠÑĦÐ¸Ð·":2020,"ĠÐºÐ¾ÑĢÐ¿":2021,"ĠÐ¿Ð¾ÑĩÑĤÐ¾Ð²ÑĭÐ¹":2022,"Ð¸ÑģÐ¸Ð¼":2023,"ĠÑĨÐµÐ½ÑĤÑĢÐ°Ð»ÑĮ":2024,"ÑĤÑĭ":2025,"ÑĢÐ¾Ð²Ð¾Ð¹":2026,"ÑģÐ¸Ð¼":2027,"ĠÑĦÐº":2028,"Ð»ÐµÑĤ":2029,"ĠÐ»Ð¸Ð±Ð¾":2030,"ĠÐ¸ÑģÑĤÐ¾ÑĩÐ½Ð¸Ðº":2031,"ÑĳÐ·":2032,"ÐµÑı":2033,"ĠÐ²Ð¾ÑģÑģÑĤ":2034,"ĠÑģÑĤÑĥÐ´":2035,"ĠÐ³ÐµÐ½ÐµÑĢÐ°Ð»":2036,"ĠÐ²ÐµÑģ":2037,"ĠÑģÐ¾Ð·Ð´Ð°Ð½":2038,"Ð°Ð½Ð´Ð°":2039,"ĠÐ¾ÑĤÑģ":2040,"ĠÑĢÐ°Ð·ÑĢÐ°Ð±Ð¾ÑĤ":2041,"ĠÐ·Ð°ÑıÐ²":2042,"ĠÐ¿ÑĢÐ¾Ð¼":2043,"Ð°Ð»Ð¾Ð³":2044,"Ð¸Ñī":2045,"ÑĢÐ°Ð»ÑĮ":2046,"ĠÑģÐ°":2047,"ĠÐºÐ¾Ð½Ñģ":2048,"ĠÐ¼Ð¾Ð¼":2049,"Ð¾Ð²Ð¾":2050,"ĠÑĥÑĩÐ°ÑģÑĤÐ²":2051,"ĠÐ´ÐµÐ»ÐµÐ½Ð¸Ðµ":2052,"ĠÑģÐ²Ð¾Ñİ":2053,"ĠÐ³Ð³":2054,"ĠÐºÐ¾ÑĤÐ¾ÑĢÐ¾Ð³Ð¾":2055,"ĠÐ°Ð½Ð³Ð»Ð¸Ð¹":2056,"ĠÐ¸ÑĢ":2057,"ÑĢÐµÐºÑĤ":2058,"Ð°Ð½ÑĮ":2059,"ĠÑĢÐ¾Ð´Ð¸Ð»ÑģÑı":2060,"ĠÑħÐ°ÑĢÐ°ÐºÑĤ":2061,"ĠÐ¿Ð¾Ð»Ð¾Ð¶":2062,"Ð¸ÑıÑħ":2063,"ÑĢÐ°Ð·Ð´":2064,"Ð°Ñī":2065,"ĠÐ¾ÑĦÐ¸ÑĨÐ¸Ð°Ð»ÑĮ":2066,"ĠÐ²Ð¸ÐºÐ¸Ð¿ÐµÐ´Ð¸Ð¸":2067,"ĠÐ²Ð¾Ð¹ÑģÐº":2068,"ĠÑĢÐµÐ¶Ð¸ÑģÑģ":2069,"ÐµÐ·Ð´Ð°":2070,"ĠÐ¸Ð¼Ñı":2071,"ĠÐ¿ÑıÑĤ":2072,"ĠÐ»ÐµÐ³":2073,"ĠÑĩÐµÐ»Ð¾Ð²ÐµÐºÐ°":2074,"ĠÐ»Ðµ":2075,"ÑĢÑĭÐ²":2076,"ĠÐ¿ÐµÑĢÐ²Ð¾Ð¹":2077,"ĠÑĥÑĩÑĳ":2078,"ĠÐ¾ÑĤÐ½Ð¾Ñģ":2079,"ĠÐ²Ð»Ð°Ð´Ð¸Ð¼Ð¸ÑĢ":2080,"ĠÐ»ÐµÑģ":2081,"ÑĥÑģÐ°":2082,"ĠÐ½ÐµÐ±":2083,"ĠÐ´Ð¸Ð½":2084,"ĠÑįÐ¼":2085,"ĠÐ´ÑĢÐµÐ²":2086,"ĠÐ´Ð¾Ð½":2087,"ĠÑĢÐ°Ð´Ð¸":2088,"ĠÐ²ÑģÑĤÑĢÐµ":2089,"ĠÐ¿Ð¾ÐºÐ°":2090,"ÐµÐ½Ð½Ð¾Ð³Ð¾":2091,"ÐºÐ°Ð¼Ð¸":2092,"ĠÑĩÐµÑĤÑĭ":2093,"ÐµÐ»Ð°":2094,"ĠÑįÑĤÐ¸":2095,"ĠÑģÑĤÐ°ÑĤÐµÐ¹":2096,"ĠÐ¿Ð°Ð»":2097,"ĠÐ´ÐµÐ²":2098,"Ð°ÑİÑĤÑģÑı":2099,"ĠÐ¿ÑĢÐ¸Ð·Ð½":2100,"Ð°ÑĤÐµÐ»Ð¸":2101,"ĠÑģÐ¾Ð²ÐµÑĢÑĪ":2102,"ĠÑģÑĤÐ¾ÑĢÐ¾Ð½":2103,"ĠÐ½Ð¸Ð¶":2104,"ĠÑģÐ¾Ð¿":2105,"Ð¸Ð²Ð°ÐµÑĤ":2106,"ĠÐ½Ð°ÑĥÐº":2107,"ĠÐ½Ð°Ð¸Ð±":2108,"ĠÐ»Ð¸Ð³":2109,"Ð²Ð°ÑĢÐ´":2110,"ĠÐ»Ð¸ÑĪÑĮ":2111,"ĠÑģÐ²Ð¾Ð¹":2112,"Ð¿Ð°":2113,"ĠÐ¿ÑĢÐµÐ´Ð»Ð¾Ð¶":2114,"ĠÐ½Ñĭ":2115,"ĠÐ¿ÑĢÐ¸Ðº":2116,"ĠÐ¿ÑĢÐ°ÐºÑĤ":2117,"ĠÐ¿ÑĢÐµÐ¶Ð½Ð¸Ðµ":2118,"ÐºÐ¾Ðµ":2119,"Ð¾Ð²ÑģÐºÐ¸Ð¹":2120,"Ð±ÑĥÑĢÐ³":2121,"Ð¾Ð²ÑĭÑħ":2122,"Ð¾ÑĢÐ¾Ð¶":2123,"ĠÐ±Ð°Ð·":2124,"ĠÐºÑĥ":2125,"ĠÐºÐ¾Ñģ":2126,"ĠÑĨÐµÑĢÐº":2127,"Ð¾Ð²Ð°ÑĤÐµÐ»ÑĮ":2128,"ĠÐ¿ÑĢÐµÐ´Ð¿":2129,"ÐµÑĤÑĮ":2130,"ÑĥÑĤÑĮ":2131,"ĠÐ¿ÐµÑĤÐµÑĢÐ±ÑĥÑĢÐ³":2132,"Ð»Ñĭ":2133,"ĠÐ¸Ð½ÑĤÐµÑĢÐµÑģ":2134,"ÑĨÐ¸ÐµÐ¹":2135,"ĠÐ³ÑĢÑĥÐ¿Ð¿Ð°":2136,"ĠÑĤÐ°ÐºÐ¸Ð¼":2137,"ĠÐ²Ð°ÑĪ":2138,"ĠÑģÐ»ÑĥÑĩÐ°Ðµ":2139,"ĠÐ¾Ð¿ÑĢÐµÐ´ÐµÐ»":2140,"ĠÑĢÐ°Ð±":2141,"ĠÐ½Ð°ÑģÑĤÐ¾ÑıÑī":2142,"ĠÑģÐ¿Ð¾ÑģÐ¾Ð±":2143,"ĠÐ¿ÑĥÐ½ÐºÑĤÑĭ":2144,"ĠÑģÐ¾ÑĢ":2145,"ĠÐ¾Ð±ÑĬÐµÐ´Ð¸Ð½":2146,"Ð°Ñĩ":2147,"ĠÑģÐ¾ÑħÑĢÐ°Ð½":2148,"ĠÐ±Ð°ÑĪ":2149,"ĠÐ¿ÑĢÐ¸Ð¼ÐµÐ½":2150,"ĠÐ¿ÐµÑĢÑģ":2151,"Ð°ÑĤÐ¸Ð²":2152,"Ð¸Ð¾":2153,"ĠÑĤÐµÑĩ":2154,"Ð¾ÑĩÐ½Ð¾":2155,"ĠÐ°ÑĢÐ³":2156,"ĠÑģÐ²ÑıÐ·Ð¸":2157,"ĠÐ¾Ð´Ð½Ð¾Ð¹":2158,"ĠÐ±ÐµÑĢÐµÐ³":2159,"ĠÐ°ÑĢÑħÐ¸ÑĤ":2160,"ĠÐ±ÑĢÐ¾Ð½":2161,"ÐµÐ¹Ð½":2162,"Ð¼Ð¸ÑĤ":2163,"ĠÑĢÐ¸Ð¼":2164,"Ð½ÐµÑĪ":2165,"ĠÐ´ÐµÐº":2166,"Ð½Ñİ":2167,"ĠÑĨÐµÐ»":2168,"ĠÐºÐ¾ÑĢÐ°":2169,"ĠÐ½ÐµÐ¿":2170,"ĠÐ³Ð¾ÑĢÐ¾Ð´Ðµ":2171,"ĠÐºÐ¾Ð¼Ð¿Ð¾Ð·":2172,"Ð¸ÐºÑĥ":2173,"ĠÐ¿ÑĢÐµÐ´ÑģÑĤÐ°Ð²Ð»Ñı":2174,"Ð²ÐµÑĢÐ¶Ð´":2175,"ĠÐ¿ÑĢÐ¾Ð²Ð¸Ð½":2176,"Ð¼Ðµ":2177,"ĠÐ°Ð´Ð¼Ð¸Ð½Ð¸ÑģÑĤÑĢÐ°":2178,"ĠÐ¿ÑĢÐµÐ¼Ð¸Ð¸":2179,"ĠÐ¸Ð³ÑĢÑĭ":2180,"ĠÐ¸Ð¼ÐµÐ½Ð½Ð¾":2181,"ĠÑĦÑĢÐ°Ð½ÑĨÐ¸Ð¸":2182,"ĠÑģÐ¸Ð»ÑĮ":2183,"ĠÐºÑĤÐ¾":2184,"ĠÐºÐ¾Ð¼Ð¼Ñĥ":2185,"Ð»ÐµÐ¶":2186,"ĠÑģÐ¾ÑģÑĤÐ°Ð²Ð»ÑıÐµÑĤ":2187,"ĠÐºÐ°Ð·Ð°Ñħ":2188,"ĠÐ¼Ð½Ðµ":2189,"ĠÑĤÑĢÐµÐ±":2190,"Ð¾Ð½ÑĤ":2191,"ĠÐ¿ÑĢÐ¾ÑĨÐµÑģÑģ":2192,"ĠÐ½ÐµÐ¾Ð±ÑħÐ¾Ð´":2193,"ÑģÑıÑĤ":2194,"ĠÑĢÐ°Ð²":2195,"Ð¶ÐµÐ½":2196,"ĠÐ·Ð°ÑģÐ»":2197,"ÐµÑģÑĤÐ²Ð¾":2198,"ĠÑįÑĢ":2199,"Ð¾Ð²ÑĭÐµ":2200,"ĠÑģÐ¾ÑİÐ·Ð°":2201,"ĠÐ²Ð¾ÑĤ":2202,"ĠÐ¿ÑĢÐµÐ´Ð¿ÑĢ":2203,"ĠÐ½ÐµÐ³Ð¾":2204,"ĠÐ¿ÐµÑĢÐµÐ¸Ð¼ÐµÐ½":2205,"Ð°Ð»ÑĮÐ½Ð¾Ðµ":2206,"ĠÐ½Ð°ÑĩÐ°Ð»":2207,"ĠÑģÐµÐ¹":2208,"Ð³Ð¾ÑĤÐ¾Ð²":2209,"ÑĢÐ¸ÑģÑĤ":2210,"Ð¸Ð½ÑģÐºÐ¾Ð¹":2211,"ĠÐ¿ÑĢÐµÐ·Ð¸Ð´ÐµÐ½ÑĤ":2212,"ĠÐ»ÑĮ":2213,"ĠÑĢÐ¾Ð»":2214,"ĠÐ¿ÑĢÐ¸Ð³":2215,"ĠÐ¿ÑĢÐ¸Ð½ÑĨ":2216,"Ð¸ÑĢÐ¾Ð²Ð°ÑĤÑĮ":2217,"ĠÑģÐ¾Ð²ÐµÑĤÑģÐºÐ¸Ð¹":2218,"ĠÐ¾ÑĤÐ²ÐµÑĤ":2219,"ĠÑĢÐ°Ð±Ð¾ÑĤÐ°Ð»":2220,"ĠÐ¿ÑĢÐµÐ´ÑģÐµÐ´":2221,"ÐµÑĢÐµÐ´":2222,"ĠÐ½Ð¾Ñģ":2223,"ÑĢÐµÑģÑģ":2224,"ĠÑĢÐ°Ð½ÐµÐµ":2225,"Ð¸ÑģÐºÐ¾Ð¿":2226,"ĠÑĤÐµÐ¿":2227,"Ð²Ð¾":2228,"ÑįÑĢ":2229,"ĠÐ·Ð°Ñħ":2230,"Ð»ÑģÑı":2231,"Ð¾ÑĢÐµ":2232,"ĠÐ¼Ð°ÑĢÑĤ":2233,"ĠÐ²ÑĭÐ±":2234,"ĠÐ¿Ð¾Ð¶":2235,"ĠÑĤÐ¾Ð³Ð´Ð°":2236,"ÑİÑĢ":2237,"ÑĭÑĪÐ»ÐµÐ½":2238,"Ð°ÑĤÐµÐ»ÐµÐ¹":2239,"ĠÐ¸Ð·Ð¾Ð±ÑĢÐ°Ð¶ÐµÐ½Ð¸Ñı":2240,"ĠÐ¿ÑĥÐ±Ð»":2241,"ĠÑģÐ²Ð¾ÐµÐ³Ð¾":2242,"ĠÐ¼Ð¾Ð³ÑĥÑĤ":2243,"ÑĢÐ¾ÑģÑĤÑĢÐ°Ð½":2244,"Ð¾ÑĨ":2245,"Ð°Ð½Ð¸Ñİ":2246,"ĠÐ²ÑĭÑħÐ¾Ð´":2247,"Ð¸ÑĢÐ¾Ð²Ð°Ð»":2248,"ĠÐ²Ð½ÑĥÑĤÑĢÐµÐ½Ð½ÐµÐµ":2249,"ĠÑĪÐ°Ð±Ð»Ð¾Ð½":2250,"ĠÐ°Ð¸":2251,"ĠÐ²Ð¾Ðº":2252,"ĠÐ±Ð°":2253,"ÑĢÐµÑģÑĤ":2254,"ÐºÐ°Ñı":2255,"ĠÑĢÐ°ÑģÐ¿ÑĢÐ¾ÑģÑĤÑĢÐ°Ð½":2256,"ĠÐ¿Ð¾ÑįÑĤÐ¾Ð¼Ñĥ":2257,"ĠÑħÐ¾ÑĢÐ¾ÑĪ":2258,"Ð¾Ð¶Ðµ":2259,"ĠÑĢÐ°ÑģÑĤ":2260,"ĠÐ·Ð°Ð»":2261,"Ð¾ÑĢÑĤÐ°":2262,"ĠÑģÐºÐ°Ð·":2263,"ĠÐ³Ð¾Ð»Ð¾Ñģ":2264,"ĠÐ±Ð¾ÐµÐ²":2265,"ĠÑħÐ°ÑĢÐ°ÐºÑĤÐµÑĢ":2266,"ĠÑĤÑĢÑĥ":2267,"ĠÐ½Ð°ÑĩÐ°Ð»Ðµ":2268,"ĠÐ½Ð¸ÐºÐ¾Ð»Ð°":2269,"ĠÑģÐ°Ð½ÐºÑĤ":2270,"ÑİÑīÐ¸Ð¹":2271,"ĠÐ½Ð°ÑģÐµÐ»ÑĳÐ½Ð½ÑĭÐµ":2272,"ĠÐ¸Ð¼Ð¿ÐµÑĢÐ°":2273,"ĠÐ¿ÑĢÐ¾Ð²Ð¾Ð´":2274,"Ð³Ñĥ":2275,"Ð»Ð¸Ñı":2276,"ĠÐ²Ð¾Ð·Ð´":2277,"ĠÐ´Ð°Ð»":2278,"Ð²Ð¾Ð»Ñİ":2279,"ĠÐ¿ÐµÑĢÑģÐ¾Ð½":2280,"ĠÐºÐ¾ÑĢÐ°Ð±":2281,"ĠÐ¼Ð¸ÑħÐ°":2282,"ĠÐ¿Ð»Ð¾ÑĤ":2283,"ĠÑĦÐµÐ´ÐµÑĢÐ°ÑĨÐ¸Ð¸":2284,"ĠÐºÐ¾Ð¿":2285,"ĠÐ´Ð¾Ñĩ":2286,"ĠÑĢÐ¾ÑģÑĤ":2287,"ĠÐºÐ¾Ð½ÑĨÐµ":2288,"ĠÐ´Ð¾Ð±Ð°Ð²":2289,"ĠÑĨÐµÑĢÐºÐ²Ð¸":2290,"ĠÑģÐ¿Ð¸ÑģÐº":2291,"ĠÑģÐ¾ÑĤÑĢÑĥÐ´":2292,"ĠÑĨÐ¸ÑĦÑĢÐ¾Ð²Ð¾Ð¹":2293,"ĠÐ´Ð°Ð½Ð½ÑĭÐ¼":2294,"ĠÐ²Ð°ÑĢÐ¸":2295,"ĠÑģÐ¿Ð°Ñģ":2296,"ĠÐ¾ÐºÑĢÑĥÐ³Ð°":2297,"Ð½Ð¸ÑĨ":2298,"Ð¸ÑĤÑĭ":2299,"ĠÐ¼Ð°ÐºÑģÐ¸Ð¼":2300,"ĠÐ·Ð½Ð°Ðº":2301,"ĠÐ¾Ð±ÑĢÐ°Ð·Ð¾Ð¼":2302,"Ð¾Ð»Ð°Ð³":2303,"ĠÑģÑĤÐ°Ð²":2304,"ĠÐ¶Ð°Ð½":2305,"ÑıÑĤÑģÑı":2306,"Ð¾ÐºÑĢÐ°ÑĤ":2307,"ÑģÑĤÐ²Ñĥ":2308,"ĠÑĦÑĥÐ½":2309,"ĠÐ¼ÐµÑħ":2310,"Ð¸ÑĢÐ¾Ð²Ð°Ð½Ð¸Ñı":2311,"ĠÐ¾ÑĨÐµÐ½":2312,"ĠÐ¾Ð´Ð½Ð¾":2313,"ÑĢÐµÐ¶Ð´":2314,"ĠÐ¿ÑĢÐ°Ð²Ð¸Ð»":2315,"ĠÐ¿ÑĢÐ¾ÑģÑĤÐ¾":2316,"ĠÐ¼Ð°ÑĪ":2317,"ĠÐ´Ð¾Ð¿Ð¾Ð»Ð½":2318,"ĠÐ¿ÑĢÐ¸Ð½Ð¸Ð¼":2319,"Ð»ÐµÐ½Ñĭ":2320,"ĠÐ±Ð¸Ð±":2321,"ĠÐ½Ð°Ð³ÑĢÐ°Ð´Ñĭ":2322,"ĠÐ²Ð°Ð¶":2323,"ĠÑģÐ¾Ñģ":2324,"ĠÐ¾Ð±ÑĬÐµÐºÑĤ":2325,"ĠÑģÐµÐ²ÐµÑĢÐ¾":2326,"Ð¾ÐºÐ°":2327,"ĠÐ¼Ð¾ÑģÐºÐ²Ð°":2328,"ĠÑĤÐ¾ÑĤ":2329,"ĠÐ¼ÐµÐ½Ñı":2330,"ÐµÑĢÐ¸":2331,"ĠÐ¾Ð±ÑĭÑĩ":2332,"ĠÐ¼Ð°ÑģÑĤ":2333,"ĠÐ²ÐµÑĢÑħÐ¾Ð²":2334,"ĠÐ½Ð°ÑĢÑĥÑĪ":2335,"ĠÐ¿ÑĢÐ¸Ð¼ÐµÑĢ":2336,"ĠÑĨÐ²ÐµÑĤ":2337,"ĠÑĪÐ¸ÑĢÐ¸Ð½Ð°":2338,"ÑĳÐ½Ð½ÑĭÑħ":2339,"ĠÑĦÑĢ":2340,"ĠÐ¸Ð´ÐµÐ½ÑĤÐ¸ÑĦÐ¸ÐºÐ°ÑĤÐ¾ÑĢ":2341,"ĠÑħÐ¾Ð»":2342,"Ð¾Ð¸ÑĤ":2343,"ĠÐ±Ð¾Ð»ÑĮÑĪÐµ":2344,"ÑĥÐ²":2345,"Ð°Ð½ÑĤÐ°":2346,"ÐºÐ¾Ð½":2347,"ÐµÐ½Ð½Ð°Ñı":2348,"ĠÑĢÐµÐ»":2349,"ÐµÑĢÐ¸Ð¹":2350,"ĠÐ±ÑĢÐ°ÑĤ":2351,"ĠÐ¶Ð¸Ð·Ð½":2352,"ĠÐ´ÑĢ":2353,"ĠÐ¿Ð¾Ð·Ð²Ð¾Ð»":2354,"Ð°Ð½Ðµ":2355,"ĠÐ½Ð°Ð¹":2356,"ĠÐ±ÑĢÐ¸ÑĤ":2357,"ĠÐ°ÐºÐ°Ð´ÐµÐ¼Ð¸Ð¸":2358,"ĠÑģÑĤÐµÐ¿ÐµÐ½Ð¸":2359,"ĠÑĦÐ°ÐºÑĤ":2360,"ÑĢÐµÑģ":2361,"ĠÐ»Ð¸ÑĨ":2362,"ĠÑĩÐµÐ³Ð¾":2363,"ĠÐ½Ð°Ð·ÑĭÐ²":2364,"ĠÐ¿ÑĢÐµÐ¿Ð¾Ð´":2365,"ĠÐ²Ð¾Ð·Ð²":2366,"ĠÐºÐ¾ÑĢÐ¾Ð»ÐµÐ²":2367,"ĠÐ¼Ð°ÑĤÑĩ":2368,"Ð½Ð¾Ð´":2369,"ÑģÐºÐ¸Ð¼Ð¸":2370,"ĠÐ½Ð°Ð´Ð¾":2371,"ĠÐ¿Ð»Ð°ÑĤ":2372,"ĠÐ·Ð°Ð´":2373,"Ð»Ñĥ":2374,"ĠÑģÐ¿ÐµÑĨÐ¸Ð°Ð»ÑĮ":2375,"ĠÐ¼Ð¾Ð¼ÐµÐ½ÑĤ":2376,"Ð½Ð¸ÑĨÐ°":2377,"ĠÐ¾Ñħ":2378,"ĠÐ¼ÐµÐ»":2379,"ĠÐ´ÑĥÐ¼":2380,"ĠÑģÐ±Ð¾ÑĢÐ½Ð¾Ð¹":2381,"ĠÐ¼Ð°":2382,"ĠÑģÑĤÐ°Ð»Ð°":2383,"ĠÐ´Ð¼Ð¸ÑĤ":2384,"ÑģÑĦ":2385,"ÑĢÐ°Ð½Ð¸Ñĩ":2386,"Ð°Ð´Ñĭ":2387,"ĠÐ¼Ð¼":2388,"ĠÐºÐ¾Ð¼Ð¼ÐµÐ½ÑĤ":2389,"ĠÐºÐ¸ÑĢ":2390,"ĠÑĢÐ¾Ð»ÑĮ":2391,"ĠÑĤÑĢÐµÑĤÑĮ":2392,"Ð¸Ð»Ð¸Ñı":2393,"ĠÑĦÑĢÐ¾Ð½":2394,"ĠÐ¾ÑĤÐ¿ÑĢÐ°Ð²":2395,"ĠÐ¾ÑĤÐµÑĩÐµÑģÑĤÐ²ÐµÐ½Ð½Ð¾Ð¹":2396,"ÑĩÐ¸Ðº":2397,"ĠÑģÐ²Ð¾Ð±Ð¾Ð´":2398,"ĠÑĥÑģÐ»Ð¾Ð²":2399,"ĠÐ´ÐµÐ¿ÑĥÑĤ":2400,"Ð±Ðµ":2401,"ĠÐ±Ð°Ð½":2402,"ĠÐºÐ¸Ð½Ð¾":2403,"Ð»Ð¸Ðº":2404,"ĠÐ°ÑģÑĤ":2405,"ÑĥÐ»Ð¸":2406,"ÑģÐºÐ¸":2407,"ÑĥÑģÑģ":2408,"ÑĭÐ½":2409,"ĠÐ½ÐµÐ·Ð°Ð²":2410,"ĠÑģÑĤÑĢÐµÐ»":2411,"ĠÑī":2412,"ĠÐ²ÑĭÑģÑĤÐ°Ð²":2413,"ĠÐ²Ð¾Ð·ÑĢÐ°ÑģÑĤ":2414,"Ð°Ð½Ñģ":2415,"ĠÐ¸Ð³ÑĢÐ°":2416,"ĠÑĪÐ°Ñħ":2417,"ĠÑģÐ»Ð°Ð²":2418,"ĠÐºÐ½ÑıÐ·":2419,"ĠÐ²Ð¸ÐºÐ¸Ð¿ÐµÐ´Ð¸Ñı":2420,"Ð¾ÐºÑģ":2421,"ĠÐ±Ð°ÑĤ":2422,"ĠÐ½Ð°ÑĩÐ°Ð»ÑĮ":2423,"ĠÐ¿ÑĢÐ¾Ð¿":2424,"Ð³Ð°ÑĢ":2425,"ĠÐ½Ð°Ð·Ð²Ð°Ð½Ð¸ÐµÐ¼":2426,"Ð¾ÑĤÐ¸Ð²":2427,"ĠÐ¿Ð¾Ð»ÑĮÐ·":2428,"ĠÐ¿ÑĢÐ¸Ñħ":2429,"ÑİÑīÐ¸Ðµ":2430,"ĠÐ²Ð¸Ð½":2431,"ÐºÑģ":2432,"ĠÐ¿ÑĢÐ¾Ð¶":2433,"ĠÐ»Ð°ÑĤ":2434,"ĠÐ²ÐµÑĢÐ½":2435,"ĠÐ¾Ð´Ð½Ð¸Ð¼":2436,"ĠÐ¿ÐµÑĢÐµÐ²Ð¾Ð´":2437,"Ð¸ÐºÐ¾":2438,"ĠÐ¼Ð°ÑĤÐµÑĢÐ¸Ð°Ð»":2439,"Ð¾Ð»ÐµÐµ":2440,"ĠÑĤÑĭÑģÑı":2441,"ÑĥÐµÑĤÑģÑı":2442,"ĠÐºÐ¸ÐµÐ²":2443,"ĠÑģÐ²Ð¾Ð¸Ñħ":2444,"Ð°Ð½Ð½ÑĭÐµ":2445,"ĠÑģÐ¿ÑĢÐ°Ð²":2446,"ĠÐ½Ð°Ð¸Ð±Ð¾Ð»ÐµÐµ":2447,"ĠÐ¸Ð·Ð¾Ð±ÑĢÐ°Ð¶ÐµÐ½Ð¸Ðµ":2448,"ÐµÑĢÑħ":2449,"ĠÐºÐ°Ð¿Ð¸ÑĤ":2450,"ĠÐºÐ°Ð½Ð´":2451,"ĠÑĤÐ°":2452,"ĠÑĦÐ¸Ð»ÑĮÐ¼Ñĭ":2453,"ĠÐ½Ð°ÑĩÐ¸Ð½":2454,"ĠÑĢÐ°Ð±Ð¾Ñĩ":2455,"ĠÐ¿Ð¾ÑģÑĳÐ»Ð¾Ðº":2456,"ÑĥÐ¹":2457,"Ð¾Ð²Ð¾Ð³Ð¾":2458,"ĠÑģÑĭÐ½":2459,"ÑĭÐ²Ð°":2460,"Ð¾Ð²Ð°Ð»Ð¸":2461,"ĠÑģÑĥÐ¿":2462,"ĠÐ¾Ð±ÑīÐ¸Ð½Ð°":2463,"ĠÐ²ÑģÐµÐ¼":2464,"ĠÑģÐ»Ð¾Ð¶":2465,"ĠÐ¿Ð¾ÑĩÑĤÐ¾Ð²ÑĭÐµ":2466,"ĠÐ²Ð¾Ð¾Ð±":2467,"Ð°ÑģÑĤÑĭ":2468,"ÑĳÐ½Ð½ÑĭÐµ":2469,"ĠÑħÐ¾Ð·ÑıÐ¹":2470,"ĠÑģÑĨÐµÐ½":2471,"Ð°Ð½ÑģÐºÐ¸Ð¹":2472,"ĠÑģÐ²ÐµÑĤ":2473,"ĠÐºÐ¾ÑĤÐ¾ÑĢÐ¾Ð¼":2474,"Ð»ÐµÐ½Ð¾":2475,"ĠÑĩÐµÑĤ":2476,"ĠÑģÑĤÐ¾ÑĢÐ¾Ð½Ñĭ":2477,"Ð¾Ð²Ð°Ñı":2478,"ĠÑĢÐ°Ð´":2479,"ÑĳÐ´":2480,"ĠÐ¸Ð½Ð´ÐµÐº":2481,"ĠÐ´Ð¾Ð²":2482,"ĠÐ±ÐµÐ»Ð¾ÑĢ":2483,"ÑĤÐ¾Ð½":2484,"ĠÐ¾Ð±ÑĢÐ°Ð·Ð¾Ð²Ð°Ð½Ð¸Ñı":2485,"ÑĢÐ¾Ð²Ð¸Ñĩ":2486,"ĠÐ·Ð½Ð°Ð¼":2487,"ĠÐ³ÐµÑĢÐ¼Ð°Ð½Ð¸Ð¸":2488,"ĠÐ¿Ð¾Ð»ÑĮ":2489,"ĠÐ´ÐµÐ±":2490,"Ð»ÐµÐ½Ð¸Ð¸":2491,"ÐµÐ¼Ð°ÑĤ":2492,"ĠÑįÑĤÐ¸Ñħ":2493,"ÐµÑĢÑĮ":2494,"ĠÑģÐ¾Ð±Ð¾Ð¹":2495,"ĠÑĤÐ¸ÑĤ":2496,"ĠÐ¿ÑĢÐ¾Ñĩ":2497,"ÐµÑĩÐ°ÑĤ":2498,"ĠÑĤÐ¾Ð»":2499,"ĠÐ²ÐµÐ»Ð¸ÐºÐ¾Ð¹":2500,"ĠÐ´Ð²Ðµ":2501,"Ð½Ð°ÑĢ":2502,"ĠÐ¾Ð»Ð¸Ð¼Ð¿Ð¸Ð¹ÑģÐºÐ¸Ñħ":2503,"ÑİÑīÐ¸Ñħ":2504,"Ð»Ð°ÑĪ":2505,"ĠÐ¾ÑĤÑģÑĥÑĤÑģÑĤÐ²":2506,"ĠÐ½Ð¸ÐºÐ¾Ð»Ð°Ð¹":2507,"ĠÑĢÐ°Ð¼":2508,"ĠÑĢÐµÐ´Ð°Ðº":2509,"ĠÐ°Ð²ÑĤÐ¾Ð¼Ð¾Ð±Ð¸Ð»ÑĮ":2510,"ÑģÐºÐ°Ð·":2511,"ĠÐ°ÑģÑģ":2512,"ĠÐ³ÑĢÑĥÐ·":2513,"ĠÑĦÐ¾Ð½":2514,"ĠÐ³Ð²Ð°ÑĢÐ´":2515,"ĠÐ½Ð°ÑĩÐ°Ð»Ð°":2516,"ĠÐ¼Ð¸Ð½Ð¸":2517,"ĠÐ¸Ð´Ðµ":2518,"Ð¾Ð·Ð½Ð°Ñĩ":2519,"Ð»ÐµÐ³":2520,"ĠÑĦÐ»Ð°Ð³":2521,"ÑĢÐ¾Ð±":2522,"ĠÐ·Ð°ÐºÐ¾Ð½":2523,"Ð²Ð¸Ð³":2524,"ĠÐ²Ð¿ÐµÑĢÐ²":2525,"ÑĢÑĥÐº":2526,"ĠÐ·Ð°ÐºÐ»ÑİÑĩ":2527,"ĠÐ¾Ð±ÐµÑģÐ¿":2528,"ĠÐ²Ð¿ÐµÑĢÐ²ÑĭÐµ":2529,"ĠÑĢÐµÑĩ":2530,"ĠÐºÐ¾ÑģÑĤ":2531,"ĠÑĢÐ°Ð·Ð¼":2532,"ĠÑĤÐ°Ð¹":2533,"ĠÐºÐ¾Ð½ÑĤÑĢ":2534,"ĠÐ¸Ð½Ð´ÐµÐºÑģÑĭ":2535,"ĠÑĢÐ¾Ð±":2536,"ĠÐ¾Ð±ÑīÐµÑģÑĤÐ²ÐµÐ½":2537,"ĠÐ´Ð¶Ð¾Ð½":2538,"ĠÐ¸Ð²Ð°Ð½":2539,"ĠÐ¾ÑĢÐ´":2540,"ĠÑĦÑĥÐ½Ðº":2541,"ĠÑĪÐ¸ÑĢÐ¾Ðº":2542,"ÑıÐ¼Ð¸":2543,"ÑģÑĤÐ°":2544,"ĠÐ¼ÐµÑģÑı":2545,"Ð¸Ð½Ð¾Ð¹":2546,"ĠÐ²Ð¾Ð¾ÑĢÑĥÐ¶":2547,"Ð¸ÑĤÐµÐ»ÐµÐ¼":2548,"ĠÐ¼ÐµÐ½ÐµÐµ":2549,"ĠÐ´ÑĥÑħ":2550,"ĠÑģÐ¾Ð±ÑĭÑĤ":2551,"ĠÑįÐ´":2552,"ĠÐ¼ÐµÐ´Ð°Ð»ÑĮ":2553,"ĠÐ²Ð¾Ð¾Ð±ÑīÐµ":2554,"Ð¾Ð³ÑĢÐ°ÑĦÐ¸Ð¸":2555,"ĠÐ¿ÐµÑĢÐµÑģ":2556,"Ð¾Ð»Ð¾Ð³Ð¸Ñı":2557,"ĠÐ½Ð°Ñĥ":2558,"ÐµÐ½ÑĤÐ¾Ð²":2559,"ĠÐ¾ÐºÐ°Ð·":2560,"ĠÑħÑĢÐ¸ÑģÑĤ":2561,"ĠÑģÑĤÐ°Ð´":2562,"ĠÐ¼ÐµÑĤÐ¾Ð´":2563,"ĠÑĤÐ¾ÑĢ":2564,"ĠÐ½ÐµÐºÐ¾ÑĤÐ¾ÑĢÑĭÐµ":2565,"ĠÐºÐ¾Ð¼Ð°Ð½Ð´Ð°":2566,"ĠÐ·Ð½Ð°ÑĩÐ¸Ð¼Ð¾ÑģÑĤÑĮ":2567,"Ð¸Ð´Ð°":2568,"ĠÐ³Ð¾Ð½":2569,"ĠÑİÐ³Ð¾":2570,"ÐµÑĢÐ¾":2571,"ĠÑģÐµÐ»ÑĮÑģÐºÐ¾Ð³Ð¾":2572,"ĠÐ½Ð°Ð»":2573,"Ð°Ð½ÑģÐºÐ¾Ð¹":2574,"ĠÐ½Ð¸ÐºÐ°Ðº":2575,"ĠÐ³Ð°ÑĢ":2576,"ĠÑĢÐµÐ·ÑĥÐ»ÑĮÑĤÐ°ÑĤÐµ":2577,"ĠÐ¿Ð°ÑĢÑĤÐ¸Ð¸":2578,"ĠÑĨÐµÑĢÐºÐ¾Ð²ÑĮ":2579,"Ð°ÑĤÐ¾ÑĢÐ°":2580,"ĠÐ¿ÑĢÐ¾ÑħÐ¾Ð´":2581,"ĠÐ¾Ð±ÐµÑģÐ¿ÐµÑĩ":2582,"ĠÐºÐ¾Ð¼Ð¼ÐµÐ½ÑĤÐ°ÑĢ":2583,"ĠÐ¸ÑģÐºÐ»ÑİÑĩ":2584,"ĠÐ¾Ð´Ð½Ð¾Ð³Ð¾":2585,"ĠÐ¾Ð´Ð½Ð°":2586,"ĠÐ´Ð»":2587,"ĠÐ±Ð»Ð¾Ðº":2588,"ĠÐ´Ð¼Ð¸ÑĤÑĢ":2589,"ÑĢÐ°Ð²Ð½":2590,"Ð»Ð°Ð³Ð°":2591,"ĠÐ´Ð¾ÑģÑĤÐ°ÑĤ":2592,"Ð±Ð¾Ð»ÑĮ":2593,"ĠÐ¿Ð¾Ð·Ð´":2594,"ÐµÐ³Ð¾Ð´":2595,"ÑĤÑĥ":2596,"ĠÐ¼Ð¾Ð½Ð°ÑģÑĤÑĭ":2597,"ĠÐ±Ð¾Ð»ÑĮÑĪÐ¸Ð½":2598,"ĠÐ²ÑĭÐ±Ð¾ÑĢ":2599,"ĠÐ¿ÑĢÐµÐ¿Ð¾Ð´Ð°Ð²":2600,"ĠÐµÐ²ÑĢÐ¾Ð¿Ñĭ":2601,"ĠÐ³Ð°":2602,"Ð°ÐºÐ¾Ð²":2603,"ĠÑĩÐ¸ÑģÐ»Ð¾":2604,"Ð¾Ð½Ð¸Ð¼":2605,"ĠÐ¿ÐµÐ´":2606,"ĠÐ¿ÑĢÑıÐ¼":2607,"ĠÐ´Ð¸ÑģÐº":2608,"ĠÐ±Ð¾":2609,"ĠÑĤÑĢÑĳÑħ":2610,"ĠÐ¸Ð»":2611,"Ð¸ÑĩÐµÑģÐºÐ¸Ð¼":2612,"ĠÑĩÐµÐ¼Ð¿Ð¸Ð¾Ð½Ð°ÑĤ":2613,"ĠÑıÐ·ÑĭÐºÐµ":2614,"ĠÐ½ÑĥÐ¶Ð½Ð¾":2615,"ÑģÑĮ":2616,"ĠÑģÐ¾ÐµÐ´Ð¸Ð½":2617,"ĠÐ½Ð¸Ñĩ":2618,"ÑĤÐ¾Ñĩ":2619,"ĠÑģÐµÐ¼ÐµÐ¹":2620,"ĠÐ±Ð¾Ð»ÑĮÑĪÐ¾Ð¹":2621,"ĠÑģÑĥÐ¼":2622,"Ð¸ÑĢÐµ":2623,"ĠÑĤÑĢÐ°Ð´":2624,"Ð¾Ð³ÑĢÐ°ÑĦÐ¸Ñı":2625,"Ð¾Ð²Ð°Ð½Ð¸Ð¹":2626,"ĠÐºÑĢÐ°Ð¹":2627,"Ð°ÑĨÐ¸Ñİ":2628,"ÐµÐ²Ð¸Ð´":2629,"ÑģÐºÐ¾Ð»ÑĮ":2630,"ÑĢÐµÐ·":2631,"ĠÑģÐµÐ»ÑĮÑģÐ¾Ð²ÐµÑĤ":2632,"ĠÑĤÐ¾Ð¿":2633,"ÑĩÐ¸Ð²":2634,"ĠÐ¿Ð¾ÑıÑģ":2635,"Ð¾Ð²ÑģÐºÐ¾Ð¹":2636,"Ð¸ÑĨÐ¸Ñı":2637,"ĠÐ¸Ð·ÑĥÑĩ":2638,"ĠÐ¿ÑĢÐ¾Ð¸Ð·Ð²ÐµÐ´":2639,"ĠÐ¿Ð¾Ð´Ð¾Ð±":2640,"ĠÐºÐ¾Ð»Ð¸ÑĩÐµÑģÑĤÐ²Ð¾":2641,"ĠÐºÐ°ÑĢÑĮ":2642,"ÑĦÐ°":2643,"ĠÑĥÑĩÐµÐ½":2644,"ĠÐ¸Ð·Ð±ÑĢÐ°Ð½":2645,"ĠÐºÐ°Ð½Ð´Ð¸Ð´":2646,"Ð¸Ð±Ð¸ÑĢ":2647,"ÑĭÑģ":2648,"ĠÑĢÑĥÑģÑģÐºÐ¸Ð¹":2649,"ĠÐ·Ð°Ð²Ð¾Ð´":2650,"ĠÑĢÐµÐ¿":2651,"ĠÑĢÐµÐ²Ð¾Ð»Ñİ":2652,"ĠÐ¼Ð¸Ðº":2653,"ĠÐ´Ð¾ÐºÑĥÐ¼ÐµÐ½ÑĤ":2654,"ĠÐ°Ñį":2655,"Ð¸Ð½Ð³ÑĢÐ°Ð´":2656,"ĠÑģÐ²Ð¾Ð¸":2657,"ĠÐ½ÑĮÑİ":2658,"ĠÐ¼Ð»":2659,"ÑĪÐµÐµ":2660,"ĠÐºÐ¾Ð¼Ð¿Ð°Ð½Ð¸Ð¸":2661,"ĠÑģÐ¾Ñĩ":2662,"ÑĩÐ°Ñģ":2663,"ĠÐ±Ð°ÑģÑģ":2664,"Ð»Ð°Ð¼":2665,"ÑĦÐ¸Ð»ÑĮ":2666,"ĠÑģÑĤÐ°Ð»Ð¸":2667,"ÐºÐ¸Ðµ":2668,"ĠÑĢÐ¾ÑģÑģÐ¸Ñı":2669,"ĠÐ¾ÐºÐ¾Ð½ÑĩÐ¸Ð»":2670,"ĠÑıÐ²Ð»ÑıÑİÑĤÑģÑı":2671,"ĠÐ½Ð¾ÑĢÐ¼":2672,"ĠÑģÑİ":2673,"ĠÐ´ÑĥÑĪ":2674,"ÑĮÐ¸":2675,"Ð¾Ð²ÑģÐºÐ¾Ð³Ð¾":2676,"ĠÑģÑĬ":2677,"Ð¾ÑģÐ¾ÑĦ":2678,"ĠÑĤÐµÐ¼Ð¿":2679,"ĠÐ²Ð°ÑĢÐ¸Ð°Ð½ÑĤ":2680,"ĠÐ°Ð¹":2681,"ĠÐ¾ÑĢÐ³Ð°Ð½Ð¸Ð·Ð°ÑĨÐ¸Ð¸":2682,"ĠÐ¿Ð¾ÑģÑĤÐ°Ð²":2683,"ĠÐµÐ´Ð¸Ð½ÑģÑĤÐ²ÐµÐ½":2684,"Ð¸ÑĤÐµÐ»ÑĮÐ½ÑĭÐ¹":2685,"ĠÐ¿ÑĢÐ°Ð²Ð¾ÑģÐ»Ð°Ð²":2686,"ÑĢÐ°Ð¶ÐµÐ½Ð¸Ñı":2687,"ÑĥÑį":2688,"ÑĢÐ¸Ð²":2689,"ĠÐ½Ð°ÑĪ":2690,"ĠÐ±Ð»Ð°Ð³Ð¾Ð´":2691,"ĠÑĤÐ¾Ð¶Ðµ":2692,"ĠÐ¿ÑģÐ¸Ñħ":2693,"ĠÐ¸Ð¼Ð¿ÐµÑĢÐ¸Ð¸":2694,"ĠÐ¿ÑĢÐ¾Ð¼ÑĭÑĪÐ»ÐµÐ½":2695,"ĠÑĤÑĢÐ°Ð½ÑģÐ¿":2696,"Ð°Ð´Ð»ÐµÐ¶":2697,"ĠÐºÐ¾Ð¼Ð°Ð½Ð´Ñĭ":2698,"ĠÐºÐ°Ð·Ð°ÑħÑģÑĤ":2699,"ĠÑģÐ°Ð¼Ð¾Ð»":2700,"ĠÑģÑĩÑĳÑĤ":2701,"ÑĳÐ¶":2702,"ĠÐ½Ð¾Ð²ÑĭÐ¹":2703,"ĠÐºÑĥÐ»ÑĮÑĤÑĥÑĢÑĭ":2704,"ĠÑģÐ¸ÑģÑĤÐµÐ¼Ñĭ":2705,"Ð¾Ð·Ð°":2706,"ÑĢÐ°Ðº":2707,"Ð²ÐµÐ¹":2708,"ĠÐ¿ÑĢÐ¸Ð½Ð°Ð´Ð»ÐµÐ¶":2709,"ĠÑĦÐ¾ÑĢ":2710,"ĠÑĥÑĩÐµÐ±":2711,"ÑĪÐ¸ÑĢ":2712,"ĠÐ²ÐµÐ»Ð¸ÐºÐ¾Ð±":2713,"ĠÐ±Ð¸Ð±Ð»Ð¸":2714,"ĠÐ½ÐµÐ·Ð°Ð²Ð¸ÑģÐ¸Ð¼":2715,"Ð¾ÑĢÑĭ":2716,"ĠÐ¶Ð¸Ð·Ð½ÑĮ":2717,"ĠÑģÐ¿ÐµÑĨÐ¸Ð°Ð»":2718,"ĠÑħÐ¸Ð¼":2719,"ÐµÐºÑĤÐ¸Ð²":2720,"ĠÐ¼ÐµÑħÐ°Ð½":2721,"ĠÐ½ÐµÑģÐºÐ¾Ð»ÑĮ":2722,"Ð°Ð¼Ð±":2723,"ĠÐ¿Ð¾ÑģÐºÐ¾Ð»ÑĮ":2724,"ĠÐ¿Ð¾ÑģÐºÐ¾Ð»ÑĮÐºÑĥ":2725,"ÐµÐµÐ²":2726,"Ð³Ð¸":2727,"ĠÑĤÐ²Ð¾ÑĢ":2728,"ĠÐ¼ÐµÑĤÐ°Ð»":2729,"ĠÐ²ÐµÐ»Ð¸ÐºÐ¾Ð±ÑĢÐ¸ÑĤ":2730,"ĠÐ¼ÐµÐ´Ð¸ÑĨ":2731,"ĠÐºÐ°ÑĦ":2732,"Ð¾Ð¼ÐµÑĤ":2733,"ĠÐ¸Ð½ÑģÑĤÐ¸ÑĤÑĥ":2734,"Ð¾Ð²ÐµÐ´":2735,"ĠÑĤÐ¾ÑĢÐ³":2736,"ĠÐ¸Ð³ÑĢ":2737,"ĠÐ¸Ð²Ð°Ð½Ð¾Ð²Ð¸Ñĩ":2738,"ÐµÐ½ÑĨ":2739,"ĠÑĤÐ¸Ð¿Ð°":2740,"ĠÑģÑĥ":2741,"ĠÑĤÐ¾Ð½":2742,"ĠÐ²Ð²Ð¿":2743,"ĠÐ¾Ð±ÑĢÐ°Ð·Ð¾Ð²Ð°Ð½Ð¸Ðµ":2744,"ĠÐ·Ð¸Ð¼":2745,"ÐºÐ°Ð·ÑĭÐ²":2746,"ĠÐ¿ÑĢÐ¸Ð´":2747,"ĠÐ·ÐµÐ»":2748,"Ð¾ÑģÑĤÐ¾":2749,"Ð°Ð¹Ð»Ð¾Ð²":2750,"ĠÐºÐ»Ð°Ð´":2751,"ĠÐ±ÑĢÐ¸Ð³":2752,"ĠÐ²ÑĭÐ´":2753,"ĠÐ³Ð¾Ð»Ð¾Ð²":2754,"ĠÑĦÐ¸Ð»Ð¾ÑģÐ¾ÑĦ":2755,"Ð¾Ð»Ð½Ñı":2756,"ĠÐ¿Ð¾Ð´ÑĤ":2757,"Ð¸ÑĨÐ¸Ð¾Ð½":2758,"ĠÐ·Ð½Ð°ÑĩÐ¸Ð¼Ð¾ÑģÑĤÐ¸":2759,"ĠÑĩÑĳÑĢ":2760,"Ð¸Ð³Ð¸Ð½":2761,"ĠÐ´Ð¸ÑĢÐµÐºÑĤ":2762,"ĠÐ±ÑĥÑĢ":2763,"ĠÐ¼Ð¸ÑĢÐ¾Ð²Ð¾Ð¹":2764,"Ð°ÑĤÐ¾Ð¼":2765,"Ð¼ÑĥÐ½":2766,"ĠÐ¸Ð¼Ð¿ÐµÑĢÐ°ÑĤÐ¾ÑĢ":2767,"ĠÐ¿Ð¾Ð³Ð¸Ð±":2768,"ĠÐ²Ð½Ð¸Ð¼":2769,"ĠÐ¿Ð¾ÑĩÑĤÐ¸":2770,"ĠÐ´ÐµÑıÑĤÐµÐ»ÑĮÐ½Ð¾ÑģÑĤÐ¸":2771,"ĠÐ¾ÐºÑĤÑıÐ±":2772,"ĠÑİÐ³":2773,"ÑĩÑĳÑĤ":2774,"ĠÐ³ÐµÐ¾ÑĢÐ³":2775,"Ð»ÑıÐ´":2776,"ĠÐ¿Ð¾ÑģÐ²":2777,"ĠÐ¼Ð°ÑĢÐº":2778,"ĠÑģÐµÐ¹ÑĩÐ°Ñģ":2779,"ĠÐ¾Ð±ÑıÐ·":2780,"ĠÐ²ÑĭÐ¿Ð¾Ð»Ð½":2781,"Ð·Ð°":2782,"ĠÑĤÐµÑĩÐµÐ½Ð¸Ðµ":2783,"ĠÐ¸Ð½Ð¶ÐµÐ½":2784,"ĠÐºÐ¾Ð½ÑģÑĤÐ°Ð½ÑĤ":2785,"ĠÑĢÐµÐ¶Ð¸ÑģÑģÑĳÑĢ":2786,"ĠÐ½Ð°ÑĤ":2787,"ĠÐ³ÐµÑĢÑĨ":2788,"ĠÐ³Ð¾ÑģÑĥÐ´Ð°ÑĢÑģÑĤÐ²ÐµÐ½Ð½Ð¾Ð³Ð¾":2789,"ĠÐ¿ÑĢÐ¾ÑĦÐµÑģÑģÐ¾ÑĢ":2790,"ĠÐ·Ð°Ð²ÐµÑĢÑĪ":2791,"ÑĩÐ¸Ñģ":2792,"ĠÐ¿Ð¾ÑģÑĤÑĥÐ¿":2793,"ĠÑĢÐ¾ÑģÑģÐ¸Ð¹ÑģÐºÐ¸Ð¹":2794,"ĠÐ»ÑİÐ´ÐµÐ¹":2795,"ĠÐ´Ð¾Ð»Ð¶Ð½Ð¾ÑģÑĤÑĮ":2796,"Ð»ÑıÐµÑĤÑģÑı":2797,"ĠÑĢÐµÐ³Ð¸Ð¾Ð½Ð°":2798,"ĠÐºÐ¾ÑĢÐ¾ÑĤ":2799,"Ð¸ÑĩÐµÑģÐºÐ¾Ð¼":2800,"ĠÐ¼ÐµÑĢ":2801,"ĠÐ¿ÐµÑĢÑģÐ¾Ð½Ð°":2802,"ĠÐ´Ð»Ð¸Ð½":2803,"ĠÐ½Ñĥ":2804,"ĠÐ¿ÑĢÐ¸ÑħÐ¾Ð´":2805,"ĠÑĥÑĤÐ²ÐµÑĢÐ¶Ð´":2806,"ĠÑĤÐµÑĢÑĢÐ¸ÑĤÐ¾ÑĢ":2807,"ÑĢÐµÐ¿":2808,"ĠÑĩÐ°ÑģÑĤÐ¾":2809,"ĠÐ±Ð¾ÑĢÑĮ":2810,"ĠÐ±Ð¸ÑĤ":2811,"ĠÐ¿Ð¾Ð·Ð¶Ðµ":2812,"Ð¸Ð²Ð°Ð»":2813,"ĠÐ½ÐµÐ±Ð¾Ð»ÑĮÑĪ":2814,"Ð¼Ð¾Ð½":2815,"ĠÑįÑģÑĤ":2816,"ĠÐ¿ÑĢÐ¾Ð¸Ð·":2817,"ĠÐ°Ð½Ð´ÑĢÐµ":2818,"ĠÐ½ÐµÐ¾Ð±ÑħÐ¾Ð´Ð¸Ð¼":2819,"ĠÑģÐ¾ÑĢÐµÐ²":2820,"ĠÐ¾ÑĪ":2821,"ÑĨÐ¾Ð²":2822,"ĠÐ¸Ð½ÑģÑĤÐ¸ÑĤÑĥÑĤÐ°":2823,"ĠÑģÐµÐ½":2824,"Ð¸ÐºÐ°ÑĨÐ¸Ð¸":2825,"ĠÐ¾ÑĢÐ´ÐµÐ½Ð°":2826,"ĠÐ¿ÑĢÐ¾ÐµÐºÑĤÐ°":2827,"ĠÑģÑĤÐ°Ð½Ð¾Ð²":2828,"ĠÑģÑĤÐ°ÑĤÐ¸ÑģÑĤ":2829,"ÑĮÑİÑĤ":2830,"ĠÐ¸Ð¼ÐµÐ½":2831,"ĠÐ¾ÑĢÐ¸Ð³Ð¸Ð½":2832,"ÐºÐ¾Ð²Ð°":2833,"ĠÐ´ÐµÐ±ÑİÑĤ":2834,"ĠÐ±Ð»Ð¸Ð·":2835,"Ð¸Ð·Ð¼Ð°":2836,"ĠÑģÐ»Ð¾Ð²Ð°":2837,"ĠÑģÑĤÐ°Ð½ÑĨÐ¸Ð¸":2838,"ÐµÑĢÑĤÐ°":2839,"Ð»ÐµÐ¹":2840,"ĠÐºÐ¸ÑĤÐ°Ð¹":2841,"ĠÐ¾ÑĤÐ¼":2842,"ĠÑģÐ¾Ð²ÐµÑĤÑģÐºÐ¾Ð³Ð¾":2843,"Ð»ÑıÐ½":2844,"ĠÐ²Ð°ÑģÐ¸Ð»ÑĮ":2845,"ĠÑħÑĢÐ°Ð¼":2846,"ÐµÐ½Ð½":2847,"ĠÐµÐ¿Ð¸ÑģÐºÐ¾Ð¿":2848,"Ð¾Ñĥ":2849,"Ð»ÐµÐ´ÑģÑĤÐ²":2850,"ĠÑĥÑĩÐ°ÑģÑĤÐ½Ð¸ÐºÐ¾Ð²":2851,"ÑĥÐ¼Ð°":2852,"ĠÑĩÐ¸ÑĤ":2853,"ĠÐ¾ÑĤÐºÑĢÑĭ":2854,"ĠÐ²Ð¾Ð·Ð¼Ð¾Ð¶Ð½Ð¾":2855,"ĠÐ¿Ð°Ð½":2856,"ĠÑĩÐµÐ¼Ð¿Ð¸Ð¾Ð½Ð°ÑĤÐ°":2857,"ĠÑĤÐ°ÐºÐ¸Ñħ":2858,"ĠÑĦÐ°ÐºÑĥÐ»ÑĮÑĤ":2859,"ĠÐ¿Ð¾Ð¿ÑĥÐ»ÑıÑĢ":2860,"ĠÐ¸Ð·Ð´Ð°ÑĤÐµÐ»ÑĮ":2861,"Ð½ÐµÑģ":2862,"ĠÐ²Ð´":2863,"ĠÐºÑĢÑĥÐ³":2864,"ĠÑĤÑĭÑģÑıÑĩ":2865,"ÑĢÐ°Ñĩ":2866,"ĠÑĪÑĤÐ°":2867,"ĠÐ¼Ð¸ÑħÐ°Ð¸Ð»":2868,"ĠÐ¿Ð¾ÑģÑĤÐ¾ÑıÐ½":2869,"ĠÐ¸Ð³ÑĢÐ°Ñħ":2870,"Ð¸ÑĢÐ¾Ð²Ð°Ð½Ð¸Ðµ":2871,"ĠÑĥÐ¿ÑĢÐ°Ð²Ð»ÐµÐ½Ð¸Ñı":2872,"Ð½Ð¸Ð¼":2873,"ĠÐ¿ÑĢÐ¸ÑĤ":2874,"Ð¸Ð»Ñı":2875,"ÐµÐ½Ð·":2876,"ÑĢÐ¸Ñħ":2877,"ĠÑĥÑĩÐ°ÑģÑĤÐ½Ð¸ÐºÐ¾Ð¼":2878,"Ð¾Ð»Ð¸ÑĤ":2879,"Ð°ÑĢÑĭ":2880,"ĠÐµÐ²ÑĢÐ¾Ð¿ÐµÐ¹":2881,"ÑģÐµ":2882,"ÑģÐºÐµ":2883,"ĠÐ²ÐµÑĤ":2884,"ĠÐ²Ð¸ÑĤ":2885,"ĠÐ¾Ð±ÑĢÐ°ÑĤ":2886,"Ð¾ÑıÑĤ":2887,"ĠÐ²Ð¾ÑģÑģÑĤÐ°Ð½Ð¾Ð²":2888,"ĠÐ¿ÑĥÑģÑĤ":2889,"ĠÑĢÑĥÐ±":2890,"ĠÐºÐ¾Ð½ÐºÑĥÑĢ":2891,"ĠÐ½Ð°Ð³ÑĢÐ°Ð¶Ð´":2892,"ĠÐ¸ÑģÑĤÐ¾ÑĩÐ½Ð¸ÐºÐ¸":2893,"ĠÑĢÐµÐºÐ°":2894,"ĠÐ¿Ð¾ÑħÐ¾ÑĢÐ¾Ð½":2895,"Ð²Ð°Ð¶":2896,"ÑıÐµÑĤ":2897,"ĠÐ¿Ð¾Ð´Ð³Ð¾ÑĤÐ¾Ð²":2898,"ĠÑĢÐ¾Ð¼Ð°Ð½":2899,"ĠÑģÐµÑĢÐ³ÐµÐ¹":2900,"ĠÑģÐ¾Ð²Ð¼ÐµÑģÑĤ":2901,"ĠÐ¶ÐµÐ½ÑīÐ¸Ð½":2902,"ĠÑĤÐ°ÐºÐ¸Ðµ":2903,"ĠÐºÐ¾Ð¼Ð¸ÑģÑģ":2904,"ĠÐ³Ð¸ÑĤ":2905,"ĠÐ±Ð¾ÑĤ":2906,"ĠÐ½Ð°ÑģÑĤÐ¾ÑıÑīÐµÐµ":2907,"ĠÐ¿ÑĢÐ¸Ð½Ñı":2908,"ĠÑģÐµÐºÑĢÐµÑĤ":2909,"Ð¸Ð·Ð°ÑĨÐ¸Ð¸":2910,"ĠÑĪÐºÐ¾Ð»Ñĭ":2911,"ĠÐ¿Ð¾Ð½Ð¸Ð¼":2912,"ĠÐ²ÑĭÑģÐ¾ÑĤÑĭ":2913,"ĠÐ²Ð»Ð¸Ñı":2914,"Ð°Ð¹Ð´Ð¶":2915,"ĠÐ¿ÑĢÐ¸Ð½ÑĨÐ¸Ð¿":2916,"ĠÐ²ÑĭÐ¸Ð³":2917,"ĠÐ²Ð¾ÑĪ":2918,"ĠÑģÐ¾ÑĨÐ¸Ð°Ð»ÑĮ":2919,"ĠÐ²Ð¾Ð¹Ð½Ð°":2920,"ĠÐ·Ð²Ð°Ð½Ð¸Ðµ":2921,"Ð¸Ð½ÑģÐºÐ°Ñı":2922,"ÑģÐ¸":2923,"Ð°Ð½Ð¸":2924,"ÑıÑĢ":2925,"ĠÐ´ÑĢÑĥÐ³Ð¾Ð¹":2926,"ĠÐ½Ð°Ð·Ð²Ð°Ð½Ð¸Ñı":2927,"ĠÐ¾Ð±ÑīÐ¸Ð½Ñĭ":2928,"ĠÑĤÑĥÑĤ":2929,"ÐµÐ½Ð½Ð¾Ðµ":2930,"ĠÐ¾Ð¿ÑĥÐ±Ð»":2931,"ÑĭÐ´":2932,"ĠÐ¿Ð¾ÑĤÐ¾Ð¼":2933,"ĠÐ¿ÑĢÐ¸ÑĪ":2934,"ĠÐ¼Ð°ÑĢÑĪ":2935,"ÑĪÐ¸ÐµÑģÑı":2936,"ĠÑĥÑĢ":2937,"ĠÑģÐµÑĢÐ¸Ð¸":2938,"ĠÐ»Ð¸ÑĤÐµÑĢÐ°ÑĤÑĥÑĢ":2939,"ĠÐ°Ð·ÐµÑĢÐ±":2940,"ĠÑįÑĤÑĥ":2941,"Ð»ÐµÑĢ":2942,"ĠÐºÐ¿":2943,"ĠÐ·Ð°ÑģÐ»ÑĥÐ¶":2944,"Ð½Ð¾ÑģÑĤÐµÐ¹":2945,"ĠÑĢÐµÐ»Ð¸Ð³":2946,"ĠÐ³ÑĢÐ¸Ð³":2947,"ĠÑįÐ»ÐµÐ¼":2948,"ĠÐ¿Ð»Ð¾ÑīÐ°Ð´Ð¸":2949,"ĠÐ°Ð²ÑģÑĤ":2950,"Ð»ÑİÐ´":2951,"ĠÐ¸Ð½ÑĤ":2952,"ĠÑĦÐ°Ð¼":2953,"ĠÐ¿ÐµÑĢÐµÐ½":2954,"ĠÑģÑĤÑĢÑĥÐºÑĤ":2955,"ĠÑĤÑıÐ¶":2956,"Ð³Ð¾ÑĢ":2957,"ĠÐ°Ð·ÐµÑĢÐ±Ð°Ð¹Ð´Ð¶":2958,"ĠÐ¿ÑĢÐµÐ²":2959,"ÑıÑĩ":2960,"ĠÐ¿Ð¾Ð»Ð¾Ð²":2961,"ĠÐ´ÐµÑıÑĤÐµÐ»ÑĮÐ½Ð¾ÑģÑĤÑĮ":2962,"ĠÐ¼Ð¸ÑħÐ°Ð¹Ð»Ð¾Ð²":2963,"ĠÐ¿Ð¾ÑģÑĤÐ°Ð½Ð¾Ð²":2964,"ĠÑģÐ¾ÑĨÐ¸Ð°Ð»":2965,"ĠÑģÐ°Ð»":2966,"ĠÑģÐ¾ÑĢÐµÐ²Ð½":2967,"ĠÐ¿ÐµÑĢÑģÐ¾Ð½Ð°Ð¶":2968,"ÐºÐ°ÑĤ":2969,"ÑģÑĤÐ²ÐµÐ½Ð½Ð¾":2970,"Ð½Ð¾Ñģ":2971,"ĠÐºÑĢÐ¸ÑģÑĤ":2972,"Ð±Ð¸ÑĤ":2973,"ĠÐ¼Ð¸ÑĤ":2974,"ĠÑĨÐ°ÑĢ":2975,"Ð½Ð°ÑĢÑĥÐ¶":2976,"ĠÐ´Ð¾ÐºÑĤÐ¾ÑĢ":2977,"ĠÐ°Ð²ÑĤÐ¾ÑĢÐ¸ÑĤÐµÑĤ":2978,"ĠÑĥÑĩÐ°ÑģÑĤÐ½Ð¸ÐºÐ¸":2979,"ĠÐ¾Ð±Ð½Ð°ÑĢÑĥÐ¶":2980,"ĠÐ½ÑĭÐ½Ðµ":2981,"ĠÑģÐµÑĤ":2982,"ĠÑĤÑĥÑĢÐ½Ð¸":2983,"Ð±ÐµÑĢÐ³":2984,"ĠÐ¼Ð¸Ð½Ð¸Ð¼":2985,"ĠÐ»Ð¸Ð´":2986,"Ð°ÑĢÑĤÐ°Ð¼":2987,"ĠÐ¼Ð½Ð¾Ð³Ð¸Ðµ":2988,"Ð¾ÐºÐ¾Ð¼":2989,"ÐµÐ½Ð¸ÑĤ":2990,"ĠÑģÑĥÐ±":2991,"ĠÐ³Ð¾ÑģÑĥÐ´Ð°ÑĢÑģÑĤÐ²ÐµÐ½Ð½ÑĭÐ¹":2992,"ÐµÐ»Ðµ":2993,"ĠÑģÑģÑĭÐ»ÐºÐ¸":2994,"ĠÐ½Ð¸Ð¼":2995,"Ð°ÐºÐ°":2996,"Ð°ÑĤÐµÐ»ÑĮÐ½Ð¾":2997,"ÐµÐ²Ð¾":2998,"ĠÑģÑĤÑĢÐ°Ð½Ð°":2999,"Ð°Ð½Ð¸ÐµÐ¼":3000,"ĠÐ¿Ð¸ÑĤ":3001,"ĠÐ²Ð°ÑĢ":3002,"ÑĦÐµÑĢ":3003,"ĠÐ²Ð¸ÐºÑĤÐ¾ÑĢ":3004,"ĠÐ²ÐµÑī":3005,"ÑĳÑĤÑģÑı":3006,"ÑĢÐ°Ñģ":3007,"ĠÐºÑĥÐ¿":3008,"ÑĪÐµÐ¼":3009,"ĠÐ³Ð»Ð°Ð²Ð°":3010,"ĠÑĢÐµÑĪÐµÐ½Ð¸Ðµ":3011,"ĠÑģÐ¾ÑģÑĤÐ¾ÑıÐ½":3012,"ĠÑģÐ¸Ð¼Ð²Ð¾Ð»":3013,"ĠÐ¿Ð¾ÑĢÑıÐ´":3014,"ĠÐºÐ¾Ð¼Ð°Ð½Ð´Ð¸ÑĢ":3015,"ĠÐ·Ð°ÑīÐ¸ÑĤ":3016,"Ð°ÑĤÐµÐ»ÐµÐ¼":3017,"ĠÐ¿Ð¾Ð½ÑıÑĤ":3018,"ĠÐ¾ÑģÑĥÑīÐµÑģÑĤÐ²":3019,"ĠÐºÐ¾Ð¼Ð¿Ð»ÐµÐºÑģ":3020,"ĠÐ¸Ð½ÑĦÐ¾ÑĢÐ¼Ð°ÑĨÐ¸Ð¸":3021,"ĠÑĩÐ»ÐµÐ½Ñĭ":3022,"Ð°ÑĤÐ¸":3023,"ĠÐ¿ÐµÑĢÐ²Ð¾Ð³Ð¾":3024,"ĠÐ¿ÐµÑģÐ½Ð¸":3025,"ĠÑģÐµÐ±Ðµ":3026,"ĠÐ´Ð¾ÑģÑĤÐ°ÑĤÐ¾ÑĩÐ½Ð¾":3027,"ĠÐ¼ÑĥÐ·ÐµÐ¹":3028,"ĠÐ¿ÑĢÐµÐ´Ð¿ÑĢÐ¸ÑıÑĤ":3029,"ĠÐ¸ÑģÑĤÐ¾ÑĩÐ½Ð¸ÐºÐ¾Ð²":3030,"ĠÐ²ÑģÑĤÑĢÐµÑĩ":3031,"ĠÐ±Ñİ":3032,"ĠÐ¿Ð¾Ð¿ÑĭÑĤ":3033,"ĠÑĩÐµÑģÑĤÑĮ":3034,"ĠÑģÑĭÐ³":3035,"ĠÑįÑĤÐ¸Ð¼":3036,"ĠÐ¿ÑĢÐ¸ÑĢ":3037,"ĠÐºÐ°Ñģ":3038,"ĠÐºÐ¾ÑĤÐ¾ÑĢÐ¾Ðµ":3039,"ĠÑģÐ¿Ð¾ÑĢÑĤÐ¸Ð²":3040,"ĠÐ²ÑģÐº":3041,"ĠÑģÑĤÑĢÐµÐ»ÐºÐ¾Ð²":3042,"ĠÑģÐ¸ÑĤÑĥ":3043,"ĠÐ¿ÐµÑĢÐµÑĪ":3044,"ĠÐ¼Ð¾ÑģÐºÐ²Ðµ":3045,"ÑĢÐµÑĪ":3046,"ĠÐ¾Ð±ÑĬÑıÐ²":3047,"ÑĳÐ½Ð½ÑĭÐ¹":3048,"Ð°Ð½Ð½ÑĭÑħ":3049,"ÑģÑĦÑģÑĢ":3050,"Ð°Ð»Ð¾Ð²":3051,"ĠÐ¾Ð±ÑģÑĥÐ¶Ð´ÐµÐ½Ð¸Ðµ":3052,"ĠÑĤÐ°ÐºÐ¾Ð¹":3053,"Ð½ÐµÑĤ":3054,"ĠÐ²Ð½ÐµÑĪ":3055,"ĠÐ¿Ð¾Ð»ÐºÐ¾Ð²":3056,"ĠÐ½Ð°Ð·Ð½Ð°ÑĩÐµÐ½":3057,"ĠÑĨÐµÐ»ÑĮ":3058,"ĠÐ¶ÐµÐ»ÐµÐ·Ð½Ð¾Ð´":3059,"ĠÑģÐ°Ð¼Ð¾":3060,"ĠÐ¶ÐµÐ»ÐµÐ·Ð½Ð¾Ð´Ð¾ÑĢÐ¾Ð¶":3061,"ĠÐ´Ð°Ð½Ð½ÑĭÑħ":3062,"ĠÐ¿ÑĢÐµÐº":3063,"ĠÑĢÑģÑĦÑģÑĢ":3064,"Ð¾Ð²ÑĭÐ¹":3065,"ĠÐ¿ÐµÑĢÐ²Ð°Ñı":3066,"ÐµÐ»Ð¾":3067,"Ð¸Ð»Ð¸Ð¹":3068,"ĠÐ·ÑĢ":3069,"ĠÑħÐ¾Ð´":3070,"Ð¾Ð¼Ð½":3071,"Ð¸ÑģÑĤÐ°":3072,"ĠÐ´Ð¾Ð³":3073,"ĠÐºÐ°Ð±":3074,"ĠÑįÐ»":3075,"ĠÐ¶Ð¸Ð²Ð¾ÑĤ":3076,"ĠÐºÑĢÐ°ÑĤÐºÐ¾Ðµ":3077,"ĠÐ²Ð¾Ð·Ð²ÑĢÐ°Ñī":3078,"ÑĢÐ¾ÑĦ":3079,"ĠÐºÐ½Ð¸Ð³Ð¸":3080,"ĠÐ²ÑģÑĤÑĥÐ¿":3081,"ĠÐ¸Ð½ÑĤÐµÑĢÐ²":3082,"ĠÑĤÐ¾Ð²":3083,"ĠÐ¾ÑĤÐµÑĨ":3084,"ĠÐ´ÐµÐ¹ÑģÑĤÐ²Ð¸Ñı":3085,"Ð»Ð¾ÑĤ":3086,"ĠÐºÐ»Ð°Ð´Ð±Ð¸":3087,"Ð¾Ð¼Ð±":3088,"Ð¾ÑģÐ»Ð¾Ð²":3089,"ĠÐ·Ð°Ð¼ÐµÑģÑĤ":3090,"Ð¸ÑģÐ»Ð°Ð²":3091,"ĠÐ±ÑĥÐº":3092,"Ð¾ÑĢÐ²":3093,"ĠÐ¾ÑĪÐ¸Ð±":3094,"ĠÐ²Ð¾ÐµÐ½Ð½Ð¾":3095,"ĠÐ¾Ð±ÑīÐµÑģÑĤÐ²Ð°":3096,"Ð²Ð¸Ð´":3097,"ĠÐ¿Ð¾ÑģÐ²ÑıÑī":3098,"Ð¸ÑĩÐµÑģÐºÑĥÑİ":3099,"ĠÐ¿Ð¾Ð´Ð¿Ð¸Ñģ":3100,"ĠÑĦÑĥÑĤÐ±Ð¾Ð»ÑĮ":3101,"ĠÐ´ÑĢÐ°Ð¼":3102,"Ð»Ð¸Ð¶":3103,"ĠÑģÐµÐ»ÑĮÑģÐºÐ¸Ð¹":3104,"ĠÑħÐ¾Ðº":3105,"ĠÐ²Ð»Ð°ÑģÑĤÐ¸":3106,"ĠÑįÐ½ÐµÑĢÐ³":3107,"ĠÐ¼Ð¸Ð½Ð¸ÑģÑĤÐµÑĢ":3108,"ĠÐ¶Ð¸Ð»":3109,"ĠÐ½Ð°Ð·ÑĭÐ²Ð°":3110,"ĠÐºÐ°ÑĦÐµÐ´":3111,"ĠÐ¿ÑĢÐ¾Ð¶Ð¸Ð²":3112,"Ð°Ð½ÑģÐºÐ¾Ð³Ð¾":3113,"Ð³Ð»ÑıÐ´":3114,"ĠÑģÑģÑĢ":3115,"Ð¾Ð²Ð°Ð½Ð¸ÐµÐ¼":3116,"Ð¾Ð²Ð°Ð²":3117,"Ð¸ÑĤÐµÐ»ÑĮÐ½ÑĭÐµ":3118,"ĠÑħÑĥÐ´Ð¾Ð¶ÐµÑģÑĤÐ²ÐµÐ½":3119,"ĠÐ½Ð°ÑģÐ»ÐµÐ´":3120,"ÐµÐ»Ð¸Ñĩ":3121,"ĠÐ²ÑĭÑĪÐµ":3122,"ĠÐ²Ð¾Ð·Ð½Ð¸Ðº":3123,"ĠÐ±Ð¾ÑĢÐ¸Ñģ":3124,"ĠÐ³ÐµÑĢÐ¾Ð¹":3125,"ĠÐºÑĥÐ»ÑĮÑĤÑĥÑĢ":3126,"ĠÐ°Ð»ÑĦ":3127,"ĠÑģÐ¾Ð±ÑĢÐ°Ð½":3128,"ĠÐºÑĥÐ·":3129,"ĠÐ¿Ð¾Ð»Ð½Ð¾ÑģÑĤÑĮÑİ":3130,"ĠÐºÐ¾Ð½ÐµÑĩ":3131,"ĠÑĢÐ°ÑģÑģÑĤ":3132,"ĠÑģÐ¸Ð½Ð³":3133,"ĠÐ´Ð¾ÑģÑĤÐ¸Ð³":3134,"Ð¸ÐºÑģ":3135,"ÑįÐ¼":3136,"ĠÐ±Ð¾Ñı":3137,"ĠÑĢÐ¾Ð·":3138,"ĠÐ¿ÑĥÑĪ":3139,"ĠÐ¾ÑĩÐµÑĢÐµÐ´":3140,"ÐºÐ°Ð¼":3141,"ĠÐ½ÐµÑģÐºÐ¾Ð»ÑĮÐºÐ¸Ñħ":3142,"ĠÐ¿Ð¾Ð»ÑĮÑĪ":3143,"Ð¶Ð´Ñĭ":3144,"Ð¾Ð»Ð°":3145,"ĠÐ²ÐµÐ½Ð³":3146,"ĠÐ°ÑĢÑĤÐ¸Ð»Ð»":3147,"ĠÐ¼Ð»Ð°Ð´":3148,"Ð½Ð°Ð·":3149,"ĠÑĢÑĥÑģÑģÐºÐ¾Ð¹":3150,"ĠÐ´ÐµÑĤÐµÐ¹":3151,"ĠÑģÐµÐ»Ð°":3152,"ĠÑĤÑİ":3153,"ĠÐºÐ°Ð²Ð°Ð»":3154,"Ð¼Ð¾ÑĤÑĢÑı":3155,"ĠÑģÑĤÐ¸Ñħ":3156,"ĠÐ¿ÐµÑĢÐ²ÑĭÐ¼":3157,"ĠÐ½ÐµÑģÐ¼Ð¾ÑĤÑĢÑı":3158,"Ð°Ð»Ñĭ":3159,"Ð»Ð°Ð½":3160,"ĠÐ±Ð°Ðº":3161,"ĠÐ²ÐµÑģÑĮ":3162,"Ð³Ð»Ð°Ð²":3163,"ĠÐ´Ð¸ÑĢÐµÐºÑĤÐ¾ÑĢ":3164,"Ð°Ð³Ð¾Ð³":3165,"ĠÑĥÐ²Ð°Ð¶":3166,"ÐµÐ²ÑģÐºÐ¸Ð¹":3167,"ĠÐ±Ð¸Ð±Ð»Ð¸Ð¾ÑĤ":3168,"ĠÑĤÑĢÐµÐ½ÐµÑĢ":3169,"Ð°Ð»ÑĮÑıÐ½":3170,"ĠÐ´Ð¸Ð½Ð°Ð¼":3171,"ĠÐ¾Ð³ÑĢÐ°Ð½Ð¸Ñĩ":3172,"ĠÐ³ÐµÑĢÑĨÐ¾Ð³":3173,"ĠÑģÐ²Ð¾Ñĳ":3174,"ÐµÐ½Ð½ÑĭÐ¼":3175,"ĠÐ»Ð¾Ð³":3176,"ÑĤÐ¸Ð¹":3177,"ÑħÐ°":3178,"ĠÐ´ÐµÐ¿Ð°ÑĢÑĤÐ°Ð¼":3179,"Ð³Ð¾ÑĢÐ¾Ð´":3180,"ĠÑĢÐ°Ð±Ð¾ÑĤÑĥ":3181,"ĠÑıÐº":3182,"ĠÑĦÑĳÐ´":3183,"ĠÐ¸Ð»ÑĮ":3184,"ĠÑģÑĤÑĢÐ°Ð½Ð¸ÑĨ":3185,"ĠÐ¿Ð¾ÑĤÐ¾Ð¼Ñĥ":3186,"ÑĥÑīÐµÑģÑĤÐ²ÐµÐ½":3187,"ĠÐ³ÑĥÐ±ÐµÑĢÐ½Ð¸Ð¸":3188,"ĠÐ¿ÑĢÐ¾Ðº":3189,"ĠÐ·Ð°Ð´Ð°":3190,"ĠÐ¿ÐµÐ²":3191,"Ð¾ÑģÑĤÐ°Ð²":3192,"ĠÐ¿Ð¸ÑģÑĮ":3193,"ĠÑĩÐ°ÑģÑĤÐ½Ð¾ÑģÑĤÐ¸":3194,"ĠÐ·Ð°Ð¼ÐµÐ½":3195,"ÐµÐ½ÑĤÑĭ":3196,"Ð°ÑİÑīÐ¸Ñħ":3197,"ĠÐ²ÑĭÐ¿ÑĥÑģÐºÐ½Ð¸ÐºÐ¸":3198,"ĠÐ¾ÑĤÐ¼ÐµÑĩ":3199,"ĠÐ¾ÐºÑĢÑĥÐ¶":3200,"ĠÐ¿ÐµÑĢÐ²ÑĭÐµ":3201,"ĠÐ¿ÑĢÐ¾Ð²ÐµÑĢ":3202,"ĠÐºÐ¾ÑĢÐ¾Ð»ÑĮ":3203,"Ð»ÑıÑĤÑĮ":3204,"Ð¾ÑĢÑĮ":3205,"ĠÐ°Ð²ÑģÑĤÑĢ":3206,"ĠÐ½Ð¸Ð·":3207,"ÑĳÑĤÐ°":3208,"ĠÐ¿ÐµÑĢÐ²ÑĭÑħ":3209,"ĠÑģÐµÑĢÐµ":3210,"ĠÑĩÐ°ÑģÐ¾Ð²Ð¾Ð¹":3211,"ĠÐºÐ¾Ð¼Ð¿ÑĮÑİÑĤ":3212,"ĠÐ²Ð°Ð½":3213,"ĠÐºÐ¾Ð¼Ð¿Ð°Ð½Ð¸Ñı":3214,"ĠÑģÐ»ÐµÐ´ÑĥÐµÑĤ":3215,"ĠÐ¿ÐµÐ´Ð°Ð³Ð¾Ð³":3216,"Ð¾ÑĢÐ¾ÑĤ":3217,"ĠÑĤÐµÑĢÐ¼Ð¸Ð½":3218,"ĠÐ¸ÑĤÐ°Ð»ÑĮÑıÐ½":3219,"ĠÐ¶Ð¸ÑĤÐµÐ»ÐµÐ¹":3220,"ÐµÐºÑĤÐ¾ÑĢ":3221,"ĠÐ½Ð¸ÑĩÐµÐ³Ð¾":3222,"ĠÐ¿ÑĢÐ¾ÑĦÐµÑģÑģÐ¸Ð¾Ð½":3223,"ĠÐºÐ¾Ð¼Ð¿Ð¾Ð·Ð¸ÑĤ":3224,"Ð¸ÑĤÐµÐ»ÑĮÐ½Ð¾Ð¹":3225,"ĠÐ¿ÑĢÐ°Ð²Ð°":3226,"ĠÑģÐµÑĢÐµÐ±ÑĢÑı":3227,"ĠÐºÐ¾Ð½ÑĦÐ»Ð¸Ðº":3228,"ĠÐ´Ð¾Ð¼Ð°":3229,"ĠÑģÑĢÐ°Ð²Ð½":3230,"ĠÐ¾Ð¿ÑĥÐ±Ð»Ð¸Ðº":3231,"ĠÐ¼Ð¾ÑģÑĤ":3232,"ÐµÐ²Ð¾Ð¹":3233,"ĠÐ´Ð°Ð½Ð½ÑĭÐµ":3234,"ĠÑıÐ·ÑĭÐºÐ°":3235,"ĠÐ½Ð¾Ñĩ":3236,"ĠÑĩÐµÐ¼Ð¿Ð¸Ð¾Ð½Ð°ÑĤÐµ":3237,"ĠÐ³Ð»ÑĥÐ±":3238,"Ð¶Ð´Ð°":3239,"ĠÐ´Ð¾Ð»Ð¶ÐµÐ½":3240,"Ð°ÐºÐ¸":3241,"ĠÐºÐ¾Ð»Ð¾Ð½":3242,"ĠÐ½Ð¾Ð¼Ð¸Ð½Ð°":3243,"ĠÐ¼Ð½Ð¾Ð¶":3244,"ĠÐ´Ð¸Ð²Ð¸Ð·Ð¸Ð¸":3245,"ĠÐ¾ÑģÐ½Ð¾Ð²Ð½Ð¾Ð¼":3246,"ĠÐ·Ð°Ð¿Ð¸Ñģ":3247,"ĠÐ¿ÑĢÐ¸Ð½ÑıÑĤ":3248,"ĠÐ¿ÑĢÐ¾Ð²ÐµÐ´":3249,"ĠÐ¼Ð°ÑģÑĤÐµÑĢ":3250,"ĠÑģÐµÐ·Ð¾Ð½Ð°":3251,"ĠÐ¾Ð±ÑģÑĥÐ¶Ð´ÐµÐ½Ð¸Ñı":3252,"ĠÐ²Ð¾Ð·Ð³Ð»Ð°Ð²":3253,"ĠÐ¹Ð¾ÑĢ":3254,"Ð»ÐµÐ½Ð¸ÐµÐ¼":3255,"ĠÐ¿ÑĢÐ°Ð²Ð¾":3256,"ÑĩÐ¸ÑĤ":3257,"ĠÐ½Ð°ÑģÐµÐ»ÑĳÐ½Ð½ÑĭÑħ":3258,"ĠÐ±ÑĢÐ°Ð·":3259,"ĠÐ´Ð²Ð¸Ð³":3260,"Ð½ÐµÑĢ":3261,"ĠÐ»ÐµÐ¾Ð½":3262,"ĠÐ°Ð»ÑĦÐ°Ð²":3263,"Ð¼Ð°ÑĤÑĢÐ¸Ð²":3264,"ĠÑĥÑĩÐ¸Ð»Ð¸":3265,"ĠÐ¾ÑĤÐºÐ°Ð·":3266,"ĠÐºÐ»ÑĥÐ±Ð°":3267,"ĠÐ°ÑĢÑħÐ¸ÑĤÐµÐºÑĤ":3268,"ĠÐ»ÐµÐ½Ð¸Ð½Ð³ÑĢÐ°Ð´":3269,"Ð½Ð°Ð´":3270,"ÑĢÐ°Ð·Ð´Ð½":3271,"ĠÐ²ÐµÑĢÑģÐ¸Ð¸":3272,"ĠÐ²Ð¸ÐºÐ¸":3273,"Ð¾ÑģÐ¿":3274,"Ð°Ð»Ð¸ÑĦ":3275,"Ð¸ÐºÐ¾Ð¼":3276,"ĠÐºÐ¾Ð»Ð»ÐµÐ³":3277,"ĠÑĢÐ°Ðº":3278,"ĠÐ¾Ð±ÑĥÑĩ":3279,"ĠÐ´ÐµÐ½":3280,"Ð¾Ð½Ð°Ñĩ":3281,"ÑĢÐµÐ³":3282,"ĠÑĦÐµÑĢ":3283,"ĠÑħÐ¾Ð´Ðµ":3284,"ĠÑĤÐ°ÑĤ":3285,"Ð»ÐµÐ½Ð¸Ð¹":3286,"ĠÐ½ÐµÐ¿ÑĢ":3287,"ÑĥÑĢÑĥ":3288,"Ð¸ÑĩÐ½Ð¾":3289,"ĠÐ¿ÐµÑĢÑģÐ¾Ð½Ð°Ð»Ð¸Ð¸":3290,"ĠÐ°ÑĢÐ³ÑĥÐ¼ÐµÐ½ÑĤ":3291,"ĠÑģÐ²ÑıÑĤÐ¾Ð³Ð¾":3292,"ĠÑĢÐ°Ð·Ð²Ð¸ÑĤÐ¸Ñı":3293,"Ð¾Ð²Ð°Ð½Ð°":3294,"ÐµÑģÐ°":3295,"ĠÐºÑĢÐµÐ¿":3296,"Ð»Ð¾ÑģÑĮ":3297,"ĠÐ´Ð°Ð»ÑĮÐ½ÐµÐ¹":3298,"Ð½Ð¾Ð²Ð°":3299,"ĠÐºÐ¸Ð»":3300,"Ð¾ÑĢÑĢÐ¾":3301,"ĠÐ¿Ð¾Ð»Ðº":3302,"ÑĥÐ°":3303,"Ð¸ÑĤÐµÐ»ÑĮÐ½Ð¾Ð³Ð¾":3304,"ĠÐºÑĢÐµÑģÑĤÑĮ":3305,"ĠÑģÐµÐ¼ÑĮÐµ":3306,"ĠÐ²ÑĭÐ¿ÑĥÑī":3307,"ĠÑĢÑĦ":3308,"ĠÐ¿Ð¸ÑģÐ°ÑĤÐµÐ»ÑĮ":3309,"ĠÐ²ÑģÐºÐ¾ÑĢÐµ":3310,"ĠÐ´ÑĥÐ±":3311,"ÐµÐ½Ðµ":3312,"ĠÑĪÐºÐ¾Ð»Ð°":3313,"ÐµÐ½ÑģÐºÐ¸Ð¹":3314,"ĠÐ±ÐµÑĢÐµÐ³Ñĥ":3315,"ĠÑįÑĦÑĦ":3316,"ĠÐºÐ°ÑĤÐµÐ³Ð¾ÑĢÐ¸Ð¸":3317,"ĠÐ°ÐºÑĤÑĳÑĢ":3318,"ĠÑģÐµÐ·Ð¾Ð½":3319,"Ð½Ð¾Ð²ÑĮ":3320,"ĠÑģÐ»ÑĥÐ¶Ð±Ñĭ":3321,"ĠÐ»Ð°ÑĥÑĢÐµ":3322,"ĠÑĥÐ²ÐµÐ»Ð¸Ñĩ":3323,"ĠÐ°Ð½Ð°Ð»Ð¾Ð³":3324,"ĠÐ¿ÐµÑħ":3325,"Ð¾Ð¿Ð¾Ð»ÑĮ":3326,"ĠÐ±Ð°ÑĪÐº":3327,"ÑĢÐ°Ð·Ñĥ":3328,"ĠÐºÐ°Ð¿":3329,"ÑıÐ³":3330,"ĠÑĢÐ¾Ð´Ð°":3331,"ĠÑĤÑĢÐ°Ð½ÑģÐ¿Ð¾ÑĢÑĤ":3332,"ĠÐ¾ÑĢÑĥÐ¶":3333,"ĠÑıÑĢ":3334,"ĠÐ¼Ð°ÑĤÐµÐ¼Ð°ÑĤ":3335,"ĠÐ´Ð¾Ð»Ð¶Ð½Ñĭ":3336,"ĠÑģÑħ":3337,"ĠÑģÐ°Ð´":3338,"ĠÐ²Ð½Ð¾Ð²ÑĮ":3339,"ÑĨÐµ":3340,"ĠÑģÐµÐ»Ðµ":3341,"Ð»Ð¸ÑģÑĮ":3342,"ĠÐ²ÑĭÐ·":3343,"ĠÐ·ÐµÐ¼Ð»Ð¸":3344,"ĠÐ¿Ð¾Ð»ÐºÐ°":3345,"ÑĭÐ²Ð°ÐµÑĤ":3346,"ĠÐ¿Ð°Ñģ":3347,"ĠÑĥÑĩÐ°ÑģÑĤÐ²Ð¾Ð²Ð°Ð»":3348,"ĠÐ¸Ð·ÑĢÐ°":3349,"ĠÐ¼ÐµÑģÑĤÐµ":3350,"ĠÐºÐ°Ð½ÑĤ":3351,"ĠÑģÐ¾ÐºÐ¾ÑĢÑĢÐ¾":3352,"ĠÐºÑĢÐ°Ñı":3353,"ĠÑģÑĦ":3354,"Ð¸Ð½ÑģÐºÐ¾Ð¼":3355,"ĠÑĥÐ¶":3356,"ĠÐ¼Ð¾Ñī":3357,"ĠÑĥÐ¿ÑĢÐ°Ð²Ð»ÐµÐ½Ð¸Ðµ":3358,"ĠÐ¿Ð¸ÑĪ":3359,"ĠÐ¿ÑĢÐ¾Ð³ÑĢÐ°Ð¼Ð¼":3360,"ÑĤÐ¾Ð¼":3361,"ĠÐ±Ð¾Ð¹":3362,"ÑĥÐ»ÑģÑı":3363,"ÑĭÐ³":3364,"ĠÐ·Ð½Ð°":3365,"ĠÐ²ÐµÑĩ":3366,"ĠÑģÑģÑĭÐ»ÐºÐ°":3367,"ÑĳÑĢÐ°":3368,"ĠÐ¾Ð±ÑĭÑĩÐ½Ð¾":3369,"ĠÐµÑīÐµ":3370,"ĠÑĢÐµÐ·ÑĥÐ»ÑĮÑĤÐ°ÑĤ":3371,"ĠÑĦÐ¸Ð»ÑĮÐ¼Ð°":3372,"Ð»ÑıÐµÑĤ":3373,"ĠÑģÑĤÐ°Ð´Ð¸Ð¾Ð½":3374,"Ð¸Ð»Ð¸Ð¸":3375,"Ð´ÐµÑĢ":3376,"ÑĢÐ°Ð¹":3377,"ĠÐºÑĥÐ±ÐºÐ°":3378,"ĠÐ¼Ð¾Ð»Ð¾Ð´ÑĳÐ¶":3379,"ĠÑģÐ¸ÑģÑĤÐµÐ¼Ð°":3380,"ÐµÑģÑĤÑĢÐ°":3381,"ĠÐ¾ÑĤÐ½Ð¾ÑĪÐµÐ½Ð¸Ñı":3382,"ĠÐ½Ð¾Ð²Ð¾Ð¹":3383,"ĠÐ±Ð»Ð°Ð³Ð¾Ð´Ð°ÑĢÑı":3384,"ĠÐµÐ²Ð³":3385,"ĠÐ²Ð°Ð¼":3386,"Ð¾Ð´Ñĭ":3387,"Ð¸Ð¼Ð°":3388,"ĠÐ²Ð¸Ð»ÑĮ":3389,"ĠÑģÐ²ÑıÑī":3390,"ĠÐ´Ð½Ñı":3391,"ÑĢÐ¸Ñģ":3392,"ĠÑĢÐ°Ð·Ð»Ð¸ÑĩÐ½ÑĭÑħ":3393,"ĠÐ²Ð¸Ð·":3394,"Ð¸Ð¹ÑģÐºÐ¸Ð¹":3395,"ĠÑįÐ¿Ð¸Ð·":3396,"ĠÐ¼ÐµÐ½ÑĮ":3397,"ĠÐ¼ÐµÑĤÑĢÐ¾Ð²":3398,"Ð»Ð°Ð¼ÐµÐ½ÑĤ":3399,"ĠÑĢÐ°ÑģÐº":3400,"ĠÐ¿Ð¾Ð¸ÑģÐº":3401,"ĠÐ´ÐµÑģÑıÑĤ":3402,"ĠÑħÑĥÐ´Ð¾Ð¶Ð½Ð¸Ðº":3403,"ĠÐ¿ÑĥÐ½ÐºÑĤÐ¾Ð²":3404,"ĠÐ¼Ð½Ð¾Ð³Ð¸Ñħ":3405,"ÐµÐ»Ñİ":3406,"ĠÐ¸Ð¼ÐµÐ»":3407,"Ð°Ð¼Ð°":3408,"Ð¾Ð¿ÑĢ":3409,"ĠÑĤÐ°Ð»":3410,"Ð¾ÑĤÐµ":3411,"ĠÑĩÐµÑĤÑĭÑĢÐµ":3412,"ĠÐºÐ°Ð´":3413,"ĠÑĦÐ¸Ð³":3414,"ĠÐ´Ð½":3415,"ĠÐ¾ÑĤÐ²":3416,"Ð¾Ð²Ð°Ð»Ð°":3417,"Ð¾ÐµÐ´Ð¸Ð½":3418,"ĠÐ¸Ð±":3419,"ĠÐºÐ¾Ð¼Ð¼ÑĥÐ½":3420,"ĠÑģÑĤÐ°Ð½ÑĨÐ¸Ñı":3421,"ĠÐ¾Ð²":3422,"ĠÐ²ÐµÑĢÑħÐ¾Ð²Ð½Ð¾Ð³Ð¾":3423,"ÑıÐµÑĤÑģÑı":3424,"ĠÑĤÐµÐ°ÑĤÑĢÐ°":3425,"Ð¾Ð»ÐµÑĤ":3426,"ĠÐ¼ÐµÑģÑĤÐ°":3427,"ĠÐºÐ»Ð°Ð´Ð±Ð¸ÑīÐµ":3428,"ĠÑĢÐ°Ð·Ð³":3429,"ĠÐ³Ð»Ð°Ð²Ð½ÑĭÐ¹":3430,"ĠÐ»ÐµÐ¹ÑĤÐµÐ½":3431,"ĠÑĢÐ¾Ðº":3432,"Ð»Ð°Ð·":3433,"ÑĦÑĤ":3434,"ĠÐ°Ð²Ð¸Ð°ÑĨÐ¸Ð¾Ð½":3435,"ĠÑĢÑĥÐº":3436,"ĠÐ³Ð¾ÑģÑĥÐ´Ð°ÑĢÑģÑĤÐ²ÐµÐ½Ð½Ð¾Ð¹":3437,"ĠÐ°Ð¼ÐµÑĢÐ¸ÐºÐ°Ð½ÑģÐºÐ¸Ð¹":3438,"ĠÐ¿ÑĢÐµÐ´ÑĭÐ´":3439,"ĠÐµÐºÐ°ÑĤ":3440,"ĠÐ±ÑĥÐ´ÑĥÑī":3441,"ĠÐ½ÐµÐ´Ð¾ÑģÑĤ":3442,"ĠÐ¿ÑĢÐµÐ´ÑĭÐ´ÑĥÑī":3443,"ĠÐ¿Ð¾ÑĩÐµÐ¼Ñĥ":3444,"ĠÐ¿Ð°Ð¿":3445,"ĠÑĤÐ¸ÑĤÑĥÐ»":3446,"Ð¾ÑģÐ°":3447,"ĠÐºÐ¾ÑģÐ¼":3448,"ĠÑĩÐµÑħ":3449,"ĠÐ¿Ð¾Ð»Ñĥ":3450,"ĠÐ»Ð¸Ð½Ð¸Ð¸":3451,"ÑĥÑİÑīÐ¸Ð¹":3452,"ÑĤÐ¾Ð¶":3453,"ĠÑĤÐ¾Ð¼Ñĥ":3454,"ĠÐ³ÐµÑĢÐ±":3455,"ĠÐºÑĢÐ¸ÑĤÐµÑĢ":3456,"Ð¾Ð¿Ð°Ñģ":3457,"ĠÑĤÑĭÑģ":3458,"ĠÑĪÑĤÐ°ÑĤ":3459,"ĠÐºÐ¾Ð¼Ð¼ÑĥÐ½Ñĭ":3460,"ĠÐ´ÐµÐ»Ð¾":3461,"ĠÑħÑĢÐ¸ÑģÑĤÐ¸Ð°Ð½":3462,"ĠÐ¾Ð±ÑĢÐ°Ñī":3463,"ĠÐ¼Ð¾ÑĢÑı":3464,"ĠÐ½ÐµÐºÐ¾ÑĤÐ¾ÑĢÑĭÑħ":3465,"ÑĪÐ¸ÑģÑĮ":3466,"Ð¸Ð²Ð°ÑĤÑĮ":3467,"Ð¶Ð°":3468,"ĠÐ½Ð¾Ð²Ð¾Ð³Ð¾":3469,"ÑĩÐ°ÑĤ":3470,"ÐµÑĢÐº":3471,"Ð¸ÑĤÐµÐ»ÑĮÐ½ÑĭÑħ":3472,"ÐµÐ¹Ð¼":3473,"ĠÐ´Ð¸Ð¿":3474,"ĠÐ¿ÑĢÐ°Ð²Ð¸Ð»Ð°":3475,"ĠÐ±Ð°Ð¹":3476,"ĠÑĢÐ°ÑģÐ¿Ð¾Ð»Ð°Ð³":3477,"ĠÐ±Ð¾Ð»Ð³Ð°ÑĢ":3478,"ĠÐ¿ÑĢÐ¾ÑģÑĤÑĢÐ°Ð½":3479,"ĠÐºÐ°ÑĤÐ¾Ð»":3480,"ĠÐ²Ð¿Ð¾Ñģ":3481,"ĠÐ·Ð°ÑĢ":3482,"ĠÑįÐºÐ·":3483,"Ð»ÐµÐ´ÑģÑĤÐ²Ð¸Ð¸":3484,"Ð¸Ð²Ð°":3485,"ĠÐ¸Ð½Ð¾ÑģÑĤ":3486,"ĠÐ²Ð¿Ð¾ÑģÐ»ÐµÐ´ÑģÑĤÐ²Ð¸Ð¸":3487,"ĠÐ¸ÑĤÐ°Ð»Ð¸Ð¸":3488,"ĠÑģÐ²Ð¾Ð¸Ð¼":3489,"ĠÑĥÑģÐ¿ÐµÑħ":3490,"Ð°ÐºÐ¾Ð¼":3491,"ĠÑħÐ°ÑĢ":3492,"ĠÐ½Ð°Ð¼":3493,"ĠÐ°Ñħ":3494,"ĠÐ´Ð¾ÐºÐ°Ð·":3495,"ĠÐ¼ÑĥÐ¶ÑĩÐ¸Ð½":3496,"ĠÑĥÑĩÐ°ÑģÑĤÐ½Ð¸ÐºÐ°":3497,"ĠÐ°Ð²ÑģÑĤÑĢÐ°Ð»":3498,"ĠÐ±ÑĭÑģÑĤ":3499,"ĠÐ½Ð°ÑĩÐ°Ð»Ð¾":3500,"Ð¾Ð¶Ð´ÐµÐ½Ð¸Ðµ":3501,"ĠÐ´Ð¾Ð»Ð³":3502,"ĠÐ¿ÑĢÐ¾Ð¸ÑģÑħ":3503,"Ð»Ð°Ð´Ð°":3504,"ĠÐ¸Ð½Ð¾ÑģÑĤÑĢÐ°Ð½":3505,"ĠÐ²ÐµÐ»Ð¸ÐºÐ¾Ð±ÑĢÐ¸ÑĤÐ°Ð½Ð¸Ð¸":3506,"ĠÐºÑĢÑĭÐ¼":3507,"ĠÐ±ÐµÐ½":3508,"ÐµÐ³Ð´Ð°":3509,"ĠÐ¸Ð¼ÐµÑİÑĤ":3510,"Ð¸Ð»Ðµ":3511,"ĠÐ¿ÑĢÐµÑģ":3512,"ÑĥÑİÑīÐ¸Ñħ":3513,"Ð±ÐµÐº":3514,"ĠÐºÐ°ÑĢÐ»":3515,"ĠÑģÑĨÐµÐ½Ð°ÑĢ":3516,"ĠÐ¿ÐµÑĢÐµÑħÐ¾Ð´":3517,"ĠÐ²ÐºÐ»Ð°Ð´":3518,"ĠÐ³ÐµÐ½ÐµÑĢÐ°Ð»ÑĮ":3519,"Ð´Ð°ÑĤ":3520,"ÑĢÐ¸Ð¸":3521,"Ð¾Ð²ÑĭÐ¼":3522,"ĠÐ³Ð¸Ð´":3523,"ĠÐ¼ÐµÑĩ":3524,"ÑĥÐºÐ¾Ð²":3525,"ĠÐ»ÑİÐ´Ð¸":3526,"ĠÐ¿ÑĢÐ¸Ð»":3527,"ĠÑģÐ¼Ð¾Ð³":3528,"ĠÐ¿ÑĢÐ¸ÑģÐ²Ð¾":3529,"ĠÑģÐ±":3530,"Ð¾ÑħÐ¾Ð·ÑıÐ¹":3531,"ĠÐºÐ¾Ð½ÑģÑĤÐ°Ð½ÑĤÐ¸Ð½":3532,"ĠÐ¿ÑĢÐ¸Ð²ÐµÐ´":3533,"ÐºÐ¸Ð½Ð°":3534,"ĠÐ·Ð°Ð³Ð¾Ð»Ð¾Ð²":3535,"ÑĢÐµÐº":3536,"ĠÐ¾Ð±Ð¾Ð·Ð½Ð°Ñĩ":3537,"ĠÐºÐ»ÑĥÐ±Ñĭ":3538,"ĠÑĥÐ½Ð¸Ñĩ":3539,"ÑģÑĥÑĢ":3540,"ĠÑĦÐµÐ´ÐµÑĢÐ°Ð»ÑĮ":3541,"ĠÐµÐ¿Ð°ÑĢÑħ":3542,"ĠÑĦÐ¸Ð»Ð¸Ð¿":3543,"Ð²ÑĳÑĢ":3544,"Ð»Ð¾Ð½Ñĭ":3545,"ĠÑĢÐ¾Ð»Ð¸":3546,"ĠÐ°Ð½Ð´ÑĢÐµÐ¹":3547,"ĠÐ»Ð¾Ð½Ð´":3548,"ĠÐºÐ¾ÑĤÐ¾ÑĢÑĥÑİ":3549,"ĠÐ´ÑĥÑħÐ¾Ð²":3550,"ĠÐ¾Ð±Ð»Ð°Ð´":3551,"Ð¾ÑĤÐ²Ð¾ÑĢ":3552,"ĠÐ°Ð²ÑĤÐ¾Ð¼Ð°ÑĤ":3553,"ÑĪÑĥÑİ":3554,"ĠÐ±Ð¾Ð»ÑĮ":3555,"ĠÐ¼Ð»Ð½":3556,"ĠÐ²Ð¾Ð¹ÑģÐºÐ°":3557,"ĠÑģÑĢÐ°Ð·Ñĥ":3558,"ÑĳÐ·Ð´":3559,"ĠÐ³Ð¸Ð¼":3560,"ĠÐ²Ð¾ÑģÐ¿":3561,"ÐµÐ½Ð½Ð¾ÑģÑĤÐ¸":3562,"ĠÑįÑĤÐ°Ð¿":3563,"ĠÑģÐµÐ²ÐµÑĢÐ½Ð¾Ð¹":3564,"ĠÑĥÐ½Ð¸ÑĩÑĤÐ¾Ð¶":3565,"ĠÐ°Ð½ÑĤÐ¾Ð½":3566,"ĠÑģÑĤÐ°Ð»Ð¾":3567,"ĠÐ¾ÑģÐ½Ð¾Ð²Ðµ":3568,"ĠÐ±ÐµÑģÐ¿":3569,"Ð°Ð»ÑĮÐ½ÑĭÐ¼":3570,"ĠÐ¼Ð¾ÑģÐºÐ¾Ð²ÑģÐºÐ¾Ð¹":3571,"ĠÐ¿Ð¾ÑĩÑĳÑĤ":3572,"ĠÐ¿ÑĢÐµÐ¼Ð¸Ñı":3573,"ĠÑĥÑĩÑĢÐµÐ¶Ð´":3574,"ĠÐµÐºÐ°ÑĤÐµÑĢ":3575,"ÑĢÐ¸Ð½":3576,"ÐµÐµÐ²Ð¸Ñĩ":3577,"ĠÐ¿ÑĢÐ¸Ð²Ð¾Ð´":3578,"ĠÐ¾Ð¼":3579,"Ð»ÐµÐ½Ð½ÑĭÐµ":3580,"ĠÐ´Ñį":3581,"ÑıÑģÐ½":3582,"ĠÐ¸ÑģÐºÑĥÑģÑģÑĤÐ²Ð°":3583,"ĠÐ³Ð¾Ð¼":3584,"ĠÐ¾Ð½Ð¾":3585,"ĠÑģÑĥÑīÐµÑģÑĤÐ²ÑĥÐµÑĤ":3586,"ĠÐ¿ÑĤ":3587,"ÑīÐ°":3588,"ÑĳÐ½Ð½Ð¾Ð¹":3589,"ĠÑĥÐ´Ð°Ð»Ð¸Ð»":3590,"Ð»ÑĥÐ¶":3591,"Ð¸Ð²Ð°ÐµÑĤÑģÑı":3592,"ĠÐ¿ÑĢÐ¸ÐºÐ°Ð·":3593,"ĠÐºÑĢÐµÑģÑĤÑĮÑıÐ½":3594,"ÑĪÑĤ":3595,"Ð¾Ð½ÑģÑĤ":3596,"Ð»ÐµÑĩ":3597,"ĠÑĥÐ»ÑĥÑĩ":3598,"ĠÐ·Ð°Ð½Ð¸Ð¼Ð°ÐµÑĤ":3599,"ĠÑĥÐ±Ð¸Ð¹":3600,"ĠÑĤÐµÐ¿ÐµÑĢÑĮ":3601,"ĠÐ¿Ð°Ð¼ÑıÑĤÐ½Ð¸Ðº":3602,"Ð¾Ð²Ð°Ð½Ð¸Ð¸":3603,"ĠÐ°Ð»ÐµÐºÑģÐµÐ¹":3604,"Ð»Ð°ÑĤ":3605,"ĠÐ½Ð°Ð»Ð¸Ñĩ":3606,"ĠÐ³ÐµÑĢÐ¾":3607,"Ð²Ð¸Ð¶":3608,"ĠÐºÐ¾ÑĢÐ¿ÑĥÑģ":3609,"Ð¾Ð³ÑĢÐ°Ð´":3610,"Ð½Ð¸Ñĩ":3611,"ĠÐ·Ð°Ð²ÐµÐ´":3612,"ĠÐ»ÑĥÑĩÑĪÐµ":3613,"ĠÐ´Ð»Ð¸Ð½Ð°":3614,"ÑĨÐ°ÑĢ":3615,"ĠÑĤÐµÐ°ÑĤÑĢ":3616,"ÑĭÐ²Ð°ÑĤÑĮ":3617,"ĠÐ²ÐµÑĢÐ¾ÑıÑĤ":3618,"ĠÑĢÐ°ÑģÐ¿Ð¾Ð»Ð¾Ð¶ÐµÐ½":3619,"ÐµÑĢÐ´":3620,"ĠÑģÐµÐ·Ð¾Ð½Ðµ":3621,"Ð»ÐµÐ½Ð¸Ñİ":3622,"ĠÐºÐ³":3623,"ĠÐ¿Ð¾ÑĤÐµÑĢ":3624,"ÑĢÐ¸Ð´":3625,"ÐºÐ¸Ð¼":3626,"ĠÐ³Ð¾ÑĤÐ¾Ð²":3627,"ĠÑĤÑĥ":3628,"ĠÑĢÐ°Ð·ÑĢÐµÑĪ":3629,"Ð»Ð¾Ðº":3630,"Ð»ÐµÐ½Ð½ÑĭÑħ":3631,"ĠÐ¾Ð±Ð²Ð¸Ð½":3632,"ĠÐ¿Ð¾Ð²ÑĤÐ¾ÑĢ":3633,"Ð½Ð¸ÑĨÑĭ":3634,"ĠÐ¿ÐµÑĢÐ²Ð¾Ð¼":3635,"ĠÐµÐ¶":3636,"ĠÐ²Ð¼ÐµÑģÑĤÐ¾":3637,"ĠÑĢÐ°ÑģÑĪÐ¸ÑĢ":3638,"ĠÑĢÐ¾ÑģÑģÐ¸Ð¹ÑģÐºÐ°Ñı":3639,"Ð»Ð°Ð±":3640,"ĠÑģÑĤÑĢÐ°Ð½Ð¸ÑĨÑĭ":3641,"ĠÑģÑĩÐ¸ÑĤÐ°":3642,"ĠÐ¾ÑģÑĤÑĢÐ¾Ð²Ð°":3643,"Ð·ÑĭÐ²Ð°ÐµÑĤ":3644,"ĠÑħÐ°Ð½":3645,"ĠÐ¼Ð¸ÑģÑģ":3646,"ĠÐ´Ð¾ÑģÑĤÑĥÐ¿":3647,"ĠÐ¿ÑĢÐ¾Ð¸Ð·Ð¾ÑĪ":3648,"ĠÑĩÐµÑĢÐ½":3649,"ĠÐ¾ÑģÐ²Ð¾Ð±":3650,"ĠÐ½ÑĳÐ¼":3651,"ĠÑĥÐ»ÑĥÑĩÑĪ":3652,"ĠÐ´Ð°Ð½Ð½ÑĭÐ¹":3653,"ĠÑģÐ¸Ð±Ð¸ÑĢ":3654,"ĠÐ¸ÑģÑģÐ»ÐµÐ´Ð¾Ð²Ð°Ð½Ð¸Ñı":3655,"ĠÐ¿ÑĮ":3656,"ĠÐ¿ÑĢÐµÐ·Ð¸Ð´ÐµÐ½ÑĤÐ°":3657,"ĠÐ¿ÑĢÐ¸ÑģÐ¾ÐµÐ´Ð¸Ð½":3658,"ĠÐ¿ÑĢÐ¸ÑĤÐ¾Ðº":3659,"ĠÐºÐ¾Ð½ÐºÑĢÐµÑĤ":3660,"ĠÐ·Ð°Ð¼ÐµÑĤ":3661,"ĠÐ´Ð²Ð¸Ð¶ÐµÐ½Ð¸Ñı":3662,"ĠÐ²ÑģÑı":3663,"Ð¸Ð½Ð¸":3664,"ÑįÐ»ÑĮ":3665,"ĠÐ°ÑĦÑĢ":3666,"ĠÐ¿Ð¾Ð¼Ð¾ÑīÑĮÑİ":3667,"ĠÑģÐ¾Ð»Ð½":3668,"ÐµÑĢÐµÐ¶":3669,"ĠÑĦÐµÑģÑĤ":3670,"ĠÐ·Ð²ÑĳÐ·Ð´":3671,"Ð°ÑİÑīÐ¸Ðµ":3672,"ĠÐºÐ¾Ð»Ð»ÐµÐºÑĤ":3673,"ĠÑģÐ´ÐµÐ»Ð°ÑĤÑĮ":3674,"Ð´Ð¾":3675,"ĠÐ³Ð¾ÑģÑĥÐ´Ð°ÑĢÑģÑĤÐ²Ð°":3676,"Ð±Ð¸Ð½":3677,"ĠÐ¸ÑģÐ¿Ð°Ð½Ð¸Ð¸":3678,"ĠÐºÐ°ÐºÐ¾Ð¹":3679,"ĠÐ¿ÑĢÐ°Ð²Ð¸Ð»Ð¾":3680,"ĠÐ¿Ð°ÑĢÐ¸Ð¶":3681,"ĠÐ¾ÑģÐ¾Ð±ÐµÐ½Ð½Ð¾":3682,"ĠÐ¿Ð»Ð°Ð²":3683,"ĠÐ»ÐµÑĤÐ½Ð¸Ñħ":3684,"ĠÑĤÑĥÑĢÐ½":3685,"Ð¸Ð¹ÑģÐºÐ¾Ð¹":3686,"ĠÐºÐ²Ð°ÑĢÑĤ":3687,"ĠÐ´ÐµÐºÐ°Ð±":3688,"ÑİÑģÑĮ":3689,"ĠÐ¿Ð¾Ñį":3690,"Ð°Ð»Ð¸ÑģÑĤ":3691,"ĠÑĤÑĢÑĥÐ´Ð°":3692,"ĠÐºÐ¾Ð¼Ð¼ÐµÐ½ÑĤÐ°ÑĢÐ¸ÐµÐ¼":3693,"ĠÐ´Ð°ÑĤ":3694,"ĠÐ¿ÐµÑģÐ½Ñı":3695,"Ð¸Ð¾Ð·":3696,"ĠÑģÐ¾Ð·Ð´Ð°Ð½Ð¸Ñı":3697,"ĠÐ¸Ð½Ð¾Ð³Ð´Ð°":3698,"ĠÐºÑĢÐµÑģÑĤ":3699,"ĠÐ¼Ð¾ÑģÐºÐ²Ñĭ":3700,"ĠÐ¸ÑģÐ¿Ð¾Ð»ÑĮÐ·ÑĥÐµÑĤÑģÑı":3701,"ĠÑĥÐ´Ð°ÑĢ":3702,"ĠÐ±Ð°ÑĤÐ°Ð»ÑĮ":3703,"ĠÐ¾ÑĤÐ½Ð¾ÑģÐ¸ÑĤÑģÑı":3704,"ÑģÐµÐ¼":3705,"Ð½Ð¸Ð¶":3706,"Ð¸ÑģÑĤÐ°Ð½":3707,"Ð¸ÑĢÑĥÐµÑĤ":3708,"ĠÐµÐ³":3709,"ÑĳÐ³":3710,"ĠÐºÐ¾ÑĢÐ¿ÑĥÑģÐ°":3711,"ĠÐ³Ð²Ð°ÑĢÐ´ÐµÐ¹":3712,"Ð¾Ð»Ñı":3713,"ĠÐºÐ»Ð¸Ð¼":3714,"ĠÑħÐ¾ÑĢÐ¾ÑĪÐ¾":3715,"ĠÐ³Ð¾Ð»Ñĭ":3716,"ĠÐ¿Ð»Ð°ÑĤÑĦÐ¾ÑĢÐ¼":3717,"ĠÐ²Ð¾Ð·Ð¼Ð¾Ð¶Ð½Ð¾ÑģÑĤÑĮ":3718,"ĠÐ³ÐµÑĢÐ¼Ð°Ð½":3719,"ĠÑĦÑĥÑĤÐ±Ð¾Ð»Ð¸ÑģÑĤ":3720,"ĠÐ¿ÑĢÐ¸Ð¼ÐµÑĢÐ½Ð¾":3721,"ĠÐ²Ð½Ð¸Ð¼Ð°Ð½Ð¸Ðµ":3722,"ĠÐ³Ð¾ÑĢÐ¾Ð´ÑģÐºÐ¾Ð³Ð¾":3723,"ĠÑĪÐ°Ð±Ð»Ð¾Ð½Ñĭ":3724,"Ð°Ð½Ð½ÑĭÐ¹":3725,"ĠÑģÑĤÐ°Ð½Ð´":3726,"ĠÐ°Ð»ÐµÐºÑģÐ°Ð½Ð´ÑĢÐ¾Ð²Ð¸Ñĩ":3727,"ĠÐ½Ð¾Ð²ÑĭÐµ":3728,"ĠÑİÐ¶Ð½Ð¾Ð¹":3729,"ĠÐ°Ð»ÐµÐºÑģÐ°Ð½Ð´ÑĢÐ°":3730,"ÐµÐ½ÑģÐºÐ¾Ð¹":3731,"Ð¾Ð²ÐºÐ°":3732,"ĠÐ²Ð¾Ð¹Ð½Ðµ":3733,"ĠÐ´Ð¾ÑĩÑĮ":3734,"ĠÐ³ÐµÐ¾Ð³ÑĢÐ°ÑĦ":3735,"ĠÐ¿ÑĢÐµÐ´ÑģÐµÐ´Ð°ÑĤÐµÐ»ÑĮ":3736,"ĠÐ¿ÐµÑĢÐµÐ¼":3737,"ĠÐºÐ½Ð¸Ð³Ð°":3738,"ĠÐ±ÑĢÐ¾Ð½Ð·":3739,"ĠÑĩÐµÑĤÑĭÑĢ":3740,"ĠÑĩÐ¸ÑģÑĤ":3741,"ĠÐ°Ð½Ð°ÑĤ":3742,"ĠÐºÐ¸Ñģ":3743,"ÑĥÑģÐºÐ°":3744,"Ð¿Ð°ÑĢÐ°ÑĤ":3745,"ĠÑĥÑģÑĤÑĮ":3746,"ĠÑĢÑĥÑģÑģÐºÐ¾Ð³Ð¾":3747,"ĠÐ½Ð°ÑģÑĤÑĥÐ¿":3748,"ÑĥÐ½Ð°":3749,"ĠÐ¿Ð¾Ð´Ð²Ð¾Ð´":3750,"ĠÐ´Ð½ÐµÐ¹":3751,"ĠÑĢÐ°Ð¼ÐºÐ°Ñħ":3752,"Ð¾ÑģÐº":3753,"ĠÑĢÑĥÐ¼":3754,"ĠÐ¼ÑĥÐ»ÑĮÑĤ":3755,"ĠÐ¿Ð°ÑĢÑĤÐ¸Ñı":3756,"Ð±ÐµÑĢ":3757,"ĠÑįÐ»ÐµÐºÑĤÑĢ":3758,"ĠÐ¾ÑĦÐ¾ÑĢÐ¼":3759,"ĠÐ¿Ð¾Ð²ÐµÑĢÑħ":3760,"ĠÑģÐµÐ½ÑĤÑıÐ±":3761,"ĠÐ¿ÑĢÐ¸ÑģÑĥÑĤÑģÑĤÐ²":3762,"ÐºÐ°Ð½":3763,"ĠÐ±Ð°ÑģÑģÐµÐ¹":3764,"ĠÑģÐ¸Ð»Ñĭ":3765,"ĠÐ¿Ð»Ð¾ÑĤÐ½Ð¾ÑģÑĤÑĮ":3766,"ĠÐ½Ð°ÑĨÐ¸Ð¾Ð½Ð°Ð»ÑĮÐ½Ð¾Ð¹":3767,"ĠÑģÑĢÐ¾Ðº":3768,"ĠÑģÐ¿Ð¾ÑĢÑĤÐ°":3769,"ĠÐ¼Ð¸Ð»Ð»Ð¸":3770,"ĠÐ±ÑĥÐ´ÑĥÑĤ":3771,"Ð¸Ð²ÑĪÐ¸Ð¹":3772,"ĠÐ¿Ð¾Ð¼ÐµÑī":3773,"ÑĥÑİÑīÐ¸Ðµ":3774,"ĠÐ¼Ð¸Ð½ÑĥÑĤ":3775,"Ð¸Ð·Ð²ÐµÑģÑĤ":3776,"Ð¸Ð½ÑģÐºÐ¾Ðµ":3777,"ĠÐ¸Ð·Ð²ÐµÑģÑĤÐ½ÑĭÐµ":3778,"Ð¼Ð°ÑĢ":3779,"ÑĪÑĤÐ°":3780,"Ð¸Ð¹ÑģÐºÐ¾Ð³Ð¾":3781,"ÑĤÐ¸Ð½Ð³":3782,"ĠÐ½Ð°Ð½":3783,"ĠÐ¾ÑģÐ½Ð¾Ð²Ð½ÑĭÐµ":3784,"ĠÐ²ÐµÑģÑĤ":3785,"Ð°Ð²ÑĪÐ¸Ð¹":3786,"ĠÑģÐ°Ð¼Ð¾Ð»ÑĳÑĤ":3787,"ĠÐ¸ÑģÐºÑĥÑģÑģÑĤÐ²":3788,"ĠÐ²Ð¾ÑĢÐ¾Ð½":3789,"ĠÑĥÑģÑĤÑĢÐ¾Ð¹":3790,"Ð¸Ð´ÐµÑĢ":3791,"ĠÐ¸Ð½Ðº":3792,"ĠÐ²ÐµÐ´ÑĥÑī":3793,"ĠÐ·Ð´Ð°Ð½Ð¸Ñı":3794,"ĠÐ±ÐµÐ·Ð¾Ð¿Ð°Ñģ":3795,"Ð¼Ð¾ÑĤÑĢ":3796,"ĠÐ±ÐµÐ»ÑĮ":3797,"ĠÐ±Ð¾Ð»ÑĮÑĪÐ¸Ð½ÑģÑĤÐ²Ð¾":3798,"ĠÐ¿ÑĢÐ¸Ð½ÑıÐ»":3799,"Ð¾ÑĢÐ°Ñħ":3800,"Ð¾ÐºÐ¾Ð»":3801,"Ð¸Ð°ÑĤ":3802,"ÐµÑĢÐµÐ½":3803,"ĠÐ¾Ð¿ÑĭÑĤ":3804,"Ð°Ð»ÑĮÐ½Ð¾Ð¼":3805,"ÑīÐ¸Ðº":3806,"Ð¾Ð»ÑĮÐ½Ð¾":3807,"ĠÑĪÐ°ÑĢ":3808,"ĠÐ±Ð¾Ð»ÑĮÑĪÐ°Ñı":3809,"ĠÑįÑĤÐ¾Ð¼Ñĥ":3810,"ĠÐ´ÐµÑĢÐµÐ²Ð½Ð¸":3811,"ĠÐ²ÑģÐµÐ³Ð´Ð°":3812,"ÑĮÐµÐ²":3813,"ĠÐ³Ñĥ":3814,"ÑİÑīÐ°Ñı":3815,"ĠÐ½Ð¸ÐºÐ¾Ð»Ð°ÐµÐ²Ð¸Ñĩ":3816,"ÑĨÐ°Ð¼Ð¸":3817,"Ð½Ð¸ÑĩÐµ":3818,"ĠÐ²ÑĭÐ´ÐµÐ»":3819,"ÑĢÐµÐ¼ÐµÐ½Ð½Ð¾":3820,"ĠÐ·Ð´Ð°Ð½Ð¸Ðµ":3821,"Ð´ÑĢ":3822,"ĠÑģÐ»Ð¾Ð²Ð¾":3823,"ĠÐ¼Ð°ÑĤÑĮ":3824,"ÑĢÐ°ÑĨÐ¸Ð¸":3825,"ĠÑģÐ¾ÑĨÐ¸Ð°Ð»Ð¸ÑģÑĤ":3826,"ĠÐ½Ð¾Ð²ÑĭÑħ":3827,"ĠÐ¸Ð·Ð²ÐµÑģÑĤÐµÐ½":3828,"ĠÐ´Ð¸Ð¿Ð»Ð¾Ð¼":3829,"Ð°Ð½ÑĤÑĭ":3830,"ÑİÐ½":3831,"ĠÑĩÐ»ÐµÐ½Ð¾Ð¼":3832,"ĠÑĢÑı":3833,"ĠÑįÐ»ÐµÐºÑĤÑĢÐ¾Ð½":3834,"ĠÐ°Ð»ÑĦÐ°Ð²Ð¸ÑĤÑĥ":3835,"ĠÐ¾Ð´Ð½Ð¾Ð²":3836,"ĠÐ¸Ð½Ð¶ÐµÐ½ÐµÑĢ":3837,"ĠÐµÐ¹":3838,"ÐµÐ½Ð¸ÑıÐ¼Ð¸":3839,"ĠÑģÐ¼Ð¾Ð»":3840,"Ð¸Ð´Ñĥ":3841,"ĠÐ¿Ð¾Ð´ÑĢÐ°Ð·":3842,"ÑĢÑĥÑĩ":3843,"ĠÐ²ÐµÐºÐµ":3844,"ĠÐ½Ð¾Ð²Ð°Ñı":3845,"ĠÐ¼ÑĥÐ½Ð¸ÑĨÐ¸Ð¿Ð°Ð»":3846,"ĠÐ´ÐµÐ¼Ð¾ÐºÑĢÐ°ÑĤ":3847,"ĠÑģÑĤÐµÐ¿ÐµÐ½ÑĮ":3848,"Ð¸ÑģÐ¿":3849,"ĠÐºÐ¾ÑĤÐ¾ÑĢÑĭÐ¼":3850,"ÑĥÐºÑĤ":3851,"ĠÐ²Ð¾ÑĢ":3852,"ĠÑĤÐ¸":3853,"Ð¶Ð¸":3854,"ĠÐ²Ð¾ÐµÐ²":3855,"ĠÐ¼Ð°ÑĤÑĩÐµ":3856,"ĠÐ²Ð·Ð°":3857,"ĠÐ¼Ð°ÑĢÐ¸Ñı":3858,"ĠÐ²ÑĭÐ½":3859,"Ð°Ð»Ð¸Ñı":3860,"ÑĢÐ°Ð¶ÐµÐ½Ð¸Ðµ":3861,"ĠÐ´Ð·":3862,"ĠÑģÑĥÑħ":3863,"ĠÐ´Ð¸Ð·":3864,"Ð½ÑĥÑĤ":3865,"ĠÐ±Ð»Ð¸Ð¶":3866,"ĠÑģÐ²Ð¸Ð´":3867,"ÑĥÐ³Ð¸":3868,"ĠÐ¾ÑģÐ½Ð¾Ð²Ð½Ð¾Ð¹":3869,"ÑģÐ¾Ð¼":3870,"ÑĥÑģÑģÐ¸Ð¸":3871,"ÑĢÑĥÐ¼ÐµÐ½ÑĤ":3872,"ĠÐ¸Ð½ÑĦÐ¾ÑĢÐ¼Ð°ÑĨÐ¸Ñı":3873,"Ð¸ÑĨÐµÐ¹":3874,"ĠÐ»ÑĥÑĩÑĪÐ¸Ð¹":3875,"ĠÐ¼ÑĥÑģ":3876,"ĠÑĤÐµÐ¾ÑĢ":3877,"ĠÐ²ÑĭÑĪÐµÐ»":3878,"ĠÑĤÑĥÑĢÐµ":3879,"ĠÐ²Ð¸Ð´Ð¾Ð²":3880,"Ð½Ð¸ÑĤ":3881,"ĠÐ½Ð°Ð´Ðµ":3882,"ĠÑĥÑģÐ¿ÐµÑĪ":3883,"ĠÑģÐ¸Ð´":3884,"ĠÐ¼Ð¾ÑģÐºÐ¾Ð²ÑģÐºÐ¾Ð³Ð¾":3885,"ĠÑĥÐµÐ·Ð´":3886,"ĠÐ¿Ð¾Ð·Ð´Ð½ÐµÐµ":3887,"ĠÑħÐ°":3888,"ĠÑģÐ¿ÐµÐºÑĤ":3889,"ĠÑĢÐ°ÑģÑģÐºÐ°Ð·":3890,"Ð¸Ð²ÑĪÐ¸ÐµÑģÑı":3891,"Ð°Ð´Ðµ":3892,"ÐµÐ½Ð¸ÑıÑħ":3893,"ÑĢÐ°Ð»Ð°":3894,"ĠÐ¼Ð°ÑĪÐ¸Ð½":3895,"ÑĳÑģ":3896,"ĠÑģÑĢÐµÐ´Ð½ÑıÑı":3897,"ĠÐ½Ð¾Ð¼Ð¸Ð½":3898,"ĠÑģÑĤÐ¾Ð¸ÑĤ":3899,"ĠÐ±ÐµÐ»Ð¾ÑĢÑĥÑģ":3900,"ĠÐ³Ð¸Ð¿":3901,"Ð¾Ð²Ð°Ð½Ñĭ":3902,"ĠÐ³ÑĢÐ°Ð¼":3903,"ĠÑĩÐ¸ÑģÐ»ÐµÐ½":3904,"ĠÐ¿ÑĢÐ¾Ð¸Ð·Ð²ÐµÐ´ÐµÐ½Ð¸Ñı":3905,"ĠÑįÐ»ÑĮ":3906,"ĠÑģÐ±Ð¾ÑĢÐ½Ð°Ñı":3907,"ĠÐ¿Ð¾ÑģÐ»ÐµÐ´Ð½Ð¸Ð¹":3908,"ĠÐºÐ¾Ð¼Ð¿ÑĮÑİÑĤÐµÑĢ":3909,"ĠÐ½Ð°ÑĢ":3910,"ĠÐ¸ÑģÐ¿ÑĭÑĤ":3911,"ĠÑģÐºÐ°":3912,"ĠÐ¾Ð»ÑĮ":3913,"ĠÐ¼Ð°Ð»ÑĮ":3914,"Ð¸ÑıÐ¼Ð¸":3915,"ĠÐ¾ÑĤÑģÑĤÐ°Ð²":3916,"ĠÐ²Ð¿Ð¾Ð»":3917,"ĠÐ¿ÑĢÐ°ÐºÑĤÐ¸ÑĩÐµÑģÐºÐ¸":3918,"ĠÐ°Ð´Ð¼Ð¸Ð½Ð¸ÑģÑĤÑĢÐ°ÑĤÐ¾ÑĢ":3919,"Ð¸Ð·Ð¸ÑĢÐ¾Ð²Ð°Ð½":3920,"ĠÐ»Ð¸Ð³Ð¸":3921,"ĠÐ¿Ð¾Ð»ÑĥÑĩÐ¸Ð»Ð°":3922,"ĠÐ·Ð°Ð²Ð¾ÐµÐ²":3923,"ĠÐºÐ»ÑİÑĩ":3924,"Ð°Ð½ÑģÐ¾Ð²":3925,"ÑĢÐ¸Ðº":3926,"ĠÐ¿ÑĢÐ¾Ð²Ð¸Ð½ÑĨÐ¸Ð¸":3927,"ĠÐ²Ð¿Ð¾Ð»Ð½Ðµ":3928,"ĠÐ¿Ð¾Ð´ÑĩÐ¸Ð½":3929,"ĠÐºÐ¾Ð¼Ð¸ÑĤÐµÑĤÐ°":3930,"ĠÐ¿ÑĢÐµÐ¼ÑĮÐµÑĢ":3931,"ĠÐºÐ°Ð¿Ð¸ÑĤÐ°Ð½":3932,"ĠÑĤÑĢÐ°Ð²":3933,"ĠÐºÑĢÐ¾Ð²":3934,"ĠÐ´ÑĢÑĥÐ³Ð¸Ð¼Ð¸":3935,"ÑģÐµÐ½":3936,"Ð¸Ð»ÐµÑĤ":3937,"Ð´Ñĭ":3938,"ĠÐ¿ÐµÑĢÐµÐ´Ð°":3939,"ĠÑģÐ°Ð¼ÑĭÑħ":3940,"ĠÐ²Ð¾Ð·Ð´ÑĥÑĪ":3941,"ĠÐ¼Ð¸ÑĢÐµ":3942,"ĠÑĤÐ¸Ñħ":3943,"ĠÐ²ÑĭÑģÑĤÑĥÐ¿Ð°Ð»":3944,"ĠÐ²Ð¾Ð·ÑĢÐ°ÑģÑĤÐµ":3945,"ĠÐºÑĢÑĥÐ¿Ð½ÐµÐ¹":3946,"ĠÐ¿Ð¾Ð»Ð¾Ð¶ÐµÐ½Ð¸Ðµ":3947,"ĠÑģÑİÐ¶":3948,"ĠÐ±Ð¾Ð¼Ð±":3949,"ĠÐ¿Ð¾Ð´ÑĢÐ¾Ð±":3950,"ĠÐ¿ÑĢÐµÑģÑĤÑĥÐ¿":3951,"ĠÑĦÑĳÐ´Ð¾ÑĢ":3952,"Ð°Ð¹Ð½":3953,"ĠÐºÐ¾Ð½ÑĨÐ°":3954,"ÑĳÐ½Ð½Ð¾Ð³Ð¾":3955,"ÑĥÑı":3956,"ĠÐ²ÑģÐ¿":3957,"ĠÐ¿ÐµÑĢÐ²Ð¾Ð½Ð°Ñĩ":3958,"ĠÐ¿ÐµÑĩ":3959,"Ð¾Ð½Ð¸Ð¸":3960,"ĠÐ´ÑĢÑĥÐ³Ð¸Ð¼":3961,"ĠÑĢÐ°Ð·Ð½ÑĭÑħ":3962,"ĠÐ·Ð°ÐºÐ¾Ð½Ñĩ":3963,"ĠÐ¼Ð°ÑģÑģÐ¾Ð²":3964,"ĠÐ¸Ð½ÑģÑĤÑĢÑĥÐ¼ÐµÐ½ÑĤ":3965,"ĠÐ¿Ð°ÑĢÐ»Ð°Ð¼ÐµÐ½ÑĤ":3966,"ĠÑįÑģÐº":3967,"ĠÐ¸ÑģÐ¿Ð¾Ð»ÑĮÐ·Ð¾Ð²Ð°ÑĤÑĮ":3968,"ĠÐ¿Ð¸Ð»":3969,"ĠÑĢÐ°Ð·Ð²ÐµÐ´":3970,"ĠÑĢÐ°Ð±Ð¾ÑĤÐµ":3971,"ĠÐ³ÐµÑĢÐ±Ð°":3972,"Ð»Ð¸ÑĪ":3973,"ĠÑĢÐ°Ð·Ð±":3974,"ĠÑģÐ¾ÑĢÐµÐ²Ð½Ð¾Ð²Ð°Ð½Ð¸Ñı":3975,"ĠÐ²ÐºÐ»ÑİÑĩÐ°Ñı":3976,"ĠÐ·Ð°Ð¿Ð°Ð´Ð½Ð¾Ð¹":3977,"ĠÑĤÐ°Ð½ÐºÐ¾Ð²":3978,"ĠÐ½ÐµÑĳ":3979,"ĠÑĦÑĥÑĤÐ±Ð¾Ð»Ñĥ":3980,"ĠÐ´Ð²ÑĥÐ¼":3981,"ĠÐ´ÑĥÑĪÑĥ":3982,"ĠÑĥÐ¿ÑĢÐ°Ð·Ð´Ð½":3983,"Ð¾Ð°Ð½":3984,"ĠÑģÐ¿Ð°ÑģÐ¸Ð±Ð¾":3985,"ĠÑĢÑĥÑģÑģÐºÐ¸Ðµ":3986,"ĠÑħÐ°ÑĢÑĮ":3987,"Ð¾Ð·Ð½":3988,"ÐºÐ¾Ð²ÑģÐºÐ¸Ð¹":3989,"ĠÐ¸ÑģÐ¿ÑĢÐ°Ð²":3990,"Ð¾Ð»Ðµ":3991,"ĠÑĤÐ¸Ð¼":3992,"ÐµÐ»Ð»":3993,"ĠÐ²Ð¾ÑģÑĤÐ¾ÑĩÐ½Ð¾Ð¹":3994,"ĠÑģÐ°Ð¼ÑĭÐ¼":3995,"ĠÐºÐ°Ð¼Ð¿":3996,"ĠÐ½Ð¾Ð¼ÐµÑĢ":3997,"ĠÑĢÐµÐ°Ð»Ð¸Ð·":3998,"ĠÐ²Ð»Ð¸ÑıÐ½Ð¸Ðµ":3999,"ĠÐ¿Ð°Ð²Ð»Ð¾Ð²":4000,"ĠÑģÐ¾Ð¾ÑĢÑĥÐ¶":4001,"ĠÐºÑĢÐ°ÑģÐ½Ð¾":4002,"ĠÐ»ÐµÐ½Ð¸Ð½Ð°":4003,"ĠÑĤÐ°ÐºÐ¾Ðµ":4004,"ĠÐ¿ÑĢÐ°Ð²Ð¸ÑĤÐµÐ»ÑĮÑģÑĤÐ²Ð°":4005,"ĠÐ¼Ð°ÑģÑģ":4006,"ĠÑĨÐ¸ÑĤ":4007,"ÑįÐº":4008,"ĠÐ°Ð»ÑĮÐ±Ð¾Ð¼Ð°":4009,"ĠÑģÐ°Ðº":4010,"ÑĥÑĢÐ³Ð°":4011,"ĠÐºÐ°ÑĢÑĮÐµÑĢ":4012,"Ð¸Ð°":4013,"ÑĢÑĥÑĤ":4014,"ĠÑģÐµÑĢÐ±":4015,"ĠÐ½Ð°Ð±Ð»ÑİÐ´":4016,"ĠÑĤÐµÐ¼Ð¿ÐµÑĢÐ°ÑĤ":4017,"Ð¾Ð²Ð°Ð½Ð¾":4018,"ĠÑĥÐµÐ·Ð´Ð°":4019,"ĠÐ°ÑĢÐµÑģÑĤ":4020,"ĠÑģÐµÑĢÑĮ":4021,"Ð°Ð²Ð»Ð¸Ð²":4022,"ÑĥÑİÑĤÑģÑı":4023,"ĠÑĪÐ²ÐµÐ¹":4024,"Ð°ÑİÑīÐ¸Ð¹":4025,"ĠÐ°Ð½Ð°Ð»Ð¸Ð·":4026,"ĠÐ·Ð½Ð°Ð¼ÐµÐ½Ð¸ÑĤ":4027,"ĠÐ¿Ð¾Ð¼Ð¾Ð³":4028,"ĠÐ»Ð°Ð³":4029,"ĠÑģÐ¸ÑĢ":4030,"ĠÑģÑĥÐ»":4031,"ĠÐ¿ÑĢÐ¾ÑıÐ²":4032,"ĠÑĢÐ¾Ð¶Ð´":4033,"ĠÑĥÐ´Ð°Ð»Ð¾ÑģÑĮ":4034,"ĠÐºÐ°Ð¶Ð´ÑĭÐ¹":4035,"ĠÐ¾ÑĤÑĢÑıÐ´":4036,"ĠÐ³Ð»Ð°Ð²Ð½ÑĭÐ¼":4037,"Ð¾Ð´Ñĥ":4038,"ĠÐ²ÐµÑĢÐ½ÑĥÐ»ÑģÑı":4039,"ÐµÐ½ÑģÐºÐ¾Ð³Ð¾":4040,"ĠÐ¼Ð°Ð´":4041,"ĠÑĨÐµÐ»ÑĮÑİ":4042,"ĠÐ¿Ð¾Ð¶Ð°Ð»":4043,"ĠÑģÐ¾ÑģÑĤÐ¾Ð¸ÑĤ":4044,"ĠÐ¿ÑĢÐ¾Ð¸ÑģÑħÐ¾Ð´Ð¸ÑĤ":4045,"ĠÐ¿ÐµÑĢÐ²ÑĥÑİ":4046,"ÑĢÐ¸Ñı":4047,"ĠÐ»ÑĮÐ²":4048,"ĠÑģÐ°Ð²":4049,"ĠÐ²ÑĭÐ·Ð²":4050,"ĠÑĩÐµÑĤÑĭÑĢÑĳÑħ":4051,"ÐµÐ¼ÑĭÑħ":4052,"ĠÐºÐ°ÑĤÐµÐ³Ð¾ÑĢ":4053,"ĠÐ²Ð²ÐµÐ´":4054,"ÐºÑĥÐ¿":4055,"ĠÑĢÐ°ÑģÑģÐ¼Ð°ÑĤÑĢÐ¸Ð²":4056,"Ð¾ÑĩÐ½ÑĭÐ¹":4057,"ĠÑıÐ¿Ð¾Ð½Ð¸Ð¸":4058,"ĠÐ¼Ð¾Ð¹":4059,"ĠÐ¾ÑģÐº":4060,"ĠÐ·ÑĢÐµÐ½Ð¸Ñı":4061,"ÑİÑīÐµÐ¹":4062,"Ð°Ð¹ÑĤÐµ":4063,"ÑĢÐ¸Ð¿":4064,"Ð¾Ð²ÑģÐºÐ°Ñı":4065,"ĠÐ²Ð·Ð³Ð»ÑıÐ´":4066,"ĠÐ¿ÑĢÐµÐ´ÐµÐ»":4067,"ĠÑĦÐ»Ð°Ð³Ð°":4068,"ĠÐ¿ÑĢÐ¾Ð´ÑİÑģ":4069,"ĠÑģÐ»ÑĥÑĩÐ°Ð¹":4070,"ĠÐ½Ð¸Ð´ÐµÑĢ":4071,"ĠÐ¿ÑĢÐµÐ´Ð¾ÑģÑĤÐ°Ð²":4072,"ĠÐ±Ð°Ð±":4073,"Ð¸ÑģÑĤÑĢ":4074,"ĠÑĥÐ½Ð¸Ð²ÐµÑĢÑģÐ¸ÑĤÐµÑĤÐµ":4075,"Ð¸ÑıÐ¼":4076,"ĠÑĤÑĢÐ¾":4077,"ĠÐ½ÐµÐ¸Ð·Ð²ÐµÑģÑĤ":4078,"Ð²ÐµÑĢÐ¶Ð´Ð°":4079,"ĠÐ¿ÐµÑĢÐµÑĥÐ»":4080,"ĠÑĢÐµÐ¼":4081,"ÑĥÐ»ÑĮÐ¿":4082,"Ð²ÐµÑĢÐ³":4083,"ĠÐ¿Ð»ÐµÐ¼":4084,"ĠÐ°Ð²ÑĤÐ¾Ð¼Ð¾Ð±Ð¸Ð»ÑĮÐ½ÑĭÐ¹":4085,"ĠÐ·Ð°ÑģÐ»ÑĥÐ¶ÐµÐ½Ð½ÑĭÐ¹":4086,"Ð¾Ð´Ð½":4087,"ĠÐ¾Ð´Ð½Ð¾Ð¼":4088,"ÑĳÑĢÑĭ":4089,"ĠÑĢÐ°Ð±Ð¾ÑĤÐ°":4090,"ĠÐ±ÐµÑģÑģ":4091,"ĠÐ¿ÑĢÐ¾ÑĤÑıÐ¶":4092,"ĠÐ°ÑĢÑħÐ¸Ð²":4093,"Ð¸ÑĤÐ¸":4094,"ÐµÑĢÐ¸Ð°Ð»":4095,"ÑĭÐ»":4096,"ĠÑĤÐµÐ»ÐµÑģ":4097,"Ð»Ð»":4098,"ÑĩÐµÐ½ÐºÐ¾":4099,"ĠÑĢÐ°Ð·Ð¼ÐµÑī":4100,"ĠÐ´Ð¾Ð»Ð¶Ð½Ð°":4101,"ĠÐ¾Ð±Ð¾ÑĢ":4102,"ÑĥÐ»Ð°":4103,"ĠÐ¿ÑĢÐ¾ÑĨÐµÐ½ÑĤ":4104,"ĠÐ¼Ð°Ð»Ð¾":4105,"ĠÑĩÐ°ÑģÐ¾Ð²":4106,"ĠÑĢÑĥÑģÑģÐºÐ¾Ð¼":4107,"ĠÐ»Ð¸Ð²":4108,"ÑĢÐ¾ÑģÐ»Ð°Ð²":4109,"ĠÐ¾Ð´Ð½Ð¾Ð²ÑĢÐµÐ¼ÐµÐ½Ð½Ð¾":4110,"ÑıÐ»Ð°ÑģÑĮ":4111,"ÐºÐ»":4112,"Ð¾ÑģÑı":4113,"ĠÐ¼Ð°Ð¹Ð¾ÑĢ":4114,"ĠÐºÐ¸Ð»Ð¾Ð¼ÐµÑĤ":4115,"ĠÐ¿ÑĢÐ¾Ð±Ð»ÐµÐ¼Ñĭ":4116,"ĠÐ·Ð½Ð°ÑĩÐµÐ½Ð¸Ñı":4117,"ĠÐ¿ÑĢÐ¸Ð·ÑĳÑĢ":4118,"ĠÐ½ÐµÐ´Ð¾ÑģÑĤÐ°ÑĤ":4119,"ÑģÑĤÐ²ÐµÐ½Ð½ÑĭÐ¹":4120,"Ð¸Ð°Ð»Ð°":4121,"ÑĦÐ¸Ð½":4122,"ĠÑħÑĢÐ°Ð½":4123,"ĠÐ½Ð°ÑĥÑĩÐ½Ð¾":4124,"ĠÐ»Ð°Ð±":4125,"ĠÐ¾Ð±Ð½Ð¾Ð²":4126,"ĠÐ´Ð¸Ð²Ð¸Ð·Ð¸Ð¾Ð½":4127,"Ð·Ñı":4128,"Ð¸ÐºÐ¾Ð¹":4129,"ĠÑģÑĤÐ°ÑĢÑĪÐ¸Ð¹":4130,"Ð·Ðµ":4131,"ĠÑģÐ°Ð¼Ð¾Ð¹":4132,"ĠÑģÐ¸Ð³":4133,"Ð¸ÐµÐ½ÑĤ":4134,"ĠÐ´Ð¸Ð²Ð¸Ð·Ð¸Ñı":4135,"ĠÐ¼ÐµÐ¼":4136,"ĠÐ»ÐµÐ¹ÑĤÐµÐ½Ð°Ð½ÑĤ":4137,"Ð°ÑĤÐ¾":4138,"ĠÐ¿Ð°ÑĢÐº":4139,"ÑĤÐ°Ñħ":4140,"ÑĪÐ¸ÑħÑģÑı":4141,"ĠÐ¼ÐµÑĤÐ°Ð»Ð»":4142,"ĠÑģÑĤÐ¾":4143,"ĠÐ¿ÑĢÐ°Ð²Ð¸Ð»ÑĮ":4144,"ĠÑĤÑĢÐ°Ð´Ð¸ÑĨÐ¸Ð¾Ð½":4145,"ĠÐ³Ð¾ÑĢÐ¾Ð´ÑģÐºÐ¾Ð¹":4146,"ĠÐ¿ÑĢÐ¸Ð¾Ð±":4147,"ĠÐ´Ð¼Ð¸ÑĤÑĢÐ¸Ð¹":4148,"Ð°Ð½ÑģÐºÐ°Ñı":4149,"ĠÑĢÐ¸Ñģ":4150,"ĠÐ°ÑĢÐ¼ÑıÐ½":4151,"ĠÑĥÐ´Ð°":4152,"Ð½Ð¸ÐºÐ°Ð¼Ð¸":4153,"ĠÑĤÐµÐ»ÐµÐº":4154,"ĠÑģÐ²Ð¸Ð´ÐµÑĤ":4155,"Ð¸ÑĤÐµÐ»ÑĮÐ½Ð¾Ðµ":4156,"ĠÑģÐµÑĢÐ¸Ñı":4157,"ĠÐ¿Ð¾ÑĤÑĢÐµÐ±":4158,"ĠÑĦÐ¸Ð»ÑĮÐ¼Ðµ":4159,"ÑıÑģÑĮ":4160,"ĠÐ¿Ð°ÑĤÑĢÐ¸":4161,"ĠÐ½Ð¾Ð²Ð¾Ñģ":4162,"Ð¸ÐºÐ°ÑĨÐ¸Ñı":4163,"ĠÐ¸ÑĢÐ»Ð°Ð½Ð´":4164,"ĠÑĢÑĥÐ´":4165,"ĠÑĥÑĪ":4166,"ĠÐ¸Ð½ÑĦ":4167,"ĠÐ°Ð²ÑĤÐ¾Ð½Ð¾Ð¼":4168,"Ð·ÑĭÑĩ":4169,"ĠÑĪÐµÑģÑĤ":4170,"ĠÐ¾ÐºÑĤÑıÐ±ÑĢÑĮ":4171,"ĠÐ»Ð¸ÑģÑĤ":4172,"ĠÐ¼Ð½ÐµÐ½Ð¸Ñİ":4173,"ĠÑĢÐ°Ð·Ð²Ð¸ÑĤÐ¸Ðµ":4174,"ĠÐ¶ÐµÐ½ÑīÐ¸Ð½Ñĭ":4175,"ĠÐ½Ð¾ÑıÐ±":4176,"ĠÐ°ÑįÑĢÐ¾Ð¿":4177,"ĠÑģÐ¾Ð¼Ð½":4178,"Ð¸ÑĩÐ°":4179,"ĠÐ²Ð¾ÑģÐ¿Ð¸ÑĤ":4180,"ĠÐ¿ÑĢÐ¾Ð¸Ð·Ð²Ð¾Ð´ÑģÑĤÐ²Ð°":4181,"ĠÐ²Ð¾Ð¿ÑĢÐ¾ÑģÑĭ":4182,"ĠÐ²Ð¾Ð»ÑĮ":4183,"ĠÐ´Ð¾ÑĢÐ¾Ð³Ð¸":4184,"ĠÐ°ÑģÑģÐ¾ÑĨ":4185,"ĠÐ¿Ð¸Ðº":4186,"ÑıÐ»Ð¸":4187,"Ð°ÑıÑģÑĮ":4188,"ĠÑĢÐµÐ´Ð°ÐºÑĤÐ¾ÑĢ":4189,"ĠÐºÐ¾Ð»ÑĮ":4190,"ĠÐ²Ð°ÑģÐ¸Ð»ÑĮÐµÐ²Ð¸Ñĩ":4191,"ĠÑıÑĢÐ¾ÑģÐ»Ð°Ð²":4192,"ĠÐµÐ²ÑĢÐµÐ¹":4193,"ĠÐ´Ð¸ÑģÑģ":4194,"ĠÑģÐºÑĥÐ»ÑĮÐ¿":4195,"ĠÑĦÐ¸Ð½Ð°Ð½ÑģÐ¾Ð²":4196,"Ð°ÑģÐ°":4197,"ĠÑģÑĤÑĢÐ¾Ð¸ÑĤÐµÐ»ÑĮÑģÑĤÐ²Ð°":4198,"ĠÐºÐ¿ÑģÑģ":4199,"ÑĢÐ°Ð¼Ð°":4200,"ĠÐ·Ð°Ð¼ÐµÑĩ":4201,"ĠÐ¾ÑĤÐ¼ÐµÑĤ":4202,"ĠÐ²ÑģÐµÐ¹":4203,"ĠÑģÐ½Ð¸Ð¼":4204,"ÑİÑīÐµÐ³Ð¾":4205,"ĠÐ²ÑĤÐ¾ÑĢÐ¾Ð³Ð¾":4206,"ĠÐ´Ð°ÑĢ":4207,"Ð¸ÑĩÐµÑģÐºÐ¸Ð¼Ð¸":4208,"Ð½Ð¸Ñı":4209,"ĠÐ¾ÑĩÐµÐ²Ð¸Ð´":4210,"Ð¾ÑĤÑĢÐµÐ±":4211,"Ð¾ÑģÑĤÑĮÑİ":4212,"Ð»ÑıÐ½Ð´":4213,"ĠÑģÑĤÐ°Ð½Ð´Ð°ÑĢÑĤ":4214,"ĠÑĢÑĥÐºÐ¾Ð²Ð¾Ð´ÑģÑĤÐ²Ð¾Ð¼":4215,"ĠÐ½Ð°Ð¿Ð¸ÑģÐ°Ð»":4216,"ĠÐ¿ÑĢÐµÐ´ÑģÑĤÐ°Ð²Ð»ÑıÐµÑĤ":4217,"ÑģÐ°Ð¶":4218,"Ð¾Ð½Ñģ":4219,"ĠÐ»Ð°Ð²":4220,"ĠÑįÐ¹":4221,"ĠÐºÐ°Ð½Ð´Ð¸Ð´Ð°ÑĤ":4222,"ĠÐ²Ð°ÑģÐ¸Ð»Ð¸Ð¹":4223,"ĠÐ·Ð°ÑħÐ²Ð°ÑĤ":4224,"Ð¾Ð½Ð¾Ñģ":4225,"ĠÐ½Ð°ÑĥÐºÐ¸":4226,"ĠÑĥÐ¸Ð»ÑĮ":4227,"ĠÑģÐµÐ³Ð¾Ð´":4228,"ĠÑģÐµÐ³Ð¾Ð´Ð½Ñı":4229,"ĠÑģÑĥÑĤ":4230,"ĠÑģÑĤÑĢÐ¾Ð¸ÑĤÐµÐ»ÑĮÑģÑĤÐ²Ð¾":4231,"ĠÑĤÐ²Ð¾ÑĢÑĩÐµÑģÑĤÐ²":4232,"ĠÐ²Ð·Ð°Ð¸Ð¼":4233,"ĠÑģÐµÑĢÐ¸Ð°Ð»":4234,"ĠÐ´ÑĢÐ°Ð¼Ð°ÑĤ":4235,"Ð¼Ð¾":4236,"ĠÐºÐ°ÑĢÑĮÐµÑĢÑĥ":4237,"ĠÐ¿ÑĥÑĤÐ¸":4238,"ĠÑĤÐ¾ÑĩÐºÐ¸":4239,"ĠÑĥÐ»Ð¸ÑĨÑĭ":4240,"ĠÑģÐ¾Ð¾Ð±ÑīÐµÐ½Ð¸Ñı":4241,"ĠÐ¿Ð¾Ð»Ñı":4242,"ĠÐ¼Ñį":4243,"ÑĢÐ°Ð½Ð°":4244,"ĠÐ½ÐµÐ¾Ð´Ð½":4245,"Ð¾ÑģÑĤÐ¾ÑıÑĤÐµÐ»ÑĮ":4246,"ÑĢÑĥÐ½":4247,"ĠÐ¾ÑĢÐ³Ð°Ð½Ð¸Ð·Ð°ÑĨÐ¸Ñı":4248,"ĠÐ½Ð¸Ð¶Ðµ":4249,"ĠÑĩÐµÑĤÐ²ÑĳÑĢ":4250,"ÑĢÐ¸ÑģÐ°":4251,"ĠÐ½Ð°Ð¹ÑĤÐ¸":4252,"ĠÑĢÑıÐ´Ð¾Ð¼":4253,"ĠÐ¼Ð¸Ð½Ð¸ÑģÑĤÑĢ":4254,"ĠÐµÑģÑĤ":4255,"ĠÐ²Ð¾ÑģÑĤÐ¾ÐºÐµ":4256,"ĠÐ¾Ð¶":4257,"ĠÑģÐ¿ÑĥÑģÑĤ":4258,"ĠÐ¿Ð¾Ð»Ðµ":4259,"ĠÐ¿Ð¾ÑĢÑĤÑĥÐ³":4260,"ĠÐ¿ÑĢÐµÐ´Ð¿Ð¾Ð»Ð°Ð³":4261,"Ð²ÐµÑĤÐ°":4262,"ĠÑĪÐºÐ¾Ð»Ðµ":4263,"ĠÑĪÐ²ÐµÐ¹ÑĨÐ°ÑĢ":4264,"ĠÐ¿ÑĢÐ¾Ð²ÑĳÐ»":4265,"ĠÐ·Ð°Ð³Ð¾Ð»Ð¾Ð²Ð¾Ðº":4266,"ĠÐ¿ÑĢÐ¾Ð·":4267,"ĠÐ³Ð»Ð°Ð²Ð½Ð¾Ð³Ð¾":4268,"ĠÐ³Ð¸Ð±":4269,"ĠÐ·Ð²ÐµÐ·Ð´":4270,"ĠÑģÐ¾Ð·Ð´Ð°Ð½Ð½Ð°Ñı":4271,"ĠÑįÐ²":4272,"ĠÑĢÐ°ÑģÑģÐºÐ°":4273,"ĠÑĢÐµÐ»Ð¸Ð³Ð¸Ð¾Ð·":4274,"ĠÐ°ÑĢÐ±Ð¸ÑĤ":4275,"ĠÐ¾ÐºÐ¾Ð½ÑĩÐ°Ð½Ð¸Ñı":4276,"ĠÑĦÐ°ÑĢ":4277,"ĠÐ¼ÐµÐºÑģ":4278,"ĠÐ¸Ð½ÐºÑĥÐ±":4279,"ĠÐ»Ð¸Ð±":4280,"ĠÐ¿ÑĢÐ¸ÑĩÐ¸Ð½":4281,"ĠÑİÑĢÐ¸Ð¹":4282,"Ð¸ÑĢÐ°ÑĤ":4283,"ĠÐ²ÑĭÐ´Ð°":4284,"ĠÑħÑĥ":4285,"ĠÐºÐ¾Ð»Ð»ÐµÐºÑĤÐ¸Ð²":4286,"ÑĢÐ°Ð´Ð°":4287,"ĠÐ³ÐµÑĢÐ¾Ñı":4288,"ĠÑĤÐ°ÑĤÐ°ÑĢ":4289,"Ð¾Ð³Ð¾ÑĢ":4290,"ĠÐ¿Ð¾ÐºÑĢÐ¾Ð²":4291,"ĠÑĤÐµÑħÐ½Ð¾Ð»Ð¾Ð³":4292,"ĠÑģÐ¾Ð²ÐµÑĤÑģÐºÐ¾Ð¹":4293,"ĠÐ½Ð°ÑĨÐ¸Ð¾Ð½Ð°Ð»ÑĮÐ½Ð¾Ð³Ð¾":4294,"ĠÐ²ÐºÐ»ÑİÑĩÐ°ÐµÑĤ":4295,"ĠÑģÐ¿Ð¾ÑĢÑĤÑģ":4296,"Ð½Ð°ÑĩÐ°Ð»Ð°":4297,"ĠÐ½Ð°Ð³ÑĢÐ°Ð¶Ð´ÑĳÐ½":4298,"ĠÐ¾Ð±Ð¾ÑĢÐ¾Ð½Ñĭ":4299,"Ð¾Ð²Ð°Ð½Ð¸Ñİ":4300,"ĠÐ¿ÑĢÐµÐ¸Ð¼":4301,"ÑħÐ¾Ð·":4302,"ĠÐºÐ½ÑıÐ·ÑĮ":4303,"ĠÐ³Ð¾ÑģÑĤ":4304,"ĠÑĢÑĥÐºÐ¾Ð²Ð¾Ð´Ð¸ÑĤÐµÐ»ÑĮ":4305,"ĠÑģÐ¾Ð¾ÑĤÐ²ÐµÑĤÑģÑĤÐ²Ð¸Ð¸":4306,"ĠÐ´Ð¾ÑģÑĤÐ¸Ð¶":4307,"Ð¸Ð¾Ð½Ñĭ":4308,"ÐºÐ¸Ð¿":4309,"ĠÐ¶ÐµÐ½Ð°":4310,"ĠÑĦÐ¸Ð»Ð¸Ð¿Ð¿":4311,"ĠÑıÐ·ÑĭÐºÐ¾Ð²":4312,"ĠÑįÐºÑģÐ¿ÐµÑĢ":4313,"ĠÑĢÐµÐ·ÑĥÐ»ÑĮÑĤÐ°ÑĤÑĭ":4314,"ĠÐ¿ÑıÑĤÑĮ":4315,"ĠÐ¿ÑĢÐµÐ´Ð¼ÐµÑĤ":4316,"ĠÐ¸Ð·Ð´Ð°ÑĤÐµÐ»ÑĮÑģÑĤÐ²Ð¾":4317,"ĠÑĢÐµÑĪÐµÐ½Ð¸Ñı":4318,"ĠÑĤÐµÑĢÑĢÐ¸ÑĤÐ¾ÑĢÐ¸Ð°Ð»ÑĮ":4319,"Ð¸ÑĢÐ¾Ð²Ð°Ð½Ð°":4320,"Ð¾ÑħÑĢÐ°Ð½":4321,"ĠÐ¶Ð¸Ð²Ð¾Ð¿":4322,"ĠÐ¼ÐµÐ¶":4323,"ĠÐ³Ð°Ð²":4324,"Ð°ÐºÑĥ":4325,"ĠÐ½ÑĭÐ½ÐµÑĪ":4326,"ĠÐ±ÑĭÑģÑĤÑĢÐ¾":4327,"ĠÐ·Ð°Ð¿ÑĢ":4328,"Ð¾ÑĢÐ¾Ð¼":4329,"ĠÐ¿Ð¾ÑħÐ¾Ð´":4330,"Ð»Ð¸Ð½Ð³":4331,"ĠÑģÐ½Ð°ÑĩÐ°Ð»Ð°":4332,"ĠÐºÐ¾ÑĢÐ¾Ð»Ñı":4333,"ĠÐºÐ°ÑĢÑĮÐµÑĢÐ°":4334,"ĠÐ´Ñİ":4335,"ĠÐ°ÑĢÑĤÐ¸ÑģÑĤ":4336,"ĠÐ½Ð°Ð²":4337,"ĠÐ·Ð°ÐºÑĢÑĭÑĤ":4338,"Ð¾ÑĩÐ½Ð¾Ð¹":4339,"ĠÐ·Ð½Ð°ÑĩÐµÐ½Ð¸Ðµ":4340,"ĠÐ¾ÑĤÐ»Ð¸ÑĩÐ¸Ðµ":4341,"ĠÑĤÐ²ÐµÑĢ":4342,"ÑİÑīÐ¸Ð¼":4343,"ĠÐ¿ÑĢÐ¾Ð³ÑĢÐ°Ð¼Ð¼Ñĭ":4344,"ĠÐ¸Ð¼Ð¿ÐµÑĢÐ¸Ñı":4345,"ĠÑĥÑĢÐ¾Ð²Ð½Ñı":4346,"ĠÑģÐ»ÐµÐ´ÑĥÑİÑīÐ¸Ð¹":4347,"ĠÑģÐ°Ð¼Ð¾ÑģÑĤÐ¾ÑıÑĤÐµÐ»ÑĮ":4348,"ĠÐ»ÑİÐ±Ð¾Ð²":4349,"Ð¸ÐµÐ¿":4350,"ĠÐ·Ð°Ñĩ":4351,"ĠÑģÐ½Ð¾Ð²Ð°":4352,"ĠÐ¿ÑĭÑĤ":4353,"ĠÑįÐ¿Ð¾Ñħ":4354,"ĠÐ¾Ð·Ð½Ð°Ñĩ":4355,"ĠÐºÐ»Ð¸":4356,"ĠÑģÐµÐ»ÑĮÑģÐ¾Ð²ÐµÑĤÐ°":4357,"Ð°Ð´Ð°ÐµÑĤ":4358,"Ð¸Ð´Ñĭ":4359,"ÑĳÐ½Ð½Ð°Ñı":4360,"ĠÐ¾ÐºÐµ":4361,"ĠÑģÐµÑĢÐ´":4362,"ÑĪÐ¸Ð½":4363,"ĠÐ¿Ð¾Ð»ÐºÐ¾Ð²Ð½Ð¸Ðº":4364,"ĠÑĩÐ°ÑĢ":4365,"ĠÑģÐ¾Ð»Ð´Ð°ÑĤ":4366,"ĠÐ°ÐºÑĤÐ¸Ð²Ð½Ð¾ÑģÑĤÐ¸":4367,"ĠÑģÑĤÐ°Ð½Ð¾Ð²Ð¸ÑĤÑģÑı":4368,"Ð´Ð°Ð²":4369,"Ð¸ÑĢÐ¾Ð²ÐºÐ¸":4370,"ĠÑĤÑĢÐ°":4371,"ĠÑĤÑĥÑĢÐ½Ð¸ÑĢ":4372,"ĠÐºÑĥÐ±Ð¾Ðº":4373,"ĠÑĢÐ°ÑģÐ¿Ð¾Ð»Ð¾Ð¶ÐµÐ½Ð°":4374,"ĠÐ±Ð¾Ð»ÑĮÑĪÐ¾Ðµ":4375,"ĠÐ°Ñģ":4376,"ÐµÑĢÐ°Ð»ÑĮ":4377,"ĠÐ¿Ð¾ÑģÑĢÐµÐ´":4378,"ĠÐºÐ¾Ð½ÑĨÐµÑĢÑĤ":4379,"ĠÑĢÐ°Ð·ÑĢÑĥÑĪ":4380,"ĠÑģÐ°Ð¼Ð¾Ð³Ð¾":4381,"Ð´Ñĥ":4382,"ĠÐ¿ÑĢÐ¾ÑĪÑĥ":4383,"ĠÑģÐ»ÐµÐ²Ð°":4384,"ĠÑĢÐµÐ±":4385,"ĠÐ²Ð¼":4386,"ĠÑĢÐµÑģÑĥÑĢ":4387,"ĠÐ¸Ð·Ð´Ð°Ð½Ð¸Ðµ":4388,"ĠÐ³ÑĢÐµÑĩÐµ":4389,"ĠÐ´ÐµÐ¹ÑģÑĤÐ²Ð¸ÑĤÐµÐ»ÑĮÐ½Ð¾":4390,"ĠÑıÐºÐ¾Ð²":4391,"ĠÐºÐ¾Ð½ÑĦÐµÑĢÐµÐ½":4392,"ĠÐ¹Ð¾ÑĢÐº":4393,"ĠÐ¼ÑĥÐ½Ð¸ÑĨÐ¸Ð¿Ð°Ð»Ð¸ÑĤÐµÑĤ":4394,"ÐµÐ³Ð¾ÑģÑı":4395,"ĠÐ¿Ð¾Ð»Ð½Ð¾Ð¼":4396,"ĠÐ²ÐµÐ»Ð¸Ñĩ":4397,"ĠÐ¿ÐµÑĤÑĢÐ¾Ð²":4398,"ĠÑĩÐ°ÑģÑĤÑĮÑİ":4399,"ĠÑĢÐµÐºÐ¾Ð¼":4400,"ĠÑĢÑĥÐ¼ÑĭÐ½":4401,"ĠÐ¿Ð¾Ð´ÑħÐ¾Ð´":4402,"ĠÐ°ÑĢÑħÐ¸ÑĤÐµÐºÑĤÐ¾ÑĢ":4403,"ĠÐºÐ¾Ð¼Ð¸ÑĤÐµÑĤ":4404,"ĠÐ´Ð¾Ð³Ð¾Ð²Ð¾ÑĢ":4405,"ĠÐ´ÐµÑĢÐµÐ²Ð½Ðµ":4406,"ĠÐ±ÐµÐ³":4407,"Ð¾Ð¿Ð¾Ð»Ð¾Ð¶":4408,"ĠÑĤÐ¾ÑĢÐ³Ð¾Ð²":4409,"ÐµÑĢÐ°Ð¼Ð¸":4410,"ĠÐ±Ð°ÑģÐº":4411,"ĠÐ¸Ð·Ð´Ð°Ð½Ð¸Ñı":4412,"Ð°Ð½Ð¾Ð²Ð°":4413,"Ð½ÑİÑİ":4414,"ĠÑģÑĢÐ°Ð¶ÐµÐ½Ð¸Ñı":4415,"ĠÑĥÐ»ÑĮ":4416,"ÐºÐ¸Ð¼Ð¸":4417,"ĠÑįÐ¿Ð¸Ð·Ð¾Ð´":4418,"ÐµÑĢÑĤÐ²":4419,"ÑĥÑīÐµÑģÑĤÐ²ÐµÐ½Ð½Ð¾":4420,"ĠÐ°ÑĢÐ¼Ð¸Ñı":4421,"ĠÐ¿Ð°ÑģÑģÐ°Ð¶":4422,"ĠÐ»ÑĳÐ³":4423,"ĠÐ´Ð²ÑĥÐ¼Ñı":4424,"ĠÐ´Ð¾Ð»Ð»":4425,"ĠÐ´Ð¾Ð¼Ð°ÑĪ":4426,"ĠÐµÐ³Ð¸Ð¿":4427,"ĠÐ¿Ð°ÑĢÐ°Ð¼ÐµÑĤ":4428,"ĠÑĢÑĭÐ±":4429,"ĠÐ¿ÑĢÐ¸ÑģÑĤ":4430,"ĠÐ²Ð»Ð°Ð´Ð¸Ð¼Ð¸ÑĢÐ¾Ð²":4431,"ÑĢÐ¾Ð·":4432,"ĠÑĢÐµÑĦÐ¾ÑĢÐ¼":4433,"ÐºÐ¾Ð²ÑģÐºÐ¾Ð³Ð¾":4434,"ĠÑħÐ¾Ñĩ":4435,"ĠÑĤÐ°ÑĢ":4436,"ÐµÐ²Ð½Ð°":4437,"ĠÐ°Ð½Ð³Ð»Ð¸Ð¸":4438,"ĠÐºÑĢÐ°ÑģÐ½Ð¾Ð¹":4439,"Ð¾ÑıÐ½Ð¸Ðµ":4440,"ĠÐºÐ¾Ð½ÐµÑĩÐ½Ð¾":4441,"ĠÑģÑĦÐ¾ÑĢÐ¼":4442,"ĠÐ·Ð°Ð½ÑıÐ»":4443,"ĠÐ·ÐµÐ¼Ð»Ñı":4444,"ĠÐ¿ÐµÑĢÐµÑĩ":4445,"ĠÐ¼Ð½ÐµÐ½Ð¸Ðµ":4446,"ĠÑģÐ¿ÑĥÑģÑĤÑı":4447,"ĠÐºÐ°ÐºÐ¸Ðµ":4448,"Ð°ÐµÐ²":4449,"Ð°Ð´Ð¶":4450,"ĠÐ´Ð¾ÑħÐ¾Ð´":4451,"ĠÐ¾ÑģÑĤÐ°Ð½Ð¾Ð²":4452,"ĠÐ¾Ð´Ð½Ñĥ":4453,"ĠÐ¼Ð¸ÑħÐ°Ð¹Ð»Ð¾Ð²Ð¸Ñĩ":4454,"ĠÐµÐµ":4455,"ĠÐ²Ð°Ð½Ð´":4456,"ĠÐºÐ°Ð²ÐºÐ°Ð·":4457,"ĠÐ¿ÐµÑħÐ¾ÑĤ":4458,"ĠÐ¿Ð¾Ð²ÑĭÑĪ":4459,"ĠÑįÐºÑģÐ¿Ð»Ñĥ":4460,"ĠÐ°Ð´Ð¼Ð¸Ð½Ð¸ÑģÑĤÑĢÐ°ÑĤÐ¸Ð²Ð½ÑĭÐ¹":4461,"ĠÑģÑĩÐ¸ÑĤÐ°ÐµÑĤÑģÑı":4462,"ĠÑĢÐµÐ°Ðº":4463,"ĠÑĤÐµÐ°ÑĤÑĢÐ°Ð»ÑĮ":4464,"ĠÐ¿ÐµÑĩÐ°ÑĤ":4465,"ĠÑģÐ¾Ð²Ð¼ÐµÑģÑĤÐ½Ð¾":4466,"ĠÑĤÐ°ÐºÐ¾Ð³Ð¾":4467,"Ð¸ÑĢÑĥÐµÑĤÑģÑı":4468,"ÑĨÐµÐ½Ð·":4469,"Ð°Ð»ÑĮÐ½ÑĥÑİ":4470,"ĠÑģÑĤÐ¸Ð»ÑĮ":4471,"ĠÐºÐ»Ð°ÑģÑģÐ°":4472,"ĠÐ¿Ð¾Ð¼Ð¾ÑīÐ¸":4473,"ĠÑĥÐ´Ð°Ð»ÐµÐ½Ð¸Ðµ":4474,"ĠÐ»Ð¸ÑĤÐµÑĢÐ°ÑĤÑĥÑĢÑĭ":4475,"ĠÐºÐ¾Ð·":4476,"ĠÐ²Ð°":4477,"ĠÐ´Ð°Ð»ÐµÐµ":4478,"ĠÐ½Ð¸Ð´ÐµÑĢÐ»Ð°Ð½Ð´":4479,"ĠÐ¼Ð°Ñħ":4480,"ĠÑĦÐ°Ð±":4481,"ĠÐ½ÐµÐ»ÑĮ":4482,"ĠÐºÑĢÐ°ÑģÐ½":4483,"ĠÐ½Ð¾ÑĢÐ²":4484,"ĠÐ½Ð¾Ð²Ð³Ð¾ÑĢÐ¾Ð´":4485,"ĠÐºÐ¾Ð»Ð»ÐµÐº":4486,"ĠÑĢÐ°Ð±Ð¾ÑĤÐ°ÐµÑĤ":4487,"Ð½ÑĮ":4488,"ĠÐ¾ÑĢÑĥÐ´":4489,"ĠÐ¿ÑĢÐµÑģÑĤ":4490,"ĠÐºÐ½ÑıÐ¶Ðµ":4491,"ĠÐ±ÐµÑĢÐ»Ð¸Ð½":4492,"Ð´Ð¾Ð²":4493,"ĠÐ¿Ð¾Ð¼Ð¸Ð¼Ð¾":4494,"ĠÐ´Ð¾Ð»Ð¶Ð½Ð¾ÑģÑĤÐ¸":4495,"ĠÐ¿Ñĭ":4496,"Ð¶ÐµÑĤÑģÑı":4497,"ĠÐ·Ð¾Ð»Ð¾ÑĤÐ¾Ð¹":4498,"ĠÐ»Ð¾Ð´":4499,"ĠÑģÐ°Ð¼Ð¾Ð¼":4500,"ĠÐ½Ð°ÑĩÐ°Ð»ÑĮÐ½Ð¸Ðº":4501,"ĠÐ¿Ð¾Ð´ÑĢÐ°Ð·Ð´ÐµÐ»":4502,"ĠÐ¼ÑĥÐ¶Ñĩ":4503,"ĠÐ°ÑģÑģÐ¾ÑĨÐ¸":4504,"ĠÐ´Ð¶Ð¾ÑĢ":4505,"ĠÑĤÐ¾Ð¹":4506,"ĠÑģÐ¿Ð±":4507,"Ð¸Ð·Ð°":4508,"ĠÐ¿ÑĢÐµÑģÑģ":4509,"ĠÐ²Ð¾ÐµÐ½Ð½Ð¾Ð³Ð¾":4510,"ĠÐ¿ÑĢÐµÐ´Ð¿ÑĢÐ¸Ð½":4511,"ĠÑĢÐ°Ð´Ð¸Ð¾":4512,"ĠÐ°ÑĢÑħÐµ":4513,"Ð°ÐºÑĤÐ¸Ð²":4514,"ĠÐ¶ÑĥÑĢÐ½Ð°Ð»Ð°":4515,"ĠÑĨÐµÐ»Ð¾Ð¼":4516,"ÑĨÑĥ":4517,"ĠÑĤÑĢÐµÐ±Ð¾Ð²Ð°Ð½Ð¸Ñı":4518,"ĠÐ°ÑĢÑħÐ¸ÐµÐ¿":4519,"ĠÐ´Ð¾ÐºÐ°Ð·Ð°ÑĤÐµÐ»ÑĮ":4520,"ĠÐ´Ð²Ð¸Ð¶ÐµÐ½Ð¸Ðµ":4521,"ĠÐ½ÐµÐ¿Ð¾Ñģ":4522,"ÐµÐ¼ÑĭÐ¹":4523,"ĠÑĢÑĭÐ½":4524,"Ð¾ÑĩÐ½ÑĭÑħ":4525,"ĠÐºÐ¾Ð¼Ð¼ÑĥÐ½Ð°":4526,"Ð¸Ð½ÑĮ":4527,"ĠÐºÐ¾Ð½ÑĤÑĢÐ°ÐºÑĤ":4528,"ĠÐ¾Ð¿Ð°Ñģ":4529,"ĠÐ¾Ð¿ÑĢÐµÐ´ÐµÐ»Ñı":4530,"Ð¸ÑĨÐ¸Ð¹":4531,"ĠÐ¿Ñĥ":4532,"ĠÑģÐ¾ÑĩÐ¸Ð½":4533,"ĠÐ½Ð¸ÐºÑĤÐ¾":4534,"Ð³ÐµÐ»ÑĮ":4535,"ĠÑģÐ½ÑıÑĤ":4536,"ĠÐ¸Ð·Ð²ÐµÑģÑĤÐ½Ð¾":4537,"ĠÑĪÐºÐ¾Ð»Ñĥ":4538,"Ð°Ð½Ð½Ð¾Ð¹":4539,"Ð¾ÑģÑĤÑĢÐ¾":4540,"ĠÐ±ÐµÑģ":4541,"ĠÐ»ÐµÐº":4542,"ĠÐºÐ¾Ð½ÑģÑĤÑĢÑĥÐº":4543,"Ð¾Ð²Ð°Ð»Ð¾":4544,"ĠÐ°Ð²ÑĤÐ¾Ð±":4545,"Ð°Ð´ÑĮ":4546,"ĠÐ¿Ð°Ð²ÐµÐ»":4547,"ÐºÐ¾Ð²Ð¾":4548,"ĠÑģÐ¾Ð·Ð´Ð°Ð²":4549,"ĠÐ²ÑĢÐµÐ¼ÐµÐ½":4550,"ĠÑĤÑĢÐ°ÐºÑĤ":4551,"ĠÑįÑĤÐ½":4552,"Ð°Ð²Ð°":4553,"ĠÑĪÐ²ÐµÐ´":4554,"ĠÑģÐ¾ÑģÑĤÐ°Ð²Ð»ÑıÐ»Ð¾":4555,"ĠÑĥÑģÐ»":4556,"ĠÐ¿ÑĢÐ¾Ð´ÑĥÐºÑĤ":4557,"ĠÐ´Ð¾Ð»Ð¶Ð½Ð¾":4558,"ĠÑįÐ½ÑĨÐ¸ÐºÐ»Ð¾Ð¿ÐµÐ´Ð¸Ñı":4559,"ĠÐ²Ð¾Ð»Ð¾ÑģÑĤÐ¸":4560,"ĠÐ¿ÑĢÐ¾Ð²Ð¸Ð½ÑĨÐ¸Ñı":4561,"ÐµÐ¼ÑĭÐµ":4562,"ĠÐ¿ÑĢÐ¾ÑħÐ¾Ð´Ð¸ÑĤ":4563,"ĠÑĢÐ°Ð·Ð´":4564,"Ð¸ÑĤÐµÐ»ÑĮÐ½Ð°Ñı":4565,"ĠÐ¸Ð´ÐµÐ½ÑĤÐ¸ÑĦÐ¸ÐºÐ°ÑĤÐ¾ÑĢÐ°":4566,"ĠÑĩÐµÐ»Ð¾Ð²ÐµÑĩ":4567,"Ð¸Ð²Ð°ÑİÑĤ":4568,"ĠÑĢÐµÐ¶Ð¸Ð¼":4569,"Ð¶Ð´Ðµ":4570,"ĠÐºÐ¸ÑĢÐ¾Ð²":4571,"ĠÐ½ÐµÐ³":4572,"ĠÑģÐµÐ¼ÑĮÐ¸":4573,"ĠÑħÐ¾ÐºÐºÐµ":4574,"ĠÑĦÐ¾ÑĤÐ¾":4575,"ĠÑĩÑĥÐ²":4576,"ĠÐ¸ÑģÑĤÑĢÐµÐ±":4577,"ĠÐ»Ð°ÑĤÐ²":4578,"ĠÐ³Ð»Ð°Ð·":4579,"ĠÐ´Ð¸Ð°Ð»":4580,"ÐµÐ´Ð¸Ð½Ðµ":4581,"ÑģÑĤÐ²ÐµÐ½Ð½ÑĭÑħ":4582,"ĠÐ°ÑĢÑĤÐ¸Ð»Ð»ÐµÑĢÐ¸Ð¹":4583,"ÐµÐ²ÑģÐºÐ¾Ð³Ð¾":4584,"Ð¸ÑĤÐµÐ»ÑıÐ¼Ð¸":4585,"ÑıÐ»Ð°":4586,"ĠÐ±ÐµÐ·Ð¾Ð¿Ð°ÑģÐ½Ð¾ÑģÑĤÐ¸":4587,"ĠÑģÐ»ÑĥÐ¶Ð±Ñĥ":4588,"ĠÑģÑĥÐ¿ÑĢÑĥÐ³":4589,"ĠÐ±ÐµÐ´":4590,"ĠÐ¿ÑĢÐµÐ¾Ð±ÑĢÐ°Ð·":4591,"ĠÐºÐ¾Ð½ÑģÑĤÐ¸ÑĤÑĥ":4592,"ĠÐ²Ð¸ÑĢ":4593,"ĠÐ²Ð°Ð³":4594,"Ð¸Ð½ÑģÐºÐ¸Ñħ":4595,"ĠÑĤÐµÐ¾ÑĢÐ¸Ð¸":4596,"ĠÐ¿ÑĢÐ¾ÑĤÐ¸Ð²Ð½Ð¸ÐºÐ°":4597,"ĠÑģÐ±Ð¾ÑĢÐ½Ð¸Ðº":4598,"ÑĢÐ¾Ð¿Ð¾Ð»Ð¸ÑĤ":4599,"ĠÐ´ÐµÐ²ÑĥÑĪ":4600,"Ð¸Ð´Ð¾Ð²":4601,"ĠÑĥÐ´Ð°Ð»ÐµÐ½Ð¾":4602,"ĠÐ¸Ð½ÑĤÐµÑĢÐ½ÐµÑĤ":4603,"ĠÐºÑĥÐ»":4604,"ĠÐ±Ð°Ñģ":4605,"ĠÐ¼ÑĥÑħ":4606,"ĠÐ¾ÑĤÐ¿":4607,"ĠÐ¾Ð¿ÐµÑĢÐ°ÑĨÐ¸Ð¸":4608,"ĠÑĢÐµÐ³ÑĥÐ»ÑıÑĢ":4609,"ÑıÑĤÑĮÑģÑı":4610,"ĠÐ¸Ð»Ð»Ñİ":4611,"ÑĪÐ¸Ð¼Ð¸":4612,"ĠÐ¸Ð½ÐºÑĥÐ±Ð°ÑĤÐ¾ÑĢ":4613,"ĠÐ²Ð¾Ð´Ñĭ":4614,"ĠÐ·ÐµÐ»Ñĳ":4615,"ĠÐ¿ÑĢÐ¾Ð¸ÑģÑħÐ¾Ð´":4616,"ĠÐ´Ð¶Ð¾ÑĢÐ´Ð¶":4617,"ĠÐ¶ÑĥÑĢÐ½Ð°Ð»Ð¸ÑģÑĤ":4618,"ĠÑĦÐ¾ÑĢÑĤ":4619,"ĠÐ²ÐµÑĢÑģÐ¸Ñı":4620,"ĠÐ»ÐµÐ´":4621,"Ð°Ð»ÑĮÐ´":4622,"ĠÑĢÐµÑĨÐµÐ½Ð·":4623,"ĠÐ±Ð¾Ð¼Ð±Ð°ÑĢÐ´":4624,"ÐµÐ½ÑĤÐ¾Ð¼":4625,"ÑĢÐ¾ÑĪ":4626,"ĠÐºÐ¾Ð¼Ð¿Ð¾Ð·Ð¸ÑĤÐ¾ÑĢ":4627,"ĠÐ°Ð·Ð¸Ð¸":4628,"ĠÑģÐ¾ÑģÐµÐ´":4629,"ÑĭÐ²Ð°ÐµÑĤÑģÑı":4630,"ĠÐ±ÑĥÐ»":4631,"ĠÐ·Ð°Ð¼ÐµÑģÑĤÐ¸ÑĤÐµÐ»ÑĮ":4632,"ĠÑĦÐ¸ÑĢ":4633,"Ð¸Ð·Ð°ÑĨÐ¸Ñı":4634,"ĠÐ¾Ð±Ð»":4635,"ĠÑĢÐµÐ²Ð¾Ð»ÑİÑĨÐ¸Ð¸":4636,"ÑĥÐ¼Ð°Ð½":4637,"ÑĳÑĤÑĢ":4638,"ĠÐ¿Ð¾Ð·Ð¸ÑĨÐ¸Ð¸":4639,"ĠÐ¿Ð¾Ð»ÑĮÐ·Ð¾Ð²":4640,"ĠÐ¸ÑģÑģÐ»ÐµÐ´Ð¾Ð²Ð°ÑĤÐµÐ»ÑĮ":4641,"ĠÑĥÐ²Ð¸Ð´":4642,"ĠÐ²ÑĭÐ½ÑĥÐ¶Ð´":4643,"ĠÑĪÐ¾ÑĤ":4644,"ĠÐ¼ÑĥÑĢ":4645,"ĠÐ°Ð½Ð°ÑĤÐ¾Ð»":4646,"Ð¸Ð²Ð°Ð½Ð¸Ñı":4647,"Ð¸ÑĨÐ¸":4648,"ĠÐ¿ÐµÑĢÐµÑĥÐ»Ð¾Ðº":4649,"ĠÐ½ÐµÐ½":4650,"ĠÑĩÐµÑĤÐ²ÐµÑĢ":4651,"ĠÐ·Ð°Ð²Ð¸ÑģÐ¸Ð¼":4652,"ĠÐ¾ÑĤÑĨÐ°":4653,"ĠÐ°Ð»ÐµÐºÑģÐ°Ð½Ð´ÑĢÐ¾Ð²":4654,"Ð¾Ð²Ð¾Ðµ":4655,"ĠÐ¸ÑģÑħÐ¾Ð´":4656,"ĠÑįÑĦ":4657,"ÑĤÐ¾ÑĢÐ°Ñı":4658,"ĠÐ¿ÐµÑĢÐµÑĪÑĳÐ»":4659,"ĠÑģÐ»ÑĥÐ¶Ð¸Ð»":4660,"ÑĥÑİÑīÐµÐ³Ð¾":4661,"ĠÐ±Ð¸Ð±Ð»Ð¸Ð¾ÑĤÐµÐº":4662,"ÐµÑĢÐ¸Ð¸":4663,"ĠÐ¿ÐµÑĢÐµÐ³":4664,"Ð»ÑıÐ»":4665,"ĠÐ¿ÑĢÐµÐ´ÑĪ":4666,"ĠÑĤÑĢÐ°Ð½Ñģ":4667,"ĠÑĤÐµÑĢÑĢÐ¸ÑĤÐ¾ÑĢÐ¸Ñı":4668,"ĠÐ¾ÑĢÐº":4669,"ĠÐ±Ð¾Ð±":4670,"ĠÐ½Ð°ÑĥÑĩÐ½ÑĭÑħ":4671,"ĠÐ¼Ð¸Ð½Ð¸ÑģÑĤÐµÑĢÑģÑĤÐ²Ð°":4672,"ĠÐ¿ÑĳÑĤÑĢ":4673,"ĠÐ¸ÑģÐ¿Ð¾Ð»ÑĮÐ·Ð¾Ð²Ð°Ð½Ð¸Ðµ":4674,"ĠÐºÐµÐ¼":4675,"ÑģÐ¾Ð»":4676,"ĠÐ²Ð»Ð°Ð´Ð¸Ð¼Ð¸":4677,"ĠÐºÐ¾Ð²":4678,"ĠÑĩÐ¸ÑģÐ»Ð°":4679,"Ð°Ð»Ð¾Ð¼":4680,"ĠÑģÐ¾ÑĦ":4681,"Ð°ÐµÑĤÐµ":4682,"ĠÐ¿Ð°Ð´":4683,"ĠÑĢÐµÐ¹ÑĤÐ¸Ð½Ð³":4684,"ĠÐ´Ð¾Ð²Ð¾Ð»ÑĮÐ½Ð¾":4685,"Ð²Ð°ÑĢÐµ":4686,"ĠÐ¿ÐµÑĢÐµÐº":4687,"Ð°Ð½Ð¸ÐµÐ¹":4688,"ĠÐ¸Ð³ÑĢÐ°Ð»":4689,"ĠÑģÑĤÐ°Ð±":4690,"ÑĥÑģÑĮ":4691,"ĠÐ·Ð°Ð¿ÑĢÐµ":4692,"ĠÐ±Ð¾ÐºÑģ":4693,"ĠÐ²ÑĤÐ¾ÑĢÐ°Ñı":4694,"Ð¸ÑĤÐ°ÑĢ":4695,"ĠÐ²Ð¾ÐµÐ½Ð½Ð¾Ð¹":4696,"ĠÐ¸ÑģÐ¿Ð¾Ð»ÑĮÐ·Ð¾Ð²Ð°Ð»":4697,"ÑĭÑģÐ»":4698,"ĠÐ»ÐµÑĩ":4699,"ĠÐ½ÐµÐ¿Ð¾ÑģÑĢÐµÐ´":4700,"ĠÑģÐ°Ñħ":4701,"ÑģÑĥ":4702,"Ð°Ð´ÑĨ":4703,"ĠÑįÐºÑģÐ¿ÐµÑĢÐ¸Ð¼":4704,"ĠÑģÑĭÐ³ÑĢÐ°Ð»":4705,"ĠÐ²ÑĢÐ°":4706,"ĠÐ¿ÑĢÐµÐ´Ð¿Ð¾Ð»Ð¾Ð¶":4707,"Ð¸Ð»Ð¾Ð²":4708,"ĠÑģÐ²ÑıÑĤÐ¾Ð¹":4709,"ĠÐ´Ð½ÐµÐ¿":4710,"ĠÑĤÑĥÑĢÐµÑĨ":4711,"ĠÐ´ÐµÑĤÐ¸":4712,"ĠÐ¿ÑĢÐ¾Ð¸Ð·Ð²ÐµÐ´ÐµÐ½Ð¸Ð¹":4713,"ÐºÐ¾Ð¼Ð°":4714,"ĠÑĨÐ²ÐµÑĤÐ°":4715,"ĠÐ·Ð½Ð°ÐºÐ¾Ð¼":4716,"Ð¾Ð´Ð¾ÑĢ":4717,"ĠÐ¿ÑĢÐ°Ð²Ð¾Ðº":4718,"ĠÐ¼Ð½Ð¾Ð³Ð¾ÑĩÐ¸Ñģ":4719,"ĠÐ°ÑĢÐ°Ð±":4720,"Ð¾ÑĤÐ¸Ð¿":4721,"ÑĢÐ°ÑĪ":4722,"ĠÐ¿ÐµÑĢÐµÑģÑĤ":4723,"ĠÐ¾ÑĩÐµÑĢÐµÐ´ÑĮ":4724,"ĠÑĦÑĢÐ°Ð½ÑĨÑĥÐ·ÑģÐºÐ¸Ð¹":4725,"ĠÐºÐ°ÑģÑĤ":4726,"ĠÐ´Ð²Ð¾ÑĢÑıÐ½":4727,"ĠÑģÐ¸Ð»ÑĮÐ½Ð¾":4728,"ÑıÑīÐ¸Ñħ":4729,"ĠÐ»ÐµÑĤÐ¾Ð¼":4730,"ĠÐ¸ÑģÐ¿Ð¾Ð»Ð½Ñı":4731,"ĠÐ´Ð¸Ð½Ð°Ð¼Ð¾":4732,"ĠÑģÐ¾Ð¾ÑĤÐ²ÐµÑĤÑģÑĤÐ²ÐµÐ½Ð½Ð¾":4733,"Ð°Ð½Ð°Ð²Ð»Ð¸Ð²":4734,"ĠÐ¸Ð½ÑĦÐ¾ÑĢÐ¼Ð°ÑĨÐ¸Ñİ":4735,"ĠÑĥÑĩÐ¸Ð»Ð¸ÑīÐµ":4736,"ÐµÑģÐº":4737,"ĠÐ¾Ð±Ð¾ÑĢÐ¾Ð½":4738,"Ð½ÐµÑĨ":4739,"ĠÐ²ÑĭÐ²Ð¾Ð´":4740,"ĠÐ²Ð¸Ð»":4741,"ĠÑĪÑĤÑĥÑĢ":4742,"ĠÐ¿ÑĥÑĤÐµÑĪ":4743,"ĠÐ°Ð²ÑĤÐ¾ÑĢÐ°":4744,"ĠÐ²ÐµÑĢÑĤ":4745,"ĠÐ°ÑĢÐ³ÐµÐ½ÑĤ":4746,"ĠÑĦÐ»Ð¾ÑĤÐ°":4747,"ĠÑģÑĢÐµÐ´ÑģÑĤÐ²":4748,"ĠÑĦÐ¸Ð½Ð»ÑıÐ½Ð´":4749,"ĠÐ¾Ð±Ð¾ÑĢÑĥÐ´":4750,"ĠÐ±Ð»Ð¸Ð¶Ð°Ð¹":4751,"Ð»ÐµÐ±":4752,"ĠÐ´ÐµÐ¹ÑģÑĤÐ²Ð¸Ð¹":4753,"ĠÐ²Ð¾ÐµÐ½Ð½ÑĭÐ¹":4754,"ĠÑģÐµÑĢÑĮÑĳÐ·":4755,"ĠÑģÐ¾Ð·Ð´Ð°Ð½Ð¸Ðµ":4756,"ĠÐ±ÐµÐ»Ð°ÑĢ":4757,"ĠÑĦÐµ":4758,"ĠÑĦÐ°ÐºÑĥÐ»ÑĮÑĤÐµÑĤ":4759,"ÐµÐµÑħ":4760,"ÑĥÐ´ÑĮ":4761,"ĠÐ»ÐµÐ¹Ð±":4762,"ĠÑĢÐ¾Ð±ÐµÑĢÑĤ":4763,"ĠÐ´ÐµÑıÑĤ":4764,"ĠÐ½ÐµÐ¼ÐµÑĨÐºÐ¸Ð¹":4765,"Ð¼ÐµÐ¹":4766,"ĠÑģÐ¾Ð³Ð»Ð°ÑĪ":4767,"ĠÑħÑĢÐ¾Ð½":4768,"ĠÑıÑģ":4769,"ĠÐ¿Ð¾Ð±ÐµÐ´Ñĭ":4770,"ĠÐ¼Ð½Ð¾Ð¶ÐµÑģÑĤÐ²Ð¾":4771,"ĠÐ¿ÐµÑĢÐµÐµÑħ":4772,"ĠÑģÐ´":4773,"ÑĢÐ°Ð»Ð¸":4774,"ĠÐ°ÐºÑĤÑĢÐ¸ÑģÐ°":4775,"ÑģÑĤÑĢÐ¾Ð¹":4776,"ĠÑĪÐ¾ÑĤÐ»Ð°Ð½Ð´":4777,"ĠÑģÐ²ÐµÐ´ÐµÐ½Ð¸Ñı":4778,"ĠÑģÐ»ÑĥÑĩÐ°Ñı":4779,"ĠÑģÐ²Ð¾ÑĳÐ¼":4780,"Ð¸Ð¶Ñĥ":4781,"ĠÐ²Ð½ÐµÑģ":4782,"ĠÑĥÐ´Ð°Ð»ÑıÐ»Ð°ÑģÑĮ":4783,"Ð¸ÑĢÐ¾Ð²Ð°Ð»Ð¸":4784,"ĠÐ¿ÐµÑĤÑĢÐ¾Ð²Ð¸Ñĩ":4785,"ĠÐ¿Ð¾ÑģÐ»ÐµÐ´Ð½Ð¸Ðµ":4786,"ĠÑĤÐ¾Ð²Ð°ÑĢÐ¸":4787,"ĠÑģÑĤÑĢÐ°Ð½Ðµ":4788,"ĠÑģÐµÐ½ÑĤÑıÐ±ÑĢÐµ":4789,"ÐµÐ½Ð½Ð¾Ð¼":4790,"ĠÐ¸Ð·Ð¼ÐµÐ½ÐµÐ½Ð¸Ñı":4791,"ĠÐºÐ°Ð·Ð°ÑħÑģÑĤÐ°Ð½Ð°":4792,"ĠÑĢÐ°Ð±Ð¾ÑĤÐ°ÑĤÑĮ":4793,"ĠÑĪÐ¾Ñĥ":4794,"ĠÐ½Ð°ÑħÐ¾Ð´Ð¸Ð»ÑģÑı":4795,"ĠÐ»Ð°Ð·":4796,"ĠÐ¿ÑĥÑĤÑĮ":4797,"ĠÑĨÐµÐ½ÑĤÑĢÐµ":4798,"ĠÑģÐ¾Ð¾ÑĤÐ²ÐµÑĤÑģÑĤÐ²ÑĥÐµÑĤ":4799,"ĠÐ·Ð°Ð¿Ð°Ð´Ðµ":4800,"ĠÐ¾Ð³ÑĢÐ¾Ð¼":4801,"ĠÑĦÑĢÐ¾Ð½ÑĤÐ°":4802,"ĠÑįÐºÑģÐ¿ÐµÐ´":4803,"ĠÑģÐºÐ¾Ð½Ñĩ":4804,"ĠÐ¿Ð¾ÑĢÑĤÑĢÐµÑĤ":4805,"ĠÐ¸Ð¾Ð°Ð½":4806,"ĠÐ¸ÑĤÐ¾Ð³Ðµ":4807,"ĠÑĪÑĤÐ°ÑĤÐ°":4808,"ĠÑĥÐ²Ð°Ð¶ÐµÐ½Ð¸ÐµÐ¼":4809,"Ð¸ÑĥÐ¼Ð°":4810,"ĠÐ·Ð°Ð²Ð¾Ð´Ð°":4811,"ĠÐ±Ð¸ÑĢ":4812,"ĠÐ°Ð´Ð¼Ð¸":4813,"ĠÐ·Ð°Ð¿ÑĢÐ¾Ñģ":4814,"ĠÑĦÑĢÐ¸Ð´":4815,"ĠÑģÐ²Ð¸Ð´ÐµÑĤÐµÐ»ÑĮ":4816,"ĠÐ¿ÑĢÐ¾Ð¸Ð³":4817,"ĠÐ¼Ð¸ÑĦ":4818,"ĠÐ¼ÐµÐ¶Ð´ÑĥÐ½Ð°ÑĢÐ¾Ð´Ð½Ð¾Ð³Ð¾":4819,"Ð½Ð°Ð¼":4820,"ÑĥÐºÐ°":4821,"Ð¾ÑĢÑĦ":4822,"ĠÐ¾ÑĢÐ´ÐµÐ½Ð¾Ð¼":4823,"ÑĢÐ¾Ð½Ð¾Ð¼":4824,"ĠÐ¿Ð¾ÑģÐ»":4825,"Ð¾ÑıÐ·ÑĭÑĩ":4826,"ĠÐ´ÑĥÐ¼Ð°Ñİ":4827,"ÑĢÑĥÐ»Ð¸":4828,"ĠÑĢÐµÑĩÑĮ":4829,"ĠÐ¿ÐµÑģÐµÐ½":4830,"Ð°Ð½Ð½Ð°Ñı":4831,"ĠÐ¿Ð¸ÑģÐ°ÑĤÑĮ":4832,"ĠÐ±Ð¾Ð»ÐµÐ·":4833,"Ð¾ÑİÐ·":4834,"ĠÐ´ÐµÐ»Ð°ÑĤÑĮ":4835,"Ð¸ÑĢÐ¾Ð²Ð°Ð½Ð¾":4836,"ĠÐºÐ°Ð¶ÐµÑĤÑģÑı":4837,"ĠÑĩÐ»ÐµÐ½Ð¾Ð²":4838,"ĠÑĢÐµÑģÐ¿ÑĥÐ±Ð»Ð¸ÐºÐ°":4839,"Ð°ÑĤÑĥ":4840,"ÑĥÐ»Ñĭ":4841,"ĠÐ·Ð°Ð½ÑıÑĤ":4842,"ĠÑĦÑĢÐ°Ð½ÑĨÐ¸Ñı":4843,"ĠÐ¿Ð¾Ð¶Ð°Ð»ÑĥÐ¹":4844,"ĠÑģÐ½Ñı":4845,"ĠÐ¸Ð¼ÐµÐµÑĤÑģÑı":4846,"ĠÐ¿Ð¸ÑģÐ°Ð»":4847,"Ð³Ð¸Ð½":4848,"ĠÐ¿ÑĢÐ¾ÑĦ":4849,"ĠÑĨÐµÐ½ÑĤÑĢÐ¾Ð¼":4850,"ĠÐ¿ÑĢÐ°Ð²Ð¸ÑĤÐµÐ»ÑĮÑģÑĤÐ²Ð¾":4851,"Ð¸ÑĨÑĥ":4852,"ĠÐºÐ¾Ð½ÑģÐµÑĢÐ²":4853,"ĠÑĨÐµÐ½ÑĤÑĢÐ°Ð»ÑĮÐ½Ð¾Ð¹":4854,"Ð½Ð°Ð·Ð½Ð°Ñĩ":4855,"ĠÐ´Ð¸Ñģ":4856,"ĠÑģÑĤÑĢÐ°ÑĤ":4857,"ĠÐ¼ÐµÐ´Ð°Ð»Ð¸":4858,"ĠÐ½Ð¸Ð±":4859,"ĠÑĥÐ±Ð¸ÑĤ":4860,"ĠÐ¿ÑĢÐ¾ÑĦÐ¸Ð»ÑĮ":4861,"ĠÐ·Ð°Ð±Ð¾Ð»":4862,"ĠÑĥÐ´Ð°Ð»ÐµÐ½Ð¸Ñİ":4863,"ĠÐ²Ð¾Ð»Ð¾Ð³":4864,"ĠÑĢÐ¸Ñĩ":4865,"ĠÑģÐµÐ¼ÑĳÐ½":4866,"ĠÐ²Ð¾ÐºÑĢÑĥÐ³":4867,"ĠÐ±Ð¸Ð·Ð½":4868,"ĠÐ¾ÑĤÑĩÑĳÑĤ":4869,"ĠÐ½Ð°ÑĥÑĩÐ½ÑĭÐ¹":4870,"ĠÐ±ÐµÐ»ÑĮÐ³":4871,"ĠÐ½Ð¾Ð³":4872,"ĠÐ½Ð¾Ð¼Ð¸Ð½Ð°ÑĨÐ¸Ð¸":4873,"Ð³ÐµÐ½":4874,"ĠÑģÐ±Ð¾ÑĢÐ½ÑĥÑİ":4875,"ĠÐ¼Ð¾ÑĢÐµ":4876,"ĠÑĤÐ¾Ðº":4877,"ĠÐ°Ð½Ð³Ð»Ð¸Ð¹ÑģÐºÐ¸Ð¹":4878,"ĠÑĤÐµÐ»ÐµÑģÐµÑĢÐ¸Ð°Ð»":4879,"ĠÑģÐ¼ÑĭÑģ":4880,"ĠÐ±ÑĢÑİ":4881,"ÑĥÐ³Ð¾Ð»ÑĮ":4882,"ÑĢÐ°Ð½Ñĭ":4883,"ĠÐ¸Ð·Ð²ÐµÑģÑĤÐ½ÑĭÐ¹":4884,"ĠÑĢÐ°ÐºÐµÑĤ":4885,"ĠÐ¿ÑĢÐµÐ´Ð½Ð°Ð·Ð½Ð°Ñĩ":4886,"ĠÐ¼Ð°ÑĤÑĩÐµÐ¹":4887,"ÑģÑĤÐµÑĢ":4888,"Ð¾ÑģÐ½":4889,"ĠÐ³Ð¾Ð²Ð¾ÑĢÐ¸ÑĤ":4890,"ĠÑİÑĢÐ¸Ð´":4891,"Ð½Ð¾ÑĪ":4892,"Ð±Ð¸Ð»":4893,"ĠÐ°Ð»ÑĮÐ±Ð¾Ð¼Ñĭ":4894,"ĠÐ´ÐµÐ¿Ð°ÑĢÑĤÐ°Ð¼ÐµÐ½ÑĤ":4895,"ĠÐ¼Ð°Ðµ":4896,"ĠÑĥÐ·Ð½":4897,"ĠÑģÐµÑĢÐµÐ´Ð¸Ð½Ðµ":4898,"ĠÑĤÑĢÐµÑĤÐ¸Ð¹":4899,"ĠÑģÐ°ÑĢ":4900,"ĠÑģÑĥÐ´Ð°":4901,"ĠÐ±ÑĥÑħ":4902,"ĠÐ°Ð´ÑĢÐµÑģ":4903,"ĠÐºÐ¾Ð½ÑģÑĤÑĢÑĥÐºÑĤ":4904,"ĠÐ¸ÑģÐ¿Ð¾Ð»ÑĮÐ·Ð¾Ð²Ð°Ð½Ð¸Ñı":4905,"ĠÑĥÐ¸Ð»ÑĮÑıÐ¼":4906,"ĠÐ¿ÑĢÐµÐ´Ð²Ð°ÑĢ":4907,"ĠÐ¿ÑĢÐµÐ´Ð»Ð°Ð³":4908,"ÑĤÐ°Ð½":4909,"ĠÐ¼Ð°Ð»ÐµÐ½ÑĮ":4910,"ĠÐ´ÐµÑĢÐ¶":4911,"ĠÐ½ÐµÐ¾Ð±ÑħÐ¾Ð´Ð¸Ð¼Ð¾":4912,"ĠÑģÐ°Ð¼ÑĭÐ¹":4913,"ĠÐ·Ð°Ð¿Ð¸ÑģÐ¸":4914,"ÑĥÐ¼Ðµ":4915,"ĠÐ¿Ð»Ð°ÑģÑĤ":4916,"ĠÐ²ÑģÑİ":4917,"Ð¸ÑĢÐ¾Ð²Ð°Ð½Ð½ÑĭÐµ":4918,"ĠÑĤÑĥÑĢÐ½Ð¸ÑĢÐ°":4919,"ÐºÐ¾Ð½ÐµÑĨ":4920,"ĠÐ»Ð¸Ð¿":4921,"ÑĥÑİÑīÐ¸Ð¼":4922,"ĠÐ¼ÑĥÐ·ÑĭÐºÐ¸":4923,"ĠÐ½Ð°Ðº":4924,"ĠÐ¸Ð¼ÐµÐ½ÐµÐ¼":4925,"ĠÐºÑĥÑĢÑģ":4926,"ĠÑĢÑıÐ´Ð°":4927,"ĠÐ¸ÑģÑĩ":4928,"ĠÑĢÐµÐºÐ¾ÑĢÐ´":4929,"ĠÑģÑĤÑĢÐ°Ð½Ð¸ÑĨÐµ":4930,"Ð½Ð°Ð¹":4931,"ÑĢÐ¾Ð³":4932,"ĠÐ¿ÑĢÐµÐ´ÑĥÐ¿":4933,"ĠÐ¾Ð±ÑĬÑĳÐ¼":4934,"ĠÐ´Ð°Ð½Ð½Ð¾Ð¹":4935,"ĠÐ²Ð¸Ð¶Ñĥ":4936,"Ð¸Ð¼Ð¾ÑģÑĤÑĮ":4937,"ĠÑģÐ¾ÑģÑĤÐ°Ð²Ð°":4938,"ĠÑįÐºÐ¸Ð¿":4939,"ĠÐ¿ÑĢÐ°Ð²Ð»ÐµÐ½Ð¸Ñı":4940,"ĠÐ¼Ð¾Ð´ÐµÐ»ÑĮ":4941,"ĠÐ¿ÑĢÐ¾ÑĤÐµÑģÑĤ":4942,"ĠÑĥÐºÐ°Ð·ÑĭÐ²":4943,"ĠÑıÐ½Ð²Ð°ÑĢÐµ":4944,"ÑĭÐº":4945,"ĠÑģÐ¼ÐµÑĪ":4946,"ĠÐ°Ð³ÐµÐ½ÑĤ":4947,"ĠÑĥÐ´Ð°Ð»Ð¸ÑĤÑĮ":4948,"ĠÐ¼ÐµÑĢÐµ":4949,"Ð¾ÑģÑĤÐ°Ð½":4950,"ĠÐ¿Ð°Ðº":4951,"ĠÑģÐ¾Ð²ÐµÑĢÑĪÐµÐ½Ð½Ð¾":4952,"ĠÑģÐ¼Ð¾ÑĤ":4953,"ĠÐ¿ÑĥÐ»":4954,"ÐµÐ¼Ð°":4955,"ĠÐºÐ¾Ð¼Ð¼ÐµÑĢ":4956,"ĠÑĦÐ°Ð¼Ð¸Ð»Ð¸Ñı":4957,"ĠÐ¿Ð°ÑĢÑĤÐ¸Ð¹":4958,"ĠÐ°Ð²Ð³ÑĥÑģÑĤÐµ":4959,"Ð¸ÐµÐ²Ð¸Ñĩ":4960,"ĠÑĥÐ¿Ð¾Ð¼":4961,"ĠÐ°Ð±ÑģÐ¾Ð»":4962,"ĠÐºÐ°ÑĢÐ°":4963,"ĠÐ´Ð¸ÑģÑģÐµÑĢÑĤÐ°":4964,"ĠÐºÐ½Ð¸Ð³Ðµ":4965,"ĠÑĩÐ°":4966,"ĠÐ¼Ð°ÑĢÑĤÐµ":4967,"ĠÐ»Ð¾Ðº":4968,"ĠÐ´Ð¶ÐµÐ¹Ð¼":4969,"ĠÑģÑĭÐ½Ð°":4970,"ĠÐ¿ÑĢÐ¾Ð¸Ð·Ð²Ð¾Ð´ÑģÑĤÐ²Ð¾":4971,"ĠÑĦÐ¸Ð»ÑĮÐ¼Ð¾Ð²":4972,"ÑĭÐ¶":4973,"ĠÑģÐµÐ¼ÐµÐ¹ÑģÑĤÐ²Ð°":4974,"ĠÑģÐ¾Ð·ÑĭÐ²Ð°":4975,"ĠÐ´Ð¸Ðº":4976,"ĠÐ¾ÑĤÐ½Ð¾ÑģÐ¸ÑĤÐµÐ»ÑĮÐ½Ð¾":4977,"ĠÐ¼Ð¾Ð·":4978,"ĠÐ´ÐµÐ±ÑİÑĤÐ¸ÑĢÐ¾Ð²Ð°Ð»":4979,"ĠÐ¿Ð¸ÑĢ":4980,"ĠÐ·Ð²Ð°Ð½Ð¸Ñı":4981,"ÑĩÐ¸ÐºÐ¾Ð²":4982,"ĠÐ³ÑĢÐµÐ±":4983,"ĠÐ°Ð±ÑģÐ¾Ð»ÑİÑĤ":4984,"ĠÐ±Ð°ÑģÐºÐµÑĤ":4985,"ĠÐºÐ°Ð¹":4986,"ĠÐ´Ð°Ð½Ð½Ð¾Ð¼":4987,"ĠÑĦÐ¾ÑĢÐ¼Ñĭ":4988,"ĠÑĥÐ¿Ð¾ÑĤÑĢÐµÐ±":4989,"ĠÐ±ÐµÐ¶":4990,"ÐµÐºÐ°ÐµÑĤ":4991,"Ð¸ÑĩÐ½ÑĭÐ¹":4992,"ĠÐ±Ð¾Ð¶":4993,"ĠÐ¾ÐºÐºÑĥÐ¿":4994,"Ð¸ÐºÐ°Ð¼Ð¸":4995,"Ð¼Ð°Ð½Ð°":4996,"ÑĳÐ¹":4997,"ÐµÐ²ÑĭÑħ":4998,"ĠÑĥÐºÑĢÐµÐ¿":4999,"ĠÐ¾ÐºÑĤÑıÐ±ÑĢÐµ":5000,"ĠÐ°ÑįÑĢÐ¾Ð¿Ð¾ÑĢÑĤ":5001,"ĠÐµÐ²Ð³ÐµÐ½Ð¸Ð¹":5002,"ÑĤÐ°Ð¹":5003,"ĠÐ»Ð¸Ðº":5004,"ÐµÐ¸":5005,"ĠÐ¸Ð½ÑĤÐµÑĢÐ²ÑĮÑİ":5006,"ĠÐ¼ÐµÐ»ÑĮ":5007,"ĠÑĤÐ²":5008,"ĠÐ½ÐµÐ»ÑĮÐ·Ñı":5009,"ĠÑģÐ»Ð¸ÑĪ":5010,"ĠÐ±Ñĥ":5011,"ÑģÑĤÐ¾":5012,"ĠÐ¸ÑģÑĤÐ¾ÑĢÐ¸Ñİ":5013,"Ð¸Ð¼Ð¾ÑģÑĤÐ¸":5014,"ĠÐ¿ÑĢÐ¾ÑģÑĮ":5015,"ĠÑĢÐµÐ²":5016,"ĠÑģÐ»Ð¸ÑĪÐºÐ¾Ð¼":5017,"ĠÐ±Ð¾Ð»ÑĮÑĪÐ¾Ð³Ð¾":5018,"ĠÑĳ":5019,"ĠÑģÐ¾Ð±Ð¸ÑĢÐ°":5020,"ĠÐ¿ÑĢÐµÐ´Ð»Ð°Ð³Ð°":5021,"Ð³Ðµ":5022,"ÐµÐ·Ð´Ðµ":5023,"ĠÐ¸Ð½Ð¸ÑĨÐ¸":5024,"ĠÐ½Ð¸Ð±ÑĥÐ´ÑĮ":5025,"ĠÐ²ÑĭÑĪÐ»Ð°":5026,"Ð¾ÑĩÐ½ÑĭÐµ":5027,"ĠÐºÐ°Ð»Ð¸Ð½":5028,"ĠÑĪÑĤÐ°Ð±":5029,"ĠÑģÑĤÑĢÐµÐ¼":5030,"ĠÐ¿Ð»Ð¾Ñħ":5031,"ĠÐ´Ñĥ":5032,"ĠÐ¸Ð½ÑĦÐ¾ÑĢÐ¼Ð°ÑĨÐ¸Ð¾Ð½":5033,"ĠÐºÐ»ÐµÑĤ":5034,"ĠÐ¿Ð¾ÐµÐ·Ð´":5035,"ĠÐ½Ð¸ÐºÐ¾Ð³Ð´Ð°":5036,"ĠÐ¾Ð»ÐµÐ³":5037,"ĠÐ¿Ð¾ÑģÐµÑī":5038,"ĠÑģÐ¿ÑĢÐ°Ð²Ð°":5039,"ĠÐ´ÐµÐºÐ°Ð±ÑĢÐµ":5040,"ÐµÐºÐ¾":5041,"ĠÐ´Ð¾ÑĢÐ°Ð±Ð¾ÑĤ":5042,"Ð°Ð½Ð¾Ð²Ð¸Ñĩ":5043,"Ð¼Ð¸Ð½Ð°":5044,"ĠÑĦÐ»Ð¾ÑĤ":5045,"ÐµÑĢÐ°Ð½":5046,"ÐµÑĢÑģÐ¾Ð½":5047,"ĠÐ¼Ð¸Ð½Ð¸ÑģÑĤÑĢÐ°":5048,"ĠÐ²Ð¸ÑĨÐµ":5049,"ĠÐºÐ¾Ð¼Ð°Ð½Ð´Ñĥ":5050,"ĠÐ¼Ð°ÐºÑģÐ¸Ð¼Ð°Ð»ÑĮÐ½Ð°Ñı":5051,"ĠÐ¿Ð¾ÑģÑĤÑĥÐ¿Ð¸Ð»":5052,"ĠÐ²Ð¾Ð·Ð¼Ð¾Ð¶Ð½Ð¾ÑģÑĤÐ¸":5053,"ĠÐ²ÐµÐ´ÑĮ":5054,"ĠÑĢÐµÐ²Ð¾Ð»ÑİÑĨÐ¸Ð¾Ð½":5055,"ĠÑĪÐ°ÑħÐ¼Ð°ÑĤ":5056,"ĠÐ¾ÑĢÐ³":5057,"ĠÐ¿ÑĢÐ°Ð·Ð´":5058,"ĠÑĤÑıÐ¶ÑĳÐ»":5059,"Ð¾Ð·Ð¼Ð¾Ð¶":5060,"ĠÐ¼ÑĥÐ·ÐµÑı":5061,"ĠÐ¿Ð¾Ð´ÑĤÐ²ÐµÑĢÐ¶Ð´":5062,"ÑĨÐµÐ¼":5063,"ĠÐ¿ÑĢÐ¾ÑĢ":5064,"Ð¸Ð½Ð³Ð°":5065,"ĠÐ¿Ð¾Ð»Ð¸ÑĤÐ¸ÐºÐ¸":5066,"ĠÐ¼ÑįÑĢ":5067,"ĠÐ¼Ð¾Ð½Ð³":5068,"ĠÐ´Ð¾Ð»Ð»Ð°ÑĢÐ¾Ð²":5069,"ĠÑģÐ¾Ð²ÑģÐµÐ¼":5070,"ĠÐ¾Ð±ÑīÐµÐ¹":5071,"ĠÐ¿ÑĢÐ¾ÑĤÑıÐ¶ÐµÐ½Ð¸Ð¸":5072,"ĠÑĥÑĩÐ¸Ð»ÑģÑı":5073,"ĠÐ¸ÑİÐ»Ðµ":5074,"ĠÑģÐ¾Ð±ÑĭÑĤÐ¸Ñı":5075,"ĠÑģÐ¾ÑģÑĤÐ¾ÑıÐ½Ð¸Ñİ":5076,"ĠÑĥÐ·Ð±ÐµÐº":5077,"ĠÑĥÑģÐ»Ð¾Ð²Ð¸ÑıÑħ":5078,"ĠÐ¿ÐµÑĢÐ¼":5079,"ĠÑĤÐµÐ»ÐµÐºÐ°Ð½":5080,"ĠÑħÐ²":5081,"Ð»Ð°Ð¹":5082,"ĠÐ±ÑĢÐ¸ÑĤÐ°Ð½":5083,"ĠÐ·ÑĥÐ±":5084,"ĠÐ¿ÑĢÐ¸Ð¿":5085,"ĠÐ¿ÑĢÐ¾Ð´ÑĥÐº":5086,"ĠÐ²ÐµÑģÑĮÐ¼Ð°":5087,"ĠÐ³Ð°Ð±":5088,"ÑĥÐ¼Ð±":5089,"ĠÐ²Ð¾Ð·Ð´ÑĥÑħ":5090,"ÐµÐ»ÑĮÐ´":5091,"ĠÐ·Ð°ÑīÐ¸Ñī":5092,"ĠÐºÐ»Ð¸Ð½":5093,"ĠÑģÑĬÑĳÐ¼":5094,"ÑĢÐ¾ÑĢ":5095,"ĠÑģÑİÐ¶ÐµÑĤ":5096,"ĠÐ¼Ð°Ð³Ð°Ð·":5097,"ĠÐ´ÐµÐ»ÑĮ":5098,"ĠÐºÐ»Ð°ÑģÑģÐ¸ÑĦ":5099,"ĠÐºÑĢÐ°ÑģÐ½Ð¾Ð³Ð¾":5100,"Ð°ÑĢÐµÐ²":5101,"ĠÐ¾Ð¿ÑĤ":5102,"ĠÐ½ÐµÑĦÑĤ":5103,"ĠÑĦÐ¾ÑĤÐ¾Ð³ÑĢÐ°ÑĦ":5104,"ĠÐ³ÑĢÐ¸Ð³Ð¾ÑĢ":5105,"ĠÐ»Ð°ÑĥÑĢÐµÐ°ÑĤ":5106,"ĠÐ³Ð¾Ð»ÑĥÐ±":5107,"ĠÑĥÑĤÐ¾Ñĩ":5108,"ÐµÐºÑģÑĥ":5109,"ĠÐ±ÑĭÐ²ÑĪÐ¸Ð¹":5110,"ĠÐ¿ÑĢÐ¾Ð¼ÑĭÑĪÐ»ÐµÐ½Ð½Ð¾ÑģÑĤÐ¸":5111,"ĠÐ¿Ð¾ÑħÐ¾ÑĢÐ¾Ð½ÐµÐ½":5112,"ĠÐ·Ð°Ñģ":5113,"ĠÑįÐºÐ¸Ð¿Ð°Ð¶":5114,"ĠÐ¸ÑģÑģÐ»ÐµÐ´Ð¾Ð²Ð°Ð½Ð¸Ð¹":5115,"ĠÑĦÐ¾Ð½Ð´":5116,"ĠÑĦÐ°Ð½ÑĤÐ°":5117,"ĠÐµÑģÑĤÐµÑģÑĤÐ²ÐµÐ½":5118,"ĠÑĤÐµÐ»Ð°":5119,"ĠÑħÐ¾ÑĤÐµÐ»":5120,"ĠÐ²ÑĢÐ°Ñĩ":5121,"ĠÑĥÑģÑĤÐ°Ð½Ð¾Ð²Ð»ÐµÐ½":5122,"Ð¸Ð½Ð°ÑĢ":5123,"ĠÐ³Ð°Ð¼":5124,"Ð¸ÑĨÐ¸Ñİ":5125,"ĠÐ¸Ð³ÑĢÐµ":5126,"ÐµÐ»Ð»Ð¸":5127,"ĠÐ±Ð¾Ðº":5128,"Ð±Ð°Ð½":5129,"ĠÐºÐ¸Ð¿":5130,"ÑĢÑĭÐ²Ð°":5131,"ĠÐ¿Ð¾Ð±ÐµÐ´Ð¸ÑĤÐµÐ»ÑĮ":5132,"ÑĢÐµÑĩ":5133,"ĠÐ°Ð¼ÐµÑĢÐ¸ÐºÐ¸":5134,"ĠÑĪÐ¿":5135,"ĠÑĤÐµÐ»ÐµÐ²":5136,"ĠÐ²Ð¾Ð´Ð½Ð¾Ð³Ð¾":5137,"ÑįÐ»":5138,"Ð²Ñĥ":5139,"ĠÑģÐ¿ÑĥÑĤ":5140,"ĠÐ´Ð¸Ð½Ð°ÑģÑĤ":5141,"ĠÐ°ÑģÐ¿":5142,"ÑĭÐ²Ð°Ð»":5143,"ĠÐ¿ÑģÐµÐ²":5144,"ĠÑħÐ°ÑĢÑĮÐºÐ¾Ð²":5145,"Ð¸ÑĢÐ¾Ð²Ð°Ð½Ñĭ":5146,"ĠÑģÑģÑĭÐ»Ð¾Ðº":5147,"ĠÐ½Ð¾Ð²Ð¾Ðµ":5148,"Ð½ÑĥÐ²":5149,"ĠÐ¿Ð¾Ð²Ð¾Ð´Ñĥ":5150,"Ð¾Ð½Ð¸Ñı":5151,"ĠÐºÐ¾Ð»Ð»ÐµÐ´":5152,"ĠÐ¾ÑĤÐ¼ÐµÐ½":5153,"ĠÐ¿ÐµÐ½Ñģ":5154,"ĠÑģÐ²ÐµÑĢÑħ":5155,"ÑĢÐ¾ÑĤÐ¸Ð²":5156,"ĠÐ²Ð»Ð°Ð´Ð¸Ð¼Ð¸ÑĢÐ°":5157,"ĠÑģÐ»ÐµÐ´ÑĥÑİÑīÐ¸Ðµ":5158,"ĠÐ·Ð°ÐºÐ¾Ð½Ð¾Ð´":5159,"ĠÑĤÐµÐºÑģÑĤÐ°":5160,"ĠÐ½Ð°ÑĨÐ¸Ð¾Ð½Ð°Ð»ÑĮÐ½Ð°Ñı":5161,"ĠÐ³Ð¾ÑĢÐ¾Ð´Ð¾Ð²":5162,"ĠÐ¾Ð±ÑīÐµÑģÑĤÐ²Ð¾":5163,"ĠÐ¿Ð¾Ð»ÑĥÑĩÐ¸Ð²":5164,"ĠÐ³ÑĢÐ°Ð¶Ð´Ð°Ð½ÑģÐºÐ¾Ð¹":5165,"ĠÐºÐ¾ÑĤÐ¾ÑĢÐ¾Ð¼Ñĥ":5166,"Ð°ÑĢÐ´Ð°":5167,"ĠÐ¿Ð¾Ð´Ð²ÐµÐ´":5168,"ÐµÐºÐ¾Ð¼":5169,"ĠÑģÐµÑĤÐ¸":5170,"ĠÐ¾ÑħÑĢÐ°Ð½":5171,"ĠÐ¾Ð¿ÐµÑĢÐ°ÑĨÐ¸Ñı":5172,"ĠÑĢÑĥÑģÑģÐºÐ¸Ñħ":5173,"ĠÐ²Ð¸Ð´ÐµÐ¾":5174,"ĠÐ¿Ð¾Ð·Ð¸ÑĨÐ¸Ñı":5175,"ĠÐ¼Ð¾Ð³Ð»Ð¸":5176,"Ð¸ÑĤÐ¾Ð²":5177,"ĠÐ¼ÑĥÐ½Ð¸ÑĨÐ¸Ð¿Ð°Ð»ÑĮÐ½Ð¾Ð³Ð¾":5178,"Ð¸ÑĩÐ½ÑĭÑħ":5179,"ĠÑģÐºÐ¾ÑĢÐµÐµ":5180,"ĠÐ±Ð¾ÑĢÑĤ":5181,"ĠÐ¿ÑĢÐµÐ¶Ð´Ðµ":5182,"ĠÑħÐ°ÑĢÐ°ÐºÑĤÐµÑĢÐ¸ÑģÑĤ":5183,"ÐµÐ½Ð½ÑĭÐ¼Ð¸":5184,"ĠÐºÐ¾Ð½ÑģÐµÐ½Ñģ":5185,"ĠÐ½Ð°Ð·Ð°Ð´":5186,"ĠÐ¼ÑĥÐ·ÑĭÐºÐ°":5187,"Ð¸ÑĩÐ½ÑĭÐµ":5188,"ĠÑģÐµÐ¼ÑĮÑı":5189,"ÐµÐ½Ð½Ð¾ÑģÑĤÑĮ":5190,"ĠÐ¾Ð±Ðµ":5191,"ÐµÑĢÐ°ÑĤÐ¸Ð²":5192,"ĠÐ¿Ð¾Ð·Ð²Ð¾Ð»ÑıÐµÑĤ":5193,"ĠÐ²ÑĭÑĢÐ°Ð¶":5194,"ĠÐ³ÑĥÐ±ÐµÑĢÐ½Ð°ÑĤÐ¾ÑĢ":5195,"Ð¼Ð¾Ð²":5196,"ĠÑĪÐµÑĢ":5197,"ĠÐ°Ð¿Ð¿Ð°ÑĢÐ°ÑĤ":5198,"Ð¾ÑĢÐµÑĩ":5199,"Ð¾ÑĩÐ½Ð¾Ð³Ð¾":5200,"ĠÐºÑĢÐµÐ¹":5201,"ĠÑģÐ¾Ð¿ÑĢÐ¾Ð²":5202,"ĠÐ³ÐµÐ½ÑĢÐ¸Ñħ":5203,"ĠÐ¿Ð¾Ð´Ð°Ð²":5204,"ĠÑĦÐ»Ð¾ÑĢ":5205,"ĠÑģÐ»Ð°Ð²Ñĭ":5206,"ĠÐ°ÑĢÑħÐ¸ÐµÐ¿Ð¸ÑģÐºÐ¾Ð¿":5207,"ĠÐ±ÐµÐ¹":5208,"ÑħÐ¾":5209,"ĠÐ¶ÐµÐ»ÐµÐ·Ð½Ð¾Ð¹":5210,"ÑĩÐ°Ð¹":5211,"ĠÑģÐ»Ð°Ð±":5212,"ĠÐ¸ÑİÐ½Ðµ":5213,"ĠÑģÐµÐ´":5214,"ĠÑħÑĥÑĤ":5215,"ĠÑĢÐ°Ð·Ð»Ð¸ÑĩÐ½ÑĭÐµ":5216,"Ð¾Ð¿ÑĢÐ¸ÑıÑĤ":5217,"ÑĢÐ¸ÑĨ":5218,"ĠÑĤÐµÐ¼Ð°ÑĤ":5219,"ĠÐ¾Ð¿ÐµÑĢ":5220,"ĠÐ´ÐµÑģ":5221,"ĠÑģÑĤÐ°ÑĢÑĤ":5222,"ĠÐ¸Ð·Ð½Ð°Ñĩ":5223,"ĠÑĦÑĥÐ½ÐºÑĨÐ¸Ð¾Ð½":5224,"ĠÑĤÐµÐºÑĥÑī":5225,"ĠÑģÑĤÐ°":5226,"ĠÐ¾ÑĢÐ³Ð°Ð½Ð¸Ð·Ð°":5227,"ĠÐµÐ¶ÐµÐ³Ð¾Ð´":5228,"ĠÑĢÐ°ÑģÑģÑĤÐ¾ÑıÐ½Ð¸Ðµ":5229,"ĠÐ½Ð°ÑħÐ¾Ð´ÑıÑĤÑģÑı":5230,"ĠÐ·ÐµÐ¼Ð»Ðµ":5231,"ÑĨÐµÐ½ÑĤ":5232,"Ð»ÑıÑİÑĤÑģÑı":5233,"ĠÐ¾ÑģÑĤÐ°Ð²Ð¸ÑĤÑĮ":5234,"ĠÐ·Ð²ÐµÐ·Ð´Ð°":5235,"ĠÐ¿ÑĢÐ¾ÑĤÐ¾ÐºÐ¾Ð»":5236,"ĠÑĩÑĥÐ´":5237,"ĠÐ¿ÑĢÐµÐ·Ð¸Ð´Ð¸ÑĥÐ¼Ð°":5238,"Ð½Ð¸ÐºÐµ":5239,"ĠÐ¿Ð»ÐµÐ½":5240,"ĠÐ²Ð¾ÐµÐ½Ð½ÑĭÑħ":5241,"ĠÐ¸Ð·ÑĢÐ°Ð¸Ð»ÑĮ":5242,"ĠÐ²ÐµÑĢÐ¾ÑıÑĤÐ½Ð¾":5243,"ĠÐ½Ð°ÑĥÑĩÐ½Ð°Ñı":5244,"ĠÐ¿Ð¾Ð»ÐµÐ·":5245,"ĠÐ²ÑĭÑģÐ¾ÑĤ":5246,"ĠÐ°Ð½Ð½Ð°":5247,"Ð°ÑİÑīÐµÐ¹":5248,"ĠÐ¿Ð¾ÐºÐ°Ð·Ð°Ð½Ð°":5249,"ĠÑįÑģÐºÐ°Ð´":5250,"ĠÐ½Ð°Ð¸Ð¼ÐµÐ½":5251,"ĠÑģÐ°Ð±":5252,"ĠÑħÐ°Ð¹":5253,"ĠÐ±Ð¾ÐµÐ²ÑĭÑħ":5254,"ĠÐ¸Ð·Ð³Ð¾ÑĤÐ¾Ð²":5255,"ĠÐ²ÑĢÑĥÑĩ":5256,"ÐµÐ½Ð½ÑĥÑİ":5257,"ĠÑģÐ¾Ð±Ð¾ÑĢ":5258,"ĠÐ³Ð°Ð·ÐµÑĤÑĭ":5259,"ĠÐ²Ð°Ð»ÐµÐ½ÑĤ":5260,"ĠÑģÑĤÐ¾ÑĢÐ¾Ð½Ñĥ":5261,"ĠÐ¿ÑĢÐ¾ÑĪÐ»":5262,"ĠÐ¿ÑĢÐ¸Ð³Ð»Ð°ÑĪ":5263,"ĠÐ»Ð¾Ð½Ð´Ð¾Ð½":5264,"ĠÑĸ":5265,"Ð¾ÑģÐµ":5266,"ĠÐµÐ²ÑĢÐµ":5267,"ĠÐ¼Ð¾Ð³Ñĥ":5268,"ĠÐ¿ÑĢÐ¸Ð½Ð¸Ð¼Ð°Ð»":5269,"ĠÐ°Ð´Ð¼Ð¸Ð½Ð¸ÑģÑĤÑĢÐ°ÑĤÐ¸Ð²Ð½Ð¾":5270,"ĠÑģÐ°ÑĤ":5271,"ĠÐ¿ÑĢÐµÐ´ÑģÑĤÐ°Ð²Ð¸ÑĤÐµÐ»ÑĮ":5272,"ĠÐ¿Ð°Ð¼ÑıÑĤÑĮ":5273,"ĠÐ¿ÐµÑĢÐµÐ²ÐµÐ´":5274,"Ð¾Ð»Ð¾Ð³Ð¸ÑĩÐµÑģÐºÐ¸Ñħ":5275,"ĠÑģÐ¾Ð¿ÑĢÐ¾ÑĤÐ¸Ð²":5276,"ÑĨÐ¸":5277,"ÑģÑĤÐ²ÐµÐ½Ð½Ð¾Ð³Ð¾":5278,"ĠÐ½ÐµÐ¹ÑĤ":5279,"ĠÑĥÑģÐ¸Ð»":5280,"ĠÐ·Ð°Ð¿ÑĢÐµÑī":5281,"ĠÐºÑĥÐ´Ð°":5282,"ĠÑģÐ¼Ð¸":5283,"Ð¾Ð¹Ð´":5284,"ĠÐ²ÑĭÐ¿Ð¾Ð»Ð½Ñı":5285,"ÑıÐ½Ð°":5286,"ĠÑģÐ¾Ð²ÐµÑĤÑģÐºÐ°Ñı":5287,"ĠÐ¿ÑģÐº":5288,"ĠÐ¾Ð·ÐµÑĢÐ¾":5289,"ĠÐºÐ»Ð¸Ð¼Ð°ÑĤ":5290,"ĠÐ²Ð¸Ð´Ð°":5291,"ĠÐ¿Ð¾Ð±ÐµÐ´Ñĥ":5292,"ĠÑıÐ²Ð»ÑıÐ»ÑģÑı":5293,"ĠÐ²ÑĭÐ¿ÑĥÑģÑĤ":5294,"ĠÐ¿ÑĢÐ¾Ð¸ÑģÑħÐ¾Ð¶Ð´ÐµÐ½Ð¸Ñı":5295,"ĠÐ°Ð±Ð´":5296,"ĠÑĥÐ´Ð¾ÑģÑĤÐ¾":5297,"ÑĢÐ¾Ð´Ðµ":5298,"ĠÐ¿ÑĢÑıÐ¼Ð¾":5299,"ĠÐ±ÐµÐ»Ð¾ÑĢÑĥÑģÑģÐ¸Ð¸":5300,"ĠÑģÐµÐ¼ÑĮ":5301,"ĠÑĪÑĤÐ°Ð±Ð°":5302,"ĠÐ¿ÑĢÐ¸ÑĢÐ¾Ð´":5303,"ĠÐ´ÑĢÑĥÐ¶":5304,"Ð°Ð²ÑĪÐ¸Ñħ":5305,"ĠÐ¼Ð¾ÑģÐºÐ¾Ð²ÑģÐºÐ¸Ð¹":5306,"ĠÑįÑĦÑĦÐµÐºÑĤÐ¸Ð²":5307,"ĠÐ·Ð°Ð¿Ð°Ñģ":5308,"ĠÐ°Ð¿ÑĢÐµÐ»Ðµ":5309,"ĠÐ¾ÐºÐ°Ð·ÑĭÐ²":5310,"ĠÐ¿Ð°Ð¼ÑıÑĤÐ¸":5311,"Ð¾Ð²ÑģÐºÐ¾Ð¼":5312,"ĠÐ¿Ð¾ÑģÐ°Ð´":5313,"Ð¾Ð´ÐµÐ¹ÑģÑĤÐ²":5314,"ĠÐ¿ÑĢÐ°Ð²Ð¾ÑģÐ»Ð°Ð²Ð½Ð¾Ð¹":5315,"ĠÐ³ÑĢÐ°Ð¶Ð´Ð°Ð½ÑģÑĤÐ²Ð¾":5316,"Ð¾Ð»Ñİ":5317,"Ð¾Ð²ÐµÑĢ":5318,"ĠÐºÐ°ÑĤÐ°Ð»Ð¾Ð³":5319,"Ð¸ÑĨÐºÐ¸Ð¹":5320,"ĠÐºÐ°ÑĢÑĮÐµÑĢÑĭ":5321,"Ð»Ð¾Ð½Ð°":5322,"ĠÐ¸ÐµÑĢ":5323,"Ð¾ÑĢÐ´Ð¸Ð½":5324,"ĠÐ³Ð¾ÑģÑĥÐ´Ð°ÑĢÑģÑĤÐ²":5325,"ÐºÐ°ÑĢ":5326,"ĠÐ¼ÑĭÑĪ":5327,"ĠÐ¿Ð¾Ð»Ð°Ð³":5328,"ÐºÑĤÐ°":5329,"ĠÐ¾Ð±ÑĢÐ°Ð·Ð¾Ð²Ð°Ð½":5330,"ĠÐ°ÐºÑĤÐ¸Ð²Ð½Ð¾":5331,"ÐµÐ½Ð´Ð°":5332,"ĠÑĥÑģÑĤÑĥÐ¿":5333,"ĠÐ¿Ð¾Ð»ÑĮÑĪÐ¸":5334,"ĠÐ±Ð°Ð·Ðµ":5335,"ĠÐ¿Ð°ÑĢÑĤÐ¸Ð·":5336,"ĠÐ¾ÑĤÑĩ":5337,"ÑĥÑĩÐ¸":5338,"ĠÑİÐ³Ð¾ÑģÐ»Ð°Ð²":5339,"ĠÑģÑĢÐµÐ´Ð½ÐµÐ¹":5340,"ĠÐ±Ð°ÑĪÐºÐ¸ÑĢ":5341,"ĠÐ²Ð¾ÑģÑĮ":5342,"ĠÐºÐ¾Ð½Ð³":5343,"ĠÐ¾Ð±ÑıÐ·Ð°Ð½":5344,"ĠÐ¿Ð¾Ð´Ð²ÐµÑĢÐ³":5345,"ĠÑıÐ²Ð½Ð¾":5346,"ĠÐ³Ð²Ð°ÑĢÐ´Ð¸Ð¸":5347,"ĠÑĦÐ¸Ð³ÑĥÑĢ":5348,"ĠÐºÑģÑĤ":5349,"ĠÐ»ÐµÐ³ÐºÐ¾":5350,"Ð°Ð¼ÐµÑĤ":5351,"ĠÐ¼Ð°ÑĤÐµÑĢÐ¸Ð°Ð»Ñĭ":5352,"ĠÐ¼ÐµÑģÑıÑĨÐµÐ²":5353,"ĠÑĢÐ¾ÑĤ":5354,"ĠÑĥÑĩÐ°ÑģÑĤÐ¾Ðº":5355,"ĠÐ½Ð°Ð´Ð¿":5356,"ĠÑĥÐ²ÐµÑĢ":5357,"ĠÐºÐ°ÑĢÑĤÐµ":5358,"ĠÐ·Ð°Ð½Ð¸Ð¼Ð°Ð»ÑģÑı":5359,"ĠÑģÐ°Ð¼Ð¸":5360,"ĠÐ²Ð¾ÐºÐ°Ð»":5361,"Ð¸ÑĤÐµÐ»ÑĮÐ½ÑĭÐ¼":5362,"ĠÐµÐ²ÑĢÐ¾Ð¿Ðµ":5363,"ĠÐ¾Ð±ÑīÐµÐ³Ð¾":5364,"ĠÑģÐ²ÑıÑīÐµÐ½":5365,"ĠÐ·Ð°ÐºÐ¾Ð½Ð¾Ð´Ð°ÑĤÐµÐ»ÑĮ":5366,"ĠÐ³Ð»Ð°Ð²Ðµ":5367,"ĠÑĥÐºÑĢÐ°Ð¸Ð½Ð°":5368,"ĠÐ¿Ð¾Ð»ÑĥÑĩÐ¸Ð»Ð¸":5369,"ĠÐ¿ÑĢÐ¸ÑĩÑĳÐ¼":5370,"ĠÐ±Ð°ÑĢÐ°":5371,"ĠÑģÐ¿Ð°ÑĢÑĤ":5372,"Ð´Ð°ÐµÑĤÑģÑı":5373,"Ð¸ÑĢÐ¾Ð²Ð°Ð½Ð½ÑĭÑħ":5374,"ĠÐ²Ð¾ÑģÑĤÐ¾ÐºÑĥ":5375,"ĠÑĢÐ¾Ð³":5376,"ĠÐºÐ¾Ð¶":5377,"ĠÑįÐºÑģÐ¿Ð»ÑĥÐ°ÑĤÐ°":5378,"Ð¸Ð½Ð¾Ð¼":5379,"ĠÐ¾Ð±Ð°":5380,"ĠÑģÑĤÐ¸Ð»":5381,"ĠÐ»Ð¾Ñģ":5382,"ĠÐ¼ÐµÐ¼Ð¾ÑĢ":5383,"ĠÑģÑĥÐ´ÑĮÑı":5384,"ÐµÑĨÐºÐ¸Ð¹":5385,"ĠÐ»ÑİÐ±Ð¾Ð¹":5386,"ĠÑĤÐ°ÐºÐ¸":5387,"ĠÐ´ÐµÐ¿ÑĥÑĤÐ°ÑĤÑĭ":5388,"ĠÐ¿ÐµÑĢÐµÑĢÐ°":5389,"ĠÑģÐ²Ñı":5390,"Ð¸Ð½Ð´":5391,"ĠÐ³ÑĢÑĥÐ¿Ð¿Ðµ":5392,"ĠÐ·Ð°Ð´Ð°Ñĩ":5393,"ĠÐ¿ÐµÑĢÐ²Ð¾Ð½Ð°ÑĩÐ°Ð»ÑĮÐ½Ð¾":5394,"Ð°ÑĦ":5395,"ĠÐ¼Ð°ÑĢÐ¸":5396,"ĠÐ³Ð²":5397,"ĠÑĩÐµÑĤÐ²ÑĳÑĢÑĤ":5398,"ĠÐ½ÐµÐ²Ð¾Ð·Ð¼Ð¾Ð¶":5399,"ĠÑĦÐµÑģÑĤÐ¸Ð²":5400,"ĠÐ·Ð°ÐºÐ°Ð·":5401,"ĠÐ²Ð¾ÑĢÐ¾Ð½ÐµÐ¶":5402,"ĠÑģÐ¸ÑģÑĤÐµÐ¼Ðµ":5403,"ĠÐ³Ð¸ÑĤÐ°ÑĢÐ°":5404,"ĠÐ¼Ð³":5405,"ĠÑĤÐµÐ»ÐµÐ²Ð¸Ð´":5406,"ÐµÑĦÐ°":5407,"ĠÑĥÑĢÐ¾Ð²ÐµÐ½ÑĮ":5408,"ĠÑĢÐ¾Ñģ":5409,"ĠÑģÑĢÐµÐ´ÑģÑĤÐ²Ð°":5410,"ĠÐºÑĥÐ»ÑĮÑĤÑĥÑĢÐ°":5411,"ĠÐºÑĢÐµÐ¼":5412,"ĠÐ¾Ð±ÑĬÑıÑģÐ½":5413,"ĠÐ¾ÑĢÐ»Ð¾Ð²":5414,"ĠÐ¾ÑĤÑĢÐ°Ð¶":5415,"ĠÐºÐ¾Ð½ÑĨÐµÐ¿":5416,"ĠÐ½Ð°ÑĩÐ¸Ð½Ð°Ñı":5417,"ĠÐ±Ð¾Ð³Ð°ÑĤ":5418,"Ð¾Ð¾Ð±ÑĢÐ°Ð·":5419,"ĠÐ¿Ð¾ÑıÐ²Ð¸Ð»Ð¸ÑģÑĮ":5420,"ĠÐ¼Ð¸":5421,"Ð·Ð¸Ð¸":5422,"ÐµÑĢÐ¾ÑģÑģ":5423,"ĠÑĢÐº":5424,"ĠÐ³ÑĢÐ¸Ð³Ð¾ÑĢÑĮ":5425,"ĠÑĩÐµÑĩ":5426,"ĠÑĥÐ¿ÑĢÐ°Ð²Ð»Ñı":5427,"ĠÑĥÐ´Ð°Ð»ÐµÐ½Ð°":5428,"ĠÐµÐ¿Ð°ÑĢÑħÐ¸Ð¸":5429,"ĠÐ´Ð¾Ð¼Ðµ":5430,"ĠÐ¿ÐµÑĢÐ¸Ð¾Ð´Ð°":5431,"ÑģÑĤÑĢÐµÐ»":5432,"ĠÑĥÑĢÐ¾Ð²Ð½Ðµ":5433,"ĠÐºÐ¾Ð¼Ð¸ÑģÑģÐ¸Ð¸":5434,"ĠÐ²ÑĢÐ¾Ð´Ðµ":5435,"ĠÐ±Ð¾Ð½":5436,"ĠÑĥÐºÐ°Ð·Ð¾Ð¼":5437,"ÑģÑĤÐ²ÐµÐ½Ð½Ð¾Ð¹":5438,"ĠÐ¿ÑĢÐµÐµÐ¼":5439,"ĠÐ²Ð¾ÑģÐº":5440,"ĠÐ¿ÐµÑĢÐ²ÐµÐ½":5441,"ĠÑĩÐµÐ¼Ð¿Ð¸Ð¾Ð½Ñĭ":5442,"ĠÐ´ÐµÐ»Ðµ":5443,"ĠÐ½Ð¾ÑıÐ±ÑĢÐµ":5444,"ĠÑĨÐº":5445,"ĠÐ¿Ð¾Ð¶Ð°Ð»ÑĥÐ¹ÑģÑĤÐ°":5446,"Ð¾ÐºÑĢÐ°ÑĤÐ½Ð¾":5447,"ĠÐ¸Ð³Ð¾ÑĢÑĮ":5448,"ĠÐ¼Ð°ÑģÑģÐ°":5449,"Ð»ÐµÐ²":5450,"ĠÐ³ÐµÑĢÐ¼Ð°Ð½Ð¸Ñı":5451,"ÑĹ":5452,"ĠÐ»Ð¸ÑĨÐµÐ½Ð·":5453,"ĠÐºÐ¾ÑĪ":5454,"ĠÐ°Ð½Ð°ÑĤÐ¾Ð»Ð¸Ð¹":5455,"ĠÐ¾ÑĦÐ¸ÑĨÐ¸Ð°Ð»ÑĮÐ½Ð¾":5456,"ĠÑģÐ´ÐµÐ»Ð°Ð»":5457,"ĠÐ²Ð¸Ð´Ñĭ":5458,"ÐºÑĥÑĤ":5459,"ĠÐ´Ð²Ð°Ð¶Ð´Ñĭ":5460,"Ð¾Ð»Ð¸":5461,"ĠÐ²Ð·ÑıÑĤ":5462,"ĠÐ²ÑģÐµÐ¼Ð¸ÑĢ":5463,"ÑĢÐ³":5464,"ĠÐ½Ð°ÑĢÑĥÑĪÐµÐ½Ð¸Ðµ":5465,"ĠÑģÑĥÐ´ÑĮ":5466,"ÑĥÐ»Ð¸ÑĢÐ¾Ð²":5467,"ĠÑħÐ¾Ð·ÑıÐ¹ÑģÑĤÐ²Ð°":5468,"ĠÐºÑģÑĤÐ°ÑĤÐ¸":5469,"ĠÐ³ÑĢÐ°Ð½Ð¸ÑĨÑĭ":5470,"ĠÑħÐ¾ÑĢÐ²Ð°ÑĤ":5471,"ĠÐ³ÑĥÑģ":5472,"ĠÑĢÐµÐ¹Ð½":5473,"ĠÑģÑĥÐ±ÑĬ":5474,"ÐµÑĢÑĥ":5475,"ĠÑģÐ¾ÑģÑĤÐ¾ÑıÐ½Ð¸Ðµ":5476,"ÑģÑĤÐ²ÐµÐ½Ð½ÑĭÐµ":5477,"ĠÑģÑĤÐ°ÑĤÑĮÑıÑħ":5478,"ÑĢÐ´":5479,"Ð¸ÑģÑĤÐ°Ð½Ð°":5480,"ĠÑģÐ²Ð¾Ð¸Ð¼Ð¸":5481,"ĠÐ¼ÑĥÐ·ÑĭÐºÐ°Ð½ÑĤ":5482,"Ð½Ð°Ð´ÑĨ":5483,"ĠÑģÑĢÐ°Ð¶":5484,"ĠÐ½Ð°Ð¹Ð´":5485,"ÐµÑĢÐ¸Ñı":5486,"ĠÐ¿ÑĢÐ¸Ð½ÑıÑĤÐ¾":5487,"ĠÐ³Ð½":5488,"ĠÐºÐ¾Ð½ÑĤÐ¸Ð½":5489,"Ð¾ÑĩÐ½Ð°Ñı":5490,"ĠÐ¸Ð¼ÐµÐ»Ð¸":5491,"ĠÐ°Ð½Ð¸Ð¼":5492,"ĠÑĢÐ¾Ð´Ð¸Ð²ÑĪÐ¸ÐµÑģÑı":5493,"ĠÑģÐ»Ð¾Ð²Ð°Ð¼":5494,"Ð°Ð¾":5495,"ĠÑĤÑĢÐ°Ð¼":5496,"ĠÑģÐ°ÑĢÐ°ÑĤ":5497,"ĠÐ½ÐµÐ¼Ð½Ð¾Ð³Ð¾":5498,"ÑıÑīÐ¸Ð¹":5499,"ÐµÑģÑģÐ°":5500,"ĠÐ¿ÑģÐµÐ²Ð´":5501,"ÑĳÐ²Ð°":5502,"ĠÐ½Ð°Ð¿ÑĢÑı":5503,"ĠÐ¼Ð°ÑĤÐµÑĢÐ¸":5504,"ĠÑģÑĤÐµÐ½":5505,"ĠÐ¿Ð¾ÑĢÑĥÑĩ":5506,"ÑĥÑİÑīÐµÐ¹":5507,"ĠÑĤÐµÐ½":5508,"ĠÐ´ÐµÑĢÐµÐ²ÑıÐ½":5509,"ĠÑĤÑĢÐµÐ½ÐµÑĢÑĭ":5510,"ĠÑģÑĩÐ¸ÑĤÐ°Ñİ":5511,"ĠÐ¿ÑĢÐ¸Ðµ":5512,"ĠÑĢÐ°Ð·Ð½ÑĭÐµ":5513,"ĠÑĤÐµÐ¼Ñĥ":5514,"ĠÐ¼Ð¾ÑĤÐ¸Ð²":5515,"ĠÐ»Ð¸ÑĩÐ½Ð¾":5516,"ĠÐ¿ÑĢÐ¾ÑģÐ¿":5517,"ĠÐ°Ðµ":5518,"Ð´Ð°Ð½":5519,"ÑĢÐµÐ´ÐµÐ»":5520,"ĠÐ¿ÐµÑĢÐµÐ´Ð°ÑĩÐ¸":5521,"ĠÐ¿Ð¸":5522,"ĠÐ¸ÑģÑĤÐ¾ÑĩÐ½Ð¸ÐºÐ°Ñħ":5523,"ĠÑģÐµÑģÑĤ":5524,"ĠÑĦÐµÐ²ÑĢÐ°Ð»Ðµ":5525,"ĠÐ¸ÑģÑĩÐµÐ·":5526,"Ð¾Ð»ÑĮÑģÐºÐ¸Ð¹":5527,"ĠÐºÐ°Ð½Ð°Ð´":5528,"ĠÑĪÐ¸ÑĢÐ¾ÐºÐ¾":5529,"ĠÑĥÐ¿Ð¾Ð¼Ð¸Ð½Ð°ÐµÑĤÑģÑı":5530,"ĠÑģÑĤÑĢÐ°Ð½Ð°Ñħ":5531,"ĠÑħÐ°Ð»":5532,"ĠÐ¾Ð±Ð»Ð°Ð´Ð°ÑĤÐµÐ»ÑĮ":5533,"ĠÑģÐ¿ÐµÐºÑĤÐ°Ðº":5534,"ĠÑĦÑĥÑĤÐ±Ð¾Ð»Ð¸ÑģÑĤÑĭ":5535,"ĠÑģÐºÐ¾ÑĢÐ¾ÑģÑĤÑĮ":5536,"ÑĢÐ°ÑĨÐ¸Ñı":5537,"ĠÐ·Ð°ÑīÐ¸ÑĤÑĭ":5538,"ĠÐ±ÑĥÑĤ":5539,"ÑĪÐ¸":5540,"ĠÐ²Ð»Ð°ÑģÑĤÑĮ":5541,"ĠÑģÐ¸Ð½ÑĤ":5542,"ĠÐºÐ»ÑĥÐ±Ðµ":5543,"ĠÐ´Ð¸ÑĢ":5544,"ĠÐ±Ð°Ð³":5545,"ÑĮÑıÐ½":5546,"ÑĳÐº":5547,"ĠÐ²ÑģÑĤÑĢÐµÑĩÐ°":5548,"ĠÑģÐºÐ¾Ð½ÑĩÐ°Ð»ÑģÑı":5549,"ĠÐ½Ð°ÑĩÐ°Ð»Ð¸":5550,"Ð¾Ð²ÑģÐºÐ¾Ðµ":5551,"ĠÑĦÐ°ÐºÑĤÐ¸ÑĩÐµÑģÐºÐ¸":5552,"ÑĢÐµÑĤÐ°":5553,"ÑİÑīÐµÐµ":5554,"ĠÐ¶ÑĳÐ»":5555,"Ð»Ð°Ñħ":5556,"ĠÑģÐºÐ»Ð¾Ð½":5557,"ĠÐ¼Ð¾ÑĤ":5558,"ÑĳÐ½Ð½ÑĭÐ¼":5559,"ĠÐ¿Ð¾Ð±ÐµÑĢÐµÐ¶":5560,"ĠÐ½Ð°ÑĢÐ¾Ð´Ð¾Ð²":5561,"ÑģÑĤÐ°Ð½":5562,"ĠÐ½Ð¾Ð²Ð¾ÑģÐ¸Ð±Ð¸ÑĢ":5563,"ÐµÐ½ÑģÐºÐ°Ñı":5564,"ĠÐ¿ÑĢÐµÐ´ÑģÑĤÐ°Ð²Ð¸ÑĤÐµÐ»ÐµÐ¹":5565,"ĠÐ²ÐµÐ»Ð¸ÐºÐ¾Ð³Ð¾":5566,"ĠÐ¼ÐµÐ¶Ð´ÑĥÐ½Ð°ÑĢÐ¾Ð´Ð½ÑĭÐ¹":5567,"ĠÑģÑĨ":5568,"ĠÑĥÐ¼ÐµÐ½ÑĮ":5569,"ĠÐ±Ð°ÑĪÐºÐ¾ÑĢÑĤ":5570,"ĠÑĦÐ°ÐºÑĥÐ»ÑĮÑĤÐµÑĤÐ°":5571,"ĠÐ±Ð°Ð½Ðº":5572,"ÑıÑİÑĤ":5573,"ĠÑĥÐ»Ð¸ÑĨÐµ":5574,"Ð°ÑīÐ¸ÑĤ":5575,"ĠÐ¾ÑĤÐ²ÐµÑĩ":5576,"ĠÐ¾Ð´Ð½Ð¾Ð¸Ð¼":5577,"ĠÐ·Ð°ÑģÐ»ÑĥÐ³Ð¸":5578,"Ð±Ð¾Ð¹":5579,"ĠÐ³ÑĢÑĥ":5580,"ĠÐ´ÑĢÑĥÐ·":5581,"ĠÐ³Ð»ÑĥÐ±Ð¾Ðº":5582,"ĠÑģÑĤÑĢÐ°ÑĤÐµÐ³":5583,"ÐµÐ¼Ð¾Ð¹":5584,"ĠÐµÐ´Ð¸Ð½Ð¸ÑĨÑĭ":5585,"ĠÐ½Ð°Ð¿Ð¸ÑģÐ°Ð½Ð¾":5586,"Ð²Ð´":5587,"Ð·Ð¸":5588,"ĠÐ·Ð´ÑĢÐ°Ð²":5589,"ĠÐ½Ð¸Ð¼Ð¸":5590,"ĠÑģÐ¿Ð¾ÑĢ":5591,"ÑĢÐµÐ»":5592,"ÑĥÐ»ÑĮÐ¼Ð°Ð½":5593,"Ð°Ð½Ð³ÐµÐ»ÑĮ":5594,"Ð´Ð¾Ð½":5595,"ĠÑĤÐ°ÐºÐ°Ñı":5596,"ĠÐ¿Ð¾Ð´Ðº":5597,"ĠÑĤÐ¾ÑĩÐ½Ð¾":5598,"ĠÑĢÐµÐºÐµ":5599,"ÐµÑħÐ½":5600,"ĠÑģÐ»ÑĥÑĩÐ°ÑıÑħ":5601,"ĠÐ»Ð¸Ð³Ðµ":5602,"ÑĤÐ¾ÑĢÑĭ":5603,"ĠÐ»Ð¸ÑĨÐ°":5604,"ĠÐ¿Ð°ÑĤÑĢÐ¸Ð°ÑĢÑħ":5605,"ĠÐ¼Ð¾Ð½Ð°ÑģÑĤÑĭÑĢÑĮ":5606,"ĠÐ·Ð°Ð±Ð¸Ð»":5607,"ĠÐ½Ð°Ð·ÑĭÐ²Ð°ÐµÑĤÑģÑı":5608,"ĠÐ±Ð°Ñħ":5609,"ĠÑģÑĤÐ°Ð½Ð¸ÑģÐ»Ð°Ð²":5610,"ĠÐ¾ÑĤÐ½Ð¾ÑĪÐµÐ½Ð¸Ð¸":5611,"Ð¸Ð½ÐºÐ¸":5612,"ĠÐ²ÑģÑĤÑĢÐµÑĤ":5613,"ĠÐ´Ð¸ÑĢÐµÐº":5614,"ĠÐ½Ð¸ÐºÐ°ÐºÐ¸Ñħ":5615,"Ð½Ð°ÐºÐ¾Ð¼":5616,"ĠÐ¿ÑĢÐµÐ¾Ð±":5617,"ĠÐ±ÑĭÑģÑĤÑĢ":5618,"Ð¾ÑĩÐºÐ¸":5619,"Ð²Ð°Ð¹":5620,"ĠÐ²Ð¾Ð»Ð¾Ð³Ð¾Ð´":5621,"ÑĨÐ¸Ð¾Ð½Ð½ÑĭÐ¹":5622,"ĠÐ°ÑĤÐ°Ðº":5623,"ĠÐ¾ÑĤÐ´ÐµÐ»ÐµÐ½Ð¸Ñı":5624,"ĠÐ¿ÐµÑĤÐµÑĢÐ±ÑĥÑĢÐ³Ðµ":5625,"ĠÐµÑĢ":5626,"ÑĳÑģÑĤ":5627,"Ð°Ð¼Ð¼":5628,"ĠÐ´ÐµÑģÑı":5629,"ĠÐ·Ð½Ð°ÑĩÐ¸ÑĤÐµÐ»ÑĮÐ½Ð¾":5630,"ĠÐ³ÑĢÑĥÐ¿Ð¿Ñĥ":5631,"ĠÐ¿ÑĢÐ¸ÑĩÐ¸Ð½Ðµ":5632,"ĠÑģÐ¼ÑĭÑģÐ»":5633,"ĠÐ¾ÑģÐ²ÐµÑī":5634,"ĠÐºÐ°Ð»Ð¸ÑĦ":5635,"ĠÑģÐ¼ÐµÐ½":5636,"ĠÑĦÑĢÐ¸Ð´ÑĢÐ¸Ñħ":5637,"ĠÑĢÑĥÑģÑģÐºÐ°Ñı":5638,"ĠÑģÐµÐ»ÑĮÑģÐº":5639,"ĠÐ½Ð°ÑĢÐ¾Ð´Ð½ÑĭÐ¹":5640,"ĠÑĥÑĤÐ¾ÑĩÐ½":5641,"ĠÑĢÑıÐ·":5642,"ĠÑĢÐ°Ð·Ð°":5643,"ĠÑĤÑĥÑĢÐº":5644,"ĠÐ·Ð°Ð¿Ð°Ð´Ñĥ":5645,"ĠÐ¿Ð¾Ð¼Ð¾ÑīÑĮ":5646,"ĠÑģÑĤÐ¸Ð²":5647,"ĠÐ¾Ð±Ð»Ð°Ð´Ð°":5648,"ÑĢÐµÑĤÑĮ":5649,"ĠÐ¿Ð°ÑĢÐ°Ð»Ð»":5650,"ĠÐ¾Ð±ÑĬÐµÐºÑĤÐ¾Ð²":5651,"ĠÑģÐ¸ÑĤÑĥÐ°ÑĨÐ¸Ñı":5652,"ÑĤÐµÑĢÐ½":5653,"ĠÐºÐ¾Ðº":5654,"ĠÐ½ÐµÐºÐ¾ÑĤÐ¾ÑĢÐ¾Ðµ":5655,"ĠÑģÐ¼ÐµÑĢÑĤÑĮ":5656,"Ð²ÐµÑĢÐ´":5657,"Ð²Ð°Ð»":5658,"Ð¸Ð½ÑģÐºÐ¸Ðµ":5659,"ÐµÐ¼Ð¿":5660,"ĠÐºÐ°Ð»ÑĮ":5661,"ĠÐ·Ð½Ð°ÑĩÐ¸ÑĤ":5662,"ĠÐ»ÑĳÑĤ":5663,"ÑĦÐ¸Ð¼":5664,"ĠÑģÐµÐ»ÑĮÑģÐºÐ¾ÑħÐ¾Ð·ÑıÐ¹":5665,"ĠÑģÐ¾ÐºÑĢÐ°Ñī":5666,"ĠÐºÐ°Ð»Ð¸ÑĦÐ¾ÑĢ":5667,"ĠÑįÐºÑĢÐ°Ð½":5668,"ĠÐ³Ð°Ð·ÐµÑĤÐ°":5669,"ĠÐ¾ÑģÐ²Ð¾Ð±Ð¾Ð¶Ð´":5670,"Ð¿ÐµÐ´":5671,"Ð°Ð½Ð½Ð¾Ð³Ð¾":5672,"ĠÐ¾Ð±Ð·":5673,"ĠÐ¿ÑĢÐµÐ´ÑĪÐµÑģÑĤÐ²ÐµÐ½":5674,"ĠÑĢÐ°Ð²Ð½Ð¾":5675,"ĠÐ¼Ð¾Ð´ÐµÐ»Ð¸":5676,"ĠÐ¼Ð¾ÑĢÑģÐºÐ¾Ð¹":5677,"ĠÐ¾ÑĤÐ½Ð¾ÑģÑıÑĤ":5678,"ĠÐ½Ð¸ÐºÐ¾Ð»Ð°Ñı":5679,"ĠÐ¿ÐµÐ½":5680,"ĠÑĥÐ´Ð°Ð»ÐµÐ½Ð¸Ñı":5681,"ĠÑĢÐ¾Ð´Ð¸Ð»Ð°ÑģÑĮ":5682,"ĠÐ³Ð¾ÑģÐ¿Ð¾Ð´":5683,"ĠÐ±Ð¾ÑĤÐ°Ð½":5684,"ĠÐºÐ¾Ð½ÑĤÑĢÐ¾Ð»":5685,"ĠÐ¸Ð½Ð¾ÑģÑĤÑĢÐ°Ð½Ð½ÑĭÑħ":5686,"ĠÑĦÐ°":5687,"ÑĪÐµÐ¼Ñĥ":5688,"Ð°Ð²ÑĪÐ¸Ðµ":5689,"ĠÑĦÑĢÐ¾Ð½ÑĤ":5690,"ĠÐ¿ÑĢÐ¾Ð³ÑĢÐ°Ð¼Ð¼Ð°":5691,"ĠÐ²Ð¾ÑģÐ¿ÑĢ":5692,"Ð¿Ð»":5693,"Ð½ÑĥÑĤÑĮ":5694,"ĠÐ·Ð´Ð¾ÑĢÐ¾Ð²":5695,"ĠÐ°Ð´Ð¼Ð¸Ð½Ð¸ÑģÑĤÑĢÐ°ÑĨÐ¸Ð¸":5696,"ĠÐ·ÑĢÐ¸ÑĤ":5697,"ĠÐ¾ÑģÐ½Ð¾Ð²Ð°Ð½Ð¸Ð¸":5698,"ĠÐ¸Ð¾Ñģ":5699,"Ð¾ÑĩÐºÐ°":5700,"ĠÐ´ÐµÐ»Ð°":5701,"ĠÐ»Ð¸Ð½Ð¸Ñı":5702,"ĠÐºÐ»Ð°Ð²":5703,"ĠÑĤÐµÐ½Ð½":5704,"ĠÐ¿Ð¾ÐºÐ¸Ð½":5705,"ĠÐ°Ð²ÑģÑĤÑĢÐ°Ð»Ð¸Ð¸":5706,"ĠÑĦÐ¾ÑĢÐ¼Ðµ":5707,"ĠÐºÑĢÐ¸Ð²":5708,"Ð¾Ð²Ð¾Ð»ÑĮ":5709,"ĠÐ¿Ð¸ÑģÐ°ÑĤÐµÐ»Ð¸":5710,"ĠÐ¿ÑĥÑĤÐµÑĪÐµÑģÑĤÐ²":5711,"ĠÐ²ÑĤÐ¾ÑĢÐ¾Ðµ":5712,"ĠÐ¿ÑĢÐ¾Ð±Ð»ÐµÐ¼Ð°":5713,"ĠÐ»ÑĥÑĩÑĪÐ¸Ñħ":5714,"ĠÑĢÐ¾Ð²":5715,"ĠÐ·Ð°ÑģÑĤÐ°Ð²":5716,"Ð¾Ð½ÑĮ":5717,"ĠÑĩÐ¸ÑģÐ»ÐµÐ½Ð½Ð¾ÑģÑĤÑĮ":5718,"ĠÐ¼Ð¾Ð»Ð´Ð°Ð²":5719,"ÐµÑĤÐ¾Ð²":5720,"ĠÐ¼Ð¾Ð½Ð°ÑģÑĤÑĭÑĢÑı":5721,"ĠÐ¼Ð°Ð¼":5722,"ĠÑĢÐ°ÑģÑĤÐµÐ½Ð¸Ð¹":5723,"ĠÑĤÑĥÑĢÐ½Ð¸ÑĢÐµ":5724,"ĠÐ¾ÑĢÐ¸ÐµÐ½ÑĤ":5725,"ÑĢÐ°Ð±Ð°ÑĤ":5726,"ÑĦÐ¾ÑĢ":5727,"Ð¸Ð²Ð°Ð½Ð¸Ðµ":5728,"ĠÐ¸Ð½Ð³":5729,"ĠÐ±Ð°ÑģÑģÐµÐ¹Ð½":5730,"ĠÑģÐµÐºÑĢÐµÑĤÐ°ÑĢÑĮ":5731,"ĠÐºÑĢÐ¸ÑģÑĤÐ°Ð»":5732,"ĠÑģÐ¾Ð¶":5733,"Ð¸Ð¹ÑģÐºÐ°Ñı":5734,"ĠÐ´Ð¾ÑĢÐ¾Ð³Ð°":5735,"ÐµÐ²ÑĭÐµ":5736,"ĠÐ¾Ð·ÐµÑĢÐ°":5737,"ĠÐµÐ´Ð¸Ð½ÑģÑĤÐ²ÐµÐ½Ð½ÑĭÐ¹":5738,"ĠÐ¾ÑĤÑĤ":5739,"ĠÑĤÐµÑģÑĤ":5740,"ĠÐ¿ÑĢÐµÐ´ÑģÑĤÐ°Ð²Ð¸ÑĤÐµÐ»Ð¸":5741,"ĠÐ²Ð»Ð°Ð´Ð¸Ð¼Ð¸ÑĢÐ¾Ð²Ð¸Ñĩ":5742,"ĠÑĤÐµÑħÐ½Ð¸ÐºÐ¸":5743,"ĠÑĤÐ²Ð¾ÑĢÑĩÐµ":5744,"ĠÐ¸Ð´ÑĳÑĤ":5745,"ĠÐ½Ð°Ð²Ð¸Ð³":5746,"ĠÑĢÐµÐ³Ð¸Ð¾Ð½Ðµ":5747,"ĠÐ²Ð°ÑĢÑĪ":5748,"ÑĢÑıÐ´Ð°":5749,"ĠÑıÐ·ÑĭÐºÐ¸":5750,"Ð¸ÑģÑĤÐ¾Ð¼":5751,"ĠÐºÐ°Ð½Ð°Ð»":5752,"ĠÐ±ÑĢÐ¸Ð³Ð°Ð´Ñĭ":5753,"ĠÑģÐ¾ÑģÑĤÐ¾ÑıÐ»Ð°ÑģÑĮ":5754,"ĠÑģÐ¸Ð»Ñĥ":5755,"ĠÐ¿ÑĢÐµÐ´ÑģÐµÐ´Ð°ÑĤÐµÐ»Ñı":5756,"ÐµÑģÐ»Ð°Ð²":5757,"ĠÐ¸Ð½Ð´Ð¸Ð²":5758,"ĠÑģÐ¾Ð´ÐµÑĢÐ¶Ð¸ÑĤ":5759,"ĠÐ°ÑģÑĤÑĢÐ¾Ð½Ð¾Ð¼":5760,"ĠÑĩÑĳÐ¼":5761,"ĠÐ¸Ð½ÑģÑĤÐ¸ÑĤÑĥÑĤÐµ":5762,"Ð¸ÑĢÐ¾Ð²Ð°Ð»Ð°":5763,"ĠÐºÐ½Ð¸Ð³Ñĥ":5764,"ĠÐ¿ÑĥÑĤÑĳÐ¼":5765,"ĠÐ¼ÑĥÐ¶ÑĩÐ¸Ð½Ñĭ":5766,"ĠÐ¿ÑĢÐµÑģÐ»ÐµÐ´":5767,"ĠÐ¿ÑıÑĤÐ¸":5768,"ĠÑģÐ¾Ð·Ð´Ð°ÑĤÑĮ":5769,"ĠÐ¿Ð¾ÑħÐ¾Ð¶":5770,"ÑĳÑĢÐ¾Ð²":5771,"ĠÐ½Ð°Ð»Ð¸ÑĩÐ¸Ðµ":5772,"ĠÐ²Ð¾Ð²":5773,"ĠÐ¾ÑĤÐ´ÐµÐ»Ð°":5774,"ĠÐ¼ÐµÐ½ÑĮÑĪÐµ":5775,"ĠÐ½Ð°Ð¿ÑĢÐ°Ð²Ð»ÐµÐ½Ð¸Ñı":5776,"ĠÐ²Ð°Ð»ÑĮ":5777,"ĠÐ¿Ð¸Ñī":5778,"ĠÐ¿ÑĢÐ¸Ð±Ñĭ":5779,"ĠÑħÑĢÐ°Ð¼Ð°":5780,"ĠÐ±Ð¾Ð»ÑĮÑĪÑĥÑİ":5781,"ĠÑĩÐµÐ»Ð¾Ð²ÐµÑĩÐµ":5782,"ĠÐ¼ÐµÐ¶Ð´ÑĥÐ½Ð°ÑĢÐ¾Ð´Ð½Ð¾Ð¹":5783,"ĠÐ¾ÑģÐ½Ð¾Ð²Ð½ÑĭÑħ":5784,"ĠÑĥÐ¼ÐµÐ½ÑĮÑĪ":5785,"ĠÑĪÐºÐ¾Ð»ÑĮ":5786,"ĠÑģÑĥÐ´ÐµÐ±":5787,"ĠÐ²ÑĭÐ±Ð¾ÑĢÐ°Ñħ":5788,"ĠÐ¼Ð¾Ð³Ð¸Ð»":5789,"ĠÐ²Ð¸Ð´Ð¸Ð¼":5790,"ĠÑģÐ¾Ð²ÑĢÐµÐ¼ÐµÐ½Ð½Ð¾Ð¹":5791,"ĠÐ´Ð°Ð»ÑĮÐ½ÐµÐ¹ÑĪÐµÐ¼":5792,"ĠÐ¸Ð·Ð½Ð°ÑĩÐ°Ð»ÑĮÐ½Ð¾":5793,"ĠÑĢÐµÐ·ÑĥÐ»ÑĮÑĤÐ°ÑĤÐ°Ð¼":5794,"ĠÐ·Ð°Ð³Ð»Ð°Ð²":5795,"Ð°Ð¹ÑĤ":5796,"ĠÐ½Ð°Ð¿Ð°Ð´":5797,"ĠÐ¿Ð¾ÑĪ":5798,"Ð¸Ð´Ðµ":5799,"ĠÐ¿ÑĢÐ°Ð²Ð´Ð°":5800,"ĠÐ½Ð°ÑĢÐ¾Ð´Ð½Ð¾Ð³Ð¾":5801,"ĠÐºÐ¾Ð¼Ð¼ÐµÑĢÑĩÐµ":5802,"ĠÐ¿ÑĢÐ¾ÑĤÐ¸Ð²Ð¾ÑĢÐµÑĩ":5803,"ĠÐ´Ð¸Ð¿Ð»Ð¾Ð¼Ð°ÑĤ":5804,"ĠÐ¼ÑĥÑģÑĥÐ»ÑĮÐ¼Ð°Ð½":5805,"Ð°Ð³Ð°":5806,"ĠÐ°Ð½Ð°":5807,"ĠÑĢÑĥÐ±Ð»":5808,"Ð»ÐµÐ½Ð´":5809,"ĠÐ²Ð½ÑĥÑĤÑĢÐ¸":5810,"ĠÐ±ÑĥÐ¼":5811,"ĠÐ¶Ð¸Ð²Ð¾ÑĤÐ½ÑĭÑħ":5812,"ĠÐ¸Ð¼Ð¿ÐµÑĢÐ°ÑĤÐ¾ÑĢÐ°":5813,"ĠÐ´Ð¾Ð½ÐµÑĨ":5814,"ÐµÐ»ÐµÐ½":5815,"ĠÑģÐ¸Ð³Ð½":5816,"ĠÐ´Ð¾ÐºÑĤÐ¾ÑĢÐ°":5817,"ĠÑģÐ»Ð¾Ð²Ð°ÑĢÑĮ":5818,"ĠÐ·ÐµÐ¼ÐµÐ»ÑĮ":5819,"ÑĢÐ°ÑĤÑĮÑģÑı":5820,"ĠÐ±Ð¸Ð·Ð½ÐµÑģ":5821,"ĠÐ´Ð¾Ð±ÑĢÐ¾Ð²":5822,"ĠÐ´Ð²Ð¾ÑĢÐ¾Ð²":5823,"ÑĢÐ¾ÑĤ":5824,"ĠÐºÐ¾ÑĢÐ°Ð±Ð»Ñı":5825,"ĠÐºÐ½ÑıÐ·Ñı":5826,"ĠÑģÐ°Ð½ÑĤ":5827,"ĠÐ²ÐµÐ»Ð¸ÐºÐ¸Ð¹":5828,"ĠÐ¼ÐµÐ¶Ð´ÑĥÐ½Ð°ÑĢÐ¾Ð´Ð½ÑĭÑħ":5829,"ĠÐ¿Ð¾ÑĤÐµÐ½ÑĨ":5830,"ĠÐ²Ð¾Ð¹ÑģÐºÐ°Ð¼Ð¸":5831,"ĠÐ¿ÑĢÐµÐ´Ð»Ð¾Ð¶ÐµÐ½Ð¸Ðµ":5832,"ĠÑģÑĤÐ¸Ð»Ðµ":5833,"ĠÐ¿Ð¾Ð»ÑĥÑĩÐ¸ÑĤÑĮ":5834,"ĠÐ·Ð°Ð²Ð¸ÑģÐ¸Ð¼Ð¾ÑģÑĤÐ¸":5835,"ÑĮÐµÑĢÐ°":5836,"ĠÐ½Ð°ÑģÑĩÐ¸ÑĤ":5837,"ĠÐ¿ÑĭÑĤÐ°":5838,"ĠÐ²ÑģÐµÑĢÐ¾ÑģÑģ":5839,"ĠÐºÑĢÐ°ÑģÐ½ÑĭÐ¹":5840,"ĠÐ²ÑģÑĤÑĢÐµÑĩÐ°ÐµÑĤÑģÑı":5841,"ĠÐ¸ÑĤÐ¾Ð³Ð¸":5842,"ĠÐ°ÑĤÐ»ÐµÑĤ":5843,"ĠÑĥÑĢÐ¾Ð²Ð½ÐµÐ¼":5844,"ÑĤÐ¾ÑĢÐ¾Ð²":5845,"ÑĩÐ°Ð½":5846,"Ð°Ð²Ð°ÑĢ":5847,"ĠÑĩÐµÑĪ":5848,"ĠÐºÐ°ÑĢÑĤÐ¸Ð½Ñĭ":5849,"ĠÐ´Ð¾ÑĩÐµÑĢÐ¸":5850,"ĠÑģÐ¾Ð±ÑĭÑĤÐ¸Ð¹":5851,"ĠÐ¶ÐµÑģÑĤ":5852,"ĠÑģÐ¿Ð¾ÑĢÑĤÑģÐ¼ÐµÐ½":5853,"Ð¾Ð²Ð°Ð»ÑģÑı":5854,"Ð¸Ð¾Ð½Ð°":5855,"ÐºÐµÑĢ":5856,"ĠÐ±ÑĥÐ´ÑĥÑĩÐ¸":5857,"Ð¾Ð²ÑĥÑİ":5858,"ĠÐ²ÑĭÑģÑĪÐµÐ¹":5859,"ÑĢÐ°Ð½ÑĤ":5860,"ĠÑģÑĢÐµÐ´Ð½Ð¸Ð¹":5861,"ĠÐ¸Ð½Ð´Ð¸Ð¸":5862,"ĠÑĢÑĥÑģÑģÐºÐ¾Ðµ":5863,"ĠÑģÑĥÑĢ":5864,"ĠÐ²ÑĭÐ¸Ð³ÑĢÐ°Ð»":5865,"Ð¾Ð¿Ð¾Ð»":5866,"ĠÐ²ÑĤÐ¾ÑĢÐ¾Ð¼":5867,"ĠÐ½Ð°ÑĢÐ¾Ð´Ð°":5868,"ĠÐ¾Ð±ÑīÐµÑģÑĤÐ²":5869,"ĠÑģÐ¾Ð·Ð´Ð°":5870,"ĠÐ¾ÑĤÑģÑĥÑĤÑģÑĤÐ²Ð¸Ðµ":5871,"ĠÑįÐºÑģÐ¿ÐµÑĢÐ¸Ð¼ÐµÐ½ÑĤ":5872,"ĠÑĢÐ¾ÑģÑģÐ¸Ð¹ÑģÐºÐ¾Ð³Ð¾":5873,"ĠÐ¾ÑĢÐ¸ÑģÑģ":5874,"ÑģÐ»ÑĥÐ¶":5875,"ÐµÐ¶Ð´":5876,"ĠÐ³Ð°Ð¹":5877,"ĠÐ¾ÑģÑĤÐ°Ð»ÑĮÐ½ÑĭÐµ":5878,"ĠÑģÐ°Ð¼Ð°":5879,"ĠÑĤÑİÑĢÑĮ":5880,"ĠÐ³Ð¸Ð¼Ð½Ð°Ð·":5881,"ÑĤÐ°Ð¶":5882,"ĠÑĢÑĥÑĩ":5883,"ĠÑģÑĤÐ¾ÑĢÐ¾Ð½Ðµ":5884,"Ð±Ð¾":5885,"ĠÐ»Ð¾ÑĢ":5886,"Ð¸ÑħÐ°":5887,"ÐµÐ·Ð°":5888,"ĠÐºÐ¾Ð½ÐµÑĨ":5889,"ĠÐ¸ÑģÑĤÐ¾ÑĢÐ¸Ðº":5890,"ĠÐ³Ð¾ÑĤ":5891,"ĠÑģÐ¾Ð½":5892,"Ð·ÑĭÐ²Ð°ÑİÑĤ":5893,"ĠÐ¿Ð¾ÑģÑĤÐ¾ÑıÐ½Ð½Ð¾":5894,"Ð½ÐµÐ¼Ñĥ":5895,"ĠÑĤÐ¸ÑĢÐ°Ð¶":5896,"ĠÐ¿ÑĢÐ¾Ð´Ð°Ð¶":5897,"ĠÐ¿Ð¾ÑħÐ¾ÑĢÐ¾Ð½ÐµÐ½Ð½ÑĭÐµ":5898,"ĠÐ´ÐµÐ¿ÑĥÑĤÐ°ÑĤ":5899,"ĠÐºÐ¾Ð¼ÐµÐ´":5900,"ĠÑįÐ½ÑĨÐ¸ÐºÐ»Ð¾Ð¿ÐµÐ´Ð¸Ð¸":5901,"ĠÐ¿ÑĢÐµÐ¸Ð¼ÑĥÑīÐµÑģÑĤÐ²ÐµÐ½Ð½Ð¾":5902,"ĠÐ¸Ð·Ð±Ð¸ÑĢÐ°ÑĤ":5903,"ĠÑĤÐµÐ¾ÑĢÐµÑĤ":5904,"ĠÐ³Ð»Ð°Ð²Ð½Ð¾Ð¹":5905,"ĠÑĩÐ¶":5906,"ĠÑħÑĥÐ´Ð¾Ð¶Ð½Ð¸ÐºÐ¾Ð²":5907,"ĠÐ¾ÑħÐ¾ÑĤ":5908,"ĠÐ¿ÑĢÐ°Ð²ÐºÐ¸":5909,"ĠÐ¼Ð¸Ð³":5910,"ĠÐºÐ¾Ð¼Ð¼ÑĥÐ½Ð¸ÑģÑĤ":5911,"ĠÐ½ÐµÑĥÐ´Ð°":5912,"ÑĳÐ½Ð½Ð¾Ðµ":5913,"ĠÑģÐ¾Ð¾Ð±ÑīÐµÐ½Ð¸Ðµ":5914,"ĠÐ½Ð°ÑĩÐ°Ð»ÑĮÐ½Ð¸ÐºÐ°":5915,"ÑĥÑĤÐ°":5916,"ĠÑģÑĢÐµÐ´Ð½ÐµÐ²":5917,"ĠÐ´Ð¸ÑģÑĤÐ°Ð½":5918,"ĠÐ¿ÐµÑĤÑĢÐ°":5919,"ĠÐ°Ð½Ð´Ð¶":5920,"ĠÐ¿ÑĢÐ°":5921,"ĠÐ»Ð°ÑĢ":5922,"ĠÐ¿ÑĢÐ¾Ð½":5923,"ĠÐ¿Ð¾ÑģÑĤÑĢÐ¾Ð¹":5924,"Ð°ÑĤÐµÐ»ÑĮÐ½ÑĭÑħ":5925,"ĠÐ¸Ð¾ÑģÐ¸ÑĦ":5926,"ĠÐ¸ÑģÐ»Ð°Ð¼":5927,"ĠÐ¾ÑĦ":5928,"ĠÐ¸Ð·Ð¼ÐµÑĢ":5929,"ĠÐ·Ð¾":5930,"Ð°Ð»Ð¸Ð·Ð¼":5931,"ĠÑĦÑĢÐ°Ð½Ñģ":5932,"ĠÐ¿ÑĢÐ¾Ð´ÑİÑģÐµÑĢ":5933,"ĠÐ¾Ð¶Ð¸Ð´":5934,"ĠÐ³Ð¾ÑĢÑĮ":5935,"ĠÑģÐ¿Ð¸ÑģÐºÐ¸":5936,"ĠÐ·Ð²ÐµÐ·Ð´Ñĭ":5937,"ĠÑĥÐºÑĢÐ°Ð¸Ð½Ðµ":5938,"ĠÑĩÐ°Ð¹":5939,"ĠÐ¿Ð¾ÑģÐµÑĤ":5940,"ĠÐ±Ð¾ÑĢÑĮÐ±Ðµ":5941,"ÑĩÐ¸ÐºÐ¸":5942,"ĠÐ·Ð°ÑıÐ²Ð¸Ð»":5943,"ÑĨÐ¾Ð¼":5944,"ĠÐ°Ð²ÑĤÐ¾Ð±ÑĥÑģ":5945,"ĠÐ¾Ð±ÑīÐµÐ¼":5946,"ĠÑģÑĤÐ°ÑĤÐ¸ÑģÑĤÐ¸ÐºÐ°":5947,"ĠÐ±Ð¾ÑıÑħ":5948,"ĠÐ²Ð»":5949,"ÐµÐ²Ð°Ñı":5950,"ĠÑĪÐ¾ÑģÑģ":5951,"ĠÐ¾ÑģÐ°Ð´":5952,"Ð¾Ð²Ð¸ÑĩÐ°":5953,"Ð¾Ð²Ð¾Ð¼":5954,"ĠÐ²Ð½Ðµ":5955,"ĠÐµÐºÐ°ÑĤÐµÑĢÐ¸Ð½":5956,"Ð¸ÑĢÐ¾Ð²ÐºÐ°":5957,"ĠÐ°Ð½Ð³Ð»Ð¸Ð¹ÑģÐºÐ¾Ð¼":5958,"ĠÐ¾Ð´ÐµÑĢÐ¶":5959,"ĠÐºÐ°Ð½ÑĤÐ¾Ð½":5960,"ĠÐºÐ°ÑĢÑĤÐ¾Ñĩ":5961,"Ð°Ð½Ð¾Ð¼":5962,"ÐµÐ¹ÑĤ":5963,"ĠÐ´Ð°Ð½Ð½Ð¾Ð³Ð¾":5964,"ĠÑģÐ¿Ð¸ÑģÐºÐµ":5965,"ĠÐºÐ¸ÑģÐ»":5966,"ĠÐ°ÑĥÐ´":5967,"ÑħÐ¾Ð·Ð°":5968,"ĠÐ¸Ð·Ð²ÐµÑģÑĤÐ½ÑĭÑħ":5969,"ĠÑĢÐµÑĩÐ½Ð¾Ð¹":5970,"ĠÑĢÐ°ÑģÑģÑĤÐ¾ÑıÐ½":5971,"ĠÐ¿ÑĢÐµÐ´Ð¿ÑĢÐ¸Ð½Ð¸Ð¼":5972,"ĠÑįÐ´Ñĥ":5973,"ĠÐºÐ¾Ð½ÑĤÑĢÐ¾Ð»ÑĮ":5974,"ĠÑħÐ¾ÑĤÑĮ":5975,"ĠÐ½Ð°ÑĥÐºÐ°":5976,"ÐµÐ¼Ð¾Ð³Ð¾":5977,"ÑįÐ´":5978,"ĠÑĢÐµÑĪÐ¸Ð»":5979,"ĠÑĢÐµÐµÑģÑĤÑĢÐ°":5980,"ĠÑĤÐµÐ¼Ðµ":5981,"ĠÑģÐ¾ÑĨÐ¸Ð°Ð»Ð¸ÑģÑĤÐ¸ÑĩÐµÑģÐºÐ¾Ð³Ð¾":5982,"ĠÐ²Ð¿Ð»Ð¾ÑĤ":5983,"ĠÐ¿Ð»Ð¾ÑĤÐ½Ð¾ÑģÑĤÐ¸":5984,"ĠÑįÑģ":5985,"ÑĥÐ¿ÑĢÐ°Ð²":5986,"ĠÐ¾Ð·Ð½Ð°ÑĩÐ°ÐµÑĤ":5987,"ĠÐ¸ÑĤÐ°Ð»Ð¸Ñı":5988,"ĠÑģÐ¾ÑĤÑĢÑĥÐ´Ð½Ð¸ÑĩÐµ":5989,"Ð¸ÑĩÐ½Ð¾Ð¹":5990,"ĠÑĤÐ¾Ð¼Ð°Ñģ":5991,"ĠÐ½Ð¸ÐºÐ¾Ð»Ð°ÐµÐ²":5992,"ĠÐ¿Ð¾ÑģÐ»ÐµÐ´Ð¾Ð²Ð°ÑĤÐµÐ»ÑĮ":5993,"ĠÐ¼Ð°ÑĤÑĩÐ°":5994,"ĠÑģÐ¾Ð²ÐµÑĤÑģÐºÐ¸Ñħ":5995,"ĠÐ¾ÑĤÐµÑĩÐµÑģÑĤÐ²ÐµÐ½":5996,"ĠÐ½Ð°Ð¿Ð¸ÑģÐ°ÑĤÑĮ":5997,"ĠÑģÐ°Ð¿":5998,"ĠÐ¿Ð¾ÐºÐ¾Ð»":5999,"ĠÑĦÐ°Ð½ÑĤÐ°ÑģÑĤ":6000,"ĠÑĥÑĩÑĳÑĤ":6001,"Ð¾ÑĢÐ°ÑĤÐ¾ÑĢ":6002,"ĠÐ´Ð²Ð¾Ð¹":6003,"ĠÐ¸ÑģÑģÐ»ÐµÐ´Ð¾Ð²":6004,"ĠÑģÐ¾ÑģÑĤÐ¾ÑıÐ»ÑģÑı":6005,"ĠÐ¸ÑģÐ¿Ð°Ð½":6006,"ĠÑģÐ»Ð°Ð²ÑıÐ½":6007,"ĠÐ¿Ð¾ÑģÑĤÐµÐ¿":6008,"ÑĢÐ¸Ð³":6009,"Ð°Ð¼ÐµÑĢ":6010,"ĠÐ·Ð°Ð¼ÑĥÐ¶":6011,"ĠÐ³ÑĢÐ°Ð´":6012,"ĠÑĢÐµÐºÐ¾Ð½ÑģÑĤ":6013,"Ð°Ð½Ð½":6014,"ĠÐºÐ¾Ð»ÑĥÐ¼Ð±":6015,"ĠÑģÐµÑĢÐ¸Ð¹":6016,"ĠÑĤÐµÐ¼Ð°":6017,"ĠÐ»Ð¸ÑĤÐµÑĢÐ°ÑĤÑĥÑĢÐ°":6018,"ĠÐ´Ð°Ð³":6019,"Ð¾Ð·Ð´":6020,"ĠÑĪÐµÑģÑĤÑĮ":6021,"ÐºÐ°Ñģ":6022,"ĠÐ¶ÐµÑĢÑĤÐ²":6023,"ĠÐ¿ÑĢÐµÐ´ÑĥÐ¿ÑĢÐµÐ¶Ð´":6024,"ÑįÑģ":6025,"ĠÐ´ÐµÐ¹ÑģÑĤÐ²Ð¸Ðµ":6026,"ĠÐ½Ð°Ð¿ÑĢÐ°Ð²Ð»ÐµÐ½":6027,"ĠÑįÐ»ÐµÐ¼ÐµÐ½ÑĤ":6028,"Ð°Ð¼Ð¿":6029,"ĠÐºÐ°ÐºÐ¸Ñħ":6030,"Ð¾Ð³Ð°":6031,"ĠÑĩÐ°ÑģÑĤÐµÐ¹":6032,"ĠÑħÑĥÐ´Ð¾Ð¶Ð½Ð¸ÐºÐ¸":6033,"ĠÐ¿ÑĥÐ±Ð»Ð¸ÐºÐ°ÑĨÐ¸Ð¸":6034,"ĠÐ»ÐµÐ±":6035,"ĠÑģÐ¸":6036,"Ð¸ÑĤÐ¾Ð¼":6037,"ĠÑģÐ²ÐµÑĢÐ´":6038,"ĠÐ¸Ð¼ÐµÑĤÑĮ":6039,"ĠÐ³Ð¾ÑģÑĥÐ´Ð°ÑĢÑģÑĤÐ²Ð¾":6040,"ĠÑĥÑĩÐ¸ÑĤ":6041,"ĠÐ¾ÐºÑĢÑĥÐ³Ðµ":6042,"ĠÐ½Ð°ÑģÐµÐ»ÐµÐ½Ð¸Ñİ":6043,"ĠÐ¿ÑĥÐ½ÐºÑĤÐ°":6044,"ĠÑģÐ¾Ð»Ð½ÐµÑĩ":6045,"ĠÐ²ÐµÐ´Ð¾Ð¼":6046,"ĠÐ¿ÑĢÐµÐ´Ð¿ÑĢÐ¸ÑıÑĤÐ¸Ñı":6047,"ĠÑĩÑĢÐµÐ·":6048,"Ð¾Ð²Ð°ÑĤÑĮÑģÑı":6049,"ĠÐ´ÐµÐ¿ÑĥÑĤÐ°ÑĤÐ¾Ð²":6050,"ĠÐ¸Ð·Ð³":6051,"ĠÐ¼Ð°ÑĤÐµÑĢÐ¸Ð°Ð»Ð¾Ð²":6052,"Ð´Ð°ÑĢ":6053,"ĠÑįÐ¼Ð¸Ð³":6054,"ĠÐ¿Ð¾Ð»ÑĮÐ·Ñĥ":6055,"Ð¸Ð½ÐºÐ°":6056,"ĠÑĤÐ°ÐºÐ¾Ð¼":6057,"ĠÐ°Ð¿Ð¾ÑģÑĤ":6058,"ĠÐ»ÐµÐ¾Ð½Ð¸Ð´":6059,"ĠÐ½ÑĢÐ°Ð²":6060,"ĠÐ·Ð°Ð¼Ð¾Ðº":6061,"ÑıÑīÐµÐ³Ð¾":6062,"ĠÐ¾Ð±ÑīÐ°Ñı":6063,"ÑıÑīÐ¸Ðµ":6064,"ÑĢÑĥÑģ":6065,"ĠÐ²ÑĭÐ¿ÑĥÑģÐºÐ°":6066,"ĠÐ·Ð½Ð°Ñİ":6067,"ÑĨÐ¾":6068,"ĠÐ¿ÑĢÐ¸Ð·Ð²":6069,"ĠÑĤÐµÐ¾ÑĢÐ¸Ñı":6070,"ĠÐ¿ÑĮÐµÑģ":6071,"ÑĪÐµÐ¹ÑģÑı":6072,"ÑİÐº":6073,"ÐµÐ»ÐµÐ²":6074,"Ð¾Ð²Ðµ":6075,"ĠÐ°ÑģÑģÐ¾ÑĨÐ¸Ð°ÑĨÐ¸Ð¸":6076,"ĠÑģÐ°Ð¼Ð¾Ðµ":6077,"ĠÑįÑĦÑĦÐµÐºÑĤ":6078,"ĠÐ¸Ð»Ð»ÑİÑģÑĤ":6079,"ĠÐ»ÐµÐ¶":6080,"ĠÑĤÐµÐ°ÑĤÑĢÐµ":6081,"ĠÑĦÑĥÐ½ÐºÑĨÐ¸Ð¸":6082,"ĠÐ´Ð¾Ð¿ÑĥÑģÑĤ":6083,"ÑģÐµÐ»":6084,"ÑĩÐ¸ÐºÐ°":6085,"ĠÐ°Ð»Ð¸":6086,"ĠÐ²ÑĭÐ´ÐµÐ»Ñı":6087,"ĠÐ±ÑĥÐºÐ²":6088,"ĠÐ²Ð¾Ð¹Ð½Ñĥ":6089,"ĠÐ¾Ð±ÑĬÐµÐºÑĤÐ°":6090,"ĠÐ´ÐµÐ»ÐµÐ³":6091,"ĠÐ¾ÑģÐ¿":6092,"ĠÑģÐµÐ²ÐµÑĢÐ½Ð°Ñı":6093,"ĠÐ¿Ð¾ÑģÑĤÑĢÐ¾ÐµÐ½":6094,"ĠÑĤÐ¾Ð½Ð½":6095,"ĠÐ¾ÑĤÐ±":6096,"ĠÐºÐ°Ð¶Ð´Ð¾Ð³Ð¾":6097,"ĠÐ°ÑģÑģÑĢ":6098,"ĠÑĢÐ°ÑģÐ¿Ð¾Ð»Ð¾Ð¶ÐµÐ½Ð¾":6099,"ĠÐºÐ°Ð¶Ð´Ð¾Ð¹":6100,"ĠÑĨÐ¸Ðº":6101,"Ð¸ÑĤÐµÐ»ÑĮÐ½Ð¾ÑģÑĤÐ¸":6102,"ĠÐ¿Ð°ÑģÑģÐ°Ð¶Ð¸ÑĢ":6103,"ĠÐºÑĢÐµÐ¹Ñģ":6104,"ĠÐºÐ¾Ð¼Ð°Ð½Ð´Ðµ":6105,"ĠÐ¿ÑĢÐ¸Ð»Ð¾Ð¶":6106,"ĠÑģÑĢÐµÐ´Ð½ÐµÐ²ÐµÐº":6107,"ĠÐºÑĢÑĥÐ¿Ð½ÑĭÑħ":6108,"ÑĨÐ°Ð¼":6109,"ĠÑĤÑĳÐ¼":6110,"ĠÐ±ÑĢÐ°Ð·Ð¸Ð»Ð¸Ð¸":6111,"ÐµÐ½ÑģÐºÐ¾Ð¼":6112,"ĠÐ²Ð¸Ð·Ð°Ð½ÑĤ":6113,"ĠÐ»ÑİÐ±Ð¾Ð²ÑĮ":6114,"ĠÐºÐ²Ð°Ð»Ð¸ÑĦ":6115,"ĠÐ¸ÑģÐºÑĥÑģÑģÑĤÐ²Ð¾":6116,"ĠÐºÐ¾Ð±":6117,"ĠÑĤÐµÐ»ÐµÐ²Ð¸Ð·":6118,"ĠÑģÐ¾Ð°Ð²":6119,"ÐµÑĢÐ°Ð¼":6120,"ĠÐ°ÑĢÐ¼Ð¸Ñİ":6121,"ĠÐ²ÐµÑĢÐ½ÑĥÑĤÑĮ":6122,"ĠÐ¼ÐµÑĤÐ°Ð»Ð»ÑĥÑĢÐ³":6123,"ĠÑĥÑħÐ¾Ð´":6124,"ĠÐ°Ð½Ð¾Ð½Ð¸Ð¼":6125,"ĠÑģÐ²ÑıÐ·ÑĮ":6126,"ĠÐ¿ÑĢÐµÐ¿Ð¾Ð´Ð°Ð²Ð°ÑĤÐµÐ»Ð¸":6127,"ÑīÐ¸ÐºÐ¾Ð²":6128,"ĠÐºÐ¾ÑĢÐ¼":6129,"ĠÐ²ÐµÐ½Ð³ÐµÑĢ":6130,"ĠÐ²ÑĭÑģÐºÐ°Ð·":6131,"ĠÑģÐ²ÐµÑĢÐ´Ð»Ð¾Ð²":6132,"Ð¾Ð»Ð¾Ð³Ð¸ÑĩÐµÑģÐºÐ¸Ðµ":6133,"ĠÐ²Ð¾ÐµÐ½Ð½ÑĭÐµ":6134,"ĠÐ³Ð¾ÑĢÑĭ":6135,"ĠÐºÐ¾Ð½ÑĤÐ¸Ð½ÐµÐ½ÑĤ":6136,"ĠÐ±Ð¸Ð±Ð»Ð¸Ð¾ÑĤÐµÐºÐ°":6137,"ĠÐ²Ð·ÑĢÐ¾Ñģ":6138,"ĠÐ¾Ð±Ð¾":6139,"ĠÐºÐ½Ð¸Ð¶":6140,"ĠÑĤÐ¾Ð»ÑģÑĤ":6141,"ĠÐ¼ÐµÑģÑıÑĨÐ°":6142,"ĠÑĦÐ¸Ð½Ð°Ð»":6143,"ĠÐ²Ð·Ð°Ð¸Ð¼Ð¾Ð´ÐµÐ¹ÑģÑĤÐ²":6144,"ĠÐ¶Ð¸ÑĤÐµÐ»Ð¸":6145,"ĠÐ´Ð¾Ð¼Ð¸Ð½":6146,"ĠÑıÐ¼":6147,"ĠÐ¿ÐµÑĢÐµÐ½ÐµÑģ":6148,"Ð¾Ð½Ñĥ":6149,"ÐµÐ´Ð°":6150,"ĠÑĢÐ°Ð·Ð½Ð¾":6151,"ĠÐ¿Ð°ÑĢÐ¸":6152,"ĠÐ·Ð¾Ð»Ð¾ÑĤÐ°Ñı":6153,"ĠÐºÐ¾Ð½ÑĦÐ»Ð¸ÐºÑĤ":6154,"ĠÐºÐ¾ÑĢÑĢÐµ":6155,"ĠÑģÐºÐ°Ð·Ð°Ð»":6156,"ĠÐ¾Ð¿ÑĥÐ±Ð»Ð¸ÐºÐ¾Ð²Ð°Ð½":6157,"ÐºÐ¾ÑģÑĤÑĮ":6158,"Ð°ÑĢÑģÐºÐ¾Ð³Ð¾":6159,"ĠÐ·Ð°Ð¹":6160,"ĠÑħÐ°Ð±":6161,"ĠÐ´Ð°Ð½Ð¸":6162,"ĠÑĢÐµÐ¶Ð¸ÑģÑģÑĳÑĢÐ°":6163,"ĠÐ³ÐµÐ¾ÑĢÐ³Ð¸Ð¹":6164,"Ð²Ð°Ð½":6165,"ĠÐ»ÑĥÐ½":6166,"ĠÐºÐ¾Ð¾ÑĢÐ´Ð¸Ð½":6167,"ÐºÐµÐ¹":6168,"Ð½Ð¸ÐºÑĥ":6169,"ÑĭÐ²Ð°Ñı":6170,"ĠÐ´Ð¸ÑĢÐµÐºÑĤÐ¾ÑĢÐ°":6171,"ĠÐ½Ð°Ð²ÐµÑĢ":6172,"ĠÐ±Ð°Ð´":6173,"ĠÐ´ÑĢÑĥÐ³Ð¾Ð¼":6174,"Ð²ÑĥÑĩ":6175,"Ð¾Ð»ÑĮÑĦ":6176,"ĠÑģÑĩÐµÑĤ":6177,"Ð¸Ð½Ñı":6178,"ĠÐ°Ð»ÐµÐºÑģÐµÐµÐ²Ð¸Ñĩ":6179,"ĠÐ¼Ð°ÑĢÑĪÑĢÑĥ":6180,"ĠÐ»Ð¾Ð¿":6181,"ĠÐºÐ¾Ð½ÑĦÐµÑĢÐµÐ½ÑĨÐ¸Ð¸":6182,"Ð°Ð»ÑĮÐ½ÑĭÐ¼Ð¸":6183,"ĠÑĢÐµÐºÐ¾Ð¼ÐµÐ½Ð´":6184,"ĠÑĢÐ°ÑĥÐ½Ð´":6185,"ĠÑģÐ½Ð¸Ð¶":6186,"ĠÐ»Ð¸Ð¼":6187,"ĠÑĨÐ·":6188,"ĠÐºÐ¾Ð»ÑħÐ¾Ð·":6189,"ĠÐ»Ð¾Ð¶":6190,"ĠÐ½ÐµÐ¼Ñĥ":6191,"ĠÐ²ÑĭÑģÐºÐ°":6192,"ĠÐ·Ð°Ð»Ð¾Ð¶":6193,"ĠÑĦÐ°Ð±ÑĢ":6194,"ĠÐ¾Ð±ÑģÐ»ÑĥÐ¶":6195,"ĠÐ¼Ð°ÑĢÑĤÐ¸Ð½":6196,"ĠÐ±Ð¾Ð»ÑĮÑĪÐ¸Ðµ":6197,"ĠÐ´ÐµÐ¿Ð°ÑĢÑĤÐ°Ð¼ÐµÐ½ÑĤÐ°":6198,"ĠÑģÐµÐ²ÐµÑĢÐµ":6199,"ĠÐ½Ð°Ð¼ÐµÑĢ":6200,"ĠÐ¼ÑıÑĩ":6201,"ĠÐ°ÑĢÑħÐ¸ÑĤÐµÐºÑĤÑĥÑĢ":6202,"ĠÑĪÐµÐ²":6203,"Ð½Ð¾ÑģÑĤÑıÑħ":6204,"ĠÐ³ÑĢÐµÑĨÐ¸Ð¸":6205,"ĠÐ¸Ð½Ð´Ð¸Ð²Ð¸Ð´Ñĥ":6206,"ĠÑĤÐµÐ¼Ñĭ":6207,"ĠÐ±Ð¾ÑĢÑĮÐ±Ñĭ":6208,"ĠÐ¼Ð¸Ð½Ð¸Ð¼Ð°Ð»ÑĮÐ½Ð°Ñı":6209,"ĠÐ¾Ð±Ð½Ð¾Ð²Ð»ÐµÐ½Ð¸Ðµ":6210,"ĠÑĦÑĢÐ°Ð½Ðº":6211,"ĠÑĥÐºÑĢÐ°Ð¸Ð½ÑģÐºÐ¸Ð¹":6212,"ĠÐ¿ÑĢÐ¸Ð½ÑıÑĤÑĮ":6213,"ĠÐ¼Ð¸ÑģÑĤ":6214,"ĠÐ½Ð°Ð¿Ð°Ð´Ð°":6215,"ĠÐ¿ÑĥÐ»ÐµÐ¼":6216,"ĠÐ¿ÑĢÐ¾Ð²ÐµÐ´ÐµÐ½Ð¸Ñı":6217,"ĠÐ±Ð¾Ð³Ð¾ÑģÐ»Ð¾Ð²":6218,"ĠÐ³Ð¾Ð»Ð¾ÑģÐ¾Ð²":6219,"ĠÑģÐ¿ÑĢÐ°Ð²Ð¾Ñĩ":6220,"ĠÐ´Ð¸ÑĦ":6221,"ĠÐ½Ð°ÑģÐº":6222,"ĠÐ²Ð¸Ð»ÑĮÐ³ÐµÐ»ÑĮ":6223,"ĠÐ±ÑĢÐ¸Ð³Ð°Ð´":6224,"ĠÑĢÑĥÐ±Ð»ÐµÐ¹":6225,"ĠÐ²Ð¾Ð»Ð¾ÑģÑĤÑĮ":6226,"ĠÐ½ÐµÐ¾Ð´Ð½Ð¾ÐºÑĢÐ°ÑĤÐ½Ð¾":6227,"ĠÑģÐ¾Ð±ÑĢÐ°Ð½Ð¸Ñı":6228,"ĠÐ¿Ð¾ÑģÑĳÐ»ÐºÐ°":6229,"ĠÐ¿ÑĥÑģÑĤÑĮ":6230,"ÐµÑĢÐµÐ¹":6231,"Ð¾ÑĢÐ±":6232,"ĠÑĥÑĩÑĳÐ½ÑĭÐ¹":6233,"ĠÑĩÐ°ÑīÐµ":6234,"ĠÐºÑĢÐ°ÑģÐ½Ð¾ÑıÑĢ":6235,"Ð¸ÑĤÐµÐ»ÑĮÐ½Ð¾ÑģÑĤÑĮ":6236,"ÑĢÐµÑħ":6237,"ĠÐ¿ÑĢÐµÐ´Ð¿Ð¾Ñĩ":6238,"ĠÐ¿ÑĢÐ¸ÑģÐ²Ð¾ÐµÐ½Ð¾":6239,"Ð°ÑĤÐµÐ»ÑĮÐ½ÑĭÐ¹":6240,"ĠÐ¾Ð±ÑĢÐ°Ð±Ð¾ÑĤ":6241,"ĠÐ»Ð¸ÐºÐ²Ð¸Ð´":6242,"ÑĥÑģÐ»Ð¾Ð²":6243,"ĠÑİÐ³Ðµ":6244,"ĠÐ³ÐµÑĢÐ¾Ð¸":6245,"ĠÐºÐ¸Ð½ÐµÐ¼Ð°ÑĤ":6246,"ĠÐ¾ÑģÑĤÑĢÐ¾Ð²Ðµ":6247,"ĠÑħÑĥÑĤÐ¾ÑĢ":6248,"Ð³Ð¸Ð·":6249,"ĠÐ¿ÑĢÐ¾ÑĦÐµÑģÑģÐ¾ÑĢÐ°":6250,"ĠÑĨÐµÐ½":6251,"ĠÐ³Ð¾Ð»Ð»Ð°Ð½Ð´":6252,"ĠÐ¿ÐµÑĤÑĢ":6253,"ĠÐ¼Ð¸ÑĪ":6254,"ĠÑģÑĤÑĥÐ´Ð¸Ð¸":6255,"ĠÐ·Ð°ÐºÑĢÑĭ":6256,"ĠÑģÐ¸Ð¼Ð¿":6257,"ĠÐ¾ÑģÐµÐ½ÑĮ":6258,"ĠÐºÐ¾Ð¼Ð°Ð½Ð´Ð¸ÑĢÐ°":6259,"Ð¸ÑĢÑĥÑİÑĤ":6260,"ĠÐ²Ð¿Ð»Ð¾ÑĤÑĮ":6261,"ĠÐ¸ÑĢÐ°Ð½":6262,"ĠÐ²ÑĭÐ±Ð¾ÑĢÑĭ":6263,"ÑıÐ½ÑĥÑĤ":6264,"ĠÐ¾ÑĤÐ´ÐµÐ»ÑĮÐ½ÑĭÑħ":6265,"ĠÐ¿Ð°Ð»ÑĮ":6266,"ĠÐ±Ð¸Ð¾Ð³ÑĢÐ°ÑĦÐ¸Ñı":6267,"ĠÐ»ÑĥÐº":6268,"ĠÐ¿Ð¾ÐºÑĢÑĭÑĤ":6269,"ĠÑĤÑĢÑĥÐ±":6270,"ĠÐ¼ÐµÐ´Ð²ÐµÐ´":6271,"ĠÑĦÐ¾ÑĢÐ¼Ñĥ":6272,"ĠÑģÑģÑĭÐ»ÐºÑĥ":6273,"ĠÐ²ÑĭÐ±Ð¾ÑĢÐ¾Ð²":6274,"Ð¸Ð²Ð°ÑİÑĤÑģÑı":6275,"ĠÐ¿Ð¾Ð»Ð¸ÑĤÐ¸ÑĩÐµÑģÐºÐ¾Ð¹":6276,"ĠÐ¼Ð»Ð°Ð´ÑĪÐ¸Ð¹":6277,"ĠÐ¿ÑĢÐ¾Ð¸Ð·Ð¾ÑĪÐ»Ð¾":6278,"ĠÐ¾ÑĤÐ´ÐµÐ»ÐµÐ½Ð¸Ðµ":6279,"ĠÐ¿Ð¸ÑĪÐµÑĤ":6280,"Ð²ÐµÐ½":6281,"Ð¸Ð½ÑĤÐµÑĢ":6282,"Ð°Ð´Ð¸":6283,"ĠÐ¾Ð±Ð¸ÑĤ":6284,"ÑĤÐ¾Ðµ":6285,"ĠÐ¿Ð»Ð¾Ð´":6286,"ĠÐ´Ð¾ÑģÑĤÐ¸Ð¶ÐµÐ½Ð¸Ñı":6287,"ĠÐ¸Ð½Ð¸ÑĨÐ¸Ð°ÑĤÐ¸Ð²":6288,"ĠÐ½Ð°Ð·Ð²Ð°Ð½":6289,"ĠÐ°ÑĢÑħÐ°Ð½Ð³ÐµÐ»ÑĮ":6290,"ĠÐ½Ð°Ð¸Ð±Ð¾Ð»ÑĮÑĪ":6291,"ĠÑģÐ²ÐµÑĤÐ»":6292,"ĠÑħÐ¾Ð»Ð¾Ð´":6293,"ĠÐ¼Ð¸ÐºÑĢÐ¾":6294,"ÑĮÐ¼":6295,"ĠÐ¿ÐµÑĢÐµÐ±":6296,"ĠÐ³Ð»Ð°Ð²Ð½ÑĭÑħ":6297,"ĠÑĤÑĢÐµÑħ":6298,"Ð»ÐµÐ½Ð½ÑĭÐ¹":6299,"Ð¸ÑĢÐ¾Ð²Ð°Ð½Ð½ÑĭÐ¹":6300,"ĠÐ°Ð½Ñģ":6301,"ĠÑĦÐ¾ÑĢÐ¼Ð°":6302,"ĠÐ¼ÑĥÐ»ÑĮÑĤÑĦÐ¸Ð»ÑĮ":6303,"ĠÐ¿ÑĢÐ°Ð²Ð¾Ð¼":6304,"ĠÑģÐµ":6305,"ĠÑģÐ°ÑĢÐ°":6306,"Ð°ÑİÑīÐ°Ñı":6307,"ĠÐ¼Ð°ÑĢÐ¸Ð¸":6308,"ĠÑĢÐµÐºÐ»Ð°":6309,"ĠÐ²Ð¾ÐµÐ²Ð¾Ð´":6310,"ĠÑĢÐ°Ð¹Ð¾Ð½Ñĭ":6311,"ĠÑħÑĥÐ´Ð¾Ð¶Ð½Ð¸ÐºÐ°":6312,"ĠÐ¼Ð°Ð³Ð¸ÑģÑĤ":6313,"ĠÐ¾ÐºÑĢÐ°":6314,"ĠÐºÐ°Ð½Ð°Ð´Ñĭ":6315,"ĠÐ»Ð¾Ð¼":6316,"ĠÐ³Ð°Ð»ÐµÑĢÐµ":6317,"ĠÑģÑħÐ¾Ð´":6318,"ĠÐ¼Ð°Ð·":6319,"ĠÐ¿Ð¾Ð»Ð¾Ð²Ð¸Ð½Ðµ":6320,"ĠÐ¿Ð¾Ð´ÑĤÐ²ÐµÑĢÐ¶Ð´Ð°":6321,"ĠÑħÐ°Ð¼":6322,"ĠÐ¾Ð±ÑīÐ¸Ð¹":6323,"ĠÐ±Ð¸Ð»":6324,"ĠÐ¼Ð¾Ð±":6325,"ĠÑįÐºÐ¾Ð½Ð¾Ð¼Ð¸ÐºÐ¸":6326,"ĠÑĦÐ¸Ð»Ð¾ÑģÐ¾ÑĦÐ¸Ð¸":6327,"ĠÑģÐ¸ÑĤÑĥÐ°ÑĨÐ¸Ð¸":6328,"Ð½Ð°ÑĩÐµ":6329,"ĠÑĥÐºÑĢÐ°Ð¸Ð½ÑģÐºÐ¾Ð¹":6330,"ĠÐ³Ð»Ð¾Ð±":6331,"ĠÐ·Ð°Ð±Ð¾Ð»ÐµÐ²":6332,"ĠÐ¼ÑĥÐ½Ð¸ÑĨÐ¸Ð¿Ð°Ð»ÑĮÐ½Ð¾Ðµ":6333,"ĠÐ¿Ð¾Ð»Ð½Ð¾Ðµ":6334,"Ð°ÑĢÐº":6335,"ĠÐ³ÑĢÐ°ÑĦÐ°":6336,"ĠÐ±ÐµÐº":6337,"ÐµÐ»Ð»Ð°":6338,"ĠÐ¸ÑĢÐºÑĥÑĤ":6339,"ĠÐ¿ÑĢÐ¸ÑĳÐ¼":6340,"ĠÐ²ÑĭÑģÑĤÑĥÐ¿Ð»ÐµÐ½Ð¸Ñı":6341,"ĠÑģÑĤÑĢÐ°Ð½Ð¸ÑĨÑĥ":6342,"Ð½Ð¾ÑĢ":6343,"ĠÐºÑĥÐ½":6344,"ĠÐ½Ð°Ð·ÑĭÐ²Ð°ÑİÑĤ":6345,"ĠÐ¸ÑĤÐ¾Ð³Ð°Ð¼":6346,"ĠÑģÐ¾Ð·Ð´Ð°Ð»":6347,"ĠÑģÐ¾Ð²ÑĢÐµÐ¼ÐµÐ½Ð½Ð¾Ð³Ð¾":6348,"ĠÑĪÐ²Ðµ":6349,"ĠÑĢÐµÑģÐ¿ÑĥÐ±Ð»Ð¸ÐºÐ°Ð½":6350,"ĠÐ¿ÑĢÐ¾ÑĤÐµÐºÐ°ÐµÑĤ":6351,"ĠÑģÑĤÐ¾Ð»Ðº":6352,"ĠÑĤÐµÐ¼Ð¿ÐµÑĢÐ°ÑĤÑĥÑĢÐ°":6353,"Ð°ÑĤÐµÐ»ÑĮÐ½Ð¾Ð¹":6354,"ĠÐ´Ð¸Ð°Ð¼ÐµÑĤ":6355,"ÑĢÐ°Ð¼Ð¸":6356,"ĠÐ¿Ð»Ð°":6357,"Ð°ÑĤÐ¾ÑĢÐ¸Ð¸":6358,"ĠÐºÐ¾ÑĢÑĢÐµÑģÐ¿":6359,"ĠÑĢÐ°ÑģÑĤÐ²":6360,"ĠÐ¿Ð¾Ð»ÑĥÐ·":6361,"Ð¸ÑĢÐ¾Ð²Ð°Ð»ÑģÑı":6362,"ĠÐ²ÐµÑĢÑĪ":6363,"ĠÐ»Ð°Ð½Ð´":6364,"ĠÐµÐ»ÐµÐ½Ð°":6365,"ĠÑģÑĦÐµÑĢÐ°":6366,"ĠÐ´ÑįÐ²Ð¸Ð´":6367,"Ð¸Ð²Ð°Ð»Ð¸":6368,"ÑİÑīÐ¸ÐµÑģÑı":6369,"Ð¼ÐµÐ»ÑĮ":6370,"ĠÐ»Ð°Ð±Ð¾ÑĢÐ°ÑĤÐ¾ÑĢ":6371,"ĠÑĢÑĥÐºÐ¾Ð²Ð¾Ð´ÑģÑĤÐ²Ð¾":6372,"ĠÑĥÐ½Ð¸Ðº":6373,"ĠÐ´Ð¾ÑģÑĤÐ°Ð²":6374,"ĠÐ»Ð¸Ð½ÐµÐ¹":6375,"Ð½Ð°Ð±":6376,"ĠÑįÐ½Ð´":6377,"ĠÑģÑĤÐ¸ÑħÐ¸":6378,"ĠÐ¾ÑĢÑĥÐ¶Ð¸Ñı":6379,"Ð»ÑıÑİÑĤ":6380,"ĠÐ¿ÑĢÐ°Ð²Ð¸Ð»Ð°Ð¼":6381,"ĠÐ°ÑĤÐ»":6382,"ĠÑģÐºÑĢÐ¸Ð¿":6383,"ĠÐ´Ð»Ð¸Ð½Ð¾Ð¹":6384,"ĠÑģÑĤÐ¾Ñı":6385,"ĠÐ¸ÑģÑĤÐ¾ÑĩÐ½Ð¸ÐºÐ°":6386,"Ð°ÑīÐ¸Ñħ":6387,"ĠÐ½Ð¾ÑĩÑĮ":6388,"ĠÐ¸Ð·Ð»Ð¾Ð¶":6389,"ĠÐ²Ð½ÑĥÑĤÑĢÐµÐ½Ð½Ð¸Ñħ":6390,"ĠÐ¿ÑĢÐµÐ´Ð»Ð°Ð³Ð°Ñİ":6391,"ÑıÑİÑĤÑģÑı":6392,"ĠÐºÐ°ÑĢÐ¿":6393,"ĠÐ¶ÑĳÐ»ÑĤ":6394,"Ð²Ð¸Ñģ":6395,"ĠÑĤÐ¾ÑĩÐºÐ°":6396,"ĠÐ²ÑģÑĤÑĥÐ¿Ð¸Ð»":6397,"ĠÐ´ÑĢÑĥÐ³Ð°":6398,"ĠÑģÑĭÐ½Ð¾Ð²":6399,"ĠÐºÐ¾Ð³Ð¾":6400,"Ð¼Ð°Ñħ":6401,"Ð¸Ð¹ÑģÐºÐ¸Ñħ":6402,"ĠÐ¾Ð»Ð¸Ð¼Ð¿Ð¸":6403,"Ð¾ÑĢÐ³Ð°Ð½":6404,"ĠÑĥÑĩÐ°ÑģÑĤÐ¸Ñı":6405,"ĠÐ±Ð¾ÑĤÐ¾Ð¼":6406,"ĠÐ²ÑĮ":6407,"ĠÐ´Ð¶ÐµÐº":6408,"ĠÐ·Ð²ÑĥÑĩ":6409,"ĠÑģÐ¾Ð·Ð´Ð°Ð½Ð°":6410,"ĠÐ´Ð¸ÑĢÐ¸Ð¶":6411,"ĠÐ½Ð°ÑĩÐ¸Ð½Ð°ÐµÑĤÑģÑı":6412,"ĠÐ¿ÑĢÐ¾Ð¶Ð¸Ð²Ð°Ð»Ð¾":6413,"ĠÑģÑĤÐ°ÑĢÐ°":6414,"ĠÐ¾ÑĤÑĢÐ¸ÑĨ":6415,"Ð»ÐµÐ½Ð½Ð¾Ð¹":6416,"ĠÐ½ÐµÐ¾Ð±ÑħÐ¾Ð´Ð¸Ð¼Ð¾ÑģÑĤÐ¸":6417,"ĠÐ¿Ð¾Ð¹":6418,"ĠÐ´ÑĢÑĥÐ³Ð¾Ðµ":6419,"ĠÑĢÐ°ÑĥÐ½":6420,"ĠÐ¸Ð·Ð¾Ð±ÑĢÐµÑĤ":6421,"ĠÐ³ÐµÑĤ":6422,"ĠÐ·Ð°Ð½Ð¸Ð¼Ð°Ð»":6423,"ÐµÐ½Ð¾Ð¼":6424,"ĠÑģÑĤÑĥÐ¿":6425,"ÑĤÐµÑĢÐ½Ð°ÑĤÐ¸Ð²":6426,"ÑĮÑĪÐµ":6427,"ĠÐºÐ¸ÑĤÐ°Ñı":6428,"ĠÐ´Ð¶ÐµÐ¹Ð¼Ñģ":6429,"ĠÐ¿Ð¾Ð½Ð¸Ð¼Ð°Ñİ":6430,"Ð¸ÑĩÐµÑģÐºÐ¾Ð¼Ñĥ":6431,"Ð°Ð»Ð¸ÑĤ":6432,"ĠÑģÐ¾ÑģÑĤÐ¾ÑıÐ½Ð¸Ð¸":6433,"ĠÐ½Ð¾Ð²ÑĥÑİ":6434,"ĠÑĢÐ°Ð·Ð´ÐµÐ»Ðµ":6435,"ĠÐºÐ¾ÑĢÐ°Ð±Ð»ÑĮ":6436,"Ð¸ÐµÐ²Ð°":6437,"ĠÐ¿ÐµÑĢÐµÑĢÐ°Ð±Ð¾ÑĤ":6438,"ĠÐ¾ÑĤÐ·ÑĭÐ²":6439,"ÐµÐ½Ð¸ÑıÐ¼":6440,"ĠÐ»Ð¸ÑĤÐµÑĢÐ°ÑĤÑĥÑĢÐµ":6441,"ĠÐ»Ð¾Ð±":6442,"ĠÐ¼ÐµÑĤÑĢÐ¾":6443,"Ð¾Ð²Ð½Ð°":6444,"ĠÐ°Ð¼ÐµÑĢÐ¸ÐºÐ°Ð½ÑģÐºÐ¾Ð¹":6445,"ĠÐ°Ð´Ð¼Ð¸Ð½Ð¸ÑģÑĤÑĢÐ°ÑĤÐ¸Ð²Ð½Ð¾Ð¹":6446,"ĠÐ²Ð¾ÑģÐºÑĢÐµÑģ":6447,"ĠÑģÐ¸ÑĤÐ¸":6448,"Ð¿Ð¿":6449,"ĠÑģÑĩÐ¸ÑĤÐ°ÑĤÑĮ":6450,"Ð½Ð¸ÐºÐ¾Ð²Ð°":6451,"ĠÐ½Ð¾ÑĢÐ²ÐµÐ³":6452,"ĠÐ¸ÑģÐ¿Ð¾Ð»ÑĮÐ·ÑĥÑİÑĤÑģÑı":6453,"ĠÐ¿ÑĢÐ¸Ð¼ÐµÑĩ":6454,"ÑģÑĤÐ²Ð¸Ñı":6455,"Ð¾Ð»Ð¾Ð³Ð¸":6456,"ĠÐ²Ð¾Ð»Ð³":6457,"ĠÐ²ÑĢÐµÐ¼ÐµÐ½ÐµÐ¼":6458,"Ð¾Ð²Ð¾ÑĢÐ°":6459,"ĠÑģÐºÑĥÐ»ÑĮÐ¿ÑĤ":6460,"Ð¾Ð¼Ð°":6461,"ĠÑĤÑĢÐµÐ±Ñĥ":6462,"ĠÐºÐ¸ÑĪ":6463,"ĠÑĢÐµÐ³Ð¸ÑģÑĤ":6464,"Ð°ÐºÐ¾Ð²Ð°":6465,"ĠÑĪÐ²":6466,"ÑĢÑıÐ´Ñĥ":6467,"ĠÐ±Ð°Ð²Ð°ÑĢ":6468,"ĠÑĪÐ²ÐµÑĨÐ¸Ð¸":6469,"Ð°Ð½ÐºÐ°":6470,"ĠÑģÑĤÑĢÐ¾Ðº":6471,"ĠÑĥÑģÑĤÑĢÐ¾":6472,"ĠÑģÑĤÑĢÐµÐ»ÑĮ":6473,"ĠÐ¾ÑĢÐºÐµÑģÑĤ":6474,"ÐµÐ³Ð¾ÑĢÐ¾Ð´":6475,"ĠÐ²Ð¾ÑģÐ¿Ð¾Ð¼Ð¸Ð½":6476,"Ð¼Ð¾Ñģ":6477,"Ð¾Ð¹ÑĩÐ¸Ð²":6478,"ĠÑĨÐ°ÑĢÑĮ":6479,"Ð½Ð¾Ð¼Ð¾ÑĢ":6480,"ĠÐ¼ÐµÑģÑĤÐ½Ð¾Ð³Ð¾":6481,"ĠÐ½Ð°Ñħ":6482,"Ð¸Ð·Ñĥ":6483,"ĠÐ²Ð¸":6484,"ĠÑĢÐµÐ·ÐµÑĢÐ²":6485,"ĠÐ²Ð²Ñģ":6486,"ĠÐ¿ÑĢÐµÐ´ÑģÐµÐ´Ð°ÑĤÐµÐ»ÐµÐ¼":6487,"ĠÑĢÐµÐºÐ»Ð°Ð¼":6488,"ĠÐ¼ÐµÑģÑıÑĨ":6489,"ĠÐ³ÐµÐ½ÐµÑĢÐ°Ð»Ð°":6490,"ĠÐºÐµÑĢ":6491,"ÑĥÐ¶Ð´Ð°":6492,"ĠÐ·Ð»":6493,"ĠÐ¼Ð°Ð³Ð½Ð¸ÑĤ":6494,"ĠÑıÐ´":6495,"ĠÐ°Ð²ÑĤÐ¾ÑĢÐ¾Ð²":6496,"ĠÐºÑĥÐ·Ð½ÐµÑĨ":6497,"ĠÑĢÐ¸ÑģÑĥÐ½":6498,"ĠÐ¿Ð¾Ð»Ð¸ÑĤÐ¸ÑĩÐµÑģÐºÐ¸Ð¹":6499,"ĠÐ¼Ð¸Ð½Ð¸Ð¼ÑĥÐ¼":6500,"ĠÐ·Ð°ÑĢÑĥÐ±":6501,"Ð¾Ð»Ð¾Ð³Ð¸ÑĩÐµÑģÐºÐ¾Ð¹":6502,"ĠÐ½ÐµÐ¿ÑĢÐ°Ð²":6503,"ĠÐºÑĢÑĥÐ¿Ð½ÑĭÐµ":6504,"Ð¾Ð¾":6505,"Ð¸ÑĤÐµÐ»ÑĮÐ½ÑĥÑİ":6506,"ĠÑĢÐµÐ±ÑĳÐ½":6507,"ĠÐ¸Ð½Ð°ÑĩÐµ":6508,"ĠÐ½Ð¸Ð³":6509,"ĠÐºÐ²Ð°Ð´":6510,"ĠÑĦÑĢÐ°":6511,"ĠÐ°Ð»ÑĮÑĤÐµÑĢÐ½Ð°ÑĤÐ¸Ð²":6512,"ĠÐ³Ð¸Ð»ÑĮ":6513,"Ð¾ÐºÐ¸":6514,"ĠÑģÐ¿Ð¾ÑģÐ¾Ð±ÑģÑĤÐ²":6515,"ĠÐ½ÐµÐ·Ð½Ð°Ñĩ":6516,"ĠÑģÑĤÐµÑĦ":6517,"ĠÐ´Ð¾ÐºÐ°Ð·Ð°ÑĤÐµÐ»ÑĮÑģÑĤÐ²":6518,"ÑĪÐµÐ³Ð¾ÑģÑı":6519,"ĠÑĦÐ°ÐºÑĤÑĭ":6520,"ĠÑģÐ¾Ð¾ÑĢÑĥÐ¶ÐµÐ½Ð¸Ñı":6521,"ĠÐ¿Ð°ÑĢÐ°Ð»Ð»ÐµÐ»ÑĮ":6522,"ÑĥÐ»Ñĥ":6523,"ĠÐ¿ÑĢÐ¸Ð²Ð»ÐµÐº":6524,"ĠÐ½ÐµÐ´ÐµÐ»Ð¸":6525,"Ð»ÐµÑĤÐ²Ð¾ÑĢ":6526,"ĠÐ²ÑĭÑħÐ¾Ð´Ð°":6527,"ĠÐ¿ÑĢÐµÐ·Ð¸Ð´ÐµÐ½ÑĤÐ¾Ð¼":6528,"ĠÐ¼ÐµÑĢÐ¾Ð¿ÑĢÐ¸ÑıÑĤ":6529,"ĠÐ½ÐµÑĥÐ´Ð°Ñĩ":6530,"Ð¾Ð·Ð°Ð²":6531,"ĠÐ²ÐµÐ½Ð³ÑĢÐ¸Ð¸":6532,"ÑıÐ½Ð¾Ð²":6533,"ÐµÐ½Ð±ÑĥÑĢÐ³":6534,"ĠÑģÐ²Ð¾ÐµÐ¼Ñĥ":6535,"ĠÐ½ÐµÑĩ":6536,"ĠÐ²ÑĥÐ»":6537,"Ð¾Ð²Ð»ÐµÑĤÐ²Ð¾ÑĢ":6538,"ĠÑĪÐ°Ð±Ð»Ð¾Ð½Ð°":6539,"ÑĨÐ¸Ð¿":6540,"ĠÐ¿ÐµÑĢÐµÑĩÐ¸Ñģ":6541,"ĠÐ²ÑĭÐ¹":6542,"ĠÐ±ÑĭÐ²ÑĪÐµÐ³Ð¾":6543,"ĠÐºÑĥÐº":6544,"ĠÑĢÐ°Ð½ÑĮÑĪÐµ":6545,"ÑĢÐµÐ³Ð¸ÑģÑĤÑĢ":6546,"ĠÑģÑĥÐ¿ÐµÑĢ":6547,"ĠÐ¾ÑĢÑĥÐ¶Ð¸Ðµ":6548,"Ð½ÑĥÐ»":6549,"Ð¾Ð»ÐºÐ¾Ð²":6550,"ĠÑĤÐ°ÑĢÐ°":6551,"ĠÐ±ÑĥÑĢÐ³":6552,"ĠÑĢÐ°Ð¹Ð¾Ð½Ð½Ð¾Ð³Ð¾":6553,"ÑģÐ¾Ð½Ð°":6554,"ĠÐ¼ÑĥÐ·ÑĭÐºÐ°Ð»ÑĮÐ½ÑĭÐµ":6555,"ĠÐ±Ð»Ð°":6556,"ĠÑĦÑĢÐµÐ´":6557,"ĠÐ°ÑĪ":6558,"ĠÐºÐ¾Ð¼Ð¿Ð°Ð½Ð¸ÐµÐ¹":6559,"ĠÑģÐ¾Ð¾Ð±ÑīÐµÑģÑĤÐ²Ð°":6560,"ĠÐºÑĢÐ°Ð¹Ð½Ðµ":6561,"ĠÐ²Ð°ÑĢÑĪÐ°Ð²":6562,"ĠÐ²Ð»Ð°Ð´ÐµÐ»ÑĮ":6563,"ĠÐ°Ð²ÑĤÐ¾ÑĢÑĭ":6564,"ĠÐ²Ð´Ð¾Ð»ÑĮ":6565,"Ð°ÑĤÑĭÐ²Ð°":6566,"ĠÐ°Ð»ÑĮÑĦ":6567,"ĠÐ¾ÑĩÐºÐ¾Ð²":6568,"ĠÑıÐ´ÐµÑĢ":6569,"ĠÐ°Ð²ÑģÑĤÑĢÐ¸Ð¸":6570,"ĠÐ±Ð¾Ð»Ð³Ð°ÑĢÐ¸Ð¸":6571,"ĠÐºÐ¾Ð¼ÑģÐ¾Ð¼":6572,"Ð¼ÐµÑĢÑĤ":6573,"Ð¾Ð»Ð¾Ð³Ð¸ÑĩÐµÑģÐºÐ¸Ð¹":6574,"ÑĮÑıÐ¼Ð¸":6575,"ĠÐ¿ÑĢÐµÐ¼Ð¸Ñİ":6576,"ĠÑĩÐµÐ»Ñı":6577,"ĠÑģÐºÐ°Ð·Ð°ÑĤÑĮ":6578,"ÐµÑĢÐ°Ð¿":6579,"ÑıÑģÐ½Ñı":6580,"ĠÑĩÑĥ":6581,"ĠÐ½Ð°ÑĥÑĩÐ½ÑĭÐµ":6582,"ĠÐ¿ÑĢÐµÐºÑĢÐ°ÑĤ":6583,"ĠÐ¾ÑĤÑģÑĤÑĥÐ¿":6584,"ĠÐ¾ÑĦÐ¸ÑĨÐµÑĢ":6585,"ĠÐ´Ð¾Ñģ":6586,"ÐµÐ¼Ð°Ñı":6587,"ĠÐ¿ÐµÑĤÐµÑĢÐ±ÑĥÑĢÐ³Ð°":6588,"ÐµÑĤÑĢÐ¾Ð²":6589,"ĠÐ¼Ð¾Ð½ÑĤ":6590,"ĠÐ¾ÑģÐ¾Ð±ÐµÐ½Ð½Ð¾ÑģÑĤÐ¸":6591,"ĠÐ¸ÑģÐºÐ»ÑİÑĩÐ¸ÑĤÐµÐ»ÑĮÐ½Ð¾":6592,"ĠÐ³Ð¾ÑĢÐ°":6593,"ĠÐ±Ð°ÑģÐºÐµÑĤÐ±Ð¾Ð»":6594,"ĠÑĦÑĢÐ°Ð³":6595,"ĠÐ±Ð¾Ð»ÑĮÑĪÐ¸Ð¼":6596,"ÐµÐ´Ð¶":6597,"ĠÑįÐºÑģÑĤ":6598,"Ð¸ÑĢÐ¾Ð²Ð°Ð½Ð¸Ð¸":6599,"Ð°Ð»Ð¸Ð¹":6600,"ĠÐ¾ÑĢÐ³Ð°Ð½Ð¸Ð·Ð°ÑĨÐ¸Ð¹":6601,"ĠÐ°Ð±Ð±":6602,"ĠÑģÑĤÐµÐº":6603,"ĠÑĦÑĳÐ´Ð¾ÑĢÐ¾Ð²Ð¸Ñĩ":6604,"Ð¸Ð½Ð°Ð¼":6605,"Ð½Ð¾Ð³":6606,"ĠÐ¿Ð¾Ð»Ð½Ð¾":6607,"ĠÐ¼Ð°ÑģÑĪÑĤÐ°":6608,"ĠÐ´ÑĥÐ¼Ñĭ":6609,"ĠÐ´Ð¶ÐµÐ¹":6610,"ĠÐ½ÐµÐ°ÐºÑĤÐ¸Ð²":6611,"ĠÐ±Ð°ÑĤÐ°Ð»ÑĮÐ¾Ð½":6612,"Ð¶ÐµÐ½Ð¸Ñı":6613,"ĠÐ½ÐµÑĢ":6614,"ĠÐ·Ð°Ð±Ð»Ð¾Ðº":6615,"ĠÐ¼Ð³Ñĥ":6616,"Ð¾Ð½Ð³":6617,"ĠÐ¾ÐºÑĢÐµÑģÑĤ":6618,"ĠÑģÐ¾Ð³Ð»Ð°ÑģÐµÐ½":6619,"ĠÐ¾ÑĤÐ²ÐµÑĤÑģÑĤÐ²ÐµÐ½":6620,"ĠÐµÐ»Ð¸Ð·":6621,"ÐºÑĥÐ´Ð°":6622,"Ð¸Ð²ÑĪÐ¸ÑģÑĮ":6623,"Ð°ÑĢÑģÐºÐ¸Ð¹":6624,"ĠÐ½ÐµÑĦ":6625,"ĠÐ°Ð¼ÐµÑĢÐ¸ÐºÐ°Ð½ÑģÐºÐ°Ñı":6626,"ĠÐ¿Ð»Ð°ÑĤÑĦÐ¾ÑĢÐ¼Ñĭ":6627,"Ð¾ÑģÑĤÑĢÐ¾Ð²":6628,"ĠÑĢÐ¾ÑģÑģÐ¸Ð¹ÑģÐºÐ¸Ñħ":6629,"ĠÐ²ÑĭÐ³":6630,"ĠÐ½Ð¸Ð¶ÐµÐ³Ð¾ÑĢÐ¾Ð´":6631,"ĠÑģÐ¸ÑģÑĤÐµÐ¼Ñĥ":6632,"Ð¸Ð½Ð°Ñħ":6633,"ĠÑģÐºÐ»Ð°Ð´":6634,"ĠÑģÐ¾Ð·Ð´Ð°Ð½Ð¸Ð¸":6635,"ĠÑĩÐµÐ¼Ð¿Ð¸Ð¾Ð½Ð¾Ð¼":6636,"ĠÐ¼Ð¾Ð¼ÐµÐ½ÑĤÐ°":6637,"Ð¸Ð½ÑĤ":6638,"Ð°ÑħÐ°":6639,"ĠÐ¸Ð½ÑĤÐµÑĢÐ½":6640,"ĠÑĤÐ¾Ð¿Ð»Ð¸Ð²":6641,"Ð°Ð»Ñĥ":6642,"ĠÑĤÑİÑĢ":6643,"ĠÐºÑĢÐ°ÑģÐ½Ð¾Ð´":6644,"ĠÐ²Ð¸Ñģ":6645,"Ð½Ð¸ÑĨÐµÐ¹":6646,"ĠÐ¿Ð¾ÑģÐ»ÐµÐ´Ð½ÐµÐµ":6647,"ĠÐºÐ°Ð·Ð°ÑħÑģÑĤÐ°Ð½":6648,"ĠÑĢÐ¾":6649,"ĠÑĦÐ¾ÑĤÐ¾Ð³ÑĢÐ°ÑĦÐ¸Ð¸":6650,"ĠÐ¿Ð¾Ð²ÐµÐ´":6651,"ÐºÑĥÑİ":6652,"ĠÑĦÐ°Ñģ":6653,"ĠÑĥÑĩÐ¸Ð»Ð¸ÑīÐ°":6654,"ĠÑĥÐ´Ð¾Ð±":6655,"Ð»Ð¸Ð½Ð°":6656,"ĠÐ²ÑĭÑĤ":6657,"Ð¾Ð²Ð°Ð½Ð½ÑĭÐµ":6658,"ĠÐ·Ð°ÐºÐ¾Ð½Ð¾Ð¼":6659,"Ð°ÑĤÐ¾ÑĢÐ¾Ð²":6660,"ĠÐ¾Ð±ÑĬÐµÐºÑĤÑĭ":6661,"ĠÑĤÐ°ÑĤÑĮ":6662,"Ð¾Ð³Ð¸":6663,"ĠÐ¿ÑĢÐµÐºÑĢÐ°Ñī":6664,"ĠÐºÐ¾Ð¼Ð°Ð½Ð´Ð¾Ð²Ð°Ð»":6665,"ĠÑģÐ¸Ñħ":6666,"ĠÐ¾ÑģÐ½Ð¾Ð²Ð½ÑĭÐ¼":6667,"ĠÑģÑĥÑīÐµÑģÑĤÐ²ÑĥÑİÑĤ":6668,"ĠÑħÐ»":6669,"ÑĳÑĢÑĤ":6670,"ĠÐ½Ð°Ð¿ÑĢÐ°Ð²Ð»ÐµÐ½Ð¸Ð¸":6671,"ĠÐºÐ°Ð¼ÐµÐ½":6672,"ĠÐ°Ð´Ð¼Ð¸ÑĢÐ°Ð»":6673,"ĠÐºÐ¾ÑĢÑĢÐµÑģÐ¿Ð¾Ð½Ð´":6674,"ĠÑĢÐ¾Ð¼Ð°Ð½Ð°":6675,"ĠÑģÑĢ":6676,"ĠÐºÑģ":6677,"ĠÐ³ÑĢÐ°Ð½Ð¸ÑĨ":6678,"ĠÐ½ÐµÐ¿Ð¾ÑģÑĢÐµÐ´ÑģÑĤÐ²ÐµÐ½Ð½Ð¾":6679,"ĠÐ¿ÑĢÐ¾Ð»":6680,"ĠÑĨÐ¸ÐºÐ»":6681,"ĠÐ±Ð°Ð½Ð´":6682,"ĠÐ¿ÑĢÐµÑĤÐµÐ½":6683,"ĠÐ½Ð°ÑĥÑĩÐ½Ð¾Ð¹":6684,"ĠÐ¿Ð°ÑĢÐ¸Ð¶Ðµ":6685,"ÑĢÐ°Ð´Ðµ":6686,"ĠÐ´Ð¾Ð±ÑĢ":6687,"ĠÐ¿Ð¾Ð´Ð´ÐµÑĢÐ¶ÐºÑĥ":6688,"ĠÑĢÐ°Ð±Ð¾ÑĩÐ¸Ñħ":6689,"Ð¶ÐµÐ²":6690,"ĠÐ´Ð°Ð²Ð½Ð¾":6691,"ĠÑģÐ¾Ð´ÐµÑĢÐ¶Ð¸Ð¼":6692,"ĠÑģÐ¼ÐµÑĢÑĤ":6693,"ĠÑĢÐ¾Ð»ÑıÑħ":6694,"ĠÐ±ÑĢÐ¸Ð³Ð°Ð´Ð°":6695,"ĠÐ½Ð°Ð»Ð¾Ð³":6696,"ĠÑģÑĤÑĢÑĥÐºÑĤÑĥÑĢÐ°":6697,"ĠÐºÑĭ":6698,"ÑĢÑıÐ½":6699,"ĠÑĦÐ¸Ð»Ð¸":6700,"ĠÑĢÐ¸ÑĩÐ°ÑĢÐ´":6701,"ĠÑĦÑĢÐ°Ð³Ð¼ÐµÐ½ÑĤ":6702,"ĠÑĨÐµÐ¿":6703,"Ð¾Ð»Ð¾Ð³Ð¸ÑĩÐµÑģÐºÐ¾Ð³Ð¾":6704,"ĠÐ±Ð¸Ð¾Ð³ÑĢÐ°ÑĦ":6705,"ĠÐ´ÐµÐ½ÑĮÐ³Ð¸":6706,"ÐºÐ¸Ð½Ð¾":6707,"Ð°Ð½Ð½Ð¾Ðµ":6708,"ĠÐ¿Ð°ÑĤÑĢÑĥÐ»Ð¸":6709,"ÑħÐ¾Ð²":6710,"ĠÐ·Ð°Ð¿Ð¸ÑģÑĮ":6711,"ÑħÐ»":6712,"ĠÐºÐ°ÑĢÐ´Ð¸Ð½":6713,"ĠÐ¾ÑĦÑĦ":6714,"ĠÑĩÐ°ÑģÑĤÐ¸ÑĩÐ½Ð¾":6715,"ĠÐ¼ÐµÑĤÑĢÐ¾Ð¿Ð¾Ð»Ð¸ÑĤ":6716,"ĠÐ³Ð¾ÑģÑĥÐ´Ð°ÑĢÑģÑĤÐ²ÐµÐ½Ð½Ð¾Ð¼":6717,"ĠÑĢÐ°ÑģÐ¿Ð¾ÑĢ":6718,"ĠÑĤÐµÐ½Ð½Ð¸Ñģ":6719,"ĠÐ¿Ð¾Ð´Ð¾Ð·":6720,"ĠÑģÐ¾Ð±ÑģÑĤÐ²ÐµÐ½Ð½Ð¾":6721,"ÐµÐ½Ð³":6722,"ĠÐ½Ð°ÐºÐ¾Ð½ÐµÑĨ":6723,"ĠÐ·Ð½Ð°Ð¼ÐµÐ½Ð¸":6724,"ĠÐ´Ð¸Ð°Ð³":6725,"ĠÑģÑĩÐ¸ÑĤÐ°ÐµÑĤ":6726,"ĠÑĤÐµÑĢÑĢÐ¾ÑĢ":6727,"ĠÐ¾ÑĤÐ½Ð¾ÑĪÐµÐ½Ð¸Ðµ":6728,"ĠÐ¿Ð¾Ð´Ð¿Ð¸ÑģÑĮ":6729,"ĠÐ¾ÑģÐ²Ð¾Ð±Ð¾Ð´":6730,"ĠÐºÐ¾Ð½Ð³ÑĢÐµÑģÑģ":6731,"ĠÐ³Ð¸Ð³":6732,"ĠÑĦÐµÑģÑĤÐ¸Ð²Ð°Ð»":6733,"ĠÐ·Ð°ÑĩÐµÐ¼":6734,"ĠÑĤÐ°Ð²":6735,"ĠÑħÐ¾ÐºÐºÐµÐ¹":6736,"ĠÐ¿Ð°ÑĪ":6737,"ĠÐ¾ÑĤÐ½Ð¾ÑģÑıÑĤÑģÑı":6738,"ĠÐ²ÑħÐ¾Ð´ÑıÑĤ":6739,"ĠÐ³ÑĢÐ¸Ð³Ð¾ÑĢÐ¸Ð¹":6740,"ĠÑģÐ¾Ð¼":6741,"ĠÐ¿Ð¾Ð»ÑĳÑĤ":6742,"ĠÐ¿ÑĢÐ¸ÑĪÐ»Ð¾ÑģÑĮ":6743,"ĠÐ´Ð¸Ð°Ð»ÐµÐºÑĤ":6744,"ĠÐ¿ÑģÐµÐ²Ð´Ð¾Ð½Ð¸Ð¼":6745,"ĠÑĤÐ°ÑĪ":6746,"Ð¸Ð²Ð°Ñı":6747,"ÐµÐ»Ð¸Ñı":6748,"ĠÐ¿Ð¾Ð»Ð¾Ñģ":6749,"ÐµÐ½ÑĩÐµ":6750,"ĠÑİÐ½Ð¾":6751,"ĠÑĢÐ°ÑģÐ¿Ð¾Ð»Ð¾Ð¶ÐµÐ½Ñĭ":6752,"ĠÑįÐ½ÑĨÐ¸ÐºÐ»Ð¾Ð¿ÐµÐ´Ð¸ÑĩÐµÑģÐºÐ¾Ð¹":6753,"ĠÐ¼Ð»ÑĢÐ´":6754,"ĠÐ½Ð°ÑĩÐ°Ð»Ð°ÑģÑĮ":6755,"ĠÐ¿ÑĢÐµÐ¼ÑĮÐµÑĢÐ°":6756,"ĠÑĥÐ³Ð¾Ð»Ð¾Ð²":6757,"ĠÐ°ÑĢÑħÐ¸ÑĤÐµÐºÑĤÑĥÑĢÑĭ":6758,"Ð¸Ð½Ð³Ð²":6759,"ÐºÐ¾Ð²Ð¸Ñĩ":6760,"ĠÑģÐºÐ¾Ð»ÑĮÐºÐ¾":6761,"ÑĨÐºÐ¸Ð¹":6762,"ĠÐ¾Ð±Ð¾ÑģÐ½":6763,"ĠÑĦÐ°Ð½":6764,"ĠÐ²ÑĥÐ·":6765,"ĠÐºÐ¾Ð½Ð´":6766,"ĠÐ½Ð°ÑģÐµÐºÐ¾Ð¼":6767,"ĠÐ¿Ð¾ÑģÑĤÐµÐ¿ÐµÐ½Ð½Ð¾":6768,"ĠÑĤÑĢÐ¾Ð»":6769,"ĠÑģÐµÑĢÐ³ÐµÐµÐ²Ð¸Ñĩ":6770,"ĠÐ»Ð¸Ð³Ð°":6771,"ĠÑģÐ¿ÐµÑĨÐ¸Ð°Ð»Ð¸ÑģÑĤ":6772,"ĠÐ½Ð°ÑģÐºÐ¾Ð»ÑĮÐºÐ¾":6773,"ĠÐ¿ÑĢÐ¾ÑĪÑĳÐ»":6774,"ĠÐ¾ÑģÑĤÑĢÐ¾Ð²Ð¾Ð²":6775,"ĠÐ²ÑĢÐµÐ¼ÐµÐ½Ð°":6776,"ĠÐ¿Ð¾ÑıÐ²Ð¸Ð»Ð°ÑģÑĮ":6777,"ĠÑĢÐ°Ð½ÐµÐ½":6778,"ĠÐ¼ÐµÑģÑĤÐ½Ð¾ÑģÑĤÐ¸":6779,"ĠÐ¿Ð¾ÑıÐ²Ð¸Ð»ÑģÑı":6780,"ĠÑĤÐ¾Ð²Ð°ÑĢÐ¸Ñī":6781,"ĠÑģÐ°Ð½Ð´":6782,"ĠÐ½Ð°ÑĨ":6783,"ĠÐ´Ð²Ð¾ÑĢÐµÑĨ":6784,"ĠÐ°Ð½Ð½Ñĭ":6785,"ĠÐ¶Ñİ":6786,"ĠÐºÐ°ÑĤÐ°ÑģÑĤ":6787,"ĠÐ¶ÑĥÑĢÐ½Ð°Ð»Ðµ":6788,"ĠÐ¾Ð¾Ð½":6789,"ÑģÑĤÐ²Ð°Ñħ":6790,"ĠÐµÐ´":6791,"ĠÐ²Ð¾ÑĪÐ»Ð¸":6792,"ĠÐ¾Ð¿ÑıÑĤÑĮ":6793,"ĠÐ¿ÑĢÐ¾Ñħ":6794,"ĠÑģÐµÑĢÐ¶":6795,"ĠÐ°Ð²ÑĤÐ¾ÑĢÐ¾Ð¼":6796,"ÐµÐ½Ð¾Ð²":6797,"ĠÑģÐµÑĢÐµÐ±":6798,"ĠÑįÐºÑģÐ¿ÐµÑĢÑĤ":6799,"ĠÑģÐ¾Ð·Ð²":6800,"ĠÑĩÐµÑĢÐµÐ¿":6801,"ĠÐ¿Ð¾Ð²ÐµÑĢÑħÐ½Ð¾ÑģÑĤÐ¸":6802,"ĠÐ²ÑıÐ·":6803,"ÑĨÐ¸ÑıÑħ":6804,"ÐµÐ³Ð°":6805,"ĠÐ½Ð°ÑĩÐ¸Ð½Ð°ÐµÑĤ":6806,"ĠÐ»ÑİÐ±Ð¸ÑĤÐµÐ»ÑĮ":6807,"ĠÑĥÑĤÐ²ÐµÑĢÐ¶Ð´Ð°":6808,"ĠÐ½Ð¾Ð²ÑĭÐ¼":6809,"ĠÐ¾ÑĤÑģÑĤÐ°Ð²ÐºÐµ":6810,"ĠÑģÐµÑĤÑĮ":6811,"Ð°ÐµÐ¼ÑĭÑħ":6812,"Ð»Ð¸Ñģ":6813,"ĠÑģÐ¾Ð²ÑĢÐµÐ¼ÐµÐ½Ð½ÑĭÑħ":6814,"ĠÐ¾Ð¿ÐµÑĢÐ°ÑĤÐ¾ÑĢ":6815,"Ð½Ð¸ÐºÐ°Ð¼":6816,"ĠÐ´ÑĢÐ°":6817,"ĠÐ¿ÑĢÐµÐ¿":6818,"ĠÑĪÑĥÐ¼":6819,"ĠÑĪÐ°Ð³":6820,"ĠÐºÐ¾Ð½ÑģÐµÐ½ÑģÑĥÑģ":6821,"ĠÐ·Ð°Ð¿ÑĢÐµÑĤ":6822,"ĠÑĥÑĢÐ¾Ð¶":6823,"ĠÐ½Ð°ÑĩÐ°Ð»Ð¾ÑģÑĮ":6824,"ÑĩÐµÐ½":6825,"ĠÐ¿Ð¾Ð´Ñģ":6826,"ĠÑģÑĥÐ»ÑĤÐ°Ð½":6827,"ĠÐ±Ð°ÑģÑģÐµÐ¹Ð½Ð°":6828,"Ð½Ð¾Ð¶":6829,"ĠÐ¸Ð·Ð²ÐµÑģÑĤÐ½Ð°":6830,"Ð¹ÑĤÐµ":6831,"ĠÑįÐ½ÐµÑĢÐ³ÐµÑĤ":6832,"ĠÐ¿ÑĢÐ°Ð²Ð°Ñħ":6833,"ĠÑĦÐ¾Ð½Ð´Ð°":6834,"ĠÐ¼Ð¸Ð»Ð»Ð¸Ð¾Ð½Ð¾Ð²":6835,"ĠÐ¿Ð¾Ð¿ÑĢÐ°Ð²":6836,"ĠÐ°ÑĢÐ¼ÐµÐ½Ð¸Ð¸":6837,"ĠÐ¿ÑĢÐ¾Ð³ÑĢÐµÑģÑģ":6838,"ĠÑĨÐµÐ½ÑĤÑĢÐ°Ð»ÑĮÐ½ÑĭÐ¹":6839,"Ð¾ÐºÐ¾":6840,"ÑİÑīÐ¸ÑħÑģÑı":6841,"ĠÑĢÐ¸Ð³":6842,"ĠÐ»ÑİÐ±Ð¸Ð¼":6843,"Ð°ÑĨÐ¸Ð¾Ð½Ð½ÑĭÐµ":6844,"ĠÐ°Ð·ÐµÑĢÐ±Ð°Ð¹Ð´Ð¶Ð°Ð½Ð°":6845,"ÐµÐ½ÑĤÐµ":6846,"ÑĢÐ¾Ð¿Ð¾Ð»":6847,"ĠÐ¼Ð¸Ð½Ð¸ÑģÑĤÑĢÐ¾Ð²":6848,"ĠÐ·Ð°ÑĢÐµÐ³Ð¸ÑģÑĤÑĢ":6849,"ĠÑĦÑĥÑĤÐ±Ð¾Ð»ÑĮÐ½ÑĭÐ¹":6850,"ĠÑĢÐµÑĪÐµÐ½Ð¸ÐµÐ¼":6851,"ĠÑģÑĤÐ°ÑĤÐ¸ÑģÑĤÐ¸ÐºÐ¸":6852,"ĠÐ²ÑģÐµÑģ":6853,"ĠÐ¿ÑĢÐ¸Ð±Ð»Ð¸Ð·":6854,"ĠÐ¿Ð¾ÑĢÑıÐ´ÐºÐµ":6855,"ĠÐ±ÐµÑĤ":6856,"ĠÐ²ÐµÐ±":6857,"ĠÐ·Ð²ÑĥÐº":6858,"ĠÐ¿ÑĢÐµÐ´Ð»Ð¾Ð¶Ð¸Ð»":6859,"ĠÐ¾ÑĤÐºÑĥÐ´Ð°":6860,"ÐµÑĢÐ¿":6861,"ĠÐ¿ÑĢÐ¸Ð³Ð¾Ð²Ð¾ÑĢ":6862,"ĠÐ¿Ð°ÑĢÑĤÐ½":6863,"ĠÐºÐ°ÑģÐ°ÐµÑĤÑģÑı":6864,"ĠÑĤÐµÑħÐ½Ð¾Ð»Ð¾Ð³Ð¸Ð¸":6865,"ĠÑĢÐ¾ÑģÐ¿":6866,"ĠÐ°Ð²ÑĤÐ¾Ð´Ð¾ÑĢ":6867,"ĠÑĥÐ¼ÐµÑĢÑĪÐ¸Ðµ":6868,"ĠÑĢÐ°Ð¹Ð¾Ð½Ð¾Ð²":6869,"ĠÐ¿ÑĢÐ¾ÑģÐ¿ÐµÐºÑĤ":6870,"Ð»ÑĳÐ½":6871,"ĠÐ³Ð¸":6872,"ĠÑĩÑĥÑĤÑĮ":6873,"ĠÐ´ÐµÐ»Ð°ÐµÑĤ":6874,"ĠÑģÑĤÐ¸ÑħÐ¾ÑĤÐ²Ð¾ÑĢ":6875,"ĠÐ²ÐµÑģÑĤÐ¸":6876,"ĠÑģÐµÑĢÐ¸Ð°Ð»Ð°":6877,"ÑĮÐ¼Ð¸":6878,"ĠÐ³ÑĢÑĥÐ¿Ð¿Ð¾Ð¹":6879,"Ð½Ð¾Ðº":6880,"ĠÐ¸ÑģÑĤÐ¾ÑĢÐ¸ÑĩÐµÑģÐºÐ¸Ñħ":6881,"ĠÑĢÑĥÐºÐ¾Ð¿":6882,"ÑģÐ±":6883,"ĠÐ¿ÐµÑģÐ½Ñİ":6884,"ĠÐ±ÑĢÐ°Ð¹":6885,"ĠÐ½Ðº":6886,"ĠÐºÐ¾Ð¼Ð½":6887,"ĠÐ²Ð¾Ð¿ÑĢÐ¾ÑģÐ°Ð¼":6888,"ĠÐ¿Ð°ÑģÑĤ":6889,"ĠÐ°Ð´Ð°Ð¼":6890,"Ð°ÑĤÐµÐ»ÑĮÐ½Ð¾Ð³Ð¾":6891,"ĠÐ·Ð°Ð»Ð¸Ð²":6892,"ĠÐºÐ¾Ð¼Ð±Ð¸Ð½":6893,"Ð°ÑĤÐµÐ»ÑĮÐ½ÑĭÐµ":6894,"ĠÑģÐµÑĢÐµÐ´":6895,"ĠÐ³ÑĥÑĢ":6896,"ĠÐ³ÑĥÐ³":6897,"ÑģÐ¿ÐµÐºÑĤÐ¸Ð²":6898,"ĠÑģÑģ":6899,"ĠÐºÐ¸ÑĤÐ°":6900,"ĠÐºÐ°Ñĩ":6901,"ĠÑĤÑĢÐ¸Ð±":6902,"ĠÑĩÐµÑħÐ¾ÑģÐ»Ð¾Ð²":6903,"ĠÐ¿ÐµÑĢÐµÐ½Ð¾Ñģ":6904,"ĠÐ¸ÑģÑĤÐ¾ÑĢÐ¸ÑĩÐµÑģÐºÐ¸Ð¹":6905,"ĠÐ¾Ð¿Ð¿":6906,"ĠÑģÐºÐ¾Ð¿":6907,"ÑĥÑĦ":6908,"Ð°Ð¼ÐµÑĢÐ¸ÐºÐ°Ð½":6909,"ĠÑİÑĢÑĮ":6910,"ĠÐ¾ÑĩÐµÐ²Ð¸Ð´Ð½Ð¾":6911,"Ð½Ð¾Ð²ÐµÐ½Ð¸Ñı":6912,"ĠÐ±ÑĥÐ´Ñĥ":6913,"ĠÑĨÐµÑĢÐµÐ¼":6914,"ĠÐ²ÑĭÑģÑĤÑĥÐ¿Ð¸Ð»":6915,"ĠÐ»Ð°Ð´":6916,"ĠÐ½Ð¾Ð²Ð¾Ð¼":6917,"Ð°Ð·Ð°":6918,"ĠÑĢÑĥÑģÑģÐºÐ¾":6919,"ĠÑĢÑĥÐºÐ¸":6920,"ĠÐ·Ð°Ð½Ð¸Ð¼Ð°ÑĤÑĮÑģÑı":6921,"ĠÐ²ÑĭÐ²":6922,"ĠÐ·Ð°ÑĢÑĥÐ±ÐµÐ¶":6923,"ĠÑģÐ°Ð¼Ð¾ÑĥÐ¿ÑĢÐ°Ð²":6924,"ĠÑģÐ»Ñĥ":6925,"ÑĢÐ¾Ð»":6926,"ĠÑģÐ¾ÑģÑĤÐ¾ÑıÐ»":6927,"ĠÐ·Ð¸Ð¼Ð½Ð¸Ñħ":6928,"ĠÐ°Ð·ÐµÑĢÐ±Ð°Ð¹Ð´Ð¶Ð°Ð½":6929,"ĠÐ±ÑĢÐ°Ð½":6930,"ĠÐ¸Ð¼ÐµÑİÑĤÑģÑı":6931,"ĠÑĦÐ¾ÑĢÐ¼Ð¸ÑĢÐ¾Ð²Ð°Ð½Ð¸Ñı":6932,"ĠÐ½Ð¾Ð²Ð¾":6933,"ĠÐ°ÑįÑĢÐ¾Ð´":6934,"ĠÐ¿ÑĢÐµÐºÑĢÐ°Ñģ":6935,"ĠÐ±ÐµÐ»Ð°ÑĢÑĥÑģÑĮ":6936,"ĠÐ½ÐµÐ¶":6937,"Ð¾Ð»ÑĮÑģÐºÐ¾Ð³Ð¾":6938,"ĠÑģÐ¿Ð¸ÑģÐºÐ°":6939,"Ð¸ÑīÐµ":6940,"Ð¾Ð·Ð³":6941,"ĠÐ³ÑĢÐ¾Ð¼":6942,"ÑıÐ½Ðµ":6943,"ĠÑĢÐ°ÑģÑģÐ¼Ð¾ÑĤÑĢ":6944,"ĠÐ¼ÐµÑĪ":6945,"ĠÑģÐ²Ð¾Ðµ":6946,"ÐµÑĢÑĭÐ²":6947,"ĠÐ¼Ð°ÑĢÐ¾Ðº":6948,"ĠÐ¼Ð¸ÑħÐ°Ð¸Ð»Ð°":6949,"ĠÐ¿ÐµÑĢÐµÐ¸Ð¼ÐµÐ½Ð¾Ð²Ð°Ð½":6950,"ĠÑģÐºÐ¾ÑĤ":6951,"ÑĪÐ°ÑıÑģÑı":6952,"ĠÑģÐ¾Ð»ÑĮ":6953,"ĠÑĦÐ¾ÑĢÑĥÐ¼":6954,"Ð¾ÑģÑĤÐµÐ¹":6955,"ĠÑĢÐ°ÑģÑħÐ¾Ð´":6956,"ĠÐ¾ÑģÐ¼Ð°Ð½":6957,"ĠÐ¿ÑĢÐµÐ´ÑĥÑģ":6958,"ĠÐ°ÑĤÐ¾Ð¼":6959,"ĠÑĥÑį":6960,"ÑĦÐ¸Ð»":6961,"ĠÐ¾Ð±Ð»Ð¾Ð¶":6962,"ĠÑĥÑģÐ¿ÐµÑĪÐ½Ð¾":6963,"ĠÑĢÑĥÑģÑģÐº":6964,"ĠÐ´ÐµÐ¼Ð¾Ð½ÑģÑĤ":6965,"Ð½Ð¸ÑĨÐµ":6966,"ĠÑĤÑĥÑĢÑĨÐ¸Ð¸":6967,"ĠÐ¿Ð¾ÑıÐ²Ð»ÑıÐµÑĤÑģÑı":6968,"ĠÐ¶Ñĥ":6969,"ĠÐ²ÑĭÐ¿ÑĥÑīÐµÐ½":6970,"ĠÑĦÐµÐ¾Ð´":6971,"Ð°Ð»ÐµÐ¹":6972,"ĠÑĪÑĤÑĥÑĢÐ¼":6973,"ÐµÐ»ÐµÑģ":6974,"ĠÐ¼Ð¾Ð´Ð¸ÑĦ":6975,"ĠÑģÐ½Ð¾":6976,"ĠÑĦÐ¸Ð½Ð°Ð»Ð°":6977,"ĠÐ¼ÑĥÐ·ÑĭÐºÐ°Ð½ÑĤÑĭ":6978,"ĠÑĦÐ¸Ð½Ð»ÑıÐ½Ð´Ð¸Ð¸":6979,"ĠÐ¾ÑĤÐ¾Ð±":6980,"ĠÐ²Ð¾Ð¾ÑĢÑĥÐ¶ÑĳÐ½Ð½ÑĭÑħ":6981,"ĠÐºÐ°Ð¼ÐµÑĢ":6982,"ĠÑįÑĢÐ½":6983,"ĠÐ·Ð°ÑģÐµÐ´":6984,"ĠÑģÐºÐ°Ð½Ð´":6985,"ĠÐ±Ð¾Ñİ":6986,"ĠÑİÐ½":6987,"ĠÑįÐ½ÑĤ":6988,"ĠÑİÐ¶Ð½Ð°Ñı":6989,"ĠÐ¸Ð´ÐµÐ¸":6990,"ĠÐ¿ÑĢÐ°Ð²Ð¸Ð»ÑĮÐ½Ð¾":6991,"ĠÐ²Ð¾Ð»Ð¾Ð³Ð¾Ð´ÑģÐºÐ¾Ð¹":6992,"ĠÐ¿Ð¾Ð»ÑĥÑĦÐ¸Ð½":6993,"Ð¾Ð¸Ð½":6994,"ĠÐ¼Ð°ÐºÐµÐ´":6995,"ĠÑģÐ¾ÑģÑĤÐ¾ÑıÑī":6996,"ĠÐ²ÑĭÑĩÐ¸Ñģ":6997,"ĠÐ¾Ð±ÐµÑģÐ¿ÐµÑĩÐµÐ½Ð¸Ñı":6998,"Ð¾Ð²Ð°Ð½Ð½ÑĭÑħ":6999,"ĠÐ°Ð½Ð´ÑĢÐµÐµÐ²Ð¸Ñĩ":7000,"ĠÐµÐ»Ð¸Ð·Ð°Ð²":7001,"ĠÑĤÐ°Ð´Ð¶":7002,"ĠÐ¿Ð¾Ð´Ð²":7003,"ĠÐ³Ð¾Ð²Ð¾ÑĢÑı":7004,"ĠÑģÐµÑĢÐµÐ±ÑĢÑıÐ½ÑĭÐ¹":7005,"ĠÐ¾ÑĤÐ´ÐµÐ»ÑĮÐ½ÑĭÐµ":7006,"ĠÐ½ÐµÐ¹ÑĤÑĢÐ°Ð»ÑĮ":7007,"Ð¸Ð½Ð³ÑĤÐ¾Ð½":7008,"ĠÐ²Ð¿ÐµÑĩÐ°ÑĤ":7009,"ĠÐ³Ð°Ð·ÐµÑĤ":7010,"ĠÐ±ÑİÑĢÐ¾":7011,"ĠÐ³Ð»Ð°":7012,"ĠÐ¶Ð´":7013,"ĠÐ¸Ð³ÑĢÑĥ":7014,"ĠÐ¿Ð¾Ð»Ð¸ÑĤÐ¸ÐºÐ°":7015,"ĠÐ½ÐµÐ±Ð¾Ð»ÑĮÑĪÐ¾Ð¹":7016,"ĠÑħÐ¸ÑĤ":7017,"ĠÐ¶ÐµÐ½Ð°ÑĤ":7018,"ĠÐ³Ð¸ÑĤÐ°ÑĢ":7019,"ĠÑģÐ¾Ð´ÐµÑĢÐ¶Ð°Ð½Ð¸Ðµ":7020,"ĠÐ°Ð»ÑĤÐ°Ð¹":7021,"ĠÐºÑĥÑĤ":7022,"ĠÐºÐ¾Ñĩ":7023,"ĠÐ±ÑĢÐ°ÑĤÐ°":7024,"ĠÐ¿ÑĢÐ¾Ð¿Ð°Ð³":7025,"ĠÐ²Ð¸Ð´Ñĥ":7026,"ĠÐ»Ð¾ÑĪ":7027,"ĠÑģÑĥÑīÐµÑģÑĤÐ²Ð¾Ð²Ð°Ð½Ð¸Ðµ":7028,"ĠÐ°Ð»ÑĮÑĤ":7029,"ĠÑĤÑĢÐ°Ð´Ð¸ÑĨÐ¸Ð¸":7030,"ĠÑĤÑĥÐ´Ð°":7031,"ĠÐ¶Ð¸Ð»Ð¸":7032,"ĠÐ¾Ð±ÑĬÐµÐ´Ð¸Ð½ÐµÐ½Ð¸Ñı":7033,"Ð¾Ð·ÐµÑĦ":7034,"ĠÐ¸Ð±Ð½":7035,"ĠÑĪÐ¾ÑģÑģÐµ":7036,"ĠÐ½ÐµÐ»":7037,"ĠÐ¿Ð¾ÐºÐ°Ð·Ð°ÑĤÐµÐ»ÑĮ":7038,"ĠÐ¾ÑĤÐºÑĢÑĭÐ²":7039,"ĠÐ±ÑĢÐ°Ð·Ð¸Ð»ÑĮ":7040,"Ð°ÑĢÐ¸Ð¹":7041,"ĠÑĦÑĢÐ°Ð½ÑĨÑĥÐ·ÑģÐºÐ¾Ð¹":7042,"ĠÐ²Ð¾ÑĪÑĳÐ»":7043,"ÑħÐ°Ð¹":7044,"ĠÐ½Ð°ÐºÐ°Ð·":7045,"ĠÐ¿Ð¾Ð»ÑĥÐ·Ð°ÑīÐ¸ÑĤ":7046,"Ð¾ÑĢÐ°ÑĤÐ¸Ð²":7047,"Ð¾ÐºÐ¾Ð¹":7048,"ĠÐ²ÑĭÑģÐ¾ÑĤÐµ":7049,"ÑĥÑģÑģÐ¸Ñı":7050,"ĠÐ±ÑĢÐ¾Ñģ":7051,"ĠÑĢÐµÐµÑģÑĤ":7052,"Ð¸Ð´Ð¶":7053,"ĠÐ¾Ð¿ÑĢÐ¾Ñģ":7054,"ĠÐ¼Ð°ÑĢÑģ":7055,"ĠÑĢÐ¾Ð¼Ð°Ð½Ð¾Ð²":7056,"ĠÐ³ÐµÐ¹":7057,"ĠÐ´ÑĢÑĥÐ³Ð¾Ð³Ð¾":7058,"ĠÑĤÐµÐ»ÐµÐ²Ð¸Ð·Ð¸Ð¾Ð½":7059,"ĠÐ½Ð°Ð¿ÑĢÐ°Ð²Ð»ÐµÐ½Ð¸Ðµ":7060,"ĠÐ¼ÐµÑģÑĤÐ°Ñħ":7061,"ĠÐ±ÐµÑĢÐ½":7062,"ĠÐ¸Ð³ÑĢÐ¾ÐºÐ°":7063,"ĠÐºÑį":7064,"ÑħÐ¸":7065,"ĠÐ²ÑĭÑģÐºÐ°Ð·ÑĭÐ²":7066,"ĠÐ°Ð²ÑĤÐ¾Ð¼Ð¾Ð±Ð¸Ð»":7067,"ÑģÑĤÐ²Ð¸Ðµ":7068,"Ð¸ÑĢÑĥÑĢÐ³":7069,"ĠÐ´Ð¾Ð±Ñĭ":7070,"ĠÑĥÑĢÐ°Ð»ÑĮ":7071,"ĠÑħÐ²Ð°ÑĤ":7072,"Ð²Ð°ÑĪ":7073,"ĠÐ¿Ð¾ÑĢÑıÐ´Ð¾Ðº":7074,"Ð¼ÐµÐ½Ð°":7075,"ÑĨÐ¸Ð¾Ð½Ð½Ð¾Ð³Ð¾":7076,"ĠÐ¾ÑģÐ½Ð¾Ð²Ð½Ð°Ñı":7077,"Ð¸Ð²Ð°ÑĤÑĮÑģÑı":7078,"Ð°ÐµÐ¼ÑĭÐ¹":7079,"ÑģÐºÑĥ":7080,"ĠÑĤÑĢÐµÑĤÑĮÐµÐ³Ð¾":7081,"ĠÐ¿ÑĢÐ¾ÑĨÐµÑģÑģÐµ":7082,"Ð·ÐµÐ¼":7083,"ĠÐ°Ð¼ÐµÑĢÐ¸ÐºÐ°Ð½ÑģÐºÐ¾Ð³Ð¾":7084,"ĠÐ»ÐµÐ³ÐµÐ½Ð´":7085,"ĠÑģÑĩÑĳÑĤÐ¾Ð¼":7086,"ĠÐ´Ð½Ð¸":7087,"ĠÐ±ÑİÐ´Ð¶":7088,"ĠÑģÐ¾Ð·Ð²ÐµÐ·Ð´":7089,"ĠÐ¿Ð¾Ð»Ð¸ÑĤÐ¸Ðº":7090,"ĠÑĥÐ¾Ð»":7091,"ĠÐ»Ð¾ÐºÐ¾Ð¼":7092,"ĠÑıÐ·ÑĭÐºÐ°Ñħ":7093,"ĠÐ¿ÐµÑĢÑģÐ¾Ð½Ð°Ð¶ÐµÐ¹":7094,"Ð»Ð¸Ð½Ñĭ":7095,"ĠÐ·Ð°ÐºÑĢÐµÐ¿":7096,"ĠÐ¿Ð¾Ð»Ð½Ð¾Ð¼Ð¾Ñĩ":7097,"ĠÑįÐºÐ²":7098,"ĠÐ¿ÐµÑĢÐµÐ²Ð¾Ð·":7099,"Ð¾ÑĢÐ¸":7100,"ĠÐ²ÑĭÐ³Ð»ÑıÐ´":7101,"ĠÐ¿Ð¸ÑģÐ°ÑĤÐµÐ»ÐµÐ¹":7102,"ĠÑĥÐ´Ð¾Ð²Ð»ÐµÑĤÐ²Ð¾ÑĢ":7103,"ĠÐ¶ÐµÐ½ÑīÐ¸Ð½Ð°":7104,"Ð°Ð½Ð½ÑĭÐ¼":7105,"ĠÐ²Ð¾ÑģÑĤÐ¾ÐºÐ°":7106,"ĠÐ²Ð¾ÐºÐ·":7107,"ĠÑįÐ¿Ð¾ÑħÐ¸":7108,"ĠÐ°Ð´Ð°":7109,"ĠÐ¼ÑĭÑģ":7110,"ĠÐ³ÑĥÐ±ÐµÑĢÐ½Ð¸Ñı":7111,"ĠÐ²Ð¾Ð·Ð³Ð»Ð°Ð²Ð¸Ð»":7112,"Ð°Ð»ÑĮÑı":7113,"ĠÐ¸Ð¼ÐµÐ»Ð°":7114,"ĠÐºÐ°ÑĢÑĤÐ¸Ð½Ð°":7115,"ĠÐ¿ÑĤÐ¸ÑĨ":7116,"ĠÑĥÐºÑĢÐ°Ð¸Ð½":7117,"ĠÐ¸Ð³ÑĢÐ¾ÐºÐ¾Ð²":7118,"ĠÐ°ÑĢÐ±Ð¸ÑĤÑĢÐ°Ð¶":7119,"ĠÐ¿Ð¾Ð»Ð½ÑĭÐ¹":7120,"ĠÐ¼ÐµÑģÑĤÐ½ÑĭÑħ":7121,"ĠÐ´Ð°Ð½Ð½Ð¾Ðµ":7122,"ĠÑĥÑģÑĤÐ°Ð½Ð°Ð²Ð»Ð¸Ð²":7123,"ĠÑģÑĤÐ¾Ð»Ð¸ÑĨÐ°":7124,"Ð»ÐµÑĢÐ°":7125,"ĠÑģÑĥÐ½":7126,"ĠÐ¾ÑĢÐ³Ð°Ð½Ð¾Ð²":7127,"ĠÑģÐµÐ³":7128,"Ð¸ÑĩÐ½Ð¾Ð³Ð¾":7129,"ĠÐ¿Ð¸ÑģÐ°ÑĤÐµÐ»Ñı":7130,"ĠÐ´Ð¾Ð±ÑĢÐ¾Ð²Ð¾Ð»ÑĮ":7131,"ĠÐºÐ¸ÑĤÑĤ":7132,"ĠÐ²Ð°Ð¼Ð¸":7133,"ĠÐ¼ÑıÐ³":7134,"ĠÐ¼Ð°ÑĪÐ¸Ð½Ñĭ":7135,"ĠÑģÐ²Ð¾Ð±Ð¾Ð´Ñĭ":7136,"ĠÑĢÐ°Ð·Ð½Ð¾Ð¾Ð±ÑĢÐ°Ð·":7137,"ĠÑĢÐ°Ð±Ð¾ÑĤÐ°Ð»Ð°":7138,"Ð»Ð¾Ð³":7139,"ÐµÐ´Ð»Ð¸Ð²":7140,"ĠÐ²Ð·ÑĢÐ¾ÑģÐ»":7141,"Ð¸ÑĢÑĭ":7142,"ĠÐ»ÑĥÑĩÑĪÐ°Ñı":7143,"ĠÐ¿Ð¾Ð´Ð¿Ð¸ÑģÐ°Ð»":7144,"ĠÐ²ÑģÐµÑģÐ¾ÑİÐ·":7145,"ĠÐ¾Ð°Ð¾":7146,"ĠÐ¿Ð¾Ð´Ð±":7147,"ĠÐºÑĢÑĭÐ»ÑĮ":7148,"ĠÑĤÐ¾ÑĢÐ¿ÐµÐ´":7149,"ĠÐ°Ð²Ð¸Ð°ÑĨÐ¸Ð¸":7150,"ÑĢÑĥÐµÑĤ":7151,"Ð»Ð¸ÑģÑĤ":7152,"ĠÐ²ÑģÐµÐ¼Ñĥ":7153,"ĠÐ´Ð°ÑĳÑĤ":7154,"ĠÐ¸Ð²Ð°Ð½Ð°":7155,"ĠÐ¼Ð°ÑĢÑĪÑĢÑĥÑĤ":7156,"ĠÐ·ÐµÐ½Ð¸ÑĤ":7157,"ĠÐ¾Ð´ÐµÑģ":7158,"ĠÐ¾ÑģÐ½Ð¾Ð²Ð°Ð½Ð°":7159,"ĠÐ³ÑĢÐ°Ð²":7160,"Ð¾Ð±Ð¾ÑĢ":7161,"ĠÐ¿Ð¾ÑĢÑıÐ´ÐºÐ°":7162,"ĠÐ±Ð°ÑĤÐ°":7163,"ÐµÐ²ÑĭÐ¼":7164,"ĠÑĩÐµÑĢÑĤ":7165,"ĠÐ¿Ð¾Ð»ÑĥÑĩÐµÐ½Ð¸Ñı":7166,"ĠÐ¿ÑĢÐ¸Ð½ÑıÐ»Ð¸":7167,"ĠÐ¿Ð¾ÑģÐ¾Ð»ÑĮ":7168,"ĠÑĢÐµÐºÐ¾Ð½ÑģÑĤÑĢÑĥÐº":7169,"ÑģÑģÐµ":7170,"ĠÐ¿ÐµÐ¹":7171,"ÑĤÑĢ":7172,"ĠÐ¾Ð¿ÑĢÐµÐ´ÐµÐ»ÐµÐ½Ð¸Ðµ":7173,"ĠÐ²ÑħÐ¾Ð´Ð¸Ð»":7174,"ÑĩÐ¶":7175,"ĠÐ´Ð¾Ð¼Ð¾Ð²":7176,"ĠÐ²ÐµÐ»Ð¸ÐºÐ°Ñı":7177,"ĠÐ²ÑĭÑģÑĤÑĥÐ¿Ð°ÐµÑĤ":7178,"ĠÑģÐ½Ð°ÑĢ":7179,"ĠÑĥÐ³ÑĢÐ¾Ð·":7180,"ĠÑģÐ¸Ð½Ð³Ð»":7181,"ĠÐºÑĥÐ»ÑĮÑĤÑĥÑĢÐµ":7182,"ĠÐ´Ð¸Ð½Ð°ÑģÑĤÐ¸Ð¸":7183,"ĠÐ»Ð°Ð¿":7184,"ĠÐ¿Ð»ÐµÐ¹":7185,"ĠÐ²Ð²Ð¾Ð´":7186,"ĠÑģÑĥÑīÐµÑģÑĤÐ²Ð¾Ð²Ð°Ð½Ð¸Ñı":7187,"ĠÐ¿ÐµÑĢÑģÐ¿ÐµÐºÑĤÐ¸Ð²":7188,"ĠÐ´Ð°ÑĤÑĮ":7189,"ĠÐ½Ð°ÑĩÐ¸Ð½Ð°":7190,"ĠÐ¾ÑģÑĤÐ°ÑĤ":7191,"ĠÐ¿Ð¾Ð»ÑĥÐ¾ÑģÑĤÑĢÐ¾Ð²":7192,"ĠÐ»Ð¾":7193,"Ð¶ÐµÐ±":7194,"ĠÐºÐ¾Ð¼Ð°Ð½Ð´Ð¾Ð²Ð°Ð½Ð¸ÐµÐ¼":7195,"Ð¾ÑħÐ¾Ð´":7196,"ĠÐ¾Ð³Ð½":7197,"ĠÐ½Ð°ÑĢÑıÐ´Ñĥ":7198,"ĠÑĢÐ¸ÑĤ":7199,"ĠÑĢÐµÑĩÐ¸":7200,"ĠÑĥÑģÐ°Ð´ÑĮ":7201,"ĠÐ¿ÑĢÐµÐ²ÑĢÐ°Ñī":7202,"ĠÑģÐ»ÐµÐ´ÑĥÑİÑīÐµÐ¼":7203,"ĠÐ²Ð°Ð»ÐµÑĢÐ¸Ð¹":7204,"ĠÐ²ÑĢÐ°Ð³":7205,"ÑĥÑĢÑĤ":7206,"ĠÑĢÐ°Ð·Ð¾Ð±":7207,"ĠÑĥÑģÑĤÑĢÐ¾Ð¹ÑģÑĤÐ²Ð¾":7208,"ĠÐ²ÐµÐºÐ¾Ð²":7209,"ĠÐ³ÑĢÑĥÐ·Ð¸Ð¸":7210,"ĠÐ»Ð¾ÐºÐ¾Ð¼Ð¾ÑĤÐ¸Ð²":7211,"Ð°ÑĢÐµ":7212,"ĠÐ´Ð¸Ð¼":7213,"ĠÑĥÑħ":7214,"ĠÐ³ÑĢÐ¸Ð³Ð¾ÑĢÑĮÐµÐ²Ð¸Ñĩ":7215,"ĠÑģÑĤÐ¾Ð»ÑĮ":7216,"ĠÐ½ÐµÐ¿Ð¾Ð½":7217,"ĠÐ¾Ð¿ÐµÑĢÐ°ÑĤÐ¸Ð²":7218,"ĠÑĪÐ°Ð½":7219,"ĠÐ¾ÐºÐ°Ð·Ð°Ð»ÑģÑı":7220,"ĠÐ¾ÑĤÐºÑĢÑĭÑĤÐ¸Ñı":7221,"ĠÐºÐ²Ð°Ð´ÑĢÐ°ÑĤ":7222,"ĠÐ²ÐµÑĢÑħÐ½ÑıÑı":7223,"ĠÐ¶Ð¸Ð´":7224,"ĠÐ²Ð°Ð¹":7225,"ĠÑģÐ¾Ð·Ð½":7226,"ĠÑĤÐµÐ»Ð¾":7227,"ĠÐ°ÐºÑĤÑĢÐ¸Ñģ":7228,"Ð¼Ð¾ÑĤÑĢÐµÑĤÑĮ":7229,"ĠÐ¿ÑĢÐ¸Ð²Ð¾Ð´Ð¸ÑĤ":7230,"ĠÐ¾ÑĢÐ±":7231,"Ð°ÑĤÐ¾ÑĢÑĭ":7232,"ĠÐ¿ÑĢÐ¾ÑħÐ¾Ð´Ð¸Ð»":7233,"ĠÐ³Ð°ÑģÑĤ":7234,"ĠÐ¿ÑĢÐµÐ´ÑģÑĤÐ°Ð²Ð»ÐµÐ½":7235,"ĠÐ²ÑĭÑģÑĤÐ°Ð²ÐºÐ°":7236,"ĠÐ¾ÑĢÐ¸Ð³Ð¸Ð½Ð°Ð»ÑĮÐ½Ð¾Ðµ":7237,"Ð¾Ð»ÑĮÐ´":7238,"ĠÐ°ÑĦÐ³Ð°Ð½":7239,"ĠÐ¸Ð½Ð²ÐµÑģÑĤ":7240,"ĠÑģÑĩÐ°ÑģÑĤ":7241,"ĠÐ¸ÑģÐºÐ»ÑİÑĩÐµÐ½Ð¸ÐµÐ¼":7242,"ĠÐ°ÑĢÐµÐ½Ð´":7243,"ĠÐ±Ð¾ÐµÐ²Ð¾Ð¹":7244,"ĠÐ²ÑģÑĤÑĢÐµÑĩÐ°ÑİÑĤÑģÑı":7245,"ĠÐ²ÑĮÐµÑĤ":7246,"ÑĦÐ¾Ð½":7247,"ĠÑģÐ¾Ð±Ð¾ÑĢÐ°":7248,"ĠÑģÐ²Ð¸Ð´ÐµÑĤÐµÐ»ÑĮÑģÑĤÐ²":7249,"ĠÐ²ÑĭÐ½ÑĥÐ¶Ð´ÐµÐ½":7250,"ĠÐ¿Ð¾ÑĢÐ°Ð¶":7251,"ĠÐ²Ð·ÑıÐ»":7252,"ĠÐºÑĢÐ¸Ð·":7253,"ĠÐ¿Ð¾ÑģÑĤÑĢÐ¾ÐµÐ½Ð°":7254,"ĠÑģÑĤÐ¾Ð»ÐµÑĤ":7255,"ĠÐºÐ¾ÑĢÐ°Ð±Ð»ÐµÐ¹":7256,"ÑģÑĤÐ¾ÑıÑĤÐµÐ»ÑĮ":7257,"Ð¾ÐºÐµ":7258,"ĠÑģÐ¾ÑģÑĤÐ°Ð²Ð»ÑıÐ»Ð°":7259,"Ð¸ÑĩÐ½Ð°Ñı":7260,"ÑĢÑİ":7261,"ĠÑĥÑĩÐµÐ½Ð¸ÐºÐ¸":7262,"ĠÐ½Ð°ÑĩÐ°Ð»Ð¾Ð¼":7263,"ĠÐ´ÐµÐ´":7264,"ĠÐ¿ÑĢÐ¸Ð¼Ð¾ÑĢ":7265,"ĠÐ¾ÑĤÐ½Ð¾ÑĪÐµÐ½Ð¸Ð¹":7266,"ĠÑĩÑĢÐµÐ·Ð²Ñĭ":7267,"ÐµÐ»ÑĮÐ½Ð°Ñı":7268,"Ð¸ÑĢÐ¾Ð²Ð°Ð½Ð½Ð¾Ð¹":7269,"Ð¿ÐµÑĢ":7270,"ĠÐ¸Ð³ÑĢÐ¾Ð²":7271,"ĠÑĥÐ±ÐµÐ´":7272,"ĠÑıÐºÐ¾Ð²Ð»":7273,"ĠÑģÑĢÐµÐ´Ð½ÐµÐ¼":7274,"ĠÑĥÐ¶Ð°Ñģ":7275,"ĠÐ½ÑĤ":7276,"ĠÑĢÐ¾Ð´ÑģÑĤÐ²ÐµÐ½":7277,"ĠÑĪÐ²ÐµÐ¹ÑĨÐ°ÑĢÐ¸Ð¸":7278,"ĠÑĩÑĢÐµÐ·Ð²ÑĭÑĩÐ°Ð¹":7279,"ĠÑĩÐ¸Ð½Ð¾Ð²":7280,"ĠÐ²ÑĭÐ½ÐµÑģ":7281,"ĠÐ¼Ð¾Ð½Ð°ÑĢÑħ":7282,"ĠÑįÐ»ÐµÐ¼ÐµÐ½ÑĤÐ¾Ð²":7283,"ĠÐ³ÐµÐ½ÐµÑĢÐ°Ð»ÑĮÐ½Ð¾Ð³Ð¾":7284,"ĠÐ²ÑĭÐ¼":7285,"ĠÐ¼Ð°Ð¹Ðº":7286,"Ð¿ÑĢÐ¾Ñĩ":7287,"ÐµÐ·Ð¶":7288,"ÑĨÐ¸Ð¾Ð½Ð½ÑĭÑħ":7289,"ĠÐ¼ÐµÐ¶Ð´ÑĥÐ½Ð°ÑĢÐ¾Ð´Ð½ÑĭÐµ":7290,"ĠÐ¼ÑĥÐ·ÐµÐµ":7291,"ĠÐ°Ð½ÑģÐ°Ð¼Ð±":7292,"ĠÐ¼Ð¸Ð´":7293,"ÐµÑĨÐºÐ¾Ð³Ð¾":7294,"Ð°Ð½Ð¾Ð²Ð¾":7295,"ÑĥÑĢÐ¸":7296,"ÑĢÐ¾Ð²Ð¾Ð´":7297,"ĠÐ¼Ð¾ÐµÐ¼Ñĥ":7298,"ĠÐ¸Ð·ÑĢÐ°Ð¸Ð»Ñı":7299,"ĠÐ¸ÑĢÐ»Ð°Ð½Ð´Ð¸Ð¸":7300,"ĠÐ¾Ð±ÑĥÑĩÐµÐ½Ð¸Ñı":7301,"ĠÑĢÐ¾Ð¶Ð´ÐµÐ½Ð¸Ð¸":7302,"ĠÐ¿Ð¾Ð»Ð¸ÑĤÐ¸ÑĩÐµÑģÐºÐ¸Ñħ":7303,"ĠÐ½ÐµÐ´Ð°Ð²":7304,"ĠÑĤÐµÑĢÑĢÐ¸ÑĤÐ¾ÑĢÐ¸Ñİ":7305,"ĠÐ¸Ð¾Ð³":7306,"ĠÐ¾ÑĨÐµÐ½ÐºÐ¸":7307,"ĠÑģÑĨÐµÐ½Ð°ÑĢÐ¸ÑģÑĤ":7308,"Ð»ÑĥÑĩ":7309,"ĠÑģÐ¾ÑĨÐ¸":7310,"ĠÑģÐ¾ÑĩÐµÑĤ":7311,"ĠÐ²Ð¿Ð°Ð´":7312,"ĠÐ¾Ð´Ð¸Ð½Ð¾Ñĩ":7313,"ĠÑĨÐµÐ½ÑĤÑĢÐ°Ð»ÑĮÐ½Ð¾Ð³Ð¾":7314,"ĠÐ´Ð¾Ð±Ð°Ð²Ð¸ÑĤÑĮ":7315,"ĠÐ²ÑħÐ¾Ð´Ð¸Ð»Ð°":7316,"ĠÐ¸Ð´ÐµÑı":7317,"ĠÑģÐºÐ°Ð¶":7318,"ĠÐ¼ÑİÐ½":7319,"ĠÐ´ÑĢÐµÐ²Ð½ÐµÐ¹":7320,"ĠÑĢÐ°ÑģÐ¿Ð¾Ð»Ð°Ð³Ð°ÐµÑĤÑģÑı":7321,"ÑĢÐ¾Ð¸Ð·Ð²":7322,"ĠÑĢÐ°ÑģÑģÑĤÐ¾ÑıÐ½Ð¸Ð¸":7323,"ĠÐ¿Ð¾Ð´ÑĬ":7324,"Ð°ÑĤÐ¾ÑĢÐ¾Ð¼":7325,"ĠÑģÑĤÑĥÐ´Ð¸Ð¹":7326,"Ð½Ð°Ñģ":7327,"ĠÐ¿Ð¾ÑĤÐµÑĢÐ¸":7328,"ĠÐ¿ÑĢÐµÐ´ÑĪÐµÑģÑĤÐ²ÐµÐ½Ð½Ð¸Ðº":7329,"Ð¾Ñİ":7330,"Ð¿Ñģ":7331,"ĠÐºÐ¸ÑĢÐ³Ð¸Ð·":7332,"ĠÐ°ÑĤÐ»Ð°Ð½ÑĤ":7333,"ÐºÐµÐ²Ð¸Ñĩ":7334,"Ð°ÐºÐ¾Ð½":7335,"ĠÐ°ÐºÐ°Ð´ÐµÐ¼Ð¸Ñı":7336,"ĠÐ»Ð°ÑĥÑĢÐµÐ°ÑĤÑĭ":7337,"ĠÐ·Ð°Ð´ÐµÑĢÐ¶":7338,"ĠÐºÐ¸Ð¼":7339,"ÑĢÑıÐ·":7340,"ĠÐ²ÑıÑĩ":7341,"ĠÐ¾ÑĤÐ±Ð¾ÑĢ":7342,"ĠÐºÐ°ÑĢÐ»Ð°":7343,"ĠÐ±Ð°ÑĤÐ°Ð»ÑĮÐ¾Ð½Ð°":7344,"ĠÑģÑĤÑĢÐµÐ»ÐºÐ¾Ð²Ð¾Ð¹":7345,"ĠÐ½ÐµÑģÑĤ":7346,"ĠÐ²ÐµÐ»Ð¸ÐºÐ¾Ð±ÑĢÐ¸ÑĤÐ°Ð½Ð¸Ñı":7347,"ĠÑĤÐ¾Ð±":7348,"ĠÑĢÐµÑģÐ¿ÑĥÐ±Ð»Ð¸ÐºÐµ":7349,"ĠÐ´Ð¸ÑģÑĨÐ¸Ð¿":7350,"ĠÐ°ÐºÐ°Ð´ÐµÐ¼Ð¸Ðº":7351,"ĠÐ±Ð¾Ð¼Ð±Ð°ÑĢÐ´Ð¸ÑĢÐ¾Ð²":7352,"ĠÐ²Ð¾ÑģÑģÑĤÐ°Ð½Ð¸Ñı":7353,"ĠÑįÐ»ÐµÐ¼ÐµÐ½ÑĤÑĭ":7354,"ĠÐ¿ÑĢÐ¾ÐµÐºÑĤÑĥ":7355,"ĠÐ¿ÑĢÐ¸Ð½Ð°Ð´Ð»ÐµÐ¶Ð¸ÑĤ":7356,"ĠÐ¶Ð¸Ð²Ð¾ÑĤÐ½ÑĭÐµ":7357,"ÐµÑĤÑĤ":7358,"ĠÐ²ÑĭÑıÐ²":7359,"Ð»ÐµÐ½Ð½Ð¾":7360,"Ð¾Ð½ÑģÐºÐ¸Ð¹":7361,"ÑĥÑĪÐºÐ°":7362,"ĠÐ¼ÐµÑħÐ°Ð½Ð¸Ð·Ð¼":7363,"ĠÐ»Ð¾Ð²":7364,"ĠÐ±Ð¾Ð³Ð¾ÑĢÐ¾Ð´":7365,"ĠÑĩÑĥÐ²ÑģÑĤÐ²":7366,"ĠÐ»ÑĥÑĩÑĪÐ¸Ð¼":7367,"ĠÐºÐ¸Ð»Ð¾Ð¼ÐµÑĤÑĢÐ¾Ð²":7368,"Ð³ÐµÑĢ":7369,"ÑĦÐµÐºÑĤ":7370,"Ð°ÐºÑģ":7371,"ĠÐ°ÑĤÐ¼Ð¾Ñģ":7372,"ĠÐ¿ÑĢÐµÐµÐ¼Ð½Ð¸Ðº":7373,"ÑĨÐµÐ¿":7374,"ĠÐ¸ÑģÐ¿Ð¾Ð»ÑĮÐ·Ñĥ":7375,"ĠÐ¸Ð³ÑĢÐ°ÑĤÑĮ":7376,"ĠÐ´ÐµÐ²ÑıÑĤ":7377,"ĠÐºÐ¾Ð¼Ñĥ":7378,"ÑģÑĤÐ²ÐµÐ½Ð½Ð¾Ðµ":7379,"ĠÐ²Ð·ÑĢÑĭÐ²":7380,"ĠÑįÐºÐ·ÐµÐ¼Ð¿":7381,"ÐµÑģÑĤÐµÑĢ":7382,"ÑĤÐµÐ´":7383,"ĠÐ¿ÐµÑĢÐµÐµÑħÐ°Ð»":7384,"ĠÐ³ÑĥÐ¼Ð°Ð½":7385,"ĠÑĨÐµÐ»Ð¸":7386,"ĠÐ±Ð°Ð»ÑĤÐ¸Ð¹":7387,"ĠÑĥÐºÑĢÐ°ÑĪ":7388,"ĠÑĦÐ¸Ð½Ð°Ð»Ðµ":7389,"ĠÐ´Ð¸ÑĢÐµÐºÑĤÐ¾ÑĢÐ¾Ð¼":7390,"ĠÐ°Ð»ÐµÐºÑģÐµÐµÐ²":7391,"ĠÐ¿Ð°Ð²Ð»Ð¾Ð²Ð¸Ñĩ":7392,"ĠÐ¼Ð°ÑĤÑĩÐ°Ñħ":7393,"ĠÐ°Ð²ÑĤÐ¾Ð¼Ð°ÑĤÐ¸ÑĩÐµÑģÐºÐ¸":7394,"ĠÐ±Ð¾Ð»ÑĮÑĪÐµÐ¹":7395,"ĠÐ±ÐµÐ»ÑĭÐ¹":7396,"ĠÑģÐµÐ²ÐµÑĢÐ½ÑĭÐ¹":7397,"ÐµÐ»ÑĮÑģ":7398,"ĠÐ¸Ð·Ð²":7399,"ĠÐ¾Ð±ÑģÑĥÐ¶Ð´ÐµÐ½Ð¸Ð¸":7400,"ĠÐ¿Ð¾Ð³ÑĢÐ°Ð½Ð¸Ñĩ":7401,"Ð¸ÑģÐºÐ¸":7402,"ÑĩÑĥÐº":7403,"ĠÐ¾ÐºÐ¾Ð½ÑĩÐ°Ð½Ð¸Ð¸":7404,"ĠÑįÐºÐ·ÐµÐ¼Ð¿Ð»Ñı":7405,"ĠÐ¾Ð±ÑģÑĤÐ¾ÑıÑĤÐµÐ»ÑĮ":7406,"ĠÐ¿Ð¾Ð¿Ð°Ð»":7407,"ĠÐ¼Ð°ÐºÑģ":7408,"ĠÐºÑĢÐ°ÐµÐ²":7409,"ĠÐ¸ÑģÑĤÐ¾ÑĢÐ¸ÑĩÐµÑģÐºÐ¸Ðµ":7410,"ĠÑĤÑĥÐ½":7411,"ÑĥÑĤÑģÑı":7412,"ĠÐ»Ð°ÑĤÐ²Ð¸Ð¸":7413,"Ð¾Ð³Ðµ":7414,"ĠÑĥÐµÑĦÐ°":7415,"ÑĨÐ¸Ð¾Ð½Ð½Ð¾Ð¹":7416,"ĠÑģÐ°Ð»ÑĮ":7417,"ÑīÐ¸ÐºÐ¸":7418,"Ð¸ÑĩÐ½ÑĭÐ¼":7419,"ĠÑĪÐµÑģÑĤÐ¸":7420,"ĠÐ²Ð¾Ð·ÑĢ":7421,"ĠÐ¿Ð¾ÐµÐ´Ð¸Ð½":7422,"ĠÐ½ÐµÐ´ÐµÐ»Ñİ":7423,"ĠÑģÑĢÐ°Ð²Ð½ÐµÐ½Ð¸Ñİ":7424,"ĠÐ¿Ð¾Ð½ÑıÑĤÐ¸Ðµ":7425,"ĠÐ²ÑĭÑħÐ¾Ð´Ð¸ÑĤ":7426,"ĠÐ³ÐµÐ½ÑĢÐ¸":7427,"ĠÐ¾ÑģÐºÐ¾ÑĢÐ±":7428,"Ð¾ÑĩÑĮ":7429,"ĠÐ²Ð¾Ð·Ð´ÐµÐ¹ÑģÑĤÐ²":7430,"ĠÑģÑİÐ´Ð°":7431,"ĠÑįÐ´ÑĥÐ°ÑĢÐ´":7432,"Ð»Ð¾Ñī":7433,"ĠÑĥÐ´Ð°Ð»ÑıÑĤÑĮ":7434,"Ð¸Ð°Ð»ÑĮÐ½Ð°Ñı":7435,"ĠÐ¿Ð¸ÑģÑĮÐ¼Ð¾":7436,"ĠÐ¿ÐµÑĢÐµÐ³Ð¾Ð²Ð¾ÑĢ":7437,"Ð±Ð»":7438,"Ð´ÑĤ":7439,"Ð¾Ð´Ð¾Ð»":7440,"ĠÐºÐ¾Ð½ÐºÑĥÑĢÑģÐ°":7441,"ĠÐ½Ð°Ð·Ð½Ð°ÑĩÐµÐ½Ð¸Ñı":7442,"Ð°ÐºÐ¸Ð¸":7443,"Ð°Ð½ÑĤÐ¾Ð¼":7444,"Ð¾Ð½ÐµÐ·":7445,"Ð¸ÑģÐµÐ¹":7446,"ĠÑħÑĥÐ´Ð¾Ð¶ÐµÑģÑĤÐ²ÐµÐ½Ð½ÑĭÐ¹":7447,"Ð¸ÑģÑĤÐºÐ°":7448,"ĠÐºÑĢÑĥÐ¿Ð½ÑĭÐ¹":7449,"ĠÐ´Ð½ÐµÐ²":7450,"ĠÐ¿Ð¾ÑĢÐ°Ð¶ÐµÐ½Ð¸Ðµ":7451,"ĠÐ¼Ð¾ÑģÐºÐ²Ñĥ":7452,"ĠÐ±Ð°ÑĪÐºÐ¾ÑĢÑĤÐ¾ÑģÑĤÐ°Ð½":7453,"ĠÐ¾ÑģÐµÐ½ÑĮÑİ":7454,"Ð°Ð½ÑĤÐ¾Ð²":7455,"ĠÑħÐ²Ð¾ÑģÑĤ":7456,"ĠÐ±ÑĢÐ°ÑĤÑĮ":7457,"ĠÐ¿ÑĢÐµÐ´Ð¼":7458,"ĠÐºÐ¸Ð½ÐµÐ¼Ð°ÑĤÐ¾Ð³ÑĢÐ°ÑĦ":7459,"ĠÑģÐ°Ð¼ÑĭÐµ":7460,"ĠÐ¼Ð¾Ð¶ÐµÑĤÐµ":7461,"ĠÐºÐ¾Ð¿Ð¸Ð²":7462,"ĠÐ±Ð»Ð°Ð³Ð¾Ð´Ð°ÑĢ":7463,"ĠÐ¿Ð¾ÑģÐ»ÐµÐ´Ð½ÐµÐ³Ð¾":7464,"ĠÐ²Ð¾ÑģÑĮÐ¼":7465,"Ð¿Ðµ":7466,"ĠÐºÐ°ÑĦÐµÐ´ÑĢÑĭ":7467,"Ð¾Ð¹ÑĤÐ¸":7468,"ĠÑĢÐ°Ð·ÑĬ":7469,"Ð»ÐµÐ´ÑģÑĤÐ²Ð¸Ðµ":7470,"ĠÐ¾ÑĤÐ»Ð¸ÑĩÐ°ÐµÑĤÑģÑı":7471,"ĠÐ¼Ð°Ð½Ð´":7472,"Ð¾Ð¼Ð°ÑĤ":7473,"ĠÑģÐ²Ð¾Ð´":7474,"ĠÑİÐ¶Ð½Ð¾":7475,"ĠÐºÐ°ÑĤÐµÐ³Ð¾ÑĢÐ¸Ñİ":7476,"ĠÑĨÐµÐ»Ñı":7477,"ĠÐºÐ°Ð±Ð¸Ð½":7478,"Ð¸Ð½ÑĤÐµÑĢÐµÑģ":7479,"ĠÑĢÐ°Ð±Ð¾ÑĤÐ°Ð»Ð¸":7480,"ĠÐ¼Ð½ÐµÐ½Ð¸Ñı":7481,"ĠÐ¾ÐºÑĢÑĥÐ³Ñĥ":7482,"Ð½Ð¾Ð¿":7483,"ĠÐ²ÑģÐ»ÐµÐ´ÑģÑĤÐ²Ð¸Ðµ":7484,"ĠÑĦÐµÐ»":7485,"ĠÑģÐ»ÑĥÑĩÐ°ÐµÐ²":7486,"ĠÑģÑĤÑĢÑĥÐºÑĤÑĥÑĢ":7487,"ÑİÑīÐ¸Ð¼Ð¸":7488,"Ð°ÐµÐ¼ÑĭÐµ":7489,"ĠÑģÑĥÑīÐµÑģÑĤÐ²ÐµÐ½":7490,"ĠÐ·Ð½Ð°Ð¼ÐµÐ½Ð¸ÑĤÑĭÐµ":7491,"ĠÐ½ÑĭÐ½ÐµÑĪÐ½Ð¸Ð¹":7492,"ÑĦÐµÑģÑĤ":7493,"ÑĥÑģÐ°Ð»":7494,"ĠÐ¿Ð¾ÑĩÑĳÑĤÐ½ÑĭÐ¹":7495,"ĠÐ±Ð°ÑģÑģÐµÐ¹Ð½Ð¾Ð²":7496,"ĠÐ¾ÑĦÐ¸ÑĨÐ¸Ð°Ð»ÑĮÐ½Ð°Ñı":7497,"ĠÐ¼Ð°ÑĤÑĩÐ¸":7498,"ĠÐ¿ÑĢÐ¾ÐµÐºÑĤÑĭ":7499,"ĠÐ·Ð°Ð²Ð¾Ð´Ðµ":7500,"ĠÐ½ÐµÐ²Ð¾Ð·Ð¼Ð¾Ð¶Ð½Ð¾":7501,"ĠÐ²Ð¸ÑĪ":7502,"ÑİÑīÐ¸Ð¹ÑģÑı":7503,"ĠÐ¾Ð»ÑĮÐ³Ð°":7504,"ĠÑģÐ²ÑıÐ·Ð°Ð½Ð¾":7505,"ĠÐºÑĥÑĢÐ³Ð°Ð½":7506,"ĠÑģÐ¼Ð¸ÑĢ":7507,"ĠÐ¿Ð¾Ð»Ð¸ÑĨÐµÐ¹":7508,"ĠÐ¼ÐµÑģÑĤÐ¾ÑĢ":7509,"ĠÐºÐ¾Ð½ÑĨÐµÐ½ÑĤ":7510,"ĠÐ´Ð¸Ð°Ð¿":7511,"ĠÐ½Ð°ÑĢÐ¾Ð´Ð½Ð¾Ð¹":7512,"ÑĦÐ¸":7513,"ĠÑĢÐ°Ð·Ð´ÐµÐ»Ð°":7514,"ĠÐ½Ð°ÑħÐ¾Ð´Ð¸Ð»Ð¸ÑģÑĮ":7515,"ĠÐ¿ÑĢÐ¾ÑĨÐµÐ´":7516,"ĠÑģÐ¿Ð¾ÑĢÑĤÐ¸Ð²Ð½ÑĭÐµ":7517,"ĠÑĤÑĢÐ°Ð³":7518,"ĠÐ»ÑİÐ±Ð¾Ð¼":7519,"ĠÑĤÑĢÑĥÐ´Ñĭ":7520,"ĠÐ±ÑĢÐ¾Ð´":7521,"ÑĭÐ²Ð°Ð½Ð¸Ñı":7522,"ĠÐ¿Ð¾Ð½ÑıÐ»":7523,"ÐµÐºÑĤÐ¾ÑĢÐ°":7524,"ÑİÑīÑĥÑİ":7525,"ĠÑĩÐµÑĢÐ½Ð¸Ð³":7526,"ĠÐ²Ð¾Ð´Ð¾":7527,"ĠÐ³ÑĢÐ¾Ð·":7528,"ĠÑģÑĤÑĢÐµÐ»ÐºÐ¾Ð²Ð¾Ð³Ð¾":7529,"ÑĥÐ½Ð¾Ð²":7530,"ĠÐ¿Ð¾Ð´Ð¿Ð¾Ð»ÐºÐ¾Ð²":7531,"ĠÐ¿ÑĢÐ¸ÐºÐ»ÑİÑĩ":7532,"ĠÐ¿ÑĢÐ¸Ð¼ÐµÐ½ÐµÐ½Ð¸Ðµ":7533,"ĠÐ³Ð¾ÑģÑĥÐ´Ð°ÑĢÑģÑĤÐ²ÐµÐ½Ð½ÑĭÑħ":7534,"ĠÑĥÑģÐ»Ð¾Ð²Ð¸Ñı":7535,"ĠÐ¿ÑĢÐ¸ÑĢÐ¾Ð´Ñĭ":7536,"ĠÐ»Ð¸Ð½Ð³Ð²":7537,"ĠÑģÐ¾Ð²Ð¿":7538,"ĠÑĦÐ¾Ð»ÑĮ":7539,"Ð°ÑģÑĤÐ¸":7540,"ĠÐ´Ð¾Ð¶Ð´":7541,"ĠÐ¾ÑĢÐµÐ½Ð±ÑĥÑĢÐ³":7542,"ĠÐ´Ð°Ð»ÑĮÑĪÐµ":7543,"ĠÑĦÐ°ÑĪ":7544,"Ð¸ÑĨÐºÐ¾Ð³Ð¾":7545,"ĠÐ¿ÑĢÐµÐ´ÑģÑĤÐ°Ð²Ð»ÐµÐ½Ñĭ":7546,"ĠÐ´Ð°Ð¼":7547,"ĠÑĢÐ°ÑģÑģÐ»ÐµÐ´":7548,"ÑĢÐµÐ¶":7549,"ĠÐ¾Ð¿ÐµÑĢÑĭ":7550,"ĠÐ¿ÐµÑĢÐµÑģÐµÑĩ":7551,"ĠÑĦÐ¾ÑĢÑĤÐµÐ¿":7552,"ĠÐ²ÑıÑĩÐµÑģÐ»Ð°Ð²":7553,"ÐºÐ¾Ð²ÑĭÑħ":7554,"ĠÐºÐ¾Ð½ÑĨÑĥ":7555,"ĠÐ´Ð¾ÑĢÐ¾Ð¶":7556,"ĠÐ´Ð²Ð°Ð´ÑĨ":7557,"Ð°ÑĳÑĤÑģÑı":7558,"ĠÐºÐ°Ð½Ð°":7559,"ĠÐ¿Ð¾Ð²ÑĢÐµÐ¶Ð´":7560,"ĠÑģÐµÐ²Ð°ÑģÑĤ":7561,"ĠÐºÐ¸ÑĢÐ¸Ð»":7562,"ĠÐ¿ÑĢÐ¸ÑĩÐ¸Ð½Ð°Ð¼":7563,"ĠÐ²Ð¸Ð´Ð¸Ð¼Ð¾":7564,"ĠÐµÐ½":7565,"Ð¸Ð»Ð¸Ð·":7566,"Ð¾ÑĦÐ¸ÑĨ":7567,"ĠÐ¿ÐºÑģ":7568,"ĠÐ½Ð¾ÑģÐ¸ÑĤÐµÐ»Ð¸":7569,"Ð°Ð»ÑĮÐ½Ð¾ÑģÑĤÐ¸":7570,"ĠÐ¶Ð°Ð»":7571,"ĠÐºÐ°ÐºÐ¾Ðµ":7572,"Ð½Ð¸ÑĨÑĥ":7573,"ĠÐ¿Ð¾Ð»ÑĤ":7574,"Ð°Ð½Ð¸ÑıÑħ":7575,"ĠÐ´Ð°Ð²Ð¸Ð´":7576,"ĠÐ³Ð¸Ð¿Ð¾ÑĤ":7577,"ĠÑģÐ°ÐºÑģÐ¾Ð½":7578,"ĠÐ³Ð¾ÑĢÐ¾Ð´Ð°Ñħ":7579,"ĠÐ°ÑģÑĤÐµÑĢÐ¾":7580,"ĠÑĤÑĢÐ¾ÑĦ":7581,"Ð¾Ð³ÐµÐ½":7582,"ĠÐºÐ¾Ð»Ð¸ÑĩÐµÑģÑĤÐ²Ð°":7583,"ĠÐºÐ¾Ð½ÐºÑĥÑĢÑģ":7584,"ĠÐµÐ³Ð¸Ð¿ÐµÑĤ":7585,"ĠÑĤÐ°Ð´Ð¶Ð¸Ðº":7586,"ĠÐ¸ÑĤÐ°Ð»ÑĮÑıÐ½ÑģÐºÐ¸Ð¹":7587,"Ð½Ð¸Ð¼Ð¸":7588,"ĠÑĪÐ°ÑĤ":7589,"ĠÑģÐ²ÐµÑĤÐ°":7590,"ĠÐºÐ°Ð½Ð°Ð»Ð°":7591,"ÑĭÐ¿":7592,"ĠÐ²Ð¾ÑģÐµÐ¼":7593,"ÑĥÐºÐ¸":7594,"ĠÐ¸Ðº":7595,"ĠÐ¾ÑģÑĤÐ°Ð²Ð»ÐµÐ½Ð¾":7596,"ĠÐ¿Ð¾Ð´Ð´ÐµÑĢÐ¶Ð¸Ð²":7597,"ĠÐ»Ð¾Ð½Ð´Ð¾Ð½Ðµ":7598,"ĠÐ¿ÑĢÐ¸Ð¾Ð±ÑĢÐµÑĤ":7599,"Ð¾Ð²ÑĭÐ¼Ð¸":7600,"ĠÐ»Ð¾ÑĤ":7601,"ÐµÐ½ÑĨÐ¸Ð¸":7602,"ĠÑģÐ°Ð¼Ð¾Ð»ÑĳÑĤÐ°":7603,"ĠÐ¾Ð±Ð¼ÐµÐ½":7604,"ĠÐºÑĢÐ¸ÑĤÐµÑĢÐ¸ÑıÐ¼":7605,"ĠÐ¿ÑĥÐ±Ð»Ð¸ÐºÐ°":7606,"ĠÐ¾Ð¿Ð¿Ð¾Ð·":7607,"ĠÐ¿Ð¾Ð»Ð¸ÑĨÐ¸Ð¸":7608,"ÑĭÑĪÐµ":7609,"ÐµÐ»Ð¾Ð¼":7610,"ĠÐ²Ð¾Ð·Ð²ÐµÐ´":7611,"ĠÐ¿Ð¾Ð¿ÑĭÑĤÐºÐ¸":7612,"ĠÐ¸Ð³ÑĢÐ°ÐµÑĤ":7613,"ĠÐ¾ÑģÐ½Ð¾Ð²Ð°ÑĤÐµÐ»ÑĮ":7614,"ĠÐ±Ð¸ÑĤÐ²Ð°":7615,"ĠÐ¾Ð·Ð²ÑĥÑĩ":7616,"ĠÐ½Ð°Ð±Ð¾ÑĢ":7617,"ĠÐ²Ð°Ð´":7618,"ĠÐ·Ð°Ð²Ð¸Ñģ":7619,"ĠÑģÑĤÐ¾ÑĢ":7620,"ĠÑĦÐ°Ð¼Ð¸Ð»Ð¸Ð¸":7621,"Ð¸Ð²ÑĪÐ¸Ñħ":7622,"ÑĢÐµÐ¼Ñı":7623,"ĠÐ¿ÑĢÐ¾Ð²Ð¾Ð·Ð³":7624,"Ð²ÐµÑģÑĤÐ¸":7625,"Ð¾Ð½ÐµÑĩ":7626,"ĠÐ¿ÑĢÐ¾Ð¸ÑģÑħÐ¾Ð¶Ð´ÐµÐ½Ð¸Ðµ":7627,"ÑĤÑģ":7628,"Ð±Ð°Ñħ":7629,"ĠÑĩÐµÐ¼Ð¿Ð¸Ð¾Ð½Ð¾Ð²":7630,"ĠÐ¿Ð¾Ð´Ð³Ð¾ÑĤÐ¾Ð²ÐºÐ¸":7631,"ĠÐ¿ÑĢÐµÑĤ":7632,"Ð°ÑĤÐµÐ»ÑıÐ¼Ð¸":7633,"ĠÐºÑĥÑĩ":7634,"ĠÑĢÑĥÐ±ÐµÐ¶":7635,"Ð¸ÑĤÐµÐ»ÑĮÐ½Ð¾Ð¼":7636,"ĠÐ¿Ð¾Ð»ÑĥÑĩÐ°ÐµÑĤ":7637,"ĠÐ¼Ð¾Ð´ÐµÑĢÐ½":7638,"ĠÐ¾ÑģÑĤÐ°Ð»ÑģÑı":7639,"Ð°ÑİÑīÐµÐ³Ð¾":7640,"ĠÐºÑĥÐ¼":7641,"ĠÐ¸ÐµÑĢÑĥÑģÐ°Ð»":7642,"ĠÑĢÑĥÑģÑģÐºÐ¾ÑıÐ·ÑĭÑĩ":7643,"ĠÑģÐ¾Ð¾ÑĤÐ²ÐµÑĤÑģÑĤÐ²Ð¸Ðµ":7644,"ĠÑģÐ¿Ð°ÑĢÑĤÐ°Ðº":7645,"ĠÑĤÐ°Ð³":7646,"ĠÐ´Ð¸ÑģÑģÐµÑĢÑĤÐ°ÑĨÐ¸Ñİ":7647,"ĠÑĥÑĩÐ¸ÑĤÐµÐ»ÑĮ":7648,"ĠÐ»ÑİÐ±Ð²Ð¸":7649,"ĠÐ³Ð¾ÑĢÐ°Ð·Ð´":7650,"ÐµÑĢÐ°Ñħ":7651,"ĠÐ¸ÑģÑģÐ»ÐµÐ´Ð¾Ð²Ð°Ð½Ð¸Ðµ":7652,"ĠÐºÐ¾ÑģÑĤÑİ":7653,"ĠÐ³Ð¾ÑģÑĥÐ´Ð°ÑĢÑģÑĤÐ²ÐµÐ½Ð½Ð°Ñı":7654,"ĠÐ»ÐµÐ½Ð¸Ð½Ð³":7655,"ĠÐ¼Ð°Ð¹ÐºÐ»":7656,"ĠÐ¿ÑĢÐ¸Ð¼ÐµÐ½ÐµÐ½Ð¸Ñı":7657,"ĠÐ¸Ð±Ð¾":7658,"ĠÐ²Ð¾Ð»ÐµÐ¹":7659,"ĠÑģÐ¾ÑĤÑĢÑĥÐ´Ð½Ð¸ÐºÐ¾Ð²":7660,"Ð¸Ð¼Ð¾Ð²":7661,"ĠÑģÐ¾Ð²ÑĢÐµÐ¼ÐµÐ½":7662,"ĠÑħÑĢÐµÐ±":7663,"ĠÐ¿ÑĢÐ¸ÑħÐ¾Ð´Ð¸ÑĤÑģÑı":7664,"Ð²Ð¾Ð½":7665,"ĠÑĪÐ°":7666,"ĠÑħÐ°ÑĢÐ°ÐºÑĤÐµÑĢÐ¸Ð·":7667,"ĠÐ±ÑĢÐ¸ÑĤÐ°Ð½ÑģÐºÐ¾Ð¹":7668,"ĠÐ½Ð¸ÐºÐ°ÐºÐ¾Ð³Ð¾":7669,"ĠÐ±Ð¾Ð»ÑĮÑĪÐµÐ²":7670,"ĠÐ¿Ð¾Ð±ÐµÐ´Ð°":7671,"Ð´Ð¾Ð¼":7672,"ĠÐ¾ÑĤÑĢÑıÐ´Ð°":7673,"ĠÐ´Ð°Ð³ÐµÑģÑĤ":7674,"ĠÑĢÐ°ÑģÐ¿Ð¾ÑĢÑıÐ¶":7675,"ĠÐ¾ÑĤÑģÑĥÑĤÑģÑĤÐ²ÑĥÐµÑĤ":7676,"ĠÐ¸Ð½ÑĤÐµÐ³":7677,"ĠÐ°ÑĢÐµÑģÑĤÐ¾Ð²Ð°Ð½":7678,"ĠÑģÐµÐºÑĥÐ½Ð´":7679,"ĠÐ´Ð¸Ð°Ð¿Ð°Ð·":7680,"ÐµÐ½ÑĨÐµÐ²":7681,"ĠÐ³ÐµÑĢÐ°":7682,"ĠÐ²ÑĭÐ¶":7683,"ĠÐ¶Ð°ÑĢ":7684,"ĠÑĨÐ°ÑĢÑı":7685,"ĠÑĤÐ°ÐºÑĤ":7686,"ĠÐºÑĢÐ°ÑģÐ½Ð°Ñı":7687,"ĠÐºÐ°ÑĩÐµÑģÑĤÐ²Ð°":7688,"ĠÐ±Ðµ":7689,"ĠÐ¼Ð°ÑĢÐºÐ°":7690,"ĠÑģÐ¿ÐµÑĨÐ¸Ð°Ð»ÑĮÐ½Ð¾":7691,"ÑĨÐ¸Ð¾Ð½Ð½Ð°Ñı":7692,"ĠÐ½Ð°ÑĢÑĥÑĪÐµÐ½Ð¸Ñı":7693,"Ð³Ð¾ÑĢÐ¸ÑĤ":7694,"ĠÐ±Ð¾Ð»ÑĮÑĪÐ¸Ñħ":7695,"ĠÐ¼ÑĥÐ·ÑĭÐºÐ°Ð»ÑĮÐ½ÑĭÐ¹":7696,"ĠÐ²ÑĭÑģÐ¾ÐºÐ¾Ð¹":7697,"ĠÐ´Ð¾ÑĢÐ¾Ð³Ðµ":7698,"ĠÑĦÑĢÑįÐ½":7699,"Ð³ÑĢÐ°ÑĦ":7700,"ÑĢÑĭÑĪ":7701,"ĠÐµÐ²ÑĢÐµÐµÐ²":7702,"ÑĢÐ°Ð½Ð¾":7703,"ĠÐ¼Ð¾Ð½ÐµÑĤ":7704,"ĠÑĦÐ¾ÑĢÐ¼ÑĥÐ»Ð¸ÑĢÐ¾Ð²":7705,"ĠÐ¿ÑĢÐ¸Ð²ÐµÑģÑĤÐ¸":7706,"ĠÐ±ÑĢÑĥ":7707,"ĠÑħÐ¸ÑĢÑĥÑĢÐ³":7708,"ĠÐ³ÐµÑĢÐ¾ÐµÐ²":7709,"ÑĳÐ»Ð°":7710,"ĠÐ²Ð¿ÑĢÐ¾Ñĩ":7711,"ĠÐ±Ð¸ÑĤÐ²Ðµ":7712,"ĠÑģÐµÐ¼Ð¸Ð½Ð°ÑĢ":7713,"ĠÐ²ÑģÐµÐ»":7714,"ĠÑģÐ¾Ð²ÐµÑĢÑĪÐ¸Ð»":7715,"ĠÐ³ÐµÐ½ÐµÑĢÐ°Ð»ÑĮÐ½ÑĭÐ¹":7716,"ĠÐ²Ð¿ÑĢÐ¾ÑĩÐµÐ¼":7717,"ĠÐ¼Ð¾Ñı":7718,"ĠÐºÐ°ÐºÐ¸Ð¼":7719,"ĠÑįÑĤÐ°Ð¿Ðµ":7720,"ÐºÐ¾Ð²Ð¾Ð¹":7721,"ĠÑģÐ¾ÑĢÐµÐ²Ð½Ð¾Ð²Ð°Ð½Ð¸ÑıÑħ":7722,"ÑĭÑĢ":7723,"ÐµÑģÑĤÐ²Ð¾Ð¼":7724,"ĠÐ³ÐµÐ½Ð½Ð°Ð´":7725,"ĠÐ¿Ð¸ÑģÑĮÐ¼ÐµÐ½":7726,"ĠÐ²Ð°ÑĤ":7727,"ĠÐ¸Ð·Ð´ÐµÐ»":7728,"ĠÐºÑĢÐµÐ¿Ð¾ÑģÑĤÐ¸":7729,"ÐºÐ°Ð»":7730,"ĠÐ¼Ð°Ð²":7731,"ĠÑĤÑĥÑĢÐ°":7732,"Ð»Ð¾Ð²Ð°":7733,"ĠÑĢÐ°Ð´Ñĭ":7734,"ĠÐ±Ð°ÑĢÐ¾Ð½":7735,"ĠÑģÑĤÑĥÐ´ÐµÐ½ÑĤ":7736,"ĠÐ¾Ð¾Ð¾":7737,"ĠÑİÐ½Ð°Ð¹":7738,"ĠÐ²Ð¾Ð·Ð¾Ð±":7739,"ĠÐºÐ¾ÑĢÑĢÐµÐºÑĤ":7740,"ĠÐ°Ð»Ð³Ð¾ÑĢÐ¸ÑĤ":7741,"ĠÐ¾ÑĤÐ´ÐµÐ»ÑĮÐ½ÑĭÐ¹":7742,"ĠÐ³Ð¾ÑĢÐ°Ð·Ð´Ð¾":7743,"ĠÑİÐ½Ð°Ð¹ÑĤÐµÐ´":7744,"ĠÑİÐ½Ð¸":7745,"ĠÐ·Ð°ÑīÐ¸ÑĤÐ½Ð¸Ðº":7746,"ÐºÐ¾ÑĤ":7747,"ĠÐ·Ð°Ð¿Ð¾Ð²ÐµÐ´":7748,"ÐµÐ»ÑĮÐ½ÑĭÐ¹":7749,"Ð¸ÑĢÐ¾Ð²Ð°ÑĤÑĮÑģÑı":7750,"ĠÐºÐ¾Ð¼Ð¿Ð¾Ð½":7751,"ÑĢÐµÐ½Ð¸Ðµ":7752,"ĠÐ¼Ð¾ÑĢÐ°":7753,"ĠÑĤÑĢÐ¾Ð¿":7754,"Ð¿ÑĤ":7755,"ĠÐ¾ÑģÑĤÐ°Ð½":7756,"ĠÑĤÑĢÐ°Ð½ÑģÐ¿Ð¾ÑĢÑĤÐ°":7757,"Ð¸Ð¹ÑģÐºÐ¾Ð¼":7758,"ĠÑĤÐ²ÐµÑĢÑģÐºÐ¾Ð¹":7759,"ĠÑħÑĮÑİ":7760,"ĠÐ·Ð°Ð½ÑıÐ»Ð°":7761,"ĠÐºÐ°ÑĢÑĤÐ¸Ð½":7762,"ĠÐ²ÑģÑĤÐ°Ð²":7763,"Ð°Ð½Ð´Ð¸Ð¸":7764,"ĠÐ»ÑİÑĤ":7765,"ÑĢÑĥÐ¶Ðµ":7766,"ĠÐºÑĥÑģÑĤ":7767,"ĠÐ½ÐµÐ¿Ð¾Ð½ÑıÑĤ":7768,"ĠÐ¿ÐµÑĢÐµÐ´Ð°Ñĩ":7769,"ĠÑĢÐµÐ´Ð°ÐºÑĤ":7770,"ĠÐ¼Ð¾Ð½Ð°Ñħ":7771,"ĠÑģÐµÐ²ÐµÑĢÐ½Ð¾Ð³Ð¾":7772,"ĠÐ½Ð°Ð±Ð»Ñİ":7773,"ĠÐ¶Ð°Ð½ÑĢ":7774,"ĠÐ²Ð¾ÑĢÐ¾ÑĤÐ°":7775,"ĠÐ±ÐµÑĢÐµÐ·":7776,"ĠÐ¼ÐµÐ½ÐµÐ´Ð¶":7777,"ĠÐ±ÑĢÐ¸ÑĤÐ°Ð½ÑģÐºÐ¸Ð¹":7778,"ĠÑĪÐ°Ð¼":7779,"ĠÐ½Ð°ÑħÐ¾Ð´Ð¸Ð»Ð°ÑģÑĮ":7780,"ĠÐ¿Ð¾ÑģÐ»ÐµÐ´Ð½Ð¸Ñħ":7781,"ĠÐ°ÑĢÐ³ÑĥÐ¼ÐµÐ½ÑĤÑĭ":7782,"ĠÐ¸ÑģÐ°":7783,"ĠÐ¿Ð¾ÐºÑĥÐ¿":7784,"ĠÑıÐ¹":7785,"ĠÐ³Ð»Ð°Ñģ":7786,"ĠÑĤÑĢÐµÐ±ÑĥÐµÑĤ":7787,"ĠÐ¿Ð¾ÑĢÐ°Ð¶ÐµÐ½Ð¸Ñı":7788,"ĠÑģÑĤÑĢÐ°Ñħ":7789,"ĠÐ¼ÑĥÑħÐ°Ð¼Ð¼":7790,"ĠÐºÐ¸Ð½Ð¾ÑĦÐµÑģÑĤ":7791,"ÐµÑīÐµÐ½Ð¸Ñı":7792,"ĠÐ²ÑĢÐ°ÑĤ":7793,"Ð°Ð»ÑĮÐ½Ð¾ÑģÑĤÑĮ":7794,"ĠÐ´Ð¶Ð¾Ð½Ð°":7795,"Ð°ÑĨÐ¸ÐµÐ¹":7796,"ĠÐ´Ð¾ÑĪ":7797,"ÑĥÑĩÐµÐ½":7798,"ĠÐ¿Ð¸Ð»Ð¾ÑĤ":7799,"ĠÑĤÑĢÐµÐ±ÑĥÐµÑĤÑģÑı":7800,"ÑįÐ»ÐµÐºÑĤ":7801,"ĠÐ¾Ð±Ð»Ð°ÑģÑĤÐ½Ð¾Ð³Ð¾":7802,"Ð¸Ð°Ð»ÑĮÐ½Ð¾Ð¹":7803,"ĠÐ½Ð°Ð´Ð¿Ð¸ÑģÑĮ":7804,"ÑĳÐ¼Ð°":7805,"ĠÐ¿Ð°ÑĢÐºÐ°":7806,"ĠÐºÐ°Ð²Ð°Ð»ÐµÑĢ":7807,"ĠÐ°Ð»ÑĮÐ¿":7808,"ÐµÐ¼Ñĭ":7809,"ĠÐ±Ð°ÑĢÑģÐµÐ»":7810,"ĠÐ¿Ð¾ÐºÐ¸Ð½ÑĥÐ»":7811,"ÑĦÐ¾ÑĢÐ´":7812,"ĠÐ°ÑĢÐ¸ÑģÑĤ":7813,"ĠÑĢÐ°ÑģÐ¿ÑĢÐµÐ´ÐµÐ»":7814,"Ð°ÑİÑīÐ¸Ð¼":7815,"ĠÐ¼Ð¾ÑĢÐ¾Ð·":7816,"ĠÐ±ÑĥÐ½":7817,"ĠÑĤÐµÑħÐ½Ð¸ÑĩÐµÑģÐºÐ¸Ñħ":7818,"ĠÐ²ÐµÑģÐ½Ð¾Ð¹":7819,"ĠÐ¿ÐµÐº":7820,"ĠÑģÑĤÐ°ÑĢÑĪÐµ":7821,"ĠÑĤÐ¸Ð±":7822,"ĠÐ½Ð°ÑģÐµÐ»ÑĳÐ½Ð½ÑĭÐ¹":7823,"Ð°ÑĢÐ¾Ð²Ð°":7824,"Ð°Ð²ÑĪÐµÐ³Ð¾":7825,"Ð¾Ð»Ð¾Ð¼":7826,"ĠÑĩÐµÐº":7827,"ĠÑĥÑĩÐ°ÑģÑĤÐ¸ÐµÐ¼":7828,"ĠÐ²Ð¾Ð´Ñĥ":7829,"ĠÑĪÐ°Ð¹":7830,"ĠÐ¿ÑĢÐ¾ÐµÐºÑĤÐ¾Ð²":7831,"ĠÐ½ÐµÐ¼ÐµÑĨÐºÐ¾Ð¹":7832,"ĠÐµÐ´Ð¸Ð½ÑģÑĤÐ²ÐµÐ½Ð½ÑĭÐ¼":7833,"Ð¸Ð°Ð½Ð°":7834,"ĠÐºÐ°ÑģÑģ":7835,"ÑħÑĥ":7836,"ĠÐºÑĢÑĥÐ¿Ð½ÐµÐ¹ÑĪÐ¸Ñħ":7837,"Ð¿Ñĥ":7838,"ĠÐºÐ°Ð²Ð°Ð»ÐµÑĢÐ¸Ð¹":7839,"ĠÐ²Ð¾Ð·Ð¾Ð±Ð½Ð¾Ð²":7840,"ĠÑĤÐµÐ±":7841,"ĠÑĩÑĳÑĤ":7842,"ĠÐ¿ÑĢÐµÐ¿Ð¾Ð´Ð°Ð²Ð°Ð»":7843,"ĠÐ¿ÑĢÐ¾Ð¿Ð°Ð³Ð°Ð½Ð´":7844,"ĠÐºÐ¾Ð½ÑĤÐµÐº":7845,"ĠÐ²ÑĭÑģÑĪÐµÐ³Ð¾":7846,"ĠÐ²ÐµÑĢÑħÐ½ÐµÐ¹":7847,"ĠÑĦÐ¸Ð·Ð¸ÐºÐ¸":7848,"ĠÑģÑĤÑĥÐ´ÐµÐ½ÑĤÐ¾Ð²":7849,"ĠÑĢÐ¸Ð¼ÑģÐºÐ¾Ð¹":7850,"ĠÐ¿ÐµÐ²Ð¸ÑĨÐ°":7851,"Ð¾ÑģÐ½Ð¾Ð²":7852,"ĠÐ¿ÑĢÐ¾ÑģÑĤÑĢÐ°Ð½ÑģÑĤÐ²Ð¾":7853,"ĠÐ¸Ð½Ð´Ð¾Ð½ÐµÐ·":7854,"ĠÐ³Ð°Ð½":7855,"ĠÐ¿Ð°Ð»Ð¾Ð¼":7856,"Ð¾Ð¶Ð´Ð°":7857,"ÑĥÑģÐ¾Ð²":7858,"ĠÐ¼ÐµÑĤÐ¾Ð´Ñĭ":7859,"ĠÑĦÑĢÐ°Ð·":7860,"ĠÐ²ÑĢÐµÐ¼ÑĳÐ½":7861,"ĠÐ¼ÑĥÐ·ÑĭÐºÐ°Ð»ÑĮÐ½ÑĭÑħ":7862,"Ð¸Ð°Ð»ÑĮÐ½Ð¾":7863,"ĠÐ±ÑĥÐ´Ð´":7864,"ĠÑĦÑĢÐ°Ð½ÑĨÑĥÐ·ÑģÐºÐ¾Ð³Ð¾":7865,"ĠÐ¼ÑĥÐ·ÑĭÐºÑĥ":7866,"ĠÑĤÑĢÐµÑĤÑĮÑı":7867,"ĠÐ¾Ð´Ð½Ð¾Ð¼Ñĥ":7868,"ĠÐ¸ÑģÐ¿Ð¾Ð»ÑĮÐ·ÑĥÐµÑĤ":7869,"ĠÐºÐ½ÑıÐ¶ÐµÑģÑĤÐ²Ð¾":7870,"Ð¾Ð²Ð°Ð½Ð½ÑĭÐ¹":7871,"ĠÐ¼Ð¸ÑĤÑĢÐ¾Ð¿Ð¾Ð»":7872,"ĠÐ¿ÑĢÐ¸ÑģÑĤÑĥÐ¿":7873,"Ð»Ð°Ð¶":7874,"ĠÑģÐ¾Ð±ÑĢÐ°Ð½Ð¸Ðµ":7875,"Ð¾Ð»Ð³Ð¾":7876,"ĠÐ¿ÐµÑĢÐµÐ¿Ð¸Ñģ":7877,"Ð¸Ð°Ð½Ð¾":7878,"ĠÑĢÐ°ÑģÐ¿ÑĢÐ¾ÑģÑĤÑĢÐ°Ð½ÐµÐ½Ð¸Ðµ":7879,"ĠÐ¼ÐµÐ´Ð°Ð»ÑĮÑİ":7880,"ĠÐ»Ð¸Ð´ÐµÑĢ":7881,"ĠÐ²Ð°Ðº":7882,"ĠÐ¼Ð°ÑĢÐºÐ¸":7883,"ĠÑģÐ°Ð¼Ð°Ñı":7884,"ĠÐ»Ð¸Ñħ":7885,"ĠÑĦÑĥÐ½Ð´":7886,"ÑĢÐ°ÑĤÐ°":7887,"ÑħÐ°Ð½":7888,"ĠÐ¿ÑĢÐ¸ÑĩÐ¸Ð½Ð¾Ð¹":7889,"ĠÐ¼ÐµÐ»Ð¾Ð´":7890,"ĠÐ¿ÐµÐ»":7891,"ĠÑģÐ¾ÑģÑĤÐ°Ð²Ð¸Ð»":7892,"ĠÑĩÐ°ÑĢÐ»ÑĮ":7893,"ÐµÐ½ÑģÑĤÐ²":7894,"ĠÑģÐµÐ»ÑĮÑģÐºÐ¸Ðµ":7895,"ÑĭÐ²Ð°Ð»Ð¸":7896,"ĠÐ¿ÐµÑĢÐµÐ¸Ð·":7897,"ĠÐ±ÑĢÑıÐ½":7898,"ĠÐ°ÑĦÑĢÐ¸ÐºÐ¸":7899,"ÑĥÑīÐµÐ½":7900,"ĠÐ°Ð´Ð²":7901,"ÐµÐ¼Ðµ":7902,"ĠÐ¿Ð¸ÑĤÐµÑĢ":7903,"ĠÐ¿Ð¾ÑĢÑĤÑĥÐ³Ð°Ð»ÑĮ":7904,"ĠÐ¼Ñı":7905,"ĠÑģÐ¿Ð¸ÑģÐºÐ¾Ð²":7906,"ĠÐ±ÑĢÐ°Ðº":7907,"ĠÑģÐ²ÑĭÑĪÐµ":7908,"ĠÐºÐ¾Ð¿Ð¸Ð²Ð¸Ð¾":7909,"ĠÐ³Ð»Ð°Ð²Ð½Ð¾Ðµ":7910,"ĠÐ´ÐµÑģÐ°Ð½ÑĤ":7911,"ĠÐ¸ÑģÐ¿Ð¾Ð»ÑĮÐ·ÑĥÑİÑĤ":7912,"ĠÐ°Ð²ÑĤÐ¾ÑĢÐ¸ÑĤÐµÑĤÐ½ÑĭÑħ":7913,"ĠÑĤÐ°ÑĤÑĮÑıÐ½Ð°":7914,"ĠÐ³Ð¾ÑĢÐ¾Ð´ÑģÐºÐ¾Ðµ":7915,"ÑĳÐ¿":7916,"ĠÐ½Ð°Ð¿Ð¾Ð»Ðµ":7917,"ĠÐ´Ð¾ÐºÐ»Ð°Ð´":7918,"ĠÐ¿ÑĢÐ¾ÑĪÐ»Ð¸":7919,"ĠÑģÐ¾Ð¿ÑĢÐ¾Ð²Ð¾Ð¶Ð´":7920,"ĠÐ²Ð¾Ð¹Ð½":7921,"ĠÐ°Ð²ÑĤÐ¾ÑĢÑģÐºÐ¸Ñħ":7922,"ÐµÐ»Ð¾Ð²":7923,"ĠÐ¿ÑĢÐ¸ÑĩÐ¸Ð½Ð°":7924,"ĠÐ·Ð°Ð´Ð°ÑĩÐ¸":7925,"ĠÑĪÐ°Ð¿":7926,"ĠÑıÐ¿Ð¾Ð½Ð¸Ñı":7927,"ĠÐ´Ð²Ð¾ÑĢÐ°":7928,"ĠÐ°Ð¿Ð¿":7929,"Ð¶ÐµÐ½Ð¸Ðµ":7930,"ĠÐ½Ð¾Ð²Ð¾ÑģÑĤÐ¸":7931,"ĠÐ²ÑĤÐ¾ÑĢÑĭÐ¼":7932,"Ð¾Ð³Ð¾Ð½":7933,"ĠÐ°Ð»ÑĮÐ¼Ð°":7934,"ĠÐ¿Ð¾Ð¿Ð°Ð´":7935,"ĠÐ¼Ð¾ÑĤÐ¾ÑĢ":7936,"ÑĤÐ¾ÑĢÐ¾Ð¼":7937,"ĠÐ½Ð¾Ð²Ð¸Ñĩ":7938,"ĠÑģÑĤÑĢÐ¾Ð¹":7939,"ĠÑģÑĥÑĤÐ¸":7940,"ĠÐ·ÐµÐ¼Ð»Ñİ":7941,"ĠÐ·Ð¾Ð½Ñĭ":7942,"ĠÐ¾Ð±ÑīÐµÐµ":7943,"ĠÐ±Ð¾Ð»ÐµÐ·Ð½Ð¸":7944,"ĠÐ²Ð¾ÑĪÐ»Ð°":7945,"ĠÐ¿Ð°Ð»Ðµ":7946,"ĠÐºÐ¾ÑĢÐ¸Ñĩ":7947,"Ð¾Ð½Ð¸":7948,"ĠÐ¿Ð¾ÑģÐ¾Ð±":7949,"ĠÐ»ÐµÑģÐ°":7950,"ĠÑħÐ¾Ð»Ð¼":7951,"ĠÐ¿Ð°ÑĢÑĤÐ¸Ð·Ð°Ð½":7952,"ĠÐ·Ð°Ð¿Ð¾ÑĢÐ¾Ð¶":7953,"ĠÑģÐ¿ÐµÑĨÐ¸ÑĦ":7954,"ĠÐ°Ð´Ð¼Ð¸Ð½Ð¸ÑģÑĤÑĢÐ°ÑĤÐ¸Ð²Ð½Ð¾Ð³Ð¾":7955,"ĠÑģÑĬÐµÐ·Ð´Ð°":7956,"ĠÐ²Ð¸ÐºÐ¸ÑģÐº":7957,"ĠÑĥÐ¿Ð¾ÑĢ":7958,"ĠÐºÐ¾ÑĢÐ½":7959,"ĠÑĥÐ´Ð¸Ð²":7960,"ĠÑĤÐµÑħÐ½Ð¸Ðº":7961,"ĠÐ¿Ð¾Ð½ÑıÑĤÐ½Ð¾":7962,"ĠÑĥÐ¸Ð»":7963,"ĠÑįÐ³":7964,"ÐµÐ»ÑĮÐ½ÑĭÑħ":7965,"ĠÑĥÐ´Ð°Ñĩ":7966,"ĠÐ³Ð¾ÑĢÐ¸Ð·":7967,"ĠÑĢÐµÐ¼Ð¾Ð½ÑĤ":7968,"ĠÐ¾ÑĤÐ¿ÑĢÐ°Ð²Ð¸Ð»ÑģÑı":7969,"ĠÑĤÐ°Ð¼Ð±":7970,"ĠÐ¿ÑĢÐµÐ´Ð¿ÑĢÐ¸ÑıÑĤÐ¸Ð¹":7971,"ĠÐ¿ÑĢÐ¾Ð·Ð²Ð¸":7972,"ĠÐ½ÐµÐ·Ð°Ð²Ð¸ÑģÐ¸Ð¼Ð¾ÑģÑĤÐ¸":7973,"ĠÐ¸Ð·Ð²ÐµÑģÑĤÐ½Ñĭ":7974,"ĠÐ¿Ð°Ð¼ÑıÑĤÐ½Ð¸ÐºÐ¸":7975,"ĠÑĥÐ¹":7976,"ÑĮÑĤÐµ":7977,"ĠÐ¿ÐµÑĢÐµÐ¶":7978,"ĠÑįÐºÑģ":7979,"ĠÐ²ÐµÑĢÑħÐ¾Ð²Ð½Ð¾Ð¹":7980,"ÑĨÐ²ÐµÑĤ":7981,"ĠÐ¿ÑĢÐµÐ´Ð»Ð¾Ð¶ÐµÐ½Ð¸Ñı":7982,"ĠÐ¿ÐµÑĪ":7983,"ĠÑĤÐµÑģ":7984,"ĠÐºÐ¾Ð¼Ð¿Ð»ÐµÐºÑģÐ°":7985,"ĠÐºÐ¾ÑĢÐ¸ÑĩÐ½ÐµÐ²":7986,"ĠÐºÑĢÑĭÐ¼Ð°":7987,"ÐµÐ¹ÑģÐºÐ¸Ð¹":7988,"ĠÐ±ÐµÑģÐº":7989,"Ð¾Ð¶Ð¸Ð´":7990,"ĠÐ¾ÑĤÐºÐ»Ð¾Ð½":7991,"ĠÐ´ÐµÐ½ÐµÐ¶":7992,"ĠÐ¼Ð¸Ð½Ð¸ÑģÑĤÐµÑĢÑģÑĤÐ²Ð¾":7993,"ĠÐ¾Ð¿ÑĢÐµÐ´ÐµÐ»ÐµÐ½Ð¸Ñı":7994,"ĠÐºÐ¾Ð»Ð»ÐµÐ´Ð¶":7995,"ÑıÑı":7996,"ĠÑĢÐ°Ð·ÑĥÐ¼":7997,"ĠÑģÐ¾ÑĨÐ¸Ð°Ð»ÑĮÐ½Ð¾Ð¹":7998,"ĠÐ½ÐµÐ¿Ð¾Ð´":7999,"ĠÐºÐ¾Ð¼Ð¿Ð°Ð½Ð¸Ð¹":8000,"ĠÐ°Ð½Ð³Ð»Ð¸Ð¹ÑģÐºÐ¾Ð³Ð¾":8001,"Ð¾Ð²Ð°Ð»Ð¸ÑģÑĮ":8002,"ĠÑħÐ¾Ð·ÑıÐ¹ÑģÑĤÐ²":8003,"ĠÑĥÐ´Ð¾ÑģÑĤÐ¾ÐµÐ½":8004,"ĠÐ³ÑĢÑĥÐ´":8005,"ĠÑģÐ²ÑıÐ·Ð°Ð½Ð½ÑĭÐµ":8006,"ĠÑĢÐµÐºÑĥ":8007,"ĠÐ´Ð¶Ð¾":8008,"ĠÐ¿Ð¾Ð¼ÐµÑģÑĤ":8009,"ĠÐ¿Ð¾ÑĢÑĤÑĥÐ³Ð°Ð»Ð¸Ð¸":8010,"ĠÐºÐ¾Ð½ÑģÑĤÑĢÑĥÐºÑĨÐ¸Ð¸":8011,"Ð°Ð½ÑĩÐ¸Ð²":8012,"ĠÑĢÐ°ÑĤ":8013,"ĠÐ²Ð²Ð¸Ð´Ñĥ":8014,"ĠÑĨÐ¸ÑĢ":8015,"ĠÐ¿ÑĦ":8016,"Ð¸ÑĢÐ¾":8017,"ĠÐ°Ð´Ð¼Ð¸Ð½Ð¸ÑģÑĤÑĢÐ°ÑĤÐ¸Ð²Ð½Ð¾Ðµ":8018,"ĠÑģÐ¼Ð¾Ð»ÐµÐ½ÑģÐºÐ¾Ð¹":8019,"ĠÑģÑĥÐ¿ÑĢÑĥÐ³Ð°":8020,"ĠÑİÐ³Ñĥ":8021,"ĠÐ½Ð°Ð·Ð²Ð°Ð»":8022,"ĠÐ¿Ð¾Ð´Ð´ÐµÑĢÐ¶ÐºÐ¸":8023,"ĠÐ½ÐµÐ¼ÐµÑĨÐºÐ¾Ð³Ð¾":8024,"ĠÐ¾ÑĤÐºÑĢÑĭÑĤÐ¸Ðµ":8025,"ĠÐ±Ð¸ÑĤÐ²Ñĭ":8026,"Ð¿ÑĨ":8027,"ÐµÐ¹Ð»":8028,"ĠÐ°Ð½Ð´Ð¶ÐµÐ»ÐµÑģ":8029,"ĠÐ²Ð¾Ð»Ð³Ð¾Ð³ÑĢÐ°Ð´":8030,"Ð¸ÑĩÐ¸":8031,"ĠÑİÐ±Ð¸Ð»":8032,"ĠÐºÐ¸":8033,"ĠÐ³Ð¾Ð²Ð¾ÑĢÐ¸ÑĤÑĮ":8034,"ĠÐºÑĥÐ±ÐºÐµ":8035,"ĠÐ¿ÑĢÐ¸Ð³Ð¾ÑĢÐ¾Ð´":8036,"Ð¸Ð°Ð»ÑĮÐ½Ð¾Ð³Ð¾":8037,"ĠÑģÐµÑģÑĤÑĢÐ°":8038,"ĠÑĤÐµÑĤ":8039,"ĠÐ¾ÑĤÐºÐ°Ð·Ð°Ð»ÑģÑı":8040,"ĠÑĤÑĢÐµÐ±Ð¾Ð²Ð°Ð½Ð¸ÑıÐ¼":8041,"Ð±ÑĥÑĢÐ³Ð°":8042,"Ð°Ð»Ñı":8043,"ĠÐ¿ÑĢÐ¸Ð²ÐµÐ»Ð¾":8044,"Ð¾Ð²Ñĭ":8045,"ĠÑģÑĥÐ´Ñı":8046,"Ð»Ð¾Ð´":8047,"ĠÐ»Ð¸ÑĩÐ½Ð¾ÑģÑĤÐ¸":8048,"ĠÐ½Ð°ÑĩÐ°Ð»ÑĮÐ½Ð¸ÐºÐ¾Ð¼":8049,"ĠÐºÐ¾Ð¼Ð¿ÑĮÑİÑĤÐµÑĢÐ½ÑĭÐµ":8050,"Ð¾ÑĤÐ¾Ñĩ":8051,"Ð½Ð¾ÑģÑĤÑıÐ¼Ð¸":8052,"ĠÑģÐ»ÐµÐ´ÑĥÑİÑīÐ¸Ð¼":8053,"ĠÐ²ÐµÑĩÐµÑĢ":8054,"ĠÑĦÑĢÐ°Ð·Ñĭ":8055,"ĠÐ²Ð¾Ð¿ÑĢÐ¾ÑģÑĥ":8056,"ĠÑģÐ¾Ð¶Ð°Ð»":8057,"ĠÐºÑĢÐ¸ÑĤÐ¸ÐºÐ¸":8058,"ĠÐ²Ð¸ÑĤÐµÐ±":8059,"ĠÐ¾Ð±ÑĥÑĩÐµÐ½Ð¸Ðµ":8060,"Ð½Ð¸Ð¸":8061,"ĠÑĥÑģÑĤÐ°Ð½Ð¾Ð²Ð»ÐµÐ½Ñĭ":8062,"ĠÐ¾Ð±ÑıÐ·Ð°ÑĤÐµÐ»ÑĮ":8063,"Ð¼Ð¾ÑĢ":8064,"ĠÐ²ÐºÐ¿":8065,"ĠÐ¾Ð»Ð¸Ð¼Ð¿Ð¸Ð¹ÑģÐºÐ¸Ðµ":8066,"Ð°Ð¸":8067,"Ð°Ð²Ð°ÑĤÑĮ":8068,"ĠÑĥÑģÑĤÐ°Ð²":8069,"ĠÑĢÐµÐ½":8070,"ĠÐ°Ð»Ð±":8071,"ĠÐ±Ð°Ð»ÐµÑĤ":8072,"ĠÑĤÐµÐ¿Ð»Ð¾Ð²":8073,"ĠÐ¿ÑĢÐ¸Ð±Ð»Ð¸Ð·Ð¸ÑĤÐµÐ»ÑĮÐ½Ð¾":8074,"ĠÐ¾ÑģÐ¾Ð±Ð¾":8075,"ĠÐ¼Ð¾Ð»Ð¾Ð´Ð¾Ð¹":8076,"ĠÐ¶ÐµÐ½Ñĭ":8077,"ĠÐ·Ð°Ð¿Ð°Ð´Ð½Ð¾Ð³Ð¾":8078,"ĠÑĥÑĩÑĳÐ½Ð¾Ðµ":8079,"Ð¼Ð°Ðº":8080,"ĠÑįÐ»ÐµÐºÑĤÑĢÐ¾":8081,"ĠÑĥÑģÐº":8082,"ĠÑįÐºÑģÐ¿ÐµÐ´Ð¸ÑĨÐ¸Ð¸":8083,"Ð¼ÐµÐ½Ñĭ":8084,"ÐµÑĪÑĮ":8085,"ĠÐ´ÑĢÐ°Ð¼Ñĭ":8086,"Ð¸Ð²ÑĪÐ¸Ð¹ÑģÑı":8087,"ĠÐ´ÑĢÐ°Ð¼Ð°ÑĤÑĥÑĢÐ³":8088,"ĠÑĢÑį":8089,"ÐºÐ¾Ð²ÑĭÐ¹":8090,"ĠÑģÐ»ÑĥÑĪ":8091,"ĠÑĦÑĥÐ½Ð´Ð°Ð¼":8092,"ĠÐ²ÑĭÑĢÐ°Ð·":8093,"ĠÐ¾Ð»Ð¸Ð²":8094,"ĠÐ¿ÑĢÐ¸Ð¼ÐµÑĢÑĥ":8095,"ĠÑģÐ¿ÑĢÐ°Ð²ÐµÐ´Ð»Ð¸Ð²":8096,"ĠÐºÐ¾Ð¼Ð¼ÐµÐ½ÑĤÐ°ÑĢÐ¸Ð¸":8097,"ÐµÐ¹ÑģÐºÐ¾Ð³Ð¾":8098,"ĠÐ¶Ð¸Ð²Ð¾Ð¿Ð¸ÑģÐ¸":8099,"ĠÐ¾ÑĤÐ½Ð¾ÑĪÐµÐ½Ð¸Ñİ":8100,"ĠÐ¿Ð¸Ð½":8101,"ĠÐ¿ÑĥÐ±":8102,"ĠÑĦÐ¸Ð½Ð°Ð½Ñģ":8103,"ĠÐ»ÑĥÐ¸":8104,"ÑĭÐ²Ð°ÑİÑĤ":8105,"ĠÑıÐºÑĥÑĤ":8106,"ÑĮÑĳÐ²":8107,"ÑģÑıÑī":8108,"ĠÐ¸Ð·Ð±Ð¸ÑĢÐ°":8109,"ĠÐ±ÑĢÐ°ÑĤÑĮÑı":8110,"ĠÐ¾ÑĤÑģÑĤÐ°Ð²ÐºÑĥ":8111,"ĠÐ¿Ð¾Ð´ÑĤÐ²ÐµÑĢÐ´":8112,"ĠÐ¿ÑĥÐ»ÐµÐ¼ÑĳÑĤ":8113,"Ð¸Ð¼Ð¸Ð½":8114,"ĠÑģÑĨÐµÐ½Ðµ":8115,"ÐµÑĤÑĢÐ°Ð¶":8116,"ĠÐ¾Ð³Ð¾Ð½ÑĮ":8117,"ĠÐ¿Ð°ÑĢÐ°Ð´":8118,"ĠÐ»Ð¸ÑĩÐ½Ð°Ñı":8119,"ĠÑĥÑģÑĤÑĮÐµ":8120,"ÑİÑĪ":8121,"ĠÐ¿Ð¾Ð»Ð¸ÑĤÐ¸ÑĩÐµÑģÐºÐ°Ñı":8122,"ĠÐ¾ÑģÐ¾Ð±ÐµÐ½":8123,"ĠÐ¶ÐµÐ»ÐµÐ·Ð½Ð¾Ð´Ð¾ÑĢÐ¾Ð¶Ð½Ð°Ñı":8124,"ĠÑģÐµÐ¼ÐµÐ¹ÑģÑĤÐ²Ð¾":8125,"ĠÐ½ÐµÐ³Ð°ÑĤÐ¸Ð²":8126,"ĠÐ¼Ð¸Ð»Ð»":8127,"Ð¸Ð¼Ñĭ":8128,"Ð°ÑĢÐ°ÑĤÐ°":8129,"ÑĩÐ°Ð»ÑĮ":8130,"Ð°ÑĢÑĤÐ°":8131,"ĠÐ°Ð¼ÐµÑĢÐ¸ÐºÐµ":8132,"ĠÑħÐ»ÐµÐ±":8133,"ÑĪÐ°ÑİÑĤ":8134,"ĠÐºÑĢÐ¸ÑĤÐ¸Ðº":8135,"ĠÐ¿Ð¾Ð»ÑĥÐ·Ð°ÑīÐ¸ÑĤÐ½Ð¸Ðº":8136,"ĠÑģÑĤÐ¾ÑĢÐ¾Ð½Ð°":8137,"Ð½ÐµÐ³":8138,"ĠÐ¿Ð¾ÑģÐ»ÐµÐ´Ð½ÐµÐ¹":8139,"ĠÐ¸Ð¼Ð¸":8140,"ĠÐ¸Ð½ÑĤÐµÐ»":8141,"ĠÐ¸ÑģÐ¿Ð°Ð½Ð¸Ñı":8142,"Ð¾ÑĤÐ¾":8143,"ĠÑģÐ¿Ð¸ÑĢ":8144,"ĠÑģÑĤÐ°ÑĤÑĥÑģÐ°":8145,"Ð¸ÑģÑĤÑģÐºÐ¾Ð¹":8146,"ĠÑģÐ¾Ð¿ÐµÑĢ":8147,"ĠÐºÐ¾Ð½ÑĦÐ»Ð¸ÐºÑĤÐ°":8148,"ĠÐ»Ñı":8149,"ĠÐ³ÐµÐ¾Ð³ÑĢÐ°ÑĦÐ¸ÑĩÐµÑģÐºÐ¾Ðµ":8150,"ĠÑĩÐ°ÑĢÑĤ":8151,"ÐµÐ²ÐºÐ°":8152,"ÐºÐ¾ÑģÑĤÐ¸":8153,"ĠÐ¿ÑĢÐµÐ¾Ð´Ð¾Ð»":8154,"ĠÑĥÐºÑĢÐ°Ð¸Ð½ÑģÐºÐ¾Ð³Ð¾":8155,"ĠÐ±ÑĢÐ¾Ð½Ð·Ð¾Ð²ÑĭÐ¹":8156,"Ð½ÐµÐ½Ð¸Ñı":8157,"ĠÐ¿ÐµÑī":8158,"ĠÐ¾Ð±Ð¾Ð·":8159,"ĠÐ¿ÑĢÐ¾ÐµÐºÑĤÐµ":8160,"ĠÐ¾ÑģÐ½Ð¾Ð²Ñĥ":8161,"ĠÐ¿ÑĢÐ¾Ð³ÑĢÐ°Ð¼Ð¼Ðµ":8162,"ĠÐ´Ð¼Ð¸ÑĤÑĢÐ¸ÐµÐ²Ð¸Ñĩ":8163,"ĠÐ¿Ð¾Ð´Ñĩ":8164,"ĠÐ°ÑĢÐµ":8165,"Ð¸Ð²ÑĪÐ¸ÑħÑģÑı":8166,"ĠÐ·Ð°ÐºÐ¾Ð½Ð°":8167,"ĠÐ°ÑħÐ¼":8168,"Ð¾ÑĩÐ½Ð¾Ðµ":8169,"ÑĥÑİÑīÐ°Ñı":8170,"ĠÐ¿ÑĢÐµÐ´Ð¿ÑĢÐ¸ÑıÑĤÐ¸Ðµ":8171,"ĠÐ¿ÑĢÐ¸Ð¿Ð¸Ñģ":8172,"ĠÐ·Ð´Ð°Ð½Ð¸Ð¸":8173,"ĠÐ¶ÐµÐ½Ð¸Ð»ÑģÑı":8174,"ĠÐ²Ð¾ÐµÐ½Ð½Ð°Ñı":8175,"ĠÑĢÐ°Ð·ÑĢÐ°Ð±Ð¾ÑĤÐºÐ¸":8176,"ĠÐ´Ð°Ð¹":8177,"ĠÐ°Ð½Ð³Ð»Ð¸Ñı":8178,"ĠÑģÐ¾ÑĤÑĢÑĥÐ´Ð½Ð¸Ðº":8179,"ĠÑĢÑĥÐ¼ÑĭÐ½Ð¸Ð¸":8180,"ĠÐ½Ð¸Ð¶Ð½Ð¸Ð¹":8181,"ĠÑĢÐµÐ¿ÑĢÐµÑģÑģ":8182,"ĠÑĤÑĭÑģÑıÑĩÐ¸":8183,"ĠÐ³Ð¾Ð²Ð¾ÑĢÑıÑĤ":8184,"ĠÐ¾ÐºÐ°":8185,"ÑıÑĤÐ°":8186,"ĠÐ¾ÑĤÑģÑĤ":8187,"ĠÐ¼ÑĥÐ½Ð¸ÑĨÐ¸Ð¿Ð°Ð»ÑĮÐ½ÑĭÑħ":8188,"ĠÑħÐ¾Ð·ÑıÐ¹ÑģÑĤÐ²Ð¾":8189,"ĠÐ²ÑģÐµÐ¼Ð¸":8190,"Ð½Ð¸Ð½":8191,"ÐµÑĢÑģÐºÐ¸Ð¹":8192,"ĠÐ·Ð°Ð¼ÐµÑģÑĤÐ¸ÑĤÐµÐ»ÐµÐ¼":8193,"ĠÐ¿Ð¾Ð´Ð±Ð¾ÑĢ":8194,"ĠÐµÐ²ÑĢÐ¾Ð¿ÐµÐ¹ÑģÐºÐ¸Ñħ":8195,"ÑĢÐµÐ´Ð°":8196,"ĠÐ²Ð¾Ð·Ð»Ðµ":8197,"ĠÐ°ÐºÑĤÑĥ":8198,"ÑģÑĤÐ¾Ð½":8199,"ÐµÐ½ÑģÐºÐ¾Ðµ":8200,"ĠÑĩÐµÑģÑĤ":8201,"Ð¸ÑĢÐ¾Ð²Ð°Ð½Ð½Ð¾Ð³Ð¾":8202,"ĠÐ¾ÑĦÐ¸ÑĨÐµÑĢÐ¾Ð²":8203,"ĠÑĥÑĩÑĳÐ½Ð°Ñı":8204,"ĠÐ²Ð¾Ð·Ð³Ð»Ð°Ð²Ð»ÑıÐ»":8205,"ĠÐ»ÐµÐ¿":8206,"ĠÐ¿ÑĢÐ¾ÑĪÐ»Ð°":8207,"ĠÑĤÑĢÐµÐ½ÐµÑĢÐ¾Ð¼":8208,"ÑĢÐµÐ´Ð¸ÑĤ":8209,"ĠÐ²ÑĤÐ¾ÑĢÑĭÑħ":8210,"ĠÐ¾ÑĤÐ´ÑĭÑħ":8211,"ĠÐ²Ð¾ÑģÑģÑĤÐ°Ð½Ð¸Ðµ":8212,"ĠÐ¾Ð±ÑīÐµÑģÑĤÐ²ÐµÐ½Ð½ÑĭÐ¹":8213,"ĠÐ±Ð°ÐºÑĥ":8214,"Ð¾Ð»Ðº":8215,"ĠÑĢÐ¸ÑģÐº":8216,"ÑĥÑĢÐ¾Ð²":8217,"ĠÑĢÐ¾Ð·ÑĭÐ³":8218,"ĠÐ¿ÑĢÐµÐ´ÐµÐ»Ð°Ñħ":8219,"ĠÐ¿Ð¾Ð´ÑĢÑıÐ´":8220,"Ð¸ÑĤÐµÐ»ÑıÐ¼":8221,"ĠÐ¼Ð¾ÐµÐ¹":8222,"ĠÐ¿Ð°Ð»ÐµÑģÑĤ":8223,"ĠÐ²Ð¾Ð·ÑĢÐ°ÑģÑĤÐ°":8224,"ĠÐ´ÐµÑıÑĤÐµÐ»Ð¸":8225,"ĠÐ³Ð»Ð°Ð·Ð°":8226,"ÐµÐ¹Ð½Ð°":8227,"ĠÐµÐ³Ð¾ÑĢ":8228,"Ð¼Ð¸ÑĢÑĥ":8229,"ĠÑĢÐ°ÑģÑģÑĤÑĢ":8230,"ĠÐ¸ÑģÐ¿Ð¾Ð»Ð½Ð¸ÑĤÐµÐ»ÑĮ":8231,"ĠÐºÑĢÐµÐ¿Ð¾ÑģÑĤÑĮ":8232,"ĠÐ¿ÑĢÐµÐ±":8233,"ĠÐ²Ð¾Ð´Ð¾ÑħÐ¾Ð·ÑıÐ¹":8234,"ĠÑģÑĥÐ´Ð¾Ð²":8235,"ĠÐ¿Ð¾ÑģÑĤÑĢÐ¾Ð¹ÐºÐ¸":8236,"ĠÑģÐ²ÐµÐ´":8237,"ĠÐµÐºÐ°ÑĤÐµÑĢÐ¸Ð½Ð°":8238,"ĠÐºÐ°ÑĪ":8239,"ĠÑģÐ°Ð½ÑĤÐ°":8240,"ĠÐ½Ð°Ð¿Ð¸ÑģÐ°Ð½Ð°":8241,"ĠÐ¾Ð±ÑıÐ·Ð°Ð½Ð½Ð¾ÑģÑĤÐ¸":8242,"ĠÐ¿Ð¾Ð¼Ð¾ÑĩÑĮ":8243,"ĠÐ·Ð°Ð¿Ð°Ð´Ð½Ð°Ñı":8244,"ĠÐ¸ÑģÑĤÐ¾ÑĢÐ¸ÐºÐ¾":8245,"ĠÑĥÑī":8246,"ĠÐ³Ð¾Ð´Ð°Ð¼":8247,"ĠÐ³Ð°Ð»Ð°ÐºÑĤ":8248,"ĠÐºÐ¾Ð¼Ð¿Ð¾Ð·Ð¸ÑĨÐ¸Ð¸":8249,"ĠÐºÐ¸ÑĢÐ¿":8250,"ĠÐ¼Ð°ÑģÑĤÐµÑĢÐ°":8251,"ĠÑĤÑĥÐ»ÑĮ":8252,"ĠÑħÐ¾Ð·Ñı":8253,"ĠÑģÐ¸Ð»Ð°Ð¼Ð¸":8254,"ĠÑĦÐ¸Ð·Ð¸ÐºÐ¾":8255,"ĠÐºÐ¾ÑĢÐ¾ÑĤÐºÐ°Ñı":8256,"ĠÑĦÐ¸Ð»ÑĮÐ¼Ð°Ñħ":8257,"ĠÐ¾ÑĩÐºÐ¸":8258,"ĠÐ´Ð¾Ð±Ð°Ð²Ð¸Ð»":8259,"ĠÐ·Ð°ÑīÐ¸ÑĤÐ¸Ð»":8260,"ĠÐ¸ÐºÐ¾Ð½":8261,"ĠÐ»Ð°Ð½":8262,"ĠÑįÐ²Ð¾Ð»Ñİ":8263,"ĠÐ²Ð¸Ð´Ð½Ð¾":8264,"ĠÑĢÐºÐºÐ°":8265,"ĠÐ¿ÑĮÐµÑĢ":8266,"ĠÐ¿Ð¾Ð»ÑĮÑģÐºÐ¸Ð¹":8267,"Ð¸ÑĩÐ½Ð¾Ðµ":8268,"ĠÐ¿Ð°ÑĢÐ»Ð°Ð¼ÐµÐ½ÑĤÐ°":8269,"ĠÑĢÐµÑģÑĥÑĢÑģÐ¾Ð²":8270,"ĠÑİÐ³Ð¾ÑģÐ»Ð°Ð²Ð¸Ð¸":8271,"Ð°ÐºÐ¾Ð¼Ð¿":8272,"ĠÑĪÐµÐ»":8273,"ĠÐ´Ð°Ð»ÐµÐºÐ¾":8274,"ĠÐ¿Ð¾Ð´Ð½Ñı":8275,"ĠÑĥÐ´ÐµÑĢÐ¶":8276,"ĠÐ¿ÑĥÐ±Ð»Ð¸ÑĨ":8277,"ĠÑħÐ°Ñģ":8278,"ĠÑģÑĤÐ°ÑĢÑĭÐ¹":8279,"ĠÐºÐ¾Ð½ÑĤÐ°ÐºÑĤ":8280,"ĠÑĤÐ¾ÑĢÐ¶Ðµ":8281,"ĠÑħÐ¸ÑĢ":8282,"ĠÐ³Ð¾ÑģÐ¿Ð¸ÑĤ":8283,"ĠÑįÑģÑĤÐ¾Ð½Ð¸Ð¸":8284,"ĠÐ¿Ð»Ð°Ð½Ð°":8285,"ĠÐ¸ÑģÐ¿Ð¾Ð»ÑĮÐ·Ð¾Ð²Ð°Ð½Ð¸ÐµÐ¼":8286,"ĠÐ¾ÐºÐ¾Ð½ÑĩÐ°ÑĤÐµÐ»ÑĮÐ½Ð¾":8287,"ĠÐ±Ð°ÑĢÐ±":8288,"ĠÐ¾ÑĦÐ¸ÑĨÐ¸Ð°Ð»ÑĮÐ½Ð¾Ð¼":8289,"ÑĥÑįÐ»ÑĮ":8290,"ÑĨÐ¸Ð¾Ð½Ð½ÑĭÐµ":8291,"ĠÐ²Ð¸Ð»ÑĮÐ³ÐµÐ»ÑĮÐ¼":8292,"ĠÐºÐ°ÑĤÐ°Ð»":8293,"ĠÐ¿Ð¾ÑĩÐµÑĤ":8294,"ĠÐºÐ»ÑĥÐ±Ð¾Ð¼":8295,"ĠÐ´ÐµÑģÑıÑĤÐ¸Ð»ÐµÑĤ":8296,"ĠÐ¼Ð°Ð»Ð°Ñı":8297,"ĠÐ·Ð°Ð²ÐµÐ´ÑĥÑİÑīÐ¸Ð¹":8298,"ĠÐ¿Ð¾Ð»Ð¾ÑĤ":8299,"ĠÐ³Ð¾Ð¼ÐµÐ»ÑĮ":8300,"ĠÐ¾ÑģÐ½Ð°":8301,"ĠÐ³ÑĢÐ¸Ð±":8302,"ĠÐ¶Ð¸Ð²Ð¾Ð¿Ð¸Ñģ":8303,"ĠÐ½Ð°Ð¿Ð°Ð´Ð°ÑİÑīÐ¸Ð¹":8304,"ĠÑĩÐ¸ÑģÐ»":8305,"ÑĢÑıÐ´Ðµ":8306,"ĠÐ¿ÑĢÐ¾Ð´Ð¾Ð»Ð¶Ð¸Ð»":8307,"ĠÐ¿ÑĢÐ¸Ð²Ð»ÐµÑĩ":8308,"ĠÐ¼Ð¸ÑĤÑĢÐ¾Ð¿Ð¾Ð»Ð¸ÑĤ":8309,"ĠÑħÐ¾ÑģÐµ":8310,"ĠÑĥÑĩÑĢÐµÐ´":8311,"ĠÐ¾Ð±ÑĢÐ°Ð·Ð¾Ð²Ð°ÑĤÐµÐ»ÑĮ":8312,"ĠÐ·Ð¾Ð½Ðµ":8313,"ĠÐ°ÑĢÐºÐ°Ð´":8314,"ĠÑģÐ¾ÑģÑĤÐ°Ð²Ð»ÑıÐ»Ð¸":8315,"ĠÑģÐ¾ÑĢÐµÐ²Ð½Ð¾Ð²Ð°Ð½Ð¸Ð¹":8316,"ĠÐ½ÐµÐ¿ÑĢÐ°Ð²Ð¸Ð»ÑĮ":8317,"ĠÐ¼ÐµÐ¹":8318,"ÑĳÐ½Ð½Ð¾Ð¼":8319,"ĠÐ´Ð²Ð¸Ð³Ð°ÑĤÐµÐ»ÑĮ":8320,"ĠÐ°ÑĦÑĢÐ¸ÐºÐ°Ð½":8321,"ĠÐºÐ¾Ð¼Ð±":8322,"ĠÐ¾ÑģÑĥÐ¶Ð´":8323,"ĠÐ²ÑĭÑģÑĤÑĥÐ¿Ð»ÐµÐ½Ð¸Ð¹":8324,"ĠÑĥÑĢÐ°Ð²Ð½":8325,"ÐµÐ½Ð°ÑĩÐ°Ð»ÑĮ":8326,"ĠÐ¾Ð±ÑĬÐµÐºÑĤÐ¸Ð²":8327,"ĠÐ´Ð¾Ð²ÐµÑĢ":8328,"ĠÐºÐ°Ð²Ð°Ð»ÐµÑĢÑĭ":8329,"ÑĮÐµÐ²Ð¸Ñĩ":8330,"ĠÐºÐ¾Ð¼Ð°Ð½Ð´Ð¸ÑĢÐ¾Ð¼":8331,"ĠÐ²Ð¾ÑģÐ¿ÑĢÐ¸Ð½":8332,"Ð°ÑĢÐ¸Ñı":8333,"ĠÐ²ÑĭÑĪÐµÐ´":8334,"ĠÐ¼ÑİÐ½Ñħ":8335,"ĠÐ²Ð¸ÐºÐ¸ÑģÐºÐ»Ð°Ð´":8336,"ĠÐ¼Ð¸ÑĢÑĥ":8337,"ĠÐºÐ¾Ð¼Ð°Ð½Ð´Ð¾Ð¹":8338,"ĠÐ·Ð°Ð½Ð¸Ð¼Ð°ÐµÑĤÑģÑı":8339,"ĠÐºÐ¾ÑĤÐ¾ÑĢÑĭÐ¼Ð¸":8340,"ĠÐ¸ÑģÑĤÐ¾ÑĩÐ½Ð¸ÐºÐ°Ð¼Ð¸":8341,"ĠÐ²Ð¾ÐµÐ½Ð°ÑĩÐ°Ð»ÑĮ":8342,"ĠÐ¾ÐºÐ°Ð·ÑĭÐ²Ð°ÐµÑĤÑģÑı":8343,"ÑĳÐ½Ð½ÑĭÐ¼Ð¸":8344,"ĠÐ¾ÑģÑĤÐ°ÑĳÑĤÑģÑı":8345,"ĠÐ¿Ð¾Ð´ÑĢÐ¾Ð±Ð½Ð¾":8346,"ĠÐ¿Ð»Ð°Ð½ÐµÑĤ":8347,"ĠÑģÐ¼ÑĭÑģÐ»Ðµ":8348,"ÑĤÐ¾Ð½Ð°":8349,"ĠÑĤÑĥÐ»":8350,"Ð°Ð»ÑĮÑĨ":8351,"ÑĥÐ½Ð³":8352,"ĠÑģÑĭÐ½Ð¾Ð¼":8353,"ĠÑĤÑĢÐµÑĤÑĮÐµÐ¹":8354,"Ð¾Ð¾ÑħÑĢÐ°Ð½":8355,"Ð¾Ð²Ð°ÑĢ":8356,"Ð³ÑĢÐ°Ð´":8357,"Ð»ÑİÐ±":8358,"ĠÐºÐ°Ð¼Ð¿Ð°Ð½Ð¸Ð¸":8359,"ĠÐºÐ¾ÑģÑĤÑĢÐ¾Ð¼":8360,"ĠÐ³ÑĢÐ°Ð¼Ð¾ÑĤ":8361,"ĠÐ±Ð¸Ð±Ð»Ð¸Ð¾ÑĤÐµÐºÐ¸":8362,"ÑįÐ½ÑĮ":8363,"ĠÑįÐ½ÐµÑĢÐ³Ð¸Ð¸":8364,"ĠÐ¿Ð»Ð°Ð½Ðµ":8365,"ĠÐºÐ¾Ð»Ð¾Ðº":8366,"ĠÐ¼Ð°ÑĪÐ¸Ð½Ð¾ÑģÑĤÑĢÐ¾":8367,"Ð¸ÑĤÐ¸Ð²":8368,"ĠÐ¿ÑĭÑĤÐ°ÐµÑĤÑģÑı":8369,"ĠÐ³Ð°Ð·ÐµÑĤÐµ":8370,"ĠÑĨÐµÐ½ÑĤÑĢÐ°Ð»ÑĮÐ½Ð°Ñı":8371,"ĠÐ´Ð¾ÑĩÐµÑĢ":8372,"ĠÑģÐ¾ÑĤÑĢÑĥÐ´Ð½Ð¸Ñĩ":8373,"ĠÐºÐ¾Ð»Ð»ÐµÐ³Ð¸":8374,"ĠÐ·Ð°Ð³Ð»Ð°Ð²Ð¸Ðµ":8375,"ĠÑĥÑģÑģÑĢ":8376,"ĠÐ·Ð¾Ð½":8377,"ĠÐ¸Ð¼ÑĥÑīÐµÑģÑĤÐ²":8378,"ĠÐ²Ð»Ð°Ð´ÐµÐ»":8379,"Ð½Ð¾Ð·":8380,"ĠÐ¿Ð»ÑİÑģ":8381,"ĠÐµÐ²ÑĢÐ¾":8382,"ÑĨÐµÐ²Ð°":8383,"ĠÑģÑĤÐ°Ð²ÑĢÐ¾Ð¿":8384,"ĠÐ¼Ð¾Ð½Ð³Ð¾Ð»":8385,"ĠÑİÐ¶Ð½ÑĭÐ¹":8386,"ĠÐ½ÐµÐ¼ÐµÑĨÐºÐ¸Ñħ":8387,"ĠÐ¿ÐµÑĤÐµÑĢÐ±ÑĥÑĢÐ³ÑģÐºÐ¾Ð³Ð¾":8388,"ĠÑĢÐ°ÑģÑĤÐ²Ð¾ÑĢ":8389,"ĠÐ¾ÑģÑĤÐ°Ð²Ð¸Ð»":8390,"ĠÑģÐ²Ð¾Ð¹ÑģÑĤÐ²Ð°":8391,"ĠÑħÐ°Ðº":8392,"ĠÐ¿Ð¾Ð»Ð¾Ð²Ð¸Ð½Ñĭ":8393,"ĠÐ¿ÑĢÐµÐ´ÑĭÐ´ÑĥÑīÐ¸Ð¹":8394,"ĠÑģÑĩÐ¸ÑĤÐ°ÑİÑĤ":8395,"ÑıÑīÐµÐ¹":8396,"Ð°Ð»Ð¸Ð·Ð¼Ð°":8397,"ĠÐ·Ð°Ð²Ð¾ÐµÐ²Ð°Ð»":8398,"ĠÐ²Ð±":8399,"ĠÐ»ÐµÐ¼":8400,"ĠÐ¿Ð¾ÑģÐ¼ÐµÑĢÑĤ":8401,"ĠÐ¾ÑģÐµÑĤ":8402,"ĠÐ¿Ð¾Ð»ÑĤÐ°Ð²":8403,"ĠÐºÑĢÐ¾Ð½":8404,"ĠÐ´Ð°ÑĤÑĭ":8405,"ĠÐ¼ÐµÐ¶Ð´ÑĥÐ½Ð°ÑĢÐ¾Ð´Ð½Ð°Ñı":8406,"ÑĸÐ²":8407,"ĠÐ¿Ð¾Ð´Ð°ÑĢ":8408,"ĠÑģÐ°Ð¼Ð¾ÑģÑĤÐ¾ÑıÑĤÐµÐ»ÑĮÐ½Ð¾":8409,"ÑĩÐµÐ²":8410,"ĠÑĤÑĢÐ¾Ð¹":8411,"ĠÐ³Ð»Ð°Ð´":8412,"ĠÐ¶ÑĳÑģÑĤ":8413,"ĠÐ¾Ð±ÑĬÑıÑģÐ½Ñı":8414,"ĠÐ³ÐµÐ¾ÑĢÐ³Ð¸Ñı":8415,"ĠÐ½Ð°ÑģÐ»ÐµÐ´Ð¸Ñı":8416,"Ð¸ÑĢÐ¾Ð²Ð°Ð²":8417,"ĠÐ²Ð»Ð°Ð´Ð¸ÑģÐ»Ð°Ð²":8418,"ĠÑĢÑĥÐºÐ¾Ð²Ð¾Ð´Ð¸Ð»":8419,"ĠÐ¿Ð¾Ð´Ð¾Ð±Ð½ÑĭÑħ":8420,"ĠÐ²ÐµÑĢÑĤÐ¸Ðº":8421,"ĠÐ½Ð¸ÐºÐ¸ÑĤ":8422,"ĠÐ±Ñį":8423,"ĠÐ¼Ð¾Ð»Ð¾Ð´ÑĭÑħ":8424,"ĠÑĥÐ·Ð½Ð°Ð²":8425,"ÑĢÐµÐ²Ð°":8426,"ĠÐ±ÐµÐ»ÑĭÐµ":8427,"ĠÐ·Ð°Ð¸Ð½ÑĤÐµÑĢÐµÑģ":8428,"ĠÐ¿Ð¸ÑģÑĮÐ¼Ð°":8429,"ĠÑģÐ¾ÐµÐ´Ð¸Ð½ÐµÐ½Ð¸Ñı":8430,"ĠÑħÐ¾ÐºÐºÐµÑİ":8431,"ĠÐ¼ÑıÑģ":8432,"ĠÐºÐ¾Ð»Ð»ÐµÐ³Ð°":8433,"Ð¾ÑħÑĢÐ°Ð½Ð¸Ð»Ð¸":8434,"ÑĩÐµÐ¹":8435,"ĠÑģÐµÑĢÐ¶Ð°Ð½ÑĤ":8436,"ĠÐºÑĥÐ´":8437,"ĠÐ¾ÑģÑĤÐ°Ð»ÑĮÐ½ÑĭÑħ":8438,"ĠÑĢÐµÐ³ÑĥÐ»Ð¸":8439,"ĠÐ¾ÐºÑĢÑĥÐ³Ð¾Ð²":8440,"ĠÐ¿ÑĢÐµÐ²ÑĢÐ°ÑĤ":8441,"ĠÐ¿Ð¾Ð´Ð½Ð¸Ð¼":8442,"ÐµÑĢÐ¼Ð°Ð½":8443,"Ð°ÑĢÑģÐºÐ¾Ð¹":8444,"ĠÐ¿ÐµÑĢÑģÐ¸Ð´":8445,"Ð¸Ð»ÑĮÑı":8446,"ÑıÐ»Ð¸ÑģÑĮ":8447,"ĠÐ¿Ð¾Ð»ÑĮÑĪÐ°":8448,"ĠÑĥÑģÑĤÐ¾Ð¹ÑĩÐ¸Ð²":8449,"ĠÐ°Ð²Ð¸Ð°ÐºÐ¾Ð¼Ð¿":8450,"ĠÐ±ÑĢÐ°ÑĥÐ½":8451,"ĠÐ¾Ð±ÑĬÐµÐ´Ð¸Ð½ÐµÐ½Ð¸Ðµ":8452,"ĠÐ½Ð¾ÑĢ":8453,"ĠÐ°Ð´Ð²Ð¾Ðº":8454,"ĠÐ²Ð¾Ð»Ð½":8455,"ĠÑģÐ¸Ð½Ð´":8456,"ĠÐ°Ð½Ð³Ð»Ð¸Ð¹ÑģÐºÐ¾Ð¹":8457,"ĠÐºÐ¾ÑĢÐ¾Ð»ÐµÐ²ÑģÑĤÐ²Ð°":8458,"ĠÑĢÐ°ÑģÑĤÐµÐ½Ð¸Ñı":8459,"ĠÐ¾ÑĢÐ°Ð½":8460,"ĠÐ¼ÐµÐ·":8461,"ĠÑĢÐµÐ³ÑĥÐ»ÑıÑĢÐ½Ð¾":8462,"ĠÐ»Ð°Ð¹":8463,"ĠÐ¿ÑĢÐµÐ¿Ð¾Ð´Ð°Ð²Ð°ÑĤÐµÐ»ÑĮ":8464,"ĠÐºÐ°ÑĤÐ°ÑģÑĤÑĢÐ¾ÑĦ":8465,"ĠÐ±Ð»Ñİ":8466,"Ð¸Ð¹ÑģÐºÐ¸Ðµ":8467,"ĠÑĩÐµÐ»Ð¾Ð²ÐµÐºÐ¾Ð¼":8468,"ĠÐ½Ð°ÑĢÐ¾Ð´Ð½ÑĭÑħ":8469,"ĠÐ¾ÑĤÐºÑĢÑĭÑĤÐ°":8470,"Ð¾Ð¼Ð¸Ð½Ð°":8471,"ĠÐ²Ð½ÐµÐ´":8472,"ĠÐ¾Ð±Ð¾Ð·Ð½Ð°ÑĩÐµÐ½Ð¸Ñı":8473,"ĠÑĤÐ°ÑĪÐº":8474,"ĠÐ´Ð²Ð¾Ðµ":8475,"ĠÑĢÐµÐµÑģÑĤÑĢÐµ":8476,"ÑıÐ½ÑĮ":8477,"ĠÐ¼ÑĥÐ¶Ðµ":8478,"ĠÐ·Ð´Ð°Ð½Ð¸Ð¹":8479,"ĠÐ½Ð¸Ð´ÐµÑĢÐ»Ð°Ð½Ð´Ð¾Ð²":8480,"ĠÐ¿ÑĢÐµÑĤÐµÐ½Ð´":8481,"ĠÑħÐº":8482,"ĠÑĩÑĳÑĢÐ½ÑĭÐ¹":8483,"ÑĢÐ¸Ð±":8484,"ĠÐ±ÑĢÐµÐ½":8485,"ĠÐ¸Ð½ÑĤÐµÑĢÐ¿":8486,"ĠÐ¿ÑĢÐ¾ÑģÑĤÑĢÐ°Ð½ÑģÑĤÐ²Ðµ":8487,"ĠÐ¿ÑĢÐ°Ð·Ð´Ð½":8488,"ĠÐ¼Ðº":8489,"ĠÑĤÑĢÐµÐ½ÐµÑĢÐ°":8490,"ĠÐºÐ¾ÑĢÐ°Ð±Ð»Ð¸":8491,"ĠÐ²Ð¾Ð·Ð³Ð»Ð°Ð²Ð»Ñı":8492,"ĠÐ»ÐµÐ±ÐµÐ´":8493,"ĠÐ´ÐµÐ»Ð°Ð¼":8494,"ĠÐ¾Ð±ÑĢÐ°ÑĤÐ½Ð¾":8495,"ĠÐ¿ÑĢÐ¸Ð¾Ð±ÑĢ":8496,"ĠÑĢÐµÐ·ÑĥÐ»ÑĮÑĤÐ°ÑĤÐ¾Ð²":8497,"ĠÐ±Ð¾Ð»ÑĮÑĪÐ¸Ð½ÑģÑĤÐ²Ðµ":8498,"Ð±ÐµÑĢÐ³Ð°":8499,"ÑĢÐµÐ½Ð¸Ñı":8500,"ÑĥÐ½Ðµ":8501,"ĠÐ°Ð»Ðº":8502,"ĠÐ¼Ð¾ÑģÐºÐ¾Ð²ÑģÐºÐ°Ñı":8503,"ĠÐ¿Ð¾ÑģÐ¿":8504,"ĠÑħÐ¾ÑĩÐµÑĤ":8505,"ÑĢÐ¸Ð»":8506,"ĠÐ¿ÑĢÑıÐ¼Ð¾Ð¹":8507,"ĠÑĤÐ¾Ð¿Ð¾Ð½Ð¸Ð¼":8508,"ĠÑħÐ¾ÑĩÑĥ":8509,"ĠÐ¼Ð¾ÑĢÑģÐºÐ¾Ð³Ð¾":8510,"ĠÐ¼Ð½Ð¾Ð³Ð¾ÑĩÐ¸ÑģÐ»ÐµÐ½Ð½ÑĭÐµ":8511,"ĠÑıÐ³":8512,"ÑģÐ¿Ð¾ÑĢÑĤ":8513,"ĠÐ¿Ð¾ÑĢÑĤÐ°Ð»":8514,"ĠÑģÐ¼ÑĭÑģÐ»Ð°":8515,"ĠÐ½Ð°Ð²Ð¸Ð³Ð°ÑĨÐ¸Ð¾Ð½Ð½ÑĭÐµ":8516,"ĠÐ·Ð°ÑģÑĤ":8517,"ĠÐ¸Ð·Ð¼ÐµÐ½ÐµÐ½Ð¸Ð¹":8518,"ĠÐ¿ÑĢÐ¸Ð½ÑĨÐ¸Ð¿Ðµ":8519,"ĠÑģÐ¸Ð±Ð¸ÑĢÐ¸":8520,"ÑĩÑĥ":8521,"ĠÐ¿ÐµÑĢÐµÐ¸Ð¼ÐµÐ½Ð¾Ð²Ð°ÑĤÑĮ":8522,"ĠÑĦÐµÑģÑĤÐ¸Ð²Ð°Ð»ÑĮ":8523,"ĠÑģÐµÑĢÐµÐ´Ð¸Ð½Ñĭ":8524,"ĠÑģÐ¾Ð²ÐµÑĤÐ¾Ð²":8525,"ĠÑģÐ°Ð¼Ð¾ÑĥÐ¿ÑĢÐ°Ð²Ð»ÐµÐ½Ð¸Ñı":8526,"ĠÐ±ÐµÐ»Ð¾Ð³Ð¾":8527,"ĠÑģÐ¾Ð»Ð¾Ð²":8528,"ĠÑĩÑĥÐ¶":8529,"ĠÐµÐ´Ð¸Ð½Ð¸ÑĨ":8530,"ĠÐ±Ð¾Ð»ÑĮÑĪÐ¸Ð½ÑģÑĤÐ²Ð°":8531,"ĠÐ¼Ð°ÑĤÐµÑĢÐ¸Ð°Ð»Ð°":8532,"Ð¾Ð±Ð¾ÑĢÐ¾ÑĤ":8533,"ĠÐ±Ð¾ÑĢÑĮÐ±Ð°":8534,"ĠÐ¼Ð°Ð´ÑĢÐ¸Ð´":8535,"ÑĥÑĨ":8536,"ĠÐ½Ð°ÑĪÐµÐ¹":8537,"ĠÐ±Ð°Ð½ÐºÐ°":8538,"ĠÐºÐ¾ÑĢÐ¾Ð±":8539,"ĠÐ¿ÑģÐºÐ¾Ð²ÑģÐºÐ¾Ð¹":8540,"ĠÐ¼ÐµÑģÑģ":8541,"ĠÐ°Ð±Ñħ":8542,"ĠÐ·Ð°Ð¿Ð°Ð´Ð½Ð¾Ð¼":8543,"ĠÐ¸Ð·Ð±ÐµÐ¶":8544,"ĠÐ»ÑĥÐ¸Ñģ":8545,"ĠÐ¸Ð·Ð¼ÐµÐ½ÐµÐ½Ð¸Ðµ":8546,"ĠÐ½Ð¸Ð¶Ð½ÑıÑı":8547,"ĠÑİÐ½Ð¾ÑĪÐµ":8548,"ĠÐ¿Ð¾Ð´Ð¾Ð±Ð½ÑĭÐµ":8549,"ÑĥÐ¸":8550,"ĠÐ²ÑĢÐµÐ´":8551,"ÑĭÑģÐº":8552,"ĠÐ½Ð¾Ð±":8553,"ĠÐ´Ð°Ð½Ð½Ð°Ñı":8554,"ĠÐ½Ð¾Ð¼Ð¸Ð½Ð°ÑĨÐ¸Ñı":8555,"ĠÐ¿Ð¾Ð´Ð·ÐµÐ¼":8556,"ĠÐ¿Ð¾Ð½ÑıÑĤÑĮ":8557,"ĠÑĪÐ°ÑħÑĤ":8558,"ĠÐ²Ð¸ÑĢÑĤÑĥ":8559,"ĠÑĢÐ¾Ð½":8560,"ÑĪÐµÐ½":8561,"ĠÐ¾Ð¿ÑĢÐ°Ð²":8562,"ĠÐ¿Ð¾Ð»ÑĮÑĪÐµ":8563,"ÑīÐ¸ÐºÐ°":8564,"ĠÐ»Ð¸Ñģ":8565,"ĠÐ¸Ð½ÑģÐ¿":8566,"ĠÐ¿ÑĢÐ¾ÑĤÐ¸Ð²Ð¾Ð¿Ð¾Ð»Ð¾Ð¶":8567,"ĠÑĤÐ°ÐºÐ¸Ð¼Ð¸":8568,"ĠÑįÐ¼Ð±":8569,"ĠÐ³Ð¾ÑĢÐ¾Ð´Ð¾Ð¼":8570,"ĠÐ¾Ð±ÑĬÑıÐ²Ð¸Ð»":8571,"Ð¾Ð²Ð¸Ðº":8572,"ÐµÑĨÐ¸Ñı":8573,"ĠÐ¾ÑģÐ½Ð¾Ð²Ð½Ð¾Ðµ":8574,"ĠÐ²Ð¾Ð¿ÑĢÐ¾ÑģÐ¾Ð²":8575,"ĠÐ²Ð°Ð¶Ð½ÐµÐ¹":8576,"ĠÐ±ÐµÐ»ÑĮÐ³Ð¸Ð¸":8577,"ĠÐ½Ð¾ÑĢÐ²ÐµÐ³Ð¸Ð¸":8578,"ĠÑĥÑĩÐ°ÑģÑĤÐ½Ð¸ÐºÐ°Ð¼Ð¸":8579,"ĠÐ°Ð´Ð¼Ð¸Ð½Ð¸ÑģÑĤÑĢÐ°ÑĤÐ¾ÑĢÐ°":8580,"Ð¾ÑģÐ¿Ð¾ÑģÐ¾Ð±":8581,"ĠÑĦÐµÑĢÐ½":8582,"ĠÐ¸Ð·Ð²ÐµÑģÑĤÐ½Ð¾Ð³Ð¾":8583,"ĠÐ¾Ñī":8584,"ĠÐ´ÑĢÑĥÐ³Ð°Ñı":8585,"ĠÐ¿ÑĢÐ¾ÑĪÐ»Ð¾Ð¼":8586,"ĠÐ½Ð°ÑĪÑĳÐ»":8587,"ĠÐ¿ÑĢÐµÐ²Ð¾Ñģ":8588,"Ð²Ð¸Ð»Ð¸":8589,"ĠÑĤÐ°Ð½Ðº":8590,"ĠÐ°ÑĢÑĤÑĥÑĢ":8591,"ĠÑĦÐµÐ´ÐµÑĢÐ°Ð»ÑĮÐ½Ð¾Ð³Ð¾":8592,"ĠÐ¾ÑģÐºÐ°ÑĢ":8593,"ĠÐºÐµÐ¹":8594,"Ð¸Ð²ÑĪÐ¸Ðµ":8595,"ĠÐ¶ÑĥÐºÐ¾Ð²":8596,"ÑĢÐ¾ÐµÐºÑĤ":8597,"ĠÐ¸Ð³ÑĢÐ¾ÐºÐ¾Ð¼":8598,"ĠÐºÑĢÐ¸ÑĤÐµÑĢÐ¸Ð¸":8599,"ĠÐµÐ¿Ð°ÑĢÑħÐ¸Ñı":8600,"ĠÑĦÐµÑģÑĤÐ¸Ð²Ð°Ð»Ñı":8601,"ĠÑģÐ¾ÑĢÑĤ":8602,"ĠÐ¼Ð¾Ð»ÐµÐº":8603,"ĠÐ¿Ð¾Ð»Ð¾Ð¶ÐµÐ½Ð¸Ñı":8604,"Ð´Ñģ":8605,"ĠÐ½Ð°Ð·Ð²Ð°Ð½Ð°":8606,"ĠÐºÐ°Ð·Ð°Ñĩ":8607,"ĠÑģÐ¸ÑģÑĤÐµÐ¼Ð°ÑĤ":8608,"ĠÐ²Ð¾ÑģÑĤÐ¾ÑĩÐ½Ð°Ñı":8609,"ĠÐ¾Ð¿Ð¸ÑģÐ°Ð½Ð¸Ñı":8610,"ĠÐ±Ð»Ð°Ð³Ð¾ÑĤÐ²Ð¾ÑĢ":8611,"ĠÐ²ÑĢÐ°Ñī":8612,"ĠÑĢÐµÐºÐ¾Ð¼ÐµÐ½Ð´Ð°":8613,"ĠÐ²ÑĭÑıÑģÐ½":8614,"ĠÑģÑĢÐµÐ´Ð½ÐµÐ³Ð¾":8615,"ĠÐ¿Ð¾ÐºÐ»Ð¾Ð½":8616,"ĠÐ´ÐµÐ¹ÑģÑĤÐ²ÑĥÐµÑĤ":8617,"ĠÐ²Ð¾Ð»Ð¾Ñģ":8618,"ĠÐ¿Ð¾ÑģÐ»ÐµÐ´Ð½ÑıÑı":8619,"ĠÐºÐ°Ð½Ð´Ð¸Ð´Ð°ÑĤÐ°":8620,"ĠÑĤÑį":8621,"ĠÐ²ÑĭÑĢÐ¾Ñģ":8622,"ĠÐºÐ¾ÑĢÐ¾Ð»ÐµÐ²ÑģÑĤÐ²Ð¾":8623,"ĠÐ¾ÑģÑĥÑīÐµÑģÑĤÐ²Ð»Ñı":8624,"ĠÑĩÑĥÐ²Ð°ÑĪ":8625,"ĠÑĢÐ°ÑģÑģÑĩÐ¸ÑĤ":8626,"ÑģÑģÐ¾Ð½":8627,"ĠÐ¾Ð±ÐµÑī":8628,"ĠÐºÐ°ÑĢÐ°Ð±":8629,"ĠÑģÐ¿ÑĢÐ°Ð²Ð¾ÑĩÐ½Ð¸Ðº":8630,"Ð¾ÑĢÐµÐ¶":8631,"ĠÐ¸Ð³Ð¾ÑĢ":8632,"ĠÐ½Ð¸Ð¶Ð½ÐµÐ¹":8633,"ĠÑĤÐµÑħÐ½Ð¾Ð»Ð¾Ð³Ð¸Ð¹":8634,"ĠÐºÑĢÐ¸ÑĤÐ¸ÐºÐ¾Ð²":8635,"ÑĩÐµÑĤ":8636,"ĠÐ¾ÑĢÑĥÐ´Ð¸Ñı":8637,"ĠÑĤÐ²Ð¾ÑĢÑĩÐµÑģÑĤÐ²Ð°":8638,"ĠÐ´Ð°Ð²Ð°Ð¹ÑĤÐµ":8639,"ĠÑĢÐ°Ð·Ð³ÑĢÐ¾Ð¼":8640,"ĠÐ»Ð°Ð³ÐµÑĢ":8641,"ĠÐ³ÑĥÐ´":8642,"Ð·Ð´":8643,"ÑĨÐ¸Ð´":8644,"Ð¸ÑĢÐ¾Ð²Ð°Ð½Ð½Ð°Ñı":8645,"ĠÐ¿ÑĢÐ¾ÑĨÐµÑģÑģÐ°":8646,"ĠÐµÐ¶ÐµÐ³Ð¾Ð´Ð½Ð¾":8647,"ĠÑĪÑĥÑĤ":8648,"ÐµÑĢÐ°ÑĨÐ¸Ð¸":8649,"ĠÑģÐµÐ¼Ð¸":8650,"ĠÐ´Ð¶Ðµ":8651,"ĠÐ¿Ð¾Ð»Ð¸ÑĤÐ¸ÑĩÐµÑģÐºÐ¸Ðµ":8652,"ĠÑĢÐµÐ´ÐºÐ¾":8653,"ĠÐ»Ð¾Ð³Ð¾ÑĤÐ¸Ð¿":8654,"ĠÐ¾Ð¿ÑĥÐ±Ð»Ð¸ÐºÐ¾Ð²Ð°Ð»":8655,"ĠÑĢÐµÐ»ÑĮ":8656,"ĠÐ¼Ð¸Ð½ÑģÐº":8657,"ĠÐ»ÑĥÑĩÑĪÐ¸Ðµ":8658,"ĠÐ²Ð¾ÑģÑĤÐ¾ÑĩÐ½Ð¾":8659,"ĠÐ²Ð¾Ð´Ð¾ÑħÑĢÐ°Ð½Ð¸Ð»Ð¸":8660,"ĠÐ²Ð°Ð»ÐµÐ½ÑĤÐ¸Ð½":8661,"ĠÐ²Ð¾ÑģÐ¿Ð¾Ð¼Ð¸Ð½Ð°Ð½Ð¸Ñı":8662,"ĠÐ»ÐµÑĤÐ¸Ñİ":8663,"ĠÐ½ÐµÐ´Ð°Ð»":8664,"ĠÐ¿Ð¾Ð¶Ð°ÑĢ":8665,"ĠÐºÑĢÐ¾Ð²Ð¸":8666,"ĠÑįÐ²Ð°ÐºÑĥ":8667,"ĠÐºÐ¾Ñį":8668,"ĠÐ²ÐµÑĢÐ°":8669,"ĠÐ½ÐµÐ¾Ð±Ñĭ":8670,"ĠÑģÐºÐ¾ÑĢÐ¾ÑģÑĤÐ¸":8671,"ĠÐ½ÐµÐ¾Ð¿":8672,"ĠÐ¼Ð¾Ð³Ð»Ð°":8673,"ĠÐ¿Ð»Ð¾ÑħÐ¾":8674,"ĠÐ¾Ð±ÑīÐµÑģÑĤÐ²ÐµÐ½Ð½Ð¾Ð¹":8675,"ĠÑģÐ¾Ð±Ð»ÑİÐ´":8676,"ĠÑģÑĦÐµÑĢÐµ":8677,"ĠÐ¿ÑĢÐµÐ¸Ð¼ÑĥÑīÐµÑģÑĤÐ²":8678,"ĠÐ½ÐµÐ¾Ð¶Ð¸Ð´":8679,"ĠÐ±Ð°ÑĤÐ°ÑĢÐµ":8680,"ĠÐ½Ð°ÑģÑĤÑĢÐ¾":8681,"ĠÐ¿Ð¾Ð³Ð¸Ð±Ð»Ð¸":8682,"ĠÐºÐ°Ð½Ð¾Ð½":8683,"ÐºÐ¾ÑĢ":8684,"ÑģÑĤÐµ":8685,"Ð¸Ð²Ð¾":8686,"ĠÐ¿ÑĢÐ¾Ð¼ÐµÐ¶":8687,"ĠÐ¿Ð¸ÑģÑĤ":8688,"ĠÐ¼ÑĥÐ´":8689,"ĠÑĥÑģÑĤÑĮÑı":8690,"ĠÐ¾ÑģÐ½Ð¾Ð²Ð½Ð¾Ð³Ð¾":8691,"ĠÐ°ÐºÐ°Ð´ÐµÐ¼Ð¸Ñİ":8692,"ĠÐºÐ¾Ð»Ð»ÐµÐºÑĤÐ¸Ð²Ñĭ":8693,"ĠÐ¾Ð±Ð·Ð¾ÑĢ":8694,"ĠÐ¼ÐµÐ³":8695,"ĠÑĦÑĢÐ°Ð½ÑĨÐ¸ÑģÐº":8696,"Ð»Ð°ÑģÑģ":8697,"ĠÑģÐ²ÑıÐ·Ð°Ð½":8698,"ĠÐ¾ÑĢÐ³Ð°Ð½Ð¸Ð·Ð¾Ð²Ð°Ð½":8699,"ĠÐ¿ÑĢÐ¸Ð·Ð½Ð°":8700,"ĠÐºÐ¾Ð¼Ð¿Ð¾Ð·Ð¸ÑĨÐ¸Ð¹":8701,"ĠÑģÐ¾Ð¾Ð±ÑīÐµÑģÑĤÐ²Ð¾":8702,"ĠÑģÐ¾Ð¶Ð°Ð»ÐµÐ½Ð¸Ñİ":8703,"ÑĢÐ¸ÑĤÐµ":8704,"ĠÐ³ÑĢÐ¸Ð½":8705,"ĠÐ½Ð°ÑĤÐ°Ð»ÑĮÑı":8706,"ĠÑĤÐµÐ¿Ð»":8707,"ĠÐ¿Ð¾Ð»ÑĮÑģÐºÐ¾Ð³Ð¾":8708,"ĠÑĢÐ°ÑĥÐ½Ð´Ðµ":8709,"ĠÐ¾Ð±ÑīÐ¸Ðµ":8710,"ĠÐ³ÑĥÐ±ÐµÑĢÐ½Ð°ÑĤÐ¾ÑĢÐ°":8711,"ĠÐºÐ°Ð·Ð½":8712,"Ð¸ÑĤÐ¾ÑĢ":8713,"ĠÐ·Ð²ÐµÑĢ":8714,"ĠÐ¿Ð¾Ð·Ð½Ð°ÐºÐ¾Ð¼":8715,"ĠÐ¸Ð·ÑĥÑĩÐµÐ½Ð¸Ñı":8716,"ÐºÐ¾Ð»":8717,"ĠÑĤÐµÑħÐ½Ð¸ÑĩÐµÑģÐºÐ¾Ð³Ð¾":8718,"ĠÑĢÐµÑĦÐ¾ÑĢÐ¼Ñĭ":8719,"ÐµÐ¾":8720,"ĠÐ°Ð½Ð°Ð»Ð¸ÑĤ":8721,"ĠÐ°Ð±Ð·Ð°":8722,"ĠÐ½Ð°ÑģÑĤÐ¾Ð»ÑĮÐºÐ¾":8723,"ĠÐ¿ÐµÑĢÑģÐ¾Ð½Ð°Ð¶Ð¸":8724,"ĠÐ¾ÑģÐ²Ð¾Ð±Ð¾Ð¶Ð´ÐµÐ½Ð¸Ñı":8725,"ĠÑħÐ¾":8726,"Ð°ÑĤÐµÐ»Ñİ":8727,"Ð¾Ð±Ð¾Ð´Ð°":8728,"ĠÐ¿Ð¾ÑģÑĳÐ»ÐºÐµ":8729,"Ð°ÑĨ":8730,"Ð¸ÑĢÑĥÑİÑĤÑģÑı":8731,"ĠÑģÐºÐ°Ð·Ð°Ð½Ð¾":8732,"ÑĪÐµÐ²":8733,"Ð¸Ð°Ð»ÑĮÐ½ÑĭÑħ":8734,"ĠÐ°Ð½Ð´ÐµÑĢÑģÐ¾Ð½":8735,"ĠÑģÐ¾Ð»Ð´":8736,"ĠÐ½Ð¾Ð¶":8737,"ĠÐºÐ°ÐºÐ¾Ð³Ð¾":8738,"ĠÑģÐ²ÑıÑĤÑĭÑħ":8739,"ĠÐ°Ð±ÑģÐ¾Ð»ÑİÑĤÐ½Ð¾":8740,"ĠÐ¸Ð·Ð²Ð¸Ð½":8741,"ĠÐ³ÐµÐ¾Ð³ÑĢÐ°ÑĦÐ¸Ð¸":8742,"ĠÐ»Ð¸ÑĨÐ¾":8743,"ĠÐ¾Ð¿ÑĤÐ¸Ð¼":8744,"ĠÐ½ÑĥÐ¶Ð½Ñĭ":8745,"ĠÑĥÐ¼ÐµÑĢÐµÐ½Ð½Ð¾":8746,"Ð½Ð¸Ð·":8747,"ĠÑĢÐ°Ñħ":8748,"ĠÐ·Ð°Ð¿Ð°Ð´Ð½Ð¾":8749,"ĠÐ´ÐµÐ½Ð¸Ñģ":8750,"ĠÐ¼Ð°ÑģÑģÐ¸Ð²":8751,"ĠÐºÐ¾Ð»ÑħÐ¾Ð·Ð°":8752,"ĠÐ´ÐµÑģÑıÑĤÑĮ":8753,"ÐµÑĢÐ½Ð¾":8754,"Ð¾Ð³ÑĢÐ°Ð¼":8755,"ĠÐºÐ°ÐºÐ°Ñı":8756,"ĠÐ²Ð²ÐµÑĢ":8757,"ĠÐ²Ð¾ÑģÐ¿Ð¸ÑĤÐ°Ð½":8758,"ÐµÑĤÐ¸":8759,"ĠÐ¾Ð±Ð¾Ð¸Ñħ":8760,"ĠÐ±ÑĥÐ»ÑĮ":8761,"ĠÐ°ÐºÑģ":8762,"Ð´Ñı":8763,"ĠÐºÐ¸Ð½Ð³":8764,"ĠÑĥÐºÐ°":8765,"ĠÑĢÐµÑģÑĤÐ°Ð²":8766,"ĠÑģÑĢÐµÐ´Ñĭ":8767,"Ð»ÑıÑĤÑĮÑģÑı":8768,"ÑĢÑıÑģ":8769,"ĠÐºÑĢÐ°Ð¹Ð½ÐµÐ¹":8770,"ĠÐ¿ÑĢÐ¸ÑĤÐ¾ÐºÐ¸":8771,"ĠÐ¾ÐºÐµÐ°Ð½":8772,"ĠÐ²ÑĭÐ·ÑĭÐ²Ð°ÐµÑĤ":8773,"ĠÐºÐ¸Ð»Ð¾Ð¼ÐµÑĤÑĢÐ°Ñħ":8774,"ĠÑĤÑĢÐ°Ð½ÑģÐº":8775,"ĠÑģÐµÐºÑģÑĥ":8776,"ĠÐ³ÑĢÐµÐ½":8777,"Ð°ÑĤÐµÐ»ÑĮÐ½Ð°Ñı":8778,"ĠÑĦÐµÐ²ÑĢÐ°Ð»ÑĮ":8779,"ĠÑģÑĤÐµÐ½Ñĭ":8780,"ĠÐ½Ð°ÑĥÑĩÐ½Ð¾Ð³Ð¾":8781,"ĠÐ¾Ð±ÑīÐµÑģÑĤÐ²ÐµÐ½Ð½Ð¾Ð³Ð¾":8782,"ĠÑģÐ»ÑĥÐ¶ÐµÐ±":8783,"Ð¼ÑĥÑĤ":8784,"ĠÑģÐ»ÑĥÐ¶Ð±Ð°":8785,"ĠÐ½ÐµÑģÐ²":8786,"ĠÑģÐµÐ½ÑĤÑıÐ±ÑĢÑĮ":8787,"ĠÑĦÑĢÐ¾Ð½ÑĤÐµ":8788,"ĠÐ¿ÑĢÐµÑģÑĤÑĥÐ¿Ð»ÐµÐ½Ð¸Ñı":8789,"ĠÑĦÐ°Ð»ÑĮ":8790,"ĠÑĢÐ°Ð±Ð¾ÑĩÐ¸Ð¹":8791,"ĠÐ¿ÑĢÐµÐ²ÑĭÑĪ":8792,"ĠÑĤÑĥÐ¿":8793,"ĠÑģÐ¾Ð´ÐµÑĢÐ¶Ð°Ñī":8794,"ĠÐ´ÐµÐºÐ°Ð±ÑĢÑĮ":8795,"ĠÑĥÑĩÑĳÐ½ÑĭÐµ":8796,"ĠÐ²Ð½Ð¸Ð¼Ð°Ð½Ð¸Ñı":8797,"ĠÐ¸ÑĢÐ¸Ð½Ð°":8798,"ĠÐ¿ÑĢÐµÑģÑĤÐ¾Ð»":8799,"ĠÑĪÐ¾ÑĤÐ»Ð°Ð½Ð´Ð¸Ð¸":8800,"ĠÑģÐ»ÐµÐ´ÑĥÑİÑīÐ¸Ñħ":8801,"ĠÑĩÐµÑħÐ¸Ð¸":8802,"ÑĪÐµÑģÑĤÐ²":8803,"ĠÐ¿ÑĢÐ¸Ð½ÐµÑģ":8804,"ĠÐ³Ð»Ð°Ð²Ð½Ð°Ñı":8805,"ĠÑĥÐºÐ°Ð·Ð°Ð½Ð¾":8806,"ĠÐ¿ÐµÑĢÑĥ":8807,"ĠÑĪÐ°ÑĪ":8808,"ĠÐ¾ÑģÐ½Ð¾Ð²Ð°Ð»":8809,"ĠÐ¾Ð±ÑıÐ·Ð°ÑĤÐµÐ»ÑĮÐ½Ð¾":8810,"ĠÐ¾Ð±ÐµÑģÐ¿ÐµÑĩÐµÐ½Ð¸Ðµ":8811,"ĠÐ³Ð¸Ð¼Ð½Ð°Ð·Ð¸Ð¸":8812,"ĠÑĪÐµÐ¹":8813,"ÐºÐ¾Ð²ÑĭÐµ":8814,"ĠÐ½Ð°ÑģÑĩÐ¸ÑĤÑĭÐ²":8815,"ĠÐ³ÐµÐ¾Ð¼ÐµÑĤ":8816,"ĠÑģÐ»ÑĥÐ¶Ð±Ðµ":8817,"ĠÑĥÐ²Ð¾Ð»":8818,"ÑĢÐ°Ð½Ð¾Ð²":8819,"ĠÐ¸Ð¾Ð°Ð½Ð½Ð°":8820,"ĠÐ¸ÐµÑĢÑĥÑģÐ°Ð»Ð¸Ð¼":8821,"Ð¼ÑĭÑģ":8822,"ĠÐ±Ð°Ð·Ð°":8823,"ĠÐ¾ÑħÑĢÐ°Ð½Ñĭ":8824,"ĠÑĢÐµÐ¿Ð»":8825,"ÐµÐ»ÑĮÐ½Ð¾Ð³Ð¾":8826,"ĠÑĩÐµÑĢÐ½Ð¾Ð¼Ð¾ÑĢ":8827,"ĠÐºÐµÐ½":8828,"Ð½Ð¾Ð²Ð¸Ð´":8829,"Ð¿ÑĢÐ¾Ð¼":8830,"ĠÐ¿ÑĢÐ¸Ð¼ÐµÑĢÑĭ":8831,"ĠÐ·ÐµÐ»ÐµÐ½":8832,"ĠÐ¿Ð¾Ð¿ÑĢÐ¾Ð±":8833,"ĠÐ¾ÑĤÐ´ÐµÐ»ÑĮÐ½Ð¾":8834,"ĠÑģÑĤÑİ":8835,"ĠÐ¸ÑİÐ»ÑĮ":8836,"ĠÐ²ÑĭÑģÑĤÐ°Ð²ÐºÐ¸":8837,"ĠÑģÐ¿ÐµÑĨÐ¸Ð°Ð»Ð¸ÑģÑĤÐ¾Ð²":8838,"ĠÐ¾ÑģÐ½Ð°Ñī":8839,"ĠÐ»ÐµÐ½Ð¸Ð½Ð³ÑĢÐ°Ð´ÑģÐºÐ¾Ð¹":8840,"ĠÐ¸Ð½Ð´ÑĥÑģÑĤ":8841,"ĠÐ¿ÑĢÐ¾Ð´Ð¾Ð»Ð¶Ð°Ð»":8842,"Ð±ÑĥÑĢÐ³Ðµ":8843,"ĠÐ¼Ð¾Ð¸":8844,"ĠÐ¸ÑģÑĤÐ¾ÑĩÐ½Ð¸ÐºÐ¾Ð¼":8845,"ĠÐ¿Ð¾Ð´Ð´ÐµÑĢÐ¶ÐºÐµ":8846,"ĠÑĢÐµÐ´Ð°ÐºÑĨÐ¸Ð¸":8847,"ĠÐµÐ²ÑĢÐ¾Ð¿ÐµÐ¹ÑģÐºÐ¾Ð¹":8848,"ĠÐ¸Ð»ÑĮÑı":8849,"ÐµÐ¼Ð¾Ðµ":8850,"ĠÐ²ÑģÐµÐ²":8851,"ĠÐ¶Ð¸ÑĢ":8852,"ĠÐ±Ð¾ÐµÐ²ÑĭÐµ":8853,"ĠÐºÐ¾Ð½ÑģÑĤÐ¸ÑĤÑĥÑĨÐ¸Ð¸":8854,"ĠÑĦÑĢÐ°Ðº":8855,"ĠÐ³Ð¾Ð²Ð¾ÑĢÐ¸Ð»":8856,"ĠÐºÐ°Ð½ÑĤÐ¾Ð½Ð°":8857,"ĠÐ¿ÑĢÐ¾Ð´ÑĥÐºÑĨÐ¸Ð¸":8858,"ĠÐ²Ð¾ÑĢÐ¾ÑĤ":8859,"ĠÑįÑĪ":8860,"ĠÐ°ÑĦÐ°Ð½":8861,"ĠÐ¿ÑĢÐ¸ÐºÐ»Ð°Ð´":8862,"Ð¾Ð»ÑĮÑģÐºÐ¾Ð¹":8863,"ĠÑģÐ¾Ð²ÑĢÐµÐ¼ÐµÐ½Ð½ÑĭÐµ":8864,"ĠÐ³Ð°Ð³":8865,"ÐµÐ²Ð¾Ð³Ð¾":8866,"ĠÐºÐ°ÑĢÐ¾Ð»":8867,"ĠÑĥÑģÑĤÑĢÐ°":8868,"ĠÐ¿ÐµÑĢÐµÐ¿ÑĢÐ°Ð²":8869,"ĠÐ²Ð¾Ð·Ð´ÑĥÑħÐ°":8870,"ĠÐºÐ°Ð»ÐµÐ½Ð´":8871,"ĠÐ±Ð»Ð¾ÐºÐ¸ÑĢÐ¾Ð²":8872,"ĠÐ°Ð±Ð´ÑĥÐ»":8873,"Ð¾ÑĢÐµÐ¶Ð¸ÑģÑģ":8874,"ĠÐ³Ð°Ð·Ð°":8875,"ĠÐ³Ð¾ÑģÑĤÐ¸Ð½":8876,"Ð°Ð¼ÐµÐ½":8877,"Ð²Ð°Ñĩ":8878,"ĠÐ²Ð¿Ð°Ð´Ð°ÐµÑĤ":8879,"ĠÐ³ÐµÐ¾ÑĢÐ³Ð¸ÐµÐ²":8880,"ĠÑģÐ¾Ð°Ð²ÑĤÐ¾ÑĢ":8881,"ĠÑĢÐµÐºÑĤ":8882,"Ð¾ÑĩÐµÐº":8883,"ĠÐ¿Ð¾Ð±ÐµÐ´Ð¸Ð»":8884,"ĠÐ½Ð¾Ð¼ÐµÑĢÐ¾Ð²":8885,"ĠÐ»ÑĥÐ³Ð°Ð½":8886,"ĠÑģÐ¾ÑģÑĢÐµÐ´":8887,"ĠÑĤÐ²Ð¾ÑĢÑĩÐµÑģÑĤÐ²Ð¾":8888,"ĠÑĢÐ¸":8889,"ĠÑģÐ¾ÑģÑĤÐ¾ÑıÐ½Ð¸Ñı":8890,"ĠÑĢÐµÐ·ÑĥÐ»ÑĮÑĤÐ°ÑĤÐ¾Ð¼":8891,"ĠÐ¸Ð½Ð´ÐµÐ¹":8892,"ĠÐ¿Ð°Ð»Ð°ÑĤÑĭ":8893,"ĠÐ¿Ð¾Ð½ÑıÑĤÐ¸Ñı":8894,"ĠÐ°Ð´Ð¼Ð¸Ð½Ð¸ÑģÑĤÑĢÐ°ÑĤÐ¾ÑĢÐ¾Ð²":8895,"ÑĳÐ½Ð½ÑĥÑİ":8896,"ĠÐ½Ð°ÑĨÐ¸Ð¾Ð½Ð°Ð»ÑĮÐ½ÑĭÑħ":8897,"ĠÐ°Ð²ÑĤÐ¾Ð¼Ð¾Ð±Ð¸Ð»ÑĮÐ½ÑĭÑħ":8898,"ĠÐ±Ð°ÑĢÑĤ":8899,"ĠÑĢÐµÐ´Ð¸":8900,"ĠÐ´Ð¶Ð¸Ð¼":8901,"ĠÐ¸Ð·Ð²ÐµÑģÑĤÐ½Ð¾ÑģÑĤÑĮ":8902,"ĠÐºÑĥÑħ":8903,"Ð±Ð¾Ð½":8904,"ĠÐ¾ÐºÐ·":8905,"ĠÐ´Ð¾ÐºÑĥÐ¼ÐµÐ½ÑĤÑĭ":8906,"ĠÐ¾Ð±ÑĪÐ¸ÑĢ":8907,"Ð»Ð°Ð¹Ð½":8908,"ĠÑħÑĢÐ¾Ð¼":8909,"Ð½Ð°Ñħ":8910,"ĠÐ²Ð¸Ð½Ð¾Ð³ÑĢÐ°Ð´":8911,"ĠÐ½ÐµÐ¸Ð·Ð²ÐµÑģÑĤÐ½Ð¾":8912,"Ð¸Ð»Ð»Ð¸":8913,"ĠÐ¿Ð¾Ð»Ð°":8914,"ĠÑģÐ¶":8915,"Ð¾ÑģÐµÐºÑģÑĥ":8916,"ĠÐ¾Ð´Ð¾Ð±":8917,"ĠÐ²Ð¾ÐµÐ½Ð½Ð¾ÑģÐ»ÑĥÐ¶":8918,"ĠÐ¼Ð¾Ð»Ð¾Ð´ÑĳÐ¶Ð½ÑĭÐµ":8919,"ÑģÑĤÐ²ÐµÐ½Ð½Ð°Ñı":8920,"ĠÐ±Ð¾Ñģ":8921,"ĠÐ·ÑĢÐ¸ÑĤÐµÐ»ÐµÐ¹":8922,"ĠÐºÐ°Ð½Ð°Ð´Ð°":8923,"ÑĥÐ·Ð°":8924,"ĠÑģÐµÐ²ÐµÑĢÑĥ":8925,"ĠÐºÐ¸ÐµÐ²Ðµ":8926,"ĠÐ²Ð¾ÑģÐµÐ¼ÑĮ":8927,"ĠÑģÐ²Ð¾ÐµÐ¼":8928,"ĠÑĢÐ¾ÑģÑģÐ¸Ñİ":8929,"ĠÐ½Ð°ÑĢÐ¾Ð´Ð½Ð°Ñı":8930,"ĠÐ³Ð»Ð°Ð²Ð½ÑĭÐµ":8931,"ĠÑģÐ¿ÐµÑĨÐ¸Ð°Ð»ÑĮÐ½Ð¾ÑģÑĤÐ¸":8932,"ĠÑĢÐ°Ð·Ð³Ð¾Ð²Ð¾ÑĢ":8933,"ĠÐ½Ð¾ÑĢÐ²ÐµÐ¶":8934,"ÑĢÑĭÐ²Ð°ÐµÑĤ":8935,"Ð²Ð°Ñı":8936,"ĠÑĩÐ¸Ð½":8937,"ÐµÑħÐ°Ð»":8938,"ĠÐ¼ÐµÑģÑĤÐ½ÑĭÐµ":8939,"ĠÐ¾Ð±ÑīÐµÑģÑĤÐ²ÐµÐ½Ð½ÑĭÑħ":8940,"ÐµÑİ":8941,"Ð¸ÑĥÐ¼":8942,"ÑĢÐ¾Ð²Ð°Ð½Ð¸Ñı":8943,"ĠÐ¼Ð¾Ðº":8944,"Ð¸Ð²ÑĪÐµÐ³Ð¾":8945,"ÐµÐ»ÑıÐ½":8946,"ĠÐ¿Ð¾ÑģÑĤÑĢÐ°Ð´":8947,"ĠÐ¾Ð¿Ð¸ÑģÐ°Ð½Ð½ÑĭÐµ":8948,"ĠÐ¿ÐµÑĢÐµÐ¸Ð¼ÐµÐ½Ð¾Ð²Ð°Ð½Ð°":8949,"ĠÑħÑĥÐ°Ð½":8950,"ÑĪÑĤÐµÐ¹Ð½":8951,"ĠÐ½ÐµÐ´Ð°Ð»ÐµÐºÐ¾":8952,"ĠÐ¿ÐµÐ²ÐµÑĨ":8953,"ĠÐ°Ð±ÑħÐ°Ð·":8954,"Ð¾Ð¿Ð°ÑĤ":8955,"ĠÐ¾ÑĩÐµÑĢ":8956,"ĠÐºÐ°Ð¶Ð´Ð°Ñı":8957,"ĠÑĥÑģÐ»ÑĥÐ³":8958,"ĠÐ¹Ð¾ÑĢÐºÐµ":8959,"ĠÐ¾Ð±Ð»Ð°Ð´Ð°ÐµÑĤ":8960,"ĠÐ¿Ð¾ÑĩÐ¸ÑĤ":8961,"ĠÐºÐ¸ÑĤÐ°Ðµ":8962,"ĠÐ´Ð¾ÑģÑĤÐ¾Ð¸Ð½":8963,"ĠÐºÐ¾Ð½ÑĨÐ¾Ð²":8964,"ĠÑģÑĤÑĢÑĥÐºÑĤÑĥÑĢÑĭ":8965,"ĠÐ¿ÑĢÐ¸ÐµÐ¼":8966,"Ð»ÑıÑħ":8967,"ĠÐ²ÐµÑĢÑģÐ¸Ñİ":8968,"ĠÐ²ÑĭÐ´ÐµÑĢÐ¶":8969,"ĠÐ¿Ð¾ÑģÐ»ÑĥÐ¶":8970,"ĠÐºÐ°Ð½ÑĨ":8971,"ĠÐ¿Ð°Ð¿Ð°":8972,"ĠÐ¾Ð±Ð¾Ð±Ñī":8973,"ĠÐ¾Ð±ÑģÑĥÐ¶Ð´Ð°":8974,"ĠÐ·Ð°ÑĢÐ°Ð±Ð¾ÑĤ":8975,"ĠÐ°Ð½Ð½":8976,"ĠÑĥÑģÑĤÐ°Ð½Ð¾Ð²Ð»ÐµÐ½Ð°":8977,"ĠÐ¿Ð¾ÐºÐ°Ð·ÑĭÐ²Ð°ÐµÑĤ":8978,"ĠÐ·Ð½Ð°ÐµÑĤ":8979,"ĠÐ´ÐµÐ¹":8980,"ĠÐ±Ð°ÑĪÐ½Ð¸":8981,"ĠÐ¿ÑĢÐ¸Ð½Ð¸Ð¼Ð°ÐµÑĤ":8982,"ĠÑĤÐ¾ÑĢÐ³Ð¾Ð²Ð»Ð¸":8983,"ĠÐ±Ð¾Ðµ":8984,"Ð¾ÑĤÐ²":8985,"ĠÑģÐ°Ð¼Ð¾Ð»ÑĳÑĤÐ¾Ð²":8986,"ĠÐ¿ÑĢÐ¾ÐµÐ·Ð´":8987,"ĠÐ¼Ð¸Ð½ÐµÑĢÐ°":8988,"ĠÑĥÑĩÑĢÐµÐ¶Ð´ÐµÐ½Ð¸Ñı":8989,"Ð¾Ð¶ÐµÑĤ":8990,"ĠÐ´Ð²Ð¸Ð³Ð°ÑĤÐµÐ»Ñı":8991,"ĠÐ²ÐµÑĢÑĤÐ¾Ð»":8992,"ĠÐ½ÐµÑĦÑĤÑı":8993,"ĠÐ¸Ð½ÑĤÐµÑĢÐµÑģÐ½Ð¾":8994,"Ð¾Ð´Ð½Ð¾":8995,"ĠÐ¼ÑĥÑĢÐ°Ð²":8996,"ĠÐ²Ð¾ÐµÐ½Ð½ÑĥÑİ":8997,"ĠÐ½Ð¾ÑģÐ¸ÑĤ":8998,"ĠÐ³Ð¸Ð¼Ð½Ð°":8999,"ĠÐ¿ÑĭÑĤÐ°Ð»ÑģÑı":9000,"ĠÐ»ÑĭÐ¶":9001,"ĠÐ·Ð¾Ð½Ð°":9002,"ĠÑĩÐ¸Ð»Ð¸":9003,"ÑĨÐ¸ÑıÐ¼Ð¸":9004,"ĠÐ¾ÑĪÐ¸Ð±ÐºÐ¸":9005,"ĠÐºÐ¾Ð¼Ð°Ð½Ð´Ð¾Ð²Ð°Ð½Ð¸Ðµ":9006,"ĠÐ¿Ð¾Ð±ÐµÑĢÐµÐ¶ÑĮÐµ":9007,"ĠÐ¸Ð·Ð³Ð½":9008,"ĠÐ¼Ð½Ð¾Ð¹":9009,"ĠÐ½Ð¸ÐºÐ°ÐºÐ¾Ð¹":9010,"ÑĥÑįÑĢ":9011,"ĠÐ·Ð°ÐºÐ°Ð½ÑĩÐ¸Ð²":9012,"ĠÐ²Ð°ÑĢÐ¸Ð°Ð½ÑĤÑĭ":9013,"ĠÐ´Ð·Ñİ":9014,"ĠÐ²ÐµÑĢÐ½ÑĥÑĤÑĮÑģÑı":9015,"ĠÐ»Ð°Ð¼":9016,"ĠÑģÐ»Ð¾Ð±Ð¾Ð´":9017,"ĠÑįÐ¼Ð¾":9018,"ĠÐºÑĥÐ¹":9019,"ĠÑĩÐ¸ÑģÐ»ÐµÐ½Ð½Ð¾ÑģÑĤÐ¸":9020,"ĠÑģÐµÑĢÐ±Ð¸Ð¸":9021,"ĠÑģÐ½Ð°Ð±":9022,"ÑįÑĤÐ°Ð¶":9023,"ĠÐ¼ÐµÑģÑĤÐ½ÑĭÐ¹":9024,"ĠÐ¿ÑĢÐ¾Ð´Ð°Ð²":9025,"ĠÑģÑĥÐ²Ð¾ÑĢ":9026,"ĠÐºÐ»Ðµ":9027,"ĠÑİÑģÑĤ":9028,"ĠÐ´Ð°Ð½Ð¸Ð¸":9029,"ĠÐ¿ÐµÑĢÐµÑģÐµÐ»":9030,"ĠÑıÐºÐ¾Ð±Ñĭ":9031,"ĠÑıÐºÐ¾Ð²Ð»ÐµÐ²Ð¸Ñĩ":9032,"ĠÐ°Ð½ÑĤÑĢÐ¾Ð¿":9033,"ĠÑĦÑĥÑĤÐ±Ð¾Ð»ÑĮÐ½ÑĭÐµ":9034,"ĠÐ´Ð¸Ð²Ð¸Ð·Ð¸Ð¾Ð½Ð°":9035,"ĠÑĤÑĢÐ°ÑģÑģ":9036,"ĠÑĢÐ¾ÑģÑĤÐ¾Ð²":9037,"ĠÑĥÑįÐ»ÑĮ":9038,"Ð¾ÐºÐ¾Ð²":9039,"ĠÑĥÐ¼ÐµÑĢÐ»Ð°":9040,"ĠÑĥÑģÐ¿ÐµÑħÐ°":9041,"ĠÐ½Ð°Ð¸Ð¼ÐµÐ½Ð¾Ð²Ð°Ð½Ð¸Ðµ":9042,"ĠÐ¿Ð°Ð»Ð¾Ð¼Ð°ÑĢ":9043,"ĠÐ¿Ð¾Ð·Ð¸ÑĨÐ¸Ñİ":9044,"ĠÐ¿Ð¾Ð²ÑģÑĤÐ°Ð½":9045,"ĠÐºÐ°Ð¶Ð´Ð¾Ð¼":9046,"ĠÐ²ÑģÑĤÑĢÐµÑĩÐ¸":9047,"ĠÐ»Ð¸Ð½Ð³Ð²Ð¸ÑģÑĤ":9048,"Ð¾Ð¿Ð°":9049,"ĠÐ±Ð°ÑĪÐ½Ñı":9050,"ÐµÐ³Ð¾Ð²":9051,"ĠÑģÐ¾ÑģÑĤÐ°Ð²Ð¸Ð»Ð°":9052,"ĠÐ³Ð¾ÑģÑĥÐ´Ð°ÑĢÑģÑĤÐ²ÐµÐ½Ð½ÑĭÐµ":9053,"ĠÐ°Ð½ÑĤÐ¸":9054,"ĠÐ½Ð°Ð¿Ð¾Ð¼Ð¸Ð½":9055,"ĠÐ·Ð°Ð½ÑıÐ²":9056,"ĠÑĥÑģÐºÐ¾ÑĢ":9057,"ĠÐ°Ð»Ð¼":9058,"ĠÐ¼Ð¾Ð±Ð¸Ð»ÑĮ":9059,"ĠÐ²ÑĭÐ¼ÑĭÑĪÐ»ÐµÐ½":9060,"ÑĥÑĤÐ¾Ñĩ":9061,"ĠÐ°Ð½Ð¸Ð¼Ðµ":9062,"ĠÐ½Ð°ÑģÑĤÑĥÐ¿Ð»ÐµÐ½Ð¸Ðµ":9063,"ĠÑĦÐ¾ÑĢÑĤÐµÐ¿Ð¸Ð°Ð½Ð¾":9064,"Ð¾Ð»Ð¾Ñģ":9065,"Ð°ÑıÐ½":9066,"ĠÑģÐ¿ÑĢÐ¾Ñģ":9067,"ÑĥÐ½ÑĮ":9068,"Ð¾ÐºÐ¾Ð¼Ð°Ð½Ð´":9069,"Ð°Ð»ÑĮÐ¿":9070,"ĠÑĥÑĩÐ°ÑģÑĤÐ¸Ð¸":9071,"ĠÐ²Ð¾Ð»ÑĭÐ½":9072,"Ð°ÑİÑīÐµÐµ":9073,"ĠÑģÐ¾Ð²ÐµÑĤÐ½Ð¸Ðº":9074,"ÑıÑīÐ°Ñı":9075,"ĠÐ¿ÐµÑĢÐµÐ²Ð¾Ð´Ðµ":9076,"ĠÐ²Ð°ÑĢÐ¸Ð°Ð½ÑĤÐ°":9077,"ĠÐ²ÑĮÐµÑĤÐ½Ð°Ð¼":9078,"ĠÑĦÐµÐ»ÑĮÐ´":9079,"Ð°Ð¼Ð±Ñĥ":9080,"ĠÐ³Ð²Ð°ÑĢÐ´ÐµÐ¹ÑģÐºÐ¾Ð¹":9081,"ĠÐºÐ¾Ð½ÑģÐµÑĢÐ²Ð°ÑĤÐ¾ÑĢÐ¸Ð¸":9082,"ĠÐ¾Ð±Ð¾ÑĢÐ¾ÑĤ":9083,"ĠÐ¿ÑĢÐµÐ´ÑģÑĤ":9084,"Ð¸ÑĢÐ¾Ð²Ð°Ð»Ð°ÑģÑĮ":9085,"ĠÑĢÑĥÑģÐ¸":9086,"ĠÐ¿ÑĢÐ¸Ð±ÑĭÐ»":9087,"ĠÐ±ÐµÑĢÐµÐ³Ð°":9088,"ĠÐ¿Ð»ÐµÐ¼ÑıÐ½":9089,"ĠÐ±Ð¾Ð³Ð°":9090,"ĠÐ·Ð°Ð²Ð¸ÑģÐ¸ÑĤ":9091,"ĠÐ±ÐµÐ»Ð³Ð¾ÑĢÐ¾Ð´":9092,"ĠÐ´Ð¸ÑģÑĤÐ°Ð½ÑĨÐ¸Ð¸":9093,"ÑĥÑĪÐºÐ¸":9094,"ĠÑĥÑģÑĤÑĢÐ°Ð½":9095,"ĠÑĥÑģÑĤÑĢÐ¾Ð¹ÑģÑĤÐ²Ð°":9096,"Ð¸Ð·Ñĭ":9097,"ĠÑĢÐ°Ð¹Ð¾Ð½Ð°Ñħ":9098,"ĠÐ·Ð¾Ð»Ð¾ÑĤÐ¾":9099,"ĠÐ³Ð¾Ð»Ð¾ÑģÐ¾Ð²Ð°Ð½Ð¸Ñı":9100,"ÑĦÐµÐ¹":9101,"ÑįÐ½Ð´":9102,"ĠÐ°Ð¼Ð±":9103,"ĠÐ¿ÑĢÐ¾ÑģÐ²":9104,"ĠÑħÐ°ÑĢÐ°ÐºÑĤÐµÑĢÐ¸ÑģÑĤÐ¸ÐºÐ¸":9105,"ĠÐ²ÑĭÐ±ÑĢÐ°Ð½":9106,"ĠÐ¿ÑĢÐ¾ÑħÐ¾Ð´ÑıÑĤ":9107,"ĠÐ¿Ð¾ÑģÑĤÐ°Ð²Ð¸Ð»":9108,"ĠÐºÑĢÑĥÑĤ":9109,"ÑģÐ¾Ð²ÐµÑĢÑĪ":9110,"ĠÐ³Ð°Ð»ÐµÑĢÐµÑı":9111,"ĠÐ½Ð°ÑģÑĤÐ°Ð²":9112,"ĠÐ»Ð¸ÑĢ":9113,"ĠÐ¸Ð·Ð»ÑĥÑĩ":9114,"ĠÐ°Ð»ÑĮÐ±Ð¾Ð¼Ð¾Ð²":9115,"ĠÑĥÐ±Ð¸Ð¹ÑģÑĤÐ²Ð¾":9116,"ĠÑĢÐµÐ·Ð¸Ð´":9117,"ĠÐºÐ·":9118,"ĠÐ´ÑĢÐ°ÑĦ":9119,"ĠÐ³ÑĢÐ°":9120,"ĠÑĤÐº":9121,"ĠÐ¸Ð·Ð´Ð°Ð²":9122,"ĠÑģÑĤÑĥÐ´ÐµÐ½ÑĩÐµ":9123,"ĠÐ²Ð¿Ð°Ð´ÐµÐ½Ð¸Ñı":9124,"Ð¸ÐºÐ°Ð¼":9125,"ĠÐ¿Ð¾Ð»Ð½Ð¾Ð¹":9126,"ĠÐ¿ÑĢÐ¸ÑĪÑĳÐ»":9127,"Ð·Ð¸Ñı":9128,"ĠÐ²Ð·ÑıÑĤÑĮ":9129,"ĠÐ¾ÑģÐ²Ð¾":9130,"ĠÐ¿Ð¾Ð´Ð½":9131,"Ð¸ÑĦÐ¸ÑĨ":9132,"ĠÐºÐ¸Ð½Ð¾Ð¿":9133,"ĠÐ¿ÐµÑĩÐ°ÑĤÐ¸":9134,"Ð°ÑĤÑĭÐ¹":9135,"ĠÑĢÐ°Ð´Ð¸Ðº":9136,"ĠÑİÐ±Ð¸Ð»ÐµÐ¹":9137,"ĠÐºÑĢÑĥ":9138,"ĠÑģÐ²ÑıÐ·Ð°Ð½Ð½ÑĭÑħ":9139,"ĠÐ¿Ð¾ÑħÐ¾Ð¶Ðµ":9140,"ĠÐ²Ð°ÑĪÐµ":9141,"ĠÐ¼ÐµÑĢÑĭ":9142,"ÑīÐ¸Ð½Ð°":9143,"ĠÐ¼Ð¸Ð½Ð¸ÑģÑĤÑĢÐ¾Ð¼":9144,"ĠÐºÐ¾Ð½ÑĤÑĢÐ¾Ð»Ñı":9145,"ĠÑĤÑĢÐ¾Ð»Ð»ÐµÐ¹":9146,"ÑĤÑĢÐ°":9147,"ĠÐ°Ð½Ð°Ð»Ð¸Ð·Ð°":9148,"ĠÑģÐ¾Ð²ÑĢÐµÐ¼ÐµÐ½Ð½ÑĭÐ¹":9149,"ĠÐºÐ°Ð»Ð¸ÑĦÐ¾ÑĢÐ½Ð¸Ñı":9150,"ĠÐ°ÑĢÐ¼Ð¸ÐµÐ¹":9151,"ĠÐ´ÐµÑĤÑģÐºÐ¸Ð¹":9152,"ĠÐ½ÐµÐ¸Ð·":9153,"Ð²Ð°ÑİÑĤ":9154,"ĠÐ°ÑĢÑĤÐ¸Ð»Ð»ÐµÑĢÐ¸Ð¸":9155,"ĠÐ³Ð¾ÑĢÐ¸Ð·Ð¾Ð½ÑĤ":9156,"Ð¸ÑĤÐµÐ»ÑĮÐ½ÑĭÐ¼Ð¸":9157,"ĠÑģÐµÑĢÐ³ÐµÑı":9158,"ĠÐ²ÐµÑģÑĤÐ½Ð¸Ðº":9159,"Ð¸ÑĢÐ¾Ð²Ð°Ð»Ð¸ÑģÑĮ":9160,"ĠÐ¾Ð±ÑīÐµ":9161,"ĠÑģÑĥÑīÐµÑģÑĤÐ²ÐµÐ½Ð½Ð¾":9162,"ÐµÐ½Ð¾Ñģ":9163,"Ð¾Ð¿Ð¾Ð´":9164,"ĠÐ¾Ð±ÑīÐ¸Ð¼":9165,"ĠÐ»ÑĥÐºÐ°":9166,"Ð¸Ð²ÑĪÐ¸Ð¼":9167,"ĠÐ½Ð°Ð½ÐµÑģ":9168,"ÑģÐ²":9169,"ĠÐ²ÑĭÐ½Ð¾Ñģ":9170,"ĠÐ¾ÑģÐ½Ð¾Ð²Ñĭ":9171,"ĠÑģÐ¾ÑģÑĤÐ¾ÑıÐ»Ð¾ÑģÑĮ":9172,"Ð¾Ð¸":9173,"ĠÐºÑĢÐµÑģÑĤÐ°":9174,"ĠÐ·Ð´ÑĢÐ°Ð²Ð¾Ð¾ÑħÑĢÐ°Ð½":9175,"ĠÐ°ÑįÑĢÐ¾Ð´ÑĢÐ¾Ð¼":9176,"ĠÑıÐ¿Ð¾Ð½ÑģÐºÐ¾Ð¹":9177,"ĠÐ¾ÑĢÑĥÐ´Ð¸Ð¹":9178,"Ð°ÑĢÐ¸Ð¸":9179,"Ð¾Ð·Ñĭ":9180,"Ð³Ð¾Ð½":9181,"ĠÐ¸Ð¼ÐµÐ²":9182,"ĠÐ¿Ð°ÑĢÑĭ":9183,"ĠÐ¶ÐµÐ½Ð¾Ð¹":9184,"ĠÐ¼ÑĥÐ½Ð¸ÑĨÐ¸Ð¿Ð°Ð»ÑĮÐ½ÑĭÐµ":9185,"ĠÑĩÐµÐ¼Ñĥ":9186,"ĠÐ²Ð¸ÐºÐ¸Ð¿ÐµÐ´Ð¸Ñİ":9187,"ĠÐºÐ°Ð»ÑĥÐ¶":9188,"ĠÐ¿ÑĢÐ¾ÑģÑĤÑĢÐ°Ð½ÑģÑĤÐ²Ð°":9189,"ĠÐ¼ÑıÑĤ":9190,"Ð½Ð°ÑĩÐ°Ð»Ð¾":9191,"ĠÐ¾Ð´Ð½Ð¾Ð·Ð½Ð°Ñĩ":9192,"Ð»ÐµÐ½Ð½Ð°Ñı":9193,"ĠÐ´Ð¾Ð»Ð³Ð¾Ðµ":9194,"ĠÑģÑĤÐ¾Ð¸Ð¼Ð¾ÑģÑĤÑĮ":9195,"ĠÐ²Ð·Ð²":9196,"ĠÐ¿ÑĢÐµÐ´ÑĭÐ´ÑĥÑīÐµÐ³Ð¾":9197,"ĠÐ°Ð½ÑĤÐ¾Ð½Ð¸Ð¾":9198,"ĠÑĥÐºÑĢÐ°Ð¸Ð½ÑģÐºÐ°Ñı":9199,"ĠÑģÑĤÐ¾Ð»Ð¸ÑĨÑĭ":9200,"ĠÐ¿ÑĢÐµÐ´ÑģÑĤÐ°Ð²Ð»ÑıÑİÑĤ":9201,"ĠÐ¿Ð¾Ð·Ð²Ð¾Ð»Ñı":9202,"Ð°Ð½ÑģÐºÐ¾Ð¼":9203,"ĠÐ¾Ð±Ð¾Ð»":9204,"ĠÐ¾ÐºÑģ":9205,"ĠÐ°Ð¿ÑĢÐµÐ»ÑĮ":9206,"ĠÑĤÑĢÐ°Ð¼Ð²Ð°Ð¹":9207,"ĠÐ²ÐµÐ´ÑĳÑĤ":9208,"ĠÐ½Ð¾Ð¼ÐµÑĢÐ¾Ð¼":9209,"ĠÑıÑģÐ½Ð¾":9210,"ĠÐ¸Ð¾Ð°Ð½Ð½":9211,"ĠÐ¿Ð¾Ð´Ð²ÐµÐ´ÐµÐ½":9212,"ĠÐºÑĢÐ°ÐµÐ²ÐµÐ´":9213,"ĠÐ°ÑģÑĤÑĢÐ°Ñħ":9214,"ĠÐ¿ÑĢÐ¾Ð¸Ð·Ð²ÐµÐ´ÑĳÐ½":9215,"ĠÐ´Ð¾Ð»Ð³Ð¾":9216,"ĠÐ²Ð¾Ð¿ÑĢÐ¾ÑģÐ°":9217,"ĠÐ¼ÐµÐ¶Ð´ÑĥÐ½Ð°ÑĢÐ¾Ð´Ð½Ð¾Ð¼":9218,"ĠÐ²Ð°ÑĪÐ¸Ð½Ð³ÑĤÐ¾Ð½":9219,"ĠÐ³ÑĢÑĥÐ½":9220,"Ð°Ð²ÐºÐ°Ð·":9221,"ĠÐµÐ´Ð¸Ð½Ð¸ÑĨÐ°":9222,"ĠÐ²Ð¾Ð²ÑģÐµ":9223,"ÑĢÐ°ÑĢ":9224,"ĠÑĦÐ¾Ðº":9225,"ÑĥÑīÐ¸Ñħ":9226,"ĠÑĢÐ°Ð·Ð²Ð¸ÑĤÐ¸Ñİ":9227,"ĠÑĦÑĥ":9228,"ĠÐ´Ð¸Ð·Ð°Ð¹Ð½":9229,"ĠÐ¿ÐµÐ½ÑģÐ¸Ð¾Ð½":9230,"ĠÑģÑĤÐ²Ð¾Ð»":9231,"ĠÐ³Ð¾ÑĢÑıÑĩ":9232,"ĠÐ½ÐµÐ´ÐµÐ»ÑĮ":9233,"ĠÐ¼Ð¾ÑīÐ½Ð¾ÑģÑĤÑĮ":9234,"ĠÐ½Ð°Ð¾Ð±Ð¾ÑĢÐ¾ÑĤ":9235,"ĠÐ°ÑģÑģÐ¸ÑģÑĤ":9236,"ĠÐ»ÐµÑĤÐ¸Ñı":9237,"Ð°ÑİÑīÐ¸ÑħÑģÑı":9238,"ĠÐºÐ¾Ð½ÑĤÐ¸Ð½ÐµÐ½ÑĤÐ°Ð»ÑĮÐ½ÑĭÐ¹":9239,"ĠÐºÐ¸Ð±":9240,"Ð¸Ð¼ÑĭÑħ":9241,"ĠÑģÑĤÐ¾Ðº":9242,"ĠÑĩÐµÑĤÐ²ÐµÑĢÑĤÑĮ":9243,"ĠÑģÑİÑĢ":9244,"Ð¶Ñĥ":9245,"ĠÑĩÐµÐ¼Ð¿Ð¸Ð¾Ð½Ð°":9246,"ĠÐ±ÑĢÐ°ÐºÐ°":9247,"ÑĦÐ¸Ð»ÑĮÐ¼":9248,"ĠÐ²ÐµÑĤÐµ":9249,"ĠÑĤÑĢÐµÐ¼Ñı":9250,"Ð¾Ð»ÑĮÐ½ÑĭÐ¹":9251,"ĠÐ¿ÐµÑĢÐ¸Ð¾Ð´Ð½Ð°ÑĩÐ°Ð»Ð¾":9252,"ĠÐ±Ð°Ð·Ñĭ":9253,"ÑĥÐ»ÑĮÑĦ":9254,"ĠÑĢÐµÐ·ÐºÐ¾":9255,"ĠÐ¿ÑĢÐ¾ÑĩÐ¸ÑĤ":9256,"ĠÑĨÐµÑħ":9257,"ĠÐ»ÑĥÑĩÑĪÑĥÑİ":9258,"ĠÐ¿ÑĢÐ¸Ð½Ð¸Ð¼Ð°ÑĤÑĮ":9259,"ĠÐ·Ð°Ð¿Ð°Ð´Ð°":9260,"ĠÐ³ÑĢÐ°Ð½Ð¸ÑĨÐµ":9261,"ĠÐ²ÑĭÑĪÐ»Ð¸":9262,"ĠÐ°Ð²Ð¸Ð°ÑĨÐ¸Ð¾Ð½Ð½ÑĭÐ¹":9263,"ĠÑĥÐ±Ð¸Ð¹ÑģÑĤÐ²Ð°":9264,"ĠÐ¿ÑĢÐµÐ´Ð¿Ð¾Ð»Ð¾Ð¶Ð¸ÑĤÐµÐ»ÑĮÐ½Ð¾":9265,"ĠÐ¿ÑĢÑĥÑģ":9266,"ĠÐ¸Ð³Ð½":9267,"ĠÐ³ÐµÐ¾Ð³ÑĢÐ°ÑĦÐ¸Ñı":9268,"ĠÐ±ÑĥÐºÐ²Ñĭ":9269,"ĠÐ¿Ð¸Ð¾Ð½":9270,"Ð°Ð½Ñĥ":9271,"ĠÐºÐ¾ÑĢÐ¾Ð½":9272,"ĠÐ±Ð¸Ð¾Ð³ÑĢÐ°ÑĦÐ¸Ð¸":9273,"ĠÑĤÑıÐ¶ÐµÐ»":9274,"ĠÐ³ÐµÑĢÑĨÐ¾Ð³Ð°":9275,"ĠÐ¼Ð²Ð´":9276,"Ð·ÑĭÐ²Ð°ÑĤÑĮ":9277,"Ð»ÑĥÑĪ":9278,"Ð¾Ð¿Ð¸Ñģ":9279,"ĠÐ´Ð¾ÐºÑĥÐ¼ÐµÐ½ÑĤÐ¾Ð²":9280,"ĠÐ¿ÑĢÐ¸ÐµÑħ":9281,"ĠÑģÐ¼Ð¸ÑĤ":9282,"ĠÑħÐ¸Ð¼Ð¸Ð¸":9283,"ĠÐ±ÑĥÐ´ÑĥÑīÐµÐ³Ð¾":9284,"Ð°Ð²ÑĪÐ¸Ð¹ÑģÑı":9285,"ĠÑĤÐµÑĢÐ¼":9286,"ĠÐ²Ð¾Ð¾ÑĢÑĥÐ¶ÐµÐ½Ð¸Ðµ":9287,"ĠÐ±ÑİÐ´Ð¶ÐµÑĤ":9288,"ĠÐºÐ°ÑĦÐµÐ´ÑĢÐ¾Ð¹":9289,"ĠÐ´Ð¸ÑģÐ¿":9290,"ĠÐ³Ð¾Ð³":9291,"ĠÐ¿ÑĢÐ¾ÑĦÐµÑģÑģÐ¸Ð¾Ð½Ð°Ð»ÑĮÐ½ÑĭÐ¹":9292,"ĠÐ´Ð¾Ð¼ÐµÐ½":9293,"ĠÐ»ÐµÑĤÐ½Ð¸Ð¹":9294,"ĠÐ¼Ð¾Ñģ":9295,"ÐµÐ´Ð¸Ð¸":9296,"Ð¸ÑģÑĤÐ°Ð¼Ð¸":9297,"ĠÑĢÐ°ÑģÑĦÐ¾ÑĢÐ¼":9298,"ĠÐ·Ð¸Ð¼Ð¾Ð¹":9299,"ĠÐ±ÑĢÐµÑģÑĤ":9300,"Ð°Ð³Ð¸":9301,"ĠÐ¼ÑĥÐ·ÑĭÐºÐ°Ð»ÑĮÐ½Ð¾Ð¹":9302,"ĠÐ²ÐµÑīÐµÑģÑĤÐ²":9303,"ÑĥÐ½Ð¸":9304,"ĠÑģÑĬÐµÐ·Ð´":9305,"Ð¾Ð»Ñĩ":9306,"ÐµÐ»ÐµÑĤ":9307,"ĠÑĩÐµÑĢÐ½Ð¾Ð²":9308,"ĠÐºÑĢÐ¸ÑĤÐ¸ÐºÐ°":9309,"ĠÑģÐ´ÐµÐ»Ð°Ð½Ð¾":9310,"Ð°Ð¼Ð¸Ð½":9311,"ĠÐ¾ÑģÑĤÐ°Ð»Ð¾ÑģÑĮ":9312,"ĠÐ²Ð°ÑĪÐ¸":9313,"ĠÐ½Ð°Ð¹Ð´ÐµÐ½":9314,"ĠÑįÑģÑĤÐ¾Ð½":9315,"ĠÐ½ÐµÑĢÐ²":9316,"ĠÐ¿Ð°Ð¼ÑıÑĤÐ½Ð¸ÐºÐ¾Ð²":9317,"ĠÐ²Ð¾Ð·Ð²ÑĭÑĪ":9318,"ĠÐ²Ð¾Ð»ÐµÐ¹Ð±Ð¾Ð»":9319,"ĠÐ³Ð»Ð¸Ð½":9320,"ĠÑĦÐ°Ð·":9321,"ÐµÐ¼ÑĭÐ¼":9322,"ĠÑĤÐµÐ»ÐµÑģÐµÑĢÐ¸Ð°Ð»Ñĭ":9323,"ĠÐ¿Ð¾Ð²ÐµÐ´ÐµÐ½Ð¸Ðµ":9324,"ĠÑģÑĩÐ¸ÑĤÐ°Ð»":9325,"ĠÑįÑĢÐ¸Ðº":9326,"ĠÐ¾Ð¹":9327,"ĠÐ¼Ð½Ð¾Ð³Ð¾Ð»ÐµÑĤ":9328,"ĠÐ¾Ð¿Ñĭ":9329,"Ð¼Ð¸Ð½Ñĭ":9330,"ĠÑģÐµÐ²ÐµÑĢÐ°":9331,"ĠÐ±ÑĢÐ°Ð·Ð¸Ð»Ð¸Ñı":9332,"Ð²Ð¸ÑĤ":9333,"ĠÑĩÐµÐ»ÑıÐ±":9334,"Ð°ÑĢÐ½ÑĭÐ¹":9335,"ĠÐºÐ¾ÑĢÑģ":9336,"ĠÐ¿ÑĢÐµÐ´ÑģÑĤÐ°Ð²Ð»ÐµÐ½Ð¸Ñı":9337,"ÑıÑīÐ¸ÑħÑģÑı":9338,"ĠÐ¿Ð°Ð½ÑĤ":9339,"ĠÑĢÐ¾ÑĤÑĭ":9340,"ĠÐ¼Ð¾ÑĢÑģÐºÐ¸Ñħ":9341,"ĠÑģÑĤÑĢÐ¾Ð³":9342,"ĠÑĢÐ°Ð½Ð³Ð°":9343,"ÑĥÐ½ÑĤ":9344,"ĠÐ¼Ð¾Ð½ÐµÑĤÑĭ":9345,"ĠÐºÑĢÑĥÐ³Ð»":9346,"ĠÑĨÐµÐ»ÑıÑħ":9347,"ĠÑģÐ¾ÑģÑĢÐµÐ´Ð¾ÑĤÐ¾Ñĩ":9348,"ĠÐ½Ð¾ÑĤ":9349,"ĠÑĦÐ¾ÑĢÐ¼Ð°ÑĤ":9350,"ĠÐ¼Ð°Ð»ÑĭÐ¹":9351,"ĠÑĥÑģÑĤÐ°Ð½Ð¾Ð²ÐºÐ¸":9352,"ĠÑįÐºÑģÐ¿Ð»ÑĥÐ°ÑĤÐ°ÑĨÐ¸Ð¸":9353,"Ð¾ÑģÐ¾Ð¼":9354,"ĠÑħÐ¼ÐµÐ»ÑĮ":9355,"ĠÐºÐ°ÑĤÐ¾Ð»Ð¸ÑĩÐµÑģÐºÐ¾Ð¹":9356,"Ð²Ð¾Ð¹":9357,"Ð¾Ð²Ñĥ":9358,"Ð¸Ð»Ð¸Ñİ":9359,"ĠÐ²ÑĭÐ²ÐµÐ´":9360,"ÑĥÑĢÑģ":9361,"ĠÐ¸ÑģÑĤÐ¸Ð½":9362,"ĠÐµÑĦ":9363,"ĠÐ²ÐµÐ»Ð¸ÑĩÐ¸Ð½Ð°":9364,"ÑģÑĤÐ²Ð°Ð¼Ð¸":9365,"ĠÑĤÑĢÐµÑĥÐ³Ð¾Ð»ÑĮ":9366,"ĠÑĤÐµÐºÑģÑĤÐµ":9367,"ĠÐºÐ¾ÑĢÐ¿Ð¾ÑĢÐ°":9368,"ĠÐ¸Ð½ÑĤÐµÐ½Ñģ":9369,"ĠÐ¿ÑĢÐ¾Ð¶Ð¸Ð²Ð°Ð»Ð¸":9370,"ĠÐ³ÑĥÐ¼Ð°Ð½Ð¸ÑĤÐ°ÑĢ":9371,"ĠÐ¿ÑĢÐµÑĦÐµÐºÑĤ":9372,"ĠÐ´Ð¾ÑģÑĤÐ¾Ð²ÐµÑĢ":9373,"ÐºÐµÐ½":9374,"ĠÐ¾ÑĤÑĢÐ°":9375,"ĠÐ¸ÑģÐ¿Ð°Ð½ÑģÐºÐ¸Ð¹":9376,"ĠÑĨÐ¸ÑĦÑĢÐ¾Ð²":9377,"ĠÑĦÐ¸Ð·Ð¸":9378,"Ð¾Ð½Ð°Ñħ":9379,"ĠÑĨÐ¸Ð»":9380,"ĠÑģÐ»ÑĥÑħ":9381,"ĠÐ¿Ð¾Ð»ÑĥÑĩÐ°ÐµÑĤÑģÑı":9382,"ĠÐºÑĥÑĢÑģÑĭ":9383,"ĠÑģÐ¾Ð·Ð´Ð°Ð½Ð¸Ñİ":9384,"ĠÐ¿ÑĢÐ¾Ð¸Ð·Ð²ÐµÐ´ÐµÐ½Ð¸Ðµ":9385,"ĠÑģÐ¿ÐµÑĨÐ¸Ð°Ð»ÑĮÐ½ÑĭÐ¹":9386,"ĠÐ¿ÑģÐ¸ÑħÐ¸Ð°ÑĤ":9387,"ĠÐ¶Ð¸ÑĤÑĮ":9388,"ĠÐ±Ð°Ð»ÐµÑĤÐ°":9389,"ĠÐ²ÑħÐ¾Ð´Ð¸Ð»Ð¸":9390,"ĠÐ»ÑĥÐ¶":9391,"ĠÑģÑĤÐ°Ð½ÐµÑĤ":9392,"ĠÑİÐ¶Ð½Ð¾Ð³Ð¾":9393,"ĠÐ´Ð°Ð²Ð»ÐµÐ½Ð¸Ðµ":9394,"ĠÑģÐ¸Ð½ÑĤÐµÐ·":9395,"ĠÐ²Ð°Ð²":9396,"ĠÐ¿ÑĢÐµÐ´ÑģÑĤÐ°Ð²Ð»ÐµÐ½Ð°":9397,"ĠÐ²Ð¾Ð´Ð°":9398,"ĠÑģÐ¾Ð³Ð»Ð°ÑĪÐµÐ½Ð¸Ðµ":9399,"ĠÐ°ÑģÐ¿Ð¸":9400,"ĠÑĤÐ¸ÑĤÑĥ":9401,"ÑĭÑĪÐµÐ²":9402,"ĠÐ»ÐµÐ²Ð¾Ð¼":9403,"ĠÐ¿ÑĢÐ¾ÑĦÐµÑģÑģÐ¾ÑĢÐ¾Ð¼":9404,"ÑĥÑģÐ¸":9405,"ĠÑģÐ¿Ð°Ð¼":9406,"ÐµÐ¿ÑĤ":9407,"ÑıÐ»ÑģÑı":9408,"ĠÐ¿ÑĥÐ±Ð»Ð¸ÑĨÐ¸ÑģÑĤ":9409,"ĠÐºÐ¾Ð³":9410,"ĠÑĪÑĤÐ°ÑĤÐµ":9411,"ĠÐ´ÐµÐ²ÑĥÑĪÐºÐ°":9412,"ĠÑģÐµÐ´ÑĮÐ¼":9413,"ĠÐ¿ÑĢÐ°ÐºÑĤÐ¸ÐºÐµ":9414,"ĠÐ½ÐµÐ·Ð°Ð²Ð¸ÑģÐ¸Ð¼ÑĭÑħ":9415,"ĠÐ¼ÐµÐºÑģÐ¸ÐºÐ°Ð½":9416,"ÐºÑĥÑĪ":9417,"ĠÐºÐ¾Ð½ÑĨÐµÑĢ":9418,"Ð»Ð¸Ð·Ð¸":9419,"ĠÐ°Ð¼ÐµÑĢÐ¸ÐºÐ°Ð½ÑģÐºÐ¸Ñħ":9420,"ÑıÑĤÐ¾Ð¹":9421,"ĠÐ±Ð¾Ð³Ð´":9422,"ĠÐ¿ÑĢÐµÐ´ÐµÐ»Ð°Ð¼Ð¸":9423,"ĠÑĦÐ¾Ð»ÑĮÐºÐ»":9424,"ÐºÐ¾Ð»ÑĮ":9425,"ĠÐ¿Ð¸Ð°Ð½":9426,"ĠÐ¼Ð¸Ñĩ":9427,"ĠÑĢÐ°Ð·ÑĢÐµÑĪÐµÐ½Ð¸Ðµ":9428,"ĠÐ¾Ð¿Ð¾ÑĢ":9429,"ĠÑĢÐ°Ð´Ð¸Ð¾ÑģÑĤÐ°Ð½":9430,"ĠÑĥÐ²Ð¸Ð´ÐµÑĤÑĮ":9431,"ĠÐ¾Ð´Ðµ":9432,"ĠÐ½Ð¾Ð²Ð¾ÑĢ":9433,"ĠÐ¿Ð¾Ð¿ÑĢÐ¾Ñģ":9434,"ĠÐ¶Ð¸Ð²ÑĳÑĤ":9435,"ĠÐ¸Ð½ÑĤÐµÐ»Ð»ÐµÐºÑĤ":9436,"ĠÐ¾ÐºÐ°Ð·Ð°Ð»Ð¸ÑģÑĮ":9437,"ĠÐ¿Ð¾Ð³ÑĢÐµÐ±":9438,"ĠÐ¿ÑĢÐ°Ð·Ð´Ð½Ð¸Ðº":9439,"ĠÑĥÑĩÐµÐ±Ð½ÑĭÑħ":9440,"ĠÐ±ÑĢÐ°ÑĤÑĮÐµÐ²":9441,"Ð»Ð°Ñĩ":9442,"ÑĢÐ¾Ð¿ÐµÑĤÑĢÐ¾Ð²":9443,"ĠÐ¶ÐµÐ»ÐµÐ·Ð½Ð¾Ð´Ð¾ÑĢÐ¾Ð¶Ð½Ð¾Ð¹":9444,"ĠÐ»ÐµÐºÐ°ÑĢ":9445,"ĠÐ»ÑİÐºÑģ":9446,"ĠÐ¿Ð¾Ð·Ð½":9447,"ĠÑĩÐµÐ¼Ð¿Ð¸Ð¾Ð½Ð°ÑĤÐ¾Ð²":9448,"ĠÐ³ÐµÐ½ÐµÑĤ":9449,"ĠÑĤÑĢÐµÑĤÑĮÐµ":9450,"ĠÐ¾ÐºÐµÐ°Ð½Ð°":9451,"ÐµÑĢÐ°Ð»ÑĮÐ´":9452,"ĠÑģÑĤÐ¸Ð»Ñı":9453,"ĠÑĦÑĳÐ´Ð¾ÑĢÐ¾Ð²":9454,"ĠÐ±ÐµÑģÐ¿Ð»Ð°ÑĤ":9455,"ĠÐ²ÐµÐ´ÑĥÑīÐ¸Ñħ":9456,"ĠÑĢÑıÐ´Ðµ":9457,"ĠÐ½Ð°Ð·Ð²Ð°Ð½Ð¸Ð¹":9458,"ĠÐ»ÑİÐ´Ð²Ð¸Ð³":9459,"ĠÐ¿Ð¾ÑĤÐµÑĢÐ¿":9460,"ÑĩÐµÑģÐºÐ¾Ð¹":9461,"Ð°Ð»Ð¸Ð·Ð°ÑĨÐ¸Ð¸":9462,"ĠÐ¸Ð¼Ð¿ÐµÑĢÐ°ÑĤÐ¾ÑĢÑģÐºÐ¾Ð³Ð¾":9463,"ÑĢÐ¸Ð¼":9464,"ĠÐ»Ð¾Ð·":9465,"ĠÐºÐ°Ð¿Ð¸ÑĤÐ°Ð½Ð°":9466,"ĠÐ°Ð½Ð°ÑģÑĤ":9467,"ĠÐ´Ð¸ÑĢÐ¸Ð¶ÑĳÑĢ":9468,"Ð¸ÑĨÐ¸ÐµÐ¹":9469,"ĠÐ°Ð½Ð´ÑĢÐµÑı":9470,"ĠÑĤÐµÑĢÐ°Ð¿":9471,"ĠÐ°Ð¼ÑĥÑĢ":9472,"ĠÑģÐ»Ð¾Ð¶Ð½Ð¾ÑģÑĤÐ¸":9473,"ĠÐ·ÐµÑĢÐº":9474,"ĠÑĢÐµÐ°Ð»":9475,"Ð»ÐµÐ½Ð½Ð¾Ð³Ð¾":9476,"ĠÐ´Ð½ÐµÐ¿ÑĢÐ¾Ð¿ÐµÑĤÑĢÐ¾Ð²":9477,"ĠÐ¼Ð°ÑģÑĪÑĤÐ°Ð±":9478,"ĠÐ¿ÑĢÐµÐ²Ð¾ÑģÑħÐ¾Ð´":9479,"ĠÐ¸Ð´ÐµÑĤ":9480,"ĠÑĢÐ°Ð·Ð¼ÐµÑĢÑĭ":9481,"ĠÐ¾ÑĤÐµÑĩÐµÑģÑĤÐ²ÐµÐ½Ð½Ð°Ñı":9482,"Ð¸Ð»Ð¸Ð·Ð°ÑĨÐ¸Ð¸":9483,"ĠÐ°ÐºÑĤÐ¸Ð²Ð½ÑĭÑħ":9484,"ĠÐ²Ð¾ÑģÑĤÐ¾ÑĩÐ½ÑĭÐ¹":9485,"ĠÐ´ÑĥÑħÐ¾Ð²Ð½Ð¾Ð¹":9486,"ĠÑģÑĥÑī":9487,"Ð°ÑĢÐºÐ°":9488,"ĠÐºÐ»Ð°Ð²Ð¸ÑĪ":9489,"ĠÐ¿Ð»Ñı":9490,"ĠÑģÑĤÑĢÐ°Ð½Ñĥ":9491,"ĠÑģÐ¾ÑģÑĤÐ°Ð²Ð»ÑıÑİÑĤ":9492,"ĠÐºÐ¾Ð½ÐºÑĥÑĢÑģÐµ":9493,"ĠÐ¿ÑĢÐµÐ´Ð²Ð°ÑĢÐ¸ÑĤÐµÐ»ÑĮÐ½ÑĭÐ¹":9494,"ĠÐ´ÑıÐ´":9495,"Ð¸Ð¼ÑĭÐµ":9496,"ĠÑħÐ°Ð½Ð°":9497,"Ð°Ð»Ð¸ÑĦÐ¸ÑĨ":9498,"ĠÐ¿ÐµÑĢÐµÐ¹":9499,"Ð¸Ð´Ð·Ðµ":9500,"ĠÑģÐµÑĢÐ¸Ñİ":9501,"ĠÐ¿ÑĢÐ¾Ð²ÐµÑģÑĤÐ¸":9502,"ĠÑģÑĤÐ°ÑĢÑĪÐµÐ³Ð¾":9503,"ĠÑįÑģÐºÐ°Ð´ÑĢ":9504,"ĠÐ¿ÑĤÐ¸ÑĨÑĭ":9505,"ĠÑģÐ¾Ð·Ð´Ð°Ð²Ð°ÑĤÑĮ":9506,"ĠÑģÐ¾Ð´ÐµÑĢÐ¶Ð°Ð½Ð¸Ñı":9507,"ĠÐ½ÐµÐ¾Ð±ÑħÐ¾Ð´Ð¸Ð¼Ð¾ÑģÑĤÑĮ":9508,"ĠÐ¼Ð°Ð½Ñĩ":9509,"Ð¼Ð¸ÑĢÐ°":9510,"ĠÑĢÐ°ÑģÑģÐºÐ°Ð·ÑĭÐ²Ð°ÐµÑĤ":9511,"ĠÐ¶ÐµÑĢ":9512,"ĠÐ½ÐµÐ·Ð°Ð²Ð¸ÑģÐ¸Ð¼Ð¾ÑģÑĤÑĮ":9513,"ĠÐ²Ð°Ñħ":9514,"ĠÐ´Ð¾Ð¿Ð¾Ð»Ð½Ð¸ÑĤÐµÐ»ÑĮÐ½ÑĭÐµ":9515,"Ð°Ð²ÑĪÐ¸Ð¼":9516,"ĠÐ´Ð¶Ð°Ð½":9517,"ĠÐ¿ÑĢÐ¸Ð±ÑĭÐ»ÑĮ":9518,"ĠÐ²ÑĭÐ³Ð»ÑıÐ´Ð¸ÑĤ":9519,"ĠÑĥÐ¿Ð¾Ð¼Ð¸Ð½Ð°Ð½Ð¸Ñı":9520,"ĠÐ¿ÑĢÐµÐ´Ð¾ÑĤÐ²":9521,"ĠÐ·Ð°Ð¿ÑĥÑģÐº":9522,"ĠÐ¿Ð¾Ð²ÐµÑģÑĤÑĮ":9523,"ĠÑĢÐ°ÑģÐ¿Ð¾Ð»Ð¾Ð¶ÐµÐ½Ð½ÑĭÐ¹":9524,"ĠÐ¸ÑģÐºÐ°ÑĤÑĮ":9525,"ĠÑģÑĥÑīÐµÑģÑĤÐ²Ð¾Ð²Ð°Ð²":9526,"ĠÐ½Ð°Ð¿Ð¸ÑģÐ°Ð½Ð¸Ñı":9527,"ĠÑĤÐ°ÑĥÐ½":9528,"ĠÑĢÐ¸Ð²":9529,"Ð¾Ð²ÐµÑī":9530,"ĠÐ°ÑĢÐ°":9531,"ĠÐ°ÑĢÑģÐµÐ½":9532,"ĠÐ¾Ð¿Ð¿Ð¾Ð½":9533,"ĠÑģÐ»ÐµÐ´Ð¾Ð²Ð°ÑĤÐµÐ»ÑĮ":9534,"ĠÑģÐ²ÐµÑĢÑħÑĥ":9535,"ĠÐ²Ð¸ÑĢÑĥ":9536,"ĠÐ³ÑĢÐ¾Ð´":9537,"ĠÑĤÐ¸Ð³":9538,"Ð¾Ð½ÑģÑĤÑĢ":9539,"ĠÑĢÐµÐ¶Ð¸Ð¼Ðµ":9540,"Ð¸Ð¼ÐµÑĩ":9541,"ĠÐºÐ°ÑģÐ¿":9542,"ĠÐ½Ð°Ð·Ð²Ð°ÑĤÑĮ":9543,"ĠÑįÐºÐ¾Ð½Ð¾Ð¼Ð¸ÐºÐ°":9544,"ĠÐ¿ÐµÑĤÐµÑĢÐ±ÑĥÑĢÐ³ÑģÐºÐ¾Ð¹":9545,"ÑĪÐµÐµÑģÑı":9546,"Ð¾ÑĤÐµÑħÐ½":9547,"ĠÑĥÐ±ÐµÐ¶Ð´":9548,"ĠÐ¿Ð°ÑĢÑĥ":9549,"ĠÑĢÐ°Ð·Ð²Ðµ":9550,"ĠÑĦÐ¾ÑĢÐ¼ÑĥÐ»Ð°":9551,"ĠÐ¿ÐµÑĢÑģÐ¾Ð½Ð°Ð¶Ð°":9552,"ĠÑĦÐµÑĢÐ½Ð°Ð½Ð´":9553,"ĠÐºÑĳÑĢ":9554,"ĠÐ²Ð°Ð½Ð´Ð°Ð»Ð¸Ð·Ð¼":9555,"ĠÐ½ÑĥÐ¶ÐµÐ½":9556,"ĠÐ¿ÐµÑĢÐ¸Ð¾Ð´ÐºÐ¾Ð½ÐµÑĨ":9557,"ĠÑĥÑĩÐ°ÑģÑĤÐ²Ð¾Ð²Ð°Ð»Ð°":9558,"ĠÐ³Ð¸Ð´ÑĢÐ¾":9559,"ĠÐ¿Ð¾ÑįÑĤÐ°":9560,"ĠÐ·Ð°Ð³ÑĢÑĥÐ·":9561,"Ð¿Ð¸":9562,"ĠÐ½Ð°ÑĪÐ¸":9563,"ĠÐ½ÐºÐ²Ð´":9564,"ÑĳÐ»ÑĮ":9565,"ĠÑĤÐ¾Ð¼Ð°":9566,"ĠÐ¸Ð·Ð¾Ð±ÑĢÐ°Ð·":9567,"ĠÐ´ÐµÑıÑĤÐµÐ»ÑĮÐ½Ð¾ÑģÑĤÑĮÑİ":9568,"Ð¸Ð·Ð´Ð°ÑĤ":9569,"ĠÐ´Ð¾Ð»Ñı":9570,"ĠÐ¾Ð±ÑĢÐ°Ð·Ð¾Ð²Ð°Ð½Ð¸Ð¹":9571,"ĠÐ¸ÑģÑĤÐ¾ÑĢÐ¸ÐºÐ¸":9572,"ĠÐ»ÑĥÐ³":9573,"ĠÑĨÐµÐ½Ð·":9574,"ĠÑĢÐ°Ð±Ð¾ÑĤÐ¾Ð¹":9575,"ĠÐ¼Ð¾Ñħ":9576,"ĠÐ¿ÑĢÐ¾ÑħÐ¾Ð´Ð¸Ð»Ð¸":9577,"ÑĪÐµÐ±":9578,"Ð°Ð¹ÑģÐºÐ¸Ð¹":9579,"ĠÑģÐ»ÑĭÑĪ":9580,"ĠÐºÐ»Ð°ÑģÑģÐ¾Ð²":9581,"ĠÐ¿ÑĥÑĪÐºÐ¸Ð½Ð°":9582,"ĠÐ¸ÑİÐ½ÑĮ":9583,"ĠÑĦÐ¸Ð·Ð¸ÑĩÐµÑģÐºÐ¾Ð¹":9584,"ĠÐ·Ð°ÑıÐ²ÐºÐ¸":9585,"ĠÐ¿ÑĢÐ¾ÑĩÐµÐµ":9586,"Ð»Ð¸ÑĤ":9587,"ĠÐ¿Ð²Ð¾":9588,"Ð¼Ð°Ð½Ð¾Ð²":9589,"ĠÑĤÐ²ÑĳÑĢ":9590,"ĠÐ³Ð¾Ð»Ð¾Ð²Ð°":9591,"ĠÑģÐ²Ð°Ð´ÑĮ":9592,"ÑĩÐ¸ÐºÐ¾Ð¼":9593,"ĠÐ¿Ð¾Ð´ÑĢÐ°Ð·Ð´ÐµÐ»ÐµÐ½Ð¸Ñı":9594,"ĠÐºÐ¾Ð»ÐµÑģ":9595,"ĠÐ¿ÑĢÐ¸Ð±Ð»Ð¸Ð¶":9596,"ĠÐ²Ð¼ÐµÑĪ":9597,"ĠÑģÑĤÐ°Ð´Ð¸Ð¸":9598,"ĠÐ¾Ð´Ð½Ð°Ð¶Ð´Ñĭ":9599,"ĠÐ°Ð±Ñĥ":9600,"ĠÑĦÑĥÐ½Ð´Ð°Ð¼ÐµÐ½ÑĤ":9601,"ĠÐ¸Ð¾Ð½":9602,"Ð¾ÐºÑĥÐ¿":9603,"ĠÑĥÑĩÐ°ÑģÑĤÐ½Ð¸ÐºÑĥ":9604,"ĠÐ´ÐµÐºÐ¾ÑĢÐ°ÑĤÐ¸Ð²":9605,"ĠÐºÐ°ÑĢÑĮÐµÑĢÐµ":9606,"ĠÐ¼Ð°ÑĤÐµÐ¼Ð°ÑĤÐ¸ÐºÐ¸":9607,"ĠÑģÑį":9608,"ĠÐ³Ð¾ÑĢÐ¾Ð´ÑģÐºÐ¸Ñħ":9609,"Ð»Ð°Ð¼Ð¸":9610,"ĠÑĤÐµÐ»ÐµÐ¿":9611,"ĠÐ¸Ð·Ð²ÐµÑģÑĤÐ½ÑĭÐ¼":9612,"ĠÐ²Ð¾Ð»Ð½Ñĭ":9613,"ĠÐ¿Ð¾Ð»ÑĮÑģÐºÐ¾Ð¹":9614,"ĠÐºÐ¾Ð½ÑģÑĤÑĢÑĥÐºÑĤÐ¾ÑĢ":9615,"ĠÐ½ÐµÐ´Ð°Ð²Ð½Ð¾":9616,"ÑĢÐ¾ÑģÐ¾Ð²":9617,"Ð¾Ð¿ÑĢÐ¸Ð¼ÐµÑĩ":9618,"ĠÑĤÐ¸Ð¼Ð¾ÑĦ":9619,"ĠÐ¿Ð°Ð¼ÑıÑĤÐ½Ð¸ÐºÐ°":9620,"ĠÑĢÐ¸Ð¼ÑģÐºÐ¸Ð¹":9621,"ĠÐ½ÐµÐ¿ÑĢÐ¸ÑıÑĤ":9622,"ĠÐ½Ð¾ÑıÐ±ÑĢÑĮ":9623,"ĠÐ±ÑĥÑĢÑıÑĤ":9624,"ĠÐ¾ÑģÑĥÑīÐµÑģÑĤÐ²Ð»ÑıÐµÑĤÑģÑı":9625,"ĠÑĢÐµÐ°Ð»Ð¸Ð·Ð°ÑĨÐ¸Ð¸":9626,"ĠÐ¿ÑĢÐ¾ÑģÑĮÐ±Ð°":9627,"ĠÐ¿ÑĢÐ¾Ð½Ð¸Ðº":9628,"ĠÐ¼Ð°Ð»Ð¾Ð¹":9629,"ĠÑĤÑĢÐ¾Ð»Ð»ÐµÐ¹Ð±":9630,"ĠÑıÐ·ÑĭÐºÐ¾Ð¼":9631,"ĠÐ¼Ð¾ÑģÐºÐ¾Ð²ÑģÐºÐ¾Ð¼":9632,"ĠÑĢÐ°Ð·Ð²Ð¸ÑĤÐ¸Ð¸":9633,"ĠÐ¾Ð±Ð¾ÑĢÑĥÐ´Ð¾Ð²Ð°Ð½Ð¸Ñı":9634,"ĠÑĦÐ¾ÑĢÐ¼Ð¸ÑĢÐ¾Ð²Ð°Ð½Ð¸Ðµ":9635,"ĠÐ¾ÑģÑĤÐ°Ð²Ð°Ð»ÑģÑı":9636,"ĠÑģÐ¾ÑĤÑĢÑĥÐ´Ð½Ð¸ÐºÐ¸":9637,"ĠÐ²Ð±Ð»Ð¸Ð·Ð¸":9638,"Ð¾Ð²Ð¾Ð´":9639,"ĠÐ´Ð¾ÑģÑĤÐ¾Ð¿ÑĢÐ¸Ð¼ÐµÑĩ":9640,"ĠÐ´Ð¸Ð·Ð°Ð¹":9641,"ÐµÑĢÐ¼":9642,"ĠÐ¿Ð¾Ð²ÐµÑģÑĤÐ¸":9643,"ĠÐ¿Ð¾ÑĢÐ¾Ð´":9644,"ĠÐ¿ÑĢÐ°Ð²Ð¸Ð»Ð°Ð¼Ð¸":9645,"Ð°ÑĢÐ¾":9646,"ĠÑĤÑĥÑĢÐºÐ¼ÐµÐ½":9647,"ĠÐ¿Ð¾ÐºÐ°Ð·Ð°Ð½Ð¾":9648,"ĠÐ»ÐµÐ²ÑĭÐ¹":9649,"ĠÐ·Ð°Ð²ÐµÑĢÑĪÐ¸Ð»":9650,"ĠÐ¿Ð¾Ð¿ÑĭÑĤÐºÐ°":9651,"ĠÐ±ÑĥÐ´Ð°":9652,"ĠÑıÐ½Ð´":9653,"ĠÐ´ÐµÐ»Ñĥ":9654,"ÑĩÑĳÐ²":9655,"ĠÐ½Ð°ÑĪÐ¸Ñħ":9656,"Ð°ÑĢÑĥ":9657,"Ð½Ð¾Ñħ":9658,"ĠÑĢÐ¾ÑģÑĤÐ¾Ð²ÑģÐºÐ¾Ð¹":9659,"ĠÐ´ÐµÑģÑıÑĤÐ¸":9660,"ĠÐ¿Ð¾ÑģÐ¼ÐµÑĢÑĤÐ½Ð¾":9661,"ĠÐ»Ð°Ðº":9662,"ĠÐ·Ð°ÑīÐ¸ÑĤÑĥ":9663,"ĠÑĥÑĩÐ°ÑģÑĤÐ²Ð¾Ð²Ð°Ð»Ð¸":9664,"ĠÐºÐ¾Ð¾ÑĢÐ´Ð¸Ð½Ð°ÑĤÑĭ":9665,"ĠÐ°Ð½Ð³Ð»Ð¸Ñĩ":9666,"ĠÐ±ÐµÑģÑģÑĢ":9667,"ĠÐ²ÑĭÑģÐ¾ÑĤÐ¾Ð¹":9668,"ĠÑĤÐµÐ»ÐµÐ²Ð¸Ð´ÐµÐ½Ð¸Ñı":9669,"Ð½ÐµÑĢÐ°":9670,"Ð»ÑĥÐ±":9671,"Ð¸Ð°Ð»ÑĮÐ½ÑĭÐµ":9672,"ĠÐ¿ÐµÑĢÐµÐ½Ð°Ð¿ÑĢÐ°Ð²":9673,"ĠÑħÐ¾ÑĤÐµÐ»Ð¾ÑģÑĮ":9674,"Ð°ÑĢÐ´Ð¾":9675,"ĠÑĥÐ²ÐµÑĢÐµÐ½":9676,"ĠÑĥÐ±ÑĢÐ°ÑĤÑĮ":9677,"ĠÐºÐ¾Ð°Ð»":9678,"ĠÐ¼Ð¸ÑĢÐ¾Ð²Ð°Ñı":9679,"ĠÐ²Ð¸Ð½ÑĤÐ¾Ð²":9680,"ĠÐ¾ÑĤÑģÑĥÑĤÑģÑĤÐ²Ð¸Ñı":9681,"ÑģÑĤÐ°Ð½Ð¾Ð²":9682,"ĠÑģÑĤÐµÑĢ":9683,"ĠÑĦÑĢÐµÐ¹":9684,"ĠÐ¾Ð±ÑĭÐº":9685,"ĠÐ¿Ð¾Ð´Ð¼":9686,"ĠÐºÐ¾ÑĢÑĢÐµÑģÐ¿Ð¾Ð½Ð´ÐµÐ½ÑĤ":9687,"ĠÐ¸Ð½ÑĤÐµÐ½ÑģÐ¸Ð²":9688,"ÐµÐ¶Ðµ":9689,"ÑĦÐ¸ÐºÑģ":9690,"ĠÐ¿Ð¾ÐºÐ°Ð·Ð°ÑĤÑĮ":9691,"ĠÐ²ÐµÐ½Ðµ":9692,"ÐµÐ·Ð°Ð¿":9693,"ÑĢÐ°ÑĤÐ½ÑĭÐ¹":9694,"ĠÑĤÑĢÐ¸Ð½":9695,"ÑİÐ´Ð°":9696,"ĠÐ´ÑĥÐ³":9697,"ĠÑģÑĤÐµÐ¿Ð°Ð½":9698,"ĠÑģÐ¾ÑĨÐ¸Ð°Ð»ÑĮÐ½Ð¾":9699,"ĠÑĥÐ»ÑĮÑıÐ½Ð¾Ð²":9700,"ĠÐ¿Ð¾Ð´Ð±Ð°ÑģÑģ":9701,"ĠÐ²Ð¾ÑģÑģ":9702,"ĠÐ´Ð¾Ð½Ñĥ":9703,"ĠÐ´ÐµÐ½ÐµÐ³":9704,"ĠÑħÐ°Ð±Ð°ÑĢÐ¾Ð²":9705,"ĠÐ³Ð¼Ð¸Ð½Ð°":9706,"ĠÐ±Ð¾Ð¼":9707,"Ð¸ÑĩÐ½Ð¾ÑģÑĤÐ¸":9708,"ĠÑģÐ¾Ð²ÐµÑĤÑģÐºÐ¸Ðµ":9709,"ĠÑĥÐ³Ð¾Ð»":9710,"ĠÑģÐ¾Ð¿ÑĢÐ¾ÑĤÐ¸Ð²Ð»ÐµÐ½Ð¸Ðµ":9711,"ĠÐ´Ð¾ÑģÑĤÐ¾Ð¿ÑĢÐ¸Ð¼ÐµÑĩÐ°ÑĤÐµÐ»ÑĮ":9712,"Ð°Ð½Ð½Ð¾":9713,"ĠÐ¾Ð±ÑĭÐºÐ½Ð¾Ð²":9714,"Ð¸ÑĢÐ¾Ð²Ð°Ð½Ð¸Ñİ":9715,"ĠÑģÐ¾Ð»Ð½ÑĨÐ°":9716,"ĠÐ½ÐµÑĢÐµÐ´":9717,"Ð¸ÑģÐµ":9718,"ĠÐºÐ»ÑĥÐ±Ð¾Ð²":9719,"ĠÐºÐ°Ð»Ð¸Ð±":9720,"ĠÐ¾ÑĤÐ¼ÐµÑĤÐ¸ÑĤÑĮ":9721,"ĠÑħÐ°Ð´":9722,"ĠÐ¾Ð´ÐµÑģÑģ":9723,"ĠÑĤÐµÑħÐ½Ð¸ÑĩÐµÑģÐºÐ¸Ðµ":9724,"ĠÐ¾ÑĢÐºÐµÑģÑĤÑĢÐ°":9725,"ĠÑĨÐµÐ»ÐµÐ¹":9726,"ĠÑĤÐ°Ð±Ð»Ð¸ÑĨÐ°":9727,"ĠÐ¿Ð¾Ð»ÑıÑĢ":9728,"ĠÑĤÐ°ÐºÑĥÑİ":9729,"ĠÐ²Ð¸Ð´ÐµÐ»":9730,"ĠÑįÐºÐ¾Ð½Ð¾Ð¼Ð¸ÑĩÐµÑģÐºÐ¾Ð³Ð¾":9731,"ĠÐ½ÐµÑģÐ²Ð¾Ð±Ð¾Ð´":9732,"ĠÑĥÑĢÐ°Ð»":9733,"ĠÑĢÐ°Ð·ÑĢÑıÐ´Ðµ":9734,"ĠÐ°Ð¿Ð¾Ð»":9735,"ĠÐ³Ð²Ð°ÑĢÐ´ÐµÐ¹ÑģÐºÐ¾Ð³Ð¾":9736,"ÑĢÐ¾Ð¸Ð·Ð²Ð¾Ð´":9737,"ÐµÐ½ÐºÐ°":9738,"Ð±ÑĢ":9739,"ĠÐ¿ÑĢÐ¾Ð³ÑĢÐ°Ð¼Ð¼Ñĥ":9740,"ĠÐ¿Ð°Ð²Ð»Ð°":9741,"ĠÑĤÐµÐºÑģÑĤÑĭ":9742,"Ð¸Ð½ÐµÐ¹":9743,"ĠÑĢÑĥÐºÐ¾Ð²Ð¾Ð´ÑģÑĤÐ²Ð°":9744,"ĠÑģÐµÑĢÐ¸Ð°Ð»Ðµ":9745,"Ð½ÑıÐ½":9746,"ĠÑıÐ½Ð²Ð°ÑĢÑĮ":9747,"ĠÑģÐ¾Ð´ÐµÐ¹ÑģÑĤÐ²":9748,"ĠÐ¿Ð¾Ð´Ð±Ð°ÑģÑģÐµÐ¹Ð½":9749,"ÑĩÐµÑģÐºÐ¸Ð¹":9750,"ĠÐ´ÐµÐ¿ÑĥÑĤÐ°ÑĤÐ¾Ð¼":9751,"ĠÐ¿ÐµÐ¹Ð·":9752,"Ð°ÑĤÐµÐ»ÑĮÐ½Ð¾Ðµ":9753,"ĠÐ¿ÐµÐ½Ð·":9754,"ĠÐ¾Ð±Ð»Ð°ÑģÑĤÐ½Ð¾Ð¹":9755,"ĠÐ·Ð°Ð¿Ð°Ð´Ð½ÑĭÐ¹":9756,"ĠÐ°ÑĤÐ°ÐºÐ¸":9757,"ĠÑĢÐ¾Ð¼Ð°Ð½ÑĤ":9758,"ĠÐ»ÑĳÐ³ÐºÐ¾Ð¹":9759,"ĠÐ¼Ð¾Ð³Ð¸Ð»ÑĳÐ²":9760,"ĠÐ¼Ð¾ÑģÑĤÐ°":9761,"ĠÐ¿Ð¾ÑģÐ»ÐµÐ´Ð½Ð¸Ð¼":9762,"ĠÑĢÐ°Ð½Ð½Ð¸Ðµ":9763,"ĠÐ³Ð°ÑĢÐ½Ð¸Ð·":9764,"ĠÐ°Ð²ÑĤÐ¾Ð½Ð¾Ð¼Ð½Ð¾Ð³Ð¾":9765,"ĠÑģÐ»Ð¾Ð²Ð°Ð¼Ð¸":9766,"ĠÑĤÐµÐ»ÑĮ":9767,"ĠÐ²ÑĭÐ»ÐµÑĤ":9768,"ĠÐ¿ÐµÐ¹Ð·Ð°Ð¶":9769,"ĠÐ¿ÑĢÐ¾Ñī":9770,"ĠÑĢÐµÐ´Ð¸ÑĢÐµÐºÑĤ":9771,"Ð¾Ð»ÐºÐ¾Ð¼Ð°":9772,"ÑĥÐ¼ÐµÐ½ÑĤÐ°":9773,"ĠÐ¾ÑĤÐ´ÐµÐ»ÑĮÐ½Ð¾Ð¹":9774,"ĠÐ´Ð²Ð¾ÑĢÑĨÐ°":9775,"ĠÑĥÐ³ÑĢ":9776,"ĠÑģÑĨÐµÐ½Ð°ÑĢÐ¸Ð¹":9777,"ĠÐ´Ð²ÐµÐ½":9778,"ĠÑĤÐ¸ÑĢ":9779,"ĠÐ´Ð¶Ð°Ð·":9780,"ÑĢÐ¸ÑĢÑĥ":9781,"ĠÑĤÐ±Ð¸Ð»":9782,"ÑĢÑĥÐ±":9783,"Ð½Ð¾Ð²Ð¾Ð´":9784,"ĠÑģÐ¾Ð·Ð´Ð°Ð½Ñĭ":9785,"ĠÑĥÑĩÑĳÐ½ÑĭÑħ":9786,"ĠÑĢÐµÐ²Ð¸Ð·":9787,"ĠÑĥÑģÐ¸Ð»Ð¸Ñı":9788,"ĠÐ³Ð¾Ð¼Ð¾ÑģÐµÐºÑģÑĥ":9789,"ĠÐ¾ÑģÑĤÐ°Ð»Ð¸ÑģÑĮ":9790,"ĠÑĥÐºÐ°Ð·Ð°Ð½":9791,"ĠÑĥÑĩÐ¸ÑĤÑĭÐ²Ð°Ñı":9792,"Ð¾ÑĤÑĥ":9793,"Ð¾ÑĩÐ½ÑĭÐ¼":9794,"ĠÐ¿ÑĢÐ¸ÑĩÐµÐ¼":9795,"ĠÑģÐ¾Ð»Ð¾Ð¼":9796,"ĠÐ´Ð²ÐµÐ½Ð°Ð´ÑĨ":9797,"ĠÐ¾Ð±ÑģÐµÑĢÐ²":9798,"ĠÐ¿ÑĢÐ¾Ð´Ð¾Ð»Ð¶Ð°ÐµÑĤ":9799,"ĠÐ³Ð´ÑĢ":9800,"ĠÐ½Ð°ÑĩÐ°Ð»Ð¸ÑģÑĮ":9801,"ĠÐ¿ÑĢÐ¸Ð·Ð½Ð°Ð½":9802,"ĠÐ°Ð½Ð°ÑĤÐ¾Ð»ÑĮ":9803,"ÐµÐ»Ð»Ð¾":9804,"ĠÐºÐ°ÐºÐ¾Ð¼":9805,"ĠÐ¿ÑĢÐ¾ÑĤÐ¸Ð²Ð¾ÑģÑĤ":9806,"ĠÐ²ÑģÐµÐ¾Ð±Ñī":9807,"ĠÐ³Ð¾Ð»Ð¾ÑģÐ°":9808,"ÐµÑĤÐ¾Ð¼":9809,"ĠÐµÑĦÐ¸Ð¼":9810,"ĠÐ½Ð°ÑĩÐ°Ð»ÑģÑı":9811,"ĠÐ¿ÐµÑĢÐµÐ¼ÐµÑī":9812,"ĠÐ±ÐµÑĢÐ»Ð¸Ð½Ðµ":9813,"ĠÐ¾ÑģÐ¿Ð°ÑĢ":9814,"ÑĮÐµÐ¼":9815,"ĠÐ´Ð¾Ð¼Ð¾ÑħÐ¾Ð·ÑıÐ¹":9816,"ĠÐ´ÐµÑĤÐµÐºÑĤÐ¸Ð²":9817,"Ð°ÑĢÑĳÐ¼":9818,"ĠÑĢÐ¸Ðº":9819,"ĠÐ¸ÑģÑĤÐ¾ÑĩÐ½Ð¸ÐºÐ°Ð¼":9820,"ĠÑħÐ¼ÐµÐ»ÑĮÐ½Ð¸ÑĨ":9821,"Ð¾ÑĢÐ°ÑĩÐ¸Ð²":9822,"ĠÐ²ÐµÑīÐ¸":9823,"ĠÑģÐ¸ÑĤÑĥÐ°ÑĨÐ¸Ñİ":9824,"ĠÐ´Ð¾Ð³Ð¾Ð²Ð¾ÑĢÐ°":9825,"ĠÑĤÐ°Ð»Ð°Ð½ÑĤ":9826,"Ð¾Ð»ÑĮÑģÐºÐ°Ñı":9827,"ĠÐ¾ÑĤÐ·ÑĭÐ²Ñĭ":9828,"ÑĥÐ½Ñĭ":9829,"Ð¸Ð¼ÑģÑĤÐ²":9830,"ĠÐ¿ÑĢÐµÐ¿Ð°ÑĢÐ°ÑĤ":9831,"Ð¾Ð»Ð¾Ð³Ð¸ÑĩÐµÑģÐºÐ°Ñı":9832,"ĠÐ³Ð¾Ð²Ð¾ÑĢÐ¸ÑĤÑģÑı":9833,"ĠÐ³ÑĢÐ°Ð½Ð¸Ñĩ":9834,"ĠÑģÑĤÐ¾Ð»Ð±":9835,"ĠÐ¾ÐºÐ°Ð·Ð°Ð»Ð¾ÑģÑĮ":9836,"ĠÐ¸Ð·ÑĥÑĩÐ°Ð»":9837,"ĠÐ¿ÑĢÐ¸Ð·Ð²Ð°Ð½":9838,"Ð¸Ð·ÐµÐ¼":9839,"ĠÐ²ÑĤÐ¾ÑĢÑĥÑİ":9840,"ÐµÐ»ÑĮÑĦ":9841,"ĠÐ·Ð°ÐºÐ¾Ð½ÑĩÐ¸Ð»":9842,"ĠÐ´Ð¸ÑģÑĨÐ¸Ð¿Ð»Ð¸Ð½":9843,"ÑĢÐ°ÑĤÐ¸ÑĤÑĮ":9844,"ĠÐ¸ÑģÑĤÐ¾ÑĢÐ¸ÑĩÐµÑģÐºÐ¾Ð¹":9845,"ÑģÑĤÐ°ÑĦ":9846,"Ð³Ð¾Ð²":9847,"ĠÑĥÐ¿Ð¾Ð¼ÑıÐ½ÑĥÑĤ":9848,"ĠÑģÑĭÐ½Ð¾Ð²ÐµÐ¹":9849,"Ð°Ð»Ð»":9850,"ĠÑĪÐ¼":9851,"ĠÑĨÐ¸Ð²":9852,"Ð¾ÑĩÐºÑĥ":9853,"ĠÐ¿Ð°ÑĢÐ°Ð»Ð»ÐµÐ»ÑĮÐ½Ð¾":9854,"ĠÐ¿Ð¾Ð´Ð¿Ð¾Ð»ÐºÐ¾Ð²Ð½Ð¸Ðº":9855,"ĠÐ°Ð½Ð°ÑģÑĤÐ°Ñģ":9856,"ĠÐ²ÑĭÐº":9857,"Ð¾Ð¾ÑĤ":9858,"ÐµÐ½ÑĨÑĭ":9859,"ÑĬÑıÐ²":9860,"ĠÐ¿Ð°ÑĢÑĤÐ¸Ñİ":9861,"ĠÐ³Ð¾Ð´Ð¾Ð¼":9862,"ĠÐ¸ÑģÐ¿Ð¾Ð»Ð½ÐµÐ½Ð¸Ðµ":9863,"ĠÐ·Ð°Ð´Ð°ÑĩÐ°":9864,"ĠÐ¿Ð¾Ð±ÐµÑĢÐµÐ¶ÑĮÑı":9865,"ĠÐ¸Ñī":9866,"Ð»ÑıÑı":9867,"ĠÐ¸Ð³ÑĢÐ¾Ð²Ð¾Ð¹":9868,"ĠÐ²ÑĭÑģÑĪÐµÐµ":9869,"ĠÐ¸ÑģÐ¿Ð¾Ð»ÑĮÐ·ÑĥÑı":9870,"ĠÐ¿Ð»Ð¾ÑģÐº":9871,"ĠÐ¿Ð¾ÐµÐ·Ð´Ð°":9872,"ĠÑĢÐµÑĪÐ°":9873,"ĠÐ½ÐµÐ´Ð¾Ð¿":9874,"ĠÐ¿Ð¾ÑıÐ²Ð»ÐµÐ½Ð¸Ñı":9875,"ĠÐ¼ÐµÑĤÑĢÐ¾Ð¿Ð¾Ð»Ð¸ÑĤÐµÐ½Ð°":9876,"ĠÐ³Ð¸Ð½":9877,"Ð¸ÑģÐ¾Ð²":9878,"ĠÐ°Ð·Ð¸Ð°ÑĤ":9879,"ĠÐ½ÑĥÐ¶Ð½Ð°":9880,"ĠÑĦÐ¾Ð½Ðµ":9881,"ĠÑİÐ»Ð¸Ñı":9882,"ĠÐ¼ÐµÑģÑĤÐ¾Ð¼":9883,"ĠÑģÐ¸Ð¼ÑĦÐ¾Ð½":9884,"ĠÐ±ÑĥÐ´ÑĥÑīÐµÐ¼":9885,"ĠÐ½ÐµÐ°ÐºÑĤÐ¸Ð²Ð½ÑĭÐ¼Ð¸":9886,"Ð°ÑģÑĤÑĮ":9887,"ĠÐ¸ÑģÑĤÐ¾ÑĢÐ¸ÑĩÐµÑģÐºÐ¾Ð³Ð¾":9888,"ĠÑģÑĥÐ´ÑĮÐ¸":9889,"ĠÐ½Ð°Ð¿ÑĢÐ¾ÑĤÐ¸Ð²":9890,"ĠÐºÐ¾Ð½ÑģÑĥÐ»ÑĮÑĤ":9891,"ĠÐºÐ¸ÐµÐ²ÑģÐºÐ¾Ð³Ð¾":9892,"ĠÐ¼ÐµÑĤÑĢÐ°":9893,"ĠÐ¿ÑĢÐ¸Ð½ÑıÐ»Ð°":9894,"ĠÐ°Ð²ÑĤÐ¾ÑĢÐ¸ÑĤÐµÑĤÐ½ÑĭÐµ":9895,"ĠÐ¼ÐµÑĤÐµ":9896,"ĠÐ¿ÑĢÐ¸ÑĩÐ¸Ð½Ñĭ":9897,"ĠÑģÐ¾Ð²ÑĢÐµÐ¼ÐµÐ½Ð½Ð¾Ðµ":9898,"ĠÐºÐ¾Ð½ÑģÑĤÑĢÑĥÐºÑĤÐ¸Ð²":9899,"ĠÐ¿Ð¾Ð²ÐµÑģÑĤÐ²":9900,"ÑĪÐ¸Ð¹ÑģÑı":9901,"ĠÐ´Ð¼Ð¸ÑĤÑĢÐ¸ÐµÐ²":9902,"ĠÐ²Ð¾Ð»ÑĮÑĦ":9903,"ĠÐ»Ð¸Ð¿ÐµÑĨ":9904,"ĠÑĤÐµÐ½Ð´ÐµÐ½":9905,"ĠÑĤÑĢÐ°Ð½ÑģÐºÑĢÐ¸Ð¿":9906,"ĠÑħÐ°ÑĢÑĤ":9907,"ĠÑģÐ¿Ð¾ÐºÐ¾Ð¹":9908,"ĠÑĤÐµÑħÐ°Ñģ":9909,"ĠÑģÐ¾Ð±ÑģÑĤÐ²ÐµÐ½Ð½Ð¾Ð¹":9910,"ĠÑĢÐµÑģÑĥÑĢÑģ":9911,"ÐºÑĥÐ»ÑĮÑĤ":9912,"ĠÐ°ÑģÐ¿ÐµÐºÑĤ":9913,"ĠÑĢÐ¸Ð¾":9914,"Ð°Ð±Ð¸Ð»":9915,"ĠÑįÐ½ÑĨÐ¸ÐºÐ»Ð¾Ð¿ÐµÐ´Ð¸ÑĩÐµÑģÐºÐ¾Ð³Ð¾":9916,"ĠÐ·Ð°Ð²ÐµÐ´ÐµÐ½Ð¸Ñı":9917,"ĠÐ¼Ð°Ð³Ð°Ð·Ð¸Ð½":9918,"ĠÑįÐºÑģÐº":9919,"ĠÐºÐ°Ð½Ð´Ð¸Ð´Ð°ÑĤÐ¾Ð²":9920,"ĠÑĢÐ¾ÑģÐ¿Ð¸ÑģÐ¸":9921,"ÑĭÐºÐ°":9922,"ĠÑĤÐ¾ÑĢÐ¼":9923,"ĠÐ°Ð±ÑĢÐ°Ð¼":9924,"Ð°Ð½Ð³ÐµÐ»":9925,"ĠÐ¸ÑģÐ¿Ð¾Ð»ÑĮÐ·Ð¾Ð²Ð°Ð»Ð¸ÑģÑĮ":9926,"ÑıÐº":9927,"ĠÐ°ÑĢÐµÐ½Ð°":9928,"ĠÐ±Ð°ÑģÑģÐµÐ¹Ð½Ð¾Ð²Ð¾Ð¼Ñĥ":9929,"ĠÐ°Ð´ÑĢÐ¸":9930,"ĠÑĥÐºÑĢÐ°ÑĹ":9931,"ĠÐ¿ÑĥÐ±Ð»Ð¸Ðº":9932,"ĠÐ¿ÑĢÐ¾Ð²Ð¾Ð´Ð¸ÑĤÑģÑı":9933,"ĠÐ¾ÐºÐ°Ð·Ð°Ð»Ð°ÑģÑĮ":9934,"ĠÐµÐ¿Ð¸ÑģÐºÐ¾Ð¿Ð°":9935,"ĠÐ´Ð¾Ð¼Ð°ÑĪÐ½Ð¸Ñħ":9936,"ĠÐ¿ÑĢÐµÐ¿ÑıÑĤ":9937,"Ð°Ð»ÑĮÐ½Ð¾Ð¼Ñĥ":9938,"ĠÑĢÐµÐ¶Ð¸Ð¼Ð°":9939,"Ð°ÑĪÐ°":9940,"ĠÐ²Ð¾ÐµÐ½Ð½Ð¾Ðµ":9941,"ĠÑģÐ¿ÐµÑĨÐ¸Ð°Ð»Ð¸Ð·Ð¸ÑĢÐ¾Ð²Ð°Ð½":9942,"ĠÐºÐ»Ð°ÑģÑģÐ¸ÑĦÐ¸ÐºÐ°ÑĨÐ¸Ð¸":9943,"Ð½ÐµÐ¶":9944,"ÑĥÑĢÐ°Ð»ÑĮ":9945,"ĠÐºÐ°ÑĤÐµÐ³Ð¾ÑĢÐ¸Ð¹":9946,"ĠÐµÑģ":9947,"ĠÐºÐ¸ÑĢÐ¸Ð»Ð»":9948,"ĠÑĢÐ°Ð·Ð¼ÐµÑģÑĤ":9949,"ÐµÑĢÐ°ÑĢ":9950,"Ð½ÑıÐº":9951,"ĠÐ¸Ð¼Ð¿ÐµÑĢÐ°ÑĤ":9952,"ĠÐ¾ÑĨÐµÐ½ÐºÐ°":9953,"Ð¸ÐºÐ¾Ð²Ð°":9954,"Ð¸ÑĢÐ¾Ð¼":9955,"Ð°Ð´Ð°ÑİÑĤ":9956,"ĠÐ¿ÑĢÐ¸Ð·Ð½Ð°Ð½Ð¸Ðµ":9957,"ĠÐ°ÑĢÑħÐ¸Ð¿":9958,"ĠÑģÐµÑĢÐ´ÑĨÐµ":9959,"ĠÑĦÐµÐ´Ð¾ÑĢ":9960,"ĠÐ¿ÑĥÐ±Ð»Ð¸ÐºÐ°ÑĨÐ¸Ð¹":9961,"ĠÐ¿ÑĢÑĥÐ´":9962,"ĠÑĢÑĥÐºÐ¾Ð²Ð¾Ð´Ð¸ÑĤÐµÐ»ÐµÐ¼":9963,"ĠÐ¾ÑĢÐ´ÐµÐ½Ð°Ð¼Ð¸":9964,"ĠÐ¾ÑĤÑģÑĥÑĤÑģÑĤÐ²ÑĥÑİÑĤ":9965,"ĠÑĢÐ°ÑģÑģÐºÐ°Ð·Ñĭ":9966,"Ð»Ð¾Ð²Ð¸Ñĩ":9967,"Ð»ÑıÑĤ":9968,"ĠÐ¾Ð¿ÐµÑĢÐ°ÑĨÐ¸Ð¹":9969,"ÐµÑĤÑĤÐ°":9970,"ĠÐºÐ¸Ð½Ð¾ÐºÐ¾Ð¼":9971,"ĠÐ°ÑĢÐ³ÐµÐ½ÑĤÐ¸Ð½Ñĭ":9972,"ĠÐ°Ð²ÑĤÐ¾Ð¼Ð¾Ð±Ð¸Ð»ÐµÐ¹":9973,"ĠÐ²ÐµÐ½ÐµÑģ":9974,"ĠÑĤÑĢÑĥÐ´Ð¾Ð²Ð¾Ð³Ð¾":9975,"ĠÐ²Ð¸Ð·Ñĥ":9976,"ĠÐ¿Ð°ÑĢÐ¸Ð¶Ð°":9977,"ÑĥÐ³Ð°":9978,"ĠÐ½ÑĥÐ¼":9979,"Ð¸Ð²Ð°Ð»Ð¸ÑģÑĮ":9980,"ĠÐ¼Ð¾Ð½Ð°":9981,"Ð¸ÐºÐ°ÑĤ":9982,"ĠÑįÐºÑģÐ¿ÑĢÐµÑģÑģ":9983,"ĠÐ²ÑĢÐ°Ð¶Ðµ":9984,"ĠÐ°Ð´Ð¼Ð¸Ð½Ð¸ÑģÑĤÑĢÐ°ÑĨÐ¸Ñı":9985,"ĠÑģÐµÐ³Ð¾Ð´Ð½ÑıÑĪ":9986,"ĠÑģÑĨÐµÐ½Ñĭ":9987,"ĠÐ¸Ð¾Ð³Ð°Ð½Ð½":9988,"Ð¸ÑĢÐ¾Ð²Ð°Ð»Ð¾ÑģÑĮ":9989,"ĠÐ²Ð»Ð°Ð´ÐµÐ½Ð¸Ñı":9990,"ĠÑģÐ¾ÑģÑĤÐ¾ÑıÐ²":9991,"ĠÐ·Ð°ÑīÐ¸ÑĤÐ°":9992,"ĠÐ»ÑİÐ´ÑĮÐ¼Ð¸":9993,"ĠÐ²ÑĭÑģÐ¾ÐºÐ¾":9994,"ÑģÐ±ÑĥÑĢÐ³":9995,"ĠÑģÑĥÑĪ":9996,"ĠÑĦÐµÐ½":9997,"ĠÐµÐ»ÑĮ":9998,"ĠÐ²ÐºÐ»ÑİÑĩÑĳÐ½":9999,"ĠÑĢÐ°Ð²ÐµÐ½":10000,"ĠÐ²Ð¾Ð´Ð¾ÑħÐ¾Ð·ÑıÐ¹ÑģÑĤÐ²ÐµÐ½Ð½ÑĭÐ¹":10001,"ĠÐ½ÑħÐ»":10002,"ĠÑĥÑĢÑĥÐ³":10003,"Ð°Ð²Ð¾Ð´":10004,"ĠÑģÑĢÐµÐ´Ð¸Ð·ÐµÐ¼":10005,"ĠÐ¾ÑĤÐ´Ð°Ð»":10006,"ĠÑīÐ¸ÑĤ":10007,"ÑĨÐ°Ñħ":10008,"ĠÑĢÑįÐ¹":10009,"ĠÐ½Ð°Ð·ÐµÐ¼":10010,"Ð¸ÑĦÐ¸ÐºÐ°ÑĨÐ¸Ð¸":10011,"ĠÐ²Ð¾Ð»ÑĪÐµÐ±":10012,"ĠÑĦÐ¸Ð³ÑĥÑĢÑĭ":10013,"ĠÐ¼Ñİ":10014,"ĠÐ¾Ð±ÐµÐ·":10015,"ÐµÐ»ÑĮÐ½Ð¾Ð¹":10016,"ĠÑĪÐ°Ð±Ð»Ð¾Ð½Ð¾Ð²":10017,"ÑĦÑĭ":10018,"ÐµÐ»ÑĮÐµ":10019,"Ð¸ÑĦÐ°":10020,"ĠÐµÐ²ÑĢÐ¾Ð²":10021,"ĠÐ¿ÑĢÐ¾Ð²ÐµÑĢÐ¸ÑĤÑĮ":10022,"Ð»ÑıÑĢ":10023,"ĠÑĢÐ°Ð·Ð½Ð¾Ð²Ð¸Ð´":10024,"ÐºÐ¾Ð²ÑģÐºÐ¾Ð¼":10025,"ĠÑģÐ¾Ð²Ð¾ÐºÑĥÐ¿":10026,"ĠÐ¿ÐµÑĢÐµÐ½ÐµÑģÑĤÐ¸":10027,"ĠÑĢÐ¸Ð¼Ðµ":10028,"ĠÑĨÐ¸Ð½":10029,"Ð¼Ð¾Ð½Ð´":10030,"Ð°ÑĢÐ¾Ð¼":10031,"ÐºÐ¾Ð²ÑģÐºÐ°Ñı":10032,"ĠÑĢÐ°ÑģÑĩÑĳÑĤ":10033,"ĠÐ¿ÑĢÐ¸ÑģÑĥÑĤÑģÑĤÐ²ÑĥÐµÑĤ":10034,"ÐºÐ°Ð»ÑĮ":10035,"ĠÐ±Ð¾Ð´":10036,"ĠÐºÐ¾ÑĢÐ¾Ð»ÑĳÐ¼":10037,"ĠÐ½ÐµÐ¾Ð´Ð½Ð¾Ð·Ð½Ð°Ñĩ":10038,"Ð´Ð¸Ð½Ð³":10039,"ĠÐ°ÐºÐº":10040,"ĠÐ³Ð¾Ð»Ð¾Ð²Ñĭ":10041,"ĠÑģÐ¼Ð¾Ð³Ð»Ð¸":10042,"ÑĳÐ½Ð½Ð¾ÑģÑĤÑĮ":10043,"ĠÐ·Ð²ÑĥÐºÐ¾Ð²":10044,"ĠÐ¼Ð¾Ð»Ð¸ÑĤ":10045,"ĠÐ¿Ð¾Ð»Ð¸ÑĤÐµÑħÐ½":10046,"Ð¾Ð»ÑİÐ±":10047,"ĠÐ¿ÑĢÐ¸ÐµÐ·":10048,"ĠÐºÑĢÑĥÐ¶":10049,"Ð¾Ð²ÐµÑĨ":10050,"ĠÑĪÐ»ÐµÐ¼":10051,"ĠÐ°Ð²Ð°Ð½Ð³":10052,"ĠÐ¾ÑĢÐ³Ð°Ð½Ñĭ":10053,"ĠÐ¾ÑĤÑģÑİÐ´Ð°":10054,"ĠÐ²Ð¾ÑģÐ¿ÑĢÐ¸Ð½Ð¸Ð¼":10055,"ĠÑĢÐµÑĪÐ¸Ð»Ð¸":10056,"ĠÐºÐ¸ÐµÐ²ÑģÐºÐ¾Ð¹":10057,"ĠÐ±ÑĥÐ³":10058,"ĠÐ¿Ð¾Ð´Ð²Ð¸Ð¶":10059,"ĠÑģÑĤÐ°ÑĢÐ¾":10060,"ĠÑģÐ¾ÑģÑĤÐ°Ð²Ð»ÑıÐ»":10061,"ĠÐ¾ÐºÑĤÑıÐ±ÑĢÑĮÑģÐºÐ¾Ð¹":10062,"ĠÐºÐ¾Ð½ÑĮ":10063,"Ð¾ÑħÐ¸Ð¼":10064,"ĠÐ¿Ð¾Ð·Ð²Ð¾Ð»Ð¸Ð»Ð¾":10065,"ĠÐ²Ð»Ð¸ÑıÐ½Ð¸ÐµÐ¼":10066,"ĠÑģÑĤÑįÐ½":10067,"ĠÑĢÐµÑĪÐµÐ½Ð¸Ð¹":10068,"ĠÐ±Ð»Ð¾ÐºÐ¸ÑĢÐ¾Ð²ÐºÐ¸":10069,"ĠÑĥÑĪÑĳÐ»":10070,"ĠÐ¾ÑĤÑĨÐ¾Ð¼":10071,"ĠÐ¼Ð°ÑĤÐ²Ðµ":10072,"ĠÐµÐ²ÑĢÐ¾Ð²Ð¸Ð´":10073,"ĠÑģÐ¾Ð±ÑģÑĤÐ²ÐµÐ½Ð½ÑĭÐµ":10074,"ÑģÑıÑĩ":10075,"ĠÐ´ÐµÑĢÐµÐ²Ð¾":10076,"ĠÐ±ÑĭÐ²ÑĪÐ¸Ðµ":10077,"ĠÐ½ÐµÐ´Ð¾ÑģÑĤÐ°ÑĤÐ¾ÑĩÐ½Ð¾":10078,"ÑıÑīÐ¸Ð¼":10079,"ĠÐ²Ð¸ÑĤÐ°Ð»Ð¸Ð¹":10080,"Ð¼Ð¾Ð¹":10081,"ĠÐ»ÐµÐºÑģ":10082,"Ð¸Ð²Ð°Ð»ÑģÑı":10083,"ĠÐ³Ð¾Ð»Ð¾Ð²Ñĥ":10084,"ÐµÐ¹ÑģÐºÐ¾Ð¹":10085,"ÐµÐ»ÑĮÐ½ÑĭÐµ":10086,"ĠÐ¿Ð¾ÐºÐ¸Ð½Ñĥ":10087,"ĠÐ¾ÑĤÐ½Ð¾ÑģÑıÑī":10088,"ĠÐºÑĢÐ¸ÑĤÐµÑĢÐ¸Ð¹":10089,"ĠÐ½Ð¸Ð¶ÐµÐ³Ð¾ÑĢÐ¾Ð´ÑģÐºÐ¾Ð¹":10090,"ĠÐºÐ¾Ð²Ð°Ð»":10091,"Ð¾Ð¼Ð¿":10092,"ĠÑĦÐ¾ÑĢÐ¼Ð°Ð»ÑĮÐ½Ð¾":10093,"ĠÐ¿ÑĢÐ¾Ð²ÐµÑĢÐºÐ¸":10094,"Ð¾Ð¿ÑĥÑĤ":10095,"ÐºÐ¾Ð²ÑģÐºÐ¾Ð¹":10096,"ĠÐ²Ð°Ð¶Ð½Ð¾":10097,"ĠÐ½Ð¸Ð´ÐµÑĢÐ»Ð°Ð½Ð´Ñĭ":10098,"ĠÐ³Ð¾ÑĢÑĮÐºÐ¾Ð³Ð¾":10099,"ĠÐ¸Ð¼Ð¿ÐµÑĢÐ°ÑĤÑĢ":10100,"ĠÑĦÑĥÐ½ÐºÑĨÐ¸Ñı":10101,"ĠÐ½Ð¸Ð¸":10102,"ĠÑģÑģÑĭÐ»Ð°":10103,"Ð¸Ð·Ð¼Ð¾Ð¼":10104,"Ð´Ð°ÐµÑĤ":10105,"ĠÑģÑĤÑĢÐµÐ»ÐºÐ¾Ð²Ð°Ñı":10106,"Ð°ÑĢÐºÑĤ":10107,"ĠÐ¿ÑĢÐ¸Ð¼ÐµÐ½ÑıÐµÑĤÑģÑı":10108,"ĠÑĥÑĤÐ²ÐµÑĢÐ¶Ð´ÐµÐ½Ð¸Ðµ":10109,"Ð²Ð°Ð´":10110,"ĠÐ¾ÑĢÑĤ":10111,"ĠÐ¼ÑĭÑģÐ»Ð¸":10112,"ĠÐ¾ÑħÐ²Ð°ÑĤ":10113,"ĠÐ²Ð°ÑģÐ¸Ð»ÑĮÐµÐ²":10114,"ĠÐ¿ÑĢÐµÐ¾Ð±Ð»Ð°Ð´Ð°":10115,"ĠÐ½Ð°Ð²ÐµÑĢÐ½Ð¾Ðµ":10116,"ÑĥÑĢÐ¾Ð¹":10117,"ĠÐ°Ð»Ðµ":10118,"ĠÐ¿ÑĢÐ°Ð²ÑĭÐ¹":10119,"ĠÑĢÐ¾Ð´Ð¾Ð²":10120,"ĠÐ¿ÑĢÐ¾ÑĨÐµÑģÑģÐ¾Ð²":10121,"ĠÐ±Ð¾Ð¸":10122,"ĠÐ·Ð°Ð¼ÐµÑĩÐ°Ð½Ð¸Ñı":10123,"ĠÐ¼ÑĳÑĢÑĤ":10124,"ĠÐ²Ð½ÑĥÑĤÑĢÐµÐ½Ð½Ð¸Ð¹":10125,"ĠÐ²Ð°ÑĪÐµÐ¹":10126,"ĠÑįÐºÐ¸Ð¿Ð°Ð¶Ð°":10127,"Ð°Ð²ÑĪÐ¸ÑħÑģÑı":10128,"Ð¸ÑģÑĤÐ°Ð½Ðµ":10129,"ĠÐºÑĢÐ¸Ð¼Ð¸Ð½":10130,"ĠÑĥÐºÐ°Ð·Ð°Ð½Ð°":10131,"ĠÑģÐ¾Ð´ÐµÑĢÐ¶Ð°ÑĤ":10132,"ĠÐ¼Ð½Ð¾Ð³Ð¾ÑĩÐ¸ÑģÐ»ÐµÐ½Ð½ÑĭÑħ":10133,"ĠÐ½Ð°Ð³ÑĢÑĥÐ·":10134,"ĠÐ²Ð°Ð´Ð¸Ð¼":10135,"ÑĢÑĭÐ»":10136,"ĠÐºÐ¾Ð»ÐµÐ±":10137,"ĠÑĦÐ¸Ð½Ð¸ÑĪ":10138,"ĠÐ»ÑĥÐ½Ñĭ":10139,"ĠÐºÐ°Ð»Ð¸Ð½Ð¸Ð½Ð³ÑĢÐ°Ð´":10140,"Ð³Ð°Ð»":10141,"ĠÐ°Ð»ÑĮÐ±Ð¾Ð¼Ðµ":10142,"Ð½Ð¾Ð²ÐµÐ½Ð¸Ðµ":10143,"ĠÐ¼Ð°ÐºÐº":10144,"ĠÐ¼Ð¾Ð»Ð¾Ð´ÐµÐ¶":10145,"ĠÐ²Ð¾ÑģÑĤÐ¾ÑĩÐ½Ð¾Ð³Ð¾":10146,"ĠÐ²ÑģÐ¿Ð¾Ð¼":10147,"ĠÐ¶ÑİÑĢÐ¸":10148,"ÑĨÐ·":10149,"ĠÐ½Ð°ÑĩÐ°ÑĤÑĮ":10150,"ĠÐ´Ð°Ð½Ð¸Ð»":10151,"ĠÑĩÐ°ÑģÐ°":10152,"ĠÐ½Ð°Ð±ÐµÑĢÐµÐ¶":10153,"Ð¾ÑĢÐ´Ð¸Ð½Ð°":10154,"ĠÐ»ÐµÑĩÐµÐ½Ð¸Ñı":10155,"ĠÐ»Ð°Ð±Ð¾ÑĢÐ°ÑĤÐ¾ÑĢÐ¸Ð¸":10156,"ĠÑĩÐ¸ÐºÐ°":10157,"ĠÑģÐ¿ÑĢ":10158,"ĠÑĢÐ¾Ð´Ð¸ÑĤÐµÐ»Ð¸":10159,"ĠÐ¿ÐµÑĢÐµÐ²Ð¾Ð´Ð°":10160,"ĠÑĢÐµÐ»Ð¸Ð·":10161,"ĠÑĢÐµÐ°ÐºÑĨÐ¸Ð¸":10162,"ĠÐºÐ¾Ð¼Ð¸Ðº":10163,"ĠÐ²Ð¸ÐºÑĤ":10164,"ĠÐ»Ð¸ÑĤÐ²Ñĭ":10165,"ĠÐºÐ°Ð¼ÐµÐ½ÑĮ":10166,"ĠÐ·Ð½Ð°ÐºÐ¸":10167,"ĠÐ»ÑİÐºÑģÐµÐ¼":10168,"ĠÐ¼Ð°ÑĢÐºÑģ":10169,"ĠÐ³ÑĢÐ¾Ð±":10170,"ĠÑģÑĤÐ°Ð±Ð¸Ð»ÑĮ":10171,"ĠÐ¿ÑĢÐ¾Ð·Ð°":10172,"ĠÑĢÐ°Ð±Ð¾ÑĤÐ°ÑİÑĤ":10173,"ĠÐ²ÑĭÑģÑĤÑĥÐ¿Ð°ÑĤÑĮ":10174,"ĠÐ¸ÑĤÐ¾Ð³Ð°":10175,"ĠÑĢÐ¾ÑģÑĤÐ°":10176,"ĠÑĥÐºÐ°Ð·ÑĭÐ²Ð°ÐµÑĤ":10177,"ĠÑģÑĤÐ°ÑĢÐµÐ¹":10178,"ĠÐ¿ÑĢÑĭÐ¶":10179,"ÑĤÐ¾ÑĢÐ°Ð¼":10180,"ÑĢÐ¾Ñī":10181,"ĠÑģÑĢÐµÐ´Ð½":10182,"ĠÐ½Ð°ÑĩÐ°Ð»Ñĥ":10183,"ĠÐ¼ÐµÑģÑĤÐ¾Ð¿Ð¾Ð»Ð¾Ð¶":10184,"ĠÐ³Ð»Ð°Ð²Ð½":10185,"ĠÐ´Ð¾Ð¼Ð¾Ð¹":10186,"ĠÑģÑĭÑĢ":10187,"ĠÐ¿Ð¾ÑįÑĤÑĭ":10188,"ĠÐ±Ð¸Ð¾":10189,"ĠÑĩÐ°ÑĢÐ»ÑĮÐ·":10190,"ÑģÐ¾":10191,"ÑĢÐ¸ÑĩÐµÑģÐºÐ¾Ð¹":10192,"ÑĨÐ¸Ð½":10193,"ĠÐ»ÐµÑģÑĤ":10194,"ĠÐ¾ÑĤÐºÑĢÑĭÑĤÑĭÐ¹":10195,"ĠÐ¿ÑĢÐ¸Ð²ÐµÐ´ÐµÐ½Ñĭ":10196,"Ð¼ÐµÐ¹ÑģÑĤÐµÑĢ":10197,"ĠÐ¿ÐµÑĢÐ¼ÑģÐºÐ¾Ð³Ð¾":10198,"ĠÑģÐµÑĢÐ°":10199,"ĠÑĨÑĭ":10200,"ĠÐ¸Ð·Ð±ÑĢÐ°Ð½Ð½ÑĭÐµ":10201,"ĠÑģÐ¸Ðº":10202,"ĠÑħÐ¾ÑĤÐ¸ÑĤÐµ":10203,"ĠÐ¸Ð½Ð¸ÑĨÐ¸Ð°ÑĤÐ¸Ð²Ðµ":10204,"ĠÑģÐµÐ½ÑĮ":10205,"ĠÑįÐ»Ð¸Ð·":10206,"ÐµÐ½Ð°Ñħ":10207,"Ð¸ÐºÐ°ÑĨÐ¸Ð¾Ð½Ð½ÑĭÐ¹":10208,"ĠÐ½Ð¾Ð¼ÐµÑĢÐ°":10209,"ĠÑĪÐ¸ÑĦ":10210,"ĠÐ¾ÑģÐ¸Ð¿":10211,"ĠÑĢÐ°Ð·ÑĢÐ°Ð±Ð¾ÑĤÐºÐµ":10212,"ĠÐ±ÑİÑĢÐ¾Ðº":10213,"ĠÑĢÐµÑĤ":10214,"Ð¸Ð³Ð°":10215,"ĠÐ±ÑĥÐ´ÐµÐ¼":10216,"ĠÐºÑĥÐ¹Ð±":10217,"ĠÑĥÑģÐ»Ð¾Ð²Ð¸Ð¹":10218,"ĠÐ¿ÑĢÐ¾ÑĩÐ¸Ñħ":10219,"ĠÑĨÐ°ÑĢÑģÑĤÐ²Ð¾":10220,"ĠÐ´Ð½ÐµÐ¿ÑĢ":10221,"ĠÐµÑĢÐ¼":10222,"Ð¾ÑĢÑģÐºÐ¸Ð¹":10223,"Ð°Ð»ÑĮÑĤ":10224,"ĠÐ¸Ð½ÑĤÐµÑĢÐµÑģÐ½ÑĭÐµ":10225,"ĠÐ¾ÑīÑĥÑī":10226,"ĠÐ¿Ð°Ñħ":10227,"ĠÑĤÐµÑħÐ½Ð¸ÐºÐ°":10228,"ĠÑĢÐµÐ¹Ñħ":10229,"ĠÐ¿Ð¾ÑģÑĤÑĢÐ¾ÐµÐ½Ð¾":10230,"ÑģÑĤÐ¸":10231,"Ð½Ð°ÑĨÐ¸Ð¾Ð½":10232,"ĠÑĢÐ°Ð·ÑĢÐ°Ð±Ð¾ÑĤÐºÐ°":10233,"ĠÑĢÐ°Ð·ÑĢÐµÑĪÐµÐ½Ð¸Ñı":10234,"Ð´Ð¸Ðº":10235,"ĠÐ°ÑĢÐ°Ð²":10236,"ĠÐ¿Ð¾ÑģÑĤÐ°Ð²Ð¸ÑĤÑĮ":10237,"ĠÐºÐ¾Ð¼Ð¸ÑģÑģÐ¸Ñı":10238,"ĠÐ°Ð»Ð¼Ð°":10239,"ĠÐ´ÐµÐ¹ÑģÑĤÐ²Ð¸ÑıÑħ":10240,"ĠÐ½ÐµÐ¼ÐµÐ´":10241,"ĠÐ³ÑĢÐµÐ¹":10242,"ĠÐ²ÑĭÑģÑĤÑĢÐµÐ»":10243,"ĠÑĩÐµÐ¼Ð¿Ð¸Ð¾Ð½ÐºÐ°":10244,"ĠÐ±ÐµÑĢÑĳÐ·":10245,"ÑĢÐ°ÑģÑĤÑĢÑĥÐºÑĤ":10246,"ĠÐ½ÐµÑĢÐµÐ´ÐºÐ¾":10247,"ĠÐ·Ð²Ð¾Ð½":10248,"ĠÑĦÐµÐ´ÐµÑĢÐ°ÑĨÐ¸Ñı":10249,"ĠÐ¿ÑĢÐ¾ÑĦÐµÑģÑģÐ¸Ð¸":10250,"ĠÐ¾Ð²Ð»Ð°Ð´":10251,"ÑĥÑİÑīÐµÐµ":10252,"ĠÑĢÐ°Ð·Ð´ÐµÐ»Ñı":10253,"Ð¾ÑĢÑĢÐµÐºÑĤ":10254,"ÑĨÐµÐ»":10255,"Ð¾Ð»ÑĮÐ½Ð¾Ð¹":10256,"Ð»ÐµÐ½Ð½ÑĭÐ¼":10257,"ĠÐ¼Ð°ÑĢÐ³Ð°ÑĢ":10258,"ĠÑģÐ¿ÐµÑĨÐ¸Ð°Ð»Ð¸Ð·":10259,"ĠÐ·Ð°Ð²ÐµÑĢÑĪÐµÐ½Ð¸Ñı":10260,"ĠÐ¿ÑĢÐ¾ÑĦÑģ":10261,"ĠÑĦÐ¾Ð½ÑĤ":10262,"ĠÐ½Ð¾Ð²Ð¾ÑģÑĤ":10263,"ĠÑĤÑĢÑĥÐ´Ð½Ð¾":10264,"ĠÑĢÐµÐ»Ð¸Ð³Ð¸Ð¸":10265,"ĠÐ¸Ð½Ð¾Ð¹":10266,"ĠÐ³Ð¾Ð´Ð°Ð¼Ð¸":10267,"ÐµÐ»ÑĮÑģÐºÐ¸Ð¹":10268,"ĠÐºÐ¾Ð½Ñĩ":10269,"ĠÐ²Ð¾ÑģÑĤÐ¾ÑĩÐ½Ð¾Ð¼":10270,"ĠÑĤÐ°Ð¸Ð»":10271,"ĠÐ²Ð¾Ð·Ð²ÑĢÐ°ÑīÐµÐ½Ð¸Ðµ":10272,"ĠÐ¿Ð»Ð°ÑĤÑĦÐ¾ÑĢÐ¼Ð°":10273,"ĠÐ¸ÑĢÐ°Ðº":10274,"ĠÐ·Ð°ÑĩÑĳÑĤ":10275,"Ð°ÑİÑīÐ¸Ð¼Ð¸":10276,"ĠÐ¾ÐºÐ¾Ð½ÑĩÐ¸Ð»Ð°":10277,"ĠÐ²Ð´Ð¾Ñħ":10278,"ĠÐ½Ð°Ð±Ð»ÑİÐ´ÐµÐ½Ð¸Ñı":10279,"ĠÐ²ÑĳÐ»":10280,"ÑĦÑĦÐ¸ÑĨ":10281,"Ð¸ÑģÑĭ":10282,"Ð½ÑĥÐ»Ð°ÑģÑĮ":10283,"ÑĢÐ°Ð¹Ð¾Ð½":10284,"ÐµÑĢÐ²Ð°":10285,"ĠÐºÐ°ÑĩÐµÑģÑĤÐ²Ð¾":10286,"ĠÐ³Ð¸Ð±ÐµÐ»Ð¸":10287,"Ð¸ÑģÐ¾Ð¼":10288,"ĠÐºÐ°Ð»Ð¼Ñĭ":10289,"ĠÑĥÐ¿ÑĢÐ°Ð·Ð´Ð½ÐµÐ½Ð¸Ñı":10290,"ĠÐ¾ÑĤÐºÐ°Ð·ÑĭÐ²":10291,"ĠÐ¿Ð¾Ð¿ÑĥÐ»Ñı":10292,"ĠÐ¿ÑĥÑĤÐµÐ¹":10293,"ĠÐºÐ¾ÑĢÐ¾Ð»ÐµÐ²ÑģÐºÐ¾Ð¹":10294,"ĠÐ´ÐµÐ¼Ð¾ÐºÑĢÐ°ÑĤÐ¸ÑĩÐµÑģÐºÐ¾Ð¹":10295,"Ð¸ÑĤÐ¾":10296,"ĠÐ²ÑĢÐµÐ¼ÐµÐ½Ð½Ð¾":10297,"ĠÐ¸ÑģÐ¿Ð¾Ð»ÑĮÐ·Ð¾Ð²Ð°ÑĤÑĮÑģÑı":10298,"ĠÐ¿ÐµÑħÐ¾ÑĤÑĭ":10299,"ĠÐ±Ð¾Ð»Ð¾ÑĤ":10300,"ĠÐ¾ÑģÑĤÑĢ":10301,"ĠÐ°ÑĤÑĤ":10302,"ÑģÐºÐ¾Ð²":10303,"ÑĥÐ»Ðµ":10304,"ĠÑĪÐ»":10305,"ĠÑģÐ¿Ð¸Ð½":10306,"ĠÐ¿Ð¸ÑĤÐ°Ð½Ð¸Ñı":10307,"ĠÐ¿Ð¾Ð²ÐµÑĢÑħÐ½Ð¾ÑģÑĤ":10308,"Ð°ÑĤÑĥÑĥ":10309,"Ð¾Ð²Ð°Ð½Ð½Ð¾Ð¹":10310,"Ð¸ÑĢÐ°ÐµÑĤÑģÑı":10311,"ĠÑģÑĤÐ°ÑĢÑĪÐ¸Ð¼":10312,"ÑĥÐ¶Ð´ÐµÐ½Ð¸Ðµ":10313,"ĠÐ»ÑİÐ´Ð¼":10314,"ĠÑıÐ¿Ð¾Ð½ÑģÐºÐ¸Ð¹":10315,"ĠÐ¿ÑĢÐ¾Ð¿Ð¾Ð²ÐµÐ´":10316,"ĠÐ³Ð¾Ð½ÐºÐ¾Ð½":10317,"ÑįÐ¼Ð¿":10318,"ĠÑģÑĤÐ°Ð½Ð¸ÑģÐ»Ð°Ð²Ð°":10319,"Ð¸Ð½ÑģÐºÐ¸Ð¼":10320,"ĠÑģÐ²ÑıÐ·Ð°Ð½Ñĭ":10321,"ĠÐ¿Ð¾ÑıÐ²Ð»ÐµÐ½Ð¸Ðµ":10322,"ĠÐºÐ¾Ð°ÑĤÑĥÑĥ":10323,"ĠÑģÐ¾Ð±ÑģÑĤÐ²ÐµÐ½Ð½Ð¾Ðµ":10324,"ĠÐ´Ð²Ð¾ÑĢÐµ":10325,"ĠÑģÑĥÐ¼ÐµÐ»":10326,"ĠÐ¿ÑĢÐ¾Ð²Ð¾Ð·Ð³Ð»Ð°ÑĪ":10327,"ĠÐ¿Ð¾ÑģÐ»ÐµÐ´ÑĥÑİÑīÐ¸Ðµ":10328,"ĠÐ³ÑĢÐ°Ð¼Ð¼Ð°ÑĤ":10329,"Ð°ÑĩÐ¸":10330,"ĠÐ»Ð°Ñģ":10331,"ĠÐ¾Ð±ÑĢÐ°Ð·ÑĨÐ¾Ð²":10332,"ĠÑĢÐ°ÑģÐ¿Ð¾Ð»Ð¾Ð¶ÐµÐ½Ð¸Ðµ":10333,"ĠÐ¾ÑĦÐ¾ÑĢÐ¼Ð»ÐµÐ½Ð¸Ðµ":10334,"ĠÐ»ÑĮÐ²Ð¾Ð²":10335,"ĠÐºÐ½ÑıÐ¶ÐµÑģÑĤÐ²Ð°":10336,"ĠÑĥÐ»Ð¸Ñĩ":10337,"ĠÑĪÐµÐº":10338,"ĠÐ¿Ð°ÑĢÐ¾Ð²":10339,"ĠÑħÐ°ÑĢÐ°ÐºÑĤÐµÑĢÐ°":10340,"ĠÐ²ÑĭÐ¹ÑĤÐ¸":10341,"ĠÐ¼ÑıÑĤÐµÐ¶":10342,"ĠÑĢÐµÑĪÐ°ÐµÑĤ":10343,"ĠÑģÑĢÐ°Ð¶ÐµÐ½Ð¸Ð¸":10344,"Ð¾ÑĦÑĦ":10345,"ĠÑģÑĤÑĢÐ¾Ð¸ÑĤÐµÐ»ÑĮÑģÑĤÐ²Ðµ":10346,"ĠÐ°Ð´Ð¼Ð¸Ð½Ð¸ÑģÑĤÑĢÐ°ÑĤÐ¾ÑĢÐ¾Ð¼":10347,"ĠÐ¸Ð½ÑĦÑĢÐ°ÑģÑĤÑĢÑĥÐºÑĤ":10348,"ĠÑģÐ¾Ð²ÐµÑĤÑģÐºÐ¾":10349,"ĠÐ±Ð¾ÑĢÐ¾Ð´":10350,"ĠÐ¾ÑĤÐ¼ÐµÑĤÐ¸Ð»":10351,"ĠÐ±Ð»Ð¸Ð¶Ð°Ð¹ÑĪÐ¸Ðµ":10352,"ÑĨÐºÐ¾Ð³Ð¾":10353,"ĠÐ¿Ð¾Ð±ÐµÐ´Ð¸ÑĤÐµÐ»ÐµÐ¼":10354,"ĠÐ²Ð¸Ð½Ð¾Ð²":10355,"ĠÑĢÐ°Ð±Ð¾ÑĤÐ½Ð¸Ðº":10356,"ĠÑģÐ¾Ð±ÑĢÐ°Ð»":10357,"ĠÐ¸Ð´ÐµÐ¹":10358,"ĠÐ¿Ð¾ÐºÐ°Ð·Ð°Ð»":10359,"ÐµÐ»Ñĭ":10360,"ÑĪÐ¸Ð½Ð°":10361,"Ð¾Ð·Ð°Ð¿":10362,"ĠÐ¾Ð±ÑīÐ¸Ð½":10363,"ĠÐ¿ÑĢÐ¾ÑĪÐµÐ´":10364,"ĠÐ¸Ð½ÑģÑĤÑĢÑĥÐ¼ÐµÐ½ÑĤÑĭ":10365,"ÐºÐ¾Ð¼Ñĥ":10366,"ĠÐ²Ð¾Ð·ÑĢÐ°Ð¶":10367,"Ð¾Ð»Ð¾Ð³Ð¸Ñİ":10368,"ĠÐ½ÐµÐ¼ÑĨÐµÐ²":10369,"ĠÑģÑĤÑĢÐ°ÑĪ":10370,"ĠÐ°Ð»ÑĮÐ±ÐµÑĢÑĤ":10371,"ĠÐ¾ÑĤÐºÑĢÑĭÐ»":10372,"ĠÑģÐ¾ÑĩÐ¸Ð½ÐµÐ½Ð¸Ñı":10373,"Ð¾ÑģÑĤÐµÐ¿":10374,"ÐºÐ¾Ð½Ñĭ":10375,"ĠÐ¸Ð½Ð´Ð¸Ñı":10376,"ĠÐºÐ¾Ð¾ÑĢÐ´Ð¸Ð½Ð°":10377,"ĠÐ´ÑĢÑĥÐ·ÑĮÑı":10378,"ĠÑĩÐ¸ÐºÐ°Ð³Ð¾":10379,"ĠÐ¿Ð¾Ð»Ð¸Ð³":10380,"ĠÑįÑģÐ¿":10381,"ĠÐ°Ð²ÑģÑĤÑĢÐ°Ð»Ð¸Ñı":10382,"Ð°ÑİÑīÐ¸ÐµÑģÑı":10383,"ĠÑģÑĥÐ±ÑĬÐµÐºÑĤÐ°":10384,"ĠÐ´Ð¶ÐµÐ½":10385,"Ð¸ÑĩÐ½Ð¾ÑģÑĤÑĮ":10386,"ĠÑĢÐ°ÐºÐµÑĤÑĭ":10387,"ĠÐ³Ð»Ð°Ð²Ð½Ð¾ÐºÐ¾Ð¼Ð°Ð½Ð´":10388,"ÑĢÐ¾Ð²Ð°":10389,"ĠÐ¼Ð°Ð»Ð°Ð¹":10390,"ĠÐ¼Ð½Ð¾Ð³Ð¾Ð¼":10391,"ĠÐ²ÑĭÑģÐ¾ÐºÐ¾Ð³Ð¾":10392,"ĠÐ°ÑĢÑħÐ¸ÑĤÐµÐºÑĤÐ¾ÑĢÐ°":10393,"ĠÐ¿ÑĥÑĪÐºÐ¸Ð½":10394,"ĠÐ°Ð³Ð°":10395,"ĠÑĢÐµÑģÑĤ":10396,"ĠÐ²ÑĭÑģÐ°Ð´":10397,"Ð¾Ð»Ð¾Ð³Ð¾Ð²":10398,"ĠÐ¾ÑĤÐºÑĢÑĭÑĤÐ¾":10399,"ĠÑĦÐ¸ÑĢÐ¼Ñĭ":10400,"ĠÑĤÐ¾Ð²Ð°ÑĢÐ¸ÑīÐµ":10401,"ĠÑįÐ½ÑĤÐ°Ð»ÑĮÐ¿":10402,"ĠÐ³ÑĢÐ°Ð±":10403,"ĠÐ¼ÑĥÐ¶Ð°":10404,"ĠÐ¾ÑĪÐ¸Ð±ÐºÐ°":10405,"ĠÑħÐ¾ÑĢÐµ":10406,"ĠÐºÑĢÐ°ÑģÐ¸Ð²":10407,"ĠÑįÐºÐ¾Ð½Ð¾Ð¼Ð¸ÑĩÐµÑģÐºÐ¾Ð¹":10408,"ĠÐºÑĥÐ»ÑĮ":10409,"ĠÑĤÑĢÐ¸Ð´":10410,"ĠÑĤÐ¸Ð¿Ð¾Ð²":10411,"ĠÑģÐ¾Ð´ÐµÑĢÐ¶Ð¸Ð¼Ð¾Ð³Ð¾":10412,"ĠÐ¸ÑģÐ¿Ð¾Ð»ÑĮÐ·Ð¾Ð²Ð°Ð»ÑģÑı":10413,"ĠÐºÐ°Ð½Ð°Ð»Ðµ":10414,"ĠÐ·Ð°ÑıÐ²ÐºÑĥ":10415,"ĠÐ´Ð·ÑİÐ´Ð¾":10416,"ĠÐ¾ÑĤÐ»Ð¾Ð¶":10417,"ĠÐ¼ÐµÑģÑĤÐ½Ð¾Ð¹":10418,"ĠÐ¾ÑĤÐºÐ°ÑĤ":10419,"ĠÐ¿ÑĢÐ¾ÑĩÐ¸Ðµ":10420,"ĠÐ³Ð°ÑĢÑĢÐ¸":10421,"ĠÐ²ÑĢÑıÐ´":10422,"Ð¸Ð»Ð»Ð°":10423,"ĠÐ¿Ð¾Ð²Ð¾Ð´":10424,"ĠÐ¿ÑĢÐµÐ¶Ð½ÐµÐ¼Ñĥ":10425,"ĠÐºÐ°Ð´ÑĢÐ¾Ð²":10426,"ĠÑĨÑģÐºÐ°":10427,"ĠÑİÐ·":10428,"ĠÐ¿Ð°ÑĢÐºÐµ":10429,"ĠÐºÐ¾ÑĢÐ¾Ð»ÐµÐ²Ð°":10430,"ĠÐ°Ð²ÑģÑĤÑĢÐ¾":10431,"ĠÐ¿ÑĢÐ¸Ð½ÑıÑĤÐ¸Ñı":10432,"ĠÐ°Ð²Ð¸Ð°ÑĨÐ¸Ð¾Ð½Ð½Ð¾Ð³Ð¾":10433,"ĠÐ²ÑĭÑĢÐ°Ð±Ð¾ÑĤ":10434,"ĠÑģÐ¾ÐºÐ¾Ð»":10435,"ĠÐºÐ¸ÑĤÐ°Ð¹ÑģÐºÐ¾Ð¹":10436,"ĠÐ¼Ð°ÑģÑģÐ¾Ð²Ð¾Ð¹":10437,"ĠÑıÑĢÐ¾ÑģÐ»Ð°Ð²ÑģÐºÐ¾Ð¹":10438,"Ð°ÑĢÐ¼":10439,"ĠÑĢÐµÐ°Ð±Ð¸Ð»":10440,"ĠÐºÐ¾Ð»ÑĳÑģ":10441,"ÑģÐµÐ¼ÐµÐ¹":10442,"ĠÑħÐ¾ÑĢÐ²Ð°ÑĤÐ¸Ð¸":10443,"ĠÐºÑĥÑĢÐ°":10444,"ĠÐ½ÑĥÑĢ":10445,"ĠÐ¸Ð·Ð²ÐµÑģÑĤÐ½Ð°Ñı":10446,"ĠÑĩÐ¸ÑĤÐ°ÑĤÑĮ":10447,"ĠÑģÐ¾Ð¿ÑĢÐ¾ÑĤÐ¸Ð²Ð»ÐµÐ½Ð¸Ñı":10448,"Ð¾ÑģÑĤÐ°":10449,"ĠÑģÐ¾ÑĨÐ¸Ð°Ð»ÑĮÐ½ÑĭÑħ":10450,"ÑĦÐµÑĢÐµÐ½ÑĨ":10451,"ĠÐ¿Ð»Ðµ":10452,"ĠÑģÐºÐ¾Ð±":10453,"ĠÐ¸Ð¼Ð¿ÐµÑĢÐ°ÑĤÐ¾ÑĢÑģÐºÐ¾Ð¹":10454,"ĠÐ¿ÑĢÐµÐ´Ð¿ÑĢÐ¸Ð½Ð¸Ð¼Ð°ÑĤÐµÐ»ÑĮ":10455,"ĠÑĥÐ¾ÑĢ":10456,
[...]
