#version: 0.2 - Trained by `huggingface/tokenizers`
e r
e n
e i
c h
Ġ d
Ġ s
u n
Ġ a
i e
ei n
Ġ n
Ġ ein
i n
s t
Ġ b
Ġ v
l l
a n
Ġ z
Ġ w
s ch
g e
Ġ f
Ã ¼
Ġ m
o n
Ġein s
t e
Ġd er
Ġ k
Ġ un
Ġd ie
o r
e s
Ã ¤
a r
u r
i ch
Ġ h
Ġn e
Ġn u
i t
Ġnu ll
un g
w ei
Ġun d
Ġ in
a t
Ġ i
Ġa u
Ġne un
Ġ p
a l
r ei
Ġz wei
Ġ l
i er
d e
Ġ g
ch t
a s
Ġ r
i sch
t en
Ġf Ã¼
b en
h r
Ġ ge
e m
Ġ t
d er
e l
t er
d en
a u
Ã ¶
Ġ er
g en
Ġs ie
Ġ j
Ġa cht
Ġv er
o l
i s
Ġv on
b er
Ġb e
Ġa n
Ġs e
Ġs t
Ġd rei
Ġz u
a m
ch s
i g
n f
l ich
ĠfÃ¼ nf
e t
Ġv ier
Ġ o
r a
Ġsie ben
i on
Ġs ch
Ġm it
o m
Ġd en
Ġse chs
Ġd as
ei t
u s
i l
Ġd es
an d
Ġi m
Ġa l
u m
u t
en t
i r
a ch
Ġau f
c k
r o
i k
Ã Ł
s e
Ġ c
r e
Ġau s
f t
isch en
Ġ e
k t
an n
st e
Ġd e
s en
a hr
Ġal s
Ġd em
l e
s p
a h
ich t
Ġw ur
ĠfÃ¼ r
Ġr e
f f
Ġb ei
Ã¤ n
Ġein e
Ġi st
i en
Ġs o
Ġs p
r i
a d
g er
Ġn ach
Ġs ich
Ã¼ ber
isch e
h e
Ġa m
m en
v er
ie l
Ġf r
Ġa b
ung en
Ġau ch
a b
u l
o s
Ġv or
o t
at ion
Ġwur de
Ġ Ã¼ber
o ch
Ġw er
sch a
Ġk a
Ġun ter
Ġs ein
n e
l a
ei l
i st
Ġj ahr
ur ch
ch en
in d
ut sch
Ġw ar
r u
Ġw ir
un d
er n
or t
Ġ um
r ie
Ġ ent
ung s
Ġde utsch
Ġd urch
o p
ll e
st en
Ġa r
Ã¼ n
h n
i m
b e
in g
te g
Ġ es
or ie
ei ch
Ġb er
Ġ ch
Ġl e
scha ft
o g
h en
s er
et z
st er
a ll
Ġg r
i v
an g
Ã¤ t
Ġka teg
Ġb is
Ġm e
Ġw ie
Ġkateg orie
a g
Ã¼ r
Ġwer den
Ġein er
Ã¤ r
Ġz ur
h l
Ġo der
Ġn icht
isch er
Ġw e
Ġm in
Ġp ro
Ã¶ r
l ie
Ġwir d
z e
i ge
i gen
Ġk on
Ġzu m
s b
ge l
n en
p p
Ġ en
ch e
Ġm a
ar t
r Ã¤
Ġh er
Ġs ind
au s
ste ll
Ġw ei
ad t
w e
l in
Ã¶ n
an z
lich en
h er
h al
te l
s am
u g
w er
i c
Ġi hr
g r
en d
l and
g t
Ġa ll
an t
or d
Ġj e
Ġh at
q u
k e
Ġd a
ge b
Ġmin i
Ġb r
ier t
te t
Ġein em
Ġk l
Ã¼ ck
lich e
m er
ah l
m ein
Ġk om
n er
or m
p t
Ġh e
Ġ te
de t
z en
rei ch
ur g
i ll
er s
p f
Ġm ar
m e
Ġein en
au f
el t
Ġdas s
f Ã¼
k en
us s
as s
sp iel
Ġst adt
Ġge b
Ġl and
h t
Ġs te
i a
Ġk Ã¶n
at ur
Ġf e
w a
b l
Ġg en
Ġg ro
i d
Ġp ol
s etz
Ġt he
Ġz w
Ġne u
ll en
i z
o d
Ġf l
i ck
g l
Ġ ei
ÃŁ en
Ġge sch
Ġd ar
es s
k s
o b
r it
Ġm an
Ġan der
Ġb es
Ġge gen
f l
k eit
e kt
Ġg l
Ġwur den
ar d
a p
Ã¤ hr
de l
der t
Ġz eit
u ch
Ġ et
Ġ or
Ġr o
al t
at z
Ġn ur
wei se
u st
f en
u d
de m
h o
Ã¤ u
l er
w ie
Ġme hr
il d
Ġbe t
Ġbe z
i b
Ġwei ter
Ġh a
Ġ Ã¶
ei ten
Ġj o
f e
Ġver b
r ich
i al
te s
h eit
en n
Ġm us
ter n
Ġl ie
t z
s s
p h
Ġdie s
Ġt eil
rei s
Ġg er
an k
Ã¤ l
Ġdie se
Ġ el
b ar
on der
Ġre g
it z
Ġb l
o k
Ġge w
at en
f ol
z u
p er
Ġv om
n is
ber g
Ġge mein
ah n
Ġs eit
Ġh o
h a
Ġi sb
Ġisb n
ie d
b urg
at t
f er
Ġh in
kt ion
t eil
Ġn och
ich te
fÃ¼ hr
Ġa ber
a k
p l
s k
ier en
al e
Ġ u
Ġzw ischen
ar b
a st
Ġp h
ik er
o ll
Ġver w
Ġein z
am m
Ġein es
h un
i an
Ġgro ÃŁ
st and
Ġh och
ier ung
it Ã¤t
Ġt r
Ġp l
Ġ us
Ġbe g
u te
n et
ol og
Ġe x
Ġjahr hun
ff en
ge sch
z eit
m us
Ġst a
ier te
el n
ig er
au m
ar l
Ġdie ser
Ġf ol
Ġw elt
Ġs y
d u
Ġw as
i o
Ġs el
Ġd am
Ġjahrhun dert
al s
Ã¤n d
Ġ qu
en z
g lich
h m
Ġdeutsch er
Ġpol it
Ġs Ã¼
Ġ rei
Ġwie der
ei st
p r
k l
ÃŁ er
im m
Ġl a
Ġsein e
Ġk ann
f ahr
w o
f ten
Ġso wie
t ra
b st
eit s
la g
Ġs a
ann t
ein e
ul t
Ġ ur
n ung
Ã¶ l
ik an
or en
m a
b au
Ġm o
al en
an s
l ung
sch en
Ġh au
at h
ut z
ig keit
ru pp
o v
te m
ver s
am en
Ġb a
Ġl in
Ġl it
Ġw o
Ġje d
Ġb und
Ġt h
ie t
f orm
w ick
Ġe ur
i um
l os
Ġsein er
Ġb o
Ġer st
Ġei gen
Ġo f
Ġle ben
ei m
Ġwar en
Ġp r
it ion
c e
ri st
Ġk ir
Ġjahr e
is sen
in gen
as sen
Ġm en
m ann
o w
n ah
Ġin s
em ber
Ã¶ s
i p
Ġn ie
st em
Ġsch w
Ġzu sam
Ġan ge
f in
rie g
Ġp ar
Ġf in
Ġzusam men
Ġam er
Ġo ber
r on
h Ã¶r
Ġf rei
Ġm on
at er
Ġar b
Ġet wa
k er
Ġge l
om men
Ġk ur
Ġbund es
ĠfÃ¼ hr
Ġsp iel
f all
re u
Ġver sch
Ġjed och
ent r
t s
ĠkÃ¶n ig
Ġb au
an den
Ġhat te
m it
Ġre cht
t t
d r
Ġdeutsch land
Ġfr anz
ie den
Ġbe sch
iv e
ĠsÃ¼ d
Ġan t
Ġ ort
a ge
Ġ y
Ã¤ ch
Ã¤ hl
der n
ra f
el d
Ġver l
Ġsp Ã¤
ÃŁ e
i f
Ġhau pt
g lie
al d
Ġp ers
Ġh Ã¶
ab e
Ã¤ d
hal ten
h men
Ġf or
Ġber lin
g an
au t
in e
Ġbe k
ie le
t schaft
Ġau t
Ġk am
Ġgr und
au er
Ġh ier
Ġbe st
Ġbez eich
ra ch
Ġw Ã¤hr
il m
Ġt o
r at
Ġlit er
ri ft
Ġein ge
Ġl u
v or
Ġs u
ra d
an del
un den
Ġkom m
an der
Ġl ei
Ġin d
Ġb en
s i
Ġ x
Ġwe b
ke hr
Ġjahr en
Ġaus ge
Ġun i
Ġn ord
Ġgr Ã¶
la ge
Ġdeutsch en
ib t
e ll
Ġent wick
Ġk o
Ġm Ã¼n
g ung
Ġd i
er t
rie b
ĠwÃ¤hr end
et t
ol d
Ġwe st
ĠkÃ¶n nen
o ber
Ġer sten
spiel er
Ġn ation
Ġeur op
is mus
ar k
ĠspÃ¤ ter
g ang
Ġau g
Ġamer ikan
or den
Ġnie der
ei ster
ch n
Ġ em
Ġhe ute
lie ÃŁ
Ġa d
Ġar t
it al
z w
st adt
Ġver s
Ġfr Ã¼
st r
is s
st o
y p
Ġsel bst
e d
Ġmit tel
Ġs ei
ion en
Ġb el
e k
z ial
in n
e ter
Ġfr ank
Ġbei spiel
Ġso ll
b r
Ġihr e
d ing
Ġliter atur
or f
a cht
en s
Ġha ben
Ġe ben
h ne
Ã¶ glich
st ein
y s
ri ff
Ġz ahl
st ra
Ġer fol
Ġbe de
lich er
ier ten
ge ben
Ġsta at
g te
ff ent
Ġunter sch
Ġsie he
sp r
Ġst ra
ge mein
hal b
Ġg ibt
Ġuni vers
Ġan d
Ġi s
ster reich
f or
Ġj an
te te
Ġgl eich
Ġf orm
ist or
Ġo b
Ġi i
Ġver t
m al
ru ck
Ġf u
gen d
Ġc o
Ġj un
Ġkon n
re cht
Ġa lle
scha ften
ig n
b t
g ar
ult ur
Ġw a
stell t
Ġv ol
y m
Ġdeutsch e
Ġdam it
Ġl i
Ġfe st
Ġaug ust
Ġer h
Ġge hÃ¶r
Ġc om
Ã¤l t
Ġall er
Ġch rist
Ġgesch ichte
ig t
Ġver ein
Ġkl ein
m in
Ġj ul
Ġbei m
Ġkom p
stell ung
Ġander en
ck en
setz t
Ġw en
sch l
ei d
Ã¼r ger
x t
Ġgemein de
z er
Ġm Ã¤r
a c
Ġzur Ã¼ck
Ġber eits
ei chen
Ġv iel
t h
u bl
ber t
Ġbe ste
Ã¤ m
u er
Ġne ben
Ġp f
Ġen gl
Ġp art
ation en
gr Ã¼n
ol f
w ir
Ġgr Ã¼n
e lle
Ġfr ied
Ġb ild
h in
on t
i us
m an
Ã¤n der
Ġw enn
Ġer ste
ĠÃ¶ sterreich
Ã¤n ger
Ġd ab
Ġk r
se ll
b all
on en
Ġen de
Ġin ter
Ġwas ser
Ġp rÃ¤
p ro
Ġst and
Ġsch l
un de
Ġdab ei
Ġme d
Ġd ort
s y
Ġd ann
h eim
Ġf ilm
Ġin tern
issen schaft
Ġl etz
Ġr el
Ġs onder
b ru
m Ã¤
o gen
ig ung
Ġa t
Ġb il
in z
h au
st Ã¤nd
u cht
Ġr a
Ã¤n g
olog ie
it t
Ġfranz Ã¶s
u b
Ġm al
Ġmit glie
Ġ Ã¤
den t
Ġr om
Ġp o
Ġn ov
Ġh ei
ho f
Ġma i
a kt
ot t
Ġjo h
isch es
f r
ck e
er e
or n
in a
un kt
Ġs on
lin ks
Ġw el
Ġweb links
u le
Ġer sch
am il
Ġsein en
i ff
gr und
n a
b ild
Ġh istor
b ahn
u ar
Ġb ar
Ġi hn
wer k
Ġn amen
ch er
Ġo kt
ge s
Ġph il
el m
Ġm il
h em
Ġge st
Ġjoh ann
Ġb and
Ġse hr
h aus
un k
Ġversch ieden
un st
Ġm et
Ġse p
Ġmus ik
u ten
Ġp er
Ġde z
Ġher r
s icht
k a
Ġfol gen
Ġweiter e
s g
Ġk ar
st a
op h
g a
ann te
r icht
Ġz un
mit tel
e llen
Ġk eine
Ġb i
hal t
Ġsein em
Ġl an
Ġihr er
Ġb as
Ġw il
ur t
Ġf ra
Ġk ultur
Ġn ah
la gen
Ġre gel
Ġau ÃŁer
Ġsch wei
k reis
Ġj u
ar e
Ġmen schen
Ġbes onder
stell er
z eich
Ġjan uar
Ġa pr
Ġm Ã¶glich
Ġb zw
es en
Ġverw en
Ġsch rift
Ġt ra
z ahl
Ġokt ober
Ġr Ã¶
Ġg ra
Ġh and
am e
al ter
Ġland es
Ġeinz eln
c t
Ġk rieg
Ġm ann
Ġge f
Ġo hne
m ar
p s
a z
Ġver lag
wo hn
Ġm Ã¼
rie ben
Ġst att
ist er
Ġjun i
Ġh al
Ġfu ÃŁ
Ġall em
Ġi hm
Ġka is
Ġs ol
rupp en
Ġpro du
in ger
Ġk in
Ġe v
es sen
Ġk arl
sch e
Ġk reis
z ie
k on
ne hmen
Ġar ch
Ġwir tschaft
ist en
at iv
a te
ach weise
i te
Ġste ll
Ġdez ember
Ġeinzeln achweise
Ġz entr
kt ur
b ach
ĠmÃ¤r z
Ġc l
Ġjul i
s w
Ġd r
chs en
tem ber
Ġt a
ze ug
f te
ffent lich
Ġst r
Ġsep tember
p rÃ¤
Ġs er
Ġg ab
sch n
Ġp ri
Ġab ge
Ġapr il
fall s
re chen
f ang
Ġfried rich
s atz
Ã¼ tz
fÃ¼hr t
k eiten
Ġb Ã¼rger
p g
un ktion
Ã¶l ker
Ã¼ b
Ġst ud
Ġs k
Ġh ein
un ter
sell schaft
Ġ ital
sam t
Ġb ahn
iel t
m eister
Ġnov ember
Ġsy stem
sto ff
Ġd ir
Ġf ern
rupp e
Ġdies em
a v
Ġw Ã¼r
Ġbe f
tra g
Ġfr au
Ã¤u f
Ġe hem
Ġbezeich net
Ġlie gt
Ġh andel
Ġte xt
ei le
y n
Ġs om
nah me
on d
Ġsp e
Ġkonn te
Ġgen er
ik a
o ck
Ġj pg
o f
Ġo st
Ġr h
Ġ reich
t r
Ġa kt
Ġpolit iker
Ã¤n de
gl eich
k r
or g
de te
hr en
Ã¤t z
Ġkir che
Ġim mer
Ġr u
as se
Ġk unst
el s
f eld
Ġf amil
Ġder en
se hen
og ra
Ġander e
Ã¼ t
Ġor gan
Ġt ro
Ġ ol
ien st
Ġd is
i tel
ation s
Ġsonder n
Ġd an
in s
o u
Ġin ner
Ġf ahr
Ġso zial
pp en
Ġneu e
le gen
Ġn atur
au l
Ġl ang
m als
Ġr ad
e um
fahr en
Ġital ien
Ġm ill
ff iz
Ġintern ation
s a
Ġbr it
Ġer z
Ġw icht
Ġsch au
k ant
Ġer w
Ġh ol
at or
Ġte chn
Ġf re
we g
Ġv i
Ġfl ug
Ġal t
re ten
mÃ¤ ÃŁ
wo hl
Ġr Ã¼ck
alt ung
Ġda v
rit t
ra ft
Ġc a
Ġsch on
ding s
f ach
ei ter
Ġkais er
ĠmÃ¼n chen
Ġdies es
k ir
o ten
on s
h Ã¤lt
f Ã¤
ubl ik
Ġv oll
Ġbei den
re g
Ġnation al
k ommen
o ge
Ġv iele
Ġk ein
Ġel ekt
Ġpro z
Ġbe fin
Ġdes sen
Ġaller dings
Ġgro ÃŁen
Ġbest imm
Ġd ah
Ġch r
g abe
ra che
l o
Ġba y
k rieg
Ġeinz el
Ġr und
Ã¼n st
ogra ph
geb iet
v e
Ġunivers itÃ¤t
Ġb uch
Ġo ft
ier e
Ġein ige
Ġm ag
ch te
Ġneu en
Ġer n
Ġd at
z ug
kl Ã¤r
st ru
Ġhoch kant
cht er
los sen
eit ung
ge w
Ġfe bru
w ig
Ġh ar
cht en
Ġfebru ar
Ġh r
or e
Ġkon t
Ġs al
c o
ann ten
wei l
ver b
Ġleben s
Ġw ill
on e
Ġreg ion
rei t
b uch
Ġamerikan ischer
Ġk m
em en
Ġh aus
Ġzwei ten
an gen
Ġd u
Ġver m
p unkt
Ġer l
rei chen
w as
an ken
ĠfuÃŁ ball
j ekt
Ġihr en
Ã¤ s
Ġw ien
ĠgroÃŁ e
ge gen
Ġge s
Ġsch wer
Ġher z
Ġz e
b ung
Ġlu ft
h elm
Ġt od
u f
Ġm eist
Ġk an
Ġsch ul
Ã¤ch st
Ġda zu
Ġauf ge
Ġbek annt
Ġehem al
ie s
Ġp eter
Ġh am
Ġden en
h ung
h ol
w end
Ġm ich
er en
Ġst ar
Ġne w
at s
r en
Ġeben falls
Ġs c
Ġhr sg
d ung
Ġrecht s
f Ã¼r
Ġsch we
v Ã¶lker
h Ã¶
it Ã¤r
Ġr uss
Ġkur z
ei g
lieÃŁ lich
hl en
Ġh Ã¤uf
ig ht
Ġmitglie d
Ġh eil
Ġbeg riff
um en
k o
Ġm ei
r aum
Ġverwen det
h Ã¤ng
Ġwil helm
f as
Ġe d
Ġz er
Ġk ath
ĠgrÃ¶ ÃŁ
Ġals o
s weise
Ġwe gen
ĠrÃ¶ m
Ġber g
reu z
Ġjahrhundert s
rÃ¤ ger
ach en
los s
ein ander
d ruck
v en
ge hen
ar ten
ut ung
Ġw orden
Ġent sch
ur n
i ent
in er
Ġf ort
b o
h ard
Ġst Ã¤d
ion s
Ġg il
p en
Ġwer k
in en
Ġk rit
Ġs en
Ġur spr
Ġw in
i der
Ġp ra
z entr
Ġw ahr
re d
ut t
r au
Ġt er
h and
s on
st it
Ġp a
om m
Ã¼ ss
wohn er
nis se
s d
es se
f ern
sb es
Ġhin ter
ck er
it y
Ġauf grund
f ass
Ġ on
Ġsp an
p el
Ġf unktion
Ġd om
al is
Ã¶ ffentlich
ll er
Ġland kreis
Ġver kehr
Ġzun Ã¤chst
Ġz ei
um ent
ich ten
sch ule
Ġc on
ze u
p ol
Ġste ht
Ġall gemein
wer t
Ġw eit
it zen
Ġschau spieler
Ġmil itÃ¤r
Ġw issenschaft
Ġver k
Ġuntersch ied
Ã¤hl t
Ġw ahl
Ġka p
am ent
Ġvol ks
Ã¤n ge
ig ten
Ġh ans
Ġwir k
Ġlin ks
ur e
Ġma x
sp ro
Ġw es
sp rechen
Ġp ort
Ġv ar
Ġschw ar
Ġje weil
Ġal b
Ã¶r per
Ã¤ re
Ġm or
Ġhein rich
Ġge sellschaft
Ġf all
s o
Ġr es
er k
al er
Ġmar k
Ġr icht
stra ÃŁe
ord nung
er g
Ġschrift steller
Ġeurop Ã¤
fÃ¼hr ung
Ã¤ ft
Ġk Ã¼
isch of
Ġerfol g
p ublik
ur m
Ġi r
Ġbe vÃ¶lker
Ġarb eit
in nen
ge stellt
Ġm ot
Ġin sbes
ur en
stell en
Ã¤ che
ig te
onder e
Ġinsbes ondere
Ġt yp
l auf
Ġrei chs
f el
Ġgen annt
Ġsp ort
Ġge setz
Ġkin der
Ġpers on
le gt
Ġh il
u e
Ġst ein
as e
Ġver Ã¶ffentlich
Ġo ffiz
Ġgil t
y r
am p
anz en
Ġdie sen
Ġbeispiel sweise
Ġhe ut
og raf
ga ben
c a
Ġb Ã¼
Ġan fang
ind ung
e x
Ġpart ei
Ġzu ge
ik t
Ġander em
Ġver fÃ¼
Ġge grÃ¼n
Ġp at
Ġkir chen
Ġen g
Ġl ud
schl uss
Ġkomm un
de ten
sch er
Ġsch ne
d a
Ġk n
Ġn ot
Ġrh ein
ut ion
Ġa g
Ġal ign
an ten
Ġdah er
Ġher aus
a de
ei den
Ġb ern
Ã¼ck e
gen ommen
Ġab s
fl uss
an gel
Ġsoll te
t ag
rei che
Ġbet rieb
um s
Ġr ot
Ġp aul
Ġentwick lung
ige s
o c
Ġb ra
Ġkath ol
i pp
Ġen d
f urt
Ġkomp on
Ġs an
Ã¤ us
Ġorgan is
Ġn un
Ġdar auf
Ġmit te
ut lich
Ġpro v
Ġbesonder s
Ġa k
s Ã¤tz
Ġmehr ere
i ft
Ġgeb iet
Ġbeste ht
Ġs h
setz ung
Ġsy n
Ġjo hn
y l
en den
Ġle hr
gr amm
Ġk or
gesch ichte
o st
ĠhÃ¤uf ig
Ġmo der
Ġ Ã¤l
Ġrom an
Ġbede utung
st ag
Ġal ten
Ġp ap
st anden
Ġk at
os ition
h eiten
Ġh eim
Ġr aum
Ġ Ã¼b
em at
nah men
Ġl Ã¶
Ġg u
Ġh tt
Ġr ich
Ġte m
Ġw eil
m ent
Ġ ich
k el
Ġm ath
schn itt
Ġjo se
j ahr
Ġm uss
Ġmini atur
der ung
Ġin form
i x
ei tet
Ġs il
or k
Ġrel ig
Ġfrank reich
de utsch
Ġb u
sch utz
Ġt itel
sch rift
Ġfr an
b el
pf er
Ġc ar
Ġus a
Ã¼ l
Ġent ste
Ġstaat s
ĠÃ¤ hn
Ã¤ hn
Ġs in
ut ter
hau sen
f ra
ei te
Ġpl an
Ġd rit
ik el
Ġpl atz
Ġmei sten
Ġei sen
Ġge m
os oph
Ġk Ã¼nst
il e
Ġg rie
Ġgeb oren
Ġgegen Ã¼ber
ist ischen
st re
de ck
ien en
Ġd re
ne te
fol ge
iv en
Ġbez ie
Ġli ste
Ġber eich
Ġg raf
Ġbefin det
Ġst amm
Ġerst mals
Ġk al
a e
Ġein wohner
h ei
ar ch
Ġpers onen
Ġj ap
z t
Ġt ri
Ġsich er
ĠgrÃ¶ ÃŁer
Ġurspr Ã¼n
Ġunter st
Ġge org
ur ger
Ġst re
Ġgemein sam
le x
Ã¶ t
lich keit
Ġw ider
wir tschaft
Ġhat ten
Ġbeg inn
l ungen
m b
ĠauÃŁer dem
Ġent sprechen
an ge
Ġlud wig
Ġr en
ust rie
em ent
Ġt rad
Ġpri v
Ġsch m
k an
si dent
Ġg ut
Ġf a
s sen
Ġp al
Ġk u
Ġb urg
teil ung
Ġev angel
Ġc ol
Ġsch la
Ġso gen
Ġerh ielt
chs el
e st
i de
Ġst ark
Ġw ob
Ġo ffen
Ġb ru
Ġunter nehmen
se e
sp ort
h le
Ġr ein
Ġp reu
Ġsch loss
Ġw olf
Ġwob ei
Ġso hn
al itÃ¤t
Ġg o
ĠfrÃ¼ her
Ġan geb
Ġmus eum
or ben
Ġgener al
Ġletz ten
ir k
Ġre v
ge setz
Ġge sam
Ġkomm t
Ġcom p
ken n
Ġsta aten
d ig
at ive
Ġk op
Ġtrad ition
t lich
Ġge d
Ġer halten
Ġk ol
Ġf ast
ver kehr
ol oge
Ġnach dem
r y
Ġk e
etz t
Ġnieder l
Ġherz og
Ġd aten
ier ungs
ra cht
sy stem
Ġl auf
Ġse e
Ġo per
Ġm art
Ġm at
sy ch
f rie
Ã¶ ff
Ġju gend
ĠfÃ¼hr te
an st
Ġm Ã¤n
ar en
Ġinner halb
ik en
Ġmill ionen
Ġeurop a
tra gen
i den
Ã¤ ss
en de
Ġer klÃ¤r
Ġwo hn
Ġver d
Ġfol ge
her r
ek te
un ft
Ġch em
ur s
Ġfrau en
Ġex ist
Ġer rich
Ġf Ã¤
Ġbeg ann
Ġengl isch
Ġm y
Ġal ex
Ġjap an
Ġg ar
Ġpar is
ab hÃ¤ng
Ġsein es
den ten
Ġg ot
o ster
Ġma cht
Ġbe d
au b
kir che
Ġall en
Ġse tz
Ġfor sch
Ġt on
is e
Ġhtt ps
ze pt
Ġn orm
Ġunter s
Ġst u
Ġer m
Ġf ach
Ġschwei zer
w ort
Ġe p
Ġweiter en
fe st
Ġmich a
Ġa p
Ġr ah
Ġwel che
pl atz
b a
t on
m o
la den
am er
Ġbes itz
Ġpro f
Ġk Ã¶l
min ister
Ġn or
es e
Ġfamil ie
Ġsp rach
Ã¤u de
Ġkl ass
b et
Ġw or
ri ften
Ġbeste hen
Ġo tt
Ġho hen
Ġst at
Ġb lie
Ġer g
Ġin stit
Ġfrank furt
Ġv o
Ġl at
Ġsch n
it ter
ist ische
h mer
ot he
Ġa s
ak ter
st Ã¶r
Ġmo de
Ġdir ekt
Ã¤n dern
Ġbe stand
sb urg
g ten
Ġch ar
sp rach
k te
ic a
Ġkompon ist
utz t
Ġth om
Ġt age
Ġins el
Ġt ie
Ġsch a
Ġzu g
Ġg ruppe
Ġsch iff
Ġzu dem
Ġp e
Ġw w
och en
Ġden n
Ġd och
Ġer ne
gen den
Ġoffiz ie
os s
Ġwe g
Ġdav on
Ġlan ge
alt ungs
in t
Ġw ald
Ġwelt krieg
Ġphil osoph
Ġschwei z
Ġd o
Ġfin den
Ġnu tz
Ġo s
Ġun be
Ġam t
i as
at ten
w ahl
n ungen
j et
ra chen
teil t
sch ein
Ġz iel
Ġ ul
ge samt
Ã¤ ten
lich t
is on
Ġi de
Ġd on
Ġs itz
Ġarb eits
Ġst utt
Ġc arl
Ġb ad
Ġreg ierung
i lle
p ort
Ã¶ st
lich es
Ġg ott
Ġeins atz
ie gel
Ġpolit ik
Ġt ag
Ġma in
Ġww w
Ġd ruck
Ġii i
o se
Ġins gesamt
Ġunterst Ã¼tz
u ter
ich er
g art
sch w
d orf
Ġem pf
Ġmar kt
Ġverschieden en
es ser
Ġn ame
Ã¤t ze
Ġihr em
Ġrah men
Ġver st
om e
ber eich
fer t
Ġn at
Ġar ten
Ġn Ã¤
Ġn Ã¶r
Ġb ro
Ġg anz
Ġf er
Ġdis k
p e
Ġste hen
Ġteil weise
Ġsp rache
Ġer ster
et te
m on
Ġzw ar
Ġfin anz
im men
Ġsei te
Ġfin det
Ġm ein
Ġproz ent
ol ution
Ġaut or
Ġpro bl
k unft
Ġk reuz
z eichen
heit s
wei t
Ġro lle
Ġstra ÃŁen
Ġmicha el
bild ung
Ġmen sch
Ġsch lieÃŁlich
y er
Ġverschieden e
Ġn r
b es
ĠhÃ¶ ch
ĠnÃ¶r d
ie g
ĠbevÃ¶lker ung
Ġal ter
Ġham burg
Ġk Ã¶rper
Ġjahr es
ĠgegrÃ¼n det
erg ie
Ġf ar
Ġau ÃŁen
Ġf eld
Ġge t
Ġan g
Ġso w
ma cht
Ġdat ei
w elt
Ġv e
ne hmer
Ġso wohl
Ġh el
l ungs
Ġgemein den
z ogen
we gung
Ġp sych
w and
ich tet
Ġkom men
ste lle
we hr
it u
Ġe hren
st eil
ĠfÃ¼hr t
la ger
Ġd ad
Ġbe w
sp iele
Ġr ight
Ġl assen
Ã¼n d
Ã¤s st
Ã¤r en
Ġph ys
Ġwer t
Ã¤ chen
v ent
Ġauf lage
l ing
sten s
y le
Ġer d
Ġde fin
Ġg eist
is se
ir e
end ung
Ġma ÃŁ
ach e
was ser
Ġk il
Ġent standen
Ġzu sÃ¤tz
Ġarch ite
bl i
Ġh abe
Ġstutt gart
Ġf il
Ġart ikel
Ġp op
ar r
Ġl o
v o
arb eit
icht s
s se
f rei
Ġbel e
sch ul
Ġs eiten
Ġtr ans
Ġun abhÃ¤ng
Ġsow jet
it en
g lichen
ic e
Ġs am
ĠgehÃ¶r t
Ã¤u ÃŁer
Ġb Ã¶
Ġe u
Ġgr en
Ġpr inz
Ġviel en
Ġh en
ĠfuÃŁball spieler
h andel
ĠhÃ¶ her
ym p
z ig
Ġl eist
Ġmit t
j Ã¤hr
Ġaus sch
ig a
Ġh y
Ġt re
st imm
Ġkrieg s
ien s
Ġjeweil s
Ġein fach
Ġmal er
Ġc d
Ġt or
Ġge samt
Ġan sch
Ġse hen
o x
Ġbo den
e hmen
richt ung
enn t
te ten
d es
Ġpro gramm
Ġern st
Ġw ort
om en
Ġbezeich nung
i i
Ġge legen
o ff
ĠhÃ¶ he
sam m
wei s
Ġfern se
an de
Ġto ur
Ġeigen en
Ġthom as
rÃ¤ gt
Ã¼ck en
Ġkonn ten
p ar
Ġst ru
Ġsom it
om at
Ġdad urch
Ġwo hl
Ġd ur
Ġg old
Ġy ork
Ġt Ã¼r
ri d
Ġho f
Ġauf t
Ġzahl reiche
ĠstÃ¤d te
un t
ie ten
ater ial
Ġf and
b ei
Ġp reis
et ten
Ġsom mer
fass ung
ie te
j e
fas st
ver ein
Ġo p
Ġl ond
Ġn acht
Ġheut igen
el te
et h
Ġbede uten
ne ten
Ġan al
ograph ie
w in
Ġd el
Ġme ter
Ġnah e
fahr t
Ġd op
r Ã¤n
Ġl ok
ĠfranzÃ¶s ischen
Ġj Ã¤hr
gen t
Ġh or
Ġpers Ã¶n
Ġg ing
eid ung
Ġer wei
b te
Ġw al
ik ation
ĠÃ¶ ffent
st Ã¤t
ĠkÃ¼nst ler
fl Ã¤che
Ġlond on
ra g
iz in
Ġwes ent
Ġbei de
Ġb eit
Ġd ienst
w ind
re ch
b urger
Ġm iss
m et
y stem
Ġbl ei
Ġb on
ol e
ĠfrÃ¼ h
den s
Ġhol z
gen de
Ġd dr
Ġb ischof
Ġp ass
Ġk ant
Ġbay ern
Ġk raft
Ġmart in
lie ÃŁen
lin e
ok rat
Ġp fl
Ġm er
u fen
Ġer Ã¶ff
wie sen
Ġwen iger
Ġe he
f ilm
Ġkl oster
Ġhal b
Ġeinge setzt
Ġtr an
Ġin nen
Ġwicht ig
le ben
i am
Ġsch utz
w ald
Ġda fÃ¼r
ÃŁ t
i ver
per atur
j a
ĠkÃ¶l n
if iz
Ġmittel alter
Ã¼ ge
om eter
Ġro bert
it h
nah m
Ġt au
Ġein fluss
Ġber uf
Ġthe ater
Ġba den
Ġersch ein
Ġc or
Ġd ok
h am
Ġlei p
Ġsch rei
Ġpo st
Ġla ge
Ġbesch rei
Ġw ind
y t
Ġfolgen den
ig keiten
Ġind ustrie
zeit ig
Ġw ein
Ġs amm
Ġerw Ã¤hn
us e
Ġ ten
Ã¤m pf
k op
uch te
Ã¼ d
sch iff
Ġde utlich
it ze
a ktion
Ã¤ch lich
a y
gan gen
Ġm u
Ġj ur
Ġf ot
Ġchrist ian
Ġv ater
Ġtro tz
k ten
Ġ Ã¤uÃŁer
Ġricht ung
z i
g ra
sch rei
Ġent fern
Ġf Ã¶r
Ġihn en
te chn
Ġmar ia
w ard
Ġze hn
ut h
rÃ¤ ge
ich ter
Ġwa ppen
Ġl Ã¤sst
Ġm utter
ik e
ar a
Ġge ht
Ġherr schaft
Ġmitt ler
Ġwin ter
w issenschaft
Ġs Ã¤
Ġei s
d f
Ã¼ gel
stÃ¤nd ig
Ġre publik
Ġzer stÃ¶r
Ġlie ÃŁ
pro du
Ġn o
Ġdam als
Ġt ruppen
Ġmus ste
w Ã¤r
Ġm Ã¶
sch au
Ġm el
Ġun gar
Ã¶s ung
au ft
Ġp la
h Ã¤us
Ġg Ã¶
ber ger
Ġott o
Ġh ann
ĠgehÃ¶r en
Ġprodu ktion
ei tete
u tet
Ġprov inz
Ã¤n den
hÃ¤lt nis
Ġverw altungs
Ġs ter
Ġwer ke
an a
b in
Ġstra ÃŁe
ll t
am men
s el
Ġnah m
Ġl og
Ġgrie ch
Ġein igen
Ġdan ach
s ent
h ang
u p
hau pt
Ġs im
k om
Ġn a
Ġsa chsen
Ġent stand
Ġstru ktur
Ġb rei
ff er
Ġmath emat
Ġh um
Ġol ymp
Ġbis her
in al
Ġl au
ĠeuropÃ¤ ischen
Ġhoch ge
Ġar me
Ġgel ang
ĠgrÃ¶ÃŁ ten
ei er
Ġnach fol
Ġer rei
Ġn orden
Ġschla cht
ver t
Ġverb unden
en ter
ge t
Ġa ss
Ġjohann es
ri gen
Ġsu b
o ur
sch lag
Ġnamen s
Ġd Ã¤n
Ġan wend
Ġhin aus
Ġsel ten
Ġmax im
bar e
Ġt al
Ġeben so
as en
Ġgr enz
em a
stru ktur
rei se
Ġver gleich
Ġt Ã¤t
Ġt rÃ¤ger
on g
pol it
Ġden k
ograf ie
Ġfamil ien
Ġerwei ter
Ġan s
sp rache
Ġb or
Ġt her
Ġh Ã¶r
Ġbek annte
Ġl aut
Ġd ig
k ung
Ġst yle
Ġfr ieden
p a
Ġelekt r
Ġblie b
in o
ĠursprÃ¼n glich
te st
Ġsie d
Ġst Ã¤r
le hr
bar en
fl ug
Ġfe uer
al z
f red
Ġk ern
Ġj a
sp ru
ing s
Ġkl eine
Ġf ir
Ġw issen
Ġbet eil
Ġen ergie
Ġehemal igen
Ġgen au
Ġprobl em
Ġher vor
Ġa ka
urn al
imm t
gesch lossen
Ã¤ um
Ġer geb
sk i
Ġverb rei
ĠmÃ¼ ssen
sp h
Ġbil den
c c
k am
Ġamerikan ische
ge ber
Ġer he
Ġr ud
ĠbÃ¼rger meister
Ġwei ÃŁ
Ġg ol
os sen
l en
g ruppe
Ġlei cht
s eite
den k
Ġhochge laden
Ġdar Ã¼ber
Ġreg ie
stell ungen
is ierung
Ġfl uss
is iert
Ġdar unter
Ġfernse h
bli othe
Ġspe zie
ic t
Ġi v
Ġje der
ol a
Ġs icht
ch an
Ġfe hl
it ten
in es
la v
tem berg
am t
Ġort steil
l ei
ha fen
Ġsp r
Ġdre h
Ġakt iv
gr Ã¶
or gan
wer ke
der te
Ġre form
in ner
arl ament
ĠfranzÃ¶s ischer
t temberg
d i
ru g
Ġl icht
Ġrich ard
Ġkam pf
it Ã¤ten
at a
or ge
rei fen
Ġk rie
frie d
Ġaka dem
zeu ge
Ġeigen e
ĠÃ¶ st
Ġw oll
Ġ q
gehen d
Ġv al
Ġet was
fÃ¤ h
geb aut
Ġmitglie der
Ġschne ll
Ġrei he
le cht
Ġinstit ut
am a
wei sen
w are
Ġm ach
or s
en nen
Ġphil ipp
ĠwÃ¼r ttemberg
f s
m el
Ġa st
olog ische
mÃ¤ÃŁ ig
Ġb ot
Ġjose ph
al ten
we st
Ġl ag
Ġeur o
Ã¼l t
Ġh om
Ġant on
ess ion
Ġlie gen
un n
im a
et ter
Ġme er
Ġand re
Ġheim at
Ġb ur
Ġleip zig
p art
ĠkÃ¶nig s
Ġzu vor
Ġm os
Ġsie g
Ġste llen
Ġvol k
a den
Ġkont ro
Ġzei gt
z y
Ġchar akter
il ien
Ġakt u
Ġzwei te
e ch
Ġb aum
ha ft
Ġinternation al
u chs
Ġstand ard
w en
ab il
im e
Ġso gar
Ġwe chsel
gr enz
l am
Ġw ik
Ã¤n gen
Ġl es
e cht
l es
s be
ĠgrÃ¶ÃŁ te
e g
Ġpolit ische
Ġalex ander
Ġm eister
gr en
Ġd ien
ic al
Ġkon z
Ġs Ã¤nger
Ġob wohl
Ġzu l
Ġhandel t
Ġv en
ch es
Ġma sch
Ġte x
Ġgew Ã¤hlt
k raft
ab r
Ġvor ge
att ung
Ġzentr al
Ġkon st
Ġbe ob
Ġb rie
Ġtr at
k Ã¼
Ġeinzel nen
ck t
an e
ĠfÃ¼hr en
Ġs old
Ġt eile
Ġo pt
all en
re ter
Ġpreu ÃŁ
am es
Ġg ruppen
Ġge sp
Ġj Ã¼d
Ġrel ativ
ro p
Ġer for
ĠsÃ¼ den
Ġgeb Ã¤ude
Ġher mann
Ġne tz
Ġfra c
Ġf ert
Ġc enter
Ġfolgen de
s h
r h
on nen
d ienst
Ġz Ã¤hl
Ġbe grÃ¼n
Ġent deck
Ġor ig
o zial
Ġmed izin
Ġd auer
Ġj en
Ġa ir
Ġsal z
ar i
rach te
wa gen
Ġpol n
us st
Ġto chter
Ġweiter hin
ab el
Ġwen ig
Ġal te
am b
Ã¼ sse
Ġp ubl
l ang
an ce
Ġk auf
f Ã¶r
Ġt ats
Ġverw endung
Ġle g
ent wick
Ġver fahren
Ġam ts
Ġver z
Ġpolit ischen
Ġqu ellen
Ġjo urnal
Ġh u
b Ã¼
Ġverb indung
zeich net
Ġerh Ã¶
l eist
Ġwest f
Ġre gen
Ġstell t
Ã¼ ter
Ġs tern
Ġge z
Ġor ient
e ben
Ġch arl
et a
rit ten
Ġbahn hof
Ġschwar z
ur op
gang s
w esen
Ġs ign
Ġwe sten
Ġm ess
Ġlat ein
ei ger
Ġste uer
Ġmin de
Ġsch ule
Ġklein en
Ġv an
Ġmon t
Ġwolf gang
pp e
Ġb em
Ã¼t zen
ĠgehÃ¶r te
Ġr ie
Ġpro t
Ġmot or
Ġvor h
Ġver trag
Ġt ier
s ver
v oll
ge fÃ¼hrt
lin gen
Ġho he
Ġbra un
Ġi dent
Ġp arlament
Ġt ur
ge f
k omm
Ġk ind
ei gen
Ġd Ã¼r
Ġlin ie
Ġberlin er
Ġa ra
Ã¶ m
Ġwill iam
w or
Ġunters uch
qu e
s itzen
t um
Ġko sten
h an
Ġdes halb
ĠÃ¤l ter
Ġo sten
Ġpro jekt
Ġzun ehmen
Ġmed ien
Ġmin ister
si denten
geb ung
bru ch
Ġgegen satz
Ġbay er
Ġf al
Ġhil fe
wind igkeit
Ġunivers ity
Ġsy mb
Ġst il
sch t
Ġarme e
Ġerrich tet
Ġj Ã¼n
Ġgleich zeitig
fe hl
we gen
Ã¶ hn
Ġsa ison
Ġst ift
Ġl ou
Ġe her
Ġer reich
Ġpap st
Ġstud ien
ieren den
t zen
Ġein heit
unk te
Ã¼r z
Ġv ir
wie gend
Ã¼ st
l eitung
Ġk amen
Ġbezie h
sp l
k ungen
p reis
Ġbel ie
Ġerrei cht
Ġg a
ĠÃ¤ g
Ġheil igen
l i
r es
Ġprodu z
Ġc al
Ġkan ad
Ġver n
Ġeng land
k und
Ġe hr
Ġproz ess
Ġger man
st u
ge sellschaft
Ġzentr um
au ben
Ġpar k
an te
ten s
ĠÃ¤l te
spro chen
ĠÃ¶ ffentlich
for men
Ġf el
Ġentwick elt
Ġarb eiten
Ġgest orben
ze hn
Ġschauspieler in
Ġvorh anden
ot h
o te
Ġdar stellung
Ġar n
Ġle ft
sch ung
Ġd orf
Ġd yn
als ozial
in i
an ze
Ġt Ã¶
Ã¤u fer
Ġg re
p ark
ig ur
ge setzt
Ġgen utzt
fr ika
b us
Ġs or
Ġelekt ron
Ġs ing
a ger
Ġc m
Ġh it
Ġsp d
Ġs inn
Ġg ast
Ġdam al
Ġletz te
Ã¤d ag
ut her
Ġben utz
ier ungen
ĠmÃ¤n n
Ġf arb
ĠprÃ¤ sident
zentr um
kt or
Ġb y
kenn t
be z
Ġmode ll
Ġstell te
b s
i os
scha ffen
Ġentwick elte
Ġreg ierungs
Ġmehr eren
ste hen
Ġa del
ĠrÃ¶m ischen
in ge
Ġa pp
Ġt sche
ĠfranzÃ¶s ische
Ġkir ch
Ġsp rachen
ass ung
Ġnation alsozial
Ġz Ã¼r
sch u
Ġspiel er
le hn
Ġeisen bahn
k ar
Ġm od
ob il
Ġex p
ind ungen
Ġan zahl
Ġdop pel
Ġaus l
Ġbefin den
ar f
Ġersch ien
ell er
Ġb us
Ġkil ometer
Ġge geben
it i
Ġin teg
Ġp il
Ġsil ber
hr m
Ġz eich
Ġbe ding
Ġdok ument
Ġs v
Ġw alter
il det
samm lung
is ation
sta at
Ġbe vor
Ġdav id
Ġv Ã¶
Ġkol on
Ġbe ein
Ġrev olution
Ġalb um
Ġm aterial
Ġge prÃ¤
m und
Ġon line
ĠÃ¶sterreich ischer
Ġt hr
olog ischen
in de
Ġp df
Ġz ie
t a
ach er
el e
ed ia
gemein de
ver w
Ġan n
ĠfrÃ¼ hen
ativ en
Ġver anst
Ġsetz te
Ġehemal ige
k ur
st at
Ġbild ung
Ġw ett
verb and
w ur
ah nen
me d
Ġamerikan ischen
Ã¤l fte
Ġsol che
Ġau str
Ġr at
Ġport ug
Ġer bau
Ġerfol gte
Ġgew esen
o ver
Ġa c
mus eum
Ġgol den
Ġbl ut
Ġm erk
Ġle dig
Ġhei ÃŁt
Ġda gegen
Ġer ober
Ġj ung
is ion
Ġvers ion
Ġp osition
Ġsch Ã¶n
me hr
it er
Ġs and
Ġfr om
al a
Ġm ol
Ġp os
k reuz
Ġh Ã¤t
Ġl Ã¤nder
Ġent hÃ¤lt
Ġnat Ã¼r
Ġledig lich
Ġvor aus
fÃ¼hr er
Ġl Ã¼
st Ã¤nde
Ġh an
Ġtsche ch
Ġein sch
Ġt op
gel n
e ck
ho ben
le y
ĠkÃ¶n n
Ġbl Ã¼
Ġverl auf
ten t
rÃ¤ fte
Ġr um
Ġte st
Ġgra b
Ġent spr
Ġgot tes
Ġs um
is h
Ġte le
b i
Ġcomp uter
Ġs tet
id u
Ġan teil
Ġverein igten
Ġm achen
rh ein
Ġpf arr
Ġje an
Ġwahr schein
au en
Ġin f
Ġein mal
c l
ei s
Ġb d
al tet
Ġspiel en
ĠzusÃ¤tz lich
Ġbes ser
Ġstr om
Ġb all
ff e
Ġauf l
Ġfra ge
Ġmet ho
Ġf ein
Ġbesch Ã¤ft
Ġar m
Ġhaupt s
re publik
Ġp et
g b
Ã¼ f
Ġm m
Ġland schaft
ĠfÃ¼r st
lieÃŁ end
x ik
Ġsogen annten
Ġer f
Ġdem okrat
Ġste lle
Ġgew ann
Ġaut ob
Ġniederl Ã¤nd
Ġs ah
Ġaustr al
Ġtem peratur
eich er
Ġnachfol ger
Ġabs ol
Ġpol en
Ġsin ne
Ġn ik
Ġall ein
Ġson st
u el
au ch
ist ik
Ġdom in
Ġm att
Ġgl eichen
Ġmat hrm
Ġm ass
ul ar
Ġneu er
ig ungs
ant wort
ll ig
Ġfl or
ier ter
b ischof
wa chsen
Ġverkehr s
zeu gen
emen te
Ġruss land
Ġo ben
w Ã¼r
ie ll
Ġinternation alen
Ġro ck
Ġgel ten
x is
Ġerne ut
f a
Ġpra kt
ĠgÃ¶ tt
Ġpr ess
Ġin dem
Ġhistor ische
Ġpfl anzen
Ġb al
Ġst ad
Ġort s
Ġber Ã¼
Ġal bert
Ġe g
etz en
Ġz eichen
sch riften
y se
ĠwÃ¼r de
b il
Ġbil det
richt ungen
ĠÃ¤hn lich
Ġzahl en
it ar
Ġl Ã¤ndern
Ġfre und
k ap
Ġbas is
Ġbr and
Ġzusammen hang
Ġsold aten
d s
Ġbr anden
ie del
he orie
Ġd ial
iz ei
ium s
at te
ing t
Ġa f
Ġwider stand
Ġbru der
Ġd ichter
Ġk enn
Ġwicht ige
Ġgesch Ã¤ft
ĠnÃ¤ he
d in
Ġk ron
Ġrud olf
Ġsch le
Ġnot wend
Ġk na
Ġte am
Ġver hÃ¤ltnis
Ã¼ m
Ġc an
Ġerfol gt
Ġerfolg reich
ger icht
Ġb unde
Ġpriv at
ieren de
g liche
Ġum welt
Ġsoll ten
on a
Ġw ol
arb eiten
Ġst arb
Ġkop f
y d
Ġb ie
Ġj es
ym n
zeich nung
Ġland wirtschaft
arb eiter
Ġer eig
sp ekt
Ġch ina
ie w
Ġm ik
ĠÃ¼ber n
v a
lin ie
Ġinteg r
Ġkrit ik
st ieg
fÃ¼hr en
Ġeigen t
Ġd ro
Ġin n
Ġent halten
Ġtechn ik
Ġprinz ip
ar s
ar m
ĠgroÃŁ er
Ġf iel
Ġb ud
Ã¼ss el
k unde
Ġa ben
Ġver Ã¤nder
ant in
Ġsogen annte
Ġan z
Ġj ag
ei gt
ro ffen
Ġso llen
Ġk aum
spru ch
ĠtÃ¼r k
Ġi ll
ĠgrÃ¼n dung
hand lung
t eile
iv idu
Ġf o
Ġer b
pf l
it sch
Ġw ochen
Ġju den
Ġst art
os a
gr ess
Ġvert eid
chs e
ver fahren
ri m
Ġn Ã¤ch
Ġver lie
im ent
Ġe ff
b Ã¼rger
g n
Ġein fÃ¼hrung
Ġdar in
Ġspiel te
Ġwen ige
n amen
Ġn om
Ġbr Ã¼
Ġin str
Ġphys ik
ĠzÃ¼r ich
u chen
Ġw all
ser v
Ġch e
Ġlan gen
Ġw Ã¶r
er st
Ġhaupt stadt
Ġl uther
Ġis ra
Ġstadt teil
Ġthe or
Ġh Ã¤lfte
Ġl ib
Ġsymb ol
n am
ic an
qu enz
Ġwei b
c y
w art
Ġrad io
Ġind ividu
ab l
Ġla ger
Ġgel d
Ġmus iker
bliothe k
Ġum fang
Ġj ac
la w
Ġsch Ã¶
Ġt u
Ġsch Ã¼
Ġhin zu
Ġschl es
Ġpro p
Ġfran c
Ġminde stens
Ġser ie
y a
Ġschwe d
Ġdr es
isch em
Ġsp Ã¤t
Ġbel g
Ġintern et
Ġinternation ale
Ġver halten
l as
be wer
p ers
Ġerz Ã¤hl
st Ã¼ck
b ten
Ġauf genommen
Ġgren ze
in k
iv il
Ġjose f
Ġkon stru
Ġson nen
pl an
z a
ord net
Ġs em
iss ion
n ame
stre cke
Ġg i
be g
Ġwien er
o sten
Ġf ischer
Ġqu ad
Ġhe er
l Ã¤ss
age ment
f ord
Ġeinz ige
o de
Ġh un
Ġergeb nis
s Ã¤
Ġer reichen
Ġh ir
te ll
Ġun mittel
op er
ge st
Ġm ad
st Ã¤d
Ġorganis ation
Ġbranden burg
Ġbrit ischer
Ġvar ian
f unk
b ro
Ġb ald
Ġo x
Ġakadem ie
f unktion
Ġkein en
Ġex per
Ġ Ã¤nder
Ġauf bau
kr et
Ġso ft
p or
Ġur s
Ġj ak
Ġsy m
om ie
Ġbet rÃ¤gt
h il
Ġh elm
Ġmach te
Ġerreich te
Ġbez irk
iel ten
Ġa v
Ġi l
etz ung
Ġgesch lossen
Ġer inner
Ġges und
Ġverw and
Ġwirtschaft s
an lagen
sd orf
Ġwe hr
kir chen
a in
f ft
Ã¤n gt
Ġihr es
Ġg as
h i
Ġf lag
y pt
Ġara b
Ġkom pl
an o
Ġd t
techn ik
ge geben
Ġch ines
Ġbe wegung
az z
Ġk as
hl ung
Ġletz ter
Ġwer ner
Ġbr un
isse ur
b and
Ġst reit
Ġc du
Ġer de
Ġl en
Ġweb si
rei chs
g s
Ġd ist
ĠgroÃŁ b
ei det
arb eitung
Ġfr em
Ġz we
Ġu hr
ne hm
fall en
Ġwel ches
Ġerhe b
kr ank
Ã¤n dert
Ġj ames
Ġsch rieb
Ġverb and
st ern
Ġum st
bar keit
setz ungen
Ġun ion
Ġwelt weit
ĠverÃ¶ffentlich t
ann e
Ġn ied
Ġverst Ã¤r
Ã¤t zen
Ġcd ot
Ġs atz
Ġhann over
Ġis lam
Ġgew alt
gel Ã¶st
Ġp an
Ġengl ischen
ess or
Ġrelig ion
Ġk er
ri ffen
Ġbestimm ten
Ġsch riften
Ġpreu ÃŁen
Ġersch ienen
Ġre du
fass ungs
im mer
Ġkl asse
Ġs l
Ġal tern
ill a
entwick lung
Ġaut oren
Ġh essen
Ġbesitz t
ot te
Ġp unkt
m at
a gen
zw ischen
Ġtran sport
an lage
Ġverk auf
Ġansch lieÃŁend
Ġentste hen
Ġsch ein
Ġvar i
Ġb ein
ĠÃ¼ber nahm
stimm ung
Ġspan ien
Ġh imm
Ġbl ock
Ġsu per
Ġsc ien
un ion
Ġben annt
Ġrei se
Ġl Ã¤nge
mit t
Ġkon f
Ġvi de
Ġbeob acht
il ian
sw ahl
rau ch
Ġp u
Ġvor der
Ġthe orie
Ġwebsi te
Ġb in
ĠerwÃ¤hn t
Ġbrit ischen
Ġb it
x u
j ekte
rit ann
Ġverl oren
Ġb la
Ġst immen
ill er
Ġkr ank
Ġverb reit
g ruppen
Ġbl ick
ib el
Ġmann schaft
ĠmÃ¤n ner
Ġun ver
Ġl Ã¤nger
Ġvert reter
ol it
a tes
Ġkl aus
Ġgl as
Ġge pl
ĠkÃ¶nig reich
Ġr itter
Ġdi pl
Ġpar all
Ġge mÃ¤ÃŁ
Ġwoll te
Ġb ank
ma ÃŁ
Ġge orge
fÃ¶r m
Ġcharl es
Ġh art
Ġlou is
ri ge
ĠgroÃŁb ritann
Ġbe gl
lich keiten
Ġnach bar
der ungen
Ġentspr icht
Ġvor her
Ġwelt meister
re cher
Ġau st
ymn as
Ġkon zentr
Ġbl au
Ġdrit ten
Ġwei se
ĠmÃ¶glich keit
Ġhin gegen
Ġf und
bl ick
Ġaus einander
men s
Ġver hin
stell te
Ġz og
Ġkon s
Ġvoll stÃ¤ndig
Ġi d
Ġst raf
Ġander er
Ġre aktion
Ġhistor ischen
enn ung
Ġdenk mal
Ġne g
Ġj er
Ġkon fl
ers eits
der s
Ġn Ã¼r
Ġforsch ung
st rÃ¤ger
Ġisra el
ul ation
Ġg ust
Ġre chte
Ġwestf alen
Ġver antwort
ĠsÃ¼d lich
be ck
fl Ã¤chen
Ġdig ital
d t
ĠnÃ¶rd lich
hn en
Ġger ade
Ġallgemein en
Ġh all
halt ung
geb iete
ag t
k n
Ġpol y
ĠspÃ¤ter en
Ġs ant
ĠÃ¶ffent lichen
f assen
Ġtie f
Ġhe ll
Ġbr as
Ġw h
eil en
Ġgesam te
ĠauÃŁer halb
Ġfor men
ger ichtet
Ġk ab
Ġaus gabe
Ġstamm t
v el
um e
Ġch ron
ul a
Ġmittel s
b y
g o
Ġwa ffen
Ġo pfer
Ġh ab
Ġitalien ischer
ĠverfÃ¼ gung
g ner
Ġentsprechen d
u che
Ġforsch ungs
Ġbil der
l d
Ġzu gleich
land s
Ġgef unden
Ġmasch inen
Ġgesam ten
umen te
Ġl im
an en
Ġstre cke
Ġab hÃ¤ng
at oren
mb h
Ġr ang
lie gen
Ġbesch rieben
ei en
Ġkomp lex
k rie
Ġaussch lieÃŁlich
ss ystem
Ġw ild
ek ten
Ã¤ cht
Ġso c
Ġkathol ischen
Ġregion al
Ġverm utlich
Ã¤u ft
o sen
w ill
Ġbestimm te
Ġbet rieben
Ġander s
Ġoffizie lle
Ġk ro
Ġerh Ã¤lt
Ġer zeug
Ġhaupts Ã¤chlich
Ġben Ã¶t
Ġweit gehend
and id
Ã¤s ser
k or
ic s
Ġad olf
Ġamer ican
ien ten
Ġan gel
Ġdan eben
Ġfol gte
Ġre d
Ġpos it
nf ahr
mar kt
Ġdarauf hin
k ra
om et
Ã¤ te
ow n
a ce
Ġhandel s
Ġre c
ins el
Ġje de
Ġan schluss
Ġme chan
ar y
alt ungen
Ġwik ip
il s
Ġl ern
Ġb ir
ĠgrÃ¶ÃŁer e
lieÃŁ t
Ġg al
Ġv Ã¶lker
Ġob jekt
Ġjeweil igen
Ġre al
iv al
at ik
ĠgrÃ¶ ÃŁe
Ġsoft ware
Ġkr anken
che ster
Ġst unden
f ter
el ten
Ġd oll
Ġst ammen
u x
Ġc r
Ġfol gt
f ar
deutsch en
mus ik
ĠschÃ¼ ler
Ġw and
Ġdi ent
Ġw Ã¤r
Ġr ath
Ġm as
Ã¤ ger
Ġg mbh
Ġbei spiele
Ġbrie f
h od
le ge
mit glie
ĠunterstÃ¼tz ung
ĠjÃ¼n ger
ĠmÃ¼n ster
Ġfer din
i Ã¶
ist isch
Ġt urm
f on
arb eitet
ĠbevÃ¶lker ungs
Ġge h
Ġbede utet
Ġsp ann
Ġgeb urt
z ess
ikan ischen
an ger
Ġteil en
re chte
ĠgroÃŁbritann ien
ĠnÃ¼r n
Ġre st
sch wei
Ġer setzt
rich ten
Ġjak ob
f re
Ġha fen
Ġv is
Ġtod es
ma sch
str om
Ġt ill
Ġins eln
Ġpat ri
Ġferdin and
m Ã¼
Ġsei en
Ġk re
stÃ¤nd ige
Ġt im
Ġst off
te xt
Ġw Ã¤re
om ot
w ander
Ġm ir
Ġast ron
u k
Ġkom bin
Ġspiel t
Ġmoder ne
Ġmet all
Ġi b
Ġungar n
Ġerm Ã¶glich
Ġel e
Ġge tr
och e
Ġbez ug
Ġal fred
Ġj ust
stoff e
lie fer
Ġang riff
Ġz ivil
Ġp ublik
Ġver fol
Ġinform ationen
Ġf c
g Ã¤nger
Ġum fasst
Ġeigen schaften
Ġer le
Ġma c
Ġbes uch
Ġthe od
rei sen
f ort
Ġvor sitzen
Ã¼ hr
ak te
gemein schaft
Ġt Ã¤
au sch
le gung
Ġpf alz
Ġzahl reichen
fer enz
Ġflug hafen
Ġ Ġ
Ġsp iegel
au st
Ġau gen
Ġbestimm t
Ġarch Ã¤
Ġst Ã¼ck
Ġc ap
Ã¼ cht
Ġbet rach
Ġbunde stag
Ġauf trag
Ġw Ã¤hl
Ġin zwischen
Ġst imm
Ġspe zial
Ġt at
b ank
Ġher kunft
Ġver pf
Ġeinge fÃ¼hrt
Ġbrit ische
Ġphilosoph ie
Ġgew orden
Ġr is
Ġwieder um
or gung
Ã¶ gen
au ern
rit or
i at
Ġw id
au d
Ġsp iele
Ġt ar
ge legt
Ġverw altung
Ġgl auben
s berg
Ġr and
ĠgeprÃ¤ gt
Ġandre as
Ġf akt
Ġanwend ung
nfahr er
Ġm ult
Ġp fer
Ġgeb aut
Ġqu al
or te
Ġs w
Ġm em
Ġbundes l
Ġs ur
Ġentsch eiden
a i
ĠmÃ¼ ller
we chsel
ang s
Ġb ach
Ġb rachte
Ġzw Ã¶l
Ġqu elle
g Ã¼lt
h el
Ġli ber
Ġg arten
Ġfl Ã¤che
h te
Ġl eit
pr et
sta aten
Ġr ing
Ġmar c
Ġgef Ã¤hr
ck s
Ġauf gaben
ichte te
n etz
ei chs
z eiten
Ġj azz
pr ess
Ġm assen
bet rieb
ab eth
ken nen
Ġverb esser
Ġfr itz
Ġhistor iker
Ġdamal igen
Ã¼r gen
anz er
Ġn immt
ste uer
Ġdenn och
ktion en
Ġc amp
n ach
Ġverbrei tet
Ġal ph
der ten
Ġs auer
Ġparall el
Ġbau ern
ct ion
Ġho ff
Ġg alt
m ark
la st
Ã¤t ter
Ġb om
is ierte
schul en
Ġgen annten
Ġun s
Ġnu m
am me
Ġpol izei
zeich nungen
ie ÃŁ
Ġs zen
Ġgust av
it a
Ġw ander
Ġge macht
au ff
Ġheut ige
Ġin t
sp er
Ġzeit punkt
Ġg Ã¼n
e ten
Ġs itu
Ġaus bildung
reg ierung
Ġdah in
Ġaus druck
Ġn ap
Ġs ach
Ġdres den
m l
Ġb ill
on es
ĠÃ¼ber wiegend
Ġum gebung
Ġsch lag
Ġkont in
z us
Ġhein z
Ġhier bei
Ġfert ig
Ġdefin ition
stÃ¤t te
Ġab t
Ġab sch
gar ten
Ġwirk ung
wa k
ro s
Ġklein er
g as
alis ierung
Ġvert reten
dr Ã¼ck
Ġf as
Ġmehr heit
ag n
Ġwikip edia
Ġn ic
Ġel ement
Ġd or
ll a
ungs weise
Ġpart ner
Ġbr on
in c
Ġmy th
Ġthe ologe
Ġarb eiter
Ġkar te
Ġg Ã¼ter
Ġpro test
Ġdurch schnitt
Ġn ahr
hr er
Ġaus wahl
verw altung
Ġkon zept
pf en
ĠverÃ¶ffentlich te
Ġwichtig sten
f u
Ġgemein schaft
lin ge
ĠÃ¶ l
Ġl or
Ġvers ucht
k u
schl Ã¤
l ass
i ar
Ġwor ld
Ġg ru
Ġg all
Ġhei del
Ġger inger
Ġkna pp
ser ie
Ġcom m
z if
Ġzei gen
Ġmoder nen
Ã¼ gen
Ġjed es
hÃ¤us er
prÃ¤ sident
Ġerg Ã¤n
Ġg ymnas
Ġin st
re ffen
in zen
h ar
Ġge hen
Ã¶ der
ha gen
Ġgrund lage
Ġbeginn t
geb Ã¤ude
Ġr ob
Ġbest Ã¤t
Ġdeutschland s
Ġho ll
ei cht
Ġmus sten
ha ber
Ġerz bischof
geb ir
ĠeuropÃ¤ ische
Ġbeein fl
Ġlin ien
we der
Ġf anden
Ġnicht s
zahl en
Ġso d
Ġth Ã¼r
at ers
ot s
ro w
be wegung
Ġan h
Ġsu bst
t her
Ġter ritor
sen d
Ġbes atz
l u
Ġstu denten
Ġdi ffer
Ġunmittel bar
b ungen
Ġbesonder e
hal ts
am in
ie f
Ġt iere
Ġbie tet
k ultur
lie ben
l au
Ġa ward
Ġer fÃ¼
sp rÃ¤
Ġorig inal
Ġzunehmen d
Ġr os
Ġpri m
z og
Ġger hard
t au
ĠhÃ¶ hen
Ġarb eitete
Ġhinter grund
itz er
Ġent gegen
ag o
Ġdar m
rie be
Ġchrist oph
r ig
Ġschwe den
Ġgeb iete
Ġbundes republik
le g
al ismus
Ġge fÃ¼hrt
Ġunbe k
Ġbeschrei bung
Ġent weder
jÃ¤hr igen
Ġmik ro
polit ik
Ġh ielt
Ġl ab
p o
r um
Ġro y
Ġun ge
Ġth ema
d on
Ġg lie
u a
Ġp ier
Ġsel ben
Ġinter pret
Ġkam er
Ġs ig
Ġd ach
Ġschw ier
f il
Ġwei ÃŁen
Ġer kennt
lin ien
ĠberÃ¼ hm
v i
m ale
Ġdar gestellt
un der
sp art
hÃ¶ he
Ġl os
Ġe du
Ġlu x
ĠgeschÃ¤ft s
ra k
ĠerÃ¶ff net
wur f
ok al
Ġun ser
Ġdisk uss
Ġ ord
ul en
Ġro ten
hand lungen
Ġmon d
Ġmin uten
Ã¼ss eld
Ġge wer
Ġent lang
Ġge gner
Ġj ungen
ap ie
Ġbetrieb s
Ġ it
ĠfÃ¼hr ung
h auer
ig r
Ġkathol ische
Ġne t
Ġst ahl
Ġzeit ung
a lle
Ġb re
Ġch or
Ġd Ã¼sseld
Ġ ut
g ol
Ġauf nahme
ĠkÃ¶nn te
vent ion
Ġind ian
Ġrath aus
Ġz it
Ġs at
Ġel is
mer k
kam pf
Ġt om
Ġfl Ã¤chen
k at
Ġbez ir
ĠgrÃ¶ÃŁer en
Ġun ten
Ġel emente
Ġdoll ar
Ġz y
Ġjahr zehn
l Ã¤ufer
et ische
Ġbesch rÃ¤n
m Ã¶glich
fas ste
d ar
ill en
sch ie
Ġst ation
ĠjÃ¤hr lich
Ġjournal ist
Ġb ol
Ġsch u
Ġleist ungs
Ġweiter er
Ġbon n
Ġzu stand
Ġzeit schrift
ĠÃ¼ber tragen
Ġor dens
l ern
Ġsp richt
Ġco de
Ġqu er
Ġd ienen
Ġeben e
Ġfrei en
Ġr am
ha lle
r aten
ig uren
Ġwahrschein lich
Ġschm id
o z
Ġkl ima
sb ild
Ġan erk
Ġerbau t
Ġex tr
ier s
ord neten
ad a
Ġhe ft
stell ten
Ġher bst
z Ã¤hl
br Ã¼cke
Ġor g
Ġbeit rÃ¤ge
Ġver fassung
n es
Ġall es
Ġst Ã¶r
ic o
Ġuntersch eiden
ow s
Ġeff ekt
kl us
m ot
z el
ach st
Ġul rich
Ġp rie
Ġsch Ã¤
l assen
Ġein st
ĠrÃ¶m isch
ei sen
Ġel tern
Ġre ch
Ġger icht
Ġzeit raum
h istor
Ġd iv
Ġk ass
Ġt it
Ġauft reten
Ġber u
ĠzerstÃ¶r t
Ġfin n
al es
gef Ã¤hr
Ġpra xis
Ġzul etzt
Ġba ck
Ġs m
gesch windigkeit
ĠÃ¶sterreich ischen
Ġb art
f amil
Ġk Ã¤mpf
Ġentfern t
Ġh t
Ġs ar
Ġs s
Ġreich es
Ġbe weg
Ġdurch gefÃ¼hrt
Ġwest lichen
Ġar gent
an al
Ġc as
Ġsowjet union
Ġt urn
ĠfÃ¼r sten
Ġkl ar
ĠerklÃ¤r t
Ġredu z
age s
Ġin iti
Ġant i
Ġaut om
z ip
Ġgrie chen
Ġgef angen
Ġtage s
Ġk os
prÃ¤ sent
Ġarchite ktur
an ischen
Ġtra iner
f an
Ġruss ischen
Ġunterschied liche
Ġv ul
Ġd eta
Ġc ont
Ġarchite kt
ĠgrÃ¼n den
on y
cke y
Ġlin e
Ġ ordnung
Ġar g
Ġad am
Ġge ben
Ġne ut
Ġteil s
Ġsetz t
Ġbe ck
lo wak
Ġblei bt
urop a
Ġdyn ast
Ġj Ã¼rgen
s u
c es
ĠnÃ¤ch sten
Ã¤n k
Ġdar aus
Ġjag d
amer ika
g raf
ĠzwÃ¶l f
Ġdeutsch sprach
Ġkarl s
Ġher stellung
ou ver
Ġg rad
Ġaus nahme
g au
l eit
Ġrelig iÃ¶
ĠbÃ¼ cher
Ġm is
Ġet hn
ind ustrie
schn it
Ġentste ht
recht s
Ġeinzel ne
Ġherr scher
Ġhal ten
Ġbenutz er
Ġflug zeug
Ġlie be
em e
Ġstift ung
Ġt abe
Ġkur t
Ġprodu kt
ent um
ĠfÃ¤ llen
Ġvo gel
Ġdon au
st Ã¤r
Ġn er
zie hen
hal te
d essen
Ġfrei e
te d
Ġsch ott
Ġro sen
d am
hol z
b und
Ġbern hard
Ġab ger
Ġtra gen
Ġpartei en
ir ekt
de ut
Ġkant on
kom p
Ġk ub
Ġunterschied lichen
Ġk Ã¶
Ġbet rei
re form
Ġle hn
Ġk lin
sel ben
Ġsicher heit
ri pt
Ġum fassen
b aum
Ġerg ibt
wohn ern
sp olit
Ã¤ st
Ġge stellt
Ġwieder hol
issen schaften
Ġt rieb
Ġmehr fach
Ġl eitung
s ein
ĠstÃ¤d ten
Ġgeb ildet
an ien
Ġgen e
Ġbe en
Ġben utzt
k i
le ger
Ġk ard
Ġab st
r om
Ġant ike
Ġke hr
Ġc est
Ġkur fÃ¼r
ie ur
Ġp re
Ġge eig
ĠstÃ¤r ker
sp ann
Ġab schnitt
Ġth emen
Ġarch iv
ĠÃ¼bern ommen
um m
Ġa sp
Ġ Ã¤r
if ik
Ġsp ekt
Ġgen ommen
sta ur
wert ung
Ġd in
Ġwesent lich
Ġneu es
pf el
Ġe st
Ġt ritt
sicht s
l ad
gesch rieben
z Ã¼ge
Ġk rist
as st
Ġgeb racht
we sten
wÃ¤r ts
Ġfrei heit
Ġb ri
Ġwa gen
Ġherr en
mittel n
l ers
Ġat om
Ġoffizie ll
Ġge schaffen
ing ton
abr ik
Ġrich ter
Ġg anze
em ann
Ġl ive
Ġr em
Ġverbreit ung
ĠÃ¼ber setzung
gren ze
Ġver fassungs
ne y
k al
Ġbe ge
Ġber ech
Ġgeb ur
Ġend gÃ¼lt
be ding
Ġsv g
f ur
Ġle op
Ġwei mar
s itz
h och
Ġallgemein e
Ġh yp
Ġtats Ã¤chlich
m esser
Ġc ity
Ġa ch
Ġlu c
rid ge
Ġsamm lung
Ġtheod or
Ġt v
ach im
Ġt rÃ¤gt
Ġwir ken
Ġnutz ung
Ġter r
Ġsch e
Ġwel cher
ĠunabhÃ¤ng ig
Ġblei ben
Ġpr em
Ġgren zen
ĠÃ¤g yp
Ġpl at
Ġ tel
ve st
k rit
h u
Ġbet roffen
r Ã¤t
kon stru
gel assen
mo de
Ġgrund sÃ¤tz
Ġbr em
hil fe
ĠsÃ¼d lichen
ĠÃ¶sterreich ische
icht ung
Ġentste hung
ne ter
Ġk art
Ġex pl
Ġbr emen
Ġstet s
Ġre prÃ¤sent
Ġman ch
Ã¤n e
aut or
tag s
h or
i j
ei der
wer te
w ar
Ġde b
lle hrer
ĠunabhÃ¤ng igkeit
Ġs Ã¶
sicht lich
Ġjo achim
Ġmon ate
c ar
Ġst o
Ġkon rad
ob el
if ikation
et ischen
Ġschul en
Ġkrie ges
Ġj etzt
Ġst ock
Ġbes itzen
Ġe ber
Ġregel mÃ¤ÃŁig
r iere
Ġje dem
Ġn av
Ġson g
Ġm es
Ġin halt
Ġer k
ĠzÃ¤hl en
Ġkont akt
hei mer
Ġgesch rieben
Ġgesch lecht
er ken
Ġelekt ro
Ġt ot
Ġfr anken
Ġjur ist
t al
Ġbe grenz
Ġum ge
acht en
stÃ¤nd igen
Ġqu alitÃ¤t
Ġr Ã¤um
Ġin tens
g rad
ĠÃ¶ffent liche
Ġein t
Ġmin er
ac t
Ġge heim
Ġlehr er
Ġwen igen
Ġl as
ri sten
Ġpop ul
Ġwett bewer
Ġprof essor
Ġinform ation
Ġautob ahn
ĠtÃ¤t ig
Ġange sehen
Ġgra fen
Ġhei ra
bl att
mann schaft
Ġelis abeth
Ġsod ass
w an
Ġcol or
v ier
Ġliter ar
ied lung
sk ir
ff el
ir ol
Ġschn itt
ĠfrÃ¼ he
teil en
ri c
Ġor te
Ġan gaben
Ġfried hof
ĠnÃ¼rn berg
Ġa tt
Ġschwar zen
ĠhÃ¤t te
Ġmin der
Ġst abil
b b
sw Ã¼r
Ġall i
Ġgl ob
Ġw od
Ġsch ei
geb racht
Ġg attung
Ġser v
Ġm ur
Ġher gestellt
ĠprÃ¤ sidenten
ste chn
ĠÃ¶st lich
Ġerfor der
Ġargent in
Ġp i
au bt
Ġhol stein
k Ã¼rz
ĠkÃ¶nig in
spiel t
Ġgriech ischen
l ant
Ġsa int
Ġh Ã¤us
ch ron
rei f
ĠgrÃ¼n dete
Ġdar f
Ġmag net
Ġmen ge
Ġlauf e
Ġge ographie
anz ler
Ġhum an
Ġve c
et s
Ġd ra
Ġf isch
Ġle on
wei le
g Ã¤nge
st ud
tem ent
Ġge sehen
Ġne hmen
Ġge halten
Ġfr ucht
Ġdien te
Ġan na
setz en
en k
ĠdÃ¼sseld orf
Ġs i
ie de
Ġnu tzen
ĠmÃ¶glich er
fÃ¤h igkeit
bez irk
k rÃ¤fte
ĠfranzÃ¶s isch
at hl
omm ern
icher ung
r ang
Ġk le
ver sammlung
Ġh ug
unter nehmen
Ġse xu
Ġbas el
Ġf f
fr au
Ġreg ionen
Ġre staur
de hn
Ġver gangen
ach tet
ord in
Ġbek annten
Ġnord rhein
Ġo pp
for schung
Ġproblem e
Ġmit arbeiter
ro lle
sch auer
ir n
Ġko lle
Ġdrit te
Ġnom in
Ġbr Ã¼cke
al ische
Ġen gel
Ġmiss ion
Ġlei ter
Ġd ick
Ġt un
Ġer fahr
Ġn s
Ġvide o
stÃ¤nd nis
unk ten
Ġg ute
gemein den
c en
g ut
Ġd Ã¼n
Ġnach ge
Ġk lav
Ġengl ischer
wÃ¤r t
handel t
qu es
Ġgeb ir
Ġbedeuten d
Ġengl ische
ĠÃ¶ k
kop f
reg ion
Ġfe hlen
Ġber eit
Ġheidel berg
Ġmittler weile
st att
Ġd unk
Ġb ul
fÃ¤ lle
Ġz o
Ġinter v
Ã¼ck sicht
schu llehrer
Ġal pen
Ġn ort
or y
b orn
ĠfrÃ¼her en
m s
Ġgr amm
Ġreg isseur
Ġbla ck
f iel
Ġz Ã¤hlt
wir kung
Ġk y
Ġunter nehmer
Ġes sen
Ġtechn ische
Ġb ab
sw issenschaft
Ġbild ungs
Ġp en
al og
Ġje den
Ġpubl iz
ie lle
Ġem p
Ġdur chs
Ã¼f ung
sb ach
ust r
Ġe c
Ġk g
ze llen
ĠÃ¤lte ste
Ġver ur
zen z
Ġkon serv
Ġdan iel
Ġgr Ã¤
Ġeigen tlich
we chs
fra ge
Ġstre cken
fra struktur
Ġsitu ation
wei te
Ġmar ien
ĠpreuÃŁ ischen
Ġschles wig
sen de
Ġkomm and
ĠrÃ¶m ische
Ġver gl
Ġbezieh ungen
Ġstell ung
Ġmanch mal
p ft
Ġvers uchte
Ġjun ge
Ġed ition
Ġbe sten
Ġbetrach tet
Ġh on
Ġl Ã¤ng
um b
ĠfÃ¼hr ten
or a
m ung
wa y
Ġwest lich
on ym
Ġste fan
h orn
Ġwe llen
Ġer kennen
Ġauf gabe
Ġbef and
Ġan f
Ġfrei burg
Ġg itar
Ġb ist
Ġsch r
lo sen
Ġge den
io de
p hen
Ġw ag
Ġzu kunft
Ġha lle
Ġh ard
Ġa frika
Ġbraun schwei
aus gabe
glie dert
Ġunterschied lich
Ġtro cken
zie hung
ur a
Ġme tern
Ġp ot
Ġfl Ã¼ss
Ġgew Ã¤hr
Ġscien ce
klÃ¤r ung
ĠnÃ¤ her
Ġsie ht
men te
Ġhimm el
Ġk ult
Ġm isch
ĠunterstÃ¼tz t
k ord
Ġumst ritten
Ġan lage
Ã¶ ss
Ġentsch eidung
inde st
Ġma il
n itz
ĠstÃ¤d t
Ġfunktion en
Ġmar ie
wissenschaft ler
k au
w al
k ern
Ġanh Ã¤nger
k Ã¶rper
z ent
Ġko hlen
Ã¤n glich
d ie
t liche
o ks
om p
Ġrei chen
Ġtechn ischen
b ahnen
Ġbild hauer
Ġander erseits
Ġa dr
Ġst Ã¤nd
Ġanfang s
s eit
ĠnÃ¶rd lichen
Ġleist ung
Ġbew usst
n ungs
Ġkon kur
gew icht
nf t
Ġexist ieren
Ġf en
Ġzwei t
ĠverfÃ¼ gt
Ġwod urch
Ġkommun al
Ġzu erst
Ġwer de
g or
al ischen
Ġber Ã¼cksicht
ĠpersÃ¶n lichkeiten
Ġz eiten
Ġrum Ã¤n
Ġverb in
Ġteil nehmer
gren zen
Ġc ro
ĠÃ¶ffentlich keit
bau ten
ĠgehÃ¶r ten
k ul
ber n
d p
in us
ri min
Ġle bte
Ġd Ã¶r
Ġzusammen arbeit
ig ungen
ik o
wer ks
ver se
Ġder zeit
Ġf eier
r t
Ġhoch schullehrer
Ġfir ma
Ã¤dag og
Ġaus s
ei sch
Ġco lle
ĠblÃ¼ ten
Ġzusammen ge
Ġstar ken
c ol
Ġson ne
Ġpa ar
Ġthr on
Ġlie d
Ã¶n ig
b u
Ġbayer ischen
Ġcl ub
d at
Ġle xik
Ġtra g
k unden
Ġre p
zu stellen
Ġaut omat
Ġwesent lichen
w Ã¶r
Ġsp eicher
pp el
end orf
Ġflag ge
Ġbezieh ungsweise
n o
Ġf lie
Ġolymp ischen
Ġm und
ĠvÃ¶ llig
Ġer ich
Ġhen ry
Ġstra teg
Ġkontro ll
Ġl ad
le gte
Ġstar ke
Ġdynast ie
olog isch
lehr e
k auf
Ġprie ster
be k
Ġet abl
Ġy o
Ġv ict
Ġtem pel
Ġein gesch
Ġgesund heit
Ġuntersuch ungen
Ġangeb oten
stÃ¤t ten
Ġma inz
ĠsÃ¼d west
Ġin folge
Ġleop old
ĠhÃ¶ch ste
sp iegel
z ust
Ġjes u
Ġne ur
Ġc at
al em
Ġwissen schaften
tra gung
Ġpr esse
Ġerschein t
sch icht
Ġgl Ã¼ck
k as
Ġn as
Ġmar ine
ĠÃ¼b rigen
ra te
Ġb os
Ġuntersch eidet
Ġver g
Ġgew onnen
Ġsozial e
Ġvor kommen
ie ÃŁen
j en
k w
Ġma ur
Ġinner en
it tel
Ġt ru
Ġbe hÃ¶r
k ont
Ġk b
Ġfolgen der
b ad
Ġfranc is
Ġind ien
Ġdefin iert
Ġberuf s
Ġm c
Ġbrei te
Ġklass ischen
Ġs ho
we ll
Ġweiter es
Ġgemein der
Ġstad ion
Ġkap ital
z one
ol ogen
Ġinter ess
ĠfÃ¤ h
Ġfar ben
e en
Ġg uten
Ġspan ischen
w alt
Ġange geben
r is
e c
Ġph ot
Ġk andid
Ġp or
Ġre f
Ġhit ler
scha ll
gel t
ĠsÃ¶ hne
Ġvi ol
Ġrhein land
v al
Ġc y
Ġre zept
lie fert
Ġnap ole
Ġzwe ck
Ġquad rat
s l
Ġinstr ument
Ġverl assen
Ġzeit gen
Ġsehen swÃ¼r
Ġp ian
Ġhelm ut
Ġaben d
Ġdipl omat
Ã¤dag oge
p unkte
Ġsch ick
Ġfehl er
r amm
Ġaus fÃ¼hr
r am
sa chsen
ir m
hl t
Ġgebur ts
Ġfe der
Ġfar be
ige m
bahn hof
Ġe w
Ġmar x
Ġm b
et ik
ist ischer
Ġm i
ein heit
sk y
in ter
Ġge sprochen
Ġc ir
zip lin
organ isation
Ġfr ont
Ġter min
Ġd v
Ġan zu
h ur
en a
umen ten
Ġab schluss
Ġu kra
Ġet h
us ion
Ġlehr e
as ien
ess el
nis sen
Ġbeg innen
Ġaus geb
Ġtex te
Ġfahr zeug
Ġge ograph
Ġmetho de
u ck
Ġnationalsozial ismus
Ġverl or
ĠsÃ¤ chs
Ġentwick lungs
dig keiten
Ġdie ter
Ġitalien ischen
Ã¤l de
Ġedu ard
ĠjÃ¼d ischen
Ġge fÃ¼
Ġa qu
ĠÃ¼ber setzt
Ġnahe zu
Ġim m
Ġschmid t
Ġso zi
Ġr au
ur z
Ġet c
Ġin gen
Ġvers uch
g g
Ġsch Ã¼tzen
v ille
Ġaus zu
ĠwÃ¤r me
Ġvier tel
Ġzum indest
rei strÃ¤ger
Ġdiskuss ion
sell schaften
Ã¼ che
ri b
Ġbeteil igt
Ġz a
Ġkar riere
Ġwe der
Ġhoch schule
Ġverl Ã¤nger
ck len
Ġalt stadt
Ġel f
leist ung
Ġbe fehl
Ġnach richten
b as
ĠdÃ¤n em
Ġar zt
d ungs
be d
Ġja ck
Ġin frastruktur
Ġo ff
Ġlie der
krieg s
Ġnord west
Ġregel n
Ġru hr
Ġher bert
stra ÃŁen
Ġos man
Ġt rei
Ġevangel ische
Ġg anzen
Ġse d
Ġgesch windigkeit
ian a
Ġvarian te
v in
Ġevangel isch
Ġkur ze
Ġver urs
id a
Ġk ennt
Ġht ml
s es
f ekt
ru f
Ġbele gt
Ġph ase
Ġc ent
Ġlang sam
Ġj os
Ġmatt h
Ġinter essen
Ġdie t
ist r
Ġgew inn
Ġwissenschaft liche
em pl
Ġseit dem
an i
Ġin vest
Ġklav ier
Ġvorge sehen
e hr
me er
Ġeis ho
Ġfil me
sch uss
Ġs ag
Ġh ig
wir kungen
ĠÃ¶ kon
Ġzentr ale
ĠmÃ¶glicher weise
Ġge fahr
e hen
ĠzurÃ¼ck ge
Ġin de
Ġbe fest
Ġgelegen tlich
Ġl Ã¶sung
Ġgel Ã¤nde
h s
Ġverb indungen
ĠgrundsÃ¤tz lich
Ġpier re
hr op
Ġstadt gebiet
ĠÃ¶ ff
un a
ĠwÃ¼r den
Ġkar ten
Ġein wohnern
Ġg reg
Ġro ll
ĠspÃ¤ter e
ungs ver
Ġm io
Ġaut on
Ġher steller
ĠsehenswÃ¼r digkeiten
Ġuntersch ieden
Ġan b
m Ã¼n
Ġexist iert
Ã¶ sterreich
Ġsozial en
Ġz ell
Ġsp ir
Ġentdeck t
Ġgr and
rÃ¤ ume
krie ges
Ġh em
Ġverlie hen
Ġbraunschwei g
en e
gel eitet
Ġsch ritt
Ġwer te
ha fte
stand s
Ã¤n en
Ġein heiten
mal er
f rist
st ad
Ġst anden
Ġheira tete
Ġdreh buch
Ġaufl Ã¶sung
Ġdr am
Ġbrei ten
Ġro te
st ab
at ischen
ist an
z te
st ation
ĠÃ¤gyp ten
spiel en
ĠgÃ¶tt ingen
ger s
verkehr s
ze ll
Ġvi ze
ger n
her zog
Ġm Ã¶n
Ġdar an
h ielt
Ġz ahn
hei ra
beg riff
ĠhÃ¶her en
Ġl y
Ġor den
ĠwÃ¶r ter
Ġkan al
Ġaus ger
den burg
he ater
r Ã¼ck
ri a
glie derung
Ġmet ro
ĠmaÃŁ nahmen
Ġhe x
Ġmetho den
wer ken
Ġnatur schutz
sa gen
sto ck
k in
Ġg ingen
Ġgleich nam
Ġperson al
Ġzwei ter
art ige
Ġschriftsteller in
am ik
olog y
unn el
Ġverschieden er
Ġbezeich nete
Ġinter esse
Ġbr enn
ie llen
Ġvor bild
Ġp se
hÃ¤lt nisse
Ġw etter
Ġfra gen
Ġb at
Ġwei st
a f
Ġf ak
ĠprÃ¤ sent
Ġsied lung
Ġeurop as
ann ter
Ġan dr
Ġg Ã¼lt
chs p
Ġs au
sch te
sta ben
Ġk ra
Ġta gen
Ġgesp rÃ¤
Ġer krank
y th
Ġtre ffen
Ġpr om
Ġo pen
Ġsoc iet
Ġz oll
st il
Ġm asse
Ġku pfer
produ ktion
Ġform el
Ġun er
Ġbr ingen
Ġho tel
Ġeinge stellt
p ul
Ã¼ mer
Ġrecht en
Ġverpf lich
Ġstud ium
Ġzei gte
ĠermÃ¶glich t
ste dt
Ġser b
um mer
Ġgeb ieten
Ġv gl
j o
Ġab kÃ¼rz
Ġbet rug
Ġstat us
gr amme
red it
Ġf igur
Ġmeer es
Ġober en
ĠfrÃ¼h jahr
Ġgymnas ium
Ġblie ben
qu en
Ġson n
Ġkais ers
Ġsp er
Ġvor gÃ¤nger
ucht en
ĠsÃ¼d a
h ungs
Ġvict or
Ġbed ro
Ġan genommen
gesch lagen
Ġfern er
Ġver ste
Ġat hen
Ġkonst antin
Ġroy al
Ġverein s
Ġt ab
ll i
Ġklein ere
Ġbezir ks
h ungen
ĠhÃ¶her e
or ten
Ġab wei
Ġverb r
Ġk och
at ische
Ġe ck
akt iv
Ġchem ie
c i
ĠÃ¤lter en
Ġk en
Ġbud d
hÃ¶ rigen
Ġl Ã¶s
Ġge denk
ie gen
Ġvor ber
if orn
ĠÃ¤lte sten
Ġar men
Ġmus ic
Ġre de
k unst
Ġco unt
Ġa fr
Ġkommun ikation
Ġdrit tel
an ische
Ġbil dete
Ġstand ort
y si
Ġn ennt
we ge
v ar
Ġwind ows
ĠfÃ¶r der
Ġevangel ischen
Ġa ster
l Ã¤uf
men ge
Ġbl att
Ġbelie b
Ġman che
hr e
Ġfrei will
Ġpse ud
ifiz iert
ip s
ĠrÃ¶ mer
Ġaut o
an er
Ġto ten
cklen burg
ha ben
fin den
fur ter
Ġt ol
Ġgr Ã¼
sch m
rich ter
part ner
Ġb ass
end es
Ġalb recht
ch em
Ġaus bau
Ġfl Ã¼gel
Ġneu zeit
Ġgegen wart
e v
hl er
Ġsystem e
k amp
Ġl am
ier tes
Ġa ff
mens ion
Ġa re
Ġab geschlossen
ger ichts
Ġbeding ungen
z ul
Ġentsprechen den
Ġm and
Ġt akt
Ġlux em
l or
an y
Ġm obil
ot ten
Ġdarm stadt
Ġrei hen
kt iv
b le
z wei
Ġc ast
Ġger ing
ĠerklÃ¤r te
Ġgr an
Ġbar bar
Ġk ie
Ġp unkte
Ġhandel n
Ġdiffer enz
stell ungs
Ġsol chen
Ġw uchs
Ġk oll
ĠhÃ¶ch st
Ġreg ul
Ġein deut
Ġverb oten
Ġpat ienten
ca dem
Ġkomm ent
Ġby z
Ġl ar
Ġereig nisse
ĠdÃ¤nem ark
g ro
Ġlin ken
sp rachen
ord neter
ar kt
Ġbeg onnen
Ġp anzer
Ġko ordin
Ġmor gen
Ġo t
Ã¤nd ischen
Ġs ha
Ġwe chs
Ġbl o
Ġjac ob
Ġniederl ande
m od
ie der
Ġh Ã¼
Ġaus stellung
Ġis ol
ĠÃ¼ber setz
it or
schrei bung
ĠmÃ¶glich st
d urch
hod ox
licher weise
hau p
Ġkonz ert
Ġbef rei
Ġis land
Ġtour ismus
Ã¤ ure
Ġgl o
Ġverl Ã¤uft
Ġt anz
scha ff
lo se
Ġger ichts
fahr er
id ae
Ġkonfl ikt
ur y
Ġexist enz
Ġrei cht
ĠkÃ¼ sten
i que
Ġs us
Ġsan kt
Ġne um
pro gramm
Ġr us
ĠverfÃ¼ g
iedel t
Ġgew icht
Ġg au
Ġan ne
Ã¼tz t
Ġl ot
Ġm auer
Ġr et
Ġnor weg
ĠsÃ¤nger in
fÃ¼hr te
je w
Ġspe zif
Ġro und
Ġst ill
ball spieler
Ġmot iv
ĠtÃ¤t igkeit
ĠÃ¼b lich
r and
ict ion
Ġbr au
Ġportug ies
s Ã¤tze
an ia
Ġum ben
pf licht
be hÃ¶r
zu fÃ¼hren
Ġhau t
yp en
Ġheraus gegeben
Ġbezie hung
ap e
deutsch e
Ġman fred
Ġsign al
ouver ne
Ġform ul
Ġbeschrei bt
Ġor chester
Ġautom obil
Ġk Ã¶r
Ġkam mer
Ġis o
gl er
Ġgemeinsam en
and a
Ġmen gen
Ġat lant
Ġnotwend ig
Ġentsprechen de
ĠhÃ¶ch sten
Ġbe ll
Ġbes uchte
l eiter
Ġse c
ien ste
r el
Ġk Ã¼r
Ġdeutsch es
Ġsch o
sb urger
kam mer
d or
t u
ot her
ĠbrÃ¼ der
u ster
im me
Ġb ibel
Ġk rei
Ġschrei b
Ġex empl
Ġmill iar
k Ã¶nig
Ġfol gten
Ġkass el
ho ff
Ġkap it
sph Ã¤re
Ġschrei ben
a ÃŁ
Ġun gefÃ¤hr
Ġg n
Ġlan de
Ġmathemat ik
Ġide e
Ġschwe ster
Ġsa ar
Ġbi bliothek
bl ei
Ã¼st ung
sam keit
kret Ã¤r
Ġzum eist
Ġa rist
Ġkolon ial
Ġp s
Ġab stand
herr schaft
Ġk Ã¼n
ak a
rat s
skir che
Ġmit einander
Ġus w
Ġk rÃ¤
for derungen
ĠgrÃ¼n der
ĠÃ¼ber w
Ġmol ek
hÃ¶ rige
Ġport rÃ¤t
Ġres er
Ġaus land
spolit ik
Ġh orn
Ġerst es
Ġf le
Ġeinge mein
ĠdÃ¼r fen
Ġort hodox
p reu
Ġt Ã¼b
es ien
Ġportug al
gebir ge
r al
wo od
Ġein richtungen
ĠÃ¼ber haupt
Ġzu schauer
Ġval ue
Ġhun dert
Ã¤d chen
Ġben ach
Ġuntersuch ung
w itz
ikan ische
Ġspezie lle
ed ition
Ġkin dern
Ġerweiter t
Ġopt im
Ġwei sen
st on
teil s
Ġspezie ll
Ġkontro lle
Ġham burger
Ġwie sb
ĠfÃ¤ llt
Ġmon at
ĠhÃ¤t ten
Ġstr en
famil ie
Ġbe handlung
Ġlexik on
it s
Ġbel ager
Ġeisho ckey
on str
Ġem il
Ġkonkur r
Ġm ut
Ġentsch eid
Ġbul gar
Ġnieder lage
Ġstatt dessen
orden s
ÃŁ ig
Ġern annt
er o
Ġan sicht
Ġ eich
ow ski
un e
im eter
d ro
z in
Ġf unk
rit te
Ġt rug
Ġto de
Ã¼ glich
et he
Ġgen annte
Ġsicher heits
Ġho her
fÃ¼hr ten
Ġor gel
ĠabhÃ¤ng ig
Ġwiesb aden
ver l
minister ium
ar te
Ġle gte
Ġwirtschaft liche
Ġm ic
sch ei
qu elle
Ġa x
ar n
Ġerst re
ck el
Ġc amb
Ġwieder auf
Ġbo x
s eits
arch ie
Ġf iguren
ĠÃ¼ber liefer
re gel
ber echt
iss ance
Ġinterv iew
Ġso fort
v is
Ġnort h
ar tet
sb ar
Ġsch all
ak u
on ischen
Ġerz iel
Ġb Ã¤nde
isch Ã¶
auf en
Ġs ort
Ġviel f
in str
ord nete
ĠgroÃŁ es
Ġnation alen
li ste
d l
et isch
Ġbedeuten de
Ġu p
ĠgrÃ¼n en
Ġpra g
Ġbestand teil
ik as
Ġben ed
Ġsch en
Ġfern sehen
ĠÃ¤lter e
ic us
j or
Ġk ennen
Ġmeisten s
ĠfÃ¼hr er
c al
u gen
y e
Ġextr em
Ġn g
Ġjul ius
Ġed ward
Ġkard inal
Ġa cadem
Ġfahr zeuge
Ġdig it
Ġmathemat iker
or ien
Ġsch ach
h z
Ġkein er
z ern
w es
Ġruss ische
Ġs ab
ast rop
Ġre ag
Ġkon tra
Ġm ater
ver trag
Ġastron om
Ġsyn th
Ġop ern
Ġt ha
Ġa ktion
ann en
Ġmatth ias
Ġverhin dern
ĠkÃ¶n ne
Ġger e
Ġkl assen
Ġbron ze
k la
un ehmen
ant eil
aler ie
u es
Ġpap ier
b ein
an ter
Ġse b
Ġab zu
ph an
Ġverk auft
Ġr od
Ġergeb nisse
ro t
Ġpl atten
Ġauf gelÃ¶st
Ġaus reichen
m auer
Ġ ud
Ġehemal iger
Ġbet on
Ġt ore
Ġchrist lichen
Ġnum mer
Ġsociet y
Ġscha ff
Ã¼nd nis
Ġko hl
on ie
Ġstell vert
z burg
ĠÃ¶st lichen
Ġh ess
Ġsyn chron
igen t
au ten
d o
Ġfrank furter
Ġunternehmen s
op p
Ġkrank heit
Ġb an
le gten
b ra
Ġern Ã¤hr
h y
Ġerl ang
sp e
alis iert
Ġalex and
el and
Ġwa chsen
Ġst ieg
Ġm un
Ġkl im
Ġfor st
fel der
Ġerschein en
auff Ã¼hr
Ġhor st
Ġzw angs
ch ern
Ġr iver
ko hol
Ġme cklenburg
u ern
Ġp yr
Ġbe am
ser t
lÃ¤ss lich
Ġp ul
Ġauf zu
Ġton nen
haus es
o is
h es
Ã¤m pfer
ĠÃ¤g ypt
Ġne ck
Ġt reten
al ition
ei ert
Ġe k
Ġur kund
Ġeu gen
Ġveranst altungen
prÃ¤ sidenten
Ġpolit isch
Ġph Ã¤n
Ġw om
ĠspÃ¤ ten
Ġs Ã¤m
Ġsystem s
kl asse
Ġmittler en
reich er
Ġein geb
Ġbeit rag
Ġz ent
d ner
Ġab geb
arb eitete
s m
Ġg att
Ġbes etz
Ġlei den
Ġan spruch
Ġch risten
Ġhier zu
for scher
st Ã¼cke
Ġh ome
Ġbenach bar
Ġgrund lagen
Ġger inge
Ġvorsitzen der
a issance
Ġphys iker
Ġfall en
br ingen
Ġk ing
ver lag
ul f
bl Ã¤tter
v ol
ĠjÃ¼d ische
Ġp as
Ġsch ild
Ġlie fer
y en
Ġunter en
ĠbenÃ¶t igt
Ġn ennen
Ġim per
Ġtra in
mÃ¤ÃŁ ige
Ġsauer stoff
Ġmar gar
schlÃ¤ ge
sch eid
Ġpar tement
sp f
Ġmaxim ilian
Ġo ster
Ġstud ie
Ġgemeinsam e
Ġaus gang
ra gen
Ġweltmeister schaft
Ġgraf schaft
ial e
l Ã¤nge
Ġeiner seits
Ġverwen dete
i or
Ġart hur
Ġan lagen
Ġverl ust
es co
Ã¶ glichen
Ġnahr ungs
Ġb reit
f b
lie genden
iz iert
Ġspr inger
ko sten
Ġge spielt
Ã¶ pf
Ġrund funk
Ġh Ã¤lt
Ġkon zer
Ġl ov
Ġnation ale
ei ge
Ġp au
Ġsp itze
Ġm r
Ġverl ei
lehn t
Ġsy r
Ġnieder sachsen
el a
Ġfrieden s
ĠursprÃ¼n glichen
ĠrÃ¼ck kehr
bÃ¼ cher
Ġbe wer
vers orgung
pt ion
Ġr ett
Ġein gerichtet
Ġan mer
Ã¼r zt
Ġsie ger
ol aus
Ġgeden kt
le un
Ġkor re
Ġbem Ã¼
v as
Ġn obel
Ġwas h
iter atur
Ġer geben
Ġbe wir
Ġviel er
Ġl yr
Ġg Ã¶t
Ġerl aubt
ze p
ik on
Ġmilliar den
be stand
sp unkt
Ġunter halb
ord s
ĠabkÃ¼rz ung
arch iv
itÃ¤t s
Ġp n
Ġfl o
Ġverantwort lich
o id
st heorie
Ġap ost
z z
Ġim pl
ch ner
Ġta schen
Ġz Ã¼ge
Ġkanad a
heira tet
Ġsch eiter
Ġer hoben
Ġw u
Ġgem Ã¤lde
Ġschwar ze
Ġha ft
mittel t
achst um
Ã¤ ter
Ġoffen bar
Ġleicht athl
um in
anst alt
Ġarn old
Ġn Ã¶t
Ġmar s
Ġ Ã¼
Ġr in
Ġerh ielten
Ġs itze
Ġbe haup
r inger
an ke
iden z
Ġan lÃ¤sslich
Ġbo oks
al b
az in
Ġsalz burg
ri ck
Ġn ar
Ġbr ut
ho fen
Ã¼ ssen
Ġab l
Ġbede ut
Ġscha ffen
Ġv aters
ist in
Ġan hand
Ġfre quenz
Ġv it
frei heit
Ġkrist all
Ġro h
ro chen
Ġse ch
Ġfl ucht
Ġluxem burg
Ġt sch
er er
Ġaustral ien
stu fe
Ġle bten
Ġmensch lichen
Ġgewer be
Ġl ind
is ierten
Ġkom mer
Ġc re
us alem
Ġhistor isch
Ġsim on
Ġerzeug t
Ġmerk male
Ġb ieten
Ġwei ÃŁe
w issenschaften
Ġsp rechen
ĠmilitÃ¤r ischen
rÃ¤ cht
Ġfrem d
Ġviel zahl
beding ungen
h ten
ĠÃ¤hn liche
Ġg riff
Ġa ct
Ã¤ b
ing u
w n
Ġst an
k es
Ġnorm al
Ġschiff e
Ġsk la
Ġhug o
Ġvul kan
m ut
ĠÃ¼ber gang
eite ten
wor fen
Ġvor wiegend
Ġproduz iert
or gen
Ġstaat liche
Ġwin kel
al tete
ot a
ĠthÃ¼r ingen
j i
Ġd et
Ġange legt
Ġer wer
Ġst ich
Ġstud ierte
Ġweltkrieg s
Ġgew Ã¶hn
Ġide en
Ġnor wegen
Ġmitglie dern
ben e
Ġkon gress
e p
h Ã¼
inz ip
Ġpoln ischen
Ġeinsch lieÃŁlich
m aterial
fl Ã¼sse
a is
g in
k anzler
Ġhistor y
land es
Ġdam pf
Ġkehr te
Ġausge stat
Ġmitte le
Ġorig in
Ġm Ã¤dchen
Ġwirtschaft lichen
ĠkurfÃ¼r st
gel d
Ġsing le
d io
Ġverein igte
Ġr on
Ġge setzt
ĠmilitÃ¤r ische
Ġme xik
Ġgew innen
art s
Ġgeb rauch
Ġb alt
Ġbe we
rech ung
Ġj ud
Ġde ut
hal ter
fin der
Ġsowjet ischen
Ġres ult
Ġh op
Ġh as
mode ll
Ġv ie
Ġgriechen land
Ġwissenschaft lichen
Ġm id
Ġkon k
Ġan halt
Ġschl Ã¼ssel
Ġver sehen
Ġbe at
Ġkomm ission
is k
Ġbe ster
Ġpl att
ru he
ĠtÃ¼b ingen
Ġvarian ten
Ġj ens
Ġbek am
Ġgott fried
Ġer wachsen
Ġprov inzen
Ġw Ã¼
Ġcount y
r ik
Ġn Ã¤m
Ġober flÃ¤che
u ert
Ġwag ner
Ġlib r
fl Ã¼gel
g riffen
ma ÃŁen
r ing
Ġp c
stre cken
ha ften
Ġver grÃ¶
Ġgemeinder at
Ġauf stieg
ĠhÃ¤us er
Ġmed a
ĠnÃ¤m lich
rÃ¤ uch
Ġfest gelegt
Ġfot ograf
r in
Ġwer ken
Ġso uth
Ġen zy
fÃ¤ llen
rei he
sen der
Ġmag de
Ġp ho
Ġaus b
Ġal kohol
Ġverwen den
gew Ã¶hn
Ġw it
Ġinner e
Ġgez eigt
Ġl iga
Ġge lehr
Ġnachge wiesen
w ahr
Ġc am
Ġer satz
ĠÃ¼ber t
ichte ten
pp er
Ġviel fach
Ġingen ieur
sbild ung
pl atten
Ġauss age
e y
u ste
Ġne ug
Ġjer usalem
Ġdat a
Ġschl uss
pr ession
Ġhand lung
ron t
wei ht
Ġfeuer wehr
Ġbege g
ĠkÃ¼ ste
is ieren
Ġausge zeichnet
scha fter
geb ieten
g riff
Ġbundesl iga
Ã¤m me
d auer
Ġc oll
Ġqu ell
sk op
Ã¤nd ler
st attung
Ġf Ã¤r
Ġko alition
Ġlebens mittel
ĠendgÃ¼lt ig
preu ÃŁen
Ġerheb lich
Ġko oper
Ġurspr ung
Ġd ol
Ġschwer en
Ġak zept
grÃ¶ ÃŁe
ur ei
Ġauf stand
Ġreich stag
Ġan at
Ġbo gen
Ġgetr ennt
wa ffen
Ġdial ekt
Ġgel b
erken nung
Ġwichtig ste
an walt
Ġdes ign
Ġtabe lle
Ġs Ã¤u
in nung
mann s
Ġkap elle
Ġschwer e
os law
Ġwash ington
Ġbe ur
Ġst ab
Ġzu folge
ap h
br and
Ġanal yse
a x
k ol
Ġende te
Ġw andel
Ġzuge ordnet
Ġbar ock
Ġtradition ell
et ts
v ann
Ġaus zeichnungen
f igur
Ġgesch icht
win kel
Ġgeb rau
un sten
ad o
Ġhei de
Ġdeutschsprach igen
Ġein iger
Ġb ig
me chan
pl Ã¤tze
Ġbegriff e
ĠÃ¶kon om
Ġmaxim al
Ġmos kau
Ġd un
ĠÃ¼ber ein
Ġerm Ã¶glichen
ĠgroÃŁ teil
form ation
st ift
be ll
Ġbes etzt
Ġstud io
Ġ Ã¶r
Ġbahn strecke
Ġmein ung
Ġpriv ate
Ġvert rau
Ġge omet
Ġbesuch er
Ġkath ar
mit h
d aten
Ġa z
he dr
st reit
Ã¤u b
Ġselbst Ã¤nd
vier tel
Ġer kenn
ie tes
Ġs ens
Ġmich el
Ġr enn
Ġmus l
Ġum geben
Ġcamb ridge
Ġr i
Ġwe ber
kar te
om ent
Ġdar stellen
h eil
Ġbundes ver
Ġdurch messer
Ġoffiz ier
bild ungs
ir d
Ġerfol gen
Ġpolitiker in
Ġox ford
Ġfest ung
Ġden ken
Ġg io
Ġdem onstr
r an
olog ischer
masch ine
Ġbe wohner
Ġverm Ã¶gen
Ġgepl ant
is men
Ġes sa
Ġbuch staben
Ġbras ilien
Ġehem als
Ġd ank
Ġtr ier
Ġser ien
Ġthe ologie
Ġfl u
Ġnation en
Ġnah men
mÃ¼ hle
sch el
Ġdies el
a a
Ġfernseh serie
Ġwo llen
Ġl em
t reten
Ġkron e
Ġbetrieb ssystem
Ġhalb insel
Ġwei hn
Ġku gel
Ġa w
Ġw un
Ġco un
Ġget Ã¶
Ġp ak
Ġadel s
Ġleist ungen
Ġb ord
Ġentwick elten
Ġwen de
Ġmic ro
Ġhy per
Ġen erg
Ġverb ind
ste te
Ġstaat sb
Ġrad ik
Ġprem ier
Ġvergangen heit
Ġman chen
Ġsta ates
Ġvor teil
Ġa ur
Ġitalien ische
iff er
Ġherzog tum
Ġver ab
r et
hÃ¶r igkeit
Ġind ust
Ġged anken
Ġse kund
Ġver an
z iger
f els
ĠÃ¼ber ra
Ġkonstru ktion
Ġb ob
ech net
Ġsied lungs
Ġsp itz
Ġschn eider
Ġill ustr
um p
b ogen
i ation
Ġbesch l
ĠmÃ¶glich keiten
Ġb io
Ġren aissance
Ġfl eisch
deutsch land
Ġrein hard
Ġbevor zug
Ġor ten
Ġra ke
ern en
Ġste phan
alen der
Ġterr or
sto ÃŁ
us en
Ġj ug
ach ung
geb lich
Ġhier fÃ¼r
Ġp az
Ġc orn
Ġsa tell
vor sitzen
h Ã¼t
Ġwe ge
Ġw itt
Ġeinz igen
au x
ab le
Ġv illa
Ġzeitgen Ã¶ss
Ġchines ischen
Ġber icht
Ġzentr alen
stÃ¤d te
Ġver ringer
lowak ei
Ġneu bau
Ġunbek annt
Ġmag n
Ġehren bÃ¼rger
Ġt i
ĠphÃ¤n omen
Ġgleich e
ouverne ur
Ġgew Ã¤sser
m ess
Ġstr Ã¶m
Ġf dp
Ġob jekte
ĠmÃ¼ hl
kehr t
Ġch amp
Ġamerikan er
z n
Ġstaat lichen
Ġinnen stadt
Ġsch il
system e
Ġger Ã¤te
ss on
Ġverein igung
t urm
Ġverst orben
Ġ tet
Ġdir igent
Ġbeeinfl usst
Ã¶n t
Ġl ong
Ġgleichnam igen
Ġtie fe
Ġgreg or
Ġs n
Ġaktu elle
bez ir
Ġbelg ien
Ġo ut
pl atte
ĠkÃ¶l ner
f abrik
Ġfl Ã¼cht
wei st
kÃ¼ ste
Ġoper ation
tem peratur
Ġkap itel
Ġgeburt stag
Ġwicht iger
Ġo d
k et
Ġa achen
Ġinst all
c er
Ġbru ch
Ġtest ament
Ġszen e
ich ert
her ren
Ġw m
Ġad min
b aus
c on
Ġprodu kte
ĠgegrÃ¼n dete
om er
o ffiz
il a
Ġkomp onen
Ġhand buch
Ġh l
f akt
Ġkn oten
Ġkat al
ĠerklÃ¤r ung
Ġkombin ation
Ġd b
Ġru f
Ġro hr
Ġgelegen en
Ġelektron en
ie ter
Ġab d
anz ig
c ia
Ġst au
auffÃ¼hr ung
Ġzu satz
Ġkonfl ik
Ġbis lang
Ġpro te
Ġdyn am
ei se
Ġbened ikt
Ġge werk
Ġcar ol
Ġausge hen
Ġbesonder en
Ġk unden
Ġfein d
Ġl eich
Ġopp osition
Ã¶ sen
kt ar
Ã¤m ter
Ġdem nach
Ġerforder lich
Ġv el
p at
Ġruss ischer
Ġfak ult
art igen
Ġn am
Ġnach weis
Ġch a
Ġkontin ent
o den
ĠfÃ¶r derung
Ġerfol ge
Ġseb ast
s v
s heim
Ġeinz ug
g ing
schiff e
Ġn ass
Ġzwei er
Ġkontin u
Ġle bt
Ġentwick eln
gen er
Ġbel ast
Ġab teilung
Ġhor iz
Ġsant a
Ġs ir
Ġman gel
Ġr ation
ĠerhÃ¶ ht
stechn ik
sch i
Ġzu stÃ¤ndig
Ġprop ag
Ġf assung
setz te
Ġmo unt
den z
Ġbesatz ungs
a der
Ġorganis ationen
Ġmel od
Ġp ir
Ã¶r dert
Ġentfern ung
Ġbudd h
Ġt raf
Ġkal k
bil der
Ġse gel
et on
Ġschne e
masch inen
Ġk iel
ge fÃ¼
Ġsp itzen
Ġgest alt
ĠzusÃ¤tz liche
Ġa ri
or ph
Ġlandkreis es
o hn
Ġs he
Ġur teil
Ġnik olaus
k reise
Ġab lehn
gra ben
op t
Ġf la
y ne
wa ff
Ġz immer
Ġbet racht
teil ungen
Ġf ul
te x
Ġkur zen
Ġhil fs
Ġo ze
ie ger
Ġd elt
Ġle ucht
ĠverÃ¶ffentlich ung
Ġlok al
Ġmasch ine
Ġwes halb
Ġver standen
ed ig
ul pt
Ġgebiet s
Ġs z
Ġbe herr
Ġma k
ĠgÃ¼n ter
Ġinde x
st eile
Ġdort mund
Ġbe handelt
Ġletz tlich
ĠtÃ¶ chter
Ġein zu
Ġst urm
ik um
gesch icht
op Ã¤d
Ġpfer de
Ġpar ad
Ġfall s
Ġbef Ã¼r
b an
Ġe del
Ã¤ umen
Ġber ichtet
ge m
Ġmexik o
p al
Ġauf gebaut
ĠÃ¼b licherweise
op ol
g ment
o zi
Ġn annte
Ġneu stadt
ak er
Ġj on
ĠtÃ¼rk ei
Ġt isch
il en
ĠverÃ¤nder ungen
Ġwicht igen
Ġjapan ischen
Ġm g
or ient
Ġstruktur en
Ġverlag s
k arten
m ir
st Ã¤nden
Ġp el
ang a
Ġfr Ã¤nk
spl atz
Ġprotest ant
Ġs ak
Ġme x
ron en
Ġrep ubl
Ġb ier
Ġein gang
stra hlung
ur er
Ġn sd
ĠrÃ¼ck en
Ġse en
Ġmode lle
Ġdisk ut
y k
Ġverwen deten
Ġz iele
Ġp in
Ġeurop e
Ġven edig
r ische
em it
Ã¤r ten
Ġver Ã¤ndert
Ġle o
Ġanal og
Ã¤ng nis
Ġwelt krieges
Ġsch wa
Ġheil ige
Ġamer ika
k le
Ġb rach
Ġauf merk
schaft s
mitglie d
Ġb gb
Ġant iken
ag ue
Ã¤nd ische
Ġm ah
Ġv iet
Ġo is
Ã¤ ste
Ġchrist us
Ġi rak
Ġgre en
Ġgra ph
ĠgrÃ¶ ÃŁen
Ġbil deten
Ġr al
Ġen ger
Ġeinwohner zahl
Ġmu ster
Ġzie hen
Ġmon aten
Ġsch Ã¤tz
verb indungen
grenz ung
t lichen
ein heiten
Ġpn g
Ġaug sburg
Ġre konstru
Ġjac ques
Ġauf ent
ei gung
Ġzu cker
Ġbezie ht
Ġren nen
Ġger ingen
Ġpfarr er
Ġviel mehr
Ġexper i
Ġd os
Ġdiet rich
n Ã¼
vo lle
r ischen
ĠbÃ¼ hnen
ĠlÃ¶ wen
u c
Ġexp edition
ĠgrÃ¼ ne
Ġro llen
Ġbo ot
ĠbÃ¶ hm
Ġk z
Ã¤ h
Ġas ien
ĠspÃ¤ te
auft ra
Ġg Ã¼nst
Ġst ol
be sch
sÃ¤ chs
Ġal p
Ġhar mon
Ġf Ã¤hr
Ġwei te
Ġb Ã¼ndnis
fahr zeug
auf nahme
ant as
Ġtele fon
Ġschwer punkt
Ġtrotz dem
Ġanerk annt
Ġproduktion s
ĠkÃ¶nn ten
Ġd ichte
Ġep is
ĠbestÃ¤t igt
Ġtyp ische
fert igt
we llen
Ġdiv ision
Ġminer al
z ung
m es
Ġland tag
Ġver heiratet
d y
kl ar
Ġehe frau
Ġerm or
Ġl ast
Ã¤ch te
Ġpf lege
Ġtradition ellen
zen s
schnit te
Ġl ein
Ġc ur
ĠverstÃ¤r kt
Ġhe b
Ġlei b
Ġb innen
Ġzu gang
ab ge
Ġmo dern
Ġge kommen
Ġaus sagen
Ġelektr ische
Ġeinfach e
Ġkenn zeichen
Ġkommer zie
ab t
Ġh ill
Ġgo ethe
Ġbr Ã¼cken
Ġnsd ap
ag ne
Ġev ent
Ġd ia
Ġan erkennung
ger Ã¤t
Ġar ts
Ã¶st lich
Ġwehr macht
Ġbesch lossen
Ġfen ster
Ġr Ã¼
Ġfra ktion
Ġbezeich nungen
Ġerrich tete
Ġli fe
Ġdis sert
Ġf ro
we lle
Ġhal te
p ass
schau spieler
Ġj h
Ġsu che
Ġs amen
im ir
Ġb enz
Ġo ver
ap el
Ġdop p
Ġklein eren
Ġso ph
andel t
Ġklass ische
Ġv ill
Ġb od
weg s
Ġvert rieben
histor iker
Ġgem essen
jÃ¤hr ige
Ġan ger
Ġgeb unden
Ġteil chen
mÃ¶glich keiten
Ġpublik um
s em
Ġsk and
Ġu fer
Ġgolden en
Ġan st
Ġkam p
d irekt
Ġlie b
Ġli zenz
b al
Ġbes etzung
Ġfest ival
Ġbegann en
ri x
op s
Ġpubl ic
c ul
f tet
ĠwÃ¼r zburg
ĠgegrÃ¼n deten
w Ã¤l
Ġb akter
Ġange hÃ¶r
in ett
fer en
ĠjÃ¼n g
Ġeigen es
Ġfranz osen
at i
Ġsho w
Ġen det
Ġkomp osition
Ġgew Ã¤hl
Ġinform ations
ess in
Ġbed arf
ĠnatÃ¼r lichen
w all
Ġg olf
Ġma ster
fe uer
Ġrelig ions
dem okrat
Ġschein t
r iger
Ġr ol
lie b
end o
Ġjust iz
Ġen ter
on ien
mitt lung
Ġk rimin
sen s
il de
Ġlit t
Ġposit iv
lu ft
ver hÃ¤ltnis
ph il
sto ffen
ĠnatÃ¼r liche
ĠniederlÃ¤nd ischer
it ation
Ġb Ã¶r
Ġh ub
Ġpr es
Ġsa gen
e z
Ġs mith
leist ungen
zust and
ĠÃ¤ qu
zeit ung
Ġdunk el
Ġver geben
Ġko st
zeich nis
b ol
Ġd ikt
Ġan gl
Ġse el
ro ck
Ġoffizie llen
Ġbez ogen
g ot
del n
Ġverd ienst
Ġf iction
Ġst al
Ġsch lieÃŁen
dat um
Ġad d
ach te
Ġbi bliothe
Ġsen der
Ġpfarr kirche
ĠvergrÃ¶ ÃŁer
Ġla gen
Ġlog o
Ġwechsel te
Ġw alt
Ġk Ã¤
i w
Ġanmer kungen
ĠÃ¼ber leben
dar steller
Ġan geschlossen
Ġausge fÃ¼hrt
Ġf oss
g ien
Ġg rim
Ġt irol
Ġman agement
Ġbest immen
sch la
s c
Ġch in
ute te
Ġten nis
Ġweib chen
st eine
ut n
Ġse tzen
Ġmil ch
p d
Ã¶ ch
wei ler
amm ern
Ġf ass
Ġmus een
Ġbestehen den
Ġmar i
Ġschau spiel
Ġma y
Ġmon gol
Ġurs ache
Ġunivers itÃ¤ten
Ġkreis es
anal yse
Ġg g
Ġeigent lichen
Ġerinner t
Ġmin im
Ġverb Ã¼n
Ġbeeinfl us
Ġdrei ÃŁig
wie s
Ġg ang
Ġwasser stoff
kir ch
sp ur
Ġzeit weise
ÃŁ te
Ġle gend
m as
ĠbeschÃ¤ft igt
Ġwh ite
Ġk rÃ¤fte
p la
Ġos car
Ã¶ die
Ġo k
er ien
Ġz ellen
ok o
Ġarab ischen
Ġbr ig
Ġla w
Ġkompl ett
Ġver lieÃŁ
Ġkathol ischer
Ġso g
hm ann
u ell
Ġkro at
Ġaltern ative
Ġgesch ichts
Ġkon se
Ġanwend ungen
Ġjes us
ĠbehÃ¶r den
Ġsch ar
quen zen
lle g
Ġhtt p
m or
her steller
Ġl iv
as h
Ġkohlen stoff
Ġlandschaft s
if ic
Ġmuseum s
Ġgene hm
Ġhig h
Ġges ang
ĠmÃ¶ gliche
Ġarg ument
ent in
Ġm Ã¤
Ġox id
Ġm ord
am eter
ard s
Ġk w
Ġwahr nehm
spro zess
r Ã¼stung
sk on
Ġgesetz e
Ġkat astrop
rÃ¤ gen
Ġi p
Ġbekannte sten
Ġspan ische
i od
Ġgesch ichten
Ġdelt a
ten d
Ġ ll
per t
Ġacadem y
Ġum gangs
Ġwahl en
sp ir
Ġhoch schul
Ġplan eten
ĠerÃ¶ff nung
ĠÃ¼ber zeug
stÃ¤r ke
ra tes
Ġerober ung
Ġger echt
sk l
Ġsol cher
so ft
Ġkal iforn
Ġsicht bar
Ġp Ã¤
Ġuni ted
it o
Ġgr au
Ġverk nÃ¼
Ġver mehr
Ġme yer
maÃŁ nahmen
fu ÃŁ
em pf
au ber
lich em
Ġj Ã¤ger
Ġober l
ĠgetÃ¶ tet
Ġp ur
Ġk ul
is en
ore a
sch ritt
st amm
Ã¤um e
Ġge tragen
Ġunter richt
Ġcl aud
emen ten
Ġvir tu
Ġh ad
Ġg ir
Ġwes er
Ġad ler
Ġw esen
Ġbau ten
Ġabsol v
Ġb am
sch ten
Ġt ok
Ġcl ass
ober flÃ¤che
c el
Ġk rim
Ġp red
m ag
Ġsta ffel
Ġvo llen
ĠmÃ¼n dung
Ġfest ge
ger Ã¤te
Ġsp ren
p osition
Ġprakt isch
tr et
Ġarchite kten
a w
met ho
Ġfir men
Ġgesch w
Ġde ck
Ġpla y
in stit
Ġkl ang
sch ild
Ġan im
Ġgesetz es
k y
r us
Ġb ast
re v
Ġausge tragen
Ġad l
ra chten
Ġmar sch
Ġober halb
Ġdis ziplin
ver n
Ġdar stellt
Ġn y
Ġe ll
Ġheer es
ys ik
Ġdemokrat ie
Ġle ague
Ã¶r g
Ġver legt
Ġzusammen h
fra gen
Ġverbin det
Ġbesch leun
ar at
ĠÃ¼bersetz er
au te
Ġze ug
ĠstraÃŁen bahn
Ã¶ ger
Ġverl ang
Ġex il
l iteratur
Ġlie ÃŁen
Ġalph a
s al
Ġw ith
fÃ¤ llig
Ġreform ation
Ġhoriz ont
Ġn on
Ġbundes wehr
spann ung
Ġdissert ation
Ġmittler e
Ġnational park
Ġca es
Ġnapole on
Ġumben annt
iz iner
Ġbyz antin
Ġversch l
Ġlin ke
Ġp y
l ar
Ġd own
Ġk redit
mÃ¤ ler
Ġbisher igen
Ġweiter leitung
Ġru he
Ġsebast ian
ion al
Ġl is
ang riff
r Ã¼cken
j an
Ġgef Ã¤
c om
Ġaufge stellt
ar me
Ã¼n den
Ġtr ennung
x id
z we
ul d
Ġm Ã¤cht
Ġsch mer
j u
Ġdirekt or
Ġsl ow
Ġj em
Ġal ben
Ġc op
Ġsub jekt
Ġintens iv
Ġver eine
Ġle er
Ġsch icht
v ens
Ġform at
Ġabge ordneten
g rÃ¤
sp recher
Ġoft mals
Ġgener ation
verb indung
sÃ¤ ure
Ġent wurf
Ġmar y
bau er
o ben
Ġjug oslaw
Ġchem iker
Ġbras ilian
Ġbundes staat
bereich e
Ġsch ie
u hr
se kretÃ¤r
Ġc os
Ġrei sen
frei e
Ġdir ekte
Ġspan ischer
Ġbe hin
Ġpol ar
ver anst
Ġgleich er
lin der
Ġbesch Ã¤d
ĠursprÃ¼n gliche
Ġle e
Ġl ob
Ġk un
Ġhe ktar
Ġkn ochen
Ġgio vann
k rÃ¤
mus iker
ren nfahrer
m ern
an c
denk mal
spr Ã¼che
Ġansch lieÃŁen
Ġaktu ellen
Ġiniti ative
Ġnetz werk
Ġein richtung
Ġant hrop
id o
Ġneck ar
bi bliothek
Ġv iell
Ġl ock
utz ung
vers ion
Ġdamal ige
Ġh altung
v ater
Ġfor derte
frie s
Ġdurch aus
le ute
Ã¤tz t
o iden
an ischer
far ben
Ġib n
Ġpal Ã¤st
Ġc e
it us
Ġge kenn
g u
Ġz wer
Ġhin ein
az itÃ¤t
Ġausgestat tet
ĠkÃ¶n ige
ikt or
Ġnach folge
Ġpat ent
Ġausge w
Ġst imme
Ġrom ant
Ġeber hard
Ġans Ã¤ss
Ġur auffÃ¼hrung
pf ung
Ġber eichen
Ġr ap
kan al
ist a
bÃ¼rger meister
rech nung
system s
Ġsch ied
Ġfin ale
Ġauf fassung
Ġche f
Ġviell eicht
h art
ie ht
Ġg od
Ġpriv aten
Ġant rieb
k Ã¤mpf
Ġnord osten
Ġminister prÃ¤sident
wa ffe
ow itsch
Ġs ul
Ġp ast
v Ã¶
t l
Ġmagde burg
Ġap oll
om a
Ġgew issen
Ġum s
Ġgriech ische
t ritt
sp ar
Ġverur teilt
ter s
Ġvon einander
ol i
Ġp ommern
n y
ge sellschaften
g reifen
Ġge k
ĠÃ¤nder ung
Ġho use
Ġauft ritt
Ġfamilien name
f ein
Ġwir kt
Ġverl etz
ĠmÃ¶ glichen
Ġprim Ã¤r
Ġh ind
Ġger Ã¤t
it ur
Ġbe her
Ġprogramm ier
ĠfrÃ¼her e
Ġbeteil igten
Ġzwei mal
Ġver teilung
Ġtem p
Ġhen ri
Ġerweiter te
ĠniederlÃ¤nd ischen
Ġass oc
m ont
Ġin se
zeich nen
Ġver stehen
Ġver fasste
Ġfo ot
Ġr y
Ġausge prÃ¤
jahr en
Ġkanad ischer
Ġvor stellung
av a
Ġwechs eln
Ġschul d
Ġanton io
m t
Ġh Ã¤ngt
Ġbegrenz t
ikan ischer
m ond
ĠgrÃ¼n dungs
Ġab gesch
Ġba pt
Ġmusik p
Ġgra v
Ġpoln ischer
Ġfel ix
Ġfilm s
Ġp ic
ist rat
Ġfahr t
Ġfrei zeit
Ġt ime
Ġu e
o der
Ġbeen det
r iss
Ġe b
Ġwun sch
Ġregen sburg
sprÃ¤ sident
Ġart ik
ge d
Ã¤ g
Ġaus gebaut
qu er
reg isseur
Ġoffen en
Ġh Ã¼gel
Ġuntersch iede
Ġev olution
verein igung
Ġc u
Ġbez Ã¼glich
Ġbl as
zw ungen
Ġhy dro
Ġfa lle
Ġt unnel
it is
fin ale
Ġstatt finden
ifiz ierung
or fen
str Ã¶m
Ġruss isch
Ġgeist es
Ġserv ice
r Ã¶
mÃ¤ÃŁ igen
n itten
Ġy e
Ã¤ch er
Ġged ichte
mitglie der
Ġweimar er
ter t
Ġsp recher
Ġve get
Ġangeb ot
Ġta x
Ã¼t tel
Ġpass ag
Ġbau er
Ġn i
ot yp
Ġo m
ĠmÃ¤nn chen
Ġvergl eichs
or um
Ġlatein ischen
a fel
Ġfe ll
ĠbeschrÃ¤n kt
vÃ¶lker ung
Ġenzy kl
ie b
Ġverein bar
Ġgiovann i
Ġth emat
Ġso und
Ġbern d
Ġexper iment
Ġst eiger
Ġge zogen
verb Ã¤nde
Ġbest anden
ĠhÃ¶he punkt
Ġf usion
Ġdram at
p u
Ġr ab
he or
Ġlau tet
Ġaben te
Ġwom it
Ġchem ische
Ġba urei
gen ossen
aus stellung
Ġhoff mann
Ġeindeut ig
Ġg ouverneur
ol en
Ġx x
Ġr ess
Ġfriedrich s
Ġb ischÃ¶
be zeichnung
g i
Ġbestehen de
Ġauf nahmen
Ġsen at
Ġunters ucht
Ġpot sd
Ġh Ã¤r
frie den
ĠbÃ¶ hmen
or b
pr Ã¼
Ġange p
Ġchrist liche
Ġther apie
ĠgÃ¼n ther
Ġgest altung
Ġkon vention
ut zen
Ġe ch
los igkeit
Ġwirk ungs
at o
Ġkur s
Ġse ele
Ġeinfach en
Ġgesund heits
sk a
Ġkat hedr
Ġa cker
Ġvers icher
zug s
Ġerl aub
z unehmen
ber s
Ġverb ot
wer ten
Ġei g
Ġabger ufen
Ġerweiter ung
Ġgeeig net
ant s
Ġbef ind
Ġp ion
Ġbeding t
Ġsch ienen
Ġstamm es
Ã¤ le
sk r
Ġniederl anden
Ġreduz iert
Ġw under
Ġt reu
aus schuss
Ġat mo
Ġab lauf
Ġv og
Ġorganis iert
Ġaltern ativ
Ġzusammenge fasst
Ġangeb lich
ri ll
ikan er
pro zess
Ġnamens geber
ĠsÃ¼d westen
Ġschl ei
Ġlok omot
art ikel
Ġein kommen
ill on
Ġneut r
Ġvi i
Ġinstit ute
Ġge fol
Ġan forderungen
b rie
Ġbrun nen
Ġt an
Ġbi bl
Ġr unde
ok oll
Ġb un
Ġo h
Ġph asen
Ġwettbewer b
Ġsch er
hÃ¶ fe
Ġrie sen
stra fe
ei tern
Ġsk ulpt
icher heit
Ġbi bli
Ġgeb rÃ¤uch
Ġange wand
Ġne use
Ġf ab
Ġcl au
Ġta geb
and o
Ġmittel meer
Ġs endung
Ġdi agn
Ġvers ionen
p ap
d lich
Ġgegen stand
Ġla ur
br an
Ġkonkurr enz
Ġgolden e
Ã¤ fte
Ã¼n de
vo llen
Ġaktiv itÃ¤ten
Ġch ic
Ġschrei bt
Ġver leger
Ġbes aÃŁ
Ġal f
t or
Ġph ysi
ĠbegrÃ¼n det
Ġbestimm ung
ĠÃ¤nder ungen
ĠmÃ¤r chen
Ġdi ff
Ġjapan ischer
Ġw at
ard o
Ġamts zeit
ier end
Ġschw Ã¤b
ur b
Ġfot o
Ġd m
Ġdrei eck
Ġsch um
bes itz
urop Ã¤
Ġeigen er
Ġs iz
ial en
Ġy ou
Ġkompon isten
c us
i ste
Ġster ne
Ġv ekt
Ġgraf ik
Ġaus gaben
ĠverÃ¶ffentlich ungen
Ġab bildung
Ġwieder her
be vÃ¶lkerung
Ġwahr heit
Ġum lauf
Ġver handlungen
w ein
ph ase
ll ung
ge halt
Ġfl ach
Ġkommunal wahl
m ol
Ġpoln ische
Ġlauf en
Ġalph ab
Ġmark us
Ġjapan ische
Ġverteid igung
Ġort schaft
Ã¼t ze
Ġgeist licher
t ums
Ġscien ces
dem ie
Ġplan ung
fahr ens
Ġnord westen
ĠÃ¼ber sicht
Ġeng ag
Ġbenachbar ten
Ġh amm
zÃ¤hl ung
Ġrezept ion
ĠkÃ¼n ste
Ġum fasste
mar sch
Ġaus wirkungen
Ġr ies
l Ã¶
Ġfl otte
Ġn az
am mer
Ġpo tent
Ġalli ierten
jen igen
Ġverpflich tet
Ġf ikt
Ġei d
Ġglauben s
Ġwissenschaft ler
ri um
med izin
l Ã¶sung
wei ten
ĠsÃ¤m tliche
ator ium
Ġscho ol
h old
Ġk el
Ġtr aum
Ġnord amerika
lager t
fÃ¤h ig
Ġp unkten
Ġp Ã¤dagog
Ġmet hod
Ġhandel te
Ġg Ã¶r
op e
Ġra iner
Ġkrie ger
Ġereig nis
Ġr as
ive au
ad or
Ġkon text
Ġl ett
Ġsp uren
pfl anzen
Ġer finder
Ġe arl
Ġmehr erer
vers icherung
ar ischen
Ġaufge fÃ¼hrt
Ġw oche
ĠgÃ¶t ter
Ġtr aten
Ġa th
qu art
s Ã¤nger
zus etzen
j ekten
Ġer re
ome tern
Ġhin sichtlich
ĠÃ¤uÃŁer en
a ck
Ġ Ã¤t
Ġh ob
ĠgroÃŁ herzog
Ġschiff s
Ġbes ie
Ġper spekt
Ġnied riger
Ġgegen seit
an b
Ġnieder schlag
Ġer richtung
ett o
m acher
Ġm oll
Ġpolit ischer
ro ph
Ġlei tet
Ã¤t t
Ġevangel ischer
Ġlin k
st es
kl oster
Ġpo wer
Ġser ver
Ġsk i
Ġpa der
Ġp ed
Ġsch uf
Ġbez ahl
Ġmittel punkt
Ġol denburg
Ġc up
Ġwill en
Ġspezie llen
Ġkarls ruhe
e der
Ã¤u fe
Ġheraus geber
Ġh ild
Ġan satz
Ġblock iert
on ia
Ġseit her
Ġfrancis co
wander ung
s inn
l aub
Ġparis er
Ġab b
Ġchrist i
stu hl
ĠÃ¼ber tragung
Ġfran ce
wir ken
Ġaktu ell
Ġh ung
Ġt s
mit te
Ġgem isch
Ġchrist entum
Ġgelegen e
Ġther m
Ġf Ã¶der
Ġbei der
Ġwahrschein lichkeit
teil te
Ġdokument ation
r unde
Ġstra ÃŁ
Ġgro up
ck te
Ġentsch ied
ĠlÃ¶ ste
Ġt ieren
hol m
Ġpian ist
aus s
Ġvers uche
ĠerÃ¶ff nete
Ġf unde
Ġf ix
Ġtie fen
Ġbas ket
Ġfertig gestellt
ĠreligiÃ¶ sen
Ġso fern
Ġverb rau
Ġost preuÃŁen
l itz
Ġweihn acht
Ġra sch
in ten
Ġbrun o
Ġauseinander setzungen
l Ã¤nder
ge gangen
on om
Ġnahr ung
an geb
Ġn an
Ġbas il
Ġkrit isiert
Ġsam uel
ĠstÃ¤r ke
Ġzu gelassen
Ġres idenz
pfl anz
Ġwiederhol t
Ġbereich e
Ġelektr ischen
Ġbarbar a
Ġentdeck ung
Ġver ehr
Ġeigen stÃ¤ndige
Ġspe c
Ġneg ativ
Ġchr om
gra fen
Ġgeb lieben
Ġver dr
Ġrett ungs
un en
Ġfal sch
i pl
Ġc ob
Ġk em
Ġal umin
Ġdigital is
Ġdv d
Ġlor enz
Ġha gen
mot or
l y
am eister
Ġgekenn zeichnet
g ard
ĠtÃ¤ glich
ĠsÃ¼d osten
ĠschÃ¶ ne
Ġein druck
st ages
Ġfe ucht
Ġwie s
os op
p age
t Ã¤t
Ġvor be
bar er
Ġc er
scha fft
Ġam ster
g han
Ġp ont
am s
ian ischen
Ġvor bei
Ġris iko
Ġd j
lieÃŁ ung
ver sen
Ġgrenz t
Ġk la
it im
Ġtr in
Ġmet al
schaff ung
on i
Ġbedeutend sten
Ġan nahme
Ġtemperatur en
Ġan k
Ġg ei
og ramm
stra hl
Ġz ogen
Ġant is
spart ei
Ġc la
Ġhaus es
pa ar
Ġg ift
Ġch ir
Ġmar ken
stÃ¤nd igkeit
Ġauf klÃ¤rung
ik i
Ġum setzung
Ġb iele
ver teilung
ĠerzÃ¤hl ung
Ġbr es
Ġherrschaft s
Ġm ig
Ġehr endo
ein richtungen
Ġch i
hard t
Ġbl Ã¤tter
Ġm etz
Ġunter b
grÃ¼n der
Ġir land
aul t
bo den
Ġstell ten
we be
Ġleben den
Ġber ufen
ĠrÃ¶m ischer
ct or
Ġz ar
Ġk eller
Ġbi ograph
Ġr olf
Ġrec ords
wei ger
ĠjÃ¤hr igen
Ġselten er
Ġge fallen
Ġst ick
Ġu a
Ġsa al
Ġbot an
Ġge stein
Ġdar stellungen
Ġjahrzehn ten
Ġqu anten
k ow
he bung
in ar
ri an
Ġwei s
r as
Ġd ub
ĠÃ¶ ster
Ġsch i
Ġkloster s
b nis
Ġg rupp
Ġvers orgung
frei en
Ġlok alen
Ġver film
ĠÃ¼b lichen
Ġnorm aler
Ġver stÃ¤ndnis
Ġmann heim
ĠergÃ¤n zt
em ens
Ã¶ z
Ġvier ten
ro hr
Ġaus drÃ¼ck
Ã¼n dung
Ġsieg fried
Ġan wesen
Ġcon c
Ġhyp oth
Ġst ei
Ġgegen d
Ġslow en
Ġchic ago
Ġv ent
Ġmyth ologie
Ġeigent liche
Ġhand lungs
Ġschwed ischen
Ġex port
Ġdist anz
Ġbet t
Ġges ichert
or o
Ġcolle ge
sp itze
Ġpro gramme
Ġgen auer
sch irm
Ġbe waff
qu ellen
Ġbundes straÃŁe
ar zt
form at
ĠkÃ¶nig lichen
Ġkultur elle
fÃ¤ ll
Ġentsch ieden
Ġkant ons
Ġleichtathl et
Ġf ett
Ġinf ekt
Ġver teilt
lie gt
z eln
er geb
art h
Ġfil men
Ġjen er
Ġskla ven
Ġa gr
part ei
ĠverfÃ¼ gen
Ġsu hr
ĠblÃ¼ te
Ã¤ fen
bl ock
Ġschm el
k ins
ir o
Ġs un
sk o
Ġmed iziner
Ġun fall
Ġpyr am
Ġpremier minister
Ġs ult
Ġmon te
Ġschl ug
Ġbru st
blei ben
ĠpÃ¤ p
Ġb ag
Ġpf licht
Ġger iet
b old
Ġkamer a
Ġab stra
Ġander es
Ġfreund schaft
Ġunterst Ã¼tzen
Ġeinz ig
ges sen
Ġd ich
zen ten
ffiz ien
Ġzie ht
k ette
he ber
z o
Ġkranken haus
Ġab geleitet
d ichte
h ent
Ġident itÃ¤t
v p
Ġmor itz
Ġaus dehn
Ġludwig s
Ġzug Ã¤nglich
p on
Ġor tes
ĠsÃ¼da frika
Ġvor gehen
Ġfe ste
ĠzerstÃ¶r ung
Ġtim es
Ġstra hl
weis ung
Ġlab or
Ġso u
Ġschla f
Ġs law
or fer
ĠjÃ¼nger en
ne e
Ġfahr en
Ġange s
sw ald
Ġober flÃ¤chen
Ġcomp any
Ã¤r ung
Ġex press
Ġgriech isch
Ġel be
d is
Ġwestf Ã¤l
Ġ one
Ġp ant
Ġverb lieben
h yd
Ġbur gen
Ġkos m
ur al
Ġverm eiden
te or
ick t
Ġtyp en
Ġgi pfel
Ġerw orben
Ġerfahr ungen
g ungen
Ġju an
Ġehrendo ktor
Ġir an
Ġeingesch rÃ¤n
st eiger
le kt
h Ã¤l
art ig
un ken
Ġein heim
Ġlei tete
g ab
Ġber ge
Ġbek Ã¤mpf
Ġukra ine
Ġvir gin
hÃ¤us ern
ĠpreuÃŁ ische
k urs
Ġrel ev
Ġprinz essin
Ġab grenzung
Ġlie genden
Ġumge kehrt
st ar
Ġre chen
urg ie
Ġtradition elle
ur us
Ġbrit ish
Ġb och
lie d
or p
Ġakt ien
deck t
Ġbed Ã¼r
d re
Ġunter teilt
Ġch urch
Ġober bÃ¼rgermeister
Ġmeister schaft
kennt nis
Ġregion ale
Ġzug unsten
Ġster ben
Ġma chten
sb ruck
Ġabge lehnt
Ġk alender
Ġmittelalter lichen
Ġm d
mar ke
Ġnass au
Ġrol and
id es
bro chen
Ġt ib
ĠÃ¼ber nehmen
for dert
Ġerz b
ĠlÃ¼ beck
ver halten
t itel
gesch Ã¤ft
Ġmail and
Ġdrehbuch autor
Ġr d
Ġvor lÃ¤ufer
utn ant
z ut
Ġbezeich nen
Ġentscheid ungen
Ġalumin ium
n ummer
Ġvor stellungen
Ġm eine
Ġbeob achtet
Ġbrie fe
Ġer be
og n
Ġerstre ckt
ein er
Ġqu art
ĠuniversitÃ¤t s
Ġverteid igungs
Ġasp ekte
Ġsch Ã¤d
Ġaufge hoben
Ġnik ola
z iel
sch rau
Ġbis mar
setz ten
Ġsch lecht
Ġbe auftra
Ġo ste
Ġin g
si den
Ġsatell iten
Ġber t
ĠsÃ¼ ÃŁ
Ġhar ry
ungs gebiet
man agement
u en
Ġsch mal
Ġdemokrat ischen
st h
Ġf ur
Ġr ic
Ġnach kommen
Ġfe sten
Ġr iv
Ġpopul Ã¤r
gehen de
fÃ¶rm ig
Ġro se
Ġteil nahme
ĠfÃ¼hr ungs
br un
Ġmann schaften
Ġbelie bt
swahl en
Ġp iet
Ġspiel ten
ĠhÃ¤uf iger
ĠstÃ¤dte partner
Ġaust ausch
Ġerd be
ic i
Ġuntersch eidung
kap elle
Ġd al
Ġfakult Ã¤t
Ġn ick
Ġmaterial ien
Ġl ichten
Ġunter gebracht
Ġsystem atik
Ġerrei chten
g ru
arb on
Ã¤nder ung
Ġamster dam
n ot
at iver
me da
Ġstat istik
wen det
Ġfot os
bild ungen
klÃ¤r t
Ġrot h
Ġwor auf
eich e
Ġemp ir
Ġk Ã¼nd
Ġinf anter
ĠrumÃ¤n ien
chsp iel
Ġprot ein
Ġtro p
Ġge sicht
Ġlin den
Ġausge st
Ġle gende
Ġwe ll
p ommern
ag on
Ġsym pt
ĠmÃ¼n chner
bil den
Ġbe wohn
Ġd icht
Ġkathedr ale
sp eicher
geb ietes
Ġge legt
ition en
ĠÃ¼ber sch
Ġqu ant
ĠreligiÃ¶ se
Ġbau werke
Ġf em
el ekt
om b
Ġvielf Ã¤lt
Ġpal ast
Ġcomm un
Ġw Ã¤l
Ġgra z
os ion
Ġar d
Ġex tra
Ġr eine
mÃ¤ cht
Ġeng agement
ĠberÃ¼hm te
Ġc entr
ner s
Ġe ast
Ġg on
Ġtats Ã¤ch
Ġst rei
Ġs ib
Ã¼ se
Ġfakt oren
Ġmittele uropa
Ġermor det
f o
Ġaus geschlossen
ar ett
Ġarch ive
Ġv as
ord nungen
dr om
Ġpsych ologie
Ġregel ung
Ġscha den
Ġrei ter
ĠpreuÃŁ ischer
Ġm esse
Ġbr an
Ġr ub
Ġc su
ĠÃ¼ber liefert
ĠerzÃ¤hl ungen
opÃ¤d ie
p ut
w l
Ġtr enn
gesetz es
Ġerrich ten
Ġtschech os
Ġf ung
b f
Ġbl ues
ol ith
Ġkathar ina
u al
ĠspÃ¤te stens
Ġtha il
z ur
Ġlin ux
Ġgrund legen
Ġnach halt
Ġwoll ten
Ġschwed ischer
i ze
Ġproz esse
Ã¶m m
fre quenz
a del
b ron
h aut
Ġx ii
Ġwirk te
Ġgez Ã¤hlt
Ġb m
Ġauseinander setzung
Ġurkund lich
rÃ¤ umen
Ġkaliforn ien
es heim
Ġw itten
Ġautob i
Ġc od
gest altung
Ġbe cken
le chter
ug h
Ġv at
Ġl och
Ġzusammen setzung
f iz
Ġh ist
be zogen
ub il
Ġgo og
Ġwo od
Ġbos n
Ġge fahren
Ġan trag
Ġreg istr
Ġlov e
Ġan lass
Ġab kommen
Ġpr inc
be am
Ġzw ang
Ġt auf
Ġhir sch
ĠmÃ¼n zen
Ġpla st
pr Ã¼fung
Ġinterpret ation
Ġent w
Ġwie sen
Ġeinsch rÃ¤n
Ġv inc
Ġtri fft
Ġun gl
sch loss
ud es
Ġko hle
Ġw is
Ġg h
Ġsch lieÃŁt
Ã¤r n
fahr zeuge
Ġwesent liche
Ġr itu
Ġverbrei tete
rÃ¤ um
Ġbr ingt
Ġdi verse
p ern
Ġw achstum
Ġort steile
Ġgenau e
Ġf an
Ġpader born
Ġg alerie
Ġsied lungen
if a
Ġfu chs
par ks
Ġbelager ung
Ġk i
Ġdir ekten
Ġd na
Ġv iktor
Ã¼r tel
Ġar zn
Ġprof ession
Ġbesatz ung
l ein
ĠdÃ¤n ischen
Ġstellvert reten
Ġposition en
Ġdiskut iert
ol as
fahr ts
Ġsag te
Ġ old
Ġwar t
wir t
Ġh is
Ġst Ã¼tz
ĠerfÃ¼ llt
Ġmar burg
Ġgeschlecht s
Ġj ord
Ġj ones
Ã¤r t
Ġbe weis
Ġerinner ung
Ġbetroffen en
Ã¼ g
Ġre kord
Ġfor scher
z Ã¼gen
m Ã¤n
m Ã¶gen
Ġj Ã¶rg
Ġfre unde
Ġkrit iker
ĠerklÃ¤r en
Ġsam t
Ġsch atten
Ġein ger
be fehl
m and
Ġsch alt
d ungen
Ġh ieÃŁ
Ġver kl
ol o
ĠbÃ¼ ro
it iv
au be
Ġkathol isch
st reifen
Ġbas iert
Ġindust ri
Ġs eil
Ġo v
Ġstadt rat
in os
Ġhar ald
Ġi c
Ġcom ic
Ġj ar
ĠsÃ¤chs ischen
Ġl esen
Ġstu fe
Ġp t
st ill
den ken
Ġbesch loss
Ġaf ghan
Ġin tell
Ġhei ÃŁen
ox id
haupt stadt
ĠgrÃ¶ÃŁten teils
Ġch lor
Ġinstitut ionen
Ġbiele feld
Ġort schaften
Ġmensch liche
ĠmaÃŁ geblich
Ġst Ã¼cke
r Ã¼
Ġbist um
Ġga ben
s id
Ġg Ã¤n
p ra
Ġh und
wa ppen
Ġerziel te
Ġfakt or
l assung
n ern
as i
Ġle w
Ġh Ã¶l
Ġfoot ball
Ġbezie hen
p reistrÃ¤ger
Ġgef Ã¤ngnis
ia e
Ġp ie
Ġpr Ã¼f
n oten
ze lle
komm un
Ġfahr er
Ġassoc iation
st immen
Ġt y
gesch ehen
sy l
Ġbaurei he
r ol
Ġstreit krÃ¤fte
Ġbom ben
Ġinstit ution
Ġkontinu ier
ber icht
Ġerkenn bar
Ġgoog le
Ġne st
Ġzu stimmung
acht ung
di mension
Ã¼st et
Ġgener ell
gesch lecht
Ġmo z
Ġs ud
Ã¤ den
Ġhin weis
Ġte uf
Ġsc ott
rei te
os h
Ġberech nung
Ġau ge
Ġinstr umente
Ġerkennt nis
Ġkur zer
Ġz auber
ĠbegrÃ¼n der
u z
at us
Ġvorhanden en
Ġabwei chen
Ġbes eit
Ġtechn ologie
Ġstu fen
ĠjÃ¼nger e
Ġr io
Ġumfang reiche
schnit ts
Ġent z
Ġnationalsozial isten
Ġm ob
Ġauf recht
Ġtyp isch
Ġsowjet ische
Ġp reistrÃ¤ger
be cken
Ġind ischen
Ġnied rig
Ġam b
me ter
Ġfre der
Ġfund ament
Ġgere gelt
Ġa tem
Ġsp ur
Ġvor Ã¼ber
Ġeurop ameister
Ġsol id
y o
er ne
et scher
geb ra
Ġsuhr kamp
Ġscheiter te
an dern
Ġerne uer
on ische
Ġak k
Ġin c
Ġgew isse
Ġunterschied licher
Ġp okal
Ġjen a
e o
Ġal gor
ĠkÃ¤mpf en
Ġauf weisen
Ġde v
Ġhistor ischer
Ġterritor ium
fiel d
Ġkomponen ten
Ġverste ht
Ġsch ichten
an ie
Ġviet nam
Ġbi ographie
bach er
druck t
Ġd orn
Ġref lex
sen z
co de
Ġgegen wÃ¤rt
Ġbeen dete
rev olution
s wert
an es
Ġhaupt bahnhof
Ġhand werk
Ġfe b
Ġhan se
Ġin spir
Ġver fas
Ġnieder Ã¶sterreich
Ġg amm
Ġer stellt
ĠzÃ¤hl te
tau send
op f
m utter
ier n
ĠabhÃ¤ng igkeit
Ġargentin ien
ib il
Ġanal ys
Ġm Ã¶r
Ġre ste
Ġfrank reichs
or es
or men
gew alt
Ġget roffen
Ġverl etzt
Ġdr ama
u fer
Ġde c
ling s
Ġarbeit geber
Ġdigitalis at
Ġi ce
Ġmit be
Ġbau werk
Ġbet reffen
Ġab ra
Ġfranz is
au se
Ġst Ã¤mme
Ġbau te
Ġangel es
Ġk reise
ĠÃ¼ber nahme
Ġvo lle
Ġbeschl uss
Ã¼b ung
Ġdort igen
Ġhil f
Ġchem ischen
Ġan son
Ġspann ung
ter ung
au sbildung
ad i
Ġmehr mals
Ġlok ale
Ġmusl im
Ġh us
grÃ¶ ÃŁte
Ġsum me
g h
Ġvoll stÃ¤ndige
f ir
Ġun gewÃ¶hn
Ġele ct
Ġc ass
Ġinse kten
h lich
Ġr ats
is l
Ġdat um
tel es
eig ten
Ġinn sbruck
Ġf lieÃŁt
Ġl ust
Ġstar ben
leit ungen
ĠÃ¼ber blick
Ġber gen
Ġbl ue
ĠkÃ¼ hl
Ġd oc
Ġer zeugen
ut u
Ġvi ii
Ġberg bau
Ġgegeben en
Ġsa ale
st ufen
Ġchines ische
Ġl oth
Ġsch los
sb et
Ġarb eitet
Ġw ach
Ġk orn
Ġp est
Ġletzter e
Ġspekt rum
ĠerwÃ¤hn ung
Ġa ar
Ġvol umen
ĠunterstÃ¼tz te
Ġsch ien
Ġum gew
m Ã¤r
p il
r em
Ġbeteil igung
Ġel s
Ġcl emens
Ġcir c
Ġt Ã¤n
Ġd og
gend es
Ġgl Ã¤ub
Ġmag azin
Ġmetro pol
Ġl aus
Ġh Ã¼t
Ġin te
Ġant h
Ġbas e
Ġaus sicht
schl Ã¼sse
Ġjen e
Ġsp ace
Ġschne ller
Ġgrund schule
n acht
Ġange sichts
b om
Ġb ucht
Ġtau send
Ġvers uchen
Ġa er
Ġaus fÃ¼hrung
Ġange k
i ot
Ġ reis
eben e
Ġzu gr
al isch
Ġch am
ell a
ĠÃ¤uÃŁer st
Ġkon stit
Ġurs achen
Ġmill ion
Ġh enn
ab len
Ġlehn te
st urm
Ġbewusst sein
Ġc ra
ĠÃ¼ber s
Ġzul Ã¤ss
sk ar
ĠfÃ¤ lle
Ġdipl om
v ard
Ġp ad
gesch oss
Ġin ne
Ġk etten
Ġer zie
Ġpl Ã¤ne
Ġbro wn
Ġins zen
Ġwilhelm s
Ġerw arb
Ġwirk lichkeit
bel e
Ġm oment
Ġqu ar
Ġhome page
Ġmar ke
Ġrelig ionen
Ã¤ hne
mir al
ar ia
Ġaster oiden
Ġl aub
Ġnational mannschaft
alis ierte
berg s
gleich ung
Ġdigit ale
Ġp od
Ġwe ster
Ġverhin dert
Ġg un
Ġan stelle
Ã¼r en
Ġch an
jahr e
fried hof
Ġum feld
Ġbrem er
n ation
Ġpo ten
Ġget rei
Ġy or
Ã¶ ster
Ġc le
Ġme teor
land schaft
Ġanson sten
ver br
Ġsyn ag
w uchs
ber gt
ĠpersÃ¶n lichkeit
ĠberÃ¼cksicht igt
Ġder selben
Ġim pul
Ġham mer
ĠlÃ¶ sch
Ġsonst iges
Ġman ager
Ġalter s
Ġberu ht
Ġgemeinde gebiet
Ġhand ballspieler
leg ungen
w andel
pro bl
Ġport al
Ġtheor ien
Ġkab inett
Ġident isch
Ġrake ten
ĠnÃ¤ch ste
rei bung
Ġch ile
Ã¼ck t
beg inn
Ġausreichen d
Ġmusikp Ã¤dagoge
ĠÃ¼ber trag
Ġk f
us k
Ġs q
bau en
Ġlatein isch
n s
Ġan grenzen
Ġschw anger
Ġkaiser lichen
Ġholl y
gen e
Ġmicro soft
Ġabente uer
Ġge hei
Ġber at
Ġsonst ige
Ġdial og
Ġfrem den
Ġt ob
Ġze ugen
Ġbe cker
Ġbein hal
Ġkultur en
Ġbew ahr
ber gen
ne ll
Ġzugr unde
Ġa den
Ġst ir
ĠbÃ¼rger krieg
tret ung
Ġv and
ok raten
Ġintegr ation
Ġan ordnung
Ġau dio
Ġschwed ische
Ġgemein t
ov a
Ġhy dr
Ġfir st
Ġexperi mente
ate ur
ĠstÃ¤r k
Ġf antas
Ġerh ol
Ġbe wegen
ĠnÃ¶t ig
ro llen
Ġm hz
de cken
fahr ten
Ġse kunden
schrei ten
Ġspan isch
pf lege
Ġfu hr
Ġged icht
Ġbundes regierung
Ġsin fon
Ġst aub
flug zeug
Ã¼ ch
Ġka st
ins eln
Ġf lex
Ġha ar
Ġdeta ils
Ġver hÃ¤ltnisse
Ġvoraus setzungen
schl esien
Ġgest altet
f alt
Ġl Ã¤nd
al te
ik ations
pro jekt
Ġprobl emat
s au
s um
Ġbayer ische
Ġgesch lagen
Ġdu is
ger man
Ġin halts
Ġg ib
Ġproduz ent
Ġsonn tag
Ġk od
Ġda y
Ġkind heit
is er
fÃ¶rm ige
ĠgrÃ¼n de
Ġreser v
w el
d ien
ol ph
legen heiten
Ġ Ã¤mter
is ationen
Ġg Ã¼
ator s
Ġoffen e
Ġb le
il i
Ġst if
Ġes s
Ġz en
aut ob
Ġfiel en
b c
swissenschaft ler
g reg
s haber
Ġn ow
Ġlern te
w Ã¤hn
Ġf aust
ro ll
Ġlei sten
Ġintegr iert
Ġst Ã¼r
win den
Ġausge dehn
Ġturn ier
Ġr osa
Ġmed ia
Ġpriv ile
Ġstr and
ĠpersÃ¶n lichen
b art
Ġge be
Ġantis emit
Ġang st
Ġbegl eitet
Ġwur zel
Ġro ger
ĠverÃ¶ffentlich ten
ik al
Ġverm utet
sen dung
pp ert
Ġth or
Ġdo ug
direkt or
spr ung
Ġbeschrei ben
Ã¤u den
Ġtr ink
Ġverein z
Ġbi ografie
Ġprof it
w ett
Ġlan ger
Ġress our
Ġm ent
Ġg allen
Ġver ordnung
Ġerl angen
och em
at tet
Ġbetrei ben
Ġre h
el emente
Ġjahrhun derte
Ġr ass
Ġpl us
Ġeigen schaft
Ġnach kriegs
Ġbef anden
ĠbeschÃ¤ft igte
fre und
Ġst unde
stehen den
Ġvoraus setzung
Ġschott land
Ġge or
Ġsie gel
Ġhel den
ham mer
Ġmoder nis
ĠstÃ¤nd ig
zw ald
Ġkr ise
Ġsen k
ĠÃ¶ster reichs
Ġsie gen
ma ck
sta ates
ĠvÃ¶ gel
w s
Ġdar um
wick lung
Ġschw ein
k Ã¶r
ĠsÃ¼d ost
Ġli ppe
Ġcon st
Ġost see
Ġerhe bung
Ġlo hn
Ġal i
Ġfor ce
h Ã¤ndler
Ġzu kÃ¼
Ġcoun tr
Ġem igr
Ġdok umente
he ben
Ġkon ferenz
i ra
mittel alter
Ġp om
ber ge
spl an
Ġst reifen
Ġverein ten
ver arbeitung
ĠlÃ¤nger e
Ġp av
re te
re uth
Ġgel angen
produ zent
Ġgen Ã¼
Ġfa sch
yl or
Ġabra ham
re ste
Ġinternation aler
wechs eln
Ġab satz
Ġmon ument
handel s
siden tschaft
ver lauf
ĠzukÃ¼ nft
ha in
Ġat tent
Ġf at
Ġrev ol
Ġr ig
Ġunivers al
Ġtschech ien
Ġbau en
Ġi g
Ġgesch ehen
Ġles er
gef angen
un det
Ġdien ten
fÃ¶rm igen
ill es
Ġolymp ia
zen e
schen den
Ġtur b
Ã¶ tz
Ġerle bte
p ost
ord nen
je ct
Ġausdehn ung
Ġein stellung
Ġk reu
k il
Ġk au
Ġl ingu
Ġs uch
Ġwar um
Ġum gang
Ġphil osop
Ġma ÃŁe
Ġger t
Ġkonstantin op
Ġvergleichs weise
Ġf abrik
Ġm essen
Ġangeb racht
Ġkonz ern
Ġlei chter
ĠbÃ¼ hne
Ġkolon ie
at ter
Ġle b
rei ft
Ġfl Ã¼sse
k Ã¤
Ġb auf
Ġpf eil
Ġsamm el
drÃ¼ck t
m isch
ĠverfÃ¼ gte
Ġkultur ellen
ĠmÃ¼n z
Ġgesellschaft lichen
Ġmaler ei
Ġaufge geben
ĠdÃ¶r fer
Ġbl umen
Ġpro jekte
ĠkÃ¼ nft
Ġsta te
pro v
et or
Ġu we
Ġph on
hoch schule
ĠstÃ¤dt ischen
Ġge zwungen
Ġarbeit sk
Ġmedizin ische
Ġo me
t rÃ¤cht
Ġse x
Ġc ons
Ġad a
Ġkunst stoff
bo urg
far be
Ġindian er
Ġson gs
ron e
ĠnatÃ¼r lich
Ġchron ik
grÃ¼n dung
Ġgem ark
Ġanwend ungs
Ġglo cken
Ġb ut
Ġwest liche
Ġbeweg ungen
at isch
Ġband s
Ã¤tz ung
jÃ¤hr iger
Ġp Ã¤dagoge
zep te
Ġlie bes
Ġbil dern
Ġol iver
Ġtats ache
Ġf reu
it te
Ġverstorben en
o in
Ġk Ã¤l
Ġh ass
Ġsym p
ĠgesprÃ¤ ch
Ġnormaler weise
lich ten
Ġum gesetzt
ph i
Ġdam en
Ġhu bert
Ġkreis stadt
Ġf els
rÃ¤ g
Ġhistor isches
Ġgebir ge
sam en
k lin
Ġklein es
Ġmark graf
Ġverantwort ung
io den
Ġm ang
Ġbek ommen
Ġsozial demokrat
Ġkrit erien
Ġmo sche
Ġant arkt
wir k
al teten
Ġc et
rit ts
Ġfort an
Ġerster wÃ¤hn
Ġvergleich bar
y sen
Ġn ight
Ġgen ug
Ġkin o
Ġun esco
Ġstadt teile
Ġh ahn
wÃ¼r fe
Ġb indung
Ġl oc
igkeit s
hr t
Ġzu t
id s
alb um
se y
Ġverbesser ung
Ġful da
Ġkandid aten
Ġab wehr
Ġkauf mann
ĠerfÃ¼ llen
or gt
ce ll
gehen den
Ġkal ten
r iel
Ġst eigt
Ġteil nehmen
cl ub
Ġtaschen buch
Ġres p
ĠkÃ¼ che
produ kt
Ġm cc
ff ekt
Ġroman e
Ġbesetz ten
Ġa h
Ġen ge
Ġwirk lich
Ġtyp ischen
Ġangep asst
Ġintell igen
u elle
ab teilung
zeich nete
Ġper iode
Ġkommand o
Ġal gebra
Ġjahrzehn te
frist ig
Ġgedenkt afel
Ġf ok
Ġz one
Ġle gt
ĠprÃ¤ z
Ġzent imeter
rei ben
Ġm aus
Ġvor genommen
Ġo bst
Ġpaul us
Ġkrit ische
Ġszen en
Ġhin weise
Ġfilm regisseur
em s
Ġkomp eten
Ġerlang te
wend ung
Ġcol on
Ġverhalten s
Ġst ro
Ġbrit en
Ġab gelÃ¶st
all er
Ġbedeuten den
Ġkonst anz
Ġb ip
Ġmor ph
Ġv ia
Ġin vas
Ġforsch ungen
o ter
ah me
ĠdreiÃŁig jÃ¤hrigen
Ġk Ã¤rn
Ġh alt
Ġr oss
et iker
Ġur kunde
Ġspr ung
Ġf ri
sp rechung
Ġbundes kanzler
h us
z oll
Ġvor lage
har mon
ar ische
as p
Ġteam s
an us
Ġp x
Ġen sem
Ġkar ol
Ġober e
ĠÃ¤ sth
Ġdeta il
Ġsu chen
v ia
Ġd ot
Ġzwei g
Ġab bau
Ġmy st
v ir
ter min
ian o
Ġcountr y
Ġge Ã¤ndert
Ġmar ok
eid ungs
Ġnun mehr
Ġlern en
Ġheb rÃ¤
Ġin fl
ĠkurfÃ¼r sten
Ġvor s
Ġko bl
Ġper u
abge ordneter
ĠbegrÃ¼n dung
Ġkonzer te
Ġwahrnehm ung
Ġkaiser reich
Ġhoch zeit
m uster
Ġbe ant
Ġentdeck te
Ġflor a
Ġverband s
Ġbe an
Ġth ese
Ġherr n
ĠlÃ¶ sen
b ungs
Ġmit unter
Ġstehen den
stad ion
il deten
Ġem ot
Ġleg itim
un i
Ġstoff e
Ġste uern
Ġgesch Ã¤tzt
k ind
ag ramm
Ġnat o
Ġbele gte
Ġerfahr ung
Ġgesch Ã¼tz
Ġgef Ã¶rdert
zentr en
Ġbern ard
sper re
Ġh als
re aktion
Ã¤t tern
oph on
Ġge p
m essen
Ġform al
Ġbra chten
os se
d igen
Ġw Ã¤ren
Ġp enn
ag net
Ġflug zeuge
Ġbet re
Ġgar ant
komm t
rÃ¤ glich
Ġzentr iert
Ġungar ischen
Ġminde st
Ġclau de
Ġver samm
Ġm ul
Ġs ache
Ġent lassen
Ġbet reu
Ġhar z
Ġir gend
Ġk alt
Ġvor schlag
Ġma ke
fe cht
d om
g ast
o e
Ġc ru
ort s
ĠbegrÃ¼n dete
Ġerwachsen en
au sb
lich ung
Ġwur zeln
Ġgesch Ã¼tzt
ett i
unter richt
u ll
Ġi gn
Ġbegriff s
vÃ¶ gel
Ġholly wood
Ġan bau
Ġweb seite
Ġempf e
Ġfinn land
Ġarist o
Ġboch um
Ġome ga
ul iert
leist ungs
Ġentscheiden d
t rÃ¤ger
Ġh allen
Ġex ter
Ġw lad
ĠwÃ¤hl er
Ġbe hei
Ġparlament s
Ġk han
Ġland rat
Ġw Ã¼n
Ġm ahl
Ġer ziehung
ent sch
ĠgroÃŁ kreuz
Ġreihen folge
sam e
Ġmoder ner
y ll
de cker
Ġzusammen schluss
Ġcorn el
Ġse t
ann er
Ġverbin den
ad s
Ġbesch rieb
reit ung
spru chs
Ġhon or
g Ã¼nst
Ġda ÃŁ
Ġbakter ien
schla cht
ur es
cy cl
ĠÃ¤r zte
ann tes
geb rauch
Ġsp en
Ġorgan ist
Ġeinge gliedert
and t
ina v
ĠmÃ¼ sse
on ne
Ġge Ã¶ff
Ġre fer
Ġkateg orien
Ġa si
Ġsp eich
ungs mittel
Ġev a
Ġabt ei
Ġessa y
Ġd sch
Ġmyth os
Ġmot oren
Ġsetz ten
Ġkon dens
Ġro wohl
ĠverÃ¤nder ung
Ġbundestag s
Ġfest gestellt
Ġvorder grund
Ġf ord
Ġben j
Ġkons um
Ġimpl ement
Ġalf ons
Ġf on
ste ten
ĠdÃ¼r fte
Ġspir itu
spf licht
Ġle der
Ġumst Ã¤nden
Ġl ord
Ġent worfen
Ġaufge teilt
ein g
st ich
lin ger
Ġant wort
iss ar
Ġnorm alen
Ġbeweg ungs
fÃ¤ llt
Ġerg ab
Ġverurs acht
Ġo skar
Ġeinge weiht
Ġx i
ĠfÃ¤h igkeiten
Ġumgangs sprach
Ġfor um
Ġinstitut s
Ġg ern
Ġfrei er
Ġregel mÃ¤ÃŁige
Ġnor bert
Ġcal c
atur en
iller ie
Ġa cc
Ġs itzen
Ġh ipp
Ġt yr
Ġen den
Ġhab sburg
Ġglie derung
sprach igen
Ġr auch
Ġhil de
g Ã¤ng
ist enz
Ġhin ten
Ġur heber
Ġos n
Ġumgew andelt
Ġho urs
Ġposit ive
Ġimm un
Ġer fahren
ian er
Ġschw ach
Ġmarc us
Ġvor pommern
Ġw dr
ier bar
Ġwirtschaft lich
Ġmad rid
brun nen
Ġs r
or i
ab schnitt
Ġzeit alter
Ġor b
ĠmÃ¼ s
Ġtot al
Ġabger issen
Ġn oten
Ġweib liche
Ġtru gen
Ġb orn
Ġmeda ille
v es
ĠÃ¤nder te
Ġad vent
Ġerrich teten
Ġgeh irn
ĠverfÃ¼g bar
Ġaus zeichnung
Ġerw in
Ġpl ant
ĠpersÃ¶n liche
Ġal ger
Ġaus bildungs
Ġn ag
lehr er
me te
Ġtri b
Ġpal Ã¤
ge mÃ¤ÃŁ
Ġta ylor
Ġnutz te
m ord
ent ial
Ġun end
Ġaus sehen
Ġvertrag s
Ġem s
Ġsiz ilien
p us
Ġl ig
Ġan p
Ġat tra
ĠÃ¼ber geben
ine a
ĠmÃ¤nn ern
Ġdokument ar
u ay
Ġer mittelt
ver fol
Ġa chse
Ġeins etz
it hm
Ġc ann
Ġm s
Ġbr auer
Ġger d
ath an
Ġpfl anz
Ġlog ik
Ġgab riel
Ġzu geschrieben
il er
ĠprÃ¤ sidentschaft
Ġkobl enz
en ner
ot o
br Ã¼cken
Ġz in
Ġf ans
Ġl ist
Ġle be
ib le
Ġpar ks
ar row
Ġd ei
Ġma jor
Ġhoch schulen
Ġdur fte
e ster
fu hr
Ġi lleg
Ġei er
ĠniederlÃ¤nd ische
ak i
ak ten
Ġm ie
ren nen
re y
Ġso weit
ik ern
Ġdi Ã¶z
Ġbed ient
Ġtex ten
Ġd ritt
Ã¶ te
Ġar te
Ġgl aub
Ġjohn son
Ġerdbe ben
ru ch
Ã¤u le
ĠÃ¤uÃŁer e
Ġgatt ungen
org ungs
Ġal th
ĠfrÃ¼ hl
Ġkolon ien
z esse
ose xu
behÃ¶r de
is m
Ġen z
amen te
Ġrech ner
b Ã¶
Ġp assen
Ġd fb
Ġcamp us
Ġk im
Ġerw art
Ġmittelalter s
t irol
Ġf lieÃŁ
Ġgot th
Ġle v
Ġall mÃ¤
sp an
hn er
Ġqu e
Ġhau se
Ġleip ziger
Ġd inge
Ġort h
Ġben annte
Ġke y
struktur en
ro skop
Ġhoch wasser
Ġausge sprochen
Ġtex as
lÃ¤uf ig
arme e
Ġpotsd am
Ġsult an
Ġne apel
pf alz
Ġhex en
Ġf Ã¤l
pro f
ba y
re geln
ho ven
Ġdurchschnitt lich
ver lÃ¤ss
Ġversch ie
Ġtabe llen
Ġn ad
rei ten
Ġum satz
Ġburg und
Ġpop ular
Ġf un
Ġeinge tragen
Ġdrit ter
Ġverwand ten
Ġpho sph
Ġpr Ã¼fung
Ġschw imm
spr inzip
akte ur
Ġk ell
Ã¤nd ischer
Ġakt iven
Ġloth ar
Ġdes wegen
ĠfÃ¼hr enden
re tern
Ġdro gen
ĠermÃ¶glich te
s ive
Ġverwand tschaft
ch ar
ers on
du ktion
sto ÃŁen
ck ung
Ġautomat isch
in ce
gel Ã¤nde
Ġstra hlen
Ġv Ã¶l
Ġl ip
Ġnatur wissenschaft
l et
w ider
Ġver h
Ġkonzentr ation
Ġun ger
it as
Ġp ok
ĠschÃ¤ den
Ġaus wÃ¤rt
Ġinte lle
Ġsystem en
ifiz ierte
Ġbetrei bt
Ġentwick lungen
Ġakt ive
et ing
Ġb ah
sch wer
Ġi x
Ġl amb
Ġeishockey spieler
Ġbewe gt
Ġvoll kommen
Ġprot okoll
Ġfal ken
Ġz ir
Ġres e
Ġzu fluss
Ġliterar ische
Ġbismar ck
l ach
Ġun klar
Ġzwischen zeit
Ġlit h
ĠdÃ¤n ischer
Ġexp ans
g Ã¤ngen
Ġi onen
ha ven
Ġb reis
schrei ber
ben d
ĠsÃ¼d liche
k reisen
Ġl Ã¤uft
Ġsa c
Ġadmin istrat
Ġp unk
Ġel ementen
ent al
Ġent f
Ġbr Ã¼ssel
Ġdi mension
Ġfehl t
iv itÃ¤t
Ġabst amm
Ġt ank
Ġbeobacht en
t heorie
Ġent s
abr Ã¼ck
Ġverfol gt
ar io
Ġass ozi
Ġweiter entwicklung
Ġdaten bank
Ġukra in
o us
Ġl eiten
Ġgesch ieht
Ġfin ger
Ġselbst be
ĠhÃ¶r en
Ġjens eits
k os
Ġwe lle
Ġerfolg reichen
Ġober st
Ġper iod
Ġabge sehen
Ġerl Ã¤u
Ġd Ã¤m
Ġn iger
Ġauf einander
lauf en
var ian
r ein
w ende
en hagen
ond s
ed a
Ġhand lungen
Ġwand te
Ġverab schie
Ġst ationen
sch ied
Ġvor an
Ġverw irk
ĠjÃ¤hr ige
Ġre den
Ġschl Ã¤
Ġeinzel ner
Ġbu sch
ĠmÃ¤nn lichen
ĠÃ¼berliefer ung
ĠpÃ¤p st
ba ck
jahr es
arch ite
Ġrowohl t
u sch
Ġpsych o
u an
Ġeins p
Ġge ografie
Ġmar io
g asse
Ġre alitÃ¤t
Ġgepl anten
Ġbekannte ste
Ġverz Ã¶ger
ens is
grÃ¼n den
Ġyo utu
Ġum bau
Ġstra hlung
Ġentstanden en
ĠkÃ¼r zer
Ġaufmerk samkeit
ber eit
Ġverwand t
Ġein dr
Ġum gebaut
Ġverb rachte
Ġwilliam s
ian s
Ġein teilung
Ġl ungen
ĠerhÃ¤lt lich
re e
Ġf act
Ġbezeich neten
Ġunser er
Ġs la
Ġb enn
Ġkr Ã¶n
Ġschwa ben
ut s
Ġe ver
Ġtechn isch
ĠmÃ¼n det
ĠlÃ¼ ne
Ġtext il
Ġosn abrÃ¼ck
ri fft
Ġwar n
Ġdurch ge
Ġla ke
Ġcon rad
Ġlatein ische
Ġh Ã¤ft
inn ern
Ġstar tete
Ġdurchs etzen
Ġbenj amin
Ġein her
Ġc ell
Ã¤ss ern
Ġkrimin al
Ġerober t
k amer
Ġk abel
Ġnu kle
it ischen
Ġadam s
Ġrese arch
Ġschreib weise
Ġbe handel
re de
Ġbes iedel
Ġausge setzt
Ġre da
hol t
Ġst reich
Ġgen utz
Ġbu ll
Ġh g
Ġant ik
Ġoze an
Ġb Ã¤
iz ismus
Ġide al
ĠsÃ¼da fr
Ġanges iedelt
Ġk elt
ent z
teil ten
Ġim port
ent ums
wer den
Ġanz ut
n i
om orph
Ġpf ar
Ġurspr ungs
Ġvolks republik
Ġsym met
ape ut
g ie
Ġf ut
Ġc ant
Ġempf Ã¤nger
Ġregel ungen
Ġabsol ut
Ġvog t
Ġsa x
Ġmon archie
Ġprof il
ĠÃ¤hn lichen
Ġnor men
ith mus
Ġer nen
Ġind ones
Ġkrieg sende
Ġlie ben
verb ot
Ġschwier igkeiten
Ġd Ã¼
Ġr Ã¶nt
hor st
Ġp ac
sph ase
t rieben
Ġwel chem
Ġbrau cht
Ġp le
Ġg ur
Ġitalien isch
verein s
u ÃŁ
Ġb att
Ġkriegs gefangen
vorsitzen der
Ġaus gesch
Ġvor rang
for derung
ĠhÃ¶r spiel
pers on
Ġk v
ĠsÃ¼d amerika
Ġvern unft
Ġtar if
Ġsper r
Ġstren g
Ġbesonder heit
autob ahn
Ġv es
Ġsch arf
Ġhe ck
Ġbesser e
Ġinn ov
Ġele f
komp lex
rÃ¤ der
Ġsp ar
zu cht
Ã¼ chte
Ġh Ã¤n
Ġep oche
Ġj i
ĠÃ¼ber region
Ġsor gte
ho fer
Ġer r
Ġrad i
Ġab itur
Ġs org
Ã¤ her
ar o
ĠnÃ¶rd liche
Ġmess ung
Ġverb rechen
kn oten
Ġversucht en
Ġh eid
Ġpl ural
Ġatmo sphÃ¤re
Ġdel eg
Ġvor teile
Ġalt ar
Ġarbeit nehmer
organ isationen
ĠfÃ¤h igkeit
Ġverlei hung
Ġdem ent
Ġgelang te
Ġwil son
Ġsch ill
Ġaus nahmen
qu alitÃ¤t
wand lung
Ġyoutu be
Ġapp le
ott o
Ġkonstantinop el
Ġkind es
Ġchrom os
Ġd um
Ġre par
m asse
sch end
Ġan ten
Ġbo ok
Ġgel eitet
Ġselbst ver
Ġprof ess
Ġstat ue
Ġlie chten
Ġvictor ia
Ġbeher bergt
ib us
kl ass
Ġhaupt darsteller
hr ingen
ĠzurÃ¼ck zufÃ¼hren
Ġi on
Ġste phen
br Ã¼
Ġerz Ã¤hlt
b ur
Ġgo od
Ġber ichte
Ġso b
ess ern
Ġfre e
d ik
Ġs end
Ġreg ister
Ġgleich ung
Ġa rag
Ġt w
Ġvor stand
ing ung
Ġhe ad
Ġosman ischen
ĠernÃ¤hr ung
Ġerfolg reiche
un us
Ġgew Ã¼n
Ġregion alen
fehl er
Ġka v
ic um
Ġost fries
Ġtran sp
Ã¤cht nis
Ġr ib
ieren der
Ġrei ste
Ġfer r
g on
Ġfr isch
Ġpil ot
Ġkrank heiten
Ġstal in
Ġunter einander
ins on
Ġkon j
Ġneuse eland
Ġheraus ra
Ġfel sen
Ġz ens
Ġexempl are
Ġi ron
Ġzwei fel
Ġba de
stÃ¶r ungen
Ġbevorzug t
Ġkooper ation
Ġrein en
Ġbem erk
n ieder
Ġle ute
Ġwei ten
Ġeurope an
Ġressour cen
ĠÃ¼ber gangs
Ġvol ker
Ġbar on
Ġluft waffe
Ġtour isten
rie t
Ġkil ometern
ri p
Ġvor les
Ġgr as
Ġregierungs bezirk
Ġg ent
Ġim p
Ġb ott
Ġg ieÃŁen
Ġc ott
ĠgrÃ¼n deten
Ġge sellschaften
Ġet ym
denk mÃ¤ler
Ġho hl
Ġtel es
Ġvor t
Ġland tags
Ġbeg Ã¼nst
Ġsol o
Ġheinrich s
Ġkoordin aten
Ġliechten stein
Ġauf geb
Ġwest ern
Ġs g
sch ichten
Ġge fl
Ġei chen
form ationen
Ġcor ps
Ġver gessen
Ġged re
st ande
ist ers
ĠsÃ¤ ulen
j Ã¤ger
Ġteil ung
Ġbres lau
Ġtit an
sd ienst
st al
Ġfahr rad
meda ille
h amm
u ge
Ġsy l
pr om
halt ungs
osoph ie
Ġzug riff
Ġgitar rist
Ġwiederauf bau
c u
an kt
Ġagr ar
Ġdurch fÃ¼hrung
Ġbestimm ter
Ġkommun istischen
Ġkroat ien
Ġein kauf
ĠwÃ¶rter buch
un ge
Ġn it
Ġsyn onym
Ġcaes ar
w aren
Ġvier te
Ġwahr genommen
ĠzusÃ¤tz lichen
ĠerhÃ¶ hte
Ġpseud onym
Ġstaatsb Ã¼rger
be weg
stell ers
Ġro stock
Ġcol umb
Ġbestehen d
Ġnomin ierung
Ġp ent
Ġfr ies
ĠzurÃ¼ck zu
amp e
Ġkop enhagen
ĠunabhÃ¤ng ige
Ġbischof s
Ġcarl os
Ã¤ udes
Ġg is
Ġt am
Ġmod ul
Ġerschienen en
Ġaus stellungen
Ġhe d
Ġkont akte
ĠdÃ¤n ische
f eln
n immt
Ġz df
ĠhÃ¤ufig sten
Ġfach werk
Ġehr ungen
Ġg reif
Ġverkauf te
Ġreaktion en
Ġtyp ischer
schn itten
Ġam ph
Ġaus gangs
Ġph ar
Ġlas er
Ġsynag oge
e e
Ġt um
qu is
Ġbo eing
Ġsied ler
i ber
Ġje ff
Ġmed ik
Ġgra bst
Ġislam ischen
Ġbet riebe
ĠpersÃ¶n lich
Ġabwei ch
Ġbe wertung
ha ftet
Ġversch w
Ġabsol ute
Ġbam berg
hÃ¤l ter
rei ter
re st
Ġsp in
Ġwelt raum
Ġwid th
arb eitern
Ġsal v
ĠÃ¼bern immt
Ġvirgin ia
Ġskand inav
er a
Ġbek annter
o ire
ll and
Ġschwier ig
Ġberech net
Ġgew id
Ġverl uste
funktion en
Ġgetrei de
Ġul m
Ġverbind ungs
ĠÃ¼ber all
Ġneu ere
Ġkat alog
Ġster nen
Ġd im
Ġv ok
ion e
weil en
Ġra y
Ġord nungs
bund es
Ġg ame
Ġj ubil
Ġam mon
op fer
Ġerhalten e
Ġflor enz
ent hal
Ġpart y
ge stellten
rei cht
Ġfor derungen
spe zif
Ġbeam ten
Ġkor res
Ġcor por
h ut
Ġwer be
Ġven ez
Ġinfanter ie
Ġpl Ã¤tze
Ġhei rat
Ġzwe cke
Ġkf z
ĠÃ¼ber legen
Ġlit au
ĠkÃ¶nig reichs
brie f
f angen
Ġf eiert
Ġbet Ã¤t
tr an
Ġtol er
Ġre port
bron n
Ã¼ bt
Ġeinwohner entwicklung
Ġprom inen
Ġst Ã¶
sch Ã¼
Ġpar ameter
verb und
Ġsekund Ã¤r
ri z
Ġdi am
ĠkÃ¶r pers
ĠsÃ¼d k
stÃ¤d t
ein s
ar es
Ġg or
sk Ã¤mpfer
ĠeuropÃ¤ ischer
Ġbedeuten der
gerichts hof
Ġn Ã¤hr
sch atz
Ġne l
ier er
ig ner
Ġgro ss
Ġmus ical
sÃ¤chs ischen
y c
Ġo u
rÃ¤ te
Ġbab yl
ĠsÃ¤u get
ĠausdrÃ¼ck lich
Ġerfol gl
Ġen cycl
Ġher um
at is
Ġg ul
Ġer furt
Ġcro ss
Ġaugust us
Ġmarkt platz
Ġj im
Ġaus bruch
Ġhe ter
k Ã¶mm
Ġlie fert
gesch ichten
Ġak te
Ġgepl ante
Ġdemokrat ische
d ingen
produ kte
Ġak ten
Ġfor derung
ell es
Ġap othe
Ġanal yt
gl as
Ġstre et
Ġpfer d
Ġzwei tes
Ġzu cht
ho u
Ġchrist op
fakt or
auf nahmen
zeu ger
ifiz ieren
Ġneg ative
w Ã¤
Ġf liegen
ver k
ick e
Ġsou ver
Ġversch wÃ¶r
Ġduis burg
ra y
Ġsa arb
Ġs qu
Ġsch lossen
Ġal tes
Ġverbunden en
Ġkonz il
Ġge ograf
gr ammen
Ġwein bau
sch lagen
ĠstÃ¤dt ische
Ġer innern
Ġvor gestellt
s il
Ġmo del
chn ungs
mar schall
f iguren
ĠrÃ¶nt gen
eier mark
ĠbedÃ¼r f
re al
Ġpublik ationen
Ġwid mete
ĠstÃ¤dtepartner schaften
Ġman uel
Ġbet a
fÃ¼hr ungen
w ork
Ġd ag
yr er
Ġyo ung
Ġdoug las
Ġausge wiesen
Ġvor zu
Ġkat zen
Ġm igr
Ġaus stellungs
gent ur
r isch
ber ts
Ġange hÃ¶rigen
amer ikanischen
Ġsprach raum
Ġnutz t
Ġempf angen
Ġorthodox en
Ġge kr
ite e
bet eil
Ġsah en
Ġp m
Ġrei che
Ġfra g
Ġbit te
Ġmis sb
Ġphilosop hen
fel de
Ġolymp ias
n ommen
Ġsch ol
ĠrÃ¼ck tritt
ĠverlÃ¤nger ung
bezir ke
Ġl et
sp reis
Ġentstanden e
em er
Ġlie f
sprechen d
g ow
art a
Ġminder heit
Ġstamm te
Ġabge geben
ag a
Ġs lowakei
ital ien
Ġerk annte
Ġsyr ien
s eiten
Ġver fasst
ver eine
kl assen
Ġa e
Ġim age
Ġro ute
Ġver weiger
Ġelektron ische
Ġmult ipl
Ġin klus
p unkten
em m
Ġbesonder er
Ġeint ritt
Ġir r
Ġautoren nfahrer
ster ben
Ġbes iedelt
Ġge teilt
Ġvor herr
r uss
d ach
Ġange hÃ¶rige
k ers
Ġal e
Ġme g
schw ung
Ġober sten
famil ien
o hlen
ucht ung
Ġstu dent
Ġkrie ge
Ġdokumentar film
Ġo e
Ġlit auen
Ġta fel
ĠkÃ¼nst lern
Ġk ok
fÃ¶r derung
Ġbeein trÃ¤cht
wÃ¶r ter
Ġenzykl opÃ¤die
Ġ Ã¤ndern
sk rit
ĠbÃ¼rger lichen
fra c
Ġbem erken
ir en
recht lich
Ġp reise
Ġg ala
Ġbet ont
Ġwohn ung
Ġschles ien
Ġcentr al
Ġt hal
schei be
Ġer ic
Ġfilm schauspieler
d ienste
Ġer fasst
Ġall tag
Ġet a
olog ien
Ã¤nder ungen
Ġgra ben
Ġheil ig
Ġlie gende
Ġhild esheim
st eig
Ġan c
Ġautor in
Ġkab arett
c ast
Ġauf w
Ġgeor ges
f ung
Ġpan or
Ġintelle kt
o ul
ie u
Ġb ang
Ġhab sburger
Ġner ven
Ġge ste
Ġgen f
Ġfre d
Ġr Ã¤
Ġam ateur
bed arf
st Ã¶
men gen
Ġrum pf
Ġreda ktion
Ġvolks zÃ¤hlung
wett bewer
Ġman i
em an
Ġunter e
Ġbes iedlung
Ġp ath
bo ok
ch or
sp ark
Ġtri um
Ġmelod ie
Ġis a
Ġten n
f lag
Ġst urz
Ġhar n
ĠerhÃ¶ hen
Ġsinn voll
Ġvers uchs
Ġre alisiert
Ġhard ware
a frika
Ġsyn drom
Ġhe llen
Ġnacht eil
Ġc it
Ġf ac
ver zeichnis
herr n
Ġabsolv ierte
Ġa y
Ġeigen tum
verband es
Ġd id
plan ung
Ġwalt her
reich es
Ġnomin iert
lin es
ov i
fr anken
Ġmor al
ĠauÃŁen minister
j ag
Ġre z
Ġplan et
se x
Ġerschein ungs
hen den
i dent
t o
Ġbe bau
Ġpl Ã¶tz
Ġzuge hÃ¶rigkeit
Ġgitar re
Ġin halte
Ġreg ime
Ġho sp
bst off
ĠfrÃ¼ chte
Ġgre at
Ġhir n
Ġhin weg
Ġdien ste
t in
Ġschwer er
Ġange ordnet
f le
Ġso ur
Ġb anken
Ġver min
Ġdruck er
ĠstÃ¶r ungen
Ġa gen
Ã¶ ten
Ġwor ten
Ġspann ungs
Ġf i
Ġw on
Ġse g
tel n
Ġschwar zer
Ġzeich ner
Ġsoph ie
ce ae
ich en
Ġverb Ã¤nde
Ġker amik
Ġstrateg ie
Ġl yn
Ġunter stellt
Ġul tra
Ġexp on
Ġtschech ischer
ĠersterwÃ¤hn ung
ein satz
Ġl Ã¤ngen
op en
Ġgefol gt
Ġdauer haft
er be
om s
Ġange wendet
ans icht
Ġbo ston
Ġeben en
Ġbar cel
Ġmusik alische
Ġkonzentr ations
Ġst ory
Ġbede utete
Ġm alt
Ġl isten
Ġs ad
Ġmedizin ischen
ĠnÃ¼rn berger
Ġland s
ĠerhÃ¶ hung
Ġschick sal
p sych
Ġpol yn
Ġhin sicht
Ġluft fahrt
Ġindividu en
Ġhoff nung
at sch
Ġg itter
ra ben
Ġempf ind
Ġerk annt
we hren
Ġlebens raum
sch ers
Ġwerk zeug
h as
fr em
y ter
Ġpast or
Ġerbau te
Ġst eigen
Ġh Ã¤u
Ġschwer t
Ġs ang
ph y
Ġju dent
lex ikon
h on
Ġc ard
Ġvor ne
qu ote
bl er
kl en
Ġwal es
Ġsie del
Ġur ban
Ġstatt halter
Ġgraf iker
instr ument
ist isches
ĠsÃ¼d tirol
Ġbern stein
f ront
Ġeng ine
Ġexpl iz
Ġsch re
b reite
Ġverfol gung
ĠschÃ¤ del
Ġstick stoff
Ġencycl op
gemein schaften
ĠthÃ¼r inger
Ġgl etscher
Ġschw anz
ve y
z onen
Ġ ug
Ġd rachen
Ġab gel
ĠgroÃŁ em
Ġpr Ã¼
hÃ¼t te
Ġein flÃ¼sse
im es
ĠmÃ¤r t
Ġber ichten
Ġbest re
sprach ige
Ġb Ã¤ume
Ġber e
Ġalli anz
Ġl il
Ġd io
am tes
Ġsich ern
Ġsen de
Ġver stÃ¤nd
Ġan gabe
me yer
hÃ¤us e
Ġweib lichen
in th
Ġsch uss
Ġkein es
Ġgeograph ische
s ign
Ġha w
Ġerfor schung
Ġse ktion
Ġerf indung
Ġmater ie
Ġle ber
bo ot
stud ien
Ġneum ann
Ġnobel preistrÃ¤ger
o ine
ic es
stehen de
Ġthail and
l ob
ber uf
Ġdam e
Ã¤m men
Ġra il
Ġsta tes
Ġober Ã¶sterreich
Ġp um
Ġc all
m il
et al
kt oren
Ġausge stellt
Ġinform atik
Ġausgeb ildet
Ġvie h
Ġsq rt
Ġz eigten
Ġeinzug s
Ġsenk recht
h ans
o i
Ġpl as
Ġjack son
Ġre formen
Ġar ena
Ġchamp ions
Ġd iss
Ġliber alen
st ationen
ge legen
auf lage
Ġzahl reicher
Ġs ap
Ġw r
Ġgebrau cht
Ġpol iz
Ġr Ã¤t
ver hÃ¤ltnisse
Ġpatri ck
ĠÃ¼ber d
Ġun mÃ¶glich
Ġg Ã¤ng
Ġc ab
Ġwu ppert
n utzung
Ġ ult
Ġd auern
al m
Ġdurch bruch
iz itÃ¤t
grÃ¶ ÃŁen
ĠeingeschrÃ¤n kt
Ġt ang
Ġde cken
Ġab zug
ĠÃ¼ber arbeitete
Ġfrei ma
Ġstud ies
pr inzip
ĠfÃ¶r dern
f eier
Ġsch atz
stra hlt
Ġtechn iken
b org
Ġk ore
sy n
Ġerhalten en
Ġschmer z
l Ã¤ndischen
Ġl ight
Ġhum bold
dor ff
iv es
Ġw orm
Ġrecht liche
Ġged Ã¤chtnis
Ġr ichtete
Ġhel fen
Ġproduz ierte
Ġgerman ischen
Ġsor gen
Ġvereinz elt
ad bach
ss itz
Ġabge ordneter
Ġfinanz iellen
Ġp hr
ĠmÃ¶ chte
Ġreg iment
Ġsu pp
ĠjÃ¼d ischer
Ġh Ã¤m
et o
Ġveranst altung
Ġerzb ist
Ġbeinhal tet
Ġl ese
Ġschwe stern
Ġjugend lichen
ĠgewÃ¶hn lich
Ġt frac
Ġweiter entwick
Ġde port
Ġu ll
Ġgel ingt
ay a
Ġbei gesetzt
Ġtr auer
Ġandre a
Ġblau e
Ġsubst anz
aka demie
Ġvor schriften
kreis es
Ġz ert
Ġal an
Ġfest land
Ġschm uck
Ġapp ro
Ġbl itz
ingen ieur
Ġsozial istischen
Ġallgemein es
Ã¼ hren
Ġnach druck
Ġent sprach
ler in
Ġpf ei
omm el
Ġwlad imir
Ġent hielt
Ġgesam m
Ġs atur
Ġv w
ĠmÃ¼ hlen
Ġjugend liche
Ġrest lichen
ĠhÃ¶ hlen
Ġboden see
ĠbischÃ¶ fe
lo hn
gew Ã¤
Ġwol ken
Ġdopp elt
Ġart illerie
Ġbisher ige
Ġhom o
ĠtÃ¤ ter
Ġmolek Ã¼l
Ġbulgar ien
Ġbi ologie
lager ung
Ġhimm els
Ġor ange
imm el
Ġpeter sburg
ĠspÃ¤t ant
Ġv in
ien ne
Ġi ss
Ġsa v
om on
Ġsoc ial
pl Ã¤tzen
Ġrein bek
Ġgamm a
Ã¶s ser
sa al
Ġweihnacht s
Ġz elle
Ġhol oc
Ġbed ien
Ġin schrift
Ġge fertigt
fol gen
Ġausl Ã¤nder
men ten
ĠlÃ¶s ungen
Ġevent uell
Ġg na
ver tretung
rit z
Ġp is
ig tes
Ġvor geschlagen
Ġch al
Ġliterar ischen
Ġunter hÃ¤lt
Ġricht ig
Ġbesitz er
Ġs her
Ġb Ã¤ren
Ġcl aus
Ġgeschlossen en
Ġj ava
Ġum geb
Ġverd ienste
Ġfinanz ierung
Ġb ug
Ġg Ã¤ste
Ġur auf
Ġf ont
Ġjugoslaw ien
Ġausgew Ã¤hl
Ġp all
Ġerz ielt
Ġger ne
Ġelektr ol
Ġelektr om
Ġhom osexu
Ġka ffe
Ġhar r
Ġtie fer
Ġoper at
as ste
ul er
deck ung
Ġkatastrop hen
Ġdat iert
Ġverk Ã¼n
Ġn m
Ġzw ingen
Ġamer ica
Ġschwar zwald
Ġher an
Ġcharl otte
Ġa sk
Ġh ut
Ġaus gra
Ġvert ret
sche f
Ġak ust
hi op
Ġwissen s
ha i
Ġplatt form
Ġd ein
iff ern
vo gel
od es
Ġmo ham
Ġbarcel ona
Ġs id
Ġpl atte
Ġluther ischen
Ġjeweil ige
Ġorganis ierte
Ġr an
Ġren ov
schw itz
Ġle hren
Ġpubliz ist
de utet
prÃ¼ ft
Ġzu verlÃ¤ss
vert eid
Ġnachbar gemeinden
ĠberÃ¼hm ten
ĠrÃ¤um e
Ġqual ifikation
Ġsozi ologie
Ġbefrei ung
ĠverbÃ¼n deten
Ġpion ier
aus gaben
ĠmÃ¤nn liche
Ġapost ol
p an
fl Ã¼ss
Ġerm ord
os sa
Ġto wer
man gel
Ġvor name
du kt
Ġta i
a pp
Ġzeit ungen
Ġbau ch
Ġto te
Ġnationalsozial istischen
k ischen
Ġb arb
Ġf ire
Ã¤hr t
Ġrad rennfahrer
Ġrechts anwalt
deutsch er
Ġerheb liche
Ġr ast
Ġman s
Ġbundes rat
Ġlebens weise
Ġb Ã¼r
Ġpf Ã¤l
Ġerschein ung
wor ten
Ġh ong
Ġj as
Ġplat on
h um
Ġein nahmen
Ġz irk
Ġbe ach
Ġbil anz
f c
Ġvor gang
Ġle gen
ĠstraÃŁ burg
l an
Ġbundestag swahl
kehr en
Ġmosche e
ĠmÃ¼ hle
Ã¼rz te
Ġarm y
Ġw eich
a ver
Ġb og
qu ert
t yp
ut ions
iv a
Ġma gen
ĠfÃ¼rst entum
Ġholoc aust
Ġaus stattung
Ġnach lass
Ġhy b
Ġven us
Ġglob al
behÃ¶r den
Ġr unden
ne cht
Ġbl auen
krie ge
sbar keit
Ġbe arbeitung
Ġauf kommen
Ġumfassen de
ie ber
Ġver stand
ĠÃ¼ber setzungen
Ġspiel film
Ġgrund stÃ¼ck
fr Ã¤nk
kn Ã¼
jew itsch
e ct
o ide
Ġgef eiert
wal de
Ġlew is
Ġfreima urer
Ġh ur
Ġjo e
Ġmagn us
Ġz iegel
Ġnach frage
Ġch arts
lie gende
Ġw y
Ã¶ ll
Ġgen ossen
Ġermord ung
m eier
w il
ok omot
Ġbot schafter
Ġam az
ĠallmÃ¤ hlich
i qu
Ġd ichtung
ah e
fol ger
et ischer
ver ordnung
Ġwieder vereinigung
ĠtÃ¼r ken
her s
stÃ¤d ten
Ġne bel
Ġstra fe
Ġvert rat
Ġkomplex e
j on
Ġehemal iges
Ġunser e
Ġw end
Ġe qu
Ġkathol iken
Ġsh ift
Ġs lowak
ck ten
gel Ã¶
Ġbestimm ungen
Ġveran las
wei ÃŁ
Ġmin ute
bo x
Ġsch am
Ġpil oten
fÃ¼r st
Ġ ie
an spruch
icht ungs
ell i
Ġkapit Ã¤n
Ġm esser
Ġmatt hÃ¤us
ĠwÃ¤hl te
k andid
ot ischen
Ġgel Ã¶
ĠverlÃ¤nger t
Ġbe er
Ġbeobacht ung
f i
Ġsp ek
Ã¼ber tragung
Ġgesellschaft liche
Ġle x
Ġk ru
ger ufen
ĠÃ¼ber wie
Ġdeta ill
g ungs
Ġzu stande
be schreibung
Ġvorber eitung
Ġt il
Ġsch aum
vers uch
ĠprÃ¤ fekt
Ġhand schrift
Ġklass ischer
other apie
Ġ ont
Ġsch al
ha ar
u ellen
Ġn il
ge stellte
Ã¤ uren
Ġl abel
Ġg alten
dienst kreuz
Ġw ho
Ġre ferenz
ic z
iss ionen
Ġh ot
Ġg uer
ym ne
Ġcarl o
ger echnet
Ġgelang t
Ġkennt nis
b rechen
wirtschaft s
Ġkons ul
Ġschi ffen
Ġt own
Ġsol ange
le bt
Ġl iss
lad ung
w enden
Ġde fen
per iode
stein en
Ġans ichten
fin anz
Ġphysik alische
Ġd y
Ġl Ã¼b
Ġolymp ische
Ġarab ische
Ġstock holm
Ã¼ hl
Ġkr ypt
sw issenschaften
Ġline ar
hamm ad
Ġb org
Ġstehen de
Ġkonflik te
t ter
nf te
Ġbahnhof s
Ġumgangssprach lich
er ung
Ġein trag
Ġver sen
Ġgeb Ã¤uden
Ġneu eren
Ġfot ografie
Ġnav ig
ur i
Ġad miral
Ġkonserv ativen
Ġer ik
Ġstein er
Ã¶st lichen
stimm t
Ġvolk es
Ġstandard s
Ġaus richtung
ann a
Ġbenedikt iner
Ġbr utt
Ġkol umb
Ġaktiv itÃ¤t
Ġzeich nungen
Ġc el
Ġbo hr
Ġbelie bte
Ġso lle
Ġpl Ã¼n
Ġprop he
Ġerkrank ungen
Ġausgang spunkt
Ġbreis gau
v ekt
Ġun gleich
Ġsp rech
Ġauf wand
Ġunter rich
Ġbele gen
Ġungar ischer
Ġr aub
alt ar
Ġhin gerichtet
il on
Ġgriech ischer
p um
Ġh ang
Ġatlant ik
h Ã¤u
Ġs uchte
Ġmit ge
Ġbei ge
Ġerl assen
spro gramm
beweg ungen
y on
Ġein gebaut
Ġu v
Ġsu ff
br ig
ĠauÃŁer orden
Ġpfl anze
schrei ben
ĠÃ¤uÃŁer te
m Ã¤chte
Ġw Ã¤
ir r
Ġen gen
ek tes
sta ats
Ġkrit isch
Ġsach ver
z ien
st all
Ġk ent
sk raft
Ġbeg eister
Ġbegriff skl
Ġgot ha
spart ner
Ġh unde
Ġnah en
Ġeinfach er
Ġmerk mal
abe lle
Ġvor n
Ã¤r er
sg ruppe
a chse
Ġdon ald
Ġmittelalter liche
Ġw ater
Ġar min
Ġdar steller
mar ken
i zen
Ġru der
ĠgeprÃ¤ gten
ĠÃ¼ber nahmen
Ġverbrei teten
Ġnat rium
Ġkomplex en
Ġpfar rei
eich ert
pf e
Ġlin z
br Ã¼ck
Ġkonz ip
Ġjur a
al ia
Ġfranc esco
ut age
Ġfr es
stu ft
nehm ern
Ġbotan iker
Ġkre bs
Ġs agt
Ġwer bung
Ġwei chen
Ġhe utz
Ġgesch mack
ĠbeschÃ¤d igt
Ġh ielten
Ġver setzt
sw esen
Ġfranzis kan
Ġheutz utage
Ġh im
tel s
Ġverz wei
Ġib m
gesetz e
Ġmisch ung
Ġng c
Ã¶ kon
Ġholl and
p hal
Ġaus gerichtet
hen de
Ġgegen stÃ¤nde
rich en
Ġho hem
ĠĠ ĠĠ
Ġc ad
Ġjahrhun derten
recht liche
Ġon kel
Ġbu chen
ĠÃ¤gypt ischen
Ġablehn ung
Ġbehei ma
v iel
Ġk anzler
Ġge sen
ick en
ac o
Ġfort setzung
Ġmath bb
Ġdauer te
wÃ¼r de
Ġauton omie
Ġaristo teles
Ġwill y
Ġvermehr t
z immer
Ġhess ischen
an dert
Ġver haftet
Ġzw anzig
Ġverz ichtet
Ġerkrank ung
Ġeingemein det
Ġvor fahren
ian ische
of ern
Ġwat ch
l Ã¶s
Ġn ei
Ġl ahn
Ġur kunden
st unden
gr Ã¼
Ġschle chte
Ġd rag
Ġbet rachten
Ġverb essern
ow itz
ĠrÃ¼ck zug
gebiet s
Ġverpf licht
Ġs hin
at on
Ġsch iller
Ġfo und
krit iker
Ġnorweg ischer
Ġk pd
ia k
Ġange legenheiten
Ġfort schritt
Ġpa ck
Ġbrei ter
Ġzy linder
Ġan sehen
Ġmus kel
ition s
Ġpal m
ĠbeschÃ¤ft igten
ĠwÃ¤hl en
Ã¼ le
ob a
rit er
st el
lehn ung
Ġcolumb ia
be wahr
Ġber echt
Ġbean spru
Ġlang u
verl ust
Ġlitt le
Ġfinanz ielle
Ġdres dner
Ġmr d
c z
Ġund er
Ġauf nehmen
Ġnational versammlung
Ġdeb Ã¼t
sch Ã¼tzen
Ġsel ber
Ġmo or
ĠunabhÃ¤ng igen
Ġerkennt nisse
Ġanzut reffen
Ġun ru
al ben
Ġsch Ã¼l
fen ster
zeit schrift
Ġlu is
Ġspe yer
ĠÃ¼b liche
Ġverst arb
Ġhumbold t
Ġbundes minister
Ġwill i
Ġmark iert
Ġuntersuch ungs
Ġlyr ik
le b
wa cht
Ġpr ince
Ġind o
Ġfra cht
angeb ot
enz el
wind igkeiten
Ġsicher ung
Ġverwand te
Ġhohen zoll
tra iner
Ġsing les
Ġschr Ã¶der
stud ium
Ġnie mals
Ġserb ien
ĠfrÃ¤nk ischen
Ġm all
ar is
Ġn ament
am pf
Ġbro t
Ġh Ã¤nde
Ġer setzen
Ġver sammlung
Ġc av
ĠÃ¼ber legungen
Ġbeg ab
Ġhand ball
ei ern
Ġpro be
Ġvert retern
Ġsor ten
ĠÃ¤t hiop
Ġver fahrens
Ġlondon er
Ġprinzip ien
sch lieÃŁen
ver g
Ġgru yter
Ġbasket ball
Ġg ord
Ġerw arten
hÃ¶ fen
Ġelef anten
eit ig
Ġstadt mauer
Ġru h
Ġdement sprechend
Ġmag d
Ġbe kl
Ġnoch mals
Ġjournal isten
ĠdÃ¼n n
ĠfÃ¤r Ã¶
uropÃ¤ ischen
o y
Ġk ot
Ġzeit schriften
Ġgrim m
Ġunter nahm
yth mus
Ġgu ter
Ġfolge zeit
Ġerf unden
Ġexpans ion
Ġf ile
Ġg b
Ġlyr iker
ĠtÃ¤n zer
a sch
Ġv il
Ġst or
Ġaus sprache
Ġkirch lichen
Ġverlie f
ĠflÃ¼ss igkeit
instit ut
Ġein griff
Ġdes selben
Ġgesellschaft s
Ġmer c
kon s
ĠberÃ¼hm t
Ġnas a
s uch
Ġen kel
Ġkart off
Ġadr esse
Ġk reisen
Ġerd Ã¶l
Ġkanad ische
Ġue fa
ei ra
Ġbl ind
kon ferenz
Ġkonst ant
Ġf our
Ġp ius
Ġe cht
Ġbach el
Ġfest ungs
Ġausl Ã¶
b ury
ol s
fe ll
Ġlu ise
aust ausch
Ġdeutschsprach ige
Ġeth ik
Ġadr ess
ist ent
sb l
kl am
Ġli pp
Ġauf wend
Ġunter grund
ina e
Ġdur ften
Ġsteuer ung
he er
c omp
Ġst gb
Ġstatt f
rie d
Ġerw Ã¤r
Ġspann ungen
Ġb ahnen
Ã¼ sen
Ġbes ucht
Ġvert rieb
Ġgest alten
Ġschne lle
Ġsaarb rÃ¼cken
Ġst eiermark
ant rieb
Ġdo ktor
Ġangriff e
on anz
Ġwelt geschehen
Ġth at
Ġsprach gebrauch
ĠkÃ¶nigs berg
Ġstellvert reter
ar chen
Ġg am
Ġauf weist
Ġeigent Ã¼mer
Ġrad ar
Ġbundesver fassungs
Ġbundesver dienstkreuz
Ġb j
Ġgesch ah
Ġzy klus
Ġgemark ung
Ġd au
Ġb rÃ¤
Ġver p
Ġch ap
Ġkom Ã¶die
Ġste ck
ĠkÃ¼ hn
Ġl t
Ġmar schall
komm ission
Ġfrei herr
Ġmed ium
h ielten
Ġc urt
ir s
Ġastron omie
Ġmarc el
Ġaqu ar
is or
Ġhei z
Ġsep ar
Ġchr is
ĠbÃ¼ chern
Ġpartner schaft
bas is
Ġgewinn t
Ġurauf gefÃ¼hrt
Ġv a
Ġur an
Ġmittel n
Ġschweizer ischen
Ġaut hent
Ġax el
Ġdiagn ost
Ġdrei mal
auf gaben
o llen
Ġsie b
Ġwar schau
Ġmill er
Ġminder heiten
Ġbeg in
recht lichen
zentr ale
hand lungs
Ġmensch heit
Ġpet rus
Ġm ale
Ġe chte
Ġda vor
ym bol
Ġp ict
Ġmin den
ym met
Ġdauer t
Ġtur k
ĠsÃ¼dwest lich
i bliothek
Ġsk y
Ġschul ter
Ġhit lers
Ġpil ger
Ġn Ã¤chst
Ġein nahme
Ġp ia
Ġst eil
omet rie
ĠvorÃ¼ber gehend
Ġb ent
Ġor der
Ġbar o
yn amik
Ġfernseh film
steuer ung
Ã¶ tt
Ġab gebaut
stein s
fr auen
Ġchristop her
Ġinklus ive
s or
Ġheil iger
Ġverkehr en
Ġfran co
kor de
er z
Ġge weiht
Ġverbesser te
it ive
Ġdial ekte
c s
ab sicht
schlÃ¤ gen
Ġgramm atik
Ġgeomet rie
Ġaufent halt
Ġd ip
am i
Ġsel ekt
Ġbro ad
l iga
t iere
Ġst eine
fol g
itu ation
ĠgewÃ¤hl ten
ĠÃ¤ ra
Ġteuf el
Ġw ork
Ġvor nehm
Ġkl eidung
ud a
Ġkap azitÃ¤t
Ġlau ter
Ġdigit alen
Ġkomment ar
or chester
ett a
Ġtschechos lowakei
Ġgesch eiter
hÃ¶ hle
Ġgerecht igkeit
p i
Ġz inn
v enz
ll te
Ġbef Ã¶r
kr ater
Ġvekt or
f ot
f ix
Ġm au
Ġnu mer
Ġab sicht
Ġma j
Ġun e
es a
Ġvor ange
Ġdokument iert
Ġp utsch
Ġenger en
Ġs ten
Ġauf klÃ¤r
Ġe ffizien
Ġab fall
Ġro ter
Ġbesser en
Ġn t
Ġste ve
ĠtÃ¼rk ischen
Ġsym ph
Ġzeit weil
reg ionen
Ġsha kes
b ard
et tet
ius e
Ġerf uhr
Ġwel chen
Ġmusik alischen
Ġdav is
Ġindustri alisierung
Ġs ingen
Ġver arbeitet
Ġpro tag
Ġnord Ã¶stlich
Ġat las
Ġmem or
Ġverbrau cher
e ffiz
Ġab u
Ġdatei en
Ġmaxim ale
Ġbuddh ismus
Ġperspekt ive
Ġoperat orn
Ġst ieÃŁ
ig i
Ġstadt recht
Ġol den
Ġver Ã¤ndern
Ġind igen
Ġungl Ã¼ck
Ġf lieÃŁen
Ġmann es
Ġfahr zeugen
Ġaward s
Ġlie fern
inde x
Ġver arbeitung
Ġwar m
Ġwin k
Ġvir us
Ġchines ischer
Ġm Ã¤hr
stell ern
Ġmo v
Ġschwe fel
Ġvielf alt
Ġver mein
ber eitung
gew innung
Ġcir ca
Ġthe at
Ġshakes pe
Ã¤n ke
Ġafr ikanischen
Ġc ultur
ss r
hei de
Ġlim burg
ig sten
Ġversch oben
Ġpf ad
Ġpropag anda
Ġge ologie
os kop
Ġzw ill
Ġmoder ator
Ġfa ir
Ġeff ekte
ĠÃ¶r tlichen
Ġschied s
Ġafghan istan
ĠschÃ¤ fer
Ġt ak
Ġtradition en
leben s
ĠÃ¶st liche
ĠgefÃ¼ hl
Ġlebe wesen
ol in
Ġprakt ische
Ġfertig stellung
Ġinterpret iert
Ġg iuse
br unn
Ġvar iet
Ġmot ive
Ġro ad
sver trag
Ġerzie hungs
Ġoperatorn ame
p Ã¤dagog
Ġspr ing
Ġverlauf en
en burg
Ġk eim
Ġo hr
Ġbes icht
Ġged acht
fert igung
Ġnied rigen
dis ziplin
Ġrecht lichen
Ġmod us
gen s
her stellung
th ese
Ġg ie
Ġmass iv
n ik
Ġan arch
Ġnachfol genden
Ġken ne
Ġwe ste
Ġpoln isch
Ġhart mann
Ġm t
Ġgef Ã¤r
Ġscha chspiel
ĠkÃ¶nig liche
Ġfreiwill igen
Ġausgehen d
Ġbeeinflus sen
l s
Ġp un
geb oren
Ġfunktion s
Ġminister prÃ¤sidenten
Ġf is
Ġauf er
Ġnord ost
Ġmechan ische
Ġsynth ese
Ġabstamm ung
w id
Ġins ofern
Ġis ot
kr ise
ĠgeÃ¶ff net
m auern
t hen
Ã¤m pft
Ġsk el
metho de
c an
u tes
z ert
Ġbe et
gl eis
Ġstaat sprÃ¤sident
Ġfeld zug
Ġteles kop
Ġwon ach
ei de
ot ter
bay ern
Ġr ac
ian us
o ÃŁ
u v
um pf
Ġle hen
Ġredu ktion
a ster
sb uch
Ġmet aph
Ġgewid met
on ist
stimm ungen
Ġbaum eister
Ġk anz
il dete
Ġnach wuchs
Ġher ange
Ġjul ia
ĠprÃ¤sent iert
h und
o ut
Ġde te
Ġschul den
Ġtran sk
Ġfluss es
Ġolympias ieger
Ġb Ã¤r
ich e
Ġober befehl
Ġsu cht
Ġmath cal
Ġc ic
wer ker
b or
f g
Ġder art
Ġob serv
Ġwa ffe
alis ieren
en te
stÃ¤nd iger
d liche
t akt
st Ã¼cken
c le
Ġm ust
Ġc in
Ġkirchen gemeinde
Ġphilosoph ischen
Ġphilipp e
Ġm eilen
Ġde lla
tra ges
Ġins ol
Ġlauf zeit
in ess
Ġlu zern
Ġhaus halt
Ġvor trag
Ġber ichtete
Ġbez og
Ġans Ã¤tze
Ġfel der
metho den
Ġbe ute
Ġhei den
ku gel
ĠlÃ¼ne burg
al i
rei hen
anga ben
ĠkÃ¤rn ten
ĠgrÃ¶ÃŁer er
Ġkirch liche
Ġmill imeter
Ġwik i
ĠbefÃ¼r wor
Ġkl Ã¶ster
dem ann
fel den
ĠberÃ¼cksicht igung
Ġw ann
on na
Ġl ap
Ġfr on
bl Ã¼
ob jekt
Ġehren amt
abil itÃ¤t
ari at
Ġaus gelÃ¶st
Ġwei ss
ogen e
offiz ier
ĠfÃ¼hr ende
Ġklein ste
Ġdiesel be
Ġge lie
Ġunbe ding
Ġsubst anzen
Ġbe achten
Ġsamm lungen
Ġvorge geben
Ġem an
quart ier
Ġein b
st ei
Ġspiel s
Ġverbesser t
as ser
ah ne
form el
Ġbot schaft
Ġsa ge
ĠkÃ¶nig lich
Ġco ur
Ġpatri arch
iffer enz
ĠkÃ¼nd igte
o o
Ġ eil
Ġaff Ã¤re
Ġsib ir
Ġkom prom
chn ungen
Ġtrium ph
Ġeinz iger
Ġvergl eichen
Ġsinfon ie
Ġf reis
Ġgel esen
Ġhaus halts
Ġwissenschaft s
Ġtyp s
Ġregierungs zeit
Ġgedre ht
Ġgr Ã¶n
Ġtra fen
Ġvolk st
Ġan stieg
Ġzu einander
Ġton y
Ġbro ck
ĠkÃ¤mpf e
Ġbat ter
Ġverfas ser
Ġte e
sk ap
Ġbesonder heiten
Ġern annte
Ġapp l
Ġnament lich
Ġp yth
Ġex ek
Ġjohann a
Ġpi per
Ġlot hringen
Ġauf schwung
ik ationen
Ġha in
Ġkein em
zwei g
m Ã¶
Ġwieder er
Ġgiuse ppe
pol izei
r ath
Ġi wan
ot ische
eld ung
Ġphil ip
h ab
Ġz eilen
Ġempf unden
schen de
Ġschloss es
Ġf ig
Ġsp l
Ġger aten
gesch Ã¤fte
Ġbachel or
Ġd c
Ġver bleiben
Ġmd b
flag ge
Ġein ver
Ġnach wei
dor fer
Ġbei be
Ã¤u er
ber eichen
Ġst Ã¤nde
le d
Ġma st
Ġk lagen
Ġher kÃ¶mm
ro ss
ag s
fil me
schrau ber
Ġfil ter
col or
Ġpaz ifik
Ġtok io
c ript
Ġpl Ã¤nen
Ġant eile
ĠÃ¤hn liches
st etten
de uten
zeug ung
Ġgener ationen
spro bl
Ġerinner ungen
Ġensem ble
Ġelektrom agnet
Ġaus rÃ¼stung
ĠwÃ¤hr ungs
ĠkÃ¼ m
Ġgesetz lichen
Ġvorsitzen den
Ġsto ÃŁ
gro und
ke te
Ġland kreise
Ġro ut
Ġversicher ungs
Ġb lin
im o
Ġman usk
Ġnord see
Ġersch lossen
ĠschÃ¶ nen
Ġsig ma
Ġpaz if
Ġphar ma
f Ã¤r
Ġg ig
Ġr Ã¼st
Ġunter t
Ġwicht iges
Ġkrit ischen
Ġr Ã¤umen
Ġber ater
Ġelektron ischen
Ġlokomot iven
at ra
Ġl on
mess ung
el be
Ġst reu
Ġgottes dienst
so hn
Ġorient ierung
Ġveranst altet
at io
Ġum liegenden
fin det
ĠarchÃ¤ ologische
wechs elt
Ġabgeb rochen
Ġbewir kt
Ġverblieben en
Ġr assen
Ġsp ont
Ġunter ird
Ġpl ut
Ġspren g
ĠsÃ¼d Ã¶stlich
Ġerne st
Ġgewann en
Ġepis ode
ĠÃ¼bertrag ungs
Ġf ame
Ġam tes
wer fen
Ġphilosoph ische
Ġg t
Ġdi versen
Ġkaiser in
ĠkÃ¼nstler ische
is ser
Ġsport ler
Ġag gress
Ġetabl iert
Ġbol iv
Ġs ank
ie m
Ġo den
Ġun gen
Ġt uch
Ġla ien
Ġx iv
Ġgleich gewicht
lo h
Ġlibr ary
ĠpalÃ¤st in
Ġdiffer ential
krit ik
Ġalphab et
Ġmit hilfe
Ġfin al
Ġrich tet
f ers
ein richtung
Ġh uss
Ġdom ain
Ġep i
gra b
Ġtrain ing
od a
samm lungen
Ġkolle gen
Ġpro port
gesetz ten
Ġsold at
instr umente
Ġk rak
Ġt ast
Ġvor liegen
Ġdurchschnitt liche
Ġn enn
Ġf us
Ġma yer
Ġausge legt
Ġjem and
Ġrie f
Ġwiderstand skÃ¤mpfer
l ow
at ius
ul ationen
Ġricht ungen
c il
h all
Ġh amil
Ġg y
ĠfÃ¼nf ten
Ġjahr buch
Ġpsych iat
v an
Ġzw ick
Ġverein en
Ġprobl emen
ĠgefÃ¤hr det
Ġbefind lichen
Ġkron pr
Ġge gliedert
ru d
ing ham
Ġna del
Ġmaur ice
Ġder artige
Ġerfolg ten
Ġnordwest lich
Ġre akt
Ġeinge teilt
system en
Ġunter gang
al p
Ġkl er
Ã¼nst ler
Ġerl eicht
don ien
Ġstir bt
ge ht
Ġp ek
Ġre bell
Ġha vel
Ġkrit isierte
Ġpoly mer
p ot
eim ittel
Ġben e
Ġpf ing
Ġco ver
Ġangrenzen den
Ġhohenzoll ern
g reif
Ġerheb lichen
Ġalgor ithmus
Ġresp ekt
sp altung
z ar
Ġm ike
Ġnach richt
Ġdurch gesetzt
Ġzeit lich
str Ã¶
hÃ¶ hen
Ġa ktionen
Ġgl aube
Ġjul ian
stÃ¤d ter
ĠgrÃ¤ ber
Ġentscheid ungs
Ġwol fen
ĠkrÃ¤ ft
Ġbo ck
ĠergÃ¤n z
aus o
Ġman geln
Ġgott lieb
Ġseiten s
si us
stein er
Ġbrit ann
Ġflug platz
Ġrekonstru ktion
mot oren
Ġerziel en
w issen
Ġsp enden
Ġwei den
Ġgeist lichen
Ġindustrie llen
Ġmathemat ische
Ġp age
Ġrh etor
Ġhypoth ese
Ġausgest orben
t heater
ru cht
Ġbor der
Ġzeich nung
Ġrec lam
Ġorigin alt
ĠgebrÃ¤uch lich
ĠmÃ¤rt yrer
ahl en
Ġper man
Ġbundesl Ã¤ndern
Ġspec ial
Ġs ard
schl Ã¼ssel
verw altungs
b anken
k re
ĠlÃ¤nger en
Ġposit iven
ra hmen
Ġher ab
kraft werk
Ġst rat
kon zept
Ġoper ationen
Ġansch au
Ġexper ten
Ġzwer g
g attung
Ġge sell
Ġgl eichs
stat us
ement s
Ġsant i
iw od
gewÃ¤ chse
Ġn aum
Ġsch Ã¤r
ver fassung
ab or
ĠwÃ¤hr ung
Ġol iv
Ġbeteil igte
Ġwett kampf
Ġgen auso
Ġlie ber
Ġru p
ĠlÃ¤ng s
Ġmeda illen
Ġber ger
Ġchrist ine
Ġgeheim nis
zwe ck
l och
w usst
ho e
Ġla den
Ġwo iwod
Ġval entin
war te
ol et
ig ter
Ġgl eit
Ġkar ne
Ġmel an
jo urnal
Ġbegriffskl Ã¤rung
h Ã¤ngt
el er
Ġoffen sichtlich
Ġbeobacht ungen
Ġbedro ht
Ġron ald
Ġartik eln
k ie
Ġpeter s
ĠwestfÃ¤l ischen
Ġfantas y
an as
Ġp kw
Ġgen re
Ã¤h ern
in te
Ġt os
Ġauf bewahr
Ġab bildungen
la sten
Ġober ste
Ġmon ats
Ġsubst ant
ĠsÃ¤chs ische
Ġo pf
ap est
Ġmitglied s
Ġgetr enn
Ġsour ce
Ġsie ge
Ġschw ing
Ġraum fahrt
Ġg eis
uss ia
Ġander son
Ġpr inzen
ĠfuÃŁ gÃ¤nger
Ġrein hold
ibil itÃ¤t
g ger
Ġfre ud
kr aut
Ġkan on
p le
y ers
Ġpro gress
ph ysik
Ġel iz
Ġbetrei ber
ĠgrÃ¤ fin
Ġn iveau
Ġv alle
Ġan fÃ¼hrer
pl ung
kl ang
Ġbelast ung
kÃ¤mpf e
ĠfÃ¤l sch
Ġd anzig
ĠhÃ¶ hle
Ġeurop ap
Ġandre w
ĠbehÃ¶r de
Ġleich te
st Ã¼tz
Ġsie mens
Ġan sprÃ¼che
Ġbud apest
Ġluther ische
Ġzer em
Ġaustral ischer
Ġprinzip iell
b Ã¼ttel
Ġc art
Ġskulpt uren
Ġkon go
Ġnobel preis
g rie
Ġde sto
Ġbal kan
Ġbetracht ung
Ã¼r t
osa ur
Ġgn u
Ġapost el
vers uche
Ġbi ber
lager n
Ġlibr etto
Ġk lage
Ġp on
Ġherzog s
Ġwuppert al
m os
Ġg Ã¤rten
Ġal ice
ver mÃ¶gen
Ġka i
Ġvers orgungs
res er
Ġanth ony
h Ã¤fen
Ġange messen
Ġargentin ischer
ĠmÃ¼ ll
Ġschwer in
sh ut
Ġorient ierte
Ġphysik alischen
Ġback ground
Ġfon ts
Ġa spekt
Ġn ich
ge fÃ¤
Ġant oine
or ff
Ġgelegen heit
Ġbesie gt
g ei
fl eisch
Ġbedro hung
Ġha wa
Ġsa vo
Ġstand es
Ġperson enn
Ġend lich
Ġz yp
Ġj ob
ath on
Ġzahl ungs
Ġk ies
us ste
sche w
Ġnotwend ige
Ġverbreit ungsgebiet
Ġud ssr
in iti
Ġre zens
Ġcl ient
Ġerreich bar
Ġorts namen
Ġapoll o
Ġaufw Ã¤nd
Ġh eld
Ġwer ks
Ġh d
Ġbundes staaten
Ġanton ius
med ien
Ġr asse
Ġan kunft
Ġkeiner lei
Ġd ion
Ġan halten
Ġbri an
Ġver glichen
Ġfort pflanz
Ġpal ais
Ġbele ge
Ġaussch uss
g ht
Ġerw ar
ĠÃ¤qu ival
Ġdikt atur
n ischen
gew Ã¤sser
wes ens
Ġjesu iten
Ġref lekt
Ġmoz art
Ġsouver Ã¤n
Ġi f
au e
ub a
Ġbef asst
Ġerb folge
k od
Ġsch ad
achst ums
Ã¤ ser
Ġan l
ach el
Ġpak istan
am o
Ġl p
fÃ¼ gt
k Ã¼r
Ġbede ckt
Ġm old
stand es
Ġhaupt rolle
f arb
Ġmit ten
Ġfra gment
k ab
ol t
Ġbo urb
abil it
Ġkandid at
Ġp ens
Ġum sch
Ġstu hl
Ġstet ig
Ġtransport iert
g Ã¤rten
Ġse ver
Ġaug uste
Ġverdienst ordens
s werte
Ã¤ ck
Ġh orm
Ġtr end
Ġein wander
Ġw att
Ġsch rÃ¤g
Ġent t
sk rieg
Ġschne llen
Ġfa vor
Ġbein ahe
Ġmarok ko
Ġunter brochen
Ġstaat lich
Ġpo sten
ĠwÃ¶r tlich
Ġch ance
Ġvorsitzen de
Ġherr scht
Ġdoc ument
an on
Ġed mund
Ġeinheim ischen
Ġan lehnung
Ġanti qu
Ġe y
pp t
iz ierte
Ġatt rib
Ġanb ieter
maler ei
kil ometer
e te
f isch
Ġhei ÃŁ
pe ten
r ange
Ġdra ht
Ġtageb uch
ab kommen
Ġabge schafft
schi ffen
Ġgegebenen falls
Ġs ke
Ġcarol ina
g ibt
Ġs d
sb il
Ġpl ot
Ġep ik
Ġleg isl
Ġnav y
se es
Ġor che
Ġange wiesen
Ġdu ke
Ġbestand teile
ro de
Ġr och
stra teg
ĠlÃ¶ we
Ġzunehmen de
Ġkonf Ã¶der
Ġan statt
Ġbeg angen
Ġsozial er
v ari
Ġer ben
ru fen
Ġum wandlung
Ġsk is
Ġfem in
Ġverw altet
Ġchem nitz
Ġbunde stages
Ġkonf ess
sch Ã¤den
Ġverein fach
Ġorient iert
Ġnaturschutz gebiet
Ġr ott
Ġo ct
Ġnew ton
Ġlauf bahn
Ġgewerk schaft
d igt
l etz
Ġb itter
pro t
Ġdie jenigen
Ġwei ÃŁer
ho use
zeich neten
el en
Ġsch rau
fl Ã¤ch
Ġvi ola
Ġinternational es
Ġliefer te
Ġkin os
Ġbir ken
Ġmoham med
Ġn ab
Ġbe arbeitet
Ġnach weisen
op ath
ergeb nisse
Ġben utzen
Ġb rad
Ġvor geschrieben
Ġfrei heits
krÃ¤ ften
g ott
Ġqu een
Ġsol ches
Ġreich weite
Ġnatur park
lei sten
ĠzeitgenÃ¶ss ischen
z eiger
Ġm aul
Ġer wies
Ġrom ans
Ġnotwend igkeit
w Ã¼n
Ġp ag
Ġwor te
ĠÃ¶ff nung
h me
Ġgro b
Ġbundes autobahn
Ġmargar et
Ġwitten berg
k rist
Ġc c
Ġc s
Ġpo int
Ġstar ker
Ġsam stag
Ġsymp ath
Ġexist ierte
Ġentscheiden de
ern t
r aut
Ġsch lagen
Ġgleich zeit
Ġangeb aut
Ġanschluss stelle
Ġdeb atte
Ġpassag ier
Ġsp eise
Ġkon zepte
Ġmotor rad
beteil igung
k Ã¶pf
Ġm p
Ġge fecht
Ġschw immen
Ġwirk sam
Ġvorhanden e
b od
Ġv ic
Ġaus dr
ger Ã¤ten
Ġcl ar
Ġdist rib
Ġschei ben
a un
ion ale
Ġbr auch
Ġmag az
l og
o a
Ġn d
Ġvar phi
skr ise
Ġinvas ion
ei gent
Ġh Ã¤ngen
Ġfer ien
Ġflor ian
ĠmÃ¶n chen
Ġtennis spieler
Ġe sch
pers onen
Ġvornehm lich
k rat
o wa
Ġz iv
ger ichte
Ġverein igt
amer ikas
Ġmaler in
fÃ¤h ige
ĠÃ¶ff nen
Ġauf sichts
Ġgu tes
Ġi ber
Ġau stra
us se
Ġverk Ã¶rper
ipp er
Ġnorm ale
ĠbÃ¶ den
leit ungs
veranst altungen
Ġmat rix
m i
br em
fir ma
Ġst one
Ġwei ger
Ġcar r
Ġgeboren e
ste her
Ġreich te
Ġbeginnen d
olog isches
Ġkommun ikations
Ġlen in
Ġcob urg
Ġaus gleich
zentr ums
Ġral f
Ġbyzantin ischen
se xt
Ġnotwend igen
Ġneg ativen
Ġein heits
bl ing
Ġrh od
Ġv s
Ġr ied
Ġbe fe
Ġmar mor
Ġkor ru
Ġplan ck
Ġmos el
Ġlamb da
Ġsa chs
ie tet
Ġar sen
Ġher bei
Ġmar ch
yt hm
Ã¼n del
be st
ip e
Ġbru ce
Ġtrans formation
Ġbayer ischer
ĠwÃ¼ sten
Ġauf fÃ¼hrung
Ġju p
Ġd ill
Ġse es
Ġso pr
Ġbet rifft
Ġmei ÃŁen
bo ard
Ġportugies ischen
Ġkav aller
v ort
Ġ Ã¤ndert
ator ische
Ġmark eting
Ġbor is
Ġurs ula
it ische
Ġver mittlung
Ġzu zu
Ġzu ordnung
Ġauf lagen
Ġstern bild
Ġzeich net
Ġfonts ize
Ġw ass
Ġj enn
Ġbe kenntnis
Ġaus prÃ¤
Ġpar ag
Ġschle chter
Ġnachkriegs zeit
Ġanp assung
x y
Ġru ine
Ġwissenschaft licher
Ġbefest igt
a ÃŁen
Ġbr om
Ġgesetz lich
Ġsowjet ischer
Ġbedeutend ste
ĠflÃ¼cht linge
Ġfranziskan er
Ġv okal
Ġmit arbeitern
Ġgefangen en
an isch
re f
Ġkon vent
Ġausger Ã¼stet
Ġgrundlegen de
Ġr s
Ġge klÃ¤rt
Ġhin blick
Ġdir ek
Ġwahr en
Ġungar ische
Ġobjekt iv
Ġbel a
Ġsk iz
Ġoffiz iere
Ġbeobacht er
jen ige
Ġs ven
Ġgr em
Ġm ort
Ġl d
qu ent
Ġwider spruch
Ġrussland s
Ġg eiger
gl eichen
Ã¤hr ung
Ġdies mal
Ġann Ã¤hern
Ġvertrau en
sch ub
le f
ul us
Ġident ifiziert
Ã¼ ben
ab schluss
Ġmicha il
Ġadel iger
gÃ¤ng ig
Ġeinkauf s
ĠschÃ¼l ern
i ologie
Ġde utung
Ġab schnitte
zie hungen
Ġlad ung
Ġinsol venz
Ġt ir
Ġvers a
eren zen
Ġkommun e
Ġbin den
Ġb g
Ġun regel
Ġt ut
Ġnew s
Ġkonf ession
Ġarzn eimittel
Ġgesetz liche
Ġfreiwill ige
ant i
Ġversch Ã¤r
ĠlÃ¶ st
Ġschweizer ische
Ġcd s
ĠmÃ¶n ch
Ġd amm
Ġh Ã¤
Ġh ag
a wa
Ġz iffern
Ġe uch
Ġorthodox e
Ġlaur ent
as k
Ġjahr tausend
Ġnie mand
ĠarchÃ¤ ologie
Ġschum acher
Ġr un
Ġel b
Ġgel ungen
Ġnic olas
umm ern
Ġne p
Ġor n
Ġbeg riffen
Ġpri or
Ġgeringer e
Ġmar co
ass o
Ġmon arch
Ġrecht lich
Ġnr w
Ġumfang reichen
Ġsaar land
Ġverb und
ĠtÃ¤t igkeiten
ĠgÃ¼lt igen
Ġskulpt ur
ĠgrÃ¶ÃŁ ter
g io
Ġten den
komm and
Ġinfekt ion
n t
Ġsamm eln
ĠweiÃŁ russ
Ġerfor dert
Ġstad ium
ie sen
Ġg reifen
Ġver se
Ġkomm ande
Ġra in
Ġke gel
Ġbist ums
en kt
Ã¶ ge
ian ischer
Ġprov isor
Ġgu y
ĠbevÃ¶lkerungs entwicklung
Ġge halt
ger e
Ġstadt bahn
ro tt
Ġrev iew
eigen schaften
Ġan re
Ġnational er
gew orfen
Ġzeich nen
durch schnitt
genossen schaft
Ġau er
Ġe chten
Ġab stimmung
Ġfl en
ans as
Ġrein er
ĠzeitgenÃ¶ss ische
g Ã¼ter
ov o
yn am
Ġstimm ung
Ġprom ov
Ġangewand t
ab wehr
Ġland ung
Ġgesch ickt
Ġsatur n
Ġh end
Ġge pf
Ġge fordert
ip end
ĠmilitÃ¤r isch
ĠverÃ¤nder te
Ġsak r
u tern
Ġm amm
Ġange z
zie ht
Ġvit amin
Ġb f
Ġvor haben
sb au
ed o
Ġpo ur
Ġlebens jahr
er ium
Ġden is
Ġdir k
itÃ¤r en
Ġspan ier
Ġbezir ke
Ġcent re
Ġlein wand
h essen
gen z
Ġwer ten
Ġausge geben
Ġkil ogramm
Ġjudent um
Ġfound ation
d ichter
ri ca
Ã¼r me
Ġbele g
schul d
pfl anze
Ã¤rt ner
un er
Ġcalc ium
in ne
Ġw im
lÃ¤ufer in
Ġre ktor
Ġmain zer
weis ungen
Ġsong w
Ġabgeb ildet
Ġstan ley
Ġhamil ton
Ġin haft
Ġc em
Ġkar ib
Ġtheor etische
Ġsympt ome
as iat
lie be
Ġausge strahlt
Ġehem ann
Ġbor ussia
Ġklin ik
Ġein tra
Ġg ri
Ġsol ar
Ġinstr umenten
Ġped ro
tÃ¤t igkeit
Ġerfolgl os
es er
ra gt
Ġman ip
Ġgel Ã¶st
Ġnieder rhein
Ġgeh abt
Ġemp ire
Ġk ette
Ã¤l en
fÃ¼hr ende
olog in
pr es
Ġstra ft
Ġwissenschaft lich
ben s
ĠÃ¼ber reste
Ġpro ject
Ġris ik
Ġviol in
Ġkontra st
Ġb ruck
Ġin haber
ier endes
Ġher der
ĠÃ¶ffent licher
ĠbestÃ¤t igte
Ġschaff ung
ĠverschwÃ¶r ung
Ġfr Ã¶
Ġab stieg
Ġrei fen
Ġbo y
a fr
iz ieren
schl ei
Ġh els
Ġteil te
Ġw Ã¤chst
ri v
ick er
Ġvers orgt
Ġeinheit liche
Ġvern ach
Ġe cke
Ġpolit isches
Ġmo ore
Ġspezif ische
Ġpf und
Ġwil de
port al
Ġtre k
bil dern
dam pf
la de
Ġpar as
w ser
Ġall eine
wahl en
Ġvernach lÃ¤ss
Ġy a
Ġwor tes
Ġsum pf
g Ã¼rtel
Ġad jekt
grÃ¼n de
ĠrÃ¼ck seite
auft rag
Ġgg f
k ult
Ġb utter
Ġk essel
Ġaus zug
Ġtro ck
archite ktur
Ġteil t
ank ungen
Ġsohn es
Ġgrenz Ã¼ber
Ġs ier
Ġl enn
Ã¤r m
Ġsy d
Ġbus h
Ġanat om
ig ar
Ġsch wie
Ġdienst leistungen
ĠÃ¤r zt
Ġan spruchs
Ã¤n gte
Ġhe yne
Ġhum or
Ġdown lo
r ett
Ġnach zu
id sch
Ġgl eis
Ġdeut liche
d lichen
p anzer
Ġu k
Ġleben de
Ġsk al
Ġurkund liche
Ġverringer t
Ġs Ã¶l
Ã¤n ner
pr ise
Ġterritor ien
Ġj r
Ġfrank lin
vol umen
x i
pt on
Ġho ward
Ġvoll stÃ¤ndigen
ĠspÃ¤t mittelalter
Ġint ro
Ġaster oid
ch lor
Ġh Ã¤ndler
et sch
Ġbes aÃŁen
Ġel ster
Ġprodu zenten
Ġc ivil
Ġmet h
Ġzentr en
Ġ chen
Ġkon son
Ġsc ient
Ġhof mann
Ġtur ner
Ġmob ile
h ter
Ġl kw
ul in
Ġvor stands
Ġgrund satz
ert o
Ġsymb ole
Ġunbek annten
Ġvert rÃ¤ge
ba chs
c ock
k ter
Ġme hl
Ġdramat iker
Ġabge ordnete
reg ister
Ġgem Ã¼se
Ġoper a
Ġempf ohlen
Ã¼nd igt
Ġgenau es
lei hung
Ġkonk rete
Ġo z
Ġk eil
Ġgew ohn
Ġjoh an
Ġta unus
rom an
Ġent stamm
Ġpr omot
prÃ¤ senz
urop as
Ġanwesen heit
Ġexek ut
b elt
wa ys
Ġbundes land
Ġnational rat
Ã¤s se
ĠbekÃ¤mpf ung
de cke
fl u
Ġschle chten
Ġz ier
Ġe z
ĠmÃ¼ l
Ġed gar
welt meister
Ġmer ce
fÃ¤h igen
st Ã¤
Ġt iger
Ġzusammen geschlossen
ik te
Ġkurz zeitig
mechan ik
Ã¼ ste
isch t
Ġge webe
Ġwo lle
Ġhaupt ort
ogen en
Ġanf Ã¤nge
Ġflie ger
Ġde kan
Ġmal te
Ġne us
Ġp p
Ġde kor
Ġsp Ã¶
alis ierten
Ġarbeits losen
mode lle
Ġw Ã¶l
Ġwar ten
arb eits
Ġbur schen
konstru ktion
Ġwit we
i Ã¶s
Ġd Ã¶
Ġsch acht
Ġdor othe
ch i
ko lle
Ġbasil ika
Ġpyram ide
z Ã¼g
Ġer mitt
Ġsch ema
Ġren ten
Ġmitbe grÃ¼nder
Ġbrauer ei
v g
sb ahn
ha fter
Ġwa pp
stÃ¶r ung
sch altung
Ġbo ur
Ġwasser s
Ġorganis ations
Ġkor rig
bes itzer
ĠbemÃ¼ hungen
Ġauf stÃ¤nd
Ġbelg ischer
Ġtab ak
Ġschmel z
Ġkaffe e
b eit
ei ro
Ã¼ re
Ġj g
Ġo g
polit ischen
Ġsob ald
Ġsu bt
Ġw i
ograph ische
Ġsen ator
Ġbus iness
Ġauf s
Ġbet ragen
Ġd s
Ġm ix
Ġc ond
Ġfor dert
Ġlandes kirche
ch tes
Ġur ug
kra tes
Ġbehaup tet
Ġg m
kt ive
Ġzer fall
Ġplan ungen
m alen
Ġvor erst
ĠÃ¶ fter
Ġkal ium
ie ller
um a
ent heorie
geb unden
Ã¤u ber
Ġtrans l
b els
au ÃŁ
Ġvor geschichte
bar es
Ġmu hammad
Ġcal iforn
ony me
Ġein ander
sp rech
og r
Ġerz herzog
pap ier
Ġb ridge
Ġrecht sprechung
ĠauÃŁer gewÃ¶hn
zy klus
Ġkub a
ie fe
Ġp ut
Ġr he
Ġra ff
Ġtour nee
Ġair lines
k ing
fÃ¼ g
Ġgrund stein
Ġbef Ã¶rdert
Ġstar s
Ġaufmerk sam
Ġad opt
ifiz ierten
Ġgeschlossen e
Ġmon tag
Ġklass ifikation
Ġerzeug ung
Ġein genommen
Ġgegen teil
ĠÃ¶ vp
Ġsta ff
an schluss
Ġstadt zentrum
Ġoriginalt itel
Ġf ox
ach us
Ġre be
Ġnieder gang
ont o
Ġca pt
Ġal ois
Ġhe ller
fahr zeugen
ps on
Ġdienst grad
Ġgelehr ten
Ġf utter
Ġeinz iges
Ġkau kas
Ġa ction
Ġde part
ip el
Ġwolf ram
ĠjÃ¼ng ste
Ġab schaffung
Ġmagd alen
Ġse pt
ite es
Ġgeist liche
wÃ¼r d
ĠwÃ¼ ste
pal ast
Ġb bc
Ġp ix
Ġr etten
ke y
ma jor
ĠÃ¶sterreich er
Ġreser ve
k eln
al ien
ist ern
mer s
Ġra ven
ĠkÃ¼nstler ischen
Ġbosn ien
wa chs
Ġrei t
Ġcomm od
Ġbart h
Ġm l
Ġaugust in
ĠbÃ¼rger n
Ġerl auben
Ġdon ner
ĠhÃ¶r funk
Ġrechte ck
fakt oren
Ġv r
Ġeman uel
e u
n ess
ra ph
Ġseiner zeit
Ġschl angen
Ġverlie h
g eist
Ġd d
Ġa sch
Ġk p
Ġver ank
ab on
Ġherzog in
Ġger Ã¤ten
fest ival
Ġaltern ativen
Ġp end
ast ung
Ġverbunden e
hr ung
Ġge laden
her apie
Ġerw artet
Ġprot otyp
Ġmehrheit lich
in ing
st art
Ġher unter
Ġbr ett
Ġbl anken
Ġorgan e
on isten
Ġengl Ã¤nder
Ġstabil itÃ¤t
st eigen
Ġrei z
Ġkauf te
Ġsign ale
ĠarchÃ¤ ologischen
Ġernen nung
Ġs b
Ġunter ge
ungs zeit
Ġkl ub
ĠanschlieÃŁen den
Ġkontinuier lich
Ġr og
v ania
Ġfeier te
Ġmund art
Ġde ath
Ġthe ologische
kÃ¼ nfte
Ġbewer tet
b em
Ġel ast
Ġir re
Ġortsteil en
ied ler
Ġj Ã¼
Ġem br
Ġpri x
Ġhan au
Ġch ilen
Ġschul z
Ġtypischer weise
en der
ang abe
ill y
Ġbay reuth
st one
an schau
sp unkte
Ġad v
Ġsh ar
Ġauton omen
n chen
ent s
og ie
Ġph ant
Ġwil den
Ġluc as
Ġbegeg nung
Ġl ak
Ġbes p
ho w
Ġem er
Ġrech nung
ĠgÃ¤n z
bÃ¼ chern
c up
rei fe
Ġet liche
Ġbundes prÃ¤sident
Ġabge halten
Ġvari ablen
Ġd ing
Ġcom mon
Ġverkauf s
Ġs ara
st abe
Ġv all
Ġv iv
ill o
id d
Ġu b
Ġverl iert
Ġx v
Ã¤m m
Ġca f
Ġde hn
Ġsp ree
Ġn ieren
Ġo bl
Ġbekannt heit
Ġbon ap
Ġbeheima tet
is i
Ġbes uchen
Ġstud ios
Ġdis co
Ġmos a
sch we
ĠprÃ¤ gte
aktion en
ĠerhÃ¶ hten
Ġzu schau
ser ien
Ġdar k
Ġkn Ã¼
Ġanerk annte
Ġoberl iga
l Ã¤ndern
te au
el ement
Ġei fel
Ġange stre
Ġges and
Ġann Ã¤her
Ġschei tern
ge wer
Ġex akt
s iedlung
Ġzuge wiesen
Ġhervor gegangen
Ġzusammenh Ã¤n
Ġm am
Ġre gent
alt h
ĠgÃ¼ter s
ir es
Ġlin ker
Ġgab rie
Ġausb reitung
Ġh Ã¤nden
Ġar c
Ġbu ck
Ġwohl haben
Ġwoiwod schaft
in ischen
Ġver ze
Ġpro c
Ġpers ischen
ĠÃ¶sterreich isch
Ġsozial ismus
Ġwerk statt
Ġweil er
bÃ¼ hne
Ġel fen
Ġla ck
Ġeinge stuft
Ġnieder schlesien
Ġmenschen rechte
Ġgar nis
Ġqual it
Ġkorre kt
ĠbÃ¶r sen
Ġv alen
Ġvor feld
Ġeinge setzten
ate d
Ġpe op
Ġnutz er
Ġunmittelbar er
Ġle vel
sb r
Ġwohn ungs
Ġzunehmen den
Ġd l
Ġen orm
Ġor dent
Ġhin der
Ġs teg
sch ir
Ġletz tes
Ġgest altete
Ġcharakter istisch
Ġlad y
Ġbibliothe ken
ĠfÃ¶der ation
Ġpopular itÃ¤t
Ġj ahn
Ġgesch lechter
ib r
Ġbur k
an bau
Ġbe u
Ġuni x
oz Ã¤n
Ġgebir g
Ġseel en
Ġz ah
es ia
Ġh i
Ġp ig
Ġzur zeit
fÃ¼ gen
Ġessa ys
st rich
Ġwohn haus
Ġsexu elle
er te
Ġso krates
Ġam inos
Ġsystem atische
Ġlou ise
Ġflor ida
oder ator
Ġa hr
ich tes
lie ger
fÃ¼hr ungs
ĠhÃ¶her er
Ġfakt isch
Ġvize prÃ¤sident
wÃ¤l der
in burg
Ġp aten
Ġg az
Ġe h
Ġsor b
Ġneut ronen
Ġrot ation
Ġindividu elle
Ġleon hard
Ġautomobil rennfahrer
se h
ul o
Ġarb eiteten
Ġreag ieren
ch rist
st ruppen
Ġsch ult
lie der
Ġbr Ã¼n
Ġverl ieren
omm t
met all
ĠtÃ¶ ten
Ġausl Ã¤ndische
Ġauf hebung
Ġpro gn
Ġbr et
Ġob last
Ġmath bf
Ġver mittelt
Ġum land
Ġreal schule
Ġbe haupt
Ġland graf
ĠniederlÃ¤nd isch
Ġdiskuss ionen
Ġsanti ago
Ġge arbeitet
Ġver zeichnis
Ġheil bronn
ĠbenÃ¶t igen
Ġvergangen en
Ġbl an
Ġrel ief
Ġstammen de
Ġzit iert
Ġgebir gs
Ġtrink wasser
Ġeins etzen
Ġau schwitz
Ġverl etzung
Ġnam ib
Ġange griffen
arr iere
ĠhÃ¼t ten
Ġveget ation
Ġzyp ern
c ard
ÃŁ ern
Ġlit urg
Ġper ip
Ġdenkmal schutz
Ġm ant
Ġgr ande
ps ilon
Ġgez ielt
Ġill ust
ĠverknÃ¼ pft
Ġk ei
Ã¤u fen
Ġw ick
Ġislam ische
ĠlÃ¤nd lichen
Ġge hÃ¤use
Ġph i
Ġentwick ler
Ġco us
stem peratur
Ġinstall iert
Ġworm s
Ġp omp
as ka
Ġli qu
kap ital
un ks
ic le
Ġvoll zogen
Ġbuch es
Ġbegl eit
ĠkÃ¤l te
es h
op ter
be ziehung
Ġnied rige
ĠprÃ¤fekt ur
den berg
Ġc amer
Ġzum al
Ġspiel zeit
Ġphil harmon
Ġbi ochem
Ġaden auer
Ġvor gÃ¤nge
Ġro w
amen ten
pro gramme
s feld
ar den
ime tern
Ġtrieb wagen
sprÃ¤ sidenten
Ġexpl os
o h
ster s
Ġfinanz iert
ĠsÃ¤ ure
wahr schein
n Ã¼tz
sch ritte
Ġm w
Ġsch ub
ne u
Ġbeg raben
fass ungen
Ġnacht eile
Ġtermin al
Ġverdr Ã¤ngt
a ins
ig an
Ġbet rÃ¤cht
Ġkomp ens
schn eiden
Ġfert igung
Ġdienst leistungs
ĠzÃ¼r cher
Ġausgra bungen
Ġde vel
Ġgeb Ã¤r
Ġerfolgreich sten
Ġleichtathl etik
Ġein leitung
urn ier
Ġun voll
Ġver mitteln
spr en
Ġallgemein er
n ische
Ġer stellen
Ġmusl ime
Ġtrans fer
Ġdok umenten
Ġjournalist in
veranst altung
Ġbeding ung
Ġjung er
in ien
us a
Ġc i
re kord
Ġstation iert
Ġattent at
Ġbe y
ierte m
Ġwohn te
flug zeuge
Ġweltmeister schaften
Ġexpliz it
f Ã¤lt
Ġbrand t
Ġist anb
Ġa str
Ġein geleitet
Ġb ak
Ġv illen
et in
Ġaus maÃŁ
Ġunter lag
Ġger ichte
Ġcon tra
Ġbu ff
Ġbenutz te
Ġstadt verwaltung
Ġkar ik
Ġkommun isten
Ġtages zeitung
Ġprotestant ischen
ĠfÃ¤hr t
Ġada pt
Ġp oll
Ġg umm
Ġauf zeichnungen
Ġger aden
Ã¤um t
ĠzÃ¤hl ten
Ġec onom
Ġer t
Ġsp alt
ungs verfahren
Ġverw end
ĠmaÃŁ stab
Ġbedeut ungs
Ġkl etter
Ġper form
Ġven e
Ġherange zogen
Ġan walt
Ġunter wegs
ĠgehÃ¶r enden
Ġjohann is
Ġpe gel
ĠbeschÃ¤ft igung
Ġbeat les
g alerie
v at
Ġind irekt
ĠrÃ¶m isches
Ġglie dert
Ġbrasilian ischer
Ġpenn syl
Ġt hun
Ġal emann
str en
Ġorganis ierten
ĠfrÃ¼hl ing
Ġeliz abeth
Ġreg ierte
Ġmess ungen
Ġverletz ungen
ra de
Ġho hes
Ã¶l be
Ġpla ce
Ġc rit
Ġpr int
a ff
ol is
om mer
Ġentste hungs
Ġzeitgen ossen
ĠgegenwÃ¤rt ig
ei a
Ġkl ammern
olog ical
Ġhaupt mann
Ġberuf ung
Ġrus sell
Ġalexand ria
kommun ikation
Ġmani fest
Ġunter worfen
Ġgeb rochen
Ġfl Ã¤m
Ġeigen s
oten t
ko hle
Ġeinzugs gebiet
u ers
Ġc is
Ġstaats mann
ĠspÃ¤tant ike
Ġsongw riter
Ġp orn
Ġr ut
Ġmo os
Ġschiff fahrt
d an
Ġverd acht
Ġbeauftra gt
h Ã¤nd
ge fahr
Ġh Ã¼l
Ġas c
Ġreichstag s
Ġenter ta
Ġl etter
Ġschaff te
Ġgrund le
Ġdia kon
nation al
Ġbe hielt
Ġunter lagen
sbe wegung
Ġromant ik
a iner
x en
Ġmar g
Ġku ppel
Ġintelligen z
m ie
or us
Ġse kretÃ¤r
Ġat ari
ah lin
Ġweit aus
Ġdick e
Ġeuropameister schaft
Ġels ass
Ġeigen stÃ¤ndigen
gesetz te
Ġerober ten
ĠbenÃ¶t igte
al ie
Ġbe ha
Ġgesch Ã¤fte
Ġprakt ischen
Ġcode x
e b
sch ar
and ro
Ġwahl kreis
Ġgeneral sekretÃ¤r
Ġtheor etisch
Ġnum mern
Ġunbeding t
z ier
Ġw iel
ĠjÃ¤hr liche
Ġgall er
Ġleb zeiten
Ġsend ungen
Ġr ande
Ġli bert
Ġkraft werk
k etten
Ġto x
Ġand ro
ator ischen
Ġverm ieden
Ġmy then
Ġetym ologie
Ġcorpor ation
Ġschachspiel er
Ġau di
ten nis
Ġaus lands
Ġam bro
Ġab ges
Ġgeb Ã¤udes
Ġbet rag
Ġmil it
w ich
Ġv Ã¤ter
ne st
Ġfinanz iell
Ġvari iert
Ġbesetz te
Ġz ister
Ġl ow
Ġr ho
Ġst rich
Ġauf sicht
Ġc arb
Ġerh ard
ĠÃ¤hn elt
Ã¶ff nung
Ġmathemat ischen
Ġerober te
Ġmem bran
Ġblas on
Ġhosp ital
h aufen
Ġo ss
Ġkur ve
Ġitalien s
Ġfre y
raum s
Ġgu ill
Ġeis zeit
Ġimper ial
Ġclaud ius
Ġtai wan
Ġurug uay
Ġlu kas
man uel
Ġkan ten
Ġsand stein
Ġf j
Ġfal sche
ish ing
Ġmetro polit
Ġunter zeichnet
Ġunter drÃ¼ck
dem ar
teil ungs
Ġlandwirtschaft liche
Ġrech nen
Ġgenehm igung
comp uter
ĠgÃ¤nz lich
l isten
r ans
Ġs f
ing ischen
Ġeben da
Ġricht linien
Ġkor s
Ġsommer spiele
Ġzul assung
Ġjust in
Ġtob ias
Ġb ata
Ġher ze
Ġman tel
Ġleg ion
Ġkonf igur
ap s
Ġbo ten
Ġgel be
Ġkaiser liche
Ġwider spr
Ġvorles ungen
Ġpop ulation
ĠstÃ¤rk sten
Ġpanor ama
sch Ã¤d
Ġdie go
it ch
wei ch
ĠzerstÃ¶r te
Ġindividu ellen
Ġcas par
Ġmen del
Ġvert ik
polit iker
st yp
Ġlehr buch
Ã¶ch ent
Ġb aus
Ġwelt anschau
kr anken
Ġenerg ien
Ġverlang t
Ġliss abon
Ġein stein
Ġaus legung
Ġtr ik
Ġgeneral major
organ e
ĠschÃ¶n heit
anal yt
Ġkomposition en
Ġyor ker
is si
Ġag nes
Ġmechan ik
n ig
Ġbef reit
Ġkunst historiker
Ġmitglied schaft
Ġsab ine
Ġv ision
Ġp for
Ġma is
Ġger echnet
Ġschlag zeuger
Ġfass ade
i y
Ġd il
Ġk ogn
ar ium
Ġgl u
Ġmal a
Ġmerce des
a ine
Ġj ochen
ke ten
ĠmÃ¼ tter
jag d
Ġwolfen bÃ¼ttel
Ġer gaben
Ġauf teilung
Ġber th
fl Ã¼ssen
Ġro st
dem okraten
Ġand auern
Ġprodu kten
Ġepis oden
Ġaufrecht er
Ġw achstums
Ġle hm
Ġph ara
ĠwÃ¼rttemberg ischen
Ġerober n
Ġgefangen schaft
Ġly on
Ġnorweg ischen
ed om
Ġtau cht
kom bin
Ġhu ber
Ġpotent ial
verbr auch
ĠpalÃ¤stin ens
Ġma p
Ġgew innung
m assen
p he
fl ucht
Ġaut os
ĠgÃ¶tt in
Ġr uth
Ġsozial istische
Ġkol um
h Ã¼gel
Ġpro sa
Ġstatt findet
Ġnatur wissenschaften
Ġzie gen
Ġerlaub te
Ã¼ ger
Ġl ater
Ġrev ision
dar stellung
Ġregul Ã¤ren
Ġformul iert
ru p
Ġind ische
Ġstat istischen
Ġsalz burger
Ġgedenk stÃ¤tte
Ġkorre ktur
Ġv ik
ser klÃ¤rung
Ġbar n
Ġalter tum
Ġsem ant
Ġjup iter
Ġum kehr
og a
auf sicht
Ġz ins
Ġer wiesen
Ġzu stÃ¤nde
Ġha y
los er
Ġbas ic
ĠstraÃŁen verkehr
Ġausl Ã¤ndischen
Ġtheor etischen
ĠannÃ¤hern d
Ġe der
Ġka pp
Ġle hmann
Ġgeb ildeten
Ġerl itt
Ġmein er
Ġsexu al
Ġr ent
Ġent decker
ied lungen
Ġrecht er
Ġumfassen den
in haber
ste d
Ġvor lÃ¤uf
iz ation
Ġgegen zug
Ġleben d
Ġges agt
polit ische
Ġf lav
Ġc lin
Ġger ufen
Ġide ologie
Ġstellvertreten der
Ġunru hen
br Ã¼che
Ġwol ff
Ġkonf ront
Ġvinc ent
Ġsolid ar
in u
ĠÃ¼ber fÃ¼hrt
Ġkomm issar
Ġhal ber
Ġsitz ung
Ġbox er
Ġkur ven
Ġhal f
Ġvoll er
Ġwerk es
abr iken
bed Ã¼r
f elt
f unden
k ular
Ġbesitz ungen
b Ã¤
Ġk it
am ts
Ġkast ilien
sch es
Ġk iss
os is
Ġkon kret
Ġmar ion
Ġwa chs
Ġautor itÃ¤t
Ġra de
ĠkÃ¼nst liche
ĠwÃ¤l der
recht en
Ġanz eige
Ġgerichts hof
Ġsu k
Ġstaats anwalt
Ġhell igkeit
Ġerwer b
Ġtet ra
sch Ã¼tz
Ġerle bnis
feren zen
d ra
f ische
Ġqu asi
bet riebe
Ġwiderstand s
Ġletzter es
Ġbundesl Ã¤nder
Ġnic ola
Ġnachwei sbar
Ġl ug
gar de
Ġnov a
ĠverstÃ¤r kte
Ġjeden falls
Ġgeden ken
Ġopt ische
spl Ã¤tze
sph il
ĠhÃ¤us ern
Ġenz ym
en os
as a
Ġgr unde
iz id
Ġlin col
sg rad
Ġdisk ografie
Ġmos k
Ġworauf hin
f ug
de z
pp i
Ġu hren
Ġelektron ik
ge webe
Ġun iv
ĠfÃ¼ hl
iv als
Ġhe gel
Ġcom ed
Ġmet han
sh ip
Ġball ett
k els
Ġd ahl
Ġz onen
on n
ad es
Ġger ichtet
Ġgesp eichert
ĠÃ¼berw achung
Ġhenn ing
ĠgenÃ¼ gend
der e
Ġneu auflage
Ġschw eine
Ġsu pr
gew inn
Ġfa una
Ġfischer ei
tran sport
Ġentt Ã¤u
t licher
Ġs ass
al o
Ġl ess
Ġtr ennen
Ġtechn ischer
Ġstaats sekretÃ¤r
Ġveranst altungs
Ġinf o
Ġaf ro
Ġvorder en
Ġunver Ã¤ndert
hyd ro
t he
Ġin offiz
bl es
Ġverein igtes
kl id
Ġempf ang
Ġwitt gen
Ġzimmer mann
Ġein gangs
Ġzeit gleich
str asse
Ġrin der
Ġl un
Ġka te
ster b
Ġunivers um
Ġin fr
auf wand
Ġben annten
Ġkie fer
adel ph
d ok
Ġbo ote
Ġklass iker
Ġentscheiden den
Ġab el
Ã¤l ern
Ġchrist lich
Ġta sten
s et
Ġland schaften
Ġno te
Ġantarkt is
Ġer haltung
Ġern te
Ġwahr e
ĠsÃ¤ kular
Ġfrem de
Ġer pro
her z
Ġersch ossen
Ġwettbewer bs
Ġvolle y
ver stÃ¤r
Ġgut s
mon at
ystem s
Ġgord on
Ġgemein schaften
Ġfrei gegeben
Ġra f
Ġhol te
fra ktion
Ġlau ten
Ġreform ierten
Ġminister ium
Ġtrop ischen
Ġz Ã¼gen
Ġwaffen still
gefÃ¼ hl
ĠhÃ¤ft linge
t ypen
it at
Ġg ia
sk osten
imm ern
Ġper ser
ĠmilitÃ¤r s
Ġscha f
ĠbÃ¶ se
ĠtÃ¼rk ische
ĠstÃ¶r ung
Ġjord an
Ġpok als
es is
Ġge wachsen
Ġy am
Ġind iz
Ġwahr zeichen
Ġaufent halts
Ġar k
ĠhÃ¶ch stens
Ġair bus
Ġdahin ter
Ġan ker
Ġter ra
ĠauÃŁen politik
Ġillustr ation
Ġenter prise
Ġl er
Ġher ald
Ġform ation
Ġorgan ischen
bet on
Ġtal ent
f ia
j ektes
Ġb Ã¤nden
Ġm aut
Ġse kunde
Ã¤t te
Ġzeit ungs
Ġalger ien
Ġnel son
Ġk h
Ġhand werker
Ġsig is
Ġchir urg
m achen
Ġkomp at
Ġtre ff
Ġtre ppen
Ġlen k
beam ter
Ġregel mÃ¤ÃŁigen
Ġzeich nete
Ġmond krater
Ġfrei tag
ga te
Ġistanb ul
Ġbe fahren
m ans
ro b
skir chen
Ġfehlen de
Ġkennt nisse
k Ã¼rzt
Ġd ob
Ġw enzel
ers dorf
od ie
ath ol
ĠprÃ¤ dik
Ġsin kt
Ġt aten
ste ht
kl eidung
Ġgott heit
Ġkompl ette
Ġkonk reten
ch a
Ġst op
kr anz
Ġentsch Ã¤d
Ġfernse hm
Ġkern stadt
sh all
Ġbek ommt
geben d
Ġprogramm s
Ġange trieben
Ġrecht sext
ĠmÃ¼n dungs
Ġco sta
verb Ã¤nden
Ġp anz
Ġabsch ied
ĠÃ¶k umen
Ġzwischenzeit lich
ben de
Ġch ip
Ġgeb et
iger e
acht al
Ġr ug
el f
Ġgeringer en
Ġneug u
Ġfreder ick
Ġzuschau ern
glie d
Ġhar ten
Ġgemeinschaft s
Ġclaud ia
Ġs ka
enn a
vers icher
Ġdazu ge
Ġwirk samkeit
Ġerne uten
Ġten denz
Ġster e
Ġverz ichten
po ol
Ġproblemat isch
Ġse quenz
Ġlei chten
gar ter
yl en
zus ammen
st he
Ġw Ã¶chent
Ġh z
bl Ã¤ttern
Ġberu hen
f acht
t i
t Ã¤
is ierungs
Ġzu stÃ¤ndigen
Ġde g
Ġihr erseits
Ġgo vern
Ġhalb finale
Ġreag iert
Ġnikola i
Ġpennsyl vania
b eln
h Ã¼ter
Ġv aku
Ġge gangen
Ġt Ã¶t
wert ige
Ġwik inger
ĠgeschÃ¤fts fÃ¼hrer
Ġprivile g
bru chs
ĠgefÃ¤ ÃŁ
enz eichen
Ġgest artet
jÃ¤hr lich
ĠzulÃ¤ss ig
Ġn asen
Ġw andern
Ã¶ ne
Ġste m
Ġste wart
mo or
schiff fahrt
Ġeingemein dungen
Ġnick el
p ler
z ahn
Ġver sp
Ġmo hr
Ġabge setzt
Ġverkauf en
Ġrestaur ant
ĠvergrÃ¶ÃŁer t
Ġe uler
io xid
str and
ĠbÃ¼rger schaft
Ġphilipp inen
p n
s hausen
Ġh itze
Ġpra ger
Ġkommun en
ĠjÃ¤hr lichen
Ġluther ischer
ĠtatsÃ¤ch liche
ge sprÃ¤
ant hrop
Ġor l
Ġgleich berecht
Ġphil adelph
hy dr
Ġral ph
ĠtatsÃ¤ch lichen
Ġg Ã¤
Ġze ppel
ren ten
Ġbetreffen den
Ġs as
Ġt oren
Ġc um
Ġterritor ial
Ġauf stellung
Ġvert ritt
Ġraum schiff
Ġvern ichten
ĠungewÃ¶hn lich
Ġg and
Ġo swald
sk Ã¶rper
Ġgel t
Ġnatur al
Ġgu ide
Ġhom burg
Ġlandwirtschaft lichen
Ġkavaller ie
Ġsp art
Ġph p
Ġla de
Ġselten en
Ġzo o
r Ã¶m
Ġb ienen
Ġer setzte
Ġver lieÃŁen
Ġp hen
sen den
Ġfol glich
Ġant ib
kon zentr
Ġverfol gte
Ġgru ben
schei ben
Ġprophe ten
Ġkomprom iss
h Ã¤lfte
Ġso ul
Ġverkehr t
ĠmaÃŁ nahme
ĠtÃ¼rk ischer
Ġverteid igen
Ġetabl ierte
Ġver pa
Ġchrist licher
Ġnachbar n
Ġvollen det
Ġbm w
m ahl
ra dr
Ġnord afrika
Ġtag s
Ġinst anz
Ġpt ol
Ġcaliforn ia
Ġb ien
Ġad olph
Ġrel ative
Ġser ies
Ġed inburg
Ġbe c
Ġvor wort
du z
Ã¶hn en
dio xid
Ġsuff ix
Ġf ang
Ġh Ã¼r
Ġbe absicht
ian i
iss ions
Ġdez im
Ġkinder garten
ĠÃ¤hn lichkeit
Ġnet work
ĠqualitÃ¤t s
Ġfolgender maÃŁen
Ġtr il
Ġret ro
ĠpfÃ¤l z
st ahl
ach tete
Ġbundes amt
gef unden
Ġec u
Ġdisziplin en
Ġver f
Ġsch Ã¼tz
Ġvor arl
io us
Ġpart ie
Ġrh ythmus
Ġdis c
Ġgebiets reform
Ġschwie ger
sch rÃ¤n
ig on
Ġor f
Ġherr schte
Ġheut iger
st age
sch ungs
Ġm otto
Ġun weit
au me
fÃ¼r sten
bÃ¼ ro
Ġflag gen
Ġportugies ische
Ġvor sitz
Ġma o
Ġtechn ology
Ġschnitt stelle
Ġbesatzungs zone
Ġg eister
ic on
schrei bungen
Ġuner wÃ¼n
Ġwachsen den
Ġf ische
de ll
Ġar ter
ĠmÃ¼n ze
Ġech o
Ġkenne dy
s is
Ġa syl
ron g
Ġrel ation
Ġkas erne
ĠanhÃ¤nger n
ĠbÃ¶hm ischen
Ġb ahr
es ie
Ġka iro
Ġsed iment
Ġexempl ar
Ġi ren
Ġan schein
Ġauf fÃ¤llig
Ġgro s
Ġha ck
mar ine
Ġentfern en
Ġair port
zur eichen
Ġb olog
Ġbe enden
Ġex pression
Ġbef re
Ġanf Ã¤nglich
Ġpor zell
all y
Ġwelt kultur
Ġrad sport
Ġparlament ar
Ġsor gt
wider stand
Ġre cher
Ġor anien
a chs
y an
Ġd h
al ischer
Ġgrund riss
Ġper l
ipp e
Ġstutt garter
hil fen
in ation
ar in
Ġg la
Ġed it
Ġdorf es
Ġsonst igen
krank ungen
Ġaus fall
sp ra
sk unst
kon g
Ġkommun istische
ystem e
Ġbri ll
Ġengag ierte
ss el
Ġeinz us
Ġkatal ys
o ffen
Ġvor mals
Ġgem ahlin
Ġlauf enden
Ġnor der
Ġbeit ritt
Ġtisch tennis
im er
Ġall tags
Ġtem por
Ġgesp er
Ġliber ale
Ġbebau ung
Ġbe zeug
Ġe lli
Ġab leitung
fl Ã¼ge
fas ern
Ġschlag zeug
Ġreg ierungen
wend ungen
utt a
vert reter
Ġverz ichtete
Ġglie d
Ġbronze zeit
Ġkamp agne
Ġoh io
Ġch o
Ġmittel hoch
Ġgeeig nete
Ġge od
Ġt eich
ĠvermÃ¶gen s
Ġz Ã¤hne
is ionen
um er
ent rÃ¤ger
wer ts
Ġper ioden
Ġstr auss
ĠzerstÃ¶r ten
Ġod ys
ĠhÃ¤u pt
Ġra ym
Ġnacht s
Ġjazz musiker
a al
Ġin tel
Ġth em
Ġphil ologe
Ġsub sp
Ġbenutz ung
gefÃ¼ gt
p c
Ġver all
sp ol
Ġunter arten
bl en
Ġind ir
Ġren nfahrer
wer tes
Ġrot hen
Ã¼m mer
stift ung
n ummern
Ġunter liegen
Ġjahr el
Ġbehaup tete
Ġpeop le
h ire
Ġbe grÃ¼
Ġum so
ank a
Ġcon ne
geschicht liche
Ġge handelt
Ġt ap
fe ste
Ġsa arl
Ġalten burg
Ġelektr isch
Ġtodes datum
Ġkombin iert
Ġhung er
ĠschlÃ¤ gt
p ion
Ġb ind
Ġpol ens
Ġmode llen
gra ph
Ġkonzentrations lager
Ġa ga
sch le
be er
auf lÃ¶sung
Ġland gericht
Ġmehr zahl
br ett
Ġsk ir
Ġeingemein dung
Ġchan cen
Ġg reift
Ġauf zunehmen
ap ur
Ġwel ten
Ġdomin iert
Ġkonzept ion
ĠgroÃŁherzog tum
Ġa de
Ã¶ nen
ab stimmung
Ġrecht swissenschaftler
Ġjul es
Ġerne ute
Ġwall fahrt
Ġpas cal
Ġgul den
l Ã¤ngen
Ġa tel
qu al
Ġha ber
Ġlandes regierung
Ġtre ffer
Ġflo h
Ġrup recht
j as
Ġb w
eit ag
ro ller
Ġpro s
pf te
reu e
Ġindustrie lle
ĠerwÃ¤hn te
use hen
ĠjÃ¼nger er
Ġdirek ter
Ġanal ysen
Ġgeeig neten
Ġgedenk stein
Ġverall gemein
Ã¤ en
na z
Ġverfilm ung
Ġs we
al de
Ġzahl ung
Ġres onanz
Ġstaats ober
ĠgesprÃ¤ che
Ġakzept iert
ĠblÃ¼te zeit
Ġg ames
bin den
Ġhit s
Ġeg on
Ġnapole ons
ĠÃ¼berra schend
uni vers
Ġinfr ar
in um
Ġge druckt
Ġunter familie
Ġtheor y
Ġgewer b
Ġreduz ieren
v ide
Ġun zureichen
Ġwo hin
Ġwenn gleich
Ġjur istische
Ġw ov
it Ã¤re
Ġris iken
Ġom n
Ġshakespe are
k necht
Ġh arb
ĠÃ¼ber lassen
ob ilien
Ġspiel ern
Ġtradition s
Ġstat ist
Ġtrans form
Ġprozess or
Ġmass achus
Ġmaschinen bau
n iz
Ġa chsen
Ġh es
Ġohne hin
Ġvene zu
iz ierten
Ġwelt weiten
Ġtschech ischen
Ġhaupts itz
Ġverabschie det
Ġs ans
ung l
Ġt ert
he ad
ab a
Ġneben einander
buch autor
Ġlo y
Ġb iel
Ġm um
ute ten
vor stand
Ġsin ken
Ġmargar ete
grie ch
v on
Ġd n
Ġw allen
Ġk um
Ġverl angen
Ġun zu
be cker
Ġrelig iÃ¶s
Ġsm art
Ġpassag iere
Ġappro x
Ġz ink
Ġver mitt
Ġvert reibung
Ġgo e
ĠerzÃ¤hl er
Ġkonserv ative
Ġv ag
Ġl c
ul i
Ġsamm ler
s eil
Ġn os
Ġbo ule
ĠprÃ¤ sid
Ġsus anne
f unde
u it
rei z
Ġmon opol
Ġges ungen
b is
Ġf az
Ġk orea
ver kauf
hun dert
Ġbundes prÃ¤sidenten
Ġrh ythm
Ġfre quenzen
Ġwohn ungen
Ġklass ik
fiel en
g Ã¤u
st uf
Ġb rech
Ġst auf
Ġletz t
sg ruppen
Ġbi ologische
Ġstadtteil en
ĠergÃ¤n zen
Ġbeur teilung
ĠgewÃ¤hl te
ll ten
Ġf eiern
Ġg os
Ġt rie
us h
Ġcoun cil
Ġgala x
d igung
Ġa ge
ter ungen
ss atz
Ġrei fe
Ġco ok
Ġwill kÃ¼r
Ġgeist igen
ĠerwÃ¤hn ten
Ġkle e
mag azin
a gentur
s Ã¤tzen
Ġa pfel
Ġbe end
Ã¼ber nahme
Ġur laub
Ġsynchron sprecher
Ġzeitweil ig
Ġher zen
enn ungs
Ġth ei
Ġnutz ungs
Ġauft ritte
Ġpil z
er ing
ron ik
Ġmiss ions
Ġblason ierung
Ġjo y
Ġind ischer
Ġcom ics
Ġdefin ierte
heor etiker
n iveau
Ġbruder s
Ġkle ve
Ġtauf e
im il
fl otte
Ġverl Ã¤sst
bru der
mitglie dern
Ġopern sÃ¤nger
Ġign or
Ġver weist
ig o
Ġbes agt
Ġdreh te
gebir ges
Ġerlaub nis
Ġpiet ro
Ġdevel op
Ġphiladelph ia
Ġmassachus etts
ge mÃ¤
al ist
ub le
schie ÃŁen
ĠberÃ¼cksicht igen
ent urm
Ġc ia
ss icherheit
grund lage
Ġkommen den
ĠgewÃ¤hr t
Ġbehaup ten
Ġein gabe
Ġer teilt
Ġganz es
Ġansch lag
Ġreform ierte
Ġsilber nen
Ġadels geschlecht
ĠrÃ¶ hren
Ġnacht rÃ¤glich
d arm
auf bau
Ġqu int
Ġwochen ende
Ġaust ria
aktiv itÃ¤t
in den
Ġversch winden
Ġopt ischen
Ġimpul s
Ġdownlo ad
Ġedinburg h
Ġm ind
der ungs
Ġper fekt
Ġten or
p reise
Ġs und
ll y
Ġal k
Ġch er
ard i
Ġplan ungs
Ġgesamt heit
zy ten
funktion Ã¤r
in st
Ġan spiel
hl au
Ġben ennung
Ġstamm ten
mÃ¼ ller
Ġkre b
Ġzweit grÃ¶ÃŁte
Ġanger e
Ġoberbefehl shaber
Ġacht en
Ġkan onen
Ġsen i
verfol gung
ig ste
Ġho ckey
Ġarm ut
Ġmass aker
Ġentstehen den
Ġgegenseit ig
Ġsopr an
Ġle genden
Ġschum ann
Ġskis pr
u hren
Ġbl u
Ġsigis mund
Ġwov on
r ien
Ġc iv
Ġfr ieder
Ġstadt bezirk
mann schaften
unter such
Ġsystem atisch
Ġkol ben
Ġac ad
Ġkas par
Ġnahrungs mittel
Ġpak et
Ġgeschw ister
Ġstattf and
Ġg ue
Ġerh ob
haft ung
Ġproduz ieren
Ġprem iere
ĠausgeprÃ¤ gt
Ġye ar
ul ierte
reich sten
Ġgew ichts
Ġgrund wasser
Ġad al
Ġmechan ischen
Ġf p
Ġsch ah
uch er
Ġbau art
Ġschn abel
Ġehr e
is ions
Ġc z
ĠÃ¤hn licher
Ã¼nd igung
Ġv eter
at ro
im on
Ġkor ps
d ition
z iele
Ġm anga
Ġkron en
or ia
Ġer trag
Ġcol e
Ġpapst es
Ġtest s
Ġhotel s
Ġmount ain
Ġwiederher stellung
Ġs ark
pol is
Ġsicher te
Ġchar lie
Ġut op
ifik ations
Ġoff ice
Ġkomponen te
z heim
stÃ¤nd iges
Ġbro ther
bu sch
ĠpalÃ¤st ina
Ã¼ cher
Ġc n
Ġre ut
ĠrÃ¼ck gang
Ġarab isch
ĠselbstÃ¤nd ige
Ġausgew Ã¤hlt
ie ge
ir us
Ġch l
Ġis l
Ġr ick
la ster
st itel
ge hoben
Ġm auern
ur o
Ġl enz
ber at
Ġch il
stand ort
Ġru inen
Ġricht ungs
Ġmy ster
Ġk Ã¼rz
Ġi kon
al us
der ich
Ġschl Ã¶sser
Ġricht linie
greg ation
Ġeigen em
Ġhal bl
Ġfre unden
kin der
sch mer
Ġse h
Ġde uten
ĠÃ¼ber schw
fil ter
Ġverurs achen
Ġgebrau chs
ber ufen
Ġjan e
Ġbetrach tete
Ġverehr ung
Ġxii i
Ġs Ã¤tze
Ġn ob
hr a
Ġt Ã¤u
Ġc ry
Ġur l
ct ure
Ġche fred
Ġletzter er
Ġbeschrieben en
kat alog
Ġd all
Ġre ck
Ġir is
ĠfÃ¶r derte
Ġberech nen
Ġz aren
ĠmÃ¼n den
Ġfilm produzent
Ġakadem ischen
ĠschwÃ¤b ischen
c ont
Ġs achen
un s
Ġdem selben
Ġman chester
Ġwel ter
Ġgra y
Ġnatur forscher
Ġunmittel baren
Ġbom bard
Ġare al
au sen
ol id
lag te
Ġkant one
Ġparallel en
Ġamaz on
ĠÃ¼ber le
Ġfranz ose
Ġausge liefert
oph il
Ġwohn sitz
Ġvern ichtet
ĠlÃ¤ng ste
Ġbonap arte
Ġhe av
Ġmo st
Ġanti och
h im
Ġz igar
ber ichte
men sch
ver ei
wer tet
Ġhaupt artikel
Ġbild schirm
Ġerfolg s
Ġschein bar
Ġexpl osion
Ġhon ig
Ġud o
Ġoste uropa
Ġha v
Ġzuge hÃ¶rigen
arbeit ungs
Ġline are
Ġc rist
le ten
jÃ¤hr ig
Ġabsol uten
lau tern
Ġleib niz
Ġi oc
Ġkon ver
Ġmein ungs
techn ologie
Ġther apeut
Ġverz icht
r ingen
in ken
Ġst ipend
Ġwar f
Ġstand orte
Ġkreuz ung
Ġpass au
our i
Ġflu or
Ġperip her
Ġa gent
Ġa eg
Ġluft schiff
st rei
Ġberlin s
ĠfrÃ¼ hm
Ġherz Ã¶ge
Ġk Ã¤mpfer
Ġhe y
Ġvol ume
Ġrel iqu
ĠlÃ¶ schen
Ġbal ken
Ġparad ies
Ġlincol n
Ġbeend igung
Ġte uer
Ġkonst ante
ĠdÃ¶r fern
Ġbefind liche
Ġchromos om
k tes
ast ik
Ġbeton te
Ġpir aten
Ġim ag
Ġbl um
ast ra
Ġcal vin
Ġnorweg ische
Ġp ist
Ġer stellung
Ġmar athon
iz a
Ġbo u
Ġkop ie
Ġeinheit lichen
Ġgerman en
ĠlÃ¼ tt
angriff e
er ei
Ġm ahn
Ġam iga
Ġeinge zogen
Ġkais ert
Ġbrig ade
Ġst Ã¼rzte
Ġum gest
Ġbrit isch
Ġmark grafen
Ġnutz ten
Ġtrei b
a bend
i fer
Ġsp ark
ver Ã¶ffentlich
Ġme ll
Ġzy kl
Ġjon athan
z it
Ġn ac
Ġw ahn
rie s
ĠgroÃŁ stadt
Ġbau weise
Ġarn o
Ġformul ierung
Ġdiff erenzen
Ġantisemit ismus
Ġherze gow
u i
Ġb v
ff l
he ft
Ġverb orgen
Ġinter p
Ġjuni or
Ġerweiter ungen
Ġfal k
ĠansÃ¤ss ig
Ġleichtathlet in
Ġange fÃ¼hrt
Ġsei den
Ġvolks wirtschaft
Ġcont ainer
Ġerwachsen e
Ġkommande ur
k ische
Ġsp h
Ġsan ierung
a cken
Ġw ille
Ġh old
at um
Ġal kal
Ġde termin
ĠtÃ¼r me
Ġanten nen
k Ã¼nstler
s ucht
w Ã¤nde
Ġr b
Ġra tes
Ġentfern ten
Ġhervor ra
Ġsing ular
ĠmÃ¼s ste
Ġkn ie
zy linder
Ġlim es
ĠstrÃ¶m ung
Ġob jekten
Ġverein bart
Ġsal on
Ġerd gas
n Ã¤
ein halb
ren ce
Ġentspr ingt
Ġinhalt lich
Ġgitar ren
ĠeinschrÃ¤n kungen
Ġha ken
Ġhal ben
Ġinterview s
l at
Ġw ich
Ġt c
wer fer
Ġdar auff
pr Ã¼f
Ġgener alle
Ġcont rol
Ġgering fÃ¼g
h allen
n ie
o fen
r ent
Ġlu igi
Ġcornel ius
Ġsiedel ten
dr Ã¤ngt
rat or
stein zeit
for mer
Ġbew Ã¤lt
par tement
zeiger sinn
f und
x e
her ine
Ġthe ologischen
ĠgewÃ¤hr leisten
Ġmari anne
Ġin schriften
Ġbe achtung
Ġgew isser
Ġru hm
Ġsc ot
Ġleit ungs
Ġschu bert
Ġerzbist um
k k
Ġm og
Ġj Ã¤nner
ag te
m y
Ġum stand
Ġhan ser
Ġelfen bein
Ġdarauff ol
l eiten
Ġau x
Ġsch lie
ka sten
Ġalb ums
Ġa a
Ġn omen
Ġf rist
ent scheid
Ġem mer
mittel te
ĠgÃ¼lt ig
r or
Ġm iet
ant eile
ick s
Ġmass iven
Ġti ber
ĠgÃ¼ters loh
u ft
Ġf assen
Ġis abe
Ġbi om
Ġdu c
itter ung
ino is
en ergie
Ġp am
Ġge form
Ġgu ido
Ġwor ks
Ġkompeten z
Ġab wesen
Ġhin reichen
ĠmÃ¼n ch
spr Ã¼
Ġorganis men
Ġfein de
kap itel
Ġverehr t
Ġrefer end
Ġun gÃ¼nst
eig net
Ġzuge sprochen
Ġarbeits gemeinschaft
Ġauft au
Ġglo be
Ġhind u
Ġregistr iert
zien ser
ĠmÃ¶nchen gl
ha f
Ġwa sch
Ġdis ney
Ġkn o
Ġfehlen den
Ġfernsehm oderator
Ġge o
et tern
Ġseit lich
Ġwieder ein
Ġkr aut
Ġkontroll iert
Ġpek ing
Ġj av
Ġwei h
Ġha st
Ġinn ern
Ġsat ir
ĠreprÃ¤sent anten
Ġun ein
Ġre alen
Ġle ch
Ġgemein nÃ¼tz
ĠgrÃ¼n det
Ġstud ierenden
Ġstu art
ĠmÃ¶ bel
Ġval ign
mÃ¶glich keit
ĠÃ¼ brig
a ffen
Ġz Ã¼nd
at las
Ġt oll
ro se
Ġmon ten
Ġbehandel n
Ġzister zienser
h Ã¤ngen
Ġaus sterben
Ġbasket ballspieler
Ġvor jahr
Ġhin richtung
ym ph
onen ten
Ġr inge
Ġan nehmen
Ġher zustellen
Ġg if
hau ser
Ġdefin ieren
Ġo hren
Ġanz eigen
Ġgewerk schaften
Ġvand alismus
Ġbeet hoven
w achstum
Ġvor gaben
Ġmin or
zen en
ho heit
ĠprÃ¤ par
Ġabge kÃ¼rzt
Ġsen ats
Ġplan te
Ġehren mitglied
Ġbon if
Ġfas er
Ġmikro skop
ard t
Ġgel ben
vor schriften
ograph ischen
Ġfreiwill ig
Ġblo ÃŁ
op pel
Ġverwaltungs sitz
Ġans iedlung
osa urus
Ġsitu ationen
Ġjubil Ã¤um
un fall
Ġa ven
Ã¶ se
Ġse a
Ġse ek
Ġher ak
Ġaf ric
ĠfrÃ¤nk ische
ĠschÃ¤tz ungen
Ġb Ã¤umen
Ġgeb ietes
gl eichs
Ġschw Ã¤ch
vor kommen
min isters
Ġimm obilien
Ġbelieb ig
Ġgabrie le
ur kunde
Ġj ama
le uten
Ġschl oÃŁ
Ġzit at
s orge
Ġs itten
Ġr Ã¼d
Ġge we
Ġver ben
schutz es
g oten
Ġin gol
Ġgl anz
Ġgemein det
Ġx en
Ġkompon ierte
sbe ding
Ġunbek annte
ĠstrÃ¶m ungen
Ġdiagn ose
Ġencyclop edia
al om
Ġmon s
Ġbesonder es
ein kommen
Ġj imm
Ġc v
iel en
Ġho w
Ġhand schriften
pla y
orie s
geben den
Ġhyb rid
Ġskir enn
Ġa hm
Ġsch ell
Ġfl andern
Ġtur in
ĠkÃ¼r ze
Ġp iz
Ġver zeichnet
fl ut
Ġster be
pa are
dienst es
ace ae
Ġstammen den
Ġpubliz iert
Ġn ix
Ġan hang
Ġsch ritte
gesch Ã¼tz
Ã¤ng lichen
ond a
spro zesse
Ġkonzentr iert
ifik ationen
Ġsch mitt
om o
ru ine
ĠvÃ¶ ll
Ġkolle ktiv
Ġkonzip iert
Ġmitglied staaten
Ġzunehmen der
Ġrus sen
z ession
sa ck
ĠendgÃ¼lt ige
Ġslaw ischen
er ober
Ġv est
Ġver er
Ġsch licht
iz ip
Ġla c
Ġkin of
Ġschein en
ier i
Ġab teilungen
Ġges ucht
minister iums
Ġsul z
Ġkorres pon
Ġschieds richter
Ġcommod ore
h ir
Ġpf lichten
Ġbi ologischen
Ġstaats ange
Ġuhr zeigersinn
Ġgesamm elt
e f
rei ber
Ġdes sau
ro d
Ġsa is
Ġbundes ministerium
Ġcol um
Ġchin as
Ġtib et
Ġvalle y
Ġh eine
Ġso j
be handlung
Ġlandes hauptstadt
Ġcl ark
ĠtÃ¶ ne
ĠpÃ¤pst lichen
Ġd ots
de ter
ff end
Ġautob ahnen
Ġbewohn t
Ġbundesverdienstkreuz es
Ġwar e
Ġverm ess
Ġentsch eidet
Ġgeburts datum
Ġbolog na
Ġha ag
Ġair es
kap azitÃ¤t
Ġhart mut
Ġbom ber
Ġspezif ischen
ĠÃ¤gypt ische
Ġquant it
m att
Ġwirk ungen
en nfahrer
Ġb ond
Ġzu ges
ne um
zu cker
Ġkr isen
Ġstar ten
ĠeuropÃ¤ er
Ġbern er
leist et
Ġkanad ischen
Ġkem p
varian ten
g itter
Ġbe halten
ic ium
stra hlen
Ġkreis gebiet
lo he
ĠhÃ¤uf ige
Ġjung frau
spekt rum
ĠmÃ¶r der
ĠsÃ¼dk orea
qu in
od or
Ã¤m tern
Ġbrief wechsel
ĠstÃ¤nd igen
Ġbo sch
Ġlu b
Ġpart eil
stÃ¤nd lich
Ġsozial es
ĠmaÃŁ geb
ĠgewÃ¤hr leistet
Ġprivile gien
Ġabweich ungen
m lich
Ġn Ã¼tz
sch ne
ikan ten
ĠhÃ¤uf igkeit
ĠkÃ¶rper liche
char akter
Ġk j
Ġver e
Ġtr asse
fert igen
Ġmein te
Ġbilden den
denk male
feren ce
Ġsyd ney
Ġf w
Ġl Ã¤
ver antwort
Ġsc re
Ġvern ichtung
ĠgeprÃ¤ gte
schm id
er zeugung
Ġd ri
Ġein igung
Ġb ann
Ġal m
Ġch ans
Ġkr aus
Ġerl ass
ĠÃ¤lter er
stÃ¤r k
Ġj etz
om an
zahl ung
Ġrad ius
Ġverwaltungs gemeinschaft
at lant
um me
ĠfÃ¼r th
Ġhin denburg
Ġzusammen bruch
Ġbor de
Ġschwanger schaft
Ġp arl
Ġc ord
Ġaug sburger
grenz t
Ġh asen
at her
Ġr im
Ġfr iede
Ġbau arbeiten
rad io
Ġgest eiger
Ġend spiel
ĠausgewÃ¤hl te
radr ennfahrer
sch ach
pro be
Ġerne uert
Ġanerk annten
Ġhanse stadt
Ġar tem
Ġerst flug
Ġkreuz zug
Ġbefrei ungs
Ġkommerzie ll
Ġslowen ien
Ġraym ond
Ġg ard
Ġc es
ist s
Ġnord deutschen
Ġrom a
Ġgast ron
Ġanst alt
Ġpyram iden
okomot iven
m ast
Ġf ug
Ġh Ã¤fen
re akt
ag as
Ġel ite
Ġwieder kehr
bo ote
Ġlar ven
Ġkell y
Ġhier durch
Ġaustral ische
Ġseni oren
Ġb sp
Ġe bert
Ġmin nes
Ġbesch lag
Ġkommun alen
ĠkÃ¼nstler in
Ġindones ien
m achung
Ġhaupt werk
Ġco oper
Ġregion all
Ġletzten dlich
cc i
ĠverhÃ¤ltnis sen
Ġlangu age
a j
Ġver legte
Ġc ort
ot am
Ġgel enk
Ġnieder sÃ¤chsischen
Ġbra hm
Ġstat istische
Ġlandwirtschaft lich
Ġgrundle gend
en berg
in formationen
Ġder er
ar men
aus itz
Ġgew Ã¤ssern
Ġkn ei
Ġschm etter
Ġinteress iert
grÃ¤ ber
Ġin stand
Ġhann s
b at
p ie
Ġl utz
Ġho chs
ĠmilitÃ¤r ischer
ymnas ium
Ġkaisers lautern
Ġberat ung
rei tet
sp itz
Ġste ven
Ġgenau igkeit
Ġm dl
Ġgl att
av e
kraft treten
last ung
Ġdunk le
Ġerscheinungs bild
p arlament
Ġf ifa
Ã¤ ften
Ġse gment
fl ossen
Ġkeines wegs
Ġflen sburg
v et
Ġau d
Ġl ic
Ġl Ã¤ufer
Ġsa iten
ĠschÃ¶ pf
Ġstraf recht
Ġintens ive
n ist
o ste
and ie
Ġsp alten
ul ieren
att form
Ġorgan ismus
spro dukt
ĠkÃ¼nst lers
Ġhub schrauber
Ġangewand te
sch r
Ġeinwohner zahlen
gene hm
Ġherausra gende
m ach
in is
Ġte ll
ign on
mo der
Ġrosen berg
kul atur
k anz
l aut
m ission
Ġ uss
Ġa ser
Ġn ak
Ġb ande
Ġaus schluss
fahr ung
Ġlit urgie
Ġhar vard
liefer ung
Ġanf Ã¤ngen
Ġmolek Ã¼le
Ġfle cken
Ġb ib
ut ionen
Ġc t
Ġwir bel
Ġbu enos
Ġosman ische
Ã¼ chten
Ġfl ur
Ġpl Ã¤tzen
Ġricht ige
Ġkonflik ten
ĠÃ¼berzeug ung
Ġgeneralle utnant
Ġpro ben
Ġdass elbe
glie der
Ġunters uchen
ĠausfÃ¼hr lich
Ġentw Ã¤sser
Ġhydr aul
Ġmalt a
Ġeintra cht
Ġein ordnung
Ġl Ã¼cken
Ġde ll
Ġwei test
Ġort sk
Ġkreis lauf
wen der
ĠgÃ¶tt lichen
ĠarchÃ¤ ologe
Ġrob inson
Ġgehei men
d iss
Ġg w
ri o
Ġsport verein
ĠfrÃ¼her er
ony mus
Ġerwer ben
d ikt
Ġi sen
Ġdi mens
Ġzeppel in
Ġh ud
Ġbet ra
Ġreg iert
Ġbas ierend
gleich ungen
Ġviol ine
Ġroh stoff
v elt
Ġd ou
Ġe cken
ĠgroÃŁ vater
Ġjur y
Ġvorrang ig
Ġg hs
ĠfÃ¼nf te
rit ter
ib ald
ĠÃ¤uÃŁer sten
Ġwettbewer be
Ġkaukas us
Ġger a
Ġdi agramm
Ġcl ara
Ġjur istischen
ĠrÃ¼st ungs
f unks
g ingen
l ust
s icher
Ġf m
Ġne tt
Ġaus be
Ġwar s
Ġel se
Ġfor derten
Ġw etz
Ġrom s
Ġoffen sive
Ġkamer as
Ġgatt in
Ġher b
Ġinter ne
Ġdan ce
Ġmein t
ĠverhÃ¤ltnis mÃ¤ÃŁig
Ġstoff wechsel
Ġkolle g
Ġoff ic
Ġcast le
Ġvat ikan
Ġk ob
Ġp it
Ġse ktor
et tel
ro th
ik us
Ġgegen einander
Ġth y
Ġlei chen
unter schied
Ġbetre ut
Ã¶ cke
sp itzen
ĠÃ¼ber ge
Ġunter liegt
Ġum zu
ba idsch
Ã¼m m
ĠmÃ¶n che
Ġdemonstr ation
cul us
wusst sein
ĠaufstÃ¤nd ischen
Ġi an
Ġsch enk
vor gang
Ġkultur geschichte
Ġdre hen
Ġereig nissen
rel ig
ĠÃ¼bersch ritten
at al
Ġbr enner
fe der
Ġinter aktion
Ġfilm ografie
Ġgesetz gebung
vert rÃ¤ge
Ġmi ra
Ġz eile
Ġab c
ĠbÃ¼rger liche
Ġkommerzie llen
Ġlaus anne
h ein
Ġk lingen
at in
Ġr ache
Ġzu stÃ¤ndigkeit
and s
Ġnational h
Ġgil bert
Ġkn ight
ĠbenÃ¶t igten
Ġstill gelegt
schei de
Ġfoss ilien
Ġer halt
Ġe ug
pr esse
Ġausge gangen
Ġser ge
Ġhinter en
Ġangez eigt
c ons
Ġan knÃ¼
Ġgra ham
mÃ¤ÃŁ iger
Ġgene alog
wettbewer b
Ġkrak au
Ġkonson anten
Ġw acht
Ġbr icht
ken nung
bo ur
bet rieben
ĠhÃ¶ch ster
kont rolle
mÃ¼n zen
Ġhorizont al
Ġpfing st
g Ã¤ste
al on
Ġbe schaffen
Ġde ad
lager ungen
Ġpubl ishing
orient ierte
ĠhÃ¤r te
Ġerre ger
arbon at
Ġmcc art
l ande
og ne
Ġbest ritt
Ġpark platz
m ik
t ier
Ġge se
ut a
Ġdar win
Ġph Ã¶n
krank heit
Ġbefehl shaber
Ġfact o
st imme
Ġne bst
Ġst im
Ġpat ient
Ġdre am
Ġmiss issi
Ġerhe bt
Ġosman en
Ġisol iert
Ġsech sten
Ġbibli ographie
Ġbran chen
sch ke
Ġer mitteln
Ġunter halten
Ġgr ass
del s
Ġred akteur
Ġverbr ennung
Ġa sche
Ã¼ hle
Ġver blei
Ġvor wurf
im edia
Ġnord ischen
zahl ungen
Ġwirtschaft licher
Ġzentr aler
stit ution
Ġlehr te
Ġdomin ikaner
Ġkrank heits
h ib
ei lle
Ġaus wertung
ste hung
Ġes p
Ġfl Ã¼ssen
ign al
Ġfort gesetzt
Ġku pp
Ġbelg ischen
Ġt us
kon zert
Ġgener als
schw ar
Ġrake te
ann ung
os yn
Ġpro grammen
kon gress
Ġdisk urs
ĠvÃ¶lker recht
Ġzivil en
Ġkapital ismus
Ġhalbl eiter
ĠmÃ¶nchengl adbach
Ġn id
Ġn dr
Ġsch irm
Ã¶r t
Ġthe ologen
zu ge
i men
am ann
ver stÃ¤ndnis
Ġland shut
akt ive
Ġmei er
Ġabs or
Ġill inois
Ġschwed isch
Ġk amm
Ġauf sehen
Ġent lassung
Ġent nommen
id ad
arb eiteten
Ġschw immer
Ġkal i
ĠwÃ¶r tern
f la
Ġwei zen
Ġspiel tag
Ġol e
Ġaufge griffen
ĠrÃ¶m ern
Ġherzog tums
Ġkriegs verb
Ġverwaltungs gliederung
merk male
Ġtreu e
Ġgew Ã¼r
Ġjohn ny
Ġangriff s
f j
Ã¤n gung
ichter stattung
Ġkatastrop he
k reu
Ġer leben
ÃŁ ler
Ġvor kommt
Ġwar te
ungs gesetz
fÃ¼ llt
Ġhen ne
Ġwal deck
azz o
Ġisrael ische
Ġweiterentwick elt
o ugh
Ġn in
es p
Ġg Ã¼rtel
Ġst irn
Ġden selben
Ġkomp il
Ġdort hin
Ġcent ury
Ġunterricht s
Ġb recht
Ġch ild
gesch ritten
ign y
Ġaugust a
Ġflug gesellschaft
Ġdisk rimin
Ã¤mpf ung
Ġsinn es
ĠreprÃ¤sent iert
Ġglob alen
Ġcolle ction
Ġskla verei
Ġverschl Ã¼ssel
Ġvorbe halten
Ġfortpflanz ung
Ġporzell an
c la
Ġb eine
Ġl omb
Ġbe weisen
Ġhinter lassen
Ġsyn ode
wor tet
Ġisrael ischen
Ġn l
Ġbe au
Ġkosten los
Ġaf rica
Ġanb indung
Ġpul ver
Ġverschw unden
p ed
Ġv iew
fÃ¼hr enden
Ġbi ograf
Ġbab y
Ġkrei stag
Ġvent il
Ġconst ant
ic ation
lag ten
Ġper g
Ġsport arten
Ġgu ard
Ġsicht baren
Ġgelten den
Ġmult ip
Ġbundesverfassungs gericht
Ġh ip
Ġtr am
kl ein
Ġuntersch eidungs
mess ungen
Ġch ore
Ġfol ter
Ġschrift liche
Ġgeist ige
Ġlog istik
Ġbrem s
Ġkult iv
Ġbrig itte
ĠschwÃ¤b isch
Ġs ik
Ġst all
Ġar range
ct ions
Ġdir ect
Ġorgan ische
ĠgÃ¶ tz
Ġerfolgreich ste
ge wehr
Ġal ess
Ġum zug
Ġfin anzen
ĠhÃ¶ f
Ġfestge halten
b ett
Ġn im
ver schie
og o
Ġfe ster
Ġsel b
Ã¤s sen
Ġsil ben
Ġvergleich e
Ġgeograph ischen
ĠzurÃ¼ckge zogen
Ġbenachbar te
Ġmangel s
Ġneugu inea
ch o
Ġs inger
Ġst umm
eil er
Ġnov elle
Ġmiss ouri
Ġgon z
Ġher o
Ġgrund gesetz
Ġco urt
Ġtor onto
Ġnachfol gende
bil anz
Ġkenn zeichnen
Ġstreit igkeiten
Ġsar ah
Ġclub s
Ġruhr gebiet
Ġpred iger
Ġrezens ion
v illa
Ġaus genommen
Ġdurch schnitts
zu ges
Ġbest Ã¤nde
Ġkomplex itÃ¤t
ĠgÃ¼lt igkeit
Ġeingeb unden
c in
r ation
Ġp ann
Ġp ank
auf stand
Ġwein heim
Ġopt ion
Ġenthalten en
Ġmala ys
Ġge deutet
Ġunter haltungs
wer de
Ġsw r
Ġschie fer
prov inz
Ġostfries land
Ġbeibe halten
st hal
Ġr iga
Ġst rop
Ġcom e
ograph ien
Ġverm ark
Ġproduz ierten
Ġtheat re
Ġaser baidsch
Ġzu falls
re ll
op otam
Ġbr aut
Ġdr ingen
Ġpu erto
Ġsig mund
Ġanat omie
m ine
Ġs ug
Ġzu fÃ¤llig
Ġauf sÃ¤tze
Ġbrief marke
oz o
Ġbeam te
Ġziv ile
kon fl
Ġvorher igen
Ġax i
Ġtast atur
otent ial
Ġver geblich
Ġger Ã¤u
Ġqu eck
Ġkomp anie
Ġwechsel wirkung
mÃ¼n dung
Ġt ul
gen Ã¶ss
Ã¤m mer
Ã¤hn liche
Ġdt v
Ġdefinition en
Ġkonstit ution
Ġberth old
i ja
j ak
Ġge druck
Ã¶ ver
ger echt
Ġausge drÃ¼ckt
Ġat ome
Ġnational parks
Ġexist ierten
Ġrob in
Ġfak ten
Ġmig uel
Ġindo german
Ġauf satz
Ġab riss
ab ol
Ġhe art
si de
si ver
Ġmed ici
fr ank
Ġhistor ia
Ġerhe ben
Ġkenn zeichnung
ĠplÃ¶tz lich
Ġwittgen stein
en ten
wei chen
Ġda im
eist ung
ĠbÃ¼ ste
Ġselten e
ĠendgÃ¼lt igen
Ġbeam ter
Ġlaw rence
Ġsalv ador
Ġkorru ption
Ġm ore
Ġk ov
Ġsch ieÃŁ
Ġre uter
Ġfr z
Ġvor namen
Ġreg isse
ok a
els berg
Ġku h
Ġsign atur
ĠkÃ¤ se
Ġliqu id
ĠrÃ¼d iger
Ġsch emat
Ġal arm
Ġentsprechen der
Ġtodes strafe
Ġexempl aren
Ġmongol en
Ġbourb on
krist all
k owski
Ġver teilen
Ġkr an
Ġwahl kampf
Ġport ra
Ġempf angs
Ġtau ch
Ġbesuch ern
ĠgefÃ¼ llt
Ġpul s
ĠlÃ¼b be
r und
Ġr t
Ġitalien er
Ġdreh arbeiten
Ġpublik ation
Ġkommand ant
Ġtrei bstoff
Ġs es
ar um
Ġber kel
Ġth esen
Ġleben ser
gest alt
ĠerfÃ¼ llung
Ġbestre bungen
b uchs
f liegen
Ġk ri
Ġan onym
Ġwei de
Ġkr em
Ġdort ige
tr ans
berecht igten
Ġkonstit u
ĠgelÃ¶ scht
ĠsÃ¶l dner
o yd
at om
wo gen
Ã¼hr t
Ġzwick au
z em
Ġn n
Ġo pel
he uer
Ġab fluss
Ġus er
kon dens
Ġabge tr
Ġrelativ itÃ¤t
Ġradik al
ge lehr
Ġver de
Ġgeb aute
Ġro berts
Ġschrift lich
Ġca stell
ouver n
kÃ¤mpf en
Ġsteiger ung
y g
ie fs
Ġmar shall
Ġex klus
Ġober schlesien
Ġvert ical
Ġwerk zeuge
Ġgeneral stab
Ġpass iv
be arbeitung
Ġla sten
Ġx vi
Ġstar r
Ġdar stellte
dr Ã¼sen
br ingung
Ġzun ahme
Ġkreis freie
Ġamts sprache
Ġbill y
ĠÃ¼bert rug
m esse
ge ll
ra iner
se bene
sk ont
Ġhinzu gefÃ¼gt
Ġradik alen
Ġalth och
Ġm k
ot rop
Ġbr ennen
ap ost
ak el
Ġfol k
Ġgerman y
ĠkÃ¤mpf te
Ġaur el
Ġbabyl on
Ġskel ett
Ġzu frieden
Ġsep arat
Ġlang frist
Ġwohn en
Ġregen tschaft
Ġprot eine
Ġac et
Ġvide os
ĠbeschrÃ¤n kte
Ġsozi ologe
Ġingol stadt
o hr
Ġf ib
ar ie
ver d
Ġgest if
kop p
schrei b
Ġvorber eitet
ĠvÃ¶l kern
Ġv fb
Ġf Ã¤cher
Ġr end
Ġdrei fach
ap o
sbe z
Ġinstrument al
Ġadl iger
Ġt ac
ot z
Ġbegl eiter
Ġmississi ppi
b indung
Ġs ulf
kt iven
Ġmath ias
Ġerf Ã¤hrt
Ġrett ung
ĠmÃ¤cht igen
p ond
Ġk aus
Ġgesch windigkeiten
Ġlin n
Ġarch ae
Ġpaul i
Ġrestaur iert
Ġschick te
d ad
i ol
Ġn ein
Ġj am
Ġgr on
eld ungen
Ġbi ot
Ġke hl
Ġr Ã¤uber
Ġge fÃ¼hrten
ro y
Ġausge glichen
ogra phen
Ġsexu ellen
Ġinvest itionen
Ġschritt weise
artet t
Ġk rupp
se ktor
ind ien
geben de
Ġbef ra
wort h
itu de
krie gen
Ġs ess
Ġp si
Ġnie tz
Ġra ben
ĠrÃ¶ hr
museum s
Ġlux us
Ġtrain ings
Ġparad ox
Ġqueck sil
se en
Ġar ron
Ġth is
Ġange la
Ġschott ischen
Ġare a
Ġkreu zer
as on
Ġje w
Ġsa ck
Ġschw ab
Ġis lands
Ġpo et
Ġhal be
ĠkÃ¶ hler
bezir ks
ĠverknÃ¼ pfung
ergeb nis
Ġpat ron
kan te
Ġkreuz es
Ġcharakter istische
komm ando
Ġisra els
ĠdiÃ¶z ese
Ġvertret ung
Ġhels ink
Ġabwesen heit
w ski
Ġd ul
Ġst iel
qu et
elm ot
ĠmÃ¤nn licher
Ġverlang te
Ġeid genÃ¶ss
Ġinfl ation
Ġverpflicht ung
Ġfreis ing
Ġv l
lle y
Ġad rian
Ġgleich ungen
Ġbas ieren
pol e
kte ur
ling hausen
Ġunend lich
sp uren
Ġx aver
Ġroman en
Ġbro wser
Ġakadem ische
Ġindividu al
Ġbart hol
Ġflie hen
gem Ã¤lde
gewer be
Ġdevelop ment
Ġn ou
Ġge fr
Ġvor sicht
be stimmung
Ġla v
Ġhand werks
Ġmitte ll
Ġeigent ums
Ġnachbar schaft
Ġsec ond
ĠÃ¼berzeug t
Ġent hÃ¼
Ġfl achen
wir kt
wÃ¼r fen
Ġsat tel
Ġbapt iste
Ġa hn
Ġn annten
Ġp ick
Ġka stell
net te
ga den
Ġna gel
Ġerweiter ten
Ġheidel berger
Ġfreu de
Ġd iction
Ġk und
ben den
Ġzentr ums
Ġcharl otten
Ġpet ra
Ġdist r
kn ochen
Ġcapt ain
c ts
Ġw Ã¤hlt
Ġauf fÃ¤ll
Ġent fallen
sb ibliothek
ph asen
Ġverm utung
Ġtau sende
mÃ¼ hlen
Ġvereinbar ung
it um
Ġgen fer
Ġbest es
ogra fen
ĠstÃ¤r ken
w ache
Ġr hin
Ġgal il
Ġkommerzie lle
Ġein gliederung
al in
Ġsel e
Ġfrei staat
Ġrev ier
Ġgrab mal
d ifferenz
ber eichs
Ġfl ei
Ġverl ob
Ġgramm y
Ġadd ition
Ġanalys is
Ġtransk ript
le hen
ho se
Ġrecht swissenschaft
Ġkar p
Ġroman ischen
Ġll oyd
Ġeig net
Ġl um
Ġr ichten
Ġwe d
Ġehr enzeichen
ĠschÃ¶ pfer
ĠgefÃ¤hr dung
Ġluc ius
Ġgekr Ã¶nt
Ġne v
ant o
uf akt
Ġreal ismus
Ġprotest anten
Ġfinn ischen
ris iko
Ġentw arf
Ġb amb
Ġin krafttreten
ma chten
ĠÃ¼b te
Ġelement ar
Ġengel s
kla ve
Ġunterrich tet
Ġecu ador
Ġab bruch
Ġle verk
Ġvers Ã¶hn
ĠzurÃ¼ck gefÃ¼hrt
Ġra pper
Ġalt phil
Ġbri te
Ġleon ard
Ġafr ikas
ĠÃ¤qu ator
ft ig
fin ger
mit ten
Ġsh ang
ĠdÃ¤n isch
Ġgi pf
t re
x te
Ġe pp
Ġkr ater
Ġtra un
effiz ienten
Ġhawa ii
Ġgesch ick
sk rie
Ġverw ick
Ġbas ierte
Ġstr Ã¶
fas er
Ġmensch licher
Ġgau ÃŁ
Ã¶kon om
Ġvenezu ela
s rÃ¼ck
ov e
Ġnieder lagen
Ġlang fristig
othe k
ĠstÃ¤rk ste
Ġzwingen d
p hr
x x
st iegen
is mat
ent wurf
Ġab wechseln
gesch nitten
Ġjahre stag
Ġy our
Ġve b
ĠÃ¤uÃŁer ungen
Ġeinheit lich
Ġingen ie
Ġjon as
Ġsie ges
Ġdurch zusetzen
Ġzw ie
sk omm
Ġkan Ã¤le
Ġgesetz geber
abhÃ¤ng ig
Ġamt liche
Ġtau sch
ĠstÃ¤rker e
Ġtyr ann
Ġprominen te
chlor id
u bst
Ġflug zeugen
Ġkal if
schein ungen
Ġforst wirtschaft
Ġmanusk ript
Ġes c
reich ste
iss a
Ġangeb ote
Ġerhol ungs
Ġdorothe a
Ġvaku um
Ġk iew
or ter
eil chen
Ġfort geschritten
Ġren omm
Ġmat ri
Ġkapit ulation
ĠfÃ¤r bung
ĠpÃ¤dagog ik
Ġangek Ã¼ndigt
Ġsavo yen
Ġp ab
Ġer we
Ġsp ion
bl ut
gl o
Ã¤ch ern
preis es
Ġpubliz ierte
Ġbelieb ige
wirtschafts lehre
Ġt orn
ad r
Ġent zogen
Ġuni form
Ġspe ed
Ġgar den
Ġelektr ischer
Ġdoppel te
Ġelect ron
Ġble ch
ĠmÃ¼s sten
Ġsp ons
Ġen ten
bl au
Ġro ose
ha w
Ġy ell
Ġgleich wohl
Ġfunktion iert
anst alten
Ġbilden de
ĠselbstÃ¤nd igen
Ġprotag onisten
ĠannÃ¤her ung
er kennen
Ġz im
Ġz iffer
Ġm im
ier bare
ss ohn
Ġchrist entums
Ġmag nes
Ġgran it
Ġempfe hl
Ġun o
Ġp itt
Ġaus flug
man ager
Ġinter nen
Ġnorm an
Ġjer sey
Ġschei be
Ġinterv all
ĠansÃ¤ss igen
prof essor
Ġt wo
el i
Ġc row
Ġum stÃ¤nde
be stÃ¤nde
her e
Ġda k
Ġtri bus
Ġlau tete
Ġmerk ur
Ġsem inar
leg ion
h ip
Ġb inde
Ġv oc
Ġde utet
Ġvor geworfen
be fest
Ġfe atur
Ġmark tes
Ġkor an
Ġkor por
Ġreaktion s
Ġdub lin
s ons
Ã¤ er
ra c
se ek
Ġma ze
Ġgegen den
Ġsla wen
ge stell
as sten
Ġver zer
Ġan m
he ll
fl o
ho den
Ġtr om
Ġgest iegen
Ġlebens werk
fert igte
Ġjen en
hÃ¼t ten
ĠjÃ¼ lich
Ġein bezogen
Ġver Ã¶
Ġdurch zufÃ¼hren
ald o
Ġwen den
Ġinter vention
Ġke vin
Ġgenau en
Ġorient ierten
ĠgÃ¶r litz
Ġplast ik
Ġfok us
Ġg ate
ant rag
Ġsta de
Ġlin sen
kr ut
Ġwenig stens
Ġzeich ent
Ġeinsch Ã¤tzung
Ġfreund es
Ġuns icher
Ġleiden schaft
Ġbedeut sam
Ġmongol ei
Ġs ander
on ium
Ġfl ammen
ian e
Ġsk ala
Ġricht igen
Ġerwart ungen
g uss
Ġher stellen
Ġpu ppen
Ġkonzentr ierte
r ike
Ġauf nahm
Ġjahr tau
nah en
Ġkur d
Ġalt ona
Ġbuch stabe
Ġschla chten
por ter
Ġbegl eiten
Ġfro st
in as
Ġge flÃ¼gel
stand ard
Ġbas en
gegen Ã¼ber
Ġgot ischen
spart eien
Ġpor sche
Ġgelehr ter
ĠjÃ¼ng sten
Ġr ausch
pf arr
Ġra j
Ġoffizie ller
Ġprogramm ierung
Ġweite sten
phil osophie
Ġatel ier
Ġk ahl
Ġbis weilen
Ġwil fried
Ġelekt riz
Ġnav ar
pÃ¤dagog ik
b ass
Ġl us
Ġr m
Ġaus Ã¼bung
Ġvor liegt
wer der
ĠfÃ¼rst bischof
Ġschott ischer
Ġkart h
Ġver gabe
Ġst ie
us sten
Ġph arm
Ġhaupt amt
Ġcar ter
Ġstimm te
ĠausfÃ¼hr liche
Ġgesper rt
Ġein haltung
om y
ic ip
Ġhit ch
Ġauton ome
Ġengag iert
Ġbauf orm
Ġnavig ation
Ġl ys
Ġde ep
Ġdem gegenÃ¼ber
ru gen
Ġkon vert
Ġfl otten
Ġausgehen den
Ġgenehm igt
Ġzeug nis
Ġweltkultur erbe
c os
Ġb Ã¤uer
Ġin tend
Ġsch lieÃŁung
Ġe arth
Ġdurch fÃ¼hren
Ġbest Ã¤nd
Ġmor gan
ĠerÃ¶ff nungs
Ġinteress ant
Ġmemor ial
i ques
Ġg amb
ol z
iel te
Ġfr ame
Ġbo ard
kal k
Ã¤m ie
Ġverm uten
Ġheil igt
Ġthemat isiert
ĠerwÃ¤r mung
Ġbefe hle
f Ã¤hr
Ġge ordnet
Ġsch ock
op ro
Ġkom itee
Ġwahl beteiligung
ĠunterstÃ¼tz ten
Ġvari ationen
Ġkolumb ien
Ġkronpr inz
Ġs alt
Ġw itz
ur u
Ġh id
hun de
Ġhier arch
Ġweit reichen
Ġkommen d
ĠverstÃ¤r kung
Ġsig mar
h d
h ub
k ok
te am
au gen
Ġar kt
uch tet
Ġlei stete
old aten
Ġfahr plan
Ġbra unk
ĠkÃ¼nst lich
Ġoffen bach
wissenschaft liche
Ġther mod
Ġdun klen
Ġgrupp ierungen
Ġerneuer ung
Ġoden wald
Ġperform ance
Ġroose velt
z essen
Ġgen res
Ġmo on
Ġselbst mord
Ġersch lieÃŁung
Ġregen er
Ġbeauftra gte
Ġobl ig
Ġdarauffol genden
Ġs orge
ein t
Ġw ittel
Ġun it
Ġwur f
ĠÃ¼ber win
Ġreg imes
Ġherr schenden
Ġbef ug
Ġbein amen
Ġcolor ado
varian te
d amm
r il
Ġin tra
Ġgen etische
Ġzeit liche
Ġy u
Ġoffen er
Ġtrans zen
Ġhom er
Ġest land
ĠgÃ¼lt ige
Ġsau ber
Ġtoler anz
i tes
r annt
Ġm ick
Ġbe hr
Ġe ph
Ġste ffen
ĠfuÃŁball national
Ġkommun ale
Ġautor s
Ġright arrow
Ġgericht sbarkeit
Ġgeschaffen en
istr ation
Ġperspekt iven
Ġaustra gungs
Ġein geschlossen
ĠgroÃŁ zÃ¼g
Ġober lauf
dr ingen
Ġra im
feld es
da y
Ġarbeits losigkeit
Ġjahres zeit
mehr heit
Ġele on
ĠfrÃ¼hm ittel
Ġb oll
Ġin fin
Ġall jÃ¤hrlich
Ġgesch m
ĠfuÃŁball trainer
betrieb s
geschicht lichen
ĠgefÃ¤r bt
d le
v ik
Ġb p
Ġbei des
Ġfe ud
Ġman cher
Ġpo sen
Ġev aku
Ġproz essen
Ġsport s
gesetz buch
ĠÃ¶ffentlich es
ĠstÃ¤nd ige
Ġetabl ieren
initi ative
Ġun entsch
Ġgl y
ĠausfÃ¼hr ungen
Ġverbands gemeinde
Ġcru z
p ho
ar ien
Ġr n
Ġauf ruf
Ġka ll
be hÃ¤lter
ell meister
halt ige
Ġtran spar
Ġentfern te
Ġgerman ia
Ġguten berg
Ġmand at
Ġkonse quenzen
p end
ch tete
Ġge ehr
Ġsch ro
ist et
ess a
enn etz
Ġmenschen recht
ĠzerstÃ¶r en
Ġportugies ischer
Ġgefallen en
Ġkompeten zen
Ġamph ib
Ġgr aub
geb urt
Ġstadt bild
Ġkr Ã¼ger
Ġstr auÃŁ
Ġfeld herr
Ġpsych otherapie
Ġgesp alten
Ġeint reten
Ġsens or
Ġsound tra
Ġrd oba
t age
Ġge he
Ġst Ã¼tzen
wur st
Ġmodernis ierung
Ġisa ac
Ġhelsink i
Ġp ha
ĠÃ¼ber winden
man tel
Ġgem el
Ġnorm andie
Ġerwei tern
Ġrud i
Ġmotor radrennfahrer
Ġbefest igungs
in der
Ġz ag
Ġg f
Ġre b
Ġte ut
Ġwelt weite
Ġgelang ten
Ġdro hte
ĠbemÃ¼ hte
k ov
r ischer
Ġl ars
Ġkom eten
tt ung
Ġtri v
Ġindividu um
Ġquer schnitt
Ġlam bert
ĠÃ¶konom ischen
Ġmold au
Ġjimm y
g is
Ġs itt
Ġkl are
th eim
Ġnet ze
Ġt Ã¤ufer
Ġhin ge
Ġmo se
Ġfahr ten
Ġbro ok
Ġbus se
Ġausdruck s
Ġdra st
Ġmolek ul
Ġtirol er
Ġlandschafts schutz
b Ã¤ume
s icherung
Ġge hoben
Ġse y
Ã¤t ten
Ġpro ph
Ġank lage
Ġmon o
Ġfiel d
Ġmechan ismus
ĠglÃ¼ck s
Ġwachsen de
Ġcha os
ĠansÃ¤ss ige
Ġver wechseln
Ġdurch gehend
gend orf
ĠgehÃ¶r ende
gew ichts
Ġvorber eit
chem ie
Ġrebe llen
n ord
Ġh one
Ġkann te
zeich ner
Ġrh Ã¶n
ograph y
Ġschu h
Ġbyz anz
Ġcarol ine
Ġkontinent al
Ġbeliebt heit
Ġherzegow ina
Ġdistr ikt
f indung
Ġl eine
Ġe llen
all i
pp a
Ġalt griech
Ġverkehrs verbund
Ġkonkur renten
Ġneum arkt
Ġcommun ity
led ge
Ġt t
Ġdes igner
Ã¼n der
Ġfol gendes
Ġhol ger
ator y
Ġkomponist in
Ġziel en
Ġrevolution Ã¤r
Ġpet ro
regel ung
Ġgleicher maÃŁen
kie fer
ff ler
Ġgr aus
tel ang
sk ammer
Ġschul ze
alis ation
Ġir ischen
gn ern
Ġbir g
mechan ismus
ĠÃ¶konom ische
Ġprofess oren
Ġwest preuÃŁen
br icht
ĠbÃ¼rger recht
Ġimmer hin
Ġlebens l
Ġwinter s
Ġhalte punkt
Ġorche stra
Ġweitest gehend
Ġs ide
in ent
Ġam pl
Ġgesetz en
Ġfach hochschule
Ġproduktion en
Ġfal schen
Ġquar z
Ġvort rÃ¤ge
Ġharr ison
ĠfrÃ¼hmittel alter
p ter
Ġp Ã¶
Ġbe lle
Ġsieben b
Ġher man
Ġrhein ischen
Ġalle e
Ġrad weg
Ġpass iert
Ġwaffenstill stand
f al
Ġi w
Ġst Ã¤mmen
Ġversch ollen
Ġbest attet
Ġbemerken swert
gelÃ¶ sten
Ġv ita
sch mel
Ġi ra
Ġan a
ot ypen
Ġfrei es
iss in
Ġarbeit splatz
Ġrevolution Ã¤ren
Ġcomputer spiel
ĠtÃ¤ glichen
Ġmem o
Ġpropag and
mol ek
Ġinfrar ot
Ġgot ische
Ġmass ive
b re
in ts
Ġi k
am an
Ġre chnungs
Ġam ade
Ġvo y
Ġumwelt schutz
Ġvari ieren
Ġzustand s
Ġerforder lichen
Ġlandtag swahl
ig l
Ġmil itar
Ġelektro technik
Ġbod y
Ġbewaff neten
Ġbetreu ung
m is
Ġgr ant
Ġthe aters
Ġkurz fristig
Ġsicher ungs
Ġgeorg ien
Ġwellen lÃ¤nge
Ġgenutz ten
skap elle
Ġn au
st s
Ġw und
ol eum
Ġneben fluss
fr Ã¼chte
Ġnah er
ta x
Ġav ant
dimension alen
f us
it ies
Ġr atten
Ġge for
Ġunter art
Ġbek amen
Ġbar r
Ġein bau
Ġein ladung
Ġp sy
Ġge liefert
Ġbl Ã¤ttern
ĠgroÃŁ flÃ¤ch
sell er
wert ungs
Ġunters uchte
Ġfir m
Ġhu gen
fa ce
Ġblock ade
Ġgia com
Ġarron diss
Ġc lav
ke e
iz er
Ġra pp
Ġreicht um
Ġsud an
ĠhÃ¼t te
kamer as
b ock
Ġf au
Ġim pf
ing hausen
Ġher t
lin k
Ġro ÃŁ
Ġnord k
sph Ã¤ren
Ġverfol gen
ĠphÃ¤nomen e
ju gend
psych ologie
ĠausprÃ¤ gung
w angen
Ġz ers
Ġg uss
Ġre qu
sk reis
kon zern
Ġcar n
Ġniederschlag s
ein igt
de utung
ul s
Ġle d
Ã¼ck te
Ġneu ausgabe
polit isch
Ġarg umente
Ġkosm os
j ou
v re
Ġb de
Ġf ff
Ġun gew
Ġr id
Ġstadt gliederung
Ġvoll text
Ġgo eth
Ġsim pl
Ġbud get
Ġferr ari
z ten
Ġk ill
Ã¤ ums
Ã¼n en
Ġschl eim
Ġlehr stuhl
eme ster
Ġtrag Ã¶die
in formation
it iven
Ġst eig
Ġka f
vor stellungen
Ġkultur ell
kon zer
Ġmun ition
frÃ¤nk ischen
Ġb urn
Ġp fe
Ġg Ã¤rtner
Ġvor ort
Ġengl ish
Ġsozial demokraten
Ġverm eidung
Ġsitz t
Ġkraft stoff
Ġline aren
Ġgeringe m
Ġstif ter
gelegen en
kre bs
c r
h eid
Ġsogen annter
Ġzusammenh Ã¤nge
Ġa i
Ġe kl
Ġso ckel
Ġstadt ver
Ġbesch eiden
Ġli ver
ĠergÃ¤n zung
Ġheft igen
s zene
Ġpro ven
iger en
Ġherr mann
Ġreichs kanzler
Ġinform iert
Ġaussch lag
Ġvergleich bare
Ġdurchs etz
Ġath leten
s age
it on
Ġr ust
Ġsp rich
Ġab bas
Ġwall is
Ġhilfs mittel
Ġprogrammier sprache
z um
ein gang
Ġt orf
ol er
ri ct
Ã¶r der
Ġap ache
Ġinstall ation
Ġfoss il
Ġfestge legten
Ġw alis
Ġre ale
Ġber aten
Ġpro klam
Ġstadt kirche
Ġbahn hÃ¶fe
Ġerl itten
wert igen
Ġhy gien
Ġhimmel fahrt
Ġsau di
ĠstrÃ¶m ungs
Ġbezeug t
rei fer
bel astung
Ġged ei
Ġverbr annt
Ġklagen furt
k rone
der er
ver fahrens
Ġle gten
Ġste ppen
ib a
Ġger ald
Ġmil e
ativ es
Ġnot fall
kur ve
Ġquadrat kilometer
instr umenten
Ġillustr ationen
ĠÃ¤thiop ien
pion ier
Ġp d
Ġmit wirkung
le utnant
uss ion
mit tag
Ġalb anien
Ġpat tern
Ġeisen ach
Ġwert voll
Ġerd oberflÃ¤che
ĠfrÃ¼h zeit
Ġrec ord
ĠrÃ¤um liche
Ġpen del
Ġstau see
Ġasi atischen
Ġeindr ingen
Ġkarib ik
Ġmosa ik
Ġder iv
Ġdrei zehn
sen ergie
ĠÃ¼ber prÃ¼fung
Ġel ias
pro zesse
Ġpra cht
Ġos lo
Ġabsch lieÃŁen
ku pp
Ġindian a
Ġfraktion s
t ur
Ġw atten
as mus
Ġre pr
Ġant wer
Ġvi lle
Ġhar ris
Ġze us
Ġkonstru iert
Ġmission ar
ĠÃ¶k ologie
Ġmeeres spiegel
position en
Ġleverk usen
Ġb anner
Ġde klar
Ġwelt lichen
Ġgar de
Ġquad r
Ġentz Ã¼nd
a ur
Ġre ad
Ġre ellen
Ġjo an
sta frika
Ġindustrie ller
Ġgefangen e
ĠlÃ¶s ungs
Ġformul ierte
Ġv anden
Ġge wei
Ġkar in
Ã¼m ern
Ġglob ale
Ġfrag mente
Ġbehaupt ung
Ġzeichent rick
Ġjahr gang
werk es
Ġregel t
Ġir ischer
Ġrot ter
sper iode
Ġerlang t
Ġeinzus etzen
b ot
Ġd iana
Ġn eigung
Ġin wie
ia c
Ġausge Ã¼bt
ĠverfÃ¼ gten
Ġga ius
Ġbeschl Ã¼sse
Ġun ic
Ġma as
Ġnatur e
Ġreichs stadt
Ġsor te
Ġverkauf ten
Ġumben ennung
wes end
Ġskand al
Ġsier ra
j ur
st Ã¤mm
Ġt ont
ir che
Ġre eder
Ġwer der
Ġen dr
Ġspe er
Ġul mer
Ġhel ium
Ġord nete
Ġportugies isch
Ġmak ro
Ġreflex ion
p op
Ġb aker
sch Ã¤tzung
de fin
as ing
rÃ¤ bnis
Ġtr au
Ġverein t
Ġul rike
Ġverteid iger
ĠgemÃ¤ÃŁ igten
mÃ¼ hl
Ġsto ffen
ĠflÃ¼ss ig
Ġpur p
f lieÃŁen
i h
Ġb rechen
Ġr tl
be zeichnungen
Ġber chtes
Ġant reten
Ġhier onymus
Ġbras il
Ġethn ische
ĠkÃ¶r ner
ĠanschlieÃŁen de
Ġveranlas ste
Ġaufbewahr t
Ġstand orten
zahl t
Ġelekt ri
Ġmein en
Ġunver Ã¤nder
Ġantrieb s
ĠglÃ¤ub igen
Ġinszen ierung
Ġexter ne
ĠbegÃ¼nst igt
Ġboliv ien
f onds
st ritten
ar ag
Ġre x
Ġre zip
Ġet han
Ġstre ck
Ġas h
Ġprozess oren
Ġzens ur
Ġbott om
y z
Ġi ul
ĠfÃ¼ ll
Ġnach einander
Ġversch ul
Ġbau teile
ĠprÃ¤ gen
unde te
Ġverk Ã¼rzt
Ġangeb unden
wasser stoff
Ġpost um
Ġerschienen e
Ġeffekt iv
Ġprinc eton
Ġland au
Ġdre hm
lager ten
gangen en
Ġbus linien
ĠauswÃ¤rt igen
r unden
Ġv lad
Ġt rupp
nf l
Ġar am
ant ritt
Ġkunst geschichte
Ġbu ild
Ġlib anon
Ġspekt r
ĠvergrÃ¶ÃŁer ung
mÃ¤n ner
z ill
Ġn iel
ÃŁ el
Ã¶r n
Ġspan iens
Ġdefin ierten
ĠsÃ¤ ug
ĠgÃ¼ter verkehr
Ġverschl uss
Ġhed wig
Ġan einander
Ġan stren
Ġverein facht
Ġwen det
pro fil
ca ster
Ġpseud o
um fang
enz a
unde ten
Ġfilm fest
Ġdo uble
Ġmaterial s
ta fel
Ġangl o
ĠwÃ¤l dern
Ġgrundlegen den
Ġyell ow
f ro
Ġl j
Ġmit arbeit
zeit ungen
Ġange legten
Ġkam bod
ĠspÃ¤ter er
Ġgar y
Ġkommen de
Ġbon ner
Ġass em
Ġkrie gen
ĠverÃ¤nder ten
Ġer mittlung
Ġver altet
Ġdem oc
Ġgest attet
Ġabs eits
Ġpreis es
Ġstrahl ungs
b ant
Ġa hl
Ġan sbach
Ġab be
Ġwar schauer
ĠkÃ¼ chen
Ġwohl stand
Ġmerk el
Ġanz unehmen
Ġarab ien
o on
w ol
en ke
ge se
Ġf itz
og on
wer fung
ce pt
Ġhel ena
Ġerle bt
ĠdÃ¼sseld orfer
rÃ¶ hre
Ġhong kong
Ġin it
is st
Ġsp altung
ing h
Ġkon g
Ġgef asst
Ġpersonen verkehr
Ġcharakter isiert
Ġut recht
Ġcem bal
y ch
Ġfl ash
ma in
Ġjun kers
ott i
Ġlange m
Ġverloren en
Ġbeeinflus ste
Ġneuse el
Ġgert rud
Ġmagaz ine
Ġadjekt iv
st unde
Ġbe denken
Ġo strÃ¶m
Ġal ab
Ġbet reten
Ġsh ort
Ġmaxim um
Ġadl igen
Ġpromot ion
Ġv are
Ġw ut
Ġe schen
Ġversch lechter
ps is
Ġchristian e
ĠpreuÃŁen s
send ungen
Ġrestaur ants
hÃ¶r en
Ġzivil isten
Ġgebur ten
h att
Ġfl y
Ġgl ei
fas sten
Ġpa are
Ġinde pen
f lichen
Ġgen us
schrift steller
Ġhel ene
Ġbeseit igt
c op
Ġh ern
Ġc pu
Ġpart ien
Ġeu klid
Ġgeworden en
Ġbewahr en
n it
Ġh ort
Ġl f
de st
Ġr Ã¼gen
Ġst ier
ff ekte
Ġbewe glich
ĠangehÃ¶r en
f rucht
Ġh unt
are a
Ġkan als
Ġtal sperre
Ġverbr ennungs
v ie
Ġn iz
Ġf d
ger t
Ġum stellung
Ġuni verse
Ġwill em
spekt ive
Ġintegr ierte
Ġkard in
Ġmagdalen a
Ġnamib ia
Ġartem is
Ġz Ã¶
Ġacht er
Ġma ier
Ġhar te
ii i
Ġmeister schaften
oth y
Ġmes opotam
Ġbewir ken
spra xis
y ten
sch Ã¶pf
Ġk ipp
Ġun zul
al k
de x
Ġvor wÃ¤rts
stÃ¤t igkeit
Ġtu gend
Ġbrenn stoff
Ġmaximilian s
Ġf ahne
Ġj ade
Ġab gaben
ant z
Ġem ir
Ġrang le
Ġcap it
m aus
Ġn ase
Ġber ief
Ġkompl ement
Ġbegl eitete
histor ische
ar ab
Ġmin en
Ġbr ent
Ġteil nehmern
kehr te
pro jekte
Ġcl an
Ġbrie fen
Ġerle b
Ġmotiv ation
Ġberchtes gaden
al pen
Ġse els
Ġka y
Ġda zwischen
Ġgen ie
ph on
Ġzusammen fassung
Ġx ml
Ġem ma
Ġev ans
Ġwerk stoff
Ġkloster kirche
Ġwr ight
Ġhar old
Ġgast geber
ĠÃ¤sth etik
ad u
ate ll
Ġtyp us
nehm ung
Ġmis str
Ġschmal spur
k orn
w Ã¤hl
Ġein wei
ab schnitte
Ġma ck
Ġgemeinsam es
Ġverd au
Ġtau chen
Ġpopul ationen
Ġover line
ĠrÃ¤t sel
Ġf ant
it hmen
Ġka der
Ġlang jÃ¤hrigen
Ġkub ik
tex te
Ġf ieber
Ġun recht
Ġt ant
ent ag
ul ator
Ġber tr
Ġkaiser zeit
ĠstÃ¤dte bau
ĠprÃ¤sent ierte
zwe cken
Ġgenutz te
c raft
g y
j er
l ock
Ġw iss
Ġr ag
re gen
ul Ã¤re
Ġbegl eitung
Ġpian o
Ġell ip
Ġz orn
Ġaus ser
Ġgeb auten
Ġsen ior
Ġwh at
pat ron
Ġel m
Ġversch lei
Ġhaupt quartier
Ġide ale
techn ische
Ġaufzu bauen
Ġfur cht
Ġpix el
a il
Ġs gb
ag or
auf kommen
Ġmich igan
Ġgolden er
Ġpartement s
Ġbeherr scht
Ġgeste uert
ĠÃ¼berd ies
ĠherkÃ¶mm lichen
a tem
Ġs Ã¶hnen
se gel
Ġfern ando
Ġbesie gte
Ġaltphil ologe
y te
Ġun sicht
at ischer
Ġi ser
Ġst ief
halt igen
Ġbas ler
Ġwahl recht
bei spiel
Ġaktu alisierte
Ġindividu ell
ĠlÃ¤ng st
Ġvolks abstimmung
Ġprojekt s
Ġkupfer stich
Ġscheiter ten
Ġverringer n
Ġtax on
Ġske pt
Ġborde aux
Ġhitch cock
Ġa schaffen
Ġh od
Ġg aler
id ierte
Ġqu in
kÃ¼ hl
Ġkalk stein
w etter
en ch
Ġh esse
Ġunter haltung
Ġliteratur wissenschaftler
ka teg
Ġsk il
ight arrow
ment s
Ġschm alen
Ġinnen raum
ĠbevÃ¶lkerungs dichte
irekt or
Ġweihn achten
Ġartik els
ĠeinschrÃ¤n kung
Ġgarnis on
Ġregionall iga
Ġt Ã¶n
Ġan liegen
Ġunter nommen
Ġgeb oten
Ġzusammen gesetzt
Ġkreis freien
organ ismen
ĠbrÃ¼ dern
ĠgefÃ¤hr lich
Ġviertel finale
vorsitzen den
Ġt in
Ġsein erseits
Ġmon aco
Ġwest licher
spr Ã¼fung
Ġper fe
Ġlebens mitteln
kom peten
Ġrevolution Ã¤re
Ġmad agas
Ġdach au
Ġp es
Ġl anden
is ma
os er
be ge
Ġfl us
Ġerst ausgabe
Ġpart ikel
Ġbi athl
Ã¤hn en
Ġlokomot ive
b urn
d inger
st Ã¼r
Ġr iet
eit h
Ġch op
Ġthe o
Ġbau t
Ġstaat licher
verein bar
Ġrie mann
Ġfung ierte
Ġgeograf ische
Ġgel assen
Ġstatt gefunden
Ġmot ors
fel dern
Ġauft rieb
Ġerzeug te
ĠbemÃ¼ ht
Ġskandinav ien
w i
ab stand
Ġwal k
Ġmu schel
Ġfreund in
wart ung
ĠschÃ¶ pfung
Ġergebnis sen
Ġbelieb igen
Ġfla schen
Ġb t
Ġre pl
Ġra ster
Ġgeorg ia
Ġep ochen
Ġmer se
Ġhervor gehoben
ĠlÃ¤ng sten
Ġanat ol
Ġlith ium
Ġs is
Ġe ulen
Ġgesch Ã¤tz
Ġflug hÃ¤fen
Ġcol span
schw anz
Ġliber al
Ġabst Ã¤nden
Ġstan is
Ġfasch ismus
Ġanschein end
Ġein marsch
od i
Ġdar zustellen
Ġfest stellen
ka iser
ct us
ĠkÃ¼nst lichen
Ġvir en
ĠbeschÃ¤ft igen
Ġminim al
Ġst orm
gr ession
Ġfl og
Ġmet am
gegen stÃ¤nde
Ġbad ischen
Ġinspir iert
Ġun sterb
as iens
Ġeinge laden
Ġkin dert
Ġkrit erium
gra de
Ġsem in
Ġbag dad
p in
z im
ir i
Ġab wasser
ĠfuÃŁballspieler in
Ġungar isch
Ġalbert o
Ġwink ler
ref lex
Ġanre gung
ĠverÃ¶ ffent
Ġvare psilon
sch Ã¤r
Ġj ans
Ġklein sten
Ġinter disziplin
Ġlebens dauer
ĠbÃ¶ sen
Ġmel dete
Ġgru be
empf ind
Ġsch im
eit igen
Ġdem okraten
iv ision
Ġkl eist
Ġhervor gerufen
ĠbevÃ¶lkerungs zahl
ĠstaatsbÃ¼rger schaft
Ġkorres pond
Ġintro du
el ementen
ÃŁ ner
Ġmar in
wie se
Ġange sprochen
Ġkor rel
Ġjer em
har z
as is
ber ater
ern te
ĠgroÃŁ raum
Ġwelt bild
Ġbesch uld
Ġfest schrift
Ġfa den
Ġdo kt
Ġamts gericht
Ġglo cke
ĠÃ¶r tliche
Ġprotestant ische
Ġschre ck
h de
ad ung
stra fen
Ġco ck
ct ic
Ġtschech ische
Ġerf assen
Ġull stein
strateg ie
t Ã¼r
Ġg riffen
Ġt as
utsch en
hÃ¶ hung
ange hÃ¶rige
Ġfas ern
Ġl anz
Ġbe stellt
Ġab schl
Ġwer n
old s
ac i
Ġstud ieren
Ġneut ral
Ġgleichnam ige
Ġwirkungs grad
Ġl ach
de d
om aten
Ġde k
ma yer
vor steher
pro p
Ġpo llen
ond o
Ġfall schirm
Ġbefrei en
Ġschall platten
Ġvertrau ens
Ġmosk auer
Ġpharm ak
Ġan pass
ro it
all a
Ġstein en
Ġtitel n
Ġjap ans
Ġlis a
Ġenterta in
c io
h op
u sten
Ã¼ chter
ĠÃ¼ber gab
Ġunter legen
Ġgesch ieden
Ġaugust inus
Ġkurz film
Ġleon ardo
Ġgotth ard
ma il
ĠfÃ¶r dert
Ġunmittel bare
Ġgeh or
Ġtat ort
Ġach tel
Ġing rid
Ġhilde gard
ĠmÃ¤hr en
z Ã¼glich
sch nell
Ġk ansas
Ġh uf
Ġg hz
Ã¶ dien
il dert
ien te
Ã¤hn lichen
Ġfeld marschall
Ġlett land
Ġeins Ã¤tze
it ime
Ġse kret
im s
Ġkom iker
Ġsh utt
ĠbÃ¶ hlau
Ġtheater stÃ¼ck
kÃ¼ hlung
Ġgepf legt
Ã¼ s
og l
mer t
Ġind ustr
pro ben
co urt
Ġschul dner
Ġbele uchtung
Ġinnen minister
Ġheimat stadt
Ġdyn amik
oko lle
ausschuss es
Ġmetropolit an
Ġquecksil ber
Ġaus nahm
Ġbundes straÃŁen
Ġhinter lieÃŁ
Ġpe er
Ġbayern s
Ġarn dt
Ġaustral ischen
ĠspÃ¤t got
Ġspekt ral
Ġadr essen
ĠprÃ¼ fen
Ġm dr
Ġdie tz
Ġte s
alen te
Ġober pfalz
Ġschm iede
Ġunters agt
Ġlau te
Ġentstehen de
Ġprinc ip
j ar
isten ten
haupt mann
Ġdenk mÃ¤ler
Ġmount ains
Ġbeige tragen
Ġunentsch ieden
Ġf ou
Ġun n
Ġp neum
ĠÃ¼ber prÃ¼ft
Ġfest legung
Ġson de
Ġdrit tes
Ġerfor scht
Ġara ber
wur zel
ĠflieÃŁ gewÃ¤sser
Ġn ir
Ġge sichts
eit ige
ÃŁ ten
reu en
ym an
Ġspeich ern
Ġdrag on
Ġt abl
ver y
itt a
Ġbuch druck
Ġaufge fasst
Ġhan sen
Ġmuslim ischen
Ġvorarl berg
e us
Ġin land
Ġte ss
orn o
Ġang riffen
bus se
wahrschein lich
Ġne on
Ġch art
end t
Ġget rock
haft igkeit
Ġplat ons
Ġverb rauch
Ġdi agon
fass ade
Ġjeder zeit
Ġgetr Ã¤nke
Ġserb ischen
Ġtschechos lowak
Ġglaub te
Ġpsycho analyt
Ġg ov
Ġer rang
Ġan ime
ation al
Ġwer fen
Ã¤l te
ĠreligiÃ¶ ser
inten do
ĠkÃ¼nft ig
oin land
Ġgescheiter t
Ġr oche
el y
Ġbe handlungs
ser ver
Ġher m
Ġte atro
Ġgrund sÃ¤tze
Ġuntersch rift
Ġluft hans
Ġtem po
Ġgut achten
Ġengland s
Ġaf ter
Ġbetroffen e
Ġmobil funk
Ġgreif swald
Ġfp Ã¶
p osten
at iker
Ġol af
Ġplat in
Ġvize kÃ¶nig
Ġbibl ischen
Ġantwer pen
g Ã¼
Ġn intendo
st au
Ġschw achen
Ġerheb ungen
Ġverbreit ungs
Ġextr eme
Ġafr ikanische
Ġlandtags abgeordneter
Ġvor schlÃ¤ge
lager te
Ġwesent licher
Ġzie mlich
Ġbereit schaft
Ġlande steil
Ġdeut licher
Ġf t
Ġt all
ach teten
le v
Ġen dem
Ġlie dern
Ġind iens
Ġgest richen
Ġster b
Ġserv ices
Ġsec ur
Ġstren ge
ein nahmen
Ġz ungen
Ġg unsten
Ġr na
Ġzu stÃ¤ndige
Ã¤n gel
Ġab fahrt
Ġqu a
Ġwes wegen
Ġbelg ische
ĠÃ¶kon omie
Ġmut maÃŁ
roskop ie
Ġortsk ern
Ġgeehr t
m old
ch el
an iden
Ġsch ir
Ġkl ett
Ġgeb Ã¼hren
od y
Ġgew inner
Ġober hausen
Ġlu ck
Ġed win
get reten
Ġari z
Ġschrau ben
spol izei
Ġadal bert
Ġberkel ey
d rei
ĠsÃ¼d deutschen
amer ikanische
wÃ¼r dig
Ġerfolgreich er
Ġumgeben den
Ġlichten berg
Ġisabe lla
at ing
Ġkn ow
Ġgi org
pum pe
Ġlufthans a
Ġk elten
or tes
ter e
rÃ¤ dern
Ġstu ck
Ġfrieden svertrag
Ġkrei de
sÃ¤chs ische
misch ung
bereit schaft
Ġver arbeiten
hal s
Ġfl ossen
Ġwelt wirtschaft
Ġbau tzen
Ġkehr t
Ġprote ste
got tes
Ġl ichts
ĠÃ¼ber see
ok er
Ġstein m
Ġnot ation
produ kten
iedel n
Ġexpl or
falt igkeit
ĠkrÃ¶n ung
Ġversa illes
Ġglu co
zuge hÃ¶rigkeit
Ġent wÃ¼rfe
Ġvol t
ĠrÃ¼ck sicht
Ġhil ft
schw ein
vent ionen
Ġpan ama
ssystem e
seit ig
Ġtestament s
Ġkarik atur
in halt
be gl
Ġjust us
Ġback stein
Ġdurchs etzung
Ġhind urch
Ġbrutt oinland
Ġboule vard
l ig
l aus
Ġun Ã¼ber
al u
sb acher
Ġstr ess
Ġlat in
par ameter
Ġopt ik
Ġgeburts haus
Ġess ig
ĠÃ¤quival ent
Ġamade us
Ġm cl
sp at
Ã¤r zte
od on
Ġsal omon
Ġgesamt flÃ¤che
Ġkonzer ten
m ud
in fekt
