{"!":0,"\"":1,"#":2,"$":3,"%":4,"&":5,"'":6,"(":7,")":8,"*":9,"+":10,",":11,"-":12,".":13,"/":14,"0":15,"1":16,"2":17,"3":18,"4":19,"5":20,"6":21,"7":22,"8":23,"9":24,":":25,";":26,"<":27,"=":28,">":29,"?":30,"@":31,"A":32,"B":33,"C":34,"D":35,"E":36,"F":37,"G":38,"H":39,"I":40,"J":41,"K":42,"L":43,"M":44,"N":45,"O":46,"P":47,"Q":48,"R":49,"S":50,"T":51,"U":52,"V":53,"W":54,"X":55,"Y":56,"Z":57,"[":58,"\\":59,"]":60,"^":61,"_":62,"`":63,"a":64,"b":65,"c":66,"d":67,"e":68,"f":69,"g":70,"h":71,"i":72,"j":73,"k":74,"l":75,"m":76,"n":77,"o":78,"p":79,"q":80,"r":81,"s":82,"t":83,"u":84,"v":85,"w":86,"x":87,"y":88,"z":89,"{":90,"|":91,"}":92,"~":93,"¡":94,"¢":95,"£":96,"¤":97,"¥":98,"¦":99,"§":100,"¨":101,"©":102,"ª":103,"«":104,"¬":105,"®":106,"¯":107,"°":108,"±":109,"²":110,"³":111,"´":112,"µ":113,"¶":114,"·":115,"¸":116,"¹":117,"º":118,"»":119,"¼":120,"½":121,"¾":122,"¿":123,"À":124,"Á":125,"Â":126,"Ã":127,"Ä":128,"Å":129,"Æ":130,"Ç":131,"È":132,"É":133,"Ê":134,"Ë":135,"Ì":136,"Í":137,"Î":138,"Ï":139,"Ð":140,"Ñ":141,"Ò":142,"Ó":143,"Ô":144,"Õ":145,"Ö":146,"×":147,"Ø":148,"Ù":149,"Ú":150,"Û":151,"Ü":152,"Ý":153,"Þ":154,"ß":155,"à":156,"á":157,"â":158,"ã":159,"ä":160,"å":161,"æ":162,"ç":163,"è":164,"é":165,"ê":166,"ë":167,"ì":168,"í":169,"î":170,"ï":171,"ð":172,"ñ":173,"ò":174,"ó":175,"ô":176,"õ":177,"ö":178,"÷":179,"ø":180,"ù":181,"ú":182,"û":183,"ü":184,"ý":185,"þ":186,"ÿ":187,"Ā":188,"ā":189,"Ă":190,"ă":191,"Ą":192,"ą":193,"Ć":194,"ć":195,"Ĉ":196,"ĉ":197,"Ċ":198,"ċ":199,"Č":200,"č":201,"Ď":202,"ď":203,"Đ":204,"đ":205,"Ē":206,"ē":207,"Ĕ":208,"ĕ":209,"Ė":210,"ė":211,"Ę":212,"ę":213,"Ě":214,"ě":215,"Ĝ":216,"ĝ":217,"Ğ":218,"ğ":219,"Ġ":220,"ġ":221,"Ģ":222,"ģ":223,"Ĥ":224,"ĥ":225,"Ħ":226,"ħ":227,"Ĩ":228,"ĩ":229,"Ī":230,"ī":231,"Ĭ":232,"ĭ":233,"Į":234,"į":235,"İ":236,"ı":237,"Ĳ":238,"ĳ":239,"Ĵ":240,"ĵ":241,"Ķ":242,"ķ":243,"ĸ":244,"Ĺ":245,"ĺ":246,"Ļ":247,"ļ":248,"Ľ":249,"ľ":250,"Ŀ":251,"ŀ":252,"Ł":253,"ł":254,"Ń":255,"Ġt":256,"Ġa":257,"er":258,"in":259,"Ġth":260,"Ġo":261,"Ġs":262,"Ġthe":263,"Ġf":264,"re":265,"Ġc":266,"en":267,"on":268,"is":269,"an":270,"Ġw":271,"ne":272,"at":273,"Ġof":274,"Ġp":275,"Ġb":276,"Ġm":277,"it":278,"es":279,"ed":280,"or":281,"ou":282,"al":283,"Ġh":284,"Ġin":285,"Ġn":286,"Ġone":287,"Ġan":288,"ar":289,"Ġe":290,"ic":291,"Ġz":292,"Ġd":293,"ero":294,"Ġzero":295,"Ġl":296,"Ġand":297,"ing":298,"ve":299,"Ġto":300,"ion":301,"as":302,"ig":303,"ine":304,"om":305,"Ġtw":306,"Ġtwo":307,"Ġnine":308,"il":309,"igh":310,"Ġse":311,"ive":312,"Ġg":313,"Ġis":314,"le":315,"ight":316,"our":317,"ent":318,"Ġre":319,"us":320,"ree":321,"ro":322,"Ġsi":323,"am":324,"Ġeight":325,"ol":326,"Ġthree":327,"Ġfour":328,"Ġfive":329,"ac":330,"th":331,"ver":332,"ly":333,"Ġsix":334,"ven":335,"un":336,"Ġbe":337,"Ġfor":338,"ation":339,"Ġr":340,"ad":341,"Ġst":342,"st":343,"ge":344,"Ġseven":345,"Ġwh":346,"ter":347,"Ġas":348,"ct":349,"id":350,"ur":351,"se":352,"ch":353,"ul":354,"im":355,"Ġare":356,"Ġal":357,"ir":358,"ut":359,"ow":360,"Ġk":361,"el":362,"ith":363,"em":364,"Ġfr":365,"Ġwas":366,"op":367,"Ġj":368,"ot":369,"ce":370,"Ġor":371,"and":372,"Ġon":373,"Ġun":374,"Ġwith":375,"ay":376,"ist":377,"Ġit":378,"Ġcon":379,"Ġv":380,"Ġch":381,"ere":382,"Ġde":383,"Ġby":384,"oun":385,"ap":386,"ian":387,"Ġfrom":388,"ies":389,"ity":390,"Ġmo":391,"Ġcom":392,"der":393,"um":394,"iv":395,"Ġthat":396,"et":397,"Ġat":398,"Ġpro":399,"if":400,"ers":401,"Ġhe":402,"ain":403,"est":404,"Ġy":405,"Ġex":406,"Ġne":407,"res":408,"Ġsu":409,"oc":410,"ab":411,"Ġsh":412,"ill":413,"ome":414,"ate":415,"ip":416,"os":417,"ich":418,"ther":419,"qu":420,"ia":421,"Ġar":422,"Ġhis":423,"Ġsp":424,"ave":425,"od":426,"Ġtr":427,"ak":428,"ial":429,"art":430,"age":431,"ish":432,"Ġus":433,"og":434,"ated":435,"ment":436,"ag":437,"Ġle":438,"all":439,"ant":440,"Ġen":441,"ard":442,"ber":443,"ud":444,"Ġinc":445,"ort":446,"ld":447,"Ġhave":448,"Ġwhich":449,"ens":450,"ess":451,"Ġam":452,"Ġpl":453,"ical":454,"ie":455,"ear":456,"ount":457,"gh":458,"ure":459,"Ġthis":460,"Ġu":461,"Ġpop":462,"Ġthere":463,"pp":464,"Ġnot":465,"Ġhou":466,"ame":467,"wn":468,"Ġpr":469,"ib":470,"Ġpopul":471,"ary":472,"Ġwor":473,"so":474,"ast":475,"old":476,"Ġro":477,"ks":478,"Ġage":479,"ect":480,"Ġalso":481,"Ġman":482,"Ġcomp":483,"cc":484,"Ġcl":485,"ell":486,"ong":487,"ough":488,"Ġbr":489,"Ġaf":490,"Ġfam":491,"ican":492,"over":493,"Ġall":494,"ire":495,"Ġmar":496,"Ġhouse":497,"ust":498,"Ġcount":499,"Ġyear":500,"Ġhas":501,"Ġwho":502,"av":503,"Ġpopulation":504,"ath":505,"ous":506,"Ġad":507,"Ġgr":508,"ales":509,"Ġbo":510,"per":511,"Ġno":512,"ren":513,"Ġnew":514,"ions":515,"ound":516,"pt":517,"Ġwere":518,"pl":519,"Ġout":520,"ord":521,"Ġcan":522,"land":523,"Ġab":524,"Ġfamil":525,"Ġcont":526,"end":527,"ual":528,"ub":529,"tern":530,"ore":531,"one":532,"ans":533,"ater":534,"Ġpart":535,"vers":536,"Ġunder":537,"Ġint":538,"Ġcomm":539,"Ġhouseh":540,"Ġind":541,"Ġim":542,"Ġte":543,"ite":544,"Ġbut":545,"Ġother":546,"Ġper":547,"Ġres":548,"iz":549,"Ġhad":550,"ry":551,"Ġmed":552,"act":553,"Ġamer":554,"ory":555,"ach":556,"Ġme":557,"Ġsome":558,"ates":559,"ack":560,"Ġtown":561,"ace":562,"Ġi":563,"ass":564,"ence":565,"Ġsc":566,"Ġpe":567,"fer":568,"low":569,"ied":570,"ult":571,"ose":572,"Ġyears":573,"Ġmi":574,"uc":575,"ke":576,"Ġkm":577,"Ġunit":578,"are":579,"iving":580,"Ġpres":581,"Ġfir":582,"ations":583,"Ġnor":584,"Ġtheir":585,"ide":586,"Ġhousehold":587,"man":588,"Ġcity":589,"ang":590,"own":591,"ue":592,"Ġmore":593,"Ġamerican":594,"Ġph":595,"ould":596,"out":597,"Ġdis":598,"ime":599,"Ġfirst":600,"ction":601,"ice":602,"ra":603,"Ġcol":604,"Ġbec":605,"ict":606,"Ġits":607,"Ġser":608,"Ġapp":609,"ition":610,"ign":611,"Ġsy":612,"Ġcounty":613,"Ġthey":614,"very":615,"ics":616,"ec":617,"Ġloc":618,"Ġliving":619,"Ġfem":620,"aph":621,"Ġup":622,"ade":623,"Ġover":624,"Ġwe":625,"ond":626,"Ġform":627,"les":628,"ok":629,"Ġgen":630,"Ġdes":631,"Ġqu":632,"Ġrec":633,"able":634,"tal":635,"Ġag":636,"Ġco":637,"Ġso":638,"ff":639,"Ġcent":640,"ru":641,"ph":642,"ance":643,"Ġpo":644,"Ġmost":645,"ts":646,"Ġincome":647,"Ġbl":648,"Ġfe":649,"ail":650,"ake":651,"Ġpol":652,"Ġafter":653,"ces":654,"Ġact":655,"vel":656,"Ġmedian":657,"Ġlin":658,"sh":659,"Ġacc":660,"rit":661,"aw":662,"Ġbeen":663,"Ġtotal":664,"ative":665,"Ġpre":666,"Ġher":667,"raph":668,"Ġkn":669,"Ġwar":670,"ubl":671,"Ġjo":672,"Ġrep":673,"ile":674,"ild":675,"ood":676,"Ġmay":677,"ational":678,"lud":679,"ograph":680,"amp":681,"ty":682,"Ġeng":683,"te":684,"Ġem":685,"Ġoff":686,"Ġcons":687,"for":688,"Ġwhen":689,"Ġpeop":690,"Ġol":691,"Ġunited":692,"tw":693,"Ġstates":694,"ally":695,"Ġmany":696,"Ġthem":697,"Ġpar":698,"Ġsee":699,"ase":700,"ors":701,"Ġmin":702,"au":703,"Ġsch":704,"Ġpeople":705,"Ġinclud":706,"ents":707,"Ġele":708,"Ġcar":709,"Ġcens":710,"Ġear":711,"Ġtime":712,"Ġmus":713,"Ġrac":714,"Ġdec":715,"ific":716,"Ġcensus":717,"Ġgre":718,"Ġinter":719,"olog":720,"Ġchar":721,"Ġinto":722,"Ġed":723,"Ġrel":724,"Ġused":725,"Ġsuch":726,"Ġma":727,"Ġfl":728,"ons":729,"Ġaver":730,"Ġli":731,"Ġcap":732,"Ġwill":733,"Ġatt":734,"Ġhow":735,"io":736,"Ġplay":737,"ism":738,"Ġhist":739,"Ġaverage":740,"Ġdo":741,"Ġline":742,"ress":743,"orn":744,"Ġolder":745,"Ġge":746,"Ġter":747,"Ġarea":748,"Ġfamilies":749,"Ġreg":750,"ten":751,"ings":752,"Ġhigh":753,"iss":754,"ved":755,"ned":756,"Ġonly":757,"Ġsou":758,"ious":759,"ton":760,"uring":761,"Ġany":762,"aus":763,"Ġfamily":764,"Ġworld":765,"Ġthose":766,"Ġmales":767,"ale":768,"Ġfemales":769,"ze":770,"een":771,"Ġhouseholds":772,"Ġgener":773,"Ġnorth":774,"ities":775,"Ġsec":776,"Ġevery":777,"Ġmade":778,"ted":779,"Ġsub":780,"Ġimp":781,"Ġlo":782,"Ġuni":783,"ind":784,"ick":785,"pe":786,"ters":787,"Ġmon":788,"Ġthan":789,"Ġev":790,"Ġair":791,"Ġart":792,"Ġlar":793,"Ġthese":794,"Ġpubl":795,"ternal":796,"Ġwould":797,"ased":798,"du":799,"Ġhim":800,"ss":801,"Ġnum":802,"gr":803,"Ġcall":804,"form":805,"ll":806,"eld":807,"Ġcre":808,"Ġac":809,"way":810,"Ġtrans":811,"stem":812,"Ġdem":813,"Ġstr":814,"Ġdr":815,"Ġthr":816,"Ġwater":817,"Ġshe":818,"Ġfil":819,"ince":820,"ft":821,"Ġduring":822,"Ġdist":823,"lish":824,"Ġgover":825,"Ġsystem":826,"ah":827,"gan":828,"ject":829,"Ġsm":830,"ident":831,"ship":832,"ward":833,"Ġdef":834,"ember":835,"Ġexternal":836,"Ġau":837,"Ġgovern":838,"Ġknown":839,"Ġabout":840,"Ġbro":841,"Ġland":842,"Ġass":843,"Ġwork":844,"Ġx":845,"Ġbu":846,"ys":847,"Ġlinks":848,"ever":849,"Ġbelow":850,"ms":851,"Ġgu":852,"tle":853,"Ġsize":854,"ually":855,"Ġinst":856,"oup":857,"Ġsim":858,"up":859,"Ġrem":860,"ists":861,"inal":862,"Ġwhere":863,"ool":864,"Ġbetw":865,"ames":866,"Ġbetween":867,"Ġstate":868,"Ġhowever":869,"Ġlocated":870,"Ġunivers":871,"iet":872,"Ġisland":873,"ution":874,"ier":875,"Ġexp":876,"ep":877,"Ġjoh":878,"sel":879,"Ġking":880,"red":881,"Ġvers":882,"ury":883,"ower":884,"Ġfol":885,"Ġspec":886,"Ġob":887,"Ġsouth":888,"int":889,"Ġpos":890,"Ġger":891,"ral":892,"ik":893,"Ġwest":894,"az":895,"Ġname":896,"ating":897,"ife":898,"Ġent":899,"Ġinv":900,"Ġif":901,"Ġuse":902,"Ġdif":903,"ork":904,"Ġthrough":905,"rib":906,"ensity":907,"Ġchild":908,"anc":909,"ise":910,"Ġsur":911,"Ġdensity":912,"Ġhistory":913,"Ġbrit":914,"ular":915,"Ġjohn":916,"Ġwell":917,"Ġend":918,"Ġcalled":919,"Ġsupp":920,"ines":921,"Ġraces":922,"Ġthen":923,"ient":924,"Ġday":925,"Ġstud":926,"Ġmain":927,"Ġsw":928,"Ġorig":929,"ins":930,"als":931,"tain":932,"Ġgroup":933,"Ġschool":934,"Ġpover":935,"Ġpoverty":936,"ause":937,"Ġagain":938,"Ġnon":939,"Ġcr":940,"Ġlater":941,"Ġbel":942,"Ġprov":943,"ivid":944,"Ġfound":945,"Ġvar":946,"Ġinf":947,"Ġlat":948,"Ġset":949,"ning":950,"Ġpresent":951,"Ġju":952,"ather":953,"Ġbeing":954,"air":955,"Ġlike":956,"ures":957,"Ġfollow":958,"Ġwhite":959,"Ġsoc":960,"Ġchr":961,"Ġelect":962,"Ġmil":963,"ording":964,"Ġrefer":965,"Ġty":966,"Ġnational":967,"ature":968,"fore":969,"imes":970,"Ġpers":971,"Ġwrit":972,"Ġwhile":973,"Ġmake":974,"Ġgovernment":975,"ost":976,"Ġlong":977,"ino":978,"ology":979,"ision":980,"Ġmusic":981,"duc":982,"cept":983,"ank":984,"Ġconst":985,"ography":986,"read":987,"Ġcor":988,"ange":989,"Ġel":990,"Ġext":991,"Ġadd":992,"Ġdep":993,"Ġoften":994,"Ġtownship":995,"velop":996,"ages":997,"ica":998,"Ġuniversity":999,"Ġmem":1000,"Ġgerman":1001,"Ġnumber":1002,"Ġest":1003,"Ġgo":1004,"Ġboth":1005,"Ġret":1006,"iver":1007,"Ġeu":1008,"ible":1009,"Ġcolle":1010,"Ġsever":1011,"ically":1012,"Ġafr":1013,"ider":1014,"cess":1015,"Ġvill":1016,"Ġdevelop":1017,"Ġbecame":1018,"Ġir":1019,"enc":1020,"Ġlaw":1021,"Ġlead":1022,"Ġcapit":1023,"Ġdisc":1024,"Ġcur":1025,"Ġsing":1026,"Ġop":1027,"Ġoffic":1028,"Ġdire":1029,"Ġap":1030,"Ġhar":1031,"Ġmarr":1032,"Ġla":1033,"row":1034,"Ġsa":1035,"Ġlang":1036,"Ġshow":1037,"ger":1038,"Ġpolit":1039,"Ġoper":1040,"iam":1041,"ield":1042,"Ġcommun":1043,"ians":1044,"Ġmu":1045,"ful":1046,"Ġchildren":1047,"ck":1048,"bers":1049,"Ġdeath":1050,"Ġsl":1051,"ina":1052,"Ġaccording":1053,"Ġval":1054,"ley":1055,"iew":1056,"Ġpublic":1057,"Ġlist":1058,"Ġcal":1059,"ments":1060,"Ġlit":1061,"Ġarm":1062,"Ġbar":1063,"Ġdiffer":1064,"Ġsecond":1065,"Ġgreat":1066,"Ġmaj":1067,"led":1068,"Ġeff":1069,"ock":1070,"Ġserv":1071,"Ġclass":1072,"Ġmy":1073,"und":1074,"Ġlangu":1075,"Ġfilm":1076,"Ġbat":1077,"rent":1078,"ble":1079,"xt":1080,"Ġyou":1081,"Ġindivid":1082,"Ġsince":1083,"Ġmod":1084,"Ġleg":1085,"urn":1086,"Ġearly":1087,"Ġgeneral":1088,"Ġii":1089,"Ġke":1090,"Ġcommon":1091,"son":1092,"Ġcharac":1093,"Ġfin":1094,"Ġpower":1095,"ized":1096,"arch":1097,"uss":1098,"Ġhum":1099,"Ġlarge":1100,"Ġindividual":1101,"Ġbritish":1102,"Ġcentury":1103,"its":1104,"ially":1105,"onom":1106,"Ġenglish":1107,"ives":1108,"Ġnow":1109,"Ġprodu":1110,"Ġlife":1111,"Ġec":1112,"ri":1113,"Ġbecause":1114,"oman":1115,"Ġmet":1116,"ural":1117,"ived":1118,"gether":1119,"Ġseveral":1120,"Ġmajor":1121,"ont":1122,"Ġalb":1123,"Ġrele":1124,"Ġes":1125,"Ġcour":1126,"Ġbefore":1127,"Ġeuro":1128,"Ġbir":1129,"Ġsame":1130,"urch":1131,"Ġincluding":1132,"Ġtogether":1133,"Ġsmall":1134,"Ġport":1135,"Ġdirect":1136,"Ġste":1137,"Ġeven":1138,"Ġback":1139,"Ġseries":1140,"Ġje":1141,"Ġthough":1142,"ility":1143,"Ġtre":1144,"Ġcontro":1145,"ences":1146,"ples":1147,"Ġright":1148,"Ġgl":1149,"oy":1150,"ium":1151,"Ġchrist":1152,"ting":1153,"Ġaust":1154,"enn":1155,"Ġcomple":1156,"Ġstar":1157,"port":1158,"Ġeach":1159,"Ġown":1160,"Ġrecord":1161,"Ġvery":1162,"ull":1163,"ains":1164,"Ġphil":1165,"self":1166,"Ġorder":1167,"ov":1168,"Ġterm":1169,"amm":1170,"Ġcontin":1171,"Ġpat":1172,"Ġconsider":1173,"ues":1174,"ional":1175,"Ġocc":1176,"ob":1177,"ash":1178,"ished":1179,"Ġsign":1180,"Ġpartic":1181,"Ġmarried":1182,"oph":1183,"Ġresid":1184,"Ġunt":1185,"Ġjan":1186,"Ġfre":1187,"Ġalth":1188,"Ġrev":1189,"Ġpa":1190,"Ġway":1191,"Ġsk":1192,"Ġalthough":1193,"rench":1194,"Ġafrican":1195,"ined":1196,"Ġeurope":1197,"ric":1198,"amed":1199,"Ġer":1200,"other":1201,"ner":1202,"yl":1203,"Ġdesc":1204,"Ġmark":1205,"pan":1206,"Ġspe":1207,"Ġpac":1208,"Ġfemale":1209,"ark":1210,"Ġyork":1211,"ited":1212,"bs":1213,"Ġvillage":1214,"Ġhous":1215,"Ġconc":1216,"Ġfact":1217,"Ġborn":1218,"vent":1219,"ants":1220,"Ġstand":1221,"Ġmuch":1222,"Ġagainst":1223,"Ġnative":1224,"Ġmag":1225,"Ġconf":1226,"Ġins":1227,"Ġcould":1228,"chn":1229,"ample":1230,"de":1231,"bert":1232,"Ġorgan":1233,"Ġrace":1234,"Ġfrench":1235,"Ġav":1236,"Ġcro":1237,"Ġdesign":1238,"Ġmid":1239,"Ġcompan":1240,"Ġrad":1241,"aking":1242,"Ġprot":1243,"Ġjust":1244,"Ġwhat":1245,"Ġuntil":1246,"ared":1247,"Ġold":1248,"Ġperson":1249,"hip":1250,"Ġnear":1251,"Ġcd":1252,"tt":1253,"ths":1254,"Ġtrad":1255,"Ġpresident":1256,"Ġprogr":1257,"br":1258,"ccess":1259,"ator":1260,"ute":1261,"Ġunits":1262,"ired":1263,"Ġgame":1264,"Ġbased":1265,"ius":1266,"gest":1267,"Ġanother":1268,"osed":1269,"band":1270,"ruct":1271,"Ġresult":1272,"Ġblack":1273,"Ġhus":1274,"Ġequ":1275,"erg":1276,"Ġmat":1277,"ience":1278,"inc":1279,"Ġdown":1280,"Ġhand":1281,"Ġcover":1282,"ister":1283,"ounc":1284,"Ġpacific":1285,"Ġparty":1286,"aim":1287,"por":1288,"Ġauth":1289,"Ġref":1290,"Ġbor":1291,"Ġmiss":1292,"Ġbas":1293,"Ġpass":1294,"Ġtechn":1295,"Ġword":1296,"yn":1297,"Ġchurch":1298,"Ġdifferent":1299,"Ġstill":1300,"Ġspread":1301,"Ġopen":1302,"Ġpopular":1303,"Ġexample":1304,"ane":1305,"thern":1306,"ason":1307,"Ġrun":1308,"Ġwin":1309,"Ġcanad":1310,"Ġsol":1311,"omin":1312,"ief":1313,"Ġresp":1314,"gin":1315,"ony":1316,"atic":1317,"Ġant":1318,"Ġmoder":1319,"Ġriver":1320,"Ġartic":1321,"Ġtele":1322,"Ġeast":1323,"ode":1324,"ves":1325,"Ġdid":1326,"Ġindividuals":1327,"Ġintern":1328,"Ġsuccess":1329,"nes":1330,"ille":1331,"Ġmill":1332,"Ġband":1333,"Ġcult":1334,"Ġgod":1335,"Ġfo":1336,"Ġhome":1337,"Ġfar":1338,"Ġbre":1339,"Ġsupport":1340,"Ġbus":1341,"Ġhol":1342,"ior":1343,"ai":1344,"Ġbest":1345,"Ġalone":1346,"Ġhusband":1347,"Ġsong":1348,"ently":1349,"ense":1350,"Ġgeor":1351,"str":1352,"Ġimport":1353,"duced":1354,"Ġgeography":1355,"Ġhel":1356,"Ġbure":1357,"Ġcou":1358,"Ġposs":1359,"Ġhead":1360,"apan":1361,"omet":1362,"Ġarch":1363,"Ġsomeone":1364,"Ġdel":1365,"Ġep":1366,"Ġbook":1367,"Ġinternational":1368,"Ġeconom":1369,"ug":1370,"ily":1371,"Ġjapan":1372,"Ġplace":1373,"Ġve":1374,"na":1375,"Ġasian":1376,"Ġalbum":1377,"Ġfun":1378,"Ġaround":1379,"ene":1380,"ness":1381,"bo":1382,"ality":1383,"ained":1384,"isc":1385,"Ġhousing":1386,"Ġlast":1387,"cl":1388,"Ġleft":1389,"Ġbureau":1390,"Ġcharacter":1391,"Ġdu":1392,"ert":1393,"rop":1394,"iven":1395,"Ġtit":1396,"ices":1397,"Ġmodern":1398,"Ġdemograph":1399,"Ġrepres":1400,"Ġtem":1401,"Ġvol":1402,"ax":1403,"Ġexpl":1404,"Ġhistor":1405,"Ġlanguage":1406,"Ġfree":1407,"Ġshort":1408,"que":1409,"ised":1410,"ified":1411,"Ġrequ":1412,"Ġracial":1413,"Ġeffect":1414,"Ġstat":1415,"Ġmembers":1416,"Ġfollowing":1417,"older":1418,"ret":1419,"Ġcamp":1420,"min":1421,"Ġprof":1422,"by":1423,"Ġofficial":1424,"me":1425,"mb":1426,"Ġfore":1427,"Ġdemographics":1428,"Ġopp":1429,"iation":1430,"Ġred":1431,"Ġcountry":1432,"ott":1433,"Ġmilit":1434,"Ġversus":1435,"Ġhispan":1436,"Ġroman":1437,"Ġwilliam":1438,"Ġhy":1439,"Ġinform":1440,"Ġcurrent":1441,"ison":1442,"erv":1443,"Ġaug":1444,"Ġcrit":1445,"akes":1446,"Ġmove":1447,"ron":1448,"Ġtur":1449,"ix":1450,"Ġadv":1451,"Ġcapita":1452,"Ġstart":1453,"Ġeas":1454,"ams":1455,"Ġcouples":1456,"ats":1457,"Ġauthor":1458,"iod":1459,"Ġusually":1460,"Ġpoint":1461,"thers":1462,"ball":1463,"alk":1464,"ese":1465,"Ġlight":1466,"Ġhispanic":1467,"Ġappear":1468,"Ġvi":1469,"Ġmakeup":1470,"Ġrock":1471,"Ġnamed":1472,"Ġallow":1473,"ling":1474,"Ġson":1475,"Ġoct":1476,"Ġmarch":1477,"Ġamong":1478,"ately":1479,"Ġformer":1480,"let":1481,"Ġimage":1482,"Ġresiding":1483,"Ġpolitical":1484,"Ġinclude":1485,"Ġlatino":1486,"eng":1487,"Ġmor":1488,"app":1489,"ued":1490,"Ġhouseholder":1491,"Ġver":1492,"uary":1493,"Ġwithin":1494,"day":1495,"Ġprocess":1496,"ization":1497,"Ġcdp":1498,"Ġhuman":1499,"Ġislander":1500,"Ġsuper":1501,"Ġtop":1502,"ody":1503,"ata":1504,"Ġtyp":1505,"Ġbur":1506,"ries":1507,"iety":1508,"uck":1509,"ilar":1510,"Ġrepresent":1511,"ets":1512,"aving":1513,"Ġorigin":1514,"lu":1515,"Ġdue":1516,"Ġplan":1517,"Ġann":1518,"ended":1519,"ably":1520,"Ġpost":1521,"itions":1522,"Ġvir":1523,"Ġbuild":1524,"Ġaugust":1525,"ablish":1526,"Ġdistr":1527,"Ġpress":1528,"Ġincre":1529,"Ġmich":1530,"Ġmov":1531,"Ġmen":1532,"Ġlab":1533,"ae":1534,"Ġsimilar":1535,"Ġperiod":1536,"erc":1537,"Ġsour":1538,"Ġcle":1539,"Ġreal":1540,"Ġestablish":1541,"Ġgood":1542,"Ġview":1543,"aced":1544,"Ġnat":1545,"Ġbattle":1546,"Ġassoc":1547,"Ġclaim":1548,"Ġmount":1549,"igned":1550,"Ġjanuary":1551,"Ġtimes":1552,"ford":1553,"Ġthir":1554,"Ġaustral":1555,"Ġoriginal":1556,"Ġwes":1557,"Ġmass":1558,"Ġrepubl":1559,"Ġrich":1560,"ipp":1561,"irc":1562,"Ġdistrict":1563,"els":1564,"Ġpark":1565,"Ġvis":1566,"ring":1567,"Ġappro":1568,"Ġmilitary":1569,"ases":1570,"uter":1571,"Ġdiv":1572,"Ġapr":1573,"Ġsum":1574,"Ġless":1575,"Ġexper":1576,"Ġusing":1577,"Ġphys":1578,"Ġmean":1579,"Ġbi":1580,"ink":1581,"ead":1582,"Ġrece":1583,"Ġra":1584,"Ġkill":1585,"Ġber":1586,"Ġcompany":1587,"ilt":1588,"Ġhal":1589,"ards":1590,"Ġcities":1591,"ertain":1592,"Ġlond":1593,"Ġpal":1594,"bur":1595,"Ġparticular":1596,"Ġdev":1597,"Ġlim":1598,"Ġarg":1599,"Ġsocial":1600,"Ġlondon":1601,"wards":1602,"augh":1603,"Ġsept":1604,"Ġfield":1605,"sc":1606,"Ġfew":1607,"idge":1608,"Ġbegan":1609,"ler":1610,"Ġalong":1611,"olution":1612,"line":1613,"ories":1614,"oks":1615,"ival":1616,"Ġgiven":1617,"thing":1618,"Ġconsidered":1619,"Ġbc":1620,"par":1621,"aces":1622,"Ġcirc":1623,"Ġread":1624,"Ġtradition":1625,"thod":1626,"ung":1627,"rip":1628,"acks":1629,"ract":1630,"dom":1631,"Ġarticle":1632,"Ġnews":1633,"Ġfeb":1634,"cted":1635,"eder":1636,"Ġcenter":1637,"Ġsomet":1638,"Ġrelig":1639,"Ġspace":1640,"Ġversion":1641,"Ġlevel":1642,"aster":1643,"Ġwithout":1644,"Ġinformation":1645,"Ġlet":1646,"Ġfur":1647,"Ġlocal":1648,"Ġimportant":1649,"Ġpur":1650,"Ġsite":1651,"Ġengland":1652,"ots":1653,"ober":1654,"Ġreleased":1655,"lo":1656,"Ġciv":1657,"Ġdoes":1658,"oss":1659,"Ġcollege":1660,"Ġgree":1661,"Ġcourt":1662,"Ġnever":1663,"Ġlocation":1664,"Ġital":1665,"ument":1666,"Ġjune":1667,"ster":1668,"ency":1669,"Ġdet":1670,"Ġoctober":1671,"Ġfrance":1672,"Ġrese":1673,"Ġbecome":1674,"Ġcare":1675,"ps":1676,"Ġru":1677,"Ġseptember":1678,"mer":1679,"ize":1680,"Ġevent":1681,"Ġill":1682,"Ġarmy":1683,"empt":1684,"yr":1685,"Ġshould":1686,"Ġsal":1687,"Ġide":1688,"Ġdecember":1689,"Ġaut":1690,"Ġyoun":1691,"Ġspecial":1692,"Ġsometimes":1693,"Ġjuly":1694,"net":1695,"Ġchang":1696,"Ġindust":1697,"Ġcontrol":1698,"iction":1699,"raft":1700,"Ġdav":1701,"Ġrest":1702,"Ġruss":1703,"epend":1704,"gress":1705,"Ġinflu":1706,"ither":1707,"ington":1708,"Ġiss":1709,"ides":1710,"vision":1711,"ald":1712,"Ġenc":1713,"aining":1714,"ought":1715,"Ġwestern":1716,"Ġindepend":1717,"be":1718,"mber":1719,"Ġaddition":1720,"yal":1721,"ays":1722,"Ġdescrib":1723,"Ġservice":1724,"Ġsit":1725,"ways":1726,"Ġpract":1727,"Ġled":1728,"Ġvarious":1729,"Ġengine":1730,"itch":1731,"orts":1732,"Ġaff":1733,"Ġsan":1734,"omen":1735,"Ġcentral":1736,"Ġcivil":1737,"Ġcop":1738,"ney":1739,"ars":1740,"Ġconne":1741,"ones":1742,"Ġvict":1743,"Ġexist":1744,"Ġapril":1745,"Ġcast":1746,"lin":1747,"Ġnove":1748,"Ġprop":1749,"ided":1750,"Ġuk":1751,"Ġfoot":1752,"Ġjew":1753,"ville":1754,"Ġsingle":1755,"Ġneed":1756,"Ġunion":1757,"Ġnovember":1758,"Ġden":1759,"we":1760,"Ġprim":1761,"Ġtest":1762,"Ġmult":1763,"Ġgeorge":1764,"Ġdest":1765,"Ġproject":1766,"Ġcase":1767,"Ġder":1768,"Ġdied":1769,"Ġnovel":1770,"Ġmust":1771,"Ġnav":1772,"Ġjames":1773,"Ġfebru":1774,"Ġfebruary":1775,"Ġbelie":1776,"Ġmath":1777,"Ġcomb":1778,"yle":1779,"Ġeduc":1780,"Ġtex":1781,"Ġmot":1782,"nel":1783,"alth":1784,"Ġtour":1785,"Ġlate":1786,"ges":1787,"Ġproble":1788,"Ġearth":1789,"acy":1790,"Ġmap":1791,"bn":1792,"Ġworks":1793,"Ġdon":1794,"Ġlou":1795,"Ġimm":1796,"Ġothers":1797,"Ġarr":1798,"Ġforce":1799,"ague":1800,"Ġfamous":1801,"Ġappl":1802,"Ġgames":1803,"Ġintro":1804,"Ġattempt":1805,"Ġhen":1806,"ove":1807,"Ġtook":1808,"Ġcath":1809,"ma":1810,"Ġamerica":1811,"Ġtheory":1812,"ann":1813,"mit":1814,"ania":1815,"Ġearl":1816,"Ġsaid":1817,"Ġrail":1818,"Ġcam":1819,"Ġship":1820,"Ġstory":1821,"Ġtake":1822,"Ġside":1823,"Ġliter":1824,"Ġanim":1825,"Ġtelevision":1826,"Ġcat":1827,"Ġkingdom":1828,"af":1829,"Ġthus":1830,"ocr":1831,"iness":1832,"ctions":1833,"Ġpublished":1834,"Ġrepl":1835,"Ġdevelopment":1836,"ission":1837,"Ġrul":1838,"Ġwon":1839,"ced":1840,"Ġlittle":1841,"Ġteam":1842,"Ġcommand":1843,"Ġphot":1844,"Ġcounc":1845,"Ġsat":1846,"aken":1847,"Ġesp":1848,"Ġthird":1849,"ka":1850,"Ġchristian":1851,"ches":1852,"ple":1853,"Ġet":1854,"Ġjud":1855,"Ġisbn":1856,"Ġcreated":1857,"Ġbuilt":1858,"Ġinterest":1859,"Ġscience":1860,"Ġbeh":1861,"Ġcomputer":1862,"Ġmun":1863,"Ġwritten":1864,"ively":1865,"Ġfurther":1866,"Ġbill":1867,"Ġemp":1868,"ript":1869,"uted":1870,"Ġren":1871,"Ġplayer":1872,"Ġsound":1873,"Ġobject":1874,"Ġdi":1875,"Ġfather":1876,"Ġsyn":1877,"Ġgold":1878,"Ġten":1879,"Ġcame":1880,"ama":1881,"Ġsystems":1882,"ological":1883,"aint":1884,"aded":1885,"Ġlow":1886,"pect":1887,"Ġfall":1888,"Ġcouncil":1889,"Ġinvol":1890,"Ġcy":1891,"Ġheld":1892,"ention":1893,"Ġproper":1894,"ration":1895,"dle":1896,"Ġknow":1897,"Ġwind":1898,"Ġcommunity":1899,"Ġbroad":1900,"Ġwide":1901,"ged":1902,"osoph":1903,"Ġur":1904,"istic":1905,"ured":1906,"xim":1907,"ush":1908,"Ġdou":1909,"Ġhard":1910,"Ġeuropean":1911,"ying":1912,"Ġgroups":1913,"Ġgenerally":1914,"Ġce":1915,"ape":1916,"edia":1917,"Ġtreat":1918,"Ġcaus":1919,"bor":1920,"Ġbirths":1921,"Ġwebs":1922,"ops":1923,"ote":1924,"Ġcanada":1925,"Ġbody":1926,"ends":1927,"most":1928,"Ġradio":1929,"Ġanc":1930,"Ġbase":1931,"Ġlake":1932,"Ġminister":1933,"Ġsen":1934,"Ġhimself":1935,"Ġperform":1936,"Ġq":1937,"ctor":1938,"Ġphilosoph":1939,"Ġcalif":1940,"Ġrather":1941,"Ġgreen":1942,"ham":1943,"Ġps":1944,"Ġnone":1945,"oth":1946,"ement":1947,"Ġcond":1948,"Ġcaliforn":1949,"Ġlib":1950,"Ġgrow":1951,"Ġhor":1952,"lex":1953,"Ġident":1954,"aff":1955,"ota":1956,"Ġut":1957,"Ġsqu":1958,"Ġfull":1959,"Ġeither":1960,"Ġprev":1961,"Ġwhe":1962,"Ġfri":1963,"Ġprofess":1964,"Ġroyal":1965,"Ġroad":1966,"Ġresearch":1967,"Ġstandard":1968,"Ġnorthern":1969,"Ġhaving":1970,"Ġhelp":1971,"anish":1972,"Ġpage":1973,"Ġdom":1974,"itution":1975,"Ġprom":1976,"Ġonce":1977,"gy":1978,"Ġmember":1979,"Ġbooks":1980,"Ġfight":1981,"Ġmethod":1982,"Ġtro":1983,"ta":1984,"Ġfire":1985,"Ġmater":1986,"Ġattack":1987,"Ġtoday":1988,"Ġmal":1989,"ruction":1990,"Ġstrong":1991,"ana":1992,"co":1993,"Ġpaul":1994,"Ġlog":1995,"wh":1996,"ike":1997,"Ġseen":1998,"Ġgrand":1999,"ital":2000,"ances":2001,"Ġcalifornia":2002,"craft":2003,"Ġrole":2004,"Ġreferences":2005,"Ġsold":2006,"Ġstruct":2007,"Ġwash":2008,"Ġsun":2009,"Ġlive":2010,"Ġgermany":2011,"Ġtype":2012,"Ġfeder":2013,"Ġjer":2014,"Ġcovered":2015,"Ġplayed":2016,"go":2017,"Ġcharles":2018,"Ġstree":2019,"Ġcapital":2020,"Ġmart":2021,"Ġforces":2022,"Ġcross":2023,"iated":2024,"Ġsociety":2025,"Ġsex":2026,"Ġsil":2027,"Ġwebsite":2028,"Ġfinal":2029,"Ġmac":2030,"Ġmillion":2031,"less":2032,"Ġpap":2033,"Ġsepar":2034,"Ġsea":2035,"Ġrh":2036,"Ġbusiness":2037,"Ġjapanese":2038,"Ġsent":2039,"Ġregion":2040,"Ġget":2041,"Ġcomplete":2042,"Ġsug":2043,"Ġthom":2044,"Ġtitle":2045,"Ġvo":2046,"Ġwik":2047,"ental":2048,"omb":2049,"Ġhere":2050,"Ġfind":2051,"Ġareas":2052,"Ġtowns":2053,"Ġrobert":2054,"Ġnext":2055,"olic":2056,"ored":2057,"rew":2058,"Ġsam":2059,"Ġnetw":2060,"ogn":2061,"aged":2062,"Ġcountries":2063,"ery":2064,"Ġlove":2065,"Ġespec":2066,"Ġactiv":2067,"ders":2068,"Ġbegin":2069,"Ġmic":2070,"Ġproduct":2071,"Ġsource":2072,"Ġoccur":2073,"Ġupon":2074,"side":2075,"Ġyoung":2076,"ston":2077,"Ġespecially":2078,"ara":2079,"icip":2080,"burg":2081,"Ġmiddle":2082,"Ġreport":2083,"Ġindian":2084,"Ġavail":2085,"Ġdemocr":2086,"Ġchina":2087,"Ġmaterial":2088,"Ġbig":2089,"uel":2090,"Ġca":2091,"Ġrelations":2092,"umb":2093,"Ġlu":2094,"ensive":2095,"Ġfrequ":2096,"Ġhill":2097,"Ġnight":2098,"ls":2099,"Ġseason":2100,"Ġpriv":2101,"Ġinit":2102,"Ġappe":2103,"Ġdavid":2104,"Ġdeaths":2105,"Ġcompos":2106,"Ġmeans":2107,"Ġwood":2108,"Ġdays":2109,"Ġang":2110,"Ġpenn":2111,"Ġlord":2112,"Ġdeb":2113,"Ġliber":2114,"Ġmer":2115,"Ġsecret":2116,"Ġcertain":2117,"ds":2118,"atures":2119,"ination":2120,"Ġmarket":2121,"Ġlargest":2122,"Ġproduction":2123,"Ġanal":2124,"inese":2125,"Ġhom":2126,"Ġsn":2127,"ids":2128,"Ġmach":2129,"Ġrepublic":2130,"Ġstyle":2131,"Ġtexas":2132,"Ġhon":2133,"Ġpot":2134,"den":2135,"aries":2136,"ploy":2137,"Ġairport":2138,"ising":2139,"Ġmur":2140,"reme":2141,"Ġaward":2142,"Ġleague":2143,"Ġchinese":2144,"Ġtext":2145,"Ġadmin":2146,"Ġeth":2147,"Ġhall":2148,"Ġdeveloped":2149,"Ġpossible":2150,"Ġabove":2151,"Ġclose":2152,"ico":2153,"ication":2154,"Ġchamp":2155,"Ġfa":2156,"Ġalmost":2157,"Ġsel":2158,"Ġnatural":2159,"Ġprotect":2160,"Ġproduced":2161,"Ġscient":2162,"Ġhold":2163,"Ġevents":2164,"Ġestablished":2165,"Ġham":2166,"ification":2167,"Ġreach":2168,"Ġoffice":2169,"Ġmaking":2170,"Ġobs":2171,"Ġdata":2172,"Ġlink":2173,"ek":2174,"Ġlouis":2175,"Ġitself":2176,"ych":2177,"Ġfunction":2178,"Ġturn":2179,"Ġtransl":2180,"Ġsubject":2181,"Ġincluded":2182,"Ġhalf":2183,"Ġgreek":2184,"Ġben":2185,"to":2186,"Ġposition":2187,"ability":2188,"gen":2189,"plo":2190,"Ġput":2191,"Ġsouthern":2192,"Ġexpress":2193,"field":2194,"Ġwomen":2195,"Ġempire":2196,"aps":2197,"Ġwashington":2198,"Ġmunicip":2199,"Ġdepart":2200,"Ġstation":2201,"Ġwr":2202,"raw":2203,"Ġprinc":2204,"Ġavailable":2205,"her":2206,"sequ":2207,"Ġfac":2208,"Ġww":2209,"Ġprincip":2210,"Ġbet":2211,"Ġepis":2212,"ential":2213,"Ġhenry":2214,"ael":2215,"Ġtaken":2216,"Ġvide":2217,"ending":2218,"Ġball":2219,"Ġfail":2220,"Ġcoll":2221,"Ġdiscover":2222,"Ġmovement":2223,"orm":2224,"Ġmovie":2225,"Ġacad":2226,"ergy":2227,"Ġprob":2228,"Ġoriginally":2229,"used":2230,"Ġculture":2231,"ude":2232,"Ġfeature":2233,"Ġanti":2234,"inted":2235,"emy":2236,"Ġrout":2237,"Ġnorm":2238,"Ġenter":2239,"itive":2240,"Ġpen":2241,"Ġfort":2242,"Ġcoast":2243,"Ġmeas":2244,"Ġbecom":2245,"Ġcost":2246,"ii":2247,"com":2248,"Ġkey":2249,"itz":2250,"Ġjour":2251,"ems":2252,"Ġlost":2253,"Ġdiff":2254,"Ġmc":2255,"Ġhit":2256,"ky":2257,"Ġaud":2258,"Ġbal":2259,"Ġheav":2260,"anch":2261,"Ġprogram":2262,"Ġfranc":2263,"Ġcell":2264,"Ġlanguages":2265,"Ġterrit":2266,"Ġho":2267,"Ġemper":2268,"Ġdut":2269,"Ġclub":2270,"Ġnames":2271,"Ġaustralia":2272,"Ġdoc":2273,"ross":2274,"Ġuplo":2275,"Ġox":2276,"Ġswed":2277,"rael":2278,"ators":2279,"lect":2280,"Ġpain":2281,"wood":2282,"Ġtar":2283,"Ġcode":2284,"Ġpolic":2285,"ades":2286,"Ġreturn":2287,"Ġquest":2288,"Ġregard":2289,"Ġcompet":2290,"Ġmodel":2291,"Ġyour":2292,"Ġexec":2293,"Ġprevious":2294,"Ġactor":2295,"Ġweb":2296,"Ġtrave":2297,"Ġwat":2298,"Ġinstead":2299,"Ġeducation":2300,"pr":2301,"Ġwent":2302,"unch":2303,"Ġeastern":2304,"Ġsay":2305,"Ġproduc":2306,"uf":2307,"Ġmathem":2308,"Ġwil":2309,"Ġprince":2310,"Ġentire":2311,"Ġze":2312,"Ġsov":2313,"Ġrelated":2314,"Ġstreet":2315,"ror":2316,"ications":2317,"ki":2318,"ylv":2319,"Ġdecl":2320,"sey":2321,"Ġaccept":2322,"Ġfilms":2323,"Ġground":2324,"Ġformed":2325,"Ġinstit":2326,"arian":2327,"get":2328,"Ġrob":2329,"Ġisrael":2330,"Ġsoviet":2331,"Ġlibr":2332,"Ġparl":2333,"Ġspecies":2334,"Ġplaces":2335,"Ġflow":2336,"Ġuser":2337,"ceed":2338,"oney":2339,"Ġever":2340,"Ġexam":2341,"Ġchange":2342,"Ġhost":2343,"Ġsof":2344,"Ġreceived":2345,"Ġbuilding":2346,"rug":2347,"Ġhu":2348,"Ġcharacters":2349,"ylvania":2350,"ows":2351,"Ġfig":2352,"Ġfut":2353,"face":2354,"Ġdam":2355,"Ġfer":2356,"ificant":2357,"Ġparts":2358,"ox":2359,"aut":2360,"Ġmary":2361,"Ġviol":2362,"Ġeconomic":2363,"Ġdig":2364,"Ġtor":2365,"he":2366,"Ġrecogn":2367,"Ġche":2368,"Ġfrank":2369,"Ġconcept":2370,"Ġwall":2371,"Ġven":2372,"Ġchem":2373,"Ġrichard":2374,"Ġnetwork":2375,"Ġrights":2376,"ints":2377,"aves":2378,"Ġrange":2379,"Ġretur":2380,"ream":2381,"Ġthomas":2382,"Ġfront":2383,"Ġstudents":2384,"Ġfle":2385,"Ġspanish":2386,"ula":2387,"Ġcommit":2388,"Ġpast":2389,"Ġlower":2390,"Ġadminist":2391,"Ġalex":2392,"Ġancient":2393,"Ġfounded":2394,"Ġsignificant":2395,"Ġmont":2396,"Ġexcept":2397,"Ġmel":2398,"verse":2399,"Ġcolor":2400,"Ġtrib":2401,"Ġterms":2402,"Ġpan":2403,"Ġpenns":2404,"Ġfootball":2405,"rote":2406,"Ġoh":2407,"Ġrevolution":2408,"Ġban":2409,"Ġpoet":2410,"Ġeventually":2411,"oms":2412,"Ġnote":2413,"Ġpsych":2414,"Ġgar":2415,"Ġire":2416,"Ġhtt":2417,"edi":2418,"asing":2419,"mon":2420,"Ġleast":2421,"Ġspeed":2422,"Ġdesp":2423,"Ġhop":2424,"Ġpict":2425,"Ġcome":2426,"Ġtv":2427,"Ġcard":2428,"Ġtoo":2429,"Ġdefe":2430,"Ġparliam":2431,"Ġneg":2432,"Ġmuse":2433,"Ġwords":2434,"Ġprogramm":2435,"Ġcho":2436,"Ġfood":2437,"Ġpennsylvania":2438,"ida":2439,"Ġcit":2440,"Ġmight":2441,"Ġmeaning":2442,"Ġprime":2443,"Ġcanadian":2444,"Ġcontinued":2445,"ban":2446,"Ġtalk":2447,"Ġdeter":2448,"Ġach":2449,"Ġwikip":2450,"Ġgun":2451,"Ġhttp":2452,"cul":2453,"Ġbud":2454,"idence":2455,"Ġwhose":2456,"Ġaircraft":2457,"Ġchief":2458,"uit":2459,"Ġtraditional":2460,"Ġmother":2461,"Ġrecords":2462,"Ġsuggest":2463,"Ġcolon":2464,"Ġsuccessful":2465,"Ġdomin":2466,"Ġalways":2467,"Ġange":2468,"Ġenergy":2469,"Ġborough":2470,"Ġemperor":2471,"Ġvirgin":2472,"Ġfund":2473,"cle":2474,"Ġbay":2475,"Ġess":2476,"Ġparliament":2477,"Ġreligious":2478,"utions":2479,"Ġforeign":2480,"Ġenv":2481,"ering":2482,"Ġfederal":2483,"key":2484,"Ġlook":2485,"amb":2486,"Ġblue":2487,"Ġcareer":2488,"arily":2489,"Ġdeg":2490,"mp":2491,"itor":2492,"Ġmad":2493,"Ġaccess":2494,"iers":2495,"Ġseat":2496,"Ġbank":2497,"Ġfair":2498,"Ġsaint":2499,"of":2500,"Ġvideo":2501,"Ġos":2502,"Ġaltern":2503,"Ġtim":2504,"Ġwrote":2505,"Ġclear":2506,"Ġath":2507,"Ġpet":2508,"Ġperfor":2509,"Ġself":2510,"utes":2511,"nal":2512,"Ġfav":2513,"Ġsoftw":2514,"ateg":2515,"Ġteach":2516,"Ġuploaded":2517,"Ġnumbers":2518,"Ġrom":2519,"Ġarab":2520,"ria":2521,"ha":2522,"Ġspir":2523,"Ġopt":2524,"Ġinvest":2525,"Ġtrade":2526,"iron":2527,"ga":2528,"Ġour":2529,"Ġmuseum":2530,"Ġsoftware":2531,"Ġimpro":2532,"Ġdele":2533,"Ġmex":2534,"Ġconstitution":2535,"Ġqueen":2536,"icult":2537,"iff":2538,"Ġrelease":2539,"Ġtransport":2540,"ites":2541,"Ġcatholic":2542,"Ġhistorical":2543,"Ġsoon":2544,"Ġaccount":2545,"Ġcontrib":2546,"ume":2547,"Ġserved":2548,"Ġperforman":2549,"ours":2550,"Ġindia":2551,"Ġuses":2552,"Ġthought":2553,"Ġaction":2554,"Ġsus":2555,"Ġcann":2556,"ected":2557,"Ġreb":2558,"Ġthroughout":2559,"Ġmoved":2560,"Ġexc":2561,"Ġdefin":2562,"ingu":2563,"ij":2564,"Ġhun":2565,"Ġnature":2566,"Ġaway":2567,"Ġwww":2568,"Ġforms":2569,"cast":2570,"Ġey":2571,"Ġha":2572,"Ġlos":2573,"Ġschools":2574,"chan":2575,"Ġstudy":2576,"erous":2577,"Ġpred":2578,"Ġabs":2579,"lands":2580,"Ġoffer":2581,"Ġpeter":2582,"aughter":2583,"bc":2584,"ago":2585,"uation":2586,"asion":2587,"Ġsymb":2588,"Ġrecent":2589,"Ġcapt":2590,"Ġdisp":2591,"anted":2592,"Ġjose":2593,"Ġindependent":2594,"Ġfish":2595,"Ġwife":2596,"selves":2597,"roy":2598,"asc":2599,"Ġleader":2600,"Ġcarol":2601,"ani":2602,"Ġtechnology":2603,"Ġnar":2604,"berg":2605,"Ġpie":2606,"Ġoppos":2607,"Ġparticularly":2608,"Ġdespite":2609,"Ġable":2610,"Ġchan":2611,"Ġconcer":2612,"Ġrussian":2613,"Ġstarted":2614,"igan":2615,"Ġplayers":2616,"Ġjewish":2617,"Ġgal":2618,"Ġitalian":2619,"Ġcommerc":2620,"Ġdescribed":2621,"Ġislands":2622,"Ġcut":2623,"ucle":2624,"wer":2625,"Ġtom":2626,"ump":2627,"ving":2628,"Ġgrad":2629,"Ġcritic":2630,"Ġireland":2631,"Ġservices":2632,"Ġenviron":2633,"Ġpeace":2634,"Ġelection":2635,"Ġfuture":2636,"Ġdyn":2637,"Ġrap":2638,"enced":2639,"Ġiii":2640,"Ġscott":2641,"Ġminor":2642,"imate":2643,"Ġflag":2644,"Ġow":2645,"stand":2646,"Ġcomplex":2647,"Ġdifficult":2648,"val":2649,"ights":2650,"Ġmichael":2651,"Ġemploy":2652,"Ġdistrib":2653,"odes":2654,"onic":2655,"Ġmicro":2656,"Ġsurv":2657,"Ġcommonly":2658,"Ġincludes":2659,"ires":2660,"men":2661,"Ġelected":2662,"Ġkilled":2663,"Ġthemselves":2664,"Ġdesignated":2665,"Ġcarr":2666,"Ġhot":2667,"Ġgir":2668,"Ġparis":2669,"Ġtrue":2670,"oted":2671,"Ġmeet":2672,"Ġwal":2673,"Ġpersonal":2674,"Ġkh":2675,"Ġlear":2676,"set":2677,"Ġreform":2678,"Ġdivision":2679,"col":2680,"reg":2681,"Ġwikipedia":2682,"Ġactually":2683,"Ġround":2684,"Ġhealth":2685,"Ġsimp":2686,"Ġnucle":2687,"ming":2688,"isl":2689,"Ġtax":2690,"Ġblood":2691,"Ġappeared":2692,"Ġpow":2693,"Ġoutside":2694,"Ġminnes":2695,"Ġvan":2696,"uments":2697,"Ġiv":2698,"Ġleaders":2699,"Ġboard":2700,"ounced":2701,"Ġmiles":2702,"Ġlatin":2703,"orpor":2704,"eth":2705,"aker":2706,"Ġrelative":2707,"Ġcurrently":2708,"Ġfollowed":2709,"Ġreferred":2710,"Ġappo":2711,"Ġminnesota":2712,"Ġrule":2713,"etic":2714,"Ġinstr":2715,"ole":2716,"ulation":2717,"Ġri":2718,"Ġmusical":2719,"ander":2720,"Ġpun":2721,"west":2722,"Ġcontr":2723,"Ġweap":2724,"Ġcongress":2725,"Ġgro":2726,"Ġcampa":2727,"Ġguit":2728,"Ġassociation":2729,"Ġmultip":2730,"ises":2731,"Ġheart":2732,"Ġdistin":2733,"Ġhigher":2734,"bit":2735,"Ġacross":2736,"ellow":2737,"Ġtemper":2738,"Ġmess":2739,"ened":2740,"Ġinte":2741,"Ġconsist":2742,"ips":2743,"Ġconstant":2744,"Ġdead":2745,"Ġindustry":2746,"Ġcases":2747,"Ġpu":2748,"Ġvalue":2749,"Ġreason":2750,"ols":2751,"Ġirish":2752,"Ġpurp":2753,"Ġbeginning":2754,"ounter":2755,"Ġfeatures":2756,"icated":2757,"Ġmagaz":2758,"rest":2759,"tic":2760,"Ġlay":2761,"view":2762,"Ġusa":2763,"Ġprovince":2764,"mar":2765,"atory":2766,"Ġmedia":2767,"Ġwriter":2768,"Ġcommission":2769,"Ġdetail":2770,"Ġproblem":2771,"oll":2772,"ouse":2773,"Ġmyth":2774,"Ġworking":2775,"Ġreturned":2776,"Ġoccup":2777,"ufact":2778,"Ġesc":2779,"usion":2780,"Ġleng":2781,"Ġmanufact":2782,"Ġsaw":2783,"Ġconvent":2784,"Ġconserv":2785,"Ġbrother":2786,"urity":2787,"Ġcause":2788,"che":2789,"Ġjun":2790,"Ġintroduced":2791,"Ġamount":2792,"Ġbul":2793,"ansas":2794,"Ġlegal":2795,"Ġdeal":2796,"apt":2797,"Ġmaintain":2798,"Ġcontrovers":2799,"Ġsir":2800,"Ġrespons":2801,"Ġinfluence":2802,"Ġtherefore":2803,"olf":2804,"Ġgovernor":2805,"off":2806,"Ġafrica":2807,"Ġcampaign":2808,"istan":2809,"Ġbit":2810,"Ġcommercial":2811,"ns":2812,"ilities":2813,"Ġmathemat":2814,"lam":2815,"ques":2816,"Ġbirth":2817,"Ġdesigned":2818,"Ġbridge":2819,"itect":2820,"Ġfriend":2821,"Ġenvironment":2822,"Ġreact":2823,"Ġleading":2824,"Ġcorpor":2825,"Ġdiscuss":2826,"Ġmechan":2827,"Ġvalley":2828,"Ġinde":2829,"Ġsubst":2830,"Ġhapp":2831,"Ġachie":2832,"Ġken":2833,"Ġlic":2834,"Ġbad":2835,"aq":2836,"Ġbreak":2837,"Ġarchitect":2838,"Ġadop":2839,"iding":2840,"Ġsmith":2841,"Ġwhether":2842,"Ġasse":2843,"Ġkeep":2844,"Ġbox":2845,"Ġrespect":2846,"Ġpay":2847,"Ġque":2848,"Ġanth":2849,"Ġdark":2850,"Ġquick":2851,"Ġstructure":2852,"Ġbrought":2853,"ym":2854,"Ġflor":2855,"iting":2856,"ari":2857,"Ġprivate":2858,"Ġregular":2859,"nam":2860,"Ġbetter":2861,"Ġlaunch":2862,"Ġbritain":2863,"Ġpoints":2864,"Ġdestroy":2865,"Ġtypically":2866,"Ġpractice":2867,"Ġproblems":2868,"Ġepisode":2869,"Ġapproxim":2870,"Ġbrown":2871,"Ġscot":2872,"Ġassociated":2873,"ano":2874,"Ġatl":2875,"uk":2876,"Ġrate":2877,"Ġactress":2878,"Ġfiction":2879,"ground":2880,"hib":2881,"Ġnecess":2882,"oon":2883,"play":2884,"Ġsid":2885,"Ġbab":2886,"Ġlines":2887,"Ġsinger":2888,"Ġchannel":2889,"Ġsand":2890,"wor":2891,"Ġdaughter":2892,"iment":2893,"Ġjournal":2894,"Ġspecific":2895,"Ġgave":2896,"Ġmoney":2897,"ee":2898,"well":2899,"Ġalle":2900,"antic":2901,"Ġsett":2902,"Ġgraph":2903,"iest":2904,"Ġsongs":2905,"atives":2906,"Ġmichigan":2907,"Ġnations":2908,"oo":2909,"Ġvoc":2910,"Ġdate":2911,"Ġyet":2912,"ique":2913,"osp":2914,"Ġvirginia":2915,"ffer":2916,"istics":2917,"agement":2918,"ift":2919,"Ġfoc":2920,"Ġchap":2921,"Ġrelationship":2922,"Ġdirector":2923,"Ġvictor":2924,"Ġdepartment":2925,"Ġcentre":2926,"Ġextreme":2927,"Ġnation":2928,"Ġcounties":2929,"erson":2930,"duction":2931,"Ġsequ":2932,"Ġpolice":2933,"Ġguitar":2934,"Ġshows":2935,"Ġsection":2936,"agon":2937,"Ġpolicy":2938,"va":2939,"Ġbound":2940,"Ġtypes":2941,"Ġkar":2942,"Ġwriting":2943,"Ġlength":2944,"ien":2945,"Ġlaws":2946,"Ġliterature":2947,"Ġinterp":2948,"Ġcand":2949,"Ġremained":2950,"kn":2951,"Ġperformance":2952,"Ġsimply":2953,"Ġweek":2954,"Ġnavy":2955,"lling":2956,"Ġsup":2957,"Ġsem":2958,"Ġnob":2959,"Ġsym":2960,"ibility":2961,"gypt":2962,"Ġboy":2963,"Ġmonths":2964,"Ġlad":2965,"Ġcart":2966,"Ġlarger":2967,"Ġdie":2968,"Ġprobably":2969,"Ġgard":2970,"Ġoil":2971,"Ġaustralian":2972,"Ġitaly":2973,"Ġduke":2974,"ician":2975,"Ġwidely":2976,"Ġgive":2977,"Ġlibrary":2978,"Ġohio":2979,"Ġreference":2980,"ension":2981,"Ġbow":2982,"Ġegypt":2983,"Ġneigh":2984,"Ġfly":2985,"Ġelement":2986,"Ġelectron":2987,"Ġwars":2988,"Ġspirit":2989,"ste":2990,"Ġearlier":2991,"Ġborder":2992,"ask":2993,"dr":2994,"Ġbeg":2995,"Ġsummer":2996,"bour":2997,"Ġforest":2998,"Ġsquare":2999,"Ġstage":3000,"Ġple":3001,"Ġcondu":3002,"Ġelements":3003,"Ġplat":3004,"Ġevidence":3005,"Ġorganization":3006,"use":3007,"Ġmale":3008,"Ġrequired":3009,"Ġunl":3010,"Ġgeorg":3011,"Ġult":3012,"Ġlimited":3013,"Ġallowed":3014,"pper":3015,"Ġcorn":3016,"hood":3017,"ores":3018,"une":3019,"Ġrat":3020,"Ġplaying":3021,"Ġlegisl":3022,"Ġdone":3023,"Ġdivid":3024,"Ġwisc":3025,"Ġmountain":3026,"Ġsecurity":3027,"ulf":3028,"hab":3029,"Ġtal":3030,"Ġphysical":3031,"Ġjoseph":3032,"Ġsubsequ":3033,"Ġschol":3034,"Ġconstruction":3035,"Ġmr":3036,"Ġremains":3037,"Ġstop":3038,"Ġeconomy":3039,"Ġchanges":3040,"Ġwiscons":3041,"Ġid":3042,"Ġprovide":3043,"ris":3044,"Ġchampions":3045,"Ġspain":3046,"Ġapproach":3047,"ready":3048,"Ġfinally":3049,"Ġlonger":3050,"Ġcry":3051,"fect":3052,"Ġkind":3053,"Ġdocument":3054,"Ġsurface":3055,"ya":3056,"Ġagree":3057,"Ġmaster":3058,"ledge":3059,"Ġwoman":3060,"airs":3061,"Ġplant":3062,"Ġod":3063,"Ġpublish":3064,"Ġmostly":3065,"Ġtrack":3066,"Ġwhom":3067,"lines":3068,"Ġdise":3069,"Ġautom":3070,"ference":3071,"Ġmakes":3072,"Ġgreater":3073,"Ġdog":3074,"Ġmajority":3075,"Ġnotable":3076,"Ġalready":3077,"Ġgall":3078,"Ġwisconsin":3079,"lict":3080,"Ġcele":3081,"Ġelectric":3082,"Ġenough":3083,"ray":3084,"Ġcust":3085,"Ġcourse":3086,"lement":3087,"ager":3088,"Ġdomain":3089,"reen":3090,"Ġsaf":3091,"Ġrecorded":3092,"Ġinternet":3093,"Ġib":3094,"ners":3095,"ba":3096,"Ġimper":3097,"Ġcompanies":3098,"Ġstudies":3099,"Ġaccom":3100,"mark":3101,"Ġbelieved":3102,"Ġmission":3103,"Ġdutch":3104,"Ġjack":3105,"Ġprec":3106,"Ġexamples":3107,"ify":3108,"Ġedward":3109,"Ġcab":3110,"tar":3111,"Ġkore":3112,"otes":3113,"Ġdeleted":3114,"itude":3115,"Ġcontains":3116,"Ġcaused":3117,"Ġprimary":3118,"Ġta":3119,"Ġcolumb":3120,"east":3121,"Ġchanged":3122,"Ġoperation":3123,"Ġspring":3124,"Ġattract":3125,"Ġthings":3126,"oid":3127,"rian":3128,"Ġpaper":3129,"rial":3130,"Ġmagazine":3131,"Ġreplaced":3132,"Ġparticip":3133,"Ġsant":3134,"Ġcomed":3135,"Ġwhole":3136,"Ġedition":3137,"Ġrussia":3138,"Ġprevent":3139,"Ġterritory":3140,"Ġincreasing":3141,"Ġda":3142,"ona":3143,"anced":3144,"ishop":3145,"Ġadded":3146,"Ġnd":3147,"Ġgas":3148,"Ġbomb":3149,"Ġinvolved":3150,"Ġidea":3151,"ties":3152,"ware":3153,"Ġic":3154,"put":3155,"Ġfif":3156,"Ġetc":3157,"Ġbene":3158,"cy":3159,"Ġsense":3160,"Ġdim":3161,"round":3162,"Ġcred":3163,"Ġperh":3164,"Ġhero":3165,"iant":3166,"Ġjersey":3167,"Ġloss":3168,"Ġperhaps":3169,"asons":3170,"Ġjes":3171,"Ġheavy":3172,"bon":3173,"Ġflo":3174,"urs":3175,"inary":3176,"Ġquant":3177,"la":3178,"Ġpope":3179,"Ġrank":3180,"Ġmind":3181,"Ġiraq":3182,"Ġappears":3183,"Ġhaw":3184,"Ġsele":3185,"cent":3186,"Ġmartin":3187,"Ġrome":3188,"ysis":3189,"Ġdrug":3190,"Ġseparate":3191,"Ġemb":3192,"Ġsports":3193,"Ġbasic":3194,"Ġask":3195,"Ġwalk":3196,"Ġprogress":3197,"Ġsac":3198,"ands":3199,"rupt":3200,"istry":3201,"Ġcarolina":3202,"Ġphilosophy":3203,"Ġreview":3204,"Ġassemb":3205,"Ġcas":3206,"Ġonline":3207,"Ġislam":3208,"Ġcannot":3209,"Ġwild":3210,"Ġquestion":3211,"Ġpil":3212,"Ġdeep":3213,"Ġthink":3214,"Ġrare":3215,"Ġglob":3216,"Ġlabor":3217,"Ġdial":3218,"Ġprovided":3219,"Ġresour":3220,"ada":3221,"gl":3222,"oma":3223,"ny":3224,"ope":3225,"Ġorg":3226,"Ġmachine":3227,"Ġsurround":3228,"osh":3229,"Ġsimple":3230,"Ġletter":3231,"Ġincorpor":3232,"oe":3233,"isions":3234,"Ġcorre":3235,"Ġsources":3236,"igr":3237,"Ġeffects":3238,"Ġbroadcast":3239,"Ġoce":3240,"Ġtowards":3241,"Ġimmedi":3242,"Ġther":3243,"reat":3244,"Ġchic":3245,"Ġstories":3246,"Ġpolitics":3247,"Ġindependence":3248,"Ġlack":3249,"Ġroute":3250,"Ġprin":3251,"Ġassist":3252,"orial":3253,"Ġmetal":3254,"Ġbehind":3255,"Ġprison":3256,"Ġprior":3257,"Ġcastle":3258,"Ġprem":3259,"Ġlived":3260,"Ġtell":3261,"Ġera":3262,"Ġrequire":3263,"Ġrecently":3264,"Ġstock":3265,"Ġbecomes":3266,"Ġmedical":3267,"Ġmanagement":3268,"Ġcollection":3269,"Ġcontinu":3270,"Ġindustrial":3271,"Ġissue":3272,"da":3273,"pap":3274,"Ġfreed":3275,"Ġflorida":3276,"Ġcitiz":3277,"osph":3278,"aring":3279,"pg":3280,"Ġnuclear":3281,"Ġluc":3282,"elled":3283,"lim":3284,"Ġarts":3285,"Ġprotest":3286,"Ġconver":3287,"Ġlargely":3288,"Ġprize":3289,"Ġbelieve":3290,"Ġacademy":3291,"Ġran":3292,"icient":3293,"ken":3294,"ros":3295,"Ġintegr":3296,"icted":3297,"Ġoly":3298,"Ġauthority":3299,"Ġrules":3300,"Ġrunning":3301,"Ġmix":3302,"Ġjoined":3303,"aland":3304,"Ġsmaller":3305,"Ġslow":3306,"Ġpoly":3307,"eck":3308,"Ġjul":3309,"Ġmunicipal":3310,"Ġles":3311,"ado":3312,"Ġstra":3313,"Ġunc":3314,"Ġmexico":3315,"Ġdegree":3316,"Ġmir":3317,"Ġjim":3318,"Ġsuffer":3319,"Ġhighly":3320,"Ġtru":3321,"Ġreligion":3322,"arent":3323,"Ġmention":3324,"Ġdemocratic":3325,"Ġtaking":3326,"lor":3327,"Ġacqu":3328,"Ġtakes":3329,"Ġmarria":3330,"lled":3331,"Ġiron":3332,"Ġolymp":3333,"outh":3334,"Ġaddress":3335,"Ġstatus":3336,"Ġlikely":3337,"Ġclassical":3338,"Ġvari":3339,"Ġtroops":3340,"Ġray":3341,"Ġwel":3342,"Ġgrowth":3343,"Ġfest":3344,"my":3345,"Ġdeterm":3346,"Ġagric":3347,"erve":3348,"Ġconnect":3349,"Ġissues":3350,"Ġwing":3351,"inois":3352,"ously":3353,"Ġsettle":3354,"Ġtheat":3355,"Ġdraw":3356,"Ġarticles":3357,"Ġcounter":3358,"Ġreported":3359,"Ġring":3360,"Ġcultural":3361,"Ġemerg":3362,"Ġinstitute":3363,"ellig":3364,"cer":3365,"ola":3366,"Ġpoor":3367,"Ġwa":3368,"shire":3369,"Ġillinois":3370,"Ġvirt":3371,"Ġbeat":3372,"Ġcateg":3373,"Ġconflict":3374,"Ġproduce":3375,"Ġdirectly":3376,"Ġstars":3377,"Ġdefined":3378,"azz":3379,"Ġcham":3380,"och":3381,"rence":3382,"Ġadm":3383,"Ġelectr":3384,"Ġnewspap":3385,"Ġindic":3386,"Ġnearly":3387,"Ġperformed":3388,"Ġmoon":3389,"Ġveh":3390,"ription":3391,"Ġalph":3392,"Ġkr":3393,"Ġbeach":3394,"Ġcelebr":3395,"Ġconv":3396,"Ġhung":3397,"iences":3398,"Ġamb":3399,"ech":3400,"esis":3401,"Ġnumerous":3402,"Ġdemon":3403,"ression":3404,"Ġsav":3405,"Ġworked":3406,"izing":3407,"Ġcreate":3408,"Ġsuc":3409,"Ġsearch":3410,"Ġresults":3411,"su":3412,"Ġoperations":3413,"Ġquar":3414,"Ġvon":3415,"Ġbelief":3416,"Ġhyd":3417,"Ġmurder":3418,"Ġscientific":3419,"road":3420,"Ġmis":3421,"Ġcommitte":3422,"Ġagricult":3423,"Ġproperty":3424,"the":3425,"Ġadj":3426,"ini":3427,"Ġrand":3428,"Ġcup":3429,"eless":3430,"Ġpron":3431,"Ġrot":3432,"Ġrepublican":3433,"town":3434,"Ġactive":3435,"Ġsens":3436,"Ġprofessional":3437,"Ġclaimed":3438,"Ġlatter":3439,"Ġcontract":3440,"Ġsuff":3441,"Ġremain":3442,"Ġspl":3443,"Ġportug":3444,"Ġforced":3445,"Ġknowledge":3446,"Ġparties":3447,"bury":3448,"Ġtraining":3449,"iles":3450,"Ġhund":3451,"Ġrailway":3452,"wise":3453,"Ġlie":3454,"stein":3455,"Ġintellig":3456,"Ġstone":3457,"Ġconstruct":3458,"iance":3459,"Ġmm":3460,"att":3461,"Ġinvent":3462,"Ġstep":3463,"ables":3464,"Ġappointed":3465,"Ġsar":3466,"Ġbell":3467,"Ġopened":3468,"erved":3469,"Ġord":3470,"Ġthous":3471,"Ġbehav":3472,"Ġvariety":3473,"Ġproducts":3474,"Ġsomething":3475,"Ġcub":3476,"porary":3477,"Ġchicago":3478,"Ġliberal":3479,"Ġresist":3480,"Ġhighest":3481,"uries":3482,"Ġupper":3483,"light":3484,"tered":3485,"Ġok":3486,"utive":3487,"Ġfeatured":3488,"Ġinn":3489,"Ġvehic":3490,"vin":3491,"Ġtreaty":3492,"Ġgh":3493,"Ġvia":3494,"Ġflight":3495,"Ġpath":3496,"win":3497,"Ġplaced":3498,"Ġsexual":3499,"Ġhundred":3500,"eme":3501,"Ġax":3502,"head":3503,"umn":3504,"era":3505,"oul":3506,"ios":3507,"Ġpressure":3508,"za":3509,"Ġdia":3510,"Ġchemical":3511,"Ġspeak":3512,"Ġbudd":3513,"Ġunderstand":3514,"Ġdivided":3515,"Ġinsp":3516,"bridge":3517,"Ġconsum":3518,"Ġdrum":3519,"Ġscotland":3520,"Ġdar":3521,"Ġpack":3522,"Ġfinanc":3523,"ng":3524,"Ġsweden":3525,"Ġexch":3526,"sec":3527,"ament":3528,"Ġbrief":3529,"Ġapproximately":3530,"Ġris":3531,"Ġethn":3532,"Ġmaxim":3533,"Ġships":3534,"abb":3535,"oting":3536,"Ġbon":3537,"Ġholy":3538,"mitted":3539,"Ġdecided":3540,"Ġkent":3541,"astic":3542,"Ġmerc":3543,"Ġpromin":3544,"Ġcontent":3545,"Ġphotograph":3546,"Ġalternative":3547,"Ġsucceed":3548,"Ġnormal":3549,"Ġjean":3550,"Ġalbums":3551,"Ġbob":3552,"Ġshown":3553,"Ġprograms":3554,"Ġincreased":3555,"Ġcer":3556,"Ġlegend":3557,"Ġpassed":3558,"Ġast":3559,"Ġfict":3560,"Ġseem":3561,"Ġgot":3562,"Ġquickly":3563,"Ġjacks":3564,"Ġzealand":3565,"Ġunlike":3566,"Ġdistinct":3567,"Ġdouble":3568,"iana":3569,"Ġbass":3570,"Ġmarriage":3571,"Ġchampionship":3572,"Ġmas":3573,"ibly":3574,"aled":3575,"Ġcommunities":3576,"Ġil":3577,"Ġmedic":3578,"ux":3579,"Ġstudent":3580,"Ġimages":3581,"yth":3582,"ycl":3583,"Ġfast":3584,"onents":3585,"rison":3586,"Ġcontem":3587,"Ġsecretary":3588,"Ġfel":3589,"resp":3590,"Ġguard":3591,"Ġobtain":3592,"oses":3593,"Ġsin":3594,"Ġquite":3595,"Ġapparent":3596,"Ġsymbol":3597,"Ġmemory":3598,"Ġtheore":3599,"Ġastr":3600,"Ġmeasure":3601,"Ġrang":3602,"Ġdigital":3603,"Ġbbc":3604,"board":3605,"Ġpowers":3606,"Ġarms":3607,"gor":3608,"Ġfans":3609,"Ġoxford":3610,"Ġfrequently":3611,"back":3612,"Ġasia":3613,"Ġocean":3614,"Ġlee":3615,"Ġstan":3616,"Ġtwent":3617,"wan":3618,"Ġadministration":3619,"Ġfeel":3620,"Ġclaims":3621,"Ġadvent":3622,"Ġregional":3623,"Ġnet":3624,"Ġcarry":3625,"Ġanalysis":3626,"Ġcarl":3627,"Ġvoice":3628,"med":3629,"ita":3630,"Ġface":3631,"asty":3632,"Ġcomposer":3633,"Ġga":3634,"Ġcandid":3635,"Ġnick":3636,"tr":3637,"Ġjac":3638,"Ġash":3639,"Ġdirected":3640,"Ġrefers":3641,"sp":3642,"Ġdefense":3643,"Ġmainly":3644,"Ġtable":3645,"Ġmatter":3646,"Ġblock":3647,"ients":3648,"tm":3649,"Ġpicture":3650,"Ġly":3651,"illa":3652,"Ġscreen":3653,"Ġobserv":3654,"izations":3655,"Ġmarsh":3656,"Ġhyp":3657,"zz":3658,"Ġhonor":3659,"Ġscale":3660,"Ġquality":3661,"Ġrepresentative":3662,"Ġjackson":3663,"Ġassum":3664,"Ġbasis":3665,"Ġna":3666,"Ġfeet":3667,"Ġdro":3668,"aska":3669,"ena":3670,"ura":3671,"Ġcomes":3672,"Ġcommittee":3673,"Ġba":3674,"Ġbuildings":3675,"Ġdiscovered":3676,"Ġturned":3677,"gar":3678,"Ġvisit":3679,"Ġshot":3680,"iter":3681,"Ġgoing":3682,"Ġwinter":3683,"Ġott":3684,"Ġconditions":3685,"Ġletters":3686,"Ġadditional":3687,"gn":3688,"aging":3689,"Ġrose":3690,"Ġtree":3691,"Ġinhab":3692,"Ġtransfer":3693,"Ġnotes":3694,"Ġengineering":3695,"Ġactors":3696,"ias":3697,"Ġspect":3698,"tery":3699,"Ġbaseball":3700,"Ġmut":3701,"Ġincrease":3702,"Ġmunicipality":3703,"Ġnoted":3704,"Ġdiss":3705,"Ġcru":3706,"gs":3707,"Ġcreation":3708,"Ġdecision":3709,"Ġimplement":3710,"Ġnap":3711,"Ġfourth":3712,"Ġtransform":3713,"Ġartists":3714,"Ġbring":3715,"don":3716,"Ġfriends":3717,"Ġcos":3718,"Ġimperial":3719,"Ġhighway":3720,"Ġnomin":3721,"Ġprogramming":3722,"oke":3723,"Ġfaith":3724,"Ġarth":3725,"Ġmonarch":3726,"Ġrd":3727,"Ġsomewh":3728,"Ġbranch":3729,"hol":3730,"Ġurban":3731,"Ġtend":3732,"Ġram":3733,"Ġrelatively":3734,"Ġwave":3735,"Ġhind":3736,"Ġrepe":3737,"Ġalexander":3738,"Ġawards":3739,"Ġwales":3740,"Ġmatch":3741,"Ġice":3742,"Ġsail":3743,"fl":3744,"Ġability":3745,"Ġgeorgia":3746,"ett":3747,"Ġeg":3748,"Ġrestr":3749,"Ġvolume":3750,"Ġreached":3751,"Ġjews":3752,"Ġfictional":3753,"Ġcorresp":3754,"Ġscene":3755,"Ġprimarily":3756,"ulated":3757,"Ġcorrespond":3758,"enth":3759,"Ġkil":3760,"Ġperman":3761,"Ġfal":3762,"Ġjustice":3763,"Ġinterview":3764,"Ġpattern":3765,"Ġweapons":3766,"Ġtrial":3767,"li":3768,"Ġserious":3769,"ws":3770,"Ġexperience":3771,"Ġell":3772,"Ġfrac":3773,"mission":3774,"Ġnaz":3775,"Ġdisease":3776,"oration":3777,"Ġinstrument":3778,"Ġlif":3779,"Ġversions":3780,"Ġintended":3781,"onia":3782,"ca":3783,"Ġreve":3784,"Ġuniverse":3785,"Ġappearance":3786,"Ġmcc":3787,"Ġll":3788,"Ġjpg":3789,"onse":3790,"ker":3791,"ouri":3792,"Ġmuslim":3793,"Ġthreat":3794,"Ġpossess":3795,"Ġcaptain":3796,"Ġros":3797,"Ġwriters":3798,"Ġplanet":3799,"ortun":3800,"Ġcold":3801,"Ġrain":3802,"Ġcompl":3803,"Ġstaff":3804,"ivity":3805,"Ġpier":3806,"Ġclos":3807,"bre":3808,"Ġcrow":3809,"Ġoperating":3810,"Ġapplied":3811,"Ġfigure":3812,"Ġpurpose":3813,"Ġattrib":3814,"Ġans":3815,"Ġsho":3816,"onym":3817,"Ġcollect":3818,"uated":3819,"Ġak":3820,"Ġfat":3821,"Ġpul":3822,"Ġadopted":3823,"Ġfreedom":3824,"Ġshar":3825,"Ġbond":3826,"cher":3827,"Ġtu":3828,"Ġfunctions":3829,"Ġinside":3830,"itation":3831,"eds":3832,"Ġbol":3833,"rey":3834,"Ġbraz":3835,"Ġmonth":3836,"Ġviet":3837,"Ġpowerful":3838,"Ġpolish":3839,"Ġpurch":3840,"Ġrise":3841,"Ġorient":3842,"Ġartist":3843,"Ġalbert":3844,"Ġanimals":3845,"Ġrapid":3846,"Ġtou":3847,"Ġhan":3848,"gers":3849,"Ġmodified":3850,"Ġmissouri":3851,"isation":3852,"Ġconqu":3853,"Ġstren":3854,"Ġended":3855,"Ġhur":3856,"Ġbrand":3857,"Ġpreviously":3858,"Ġhours":3859,"Ġswe":3860,"Ġfocus":3861,"Ġtrip":3862,"iber":3863,"Ġlevels":3864,"Ġmethods":3865,"Ġnether":3866,"Ġdoct":3867,"ua":3868,"Ġded":3869,"Ġbecoming":3870,"iang":3871,"Ġexpand":3872,"Ġbenef":3873,"Ġcalcul":3874,"mond":3875,"Ġgolden":3876,"Ġwindows":3877,"Ġdip":3878,"Ġfleet":3879,"Ġairlines":3880,"Ġtun":3881,"Ġreading":3882,"isco":3883,"Ġcoal":3884,"Ġmotor":3885,"Ġhorse":3886,"Ġfill":3887,"Ġterror":3888,"aught":3889,"Ġmountains":3890,"Ġmultiple":3891,"Ġbush":3892,"Ġful":3893,"iate":3894,"Ġanne":3895,"Ġdirection":3896,"Ġkings":3897,"Ġconsists":3898,"Ġdistance":3899,"Ġinvestig":3900,"Ġpng":3901,"rents":3902,"rative":3903,"Ġhydro":3904,"Ġbey":3905,"Ġprofessor":3906,"Ġvote":3907,"Ġestim":3908,"Ġresponse":3909,"Ġcustom":3910,"Ġorch":3911,"Ġscottish":3912,"Ġhab":3913,"more":3914,"Ġgirl":3915,"Ġvillages":3916,"itan":3917,"Ġcontain":3918,"Ġdisplay":3919,"Ġelections":3920,"Ġderived":3921,"Ġdistingu":3922,"usc":3923,"abeth":3924,"Ġassembly":3925,"Ġsigned":3926,"Ġdynasty":3927,"aur":3928,"oved":3929,"Ġcompleted":3930,"Ġgreatest":3931,"Ġsupported":3932,"Ġtreatment":3933,"Ġspeech":3934,"Ġdur":3935,"Ġannounced":3936,"Ġamericans":3937,"ami":3938,"mann":3939,"ining":3940,"Ġhell":3941,"Ġcompletely":3942,"Ġfoundation":3943,"Ġpian":3944,"Ġfailed":3945,"Ġdance":3946,"Ġtravel":3947,"Ġswedish":3948,"owa":3949,"Ġfoun":3950,"ala":3951,"Ġchall":3952,"Ġwhy":3953,"achus":3954,"Ġaccepted":3955,"Ġguide":3956,"vey":3957,"Ġmom":3958,"ads":3959,"Ġfan":3960,"Ġdefinition":3961,"Ġcompar":3962,"Ġhands":3963,"Ġaspect":3964,"ging":3965,"Ġwear":3966,"ption":3967,"Ġkong":3968,"rich":3969,"icks":3970,"Ġactual":3971,"isters":3972,"Ġstreng":3973,"Ġcritical":3974,"Ġhosp":3975,"iro":3976,"Ġsteph":3977,"Ġangeles":3978,"iques":3979,"Ġcontact":3980,"Ġcomment":3981,"Ġtemple":3982,"Ġfinancial":3983,"Ġwit":3984,"ev":3985,"onent":3986,"ered":3987,"Ġlives":3988,"Ġunique":3989,"rated":3990,"Ġobjects":3991,"Ġjones":3992,"Ġbiography":3993,"Ġencycl":3994,"oper":3995,"Ġnetherlands":3996,"Ġexact":3997,"ped":3998,"olved":3999,"Ġmob":4000,"gian":4001,"Ġtan":4002,"Ġbrazil":4003,"Ġfant":4004,"Ġbib":4005,"Ġanimal":4006,"Ġstations":4007,"Ġfarm":4008,"Ġunf":4009,"Ġbod":4010,"Ġjeff":4011,"Ġfell":4012,"Ġdoctor":4013,"Ġgramm":4014,"Ġconcent":4015,"Ġark":4016,"Ġequal":4017,"Ġimpl":4018,"Ġbishop":4019,"Ġjesus":4020,"oh":4021,"Ġinj":4022,"Ġbeaut":4023,"Ġroom":4024,"Ġproposed":4025,"Ġdemonstr":4026,"Ġker":4027,"mas":4028,"Ġformat":4029,"Ġmand":4030,"Ġbatt":4031,"Ġcitizens":4032,"Ġmotion":4033,"Ġgives":4034,"Ġunkn":4035,"Ġplays":4036,"Ġjohnson":4037,"Ġdan":4038,"kins":4039,"met":4040,"Ġprovides":4041,"Ġund":4042,"Ġregions":4043,"Ġpick":4044,"Ġkansas":4045,"Ġweight":4046,"Ġcolumbia":4047,"Ġsax":4048,"Ġarthur":4049,"isms":4050,"awa":4051,"Ġfix":4052,"Ġways":4053,"Ġnecessary":4054,"ey":4055,"Ġfavor":4056,"Ġeliz":4057,"Ġequival":4058,"Ġcel":4059,"wa":4060,"Ġcompr":4061,"Ġtrain":4062,"Ġcritics":4063,"Ġcharl":4064,"Ġacts":4065,"Ġcomic":4066,"Ġhtm":4067,"Ġsupreme":4068,"see":4069,"Ġmagn":4070,"Ġconservative":4071,"Ġdang":4072,"Ġcarried":4073,"Ġcenturies":4074,"Ġprice":4075,"Ġcampus":4076,"Ġinitial":4077,"iger":4078,"Ġeye":4079,"Ġneeded":4080,"etts":4081,"Ġencyclop":4082,"Ġdat":4083,"Ġrecon":4084,"Ġexistence":4085,"Ġchair":4086,"Ġimmediately":4087,"Ġcommunist":4088,"Ġresources":4089,"Ġfile":4090,"Ġbern":4091,"Ġstarting":4092,"Ġattacks":4093,"Ġdestroyed":4094,"Ġcondition":4095,"Ġnov":4096,"Ġsilver":4097,"Ġroll":4098,"mont":4099,"Ġsignal":4100,"rol":4101,"Ġcrown":4102,"Ġafgh":4103,"Ġclin":4104,"Ġformal":4105,"Ġpit":4106,"inet":4107,"Ġseems":4108,"Ġopposition":4109,"gu":4110,"Ġdrive":4111,"Ġflu":4112,"Ġslight":4113,"Ġbeyond":4114,"chester":4115,"Ġexchange":4116,"Ġregarded":4117,"Ġactivities":4118,"thodox":4119,"Ġbarb":4120,"writ":4121,"Ġdail":4122,"anda":4123,"Ġtemperature":4124,"Ġmarc":4125,"Ġphen":4126,"Ġsky":4127,"Ġpotential":4128,"ares":4129,"Ġshare":4130,"Ġunknown":4131,"Ġteams":4132,"Ġillust":4133,"Ġmayor":4134,"Ġsle":4135,"Ġjazz":4136,"Ġmassachus":4137,"Ġoccasion":4138,"Ġspr":4139,"Ġcrim":4140,"Ġstrength":4141,"Ġontar":4142,"Ġethnic":4143,"Ġowned":4144,"Ġmassachusetts":4145,"Ġequip":4146,"Ġsoldiers":4147,"uting":4148,"Ġdistribution":4149,"Ġinstance":4150,"Ġconvention":4151,"Ġelse":4152,"stone":4153,"Ġbelong":4154,"Ġgeneration":4155,"Ġextremely":4156,"Ġideas":4157,"Ġcoup":4158,"Ġontario":4159,"Ġvictory":4160,"Ġwilliams":4161,"Ġens":4162,"Ġsister":4163,"Ġnaval":4164,"Ġmythology":4165,"Ġtraff":4166,"Ġgrowing":4167,"Ġdemand":4168,"Ġyellow":4169,"Ġfestival":4170,"Ġresponsible":4171,"ancy":4172,"Ġharry":4173,"iny":4174,"Ġreject":4175,"ih":4176,"Ġglobal":4177,"Ġconference":4178,"Ġintroduction":4179,"emic":4180,"Ġrub":4181,"Ġentertain":4182,"Ġconte":4183,"Ġmos":4184,"Ġdaily":4185,"Ġsomewhat":4186,"inger":4187,"Ġdor":4188,"Ġskill":4189,"Ġcree":4190,"Ġexecutive":4191,"Ġaz":4192,"Ġproducer":4193,"ato":4194,"asy":4195,"teen":4196,"Ġmodels":4197,"Ġhong":4198,"Ġconsequ":4199,"Ġfolk":4200,"Ġmole":4201,"Ġparal":4202,"bra":4203,"ening":4204,"ava":4205,"omp":4206,"Ġelizabeth":4207,"Ġgiving":4208,"Ġcontinue":4209,"Ġstated":4210,"Ġinitially":4211,"Ġinternal":4212,"Ġorthodox":4213,"Ġrough":4214,"Ġdram":4215,"Ġdra":4216,"Ġnothing":4217,"Ġsenate":4218,"Ġfame":4219,"Ġpolitician":4220,"Ġcook":4221,"action":4222,"Ġmentioned":4223,"Ġrecording":4224,"Ġclosed":4225,"Ġbrain":4226,"Ġchart":4227,"Ġcontrast":4228,"kh":4229,"Ġofficer":4230,"Ġallows":4231,"Ġeditor":4232,"Ġlabour":4233,"Ġtower":4234,"Ġbrothers":4235,"Ġclassic":4236,"Ġafghan":4237,"Ġwinning":4238,"Ġactivity":4239,"Ġlady":4240,"Ġdun":4241,"Ġimprove":4242,"ket":4243,"encies":4244,"Ġruns":4245,"Ġevolution":4246,"Ġentered":4247,"Ġune":4248,"Ġphilip":4249,"Ġsites":4250,"Ġopening":4251,"vert":4252,"Ġofficially":4253,"Ġhistoric":4254,"Ġequipment":4255,"osis":4256,"Ġfields":4257,"ione":4258,"Ġgene":4259,"Ġpercent":4260,"Ġjur":4261,"agan":4262,"po":4263,"Ġtranslation":4264,"Ġnotably":4265,"Ġopposed":4266,"Ġadvant":4267,"Ġlists":4268,"Ġphr":4269,"Ġprominent":4270,"Ġformerly":4271,"Ġiowa":4272,"Ġdefeated":4273,"ault":4274,"Ġphysics":4275,"illy":4276,"worth":4277,"Ġwid":4278,"Ġincorporated":4279,"Ġft":4280,"Ġtheatre":4281,"Ġpoland":4282,"Ġfit":4283,"Ġreign":4284,"Ġspok":4285,"Ġminim":4286,"Ġremaining":4287,"ucky":4288,"unt":4289,"Ġsplit":4290,"Ġspent":4291,"Ġtra":4292,"Ġka":4293,"ressed":4294,"Ġcambridge":4295,"Ġcorporation":4296,"Ġfrancisco":4297,"Ġtub":4298,"Ġleaving":4299,"Ġcatal":4300,"Ġwant":4301,"Ġalf":4302,"Ġconstit":4303,"house":4304,"Ġcells":4305,"Ġfuel":4306,"Ġintel":4307,"Ġcontemporary":4308,"ivers":4309,"Ġspeaking":4310,"Ġcrime":4311,"Ġaim":4312,"Ġlas":4313,"Ġbackground":4314,"Ġprefer":4315,"Ġheat":4316,"Ġberlin":4317,"Ġrivers":4318,"Ġbott":4319,"Ġhouses":4320,"Ġlaunched":4321,"Ġcharge":4322,"Ġpiece":4323,"Ġmoving":4324,"Ġcommander":4325,"Ġneighbor":4326,"Ġpossibly":4327,"Ġsport":4328,"Ġgrant":4329,"gal":4330,"Ġinvasion":4331,"Ġves":4332,"yan":4333,"Ġresidents":4334,"Ġprotection":4335,"ropol":4336,"Ġnewspaper":4337,"Ġacid":4338,"Ġeasily":4339,"uls":4340,"Ġadvanced":4341,"ram":4342,"Ġintelligence":4343,"Ġsituation":4344,"Ġperfect":4345,"Ġattention":4346,"Ġworkers":4347,"Ġmathematics":4348,"Ġlew":4349,"Ġign":4350,"iar":4351,"Ġfighting":4352,"Ġjr":4353,"Ġpages":4354,"Ġcla":4355,"orter":4356,"Ġcopyr":4357,"Ġatlantic":4358,"Ġopera":4359,"Ġosc":4360,"Ġserve":4361,"Ġlot":4362,"duce":4363,"Ġadult":4364,"Ġts":4365,"Ġfran":4366,"atch":4367,"Ġvac":4368,"tical":4369,"Ġchamber":4370,"Ġstay":4371,"iced":4372,"Ġsuit":4373,"Ġvice":4374,"Ġretain":4375,"Ġwatch":4376,"Ġdeclared":4377,"Ġmedicine":4378,"Ġlabel":4379,"Ġachieve":4380,"Ġremoved":4381,"elling":4382,"Ġfu":4383,"Ġdoub":4384,"Ġboston":4385,"ils":4386,"Ġspecif":4387,"orph":4388,"Ġwrite":4389,"Ġfox":4390,"Ġinterpret":4391,"Ġcorrect":4392,"Ġbed":4393,"Ġapple":4394,"Ġnorthwest":4395,"iders":4396,"war":4397,"Ġcombined":4398,"Ġuss":4399,"Ġapart":4400,"Ġphilipp":4401,"Ġhumans":4402,"erto":4403,"Ġfreder":4404,"Ġbegins":4405,"icial":4406,"Ġapplications":4407,"Ġpresidential":4408,"Ġnearby":4409,"Ġreasons":4410,"rees":4411,"Ġresulting":4412,"jo":4413,"Ġtel":4414,"rie":4415,"Ġagreement":4416,"aped":4417,"bed":4418,"Ġtechniques":4419,"Ġpalest":4420,"Ġvalues":4421,"inn":4422,"Ġfear":4423,"quar":4424,"Ġnorway":4425,"Ġarchitecture":4426,"Ġnom":4427,"utation":4428,"Ġplot":4429,"Ġoffered":4430,"Ġextended":4431,"Ġdv":4432,"uff":4433,"ador":4434,"Ġnobel":4435,"Ġcomedy":4436,"iel":4437,"Ġorganizations":4438,"rine":4439,"orks":4440,"Ġmaps":4441,"Ġrailroad":4442,"new":4443,"Ġhelped":4444,"Ġcombat":4445,"Ġutc":4446,"Ġplants":4447,"Ġconsc":4448,"Ġiran":4449,"Ġusers":4450,"Ġmagnet":4451,"Ġarrest":4452,"Ġtechnical":4453,"Ġpc":4454,"add":4455,"Ġwee":4456,"omm":4457,"Ġbac":4458,"Ġneut":4459,"Ġleave":4460,"Ġuniversal":4461,"Ġanton":4462,"Ġmah":4463,"Ġswitch":4464,"Ġminutes":4465,"Ġgained":4466,"Ġattempts":4467,"fr":4468,"Ġexcl":4469,"Ġaffairs":4470,"Ġentry":4471,"ping":4472,"Ġannual":4473,"Ġshall":4474,"Ġflat":4475,"idae":4476,"Ġcore":4477,"Ġinhabit":4478,"Ġnovels":4479,"Ġmaterials":4480,"Ġfounder":4481,"uters":4482,"Ġpak":4483,"Ġsays":4484,"Ġfigures":4485,"Ġcant":4486,"ule":4487,"Ġcauses":4488,"ogy":4489,"Ġexpected":4490,"Ġscen":4491,"Ġsnow":4492,"Ġcomposed":4493,"Ġsupply":4494,"Ġkept":4495,"Ġefforts":4496,"Ġtraffic":4497,"icit":4498,"Ġhills":4499,"inated":4500,"Ġprep":4501,"Ġtrust":4502,"Ġavoid":4503,"Ġsets":4504,"Ġcopyright":4505,"Ġstring":4506,"Ġstandards":4507,"oud":4508,"Ġuseful":4509,"Ġdefeat":4510,"bl":4511,"Ġfollows":4512,"Ġburn":4513,"Ġron":4514,"Ġexperim":4515,"Ġstrip":4516,"Ġsatell":4517,"Ġdak":4518,"Ġinfant":4519,"Ġtypical":4520,"Ġastronom":4521,"Ġstudio":4522,"Ġdamage":4523,"Ġgrew":4524,"Ġextra":4525,"Ġenemy":4526,"Ġimpact":4527,"Ġsanta":4528,"resh":4529,"Ġvel":4530,"Ġliterary":4531,"Ġdialect":4532,"ologist":4533,"Ġaustria":4534,"Ġbuddh":4535,"Ġny":4536,"Ġmort":4537,"Ġphoto":4538,"arm":4539,"ety":4540,"reed":4541,"Ġku":4542,"Ġmax":4543,"Ġdetect":4544,"Ġrequest":4545,"Ġmist":4546,"Ġdry":4547,"Ġconnected":4548,"Ġbible":4549,"Ġsettlement":4550,"Ġadvoc":4551,"Ġelectronic":4552,"Ġtai":4553,"Ġmeeting":4554,"wick":4555,"ja":4556,"Ġencour":4557,"pped":4558,"Ġentirely":4559,"Ġgoes":4560,"ounds":4561,"uts":4562,"rim":4563,"Ġrecover":4564,"Ġcrew":4565,"Ġmail":4566,"phas":4567,"Ġmovies":4568,"Ġapplication":4569,"Ġalt":4570,"Ġpresence":4571,"Ġcooper":4572,"Ġraised":4573,"Ġpitch":4574,"Ġdevice":4575,"Ġtried":4576,"Ġdoll":4577,"uate":4578,"Ġrisk":4579,"ipped":4580,"Ġasked":4581,"Ġtwenty":4582,"Ġchoice":4583,"Ġsevere":4584,"Ġorchest":4585,"Ġexpans":4586,"Ġadmir":4587,"inity":4588,"Ġprincess":4589,"Ġhem":4590,"Ġconnection":4591,"Ġskin":4592,"entially":4593,"adel":4594,"Ġtownships":4595,"oty":4596,"andon":4597,"Ġbattles":4598,"Ġprint":4599,"Ġaccur":4600,"any":4601,"Ġinfluenced":4602,"Ġtold":4603,"Ġturk":4604,"Ġcapac":4605,"Ġgoal":4606,"Ġopin":4607,"wide":4608,"Ġip":4609,"Ġholly":4610,"xual":4611,"Ġprote":4612,"Ġfeat":4613,"Ġeffective":4614,"Ġcompared":4615,"Ġchampion":4616,"Ġaudio":4617,"Ġandrew":4618,"Ġwealth":4619,"Ġdistricts":4620,"Ġdepend":4621,"Ġrepresented":4622,"rain":4623,"mo":4624,"Ġmeant":4625,"can":4626,"Ġnas":4627,"hi":4628,"abor":4629,"Ġfalls":4630,"Ġparents":4631,"Ġsynth":4632,"Ġextensive":4633,"Ġmarg":4634,"edd":4635,"eral":4636,"ern":4637,"ici":4638,"Ġcards":4639,"Ġcow":4640,"Ġwanted":4641,"Ġproperties":4642,"Ġcircum":4643,"ocks":4644,"Ġhour":4645,"Ġoperated":4646,"Ġbands":4647,"Ġviews":4648,"Ġindeed":4649,"Ġphenomen":4650,"ithm":4651,"Ġglass":4652,"Ġshortly":4653,"Ġcontroversy":4654,"ements":4655,"Ġcompil":4656,"Ġframe":4657,"Ġnegative":4658,"estic":4659,"Ġkir":4660,"Ġgay":4661,"inian":4662,"Ġindiana":4663,"aniel":4664,"ogue":4665,"Ġplans":4666,"yer":4667,"Ġmarked":4668,"itzer":4669,"Ġmere":4670,"Ġdescribe":4671,"Ġsom":4672,"Ġlimit":4673,"Ġsides":4674,"Ġedge":4675,"Ġfrequency":4676,"Ġcontrolled":4677,"Ġordered":4678,"Ġsud":4679,"Ġcriminal":4680,"Ġfully":4681,"Ġones":4682,"Ġton":4683,"Ġbes":4684,"Ġtitles":4685,"Ġexhib":4686,"Ġmyster":4687,"ached":4688,"Ġreduced":4689,"Ġmusician":4690,"ette":4691,"Ġsubsequently":4692,"Ġsettled":4693,"Ġstor":4694,"Ġtay":4695,"Ġcarbon":4696,"Ġalgor":4697,"Ġcoming":4698,"izes":4699,"Ġmusicians":4700,"pton":4701,"rick":4702,"Ġabandon":4703,"Ġproved":4704,"Ġgarden":4705,"aven":4706,"bec":4707,"where":4708,"Ġidentity":4709,"Ġrum":4710,"Ġkorea":4711,"otic":4712,"Ġrus":4713,"joy":4714,"Ġepisodes":4715,"Ġaid":4716,"Ġsuggested":4717,"Ġscript":4718,"Ġlyr":4719,"Ġotherwise":4720,"ictions":4721,"Ġpictures":4722,"mans":4723,"Ġquarter":4724,"Ġcaptured":4725,"Ġpure":4726,"Ġsurrounding":4727,"iform":4728,"Ġthing":4729,"ocol":4730,"Ġequivalent":4731,"burgh":4732,"soft":4733,"Ġtail":4734,"Ġuniversities":4735,"Ġqual":4736,"Ġparalle":4737,"sell":4738,"Ġrefused":4739,"Ġvary":4740,"zy":4741,"Ġoak":4742,"Ġexisting":4743,"lah":4744,"Ġdifference":4745,"ropri":4746,"Ġattempted":4747,"Ġsteel":4748,"Ġcontext":4749,"Ġford":4750,"Ġorange":4751,"Ġheb":4752,"Ġsusp":4753,"Ġstore":4754,"Ġinstall":4755,"theless":4756,"lers":4757,"Ġsolid":4758,"inces":4759,"Ġemphas":4760,"Ġinspired":4761,"Ġrecognized":4762,"Ġarc":4763,"Ġpopularity":4764,"Ġconfeder":4765,"work":4766,"Ġseg":4767,"Ġleadership":4768,"Ġhair":4769,"Ġmississ":4770,"inate":4771,"Ġatm":4772,"ko":4773,"Ġplane":4774,"acing":4775,"Ġtheme":4776,"state":4777,"rel":4778,"ilton":4779,"Ġpeak":4780,"Ġcris":4781,"Ġinhabitants":4782,"Ġsher":4783,"Ġseek":4784,"Ġarmed":4785,"Ġdetails":4786,"Ġmetropol":4787,"Ġbehavior":4788,"Ġvictim":4789,"Ġcontest":4790,"Ġstad":4791,"Ġpalace":4792,"Ġselected":4793,"eland":4794,"edral":4795,"Ġcontroversial":4796,"Ġah":4797,"bi":4798,"Ġconvers":4799,"icians":4800,"Ġgreece":4801,"Ġleon":4802,"Ġallowing":4803,"Ġweeks":4804,"venue":4805,"Ġdream":4806,"Ġtry":4807,"Ġmemorial":4808,"Ġdescription":4809,"Ġpieces":4810,"Ġtransportation":4811,"Ġzone":4812,"Ġstudied":4813,"Ġsucceeded":4814,"Ġfactor":4815,"Ġstephen":4816,"Ġgn":4817,"Ġcompetition":4818,"Ġpropos":4819,"Ġusage":4820,"Ġpoll":4821,"Ġcreek":4822,"Ġactions":4823,"Ġped":4824,"Ġoccurred":4825,"Ġfellow":4826,"fare":4827,"Ġpatri":4828,"ippi":4829,"Ġdisor":4830,"Ġchurches":4831,"Ġlies":4832,"lying":4833,"Ġarrived":4834,"Ġcontaining":4835,"Ġforward":4836,"Ġassass":4837,"Ġhospital":4838,"Ġeffort":4839,"Ġslightly":4840,"rix":4841,"ati":4842,"Ġsuppl":4843,"Ġsubur":4844,"ji":4845,"Ġkid":4846,"Ġdakota":4847,"Ġmunicipalities":4848,"Ġshop":4849,"Ġsimpl":4850,"Ġcm":4851,"Ġzh":4852,"Ġlincol":4853,"Ġphase":4854,"Ġcod":4855,"Ġtrail":4856,"Ġclar":4857,"Ġsell":4858,"Ġsolar":4859,"Ġpresented":4860,"Ġwolf":4861,"Ġawarded":4862,"Ġvictoria":4863,"ulate":4864,"stream":4865,"Ġlincoln":4866,"pa":4867,"amin":4868,"Ġdatab":4869,"Ġinher":4870,"Ġdiction":4871,"Ġjudge":4872,"Ġreaction":4873,"aming":4874,"Ġsenator":4875,"Ġoklah":4876,"Ġworth":4877,"ez":4878,"Ġcriticism":4879,"vi":4880,"Ġaffect":4881,"anged":4882,"Ġdipl":4883,"Ġjoe":4884,"osen":4885,"Ġenjoy":4886,"Ġpoetry":4887,"Ġresistance":4888,"imb":4889,"Ġoklahoma":4890,"ella":4891,"ipe":4892,"Ġalliance":4893,"Ġprovinces":4894,"Ġpp":4895,"Ġbru":4896,"Ġdecades":4897,"Ġcha":4898,"Ġofficers":4899,"Ġoldest":4900,"Ġcu":4901,"Ġstraight":4902,"Ġsequence":4903,"Ġtruth":4904,"Ġfailure":4905,"Ġcomics":4906,"Ġlands":4907,"Ġhence":4908,"Ġdougl":4909,"Ġvietnam":4910,"Ġpositive":4911,"Ġnic":4912,"Ġprinciple":4913,"Ġmedal":4914,"Ġcars":4915,"Ġstrug":4916,"mun":4917,"Ġgods":4918,"Ġcorps":4919,"Ġprincipal":4920,"Ġtouch":4921,"Ġorganized":4922,"Ġhebrew":4923,"Ġwheel":4924,"Ġmes":4925,"Ġmol":4926,"Ġbear":4927,"Ġlingu":4928,"Ġjon":4929,"Ġsoul":4930,"Ġportion":4931,"Ġcreating":4932,"Ġsupposed":4933,"Ġexpansion":4934,"Ġcool":4935,"Ġgeograph":4936,"Ġsolo":4937,"Ġoccurs":4938,"Ġfine":4939,"Ġjoint":4940,"Ġsubsequent":4941,"aling":4942,"Ġlaure":4943,"Ġtheories":4944,"Ġsevent":4945,"enger":4946,"Ġplatform":4947,"Ġcav":4948,"Ġspecifically":4949,"water":4950,"Ġelev":4951,"Ġcommunications":4952,"Ġyouth":4953,"Ġms":4954,"ieties":4955,"Ġsales":4956,"Ġshape":4957,"Ġmississippi":4958,"Ġfro":4959,"uten":4960,"ante":4961,"Ġcoach":4962,"Ġcanal":4963,"Ġevil":4964,"Ġcontinues":4965,"Ġfifth":4966,"Ġpush":4967,"ora":4968,"Ġdeliver":4969,"rid":4970,"Ġheavily":4971,"Ġul":4972,"Ġpros":4973,"Ġbapt":4974,"Ġsched":4975,"Ġtennes":4976,"usal":4977,"Ġclimate":4978,"Ġparish":4979,"Ġstrugg":4980,"Ġagreed":4981,"Ġsort":4982,"Ġharv":4983,"oral":4984,"Ġreality":4985,"Ġmanager":4986,"Ġsie":4987,"inson":4988,"abet":4989,"Ġlicense":4990,"Ġsoutheast":4991,"Ġhope":4992,"Ġarkansas":4993,"Ġmoment":4994,"Ġgranted":4995,"Ġcathedral":4996,"Ġquebec":4997,"Ġcra":4998,"Ġissued":4999,"Ġtoward":5000,"Ġgain":5001,"itled":5002,"Ġtechnique":5003,"Ġstructures":5004,"Ġdiscussion":5005,"Ġmicrosoft":5006,"ex":5007,"Ġnich":5008,"Ġdenmark":5009,"Ġmorn":5010,"Ġwithd":5011,"ennis":5012,"Ġyounger":5013,"Ġtennessee":5014,"Ġscholar":5015,"ila":5016,"Ġclasses":5017,"Ġdub":5018,"Ġexperiment":5019,"Ġeyes":5020,"ession":5021,"Ġorders":5022,"Ġfash":5023,"Ġchosen":5024,"Ġpione":5025,"Ġchain":5026,"Ġresulted":5027,"Ġfixed":5028,"Ġimportance":5029,"Ġcomputers":5030,"Ġrandom":5031,"Ġgrav":5032,"prise":5033,"olk":5034,"Ġsty":5035,"iser":5036,"Ġisraeli":5037,"Ġshowing":5038,"Ġweather":5039,"Ġalleged":5040,"Ġargent":5041,"Ġlewis":5042,"Ġexerc":5043,"Ġreally":5044,"Ġtrees":5045,"Ġss":5046,"Ġowners":5047,"Ġnormally":5048,"Ġthousands":5049,"Ġbird":5050,"Ġinstruments":5051,"Ġgenus":5052,"Ġalge":5053,"Ġcategory":5054,"ading":5055,"Ġeat":5056,"Ġcerem":5057,"Ġatmosph":5058,"Ġencyclopedia":5059,"Ġmedie":5060,"Ġsuffered":5061,"Ġexists":5062,"Ġmit":5063,"Ġpositions":5064,"Ġcycle":5065,"Ġmathematical":5066,"Ġfinland":5067,"Ġfought":5068,"Ġadministrative":5069,"Ġthrone":5070,"Ġultim":5071,"ili":5072,"Ġeasy":5073,"Ġwilson":5074,"Ġhay":5075,"uan":5076,"Ġkentucky":5077,"Ġmedieval":5078,"Ġpresid":5079,"Ġko":5080,"Ġimag":5081,"Ġatom":5082,"Ġsund":5083,"Ġoutput":5084,"Ġcheck":5085,"Ġbillion":5086,"ception":5087,"Ġsouthwest":5088,"Ġfeaturing":5089,"under":5090,"kes":5091,"Ġconduct":5092,"Ġmessage":5093,"Ġenvironmental":5094,"Ġsciences":5095,"Ġsupporting":5096,"Ġhuge":5097,"Ġnarrow":5098,"Ġpd":5099,"Ġportugues":5100,"Ġnegot":5101,"Ġbag":5102,"Ġadvantage":5103,"Ġrod":5104,"Ġfrancis":5105,"Ġstrateg":5106,"book":5107,"Ġasc":5108,"Ġsacr":5109,"Ġcoord":5110,"Ġclosely":5111,"Ġmagic":5112,"Ġplanned":5113,"Ġconstructed":5114,"iful":5115,"Ġbom":5116,"Ġsetting":5117,"Ġtarget":5118,"wart":5119,"Ġfried":5120,"Ġtall":5121,"Ġexplos":5122,"Ġcolorado":5123,"Ġrevolutionary":5124,"Ġspoken":5125,"Ġkilling":5126,"Ġbrig":5127,"Ġhollywood":5128,"Ġalab":5129,"Ġscr":5130,"Ġdouglas":5131,"Ġdebate":5132,"Ġlooking":5133,"Ġlisted":5134,"Ġweapon":5135,"Ġalco":5136,"itors":5137,"Ġaccompan":5138,"Ġspiritual":5139,"Ġom":5140,"Ġrow":5141,"Ġcalend":5142,"Ġpiano":5143,"orters":5144,"Ġmerg":5145,"Ġtwel":5146,"Ġjob":5147,"Ġportuguese":5148,"Ġdin":5149,"Ġcircle":5150,"Ġlearning":5151,"Ġbot":5152,"aga":5153,"Ġsolution":5154,"Ġlyn":5155,"Ġruled":5156,"Ġleaves":5157,"Ġprojects":5158,"Ġdaniel":5159,"iday":5160,"Ġbright":5161,"Ġreports":5162,"Ġparad":5163,"Ġrequires":5164,"Ġreceive":5165,"Ġconcert":5166,"Ġvent":5167,"Ġdc":5168,"Ġrein":5169,"idden":5170,"Ġheadquar":5171,"Ġstatement":5172,"Ġmanner":5173,"Ġunp":5174,"Ġformation":5175,"Ġdepending":5176,"Ġvocals":5177,"acent":5178,"Ġseats":5179,"Ġapparently":5180,"Ġislamic":5181,"Ġblues":5182,"Ġlyrics":5183,"iring":5184,"Ġpersons":5185,"Ġdifferences":5186,"Ġdevices":5187,"Ġchristianity":5188,"Ġacting":5189,"Ġauthorities":5190,"Ġends":5191,"Ġfantasy":5192,"Ġsons":5193,"onto":5194,"Ġreflect":5195,"Ġcombination":5196,"Ġaustin":5197,"Ġdisney":5198,"Ġsubstant":5199,"Ġterminal":5200,"hire":5201,"Ġtranslated":5202,"Ġboys":5203,"Ġindex":5204,"Ġconfir":5205,"Ġaudience":5206,"Ġtaiwan":5207,"Ġfelt":5208,"Ġearliest":5209,"Ġwish":5210,"oring":5211,"Ġproph":5212,"Ġproceed":5213,"Ġflying":5214,"ayer":5215,"Ġdomestic":5216,"aka":5217,"Ġpin":5218,"Ġhyper":5219,"Ġherit":5220,"Ġfashion":5221,"Ġmaximum":5222,"Ġsafety":5223,"Ġopportun":5224,"Ġhoc":5225,"Ġlogic":5226,"Ġscand":5227,"Ġkur":5228,"Ġargued":5229,"Ġsubs":5230,"Ġmanufactur":5231,"Ġdiver":5232,"Ġtrou":5233,"mouth":5234,"Ġregister":5235,"real":5236,"Ġadapt":5237,"Ġsaying":5238,"Ġbirds":5239,"Ġscholars":5240,"Ġunus":5241,"Ġhoward":5242,"Ġmine":5243,"Ġbasket":5244,"Ġstatistics":5245,"Ġbull":5246,"Ġtracks":5247,"Ġfrederick":5248,"Ġaccident":5249,"Ġvisual":5250,"Ġtraditionally":5251,"Ġille":5252,"ords":5253,"Ġbottom":5254,"Ġdedicated":5255,"Ġtaylor":5256,"Ġdiscip":5257,"Ġaw":5258,"Ġidentified":5259,"roll":5260,"Ġshel":5261,"Ġalabama":5262,"Ġmixed":5263,"Ġfavour":5264,"Ġchronic":5265,"Ġstarring":5266,"Ġmaryland":5267,"Ġpermanent":5268,"ivia":5269,"Ġhtml":5270,"Ġsecondary":5271,"Ġconsiderable":5272,"iat":5273,"Ġplate":5274,"Ġrig":5275,"Ġweak":5276,"Ġsatellite":5277,"fully":5278,"Ġcrash":5279,"eding":5280,"Ġteleph":5281,"Ġincreasingly":5282,"Ġnickn":5283,"Ġestimated":5284,"han":5285,"Ġprinciples":5286,"inder":5287,"Ġspot":5288,"Ġdiplom":5289,"Ġacademic":5290,"amental":5291,"Ġorbit":5292,"Ġmarine":5293,"Ġcandidate":5294,"hr":5295,"Ġproced":5296,"Ġengines":5297,"aria":5298,"Ġcolonial":5299,"Ġgather":5300,"Ġsingles":5301,"Ġdoing":5302,"Ġrepeated":5303,"Ġserving":5304,"Ġdynam":5305,"Ġdetermined":5306,"Ġsab":5307,"unk":5308,"Ġpurposes":5309,"Ġchess":5310,"Ġpaid":5311,"Ġneeds":5312,"ologists":5313,"Ġanything":5314,"Ġgil":5315,"Ġdiscovery":5316,"Ġliqu":5317,"icide":5318,"Ġoccasionally":5319,"eline":5320,"atically":5321,"ingly":5322,"Ġbron":5323,"Ġsteve":5324,"Ġjoin":5325,"oir":5326,"Ġagriculture":5327,"Ġdowntown":5328,"ogen":5329,"kin":5330,"Ġgodd":5331,"Ġancest":5332,"Ġfinn":5333,"Ġchristmas":5334,"Ġattend":5335,"drome":5336,"Ġcryst":5337,"Ġadvert":5338,"Ġcircuit":5339,"Ġnortheast":5340,"Ġmovements":5341,"Ġharm":5342,"Ġholds":5343,"Ġrevol":5344,"zo":5345,"iac":5346,"Ġheight":5347,"Ġafghanistan":5348,"Ġkg":5349,"adelph":5350,"Ġhart":5351,"Ġcrisis":5352,"Ġnazi":5353,"Ġvessel":5354,"Ġlis":5355,"uge":5356,"icate":5357,"Ġcontained":5358,"Ġthor":5359,"Ġfundamental":5360,"Ġdrink":5361,"Ġmetropolitan":5362,"Ġexpos":5363,"Ġrival":5364,"Ġsed":5365,"Ġtopics":5366,"Ġfranklin":5367,"Ġoccupied":5368,"oca":5369,"Ġgulf":5370,"oured":5371,"igen":5372,"Ġclock":5373,"Ġobl":5374,"Ġargument":5375,"Ġappropri":5376,"Ġsimon":5377,"esc":5378,"Ġbrad":5379,"Ġradical":5380,"Ġexclus":5381,"sen":5382,"apped":5383,"Ġparallel":5384,"Ġsafe":5385,"Ġmorning":5386,"Ġhamlet":5387,"Ġdegrees":5388,"Ġelim":5389,"Ġmanaged":5390,"Ġpenins":5391,"Ġcancer":5392,"Ġhamilton":5393,"Ġdatabase":5394,"aret":5395,"Ġlock":5396,"ensions":5397,"Ġheritage":5398,"ira":5399,"oven":5400,"Ġroc":5401,"Ġoreg":5402,"Ġmoral":5403,"Ġinstitutions":5404,"Ġcardinal":5405,"Ġmexican":5406,"Ġfred":5407,"Ġtact":5408,"Ġheaven":5409,"Ġmachines":5410,"Ġpear":5411,"fort":5412,"Ġentitled":5413,"ois":5414,"Ġstrike":5415,"Ġpakistan":5416,"Ġattended":5417,"Ġeconomics":5418,"uct":5419,"hamm":5420,"Ġstorm":5421,"Ġaero":5422,"Ġcabinet":5423,"Ġsumm":5424,"isf":5425,"Ġgib":5426,"Ġtwice":5427,"Ġlinear":5428,"Ġrecip":5429,"Ġscientists":5430,"Ġscul":5431,"Ġwaters":5432,"Ġphiladelph":5433,"Ġrenamed":5434,"Ġstanding":5435,"zech":5436,"Ġgang":5437,"Ġale":5438,"Ġlouisiana":5439,"Ġabsol":5440,"Ġorigins":5441,"Ġportray":5442,"vant":5443,"Ġwhit":5444,"Ġguns":5445,"Ġoregon":5446,"Ġadjacent":5447,"bro":5448,"Ġmode":5449,"Ġpair":5450,"Ġgate":5451,"Ġarist":5452,"Ġtank":5453,"Ġsalt":5454,"Ġstadium":5455,"iants":5456,"Ġmars":5457,"Ġuncle":5458,"Ġopposite":5459,"Ġdrawn":5460,"Ġunderstanding":5461,"Ġkel":5462,"Ġcapacity":5463,"Ġexped":5464,"Ġstrict":5465,"igration":5466,"Ġsyndrome":5467,"tes":5468,"Ġpig":5469,"Ġdol":5470,"osl":5471,"Ġibm":5472,"do":5473,"Ġsquad":5474,"Ġachieved":5475,"Ġrevealed":5476,"Ġlawrence":5477,"Ġpuerto":5478,"Ġbos":5479,"Ġroughly":5480,"down":5481,"Ġolympic":5482,"Ġdvd":5483,"Ġhat":5484,"Ġlun":5485,"Ġpublishing":5486,"ologies":5487,"Ġshad":5488,"Ġcommons":5489,"Ġshowed":5490,"Ġinvolve":5491,"Ġphrase":5492,"Ġstrik":5493,"Ġcourts":5494,"Ġquestions":5495,"Ġspin":5496,"Ġescape":5497,"Ġgovernments":5498,"har":5499,"Ġsover":5500,"Ġscore":5501,"Ġburied":5502,"oto":5503,"Ġforum":5504,"Ġintellect":5505,"Ġczech":5506,"Ġformula":5507,"Ġages":5508,"Ġreputation":5509,"inus":5510,"anes":5511,"Ġproviding":5512,"Ġdelta":5513,"Ġentertainment":5514,"Ġtoronto":5515,"ifying":5516,"Ġoscar":5517,"Ġdavis":5518,"Ġcommunication":5519,"ras":5520,"Ġfiles":5521,"Ġshell":5522,"eign":5523,"Ġbang":5524,"Ġserb":5525,"Ġhindu":5526,"Ġbroke":5527,"Ġbodies":5528,"Ġsovereign":5529,"Ġunable":5530,"Ġchapter":5531,"Ġheard":5532,"Ġmassive":5533,"Ġsemi":5534,"Ġaspects":5535,"acement":5536,"Ġwy":5537,"Ġneu":5538,"uster":5539,"Ġsamuel":5540,"Ġalgebra":5541,"Ġshut":5542,"Ġvow":5543,"Ġneither":5544,"Ġbuff":5545,"ima":5546,"Ġparks":5547,"Ġwalter":5548,"Ġfab":5549,"uns":5550,"Ġgrey":5551,"Ġdictionary":5552,"Ġtask":5553,"ceived":5554,"Ġcolony":5555,"Ġworldwide":5556,"ito":5557,"Ġcycl":5558,"Ġcalendar":5559,"Ġengineer":5560,"Ġeverything":5561,"Ġagricultural":5562,"Ġng":5563,"Ġviolence":5564,"Ġvic":5565,"Ġcape":5566,"Ġdrop":5567,"Ġinteract":5568,"Ġproof":5569,"char":5570,"kee":5571,"Ġinterstate":5572,"Ġphiladelphia":5573,"Ġwritings":5574,"Ġmedium":5575,"Ġexpression":5576,"Ġrabb":5577,"Ġvehicles":5578,"iations":5579,"omy":5580,"Ġgreatly":5581,"Ġvehicle":5582,"Ġwinner":5583,"Ġvast":5584,"Ġdick":5585,"Ġtam":5586,"Ġgoods":5587,"Ġroot":5588,"Ġtony":5589,"Ġultimately":5590,"Ġmental":5591,"Ġresident":5592,"Ġmanif":5593,"rad":5594,"Ġsleep":5595,"Ġsubmar":5596,"Ġremember":5597,"Ġboat":5598,"Ġracing":5599,"Ġproducing":5600,"Ġsole":5601,"Ġquantum":5602,"Ġsor":5603,"Ġcontributions":5604,"avia":5605,"ika":5606,"Ġkal":5607,"Ġinstruct":5608,"Ġpruss":5609,"Ġfactors":5610,"Ġkorean":5611,"mod":5612,"Ġwire":5613,"Ġjuris":5614,"Ġobtained":5615,"Ġroads":5616,"Ġknight":5617,"Ġagent":5618,"Ġathlet":5619,"Ġamend":5620,"Ġfirm":5621,"Ġdesert":5622,"Ġdescribes":5623,"Ġhawai":5624,"Ġfalse":5625,"Ġplain":5626,"Ġhypoth":5627,"Ġworship":5628,"Ġexpanded":5629,"Ġalign":5630,"Ġsocialist":5631,"Ġenfor":5632,"ees":5633,"Ġlam":5634,"Ġstrate":5635,"Ġremov":5636,"Ġdism":5637,"Ġflood":5638,"Ġconstitutional":5639,"vious":5640,"bir":5641,"Ġfacilities":5642,"heim":5643,"Ġadam":5644,"Ġrestaur":5645,"time":5646,"Ġagency":5647,"Ġbelg":5648,"Ġsteven":5649,"Ġdestruction":5650,"Ġending":5651,"Ġmaria":5652,"umber":5653,"roph":5654,"come":5655,"apes":5656,"Ġterritories":5657,"Ġpierre":5658,"Ġalexand":5659,"Ġveget":5660,"iy":5661,"Ġgoddess":5662,"Ġpse":5663,"Ġtrying":5664,"Ġbroken":5665,"Ġsenior":5666,"enna":5667,"Ġretired":5668,"Ġhamm":5669,"Ġrural":5670,"Ġpreced":5671,"Ġsuperior":5672,"Ġmathematic":5673,"Ġaqu":5674,"Ġincident":5675,"Ġrecomm":5676,"Ġguest":5677,"Ġpublication":5678,"Ġpurs":5679,"Ġdal":5680,"Ġnapole":5681,"Ġgeomet":5682,"Ġextent":5683,"Ġmong":5684,"Ġarchae":5685,"bell":5686,"Ġmike":5687,"Ġcreative":5688,"Ġpremier":5689,"Ġbart":5690,"Ġsculpt":5691,"Ġrepresentatives":5692,"Ġlibraries":5693,"Ġcalls":5694,"Ġstrategy":5695,"Ġadams":5696,"Ġwrong":5697,"Ġcorner":5698,"Ġsought":5699,"Ġkl":5700,"Ġdragon":5701,"Ġideal":5702,"Ġpronounced":5703,"usalem":5704,"Ġselling":5705,"Ġadmiral":5706,"Ġconscious":5707,"Ġinstitution":5708,"Ġclean":5709,"Ġvotes":5710,"Ġaustrian":5711,"Ġarabic":5712,"Ġtheorem":5713,"uits":5714,"Ġplus":5715,"Ġacquired":5716,"Ġcosm":5717,"Ġcanc":5718,"Ġexception":5719,"Ġdoctrine":5720,"box":5721,"Ġmerch":5722,"Ġhits":5723,"Ġadap":5724,"Ġteaching":5725,"Ġroger":5726,"akers":5727,"Ġserves":5728,"Ġclark":5729,"Ġoverall":5730,"Ġdescend":5731,"Ġpainter":5732,"Ġcable":5733,"uses":5734,"ela":5735,"Ġlakes":5736,"Ġrespectively":5737,"Ġobvious":5738,"tion":5739,"Ġjerusalem":5740,"Ġbuck":5741,"Ġregarding":5742,"Ġchanc":5743,"Ġpir":5744,"Ġanaly":5745,"Ġpseud":5746,"Ġtrek":5747,"Ġbasketball":5748,"Ġfresh":5749,"Ġbah":5750,"Ġauthors":5751,"Ġrepresentation":5752,"Ġsugar":5753,"right":5754,"Ġpolicies":5755,"Ġprocesses":5756,"nell":5757,"Ġreduce":5758,"Ġsoft":5759,"Ġsufficient":5760,"Ġwitness":5761,"dale":5762,"Ġthin":5763,"lyn":5764,"Ġnorwe":5765,"elle":5766,"Ġshared":5767,"Ġresolution":5768,"Ġpractical":5769,"Ġelectrical":5770,"Ġcp":5771,"mat":5772,"Ġcapable":5773,"dy":5774,"Ġdocuments":5775,"Ġalan":5776,"Ġfruit":5777,"Ġlocations":5778,"Ġcharacteristics":5779,"Ġclearly":5780,"lical":5781,"Ġdates":5782,"Ġinner":5783,"Ġkat":5784,"umes":5785,"Ġchairman":5786,"inite":5787,"Ġtren":5788,"Ġlith":5789,"Ġgent":5790,"Ġmaine":5791,"Ġvocal":5792,"Ġpeninsula":5793,"Ġdanish":5794,"acle":5795,"Ġsymph":5796,"Ġholding":5797,"Ġbaby":5798,"rum":5799,"agu":5800,"Ġheadquarters":5801,"Ġfinished":5802,"Ġwrest":5803,"Ġdesigns":5804,"Ġanswer":5805,"Ġallen":5806,"Ġexpressed":5807,"Ġalaska":5808,"Ġrarely":5809,"bu":5810,"Ġbeautiful":5811,"Ġtwelve":5812,"Ġhockey":5813,"Ġcc":5814,"Ġpersian":5815,"Ġofficials":5816,"Ġpic":5817,"Ġonto":5818,"Ġnebr":5819,"Ġangel":5820,"Ġdefence":5821,"otion":5822,"Ġscar":5823,"Ġimposs":5824,"Ġtexts":5825,"Ġestablishment":5826,"Ġrefle":5827,"Ġelementary":5828,"Ġarrange":5829,"oen":5830,"aints":5831,"olis":5832,"Ġdrama":5833,"Ġhub":5834,"Ġkenned":5835,"zen":5836,"aki":5837,"Ġunderground":5838,"Ġpeoples":5839,"Ġcausing":5840,"Ġcommonwe":5841,"Ġpaint":5842,"pir":5843,"Ġjump":5844,"Ġprohib":5845,"gon":5846,"mes":5847,"Ġstrongly":5848,"Ġjacob":5849,"Ġanimated":5850,"Ġproport":5851,"Ġtransc":5852,"Ġrespond":5853,"Ġcommonwealth":5854,"aya":5855,"Ġabsolute":5856,"unc":5857,"Ġgor":5858,"Ġmoore":5859,"Ġportra":5860,"Ġmagnetic":5861,"Ġportugal":5862,"Ġqueens":5863,"Ġhamp":5864,"teenth":5865,"Ġmobile":5866,"Ġbach":5867,"Ġcommer":5868,"fall":5869,"Ġcartoon":5870,"Ġcomposition":5871,"Ġchristians":5872,"Ġprocessing":5873,"Ġresc":5874,"Ġmile":5875,"Ġhorn":5876,"esy":5877,"Ġky":5878,"Ġtreas":5879,"Ġhugh":5880,"Ġalfred":5881,"Ġali":5882,"Ġallied":5883,"Ġfederation":5884,"Ġroots":5885,"Ġbanks":5886,"Ġisol":5887,"Ġpilot":5888,"Ġsyd":5889,"Ġsupporters":5890,"Ġprotestant":5891,"Ġorchestra":5892,"Ġdanc":5893,"Ġguy":5894,"Ġcaes":5895,"Ġpra":5896,"Ġtribes":5897,"rency":5898,"cts":5899,"ented":5900,"Ġshore":5901,"Ġcolleges":5902,"Ġgirls":5903,"Ġwides":5904,"Ġmarx":5905,"Ġphon":5906,"Ġabol":5907,"aimed":5908,"Ġlogo":5909,"iled":5910,"Ġjord":5911,"ef":5912,"Ġsig":5913,"dered":5914,"Ġabd":5915,"vis":5916,"reh":5917,"Ġhotel":5918,"Ġuns":5919,"Ġtang":5920,"Ġbath":5921,"Ġgreg":5922,"Ġstamp":5923,"Ġconn":5924,"Ġalphabet":5925,"Ġmouth":5926,"igation":5927,"Ġry":5928,"greg":5929,"Ġstands":5930,"Ġhob":5931,"Ġcharter":5932,"Ġmaintained":5933,"eros":5934,"Ġrebell":5935,"Ġinput":5936,"Ġdies":5937,"Ġobserved":5938,"Ġroy":5939,"Ġnorwegian":5940,"Ġeag":5941,"Ġbaron":5942,"Ġrepro":5943,"Ġvision":5944,"issance":5945,"Ġtaught":5946,"Ġrud":5947,"Ġdetermin":5948,"Ġwhereas":5949,"enses":5950,"akh":5951,"Ġhighlight":5952,"Ġselect":5953,"Ġopinion":5954,"Ġva":5955,"con":5956,"iah":5957,"Ġlect":5958,"Ġlegislative":5959,"rate":5960,"Ġcontinental":5961,"lets":5962,"Ġdeveloping":5963,"Ġinfluential":5964,"Ġblow":5965,"arn":5966,"Ġlen":5967,"Ġgenetic":5968,"Ġattacked":5969,"Ġvisible":5970,"Ġdrugs":5971,"Ġbrian":5972,"Ġprofit":5973,"Ġcommerce":5974,"Ġempt":5975,"Ġwound":5976,"uous":5977,"Ġsimilarly":5978,"Ġcoalition":5979,"Ġsuicide":5980,"Ġexpect":5981,"Ġprepar":5982,"Ġgord":5983,"Ġbin":5984,"ester":5985,"Ġexplan":5986,"Ġdiet":5987,"onian":5988,"Ġphilosopher":5989,"Ġkarl":5990,"Ġdecre":5991,"Ġdropped":5992,"Ġrush":5993,"Ġbrook":5994,"Ġflav":5995,"Ġdidn":5996,"Ġministry":5997,"Ġthousand":5998,"Ġcoat":5999,"Ġradiation":6000,"apping":6001,"Ġdiam":6002,"Ġswitzer":6003,"naissance":6004,"Ġargue":6005,"iot":6006,"Ġclo":6007,"Ġgran":6008,"Ġtab":6009,"Ġpoems":6010,"Ġinfl":6011,"Ġmulti":6012,"Ġkennedy":6013,"Ġnewly":6014,"Ġhistorian":6015,"Ġdetermine":6016,"Ġdemocracy":6017,"eler":6018,"Ġtrop":6019,"Ġabsor":6020,"Ġvul":6021,"Ġregul":6022,"Ġchancell":6023,"Ġarn":6024,"Ġross":6025,"Ġhungary":6026,"osa":6027,"Ġfrag":6028,"Ġconducted":6029,"Ġlieuten":6030,"Ġrid":6031,"Ġoccas":6032,"Ġabandoned":6033,"Ġanat":6034,"Ġsteam":6035,"Ġmp":6036,"Ġhardware":6037,"Ġserver":6038,"Ġinfantry":6039,"atus":6040,"Ġment":6041,"Ġdetailed":6042,"ti":6043,"Ġsiz":6044,"Ġexcell":6045,"Ġafterwards":6046,"Ġessentially":6047,"Ġariz":6048,"Ġturkey":6049,"Ġswitzerland":6050,"Ġhistorians":6051,"Ġbelgium":6052,"Ġisa":6053,"Ġsave":6054,"Ġbowl":6055,"ishing":6056,"Ġroles":6057,"Ġske":6058,"Ġvs":6059,"Ġupd":6060,"Ġgallery":6061,"iology":6062,"phal":6063,"page":6064,"Ġrit":6065,"inth":6066,"Ġinterpretation":6067,"ran":6068,"Ġdna":6069,"Ġpoem":6070,"Ġinterests":6071,"Ġvit":6072,"Ġtraditions":6073,"olas":6074,"Ġpartners":6075,"Ġsalv":6076,"Ġpent":6077,"Ġclinton":6078,"Ġot":6079,"Ġnominated":6080,"Ġjefferson":6081,"Ġowner":6082,"Ġhonour":6083,"Ġmeasures":6084,"Ġgiant":6085,"Ġimproved":6086,"Ġleads":6087,"Ġsharp":6088,"Ġhans":6089,"Ġcomponents":6090,"Ġestate":6091,"Ġpatients":6092,"Ġemployed":6093,"Ġlaid":6094,"Ġhunting":6095,"Ġtourism":6096,"Ġthro":6097,"Ġinvented":6098,"Ġdivine":6099,"Ġphilippines":6100,"Ġimpossible":6101,"zer":6102,"Ġcanon":6103,"Ġintellectual":6104,"Ġlem":6105,"Ġrear":6106,"Ġdisapp":6107,"Ġsigns":6108,"Ġtools":6109,"Ġlanding":6110,"Ġnetworks":6111,"Ġprocl":6112,"ducing":6113,"Ġautonom":6114,"pread":6115,"Ġcopy":6116,"enh":6117,"Ġwap":6118,"Ġinterpre":6119,"Ġdistinguished":6120,"rant":6121,"Ġmamm":6122,"alo":6123,"Ġquad":6124,"Ġinfect":6125,"Ġchristoph":6126,"Ġexperi":6127,"iling":6128,"Ġassigned":6129,"Ġgoth":6130,"Ġtempl":6131,"Ġpel":6132,"Ġremark":6133,"Ġlinked":6134,"Ġcarrier":6135,"Ġlt":6136,"cap":6137,"Ġtwin":6138,"Ġchance":6139,"Ġwidespread":6140,"Ġdir":6141,"icket":6142,"Ġnevertheless":6143,"Ġpleas":6144,"Ġgenre":6145,"Ġloyal":6146,"cles":6147,"Ġprotocol":6148,"Ġassumed":6149,"zh":6150,"Ġphotos":6151,"Ġdoor":6152,"Ġrapidly":6153,"Ġprotected":6154,"Ġmt":6155,"aked":6156,"sex":6157,"Ġrates":6158,"Ġplanning":6159,"Ġsubjects":6160,"Ġeric":6161,"Ġmainstream":6162,"Ġsoldier":6163,"Ġliver":6164,"umin":6165,"izon":6166,"Ġpartly":6167,"Ġsad":6168,"rete":6169,"Ġclay":6170,"Ġrefuge":6171,"Ġduch":6172,"Ġcapture":6173,"Ġion":6174,"Ġprofile":6175,"Ġinterior":6176,"Ġsurvey":6177,"Ġedited":6178,"Ġdangerous":6179,"Ġmolec":6180,"Ġpunk":6181,"Ġconsisting":6182,"acc":6183,"Ġarizona":6184,"Ġcine":6185,"oming":6186,"urally":6187,"Ġstream":6188,"Ġswiss":6189,"Ġum":6190,"ache":6191,"Ġinsur":6192,"Ġtat":6193,"Ġsydney":6194,"sa":6195,"Ġitems":6196,"Ġsympt":6197,"Ġvoy":6198,"Ġvisited":6199,"Ġpainting":6200,"Ġverb":6201,"Ġalpha":6202,"Ġkim":6203,"Ġartific":6204,"Ġlayer":6205,"Ġpip":6206,"Ġerror":6207,"Ġnebraska":6208,"Ġsoph":6209,"ni":6210,"Ġstreets":6211,"Ġheaded":6212,"Ġconclud":6213,"Ġjordan":6214,"Ġmerely":6215,"Ġjd":6216,"asts":6217,"Ġteacher":6218,"Ġunusual":6219,"Ġimmigr":6220,"Ġseparated":6221,"Ġgraphics":6222,"Ġsituated":6223,"ilit":6224,"Ġindo":6225,"Ġreserve":6226,"Ġdeclar":6227,"Ġfloor":6228,"Ġhip":6229,"inations":6230,"wers":6231,"Ġeffectively":6232,"Ġchris":6233,"Ġsweet":6234,"wich":6235,"Ġoccupation":6236,"Ġinteresting":6237,"cr":6238,"Ġpriest":6239,"Ġexplor":6240,"Ġjurisd":6241,"Ġsurf":6242,"Ġalcohol":6243,"Ġsuccessor":6244,"gate":6245,"Ġpassing":6246,"Ġborders":6247,"Ġhaz":6248,"Ġvector":6249,"Ġshock":6250,"Ġcosts":6251,"agen":6252,"Ġcredit":6253,"eing":6254,"Ġanyone":6255,"Ġlieutenant":6256,"Ġfighter":6257,"iner":6258,"Ġbruce":6259,"Ġvalid":6260,"Ġdistributed":6261,"Ġrecognition":6262,"Ġcolour":6263,"Ġtheater":6264,"Ġwins":6265,"nest":6266,"Ġnit":6267,"Ġwalls":6268,"Ġflash":6269,"Ġegyptian":6270,"Ġexactly":6271,"Ġjane":6272,"Ġjuda":6273,"enburg":6274,"aneous":6275,"Ġarchb":6276,"icut":6277,"Ġessential":6278,"Ġsounds":6279,"Ġcad":6280,"Ġextin":6281,"Ġward":6282,"Ġlud":6283,"Ġsections":6284,"Ġcrypt":6285,"apy":6286,"bb":6287,"Ġdict":6288,"Ġbran":6289,"Ġministers":6290,"Ġchanging":6291,"Ġaccounts":6292,"Ġallies":6293,"eric":6294,"Ġchemistry":6295,"Ġindicate":6296,"Ġteen":6297,"isted":6298,"antine":6299,"Ġrussell":6300,"Ġcovers":6301,"pective":6302,"Ġgalax":6303,"Ġadvance":6304,"Ġuniform":6305,"Ġbyz":6306,"Ġsoil":6307,"Ġoffers":6308,"Ġluther":6309,"gel":6310,"Ġmarie":6311,"Ġmiller":6312,"Ġcorrupt":6313,"Ġforb":6314,"Ġmaur":6315,"Ġliterally":6316,"Ġsv":6317,"Ġinvolving":6318,"Ġmoves":6319,"Ġexcess":6320,"Ġindustries":6321,"Ġcatch":6322,"Ġaware":6323,"Ġcrus":6324,"Ġinnov":6325,"antly":6326,"Ġalgorithm":6327,"Ġdiamond":6328,"Ġtheod":6329,"Ġperforming":6330,"Ġwine":6331,"Ġattached":6332,"Ġpractices":6333,"Ġdecline":6334,"Ġtarge":6335,"Ġviewed":6336,"Ġgab":6337,"Ġwelsh":6338,"Ġhundreds":6339,"Ġneutral":6340,"Ġhitler":6341,"Ġbeliefs":6342,"Ġbour":6343,"jan":6344,"Ġmatrix":6345,"Ġpropag":6346,"Ġfilled":6347,"iciency":6348,"Ġreserv":6349,"Ġsuccessfully":6350,"Ġturkish":6351,"Ġtas":6352,"Ġdispl":6353,"Ġcircumst":6354,"Ġdod":6355,"Ġmissile":6356,"Ġmechanical":6357,"Ġdistinction":6358,"Ġeducational":6359,"Ġtunnel":6360,"Ġago":6361,"Ġrepresents":6362,"Ġjet":6363,"ameter":6364,"Ġdrag":6365,"rose":6366,"Ġliquid":6367,"Ġanarch":6368,"anta":6369,"Ġswim":6370,"Ġresemb":6371,"Ġexecuted":6372,"bf":6373,"rec":6374,"Ġjam":6375,"athan":6376,"Ġinvolves":6377,"Ġbg":6378,"Ġexpensive":6379,"Ġpunish":6380,"Ġsprings":6381,"Ġexpedition":6382,"Ġcolumn":6383,"Ġconverted":6384,"Ġextension":6385,"Ġconcepts":6386,"Ġnorman":6387,"Ġaccused":6388,"chen":6389,"Ġgrass":6390,"Ġfinnish":6391,"phy":6392,"Ġrocket":6393,"Ġdebut":6394,"Ġgradually":6395,"fe":6396,"nie":6397,"Ġlearn":6398,"Ġmerged":6399,"Ġrelation":6400,"Ġtells":6401,"Ġwinds":6402,"Ġgetting":6403,"Ġfacult":6404,"Ġjuan":6405,"Ġabbe":6406,"Ġmanufacturing":6407,"Ġstre":6408,"Ġcass":6409,"Ġlinux":6410,"Ġapol":6411,"Ġcouple":6412,"Ġhear":6413,"orous":6414,"hem":6415,"ipping":6416,"Ġabbre":6417,"Ġconcl":6418,"Ġski":6419,"Ġcommitted":6420,"Ġblind":6421,"oster":6422,"Ġharbor":6423,"Ġtag":6424,"Ġtournam":6425,"Ġclubs":6426,"Ġmans":6427,"Ġminority":6428,"Ġvirtual":6429,"Ġsignificantly":6430,"enny":6431,"writer":6432,"Ġtelephone":6433,"Ġkit":6434,"Ġhistorically":6435,"Ġhorizon":6436,"Ġcert":6437,"Ġthrow":6438,"Ġdivisions":6439,"Ġneighborhood":6440,"rane":6441,"Ġseasons":6442,"Ġrif":6443,"Ġabstr":6444,"Ġentr":6445,"Ġceme":6446,"Ġdj":6447,"iable":6448,"Ġanglo":6449,"Ġprogressive":6450,"commun":6451,"Ġgraphic":6452,"Ġdeput":6453,"Ġfasc":6454,"Ġhouston":6455,"Ġdecade":6456,"Ġgray":6457,"Ġtitled":6458,"Ġsha":6459,"Ġhampshire":6460,"ovak":6461,"Ġchoose":6462,"Ġanthony":6463,"Ġlimits":6464,"Ġnel":6465,"Ġnut":6466,"Ġjourney":6467,"Ġtesting":6468,"Ġprol":6469,"Ġrejected":6470,"Ġcontributed":6471,"Ġvariations":6472,"Ġveter":6473,"iop":6474,"Ġfert":6475,"Ġconnecticut":6476,"nett":6477,"ears":6478,"Ġpoliticians":6479,"Ġwarri":6480,"Ġdivor":6481,"Ġgrown":6482,"Ġstorage":6483,"Ġstyles":6484,"Ġtreated":6485,"Ġhungarian":6486,"Ġdriver":6487,"Ġdre":6488,"una":6489,"rester":6490,"Ġassault":6491,"aware":6492,"Ġminute":6493,"Ġmembership":6494,"Ġcher":6495,"Ġelder":6496,"Ġaccompl":6497,"ublin":6498,"Ġchalleng":6499,"Ġarrested":6500,"Ġtone":6501,"Ġrug":6502,"Ġphilosophical":6503,"Ġadapted":6504,"Ġlev":6505,"Ġclassification":6506,"Ġpersonality":6507,"Ġtransmission":6508,"Ġdonald":6509,"Ġrice":6510,"Ġcultures":6511,"Ġliberty":6512,"Ġspeakers":6513,"Ġlux":6514,"aux":6515,"Ġboundary":6516,"opes":6517,"oked":6518,"Ġjudaism":6519,"Ġderiv":6520,"Ġscenes":6521,"chi":6522,"Ġherself":6523,"ho":6524,"enge":6525,"Ġtool":6526,"Ġphysic":6527,"Ġlearned":6528,"Ġbun":6529,"Ġemergency":6530,"ifications":6531,"stood":6532,"Ġequation":6533,"gas":6534,"Ġavenue":6535,"Ġmeters":6536,"Ġgone":6537,"Ġinterface":6538,"Ġrecordings":6539,"Ġtrig":6540,"Ġchancellor":6541,"Ġalien":6542,"die":6543,"Ġschedul":6544,"Ġphoen":6545,"Ġbuy":6546,"Ġmario":6547,"Ġknock":6548,"Ġenh":6549,"onso":6550,"Ġpy":6551,"Ġwapcap":6552,"Ġwapcaplet":6553,"Ġlanc":6554,"Ġmetro":6555,"fo":6556,"ople":6557,"Ġdepos":6558,"Ġsatisf":6559,"lem":6560,"Ġexisted":6561,"Ġtriang":6562,"Ġcolonies":6563,"bourne":6564,"Ġcontinuous":6565,"hel":6566,"Ġdefend":6567,"Ġcopies":6568,"Ġcamera":6569,"Ġutah":6570,"Ġhang":6571,"room":6572,"Ġtong":6573,"Ġgosp":6574,"hl":6575,"Ġoptim":6576,"Ġmarshall":6577,"oyd":6578,"Ġtrains":6579,"Ġdriven":6580,"Ġappropriate":6581,"fc":6582,"Ġcoastal":6583,"Ġoxy":6584,"Ġgif":6585,"Ġbou":6586,"Ġthirty":6587,"Ġordinary":6588,"Ġsic":6589,"Ġreplace":6590,"Ġrational":6591,"Ġstores":6592,"Ġrecre":6593,"Ġselection":6594,"Ġye":6595,"Ġrhyth":6596,"tz":6597,"Ġbarr":6598,"Ġsatur":6599,"Ġratio":6600,"Ġcommod":6601,"Ġprinted":6602,"Ġoperate":6603,"here":6604,"emies":6605,"osexual":6606,"Ġfeed":6607,"Ġcharged":6608,"Ġunless":6609,"Ġbought":6610,"Ġsust":6611,"Ġdy":6612,"Ġslav":6613,"Ġruler":6614,"Ġghost":6615,"Ġinfr":6616,"din":6617,"Ġatmosphere":6618,"Ġhabit":6619,"Ġiso":6620,"endo":6621,"ova":6622,"Ġappoint":6623,"Ġshaped":6624,"Ġamongst":6625,"Ġnewton":6626,"Ġexplicit":6627,"ader":6628,"Ġbriefly":6629,"Ġprecise":6630,"Ġtransferred":6631,"Ġfounding":6632,"Ġprovinc":6633,"Ġolympics":6634,"Ġsunday":6635,"Ġlion":6636,"color":6637,"Ġangle":6638,"Ġstret":6639,"Ġports":6640,"Ġmatthe":6641,"Ġspaces":6642,"Ġsuccession":6643,"Ġthick":6644,"Ġbibli":6645,"Ġcul":6646,"Ġtort":6647,"Ġformally":6648,"Ġbudget":6649,"Ġdiagn":6650,"Ġpas":6651,"Ġmainland":6652,"Ġsword":6653,"Ġfactory":6654,"Ġreturning":6655,"Ġreconst":6656,"Ġpublications":6657,"ctic":6658,"Ġneck":6659,"rell":6660,"Ġcot":6661,"Ġsuggests":6662,"Ġprobability":6663,"rog":6664,"Ġbrid":6665,"forrester":6666,"Ġcorporate":6667,"Ġheads":6668,"Ġdominant":6669,"eas":6670,"Ġelectro":6671,"Ġgoals":6672,"Ġjdforrester":6673,"omer":6674,"Ġdominated":6675,"uations":6676,"Ġcollected":6677,"Ġshir":6678,"Ġcharges":6679,"Ġroutes":6680,"Ġsurvived":6681,"Ġharvard":6682,"hus":6683,"Ġanderson":6684,"Ġtransition":6685,"Ġstress":6686,"Ġtol":6687,"Ġkhan":6688,"Ġadding":6689,"Ġcroat":6690,"Ġvolt":6691,"Ġcomposers":6692,"Ġbehavi":6693,"ista":6694,"Ġobser":6695,"Ġacceler":6696,"Ġere":6697,"ivals":6698,"Ġandre":6699,"Ġxx":6700,"Ġprices":6701,"weight":6702,"Ġdual":6703,"Ġhud":6704,"Ġabb":6705,"Ġmanchester":6706,"ambig":6707,"Ġstatist":6708,"omial":6709,"Ġnoble":6710,"Ġgrounds":6711,"Ġsuspect":6712,"Ġconventional":6713,"Ġmarkets":6714,"Ġaffected":6715,"Ġouter":6716,"Ġindones":6717,"Ġrising":6718,"Ġcalling":6719,"Ġing":6720,"Ġforests":6721,"Ġpatrick":6722,"Ġknights":6723,"Ġbiological":6724,"orus":6725,"Ġgy":6726,"dp":6727,"Ġbilly":6728,"Ġcurrency":6729,"Ġsudden":6730,"organ":6731,"Ġecc":6732,"Ġpurchased":6733,"Ġbernard":6734,"Ġig":6735,"Ġchile":6736,"aud":6737,"Ġbh":6738,"Ġhomosexual":6739,"Ġdublin":6740,"opol":6741,"wig":6742,"Ġdisk":6743,"Ġpersonnel":6744,"Ġmanusc":6745,"Ġjohnny":6746,"Ġperiods":6747,"Ġtestament":6748,"Ġpsychology":6749,"Ġapply":6750,"Ġjos":6751,"Ġregime":6752,"Ġcomponent":6753,"Ġtourist":6754,"lete":6755,"aly":6756,"cing":6757,"Ġwings":6758,"Ġni":6759,"idel":6760,"Ġpasses":6761,"Ġgender":6762,"Ġgermans":6763,"Ġtube":6764,"Ġdispute":6765,"Ġlegislation":6766,"Ġorb":6767,"Ġdesire":6768,"Ġchristopher":6769,"Ġaltered":6770,"Ġenterprise":6771,"Ġtribe":6772,"Ġnapoleon":6773,"Ġheir":6774,"Ġcaesar":6775,"Ġcarib":6776,"hy":6777,"Ġviolent":6778,"Ġexplo":6779,"raine":6780,"Ġwonder":6781,"Ġvariable":6782,"cules":6783,"Ġyield":6784,"Ġillegal":6785,"Ġartificial":6786,"Ġsector":6787,"Ġexperienced":6788,"Ġerr":6789,"Ġprepared":6790,"Ġdocumentary":6791,"omorph":6792,"Ġvienna":6793,"Ġtrading":6794,"Ġparticles":6795,"Ġidentical":6796,"Ġfrequent":6797,"Ġnan":6798,"Ġnfl":6799,"Ġhomes":6800,"Ġretire":6801,"Ġpassage":6802,"Ġmargaret":6803,"Ġparliamentary":6804,"Ġwarfare":6805,"Ġscheme":6806,"Ġsymbols":6807,"stic":6808,"Ġalleg":6809,"Ġsurren":6810,"Ġberg":6811,"Ġwinners":6812,"life":6813,"anth":6814,"Ġay":6815,"Ġmall":6816,"Ġdall":6817,"Ġbacter":6818,"Ġgrave":6819,"Ġfemin":6820,"Ġdivers":6821,"outs":6822,"Ġmatters":6823,"Ġbegun":6824,"Ġpassenger":6825,"Ġpink":6826,"Ġshakes":6827,"Ġoriented":6828,"Ġgau":6829,"Ġsettlers":6830,"Ġsymptoms":6831,"Ġchrom":6832,"Ġie":6833,"Ġangl":6834,"je":6835,"Ġstanley":6836,"Ġapost":6837,"ori":6838,"Ġcoin":6839,"Ġfled":6840,"Ġdrums":6841,"Ġamendment":6842,"Ġforming":6843,"Ġcomputing":6844,"Ġnoise":6845,"Ġfranch":6846,"udes":6847,"ontin":6848,"Ġencounter":6849,"Ġcous":6850,"Ġpapers":6851,"rator":6852,"Ġpad":6853,"Ġrebellion":6854,"Ġvik":6855,"Ġtill":6856,"Ġtape":6857,"Ġpartner":6858,"Ġretrie":6859,"Ġgordon":6860,"wes":6861,"Ġromantic":6862,"Ġplease":6863,"cho":6864,"Ġbiggest":6865,"Ġrab":6866,"Ġanalog":6867,"Ġnotice":6868,"Ġgon":6869,"Ġpolar":6870,"Ġtrivia":6871,"Ġinvestment":6872,"Ġdrawing":6873,"Ġprovincial":6874,"Ġmosc":6875,"Ġhors":6876,"Ġarchbishop":6877,"Ġpeer":6878,"Ġforth":6879,"Ġlosing":6880,"Ġnev":6881,"Ġconcerns":6882,"sk":6883,"Ġoffices":6884,"Ġpatterns":6885,"Ġabbey":6886,"Ġcourtesy":6887,"mal":6888,"Ġshield":6889,"xic":6890,"uma":6891,"Ġbroadway":6892,"Ġdeclaration":6893,"Ġfib":6894,"Ġromans":6895,"Ġcole":6896,"Ġappeal":6897,"Ġportrait":6898,"Ġgenerated":6899,"Ġbalance":6900,"Ġfishing":6901,"Ġjoy":6902,"Ġhole":6903,"Ġraf":6904,"Ġeducated":6905,"oli":6906,"Ġdepth":6907,"Ġdoesn":6908,"Ġbgcolor":6909,"Ġfm":6910,"Ġnik":6911,"fish":6912,"Ġpm":6913,"Ġbic":6914,"aku":6915,"ea":6916,"Ġcodes":6917,"rep":6918,"Ġcord":6919,"Ġmigr":6920,"Ġgur":6921,"standing":6922,"unte":6923,"Ġconcerned":6924,"Ġstruggle":6925,"Ġempty":6926,"Ġleban":6927,"illes":6928,"oga":6929,"Ġcarrying":6930,"Ġsample":6931,"Ġfairly":6932,"Ġexperimental":6933,"Ġsend":6934,"Ġstatue":6935,"Ġstro":6936,"Ġduty":6937,"ses":6938,"Ġearned":6939,"Ġanthrop":6940,"Ġbald":6941,"Ġdepression":6942,"Ġpull":6943,"Ġtests":6944,"Ġconj":6945,"Ġvl":6946,"Ġargu":6947,"Ġrelationships":6948,"Ġpine":6949,"Ġinse":6950,"Ġassistant":6951,"Ġmorris":6952,"Ġskills":6953,"rem":6954,"Ġcompreh":6955,"Ġsight":6956,"Ġwarren":6957,"Ġefficient":6958,"Ġcircumstances":6959,"Ġgrade":6960,"Ġfinding":6961,"Ġraw":6962,"Ġmisc":6963,"ifer":6964,"Ġmonument":6965,"burn":6966,"Ġdress":6967,"apore":6968,"Ġgrace":6969,"istol":6970,"Ġclim":6971,"Ġmeg":6972,"obi":6973,"Ġmanifest":6974,"Ġcemetery":6975,"Ġchip":6976,"Ġturns":6977,"Ġsinging":6978,"gi":6979,"Ġpartial":6980,"Ġharris":6981,"Ġbio":6982,"Ġvoting":6983,"grad":6984,"Ġcharacteristic":6985,"kyo":6986,"dam":6987,"Ġgets":6988,"Ġdave":6989,"Ġpoets":6990,"Ġdriving":6991,"oker":6992,"Ġoffensive":6993,"borough":6994,"Ġottoman":6995,"Ġcomparison":6996,"no":6997,"Ġconsult":6998,"etime":6999,"Ġsiege":7000,"Ġtib":7001,"Ġopportunity":7002,"Ġcolors":7003,"Ġdelay":7004,"Ġhappened":7005,"nia":7006,"Ġnest":7007,"Ġdeploy":7008,"Ġthemes":7009,"Ġfinance":7010,"car":7011,"Ġvariation":7012,"Ġstewart":7013,"mund":7014,"iva":7015,"Ġrib":7016,"Ġrou":7017,"Ġfacts":7018,"Ġturb":7019,"Ġpenal":7020,"Ġhappy":7021,"Ġtast":7022,"Ġinfinite":7023,"while":7024,"Ġorle":7025,"Ġsingapore":7026,"Ġautomob":7027,"aine":7028,"ripts":7029,"Ġdemocrat":7030,"Ġtennis":7031,"Ġmeat":7032,"Ġopponents":7033,"Ġathens":7034,"eg":7035,"Ġvolunte":7036,"Ġnelson":7037,"Ġcaval":7038,"Ġbind":7039,"Ġappearances":7040,"Ġelectricity":7041,"Ġconfused":7042,"Ġcoff":7043,"Ġsixth":7044,"Ġinch":7045,"urb":7046,"rom":7047,"roit":7048,"Ġextract":7049,"Ġresponsibility":7050,"Ġkick":7051,"Ġimprison":7052,"peare":7053,"erted":7054,"Ġsignals":7055,"incorpor":7056,"Ġmultipl":7057,"tering":7058,"Ġstal":7059,"Ġresign":7060,"Ġpossibility":7061,"ranean":7062,"pace":7063,"Ġusual":7064,"Ġagents":7065,"Ġsocieties":7066,"Ġcamer":7067,"cs":7068,"velt":7069,"arth":7070,"Ġchick":7071,"engers":7072,"place":7073,"apse":7074,"Ġcampbell":7075,"Ġanime":7076,"Ġlords":7077,"Ġshakespeare":7078,"phe":7079,"Ġvictims":7080,"Ġatomic":7081,"Ġharmon":7082,"Ġstrategic":7083,"Ġjava":7084,"Ġyard":7085,"Ġamaz":7086,"Ġwayne":7087,"Ġoxygen":7088,"Ġalternate":7089,"folk":7090,"Ġtea":7091,"erves":7092,"Ġperformances":7093,"Ġwol":7094,"Ġsaints":7095,"Ġresidence":7096,"Ġreceiving":7097,"Ġremove":7098,"Ġbenj":7099,"Ġindu":7100,"Ġcarn":7101,"hard":7102,"Ġhydrogen":7103,"Ġmoscow":7104,"Ġrestored":7105,"Ġchallenge":7106,"Ġorganic":7107,"Ġbenefit":7108,"part":7109,"Ġpermanently":7110,"Ġpalestinian":7111,"incorporated":7112,"Ġunderstood":7113,"Ġmilk":7114,"Ġromania":7115,"Ġabbrev":7116,"anger":7117,"Ġnasa":7118,"Ġinqu":7119,"Ġrings":7120,"world":7121,"riers":7122,"Ġbeer":7123,"Ġstim":7124,"Ġeveryone":7125,"Ġnecessarily":7126,"Ġwidth":7127,"Ġsubstantial":7128,"Ġinstruction":7129,"eff":7130,"cht":7131,"going":7132,"Ġamounts":7133,"Ġthinking":7134,"Ġcarp":7135,"Ġbroadcasting":7136,"Ġhein":7137,"Ġnova":7138,"Ġpatent":7139,"Ġpromoted":7140,"onymous":7141,"Ġenemies":7142,"Ġseconds":7143,"Ġsq":7144,"Ġevolved":7145,"Ġdefine":7146,"Ġvinc":7147,"iph":7148,"Ġabra":7149,"Ġkaz":7150,"Ġjar":7151,"Ġreven":7152,"Ġtokyo":7153,"Ġjimmy":7154,"Ġbranches":7155,"Ġyug":7156,"know":7157,"Ġlaboratory":7158,"Ġfired":7159,"Ġserial":7160,"Ġconcerning":7161,"Ġpdf":7162,"Ġdistinguish":7163,"ello":7164,"gram":7165,"Ġmuslims":7166,"Ġfaster":7167,"Ġridge":7168,"Ġhurr":7169,"Ġjournalist":7170,"uv":7171,"Ġjay":7172,"Ġsimult":7173,"Ġdoubt":7174,"Ġpeters":7175,"Ġfacility":7176,"Ġmarketing":7177,"Ġguine":7178,"Ġeval":7179,"Ġroose":7180,"Ġproduces":7181,"Ġsymp":7182,"Ġguar":7183,"Ġconsol":7184,"Ġwindow":7185,"Ġinterested":7186,"Ġdetroit":7187,"Ġstable":7188,"Ġvoted":7189,"Ġpi":7190,"Ġtermin":7191,"Ġunfortun":7192,"ensional":7193,"peg":7194,"Ġconsumer":7195,"Ġeagle":7196,"Ġanch":7197,"Ġmongol":7198,"Ġpont":7199,"Ġdisambig":7200,"Ġmechanics":7201,"Ġtet":7202,"Ġloose":7203,"Ġknew":7204,"Ġdraft":7205,"Ġtransit":7206,"Ġenl":7207,"Ġexecution":7208,"bean":7209,"Ġdisorder":7210,"Ġcaught":7211,"Ġalumn":7212,"Ġclassified":7213,"Ġvii":7214,"Ġnoun":7215,"apolis":7216,"Ġevange":7217,"Ġquart":7218,"Ġmeasured":7219,"Ġshadow":7220,"Ġmeanings":7221,"iki":7222,"Ġresource":7223,"Ġcandidates":7224,"Ġsmo":7225,"Ġtrained":7226,"Ġsentence":7227,"Ġessay":7228,"gom":7229,"Ġoz":7230,"Ġhidden":7231,"Ġconquest":7232,"Ġfaced":7233,"cha":7234,"Ġprotein":7235,"Ġfinite":7236,"Ġjunior":7237,"Ġcelebrated":7238,"Ġaxis":7239,"Ġtropical":7240,"Ġlandsc":7241,"Ġchose":7242,"Ġprefect":7243,"Ġattributed":7244,"Ġroosevelt":7245,"Ġace":7246,"Ġrever":7247,"Ġlongest":7248,"Ġrebu":7249,"Ġnewspapers":7250,"Ġplural":7251,"Ġindigen":7252,"Ġtheology":7253,"Ġmonaster":7254,"Ġtob":7255,"Ġshr":7256,"Ġpoison":7257,"Ġabc":7258,"Ġkeeping":7259,"ali":7260,"Ġpowered":7261,"Ġgrammar":7262,"Ġfamiliar":7263,"Ġsubmarine":7264,"Ġsymphony":7265,"Ġsr":7266,"roc":7267,"rot":7268,"Ġabstract":7269,"Ġrepresenting":7270,"Ġcommissioned":7271,"Ġcash":7272,"Ġaer":7273,"Ġoverse":7274,"Ġrio":7275,"ortion":7276,"Ġmiami":7277,"Ġadventures":7278,"Ġelsewhere":7279,"Ġphone":7280,"Ġcategories":7281,"oa":7282,"rations":7283,"Ġargentina":7284,"Ġsod":7285,"Ġstere":7286,"Ġcolonel":7287,"Ġvermont":7288,"Ġannex":7289,"Ġpale":7290,"Ġcredited":7291,"Ġcompat":7292,"Ġmines":7293,"Ġbyzantine":7294,"Ġbenjamin":7295,"veland":7296,"Ġunsu":7297,"Ġadventure":7298,"Ġprogramme":7299,"Ġsteps":7300,"helm":7301,"Ġorleans":7302,"ding":7303,"Ġgolf":7304,"Ġrenaissance":7305,"Ġwitch":7306,"Ġcultiv":7307,"hammad":7308,"Ġperceived":7309,"Ġdescent":7310,"oons":7311,"Ġtut":7312,"athy":7313,"Ġintent":7314,"Ġblo":7315,"aug":7316,"Ġengaged":7317,"Ġexplain":7318,"Ġboundaries":7319,"Ġtales":7320,"Ġdelivered":7321,"Ġwithdraw":7322,"Ġrick":7323,"Ġemot":7324,"wall":7325,"Ġexcellent":7326,"western":7327,"Ġgust":7328,"bach":7329,"Ġcivilization":7330,"Ġvirtually":7331,"Ġduck":7332,"Ġindigenous":7333,"Ġmining":7334,"Ġregiment":7335,"Ġfaculty":7336,"Ġholiday":7337,"Ġcogn":7338,"Ġlac":7339,"Ġhunter":7340,"Ġcloser":7341,"Ġorganisation":7342,"olds":7343,"Ġpresum":7344,"Ġritual":7345,"Ġspeaker":7346,"Ġapollo":7347,"Ġoperator":7348,"Ġstatistical":7349,"Ġrico":7350,"aved":7351,"Ġapproved":7352,"hen":7353,"Ġbiology":7354,"Ġaccompanied":7355,"Ġnu":7356,"otte":7357,"ched":7358,"Ġexperiments":7359,"Ġpartially":7360,"Ġfinds":7361,"Ġbent":7362,"Ġbreaking":7363,"Ġwaves":7364,"Ġinfer":7365,"gery":7366,"Ġslave":7367,"Ġmaced":7368,"ensis":7369,"eller":7370,"Ġcave":7371,"Ġconstitu":7372,"Ġsecure":7373,"Ġreferring":7374,"Ġunincorporated":7375,"Ġready":7376,"Ġscientist":7377,"Ġfluid":7378,"berts":7379,"Ġcarter":7380,"Ġmorgan":7381,"Ġcoins":7382,"Ġodd":7383,"bus":7384,"Ġacknow":7385,"Ġconversion":7386,"ender":7387,"Ġaccurate":7388,"Ġampl":7389,"Ġmediter":7390,"riptions":7391,"Ġwarm":7392,"Ġinsc":7393,"Ġmalays":7394,"Ġseemed":7395,"Ġdismiss":7396,"Ġmetaph":7397,"Ġstarts":7398,"Ġphenomenon":7399,"Ġpyr":7400,"Ġdrew":7401,"Ġincreases":7402,"Ġadditionally":7403,"Ġspacecraft":7404,"Ġcopper":7405,"Ġlan":7406,"Ġsubd":7407,"Ġvisitors":7408,"Ġensure":7409,"unction":7410,"Ġarbit":7411,"Ġble":7412,"edge":7413,"Ġdos":7414,"Ġbalt":7415,"Ġultimate":7416,"Ġboeing":7417,"Ġoption":7418,"uman":7419,"Ġral":7420,"Ġreaching":7421,"rical":7422,"Ġcloth":7423,"Ġindians":7424,"oking":7425,"Ġdramatic":7426,"Ġveloc":7427,"Ġkin":7428,"Ġshift":7429,"Ġcenters":7430,"Ġmassac":7431,"Ġexplanation":7432,"Ġpret":7433,"Ġthunder":7434,"Ġslowly":7435,"Ġsubsid":7436,"Ġexplained":7437,"Ġdish":7438,"Ġtiss":7439,"unct":7440,"onaut":7441,"Ġstrange":7442,"Ġhorses":7443,"Ġyes":7444,"Ġassistance":7445,"Ġdepicted":7446,"Ġconfirmed":7447,"otype":7448,"Ġarrow":7449,"Ġdirectory":7450,"Ġbarry":7451,"Ġlegendary":7452,"cester":7453,"atherine":7454,"dd":7455,"Ġcruc":7456,"mble":7457,"Ġbreath":7458,"minster":7459,"Ġced":7460,"Ġvolumes":7461,"Ġmillenn":7462,"Ġfurthermore":7463,"orted":7464,"Ġrequirements":7465,"Ġcorresponding":7466,"icus":7467,"Ġreverse":7468,"Ġcleveland":7469,"Ġmathematician":7470,"Ġmechanism":7471,"ishops":7472,"anny":7473,"aver":7474,"Ġstages":7475,"Ġnorfolk":7476,"Ġimmediate":7477,"osc":7478,"Ġbabyl":7479,"Ġcollabor":7480,"Ġgraduate":7481,"Ġbid":7482,"Ġmeth":7483,"Ġrelief":7484,"Ġdiego":7485,"Ġcontinuing":7486,"Ġbeauty":7487,"Ġlover":7488,"Ġarmen":7489,"Ġrepr":7490,"Ġdating":7491,"Ġvib":7492,"Ġguer":7493,"Ġrhythm":7494,"Ġchannels":7495,"Ġmediterranean":7496,"Ġalice":7497,"Ġperp":7498,"Ġcertainly":7499,"Ġeld":7500,"Ġarrival":7501,"Ġminimum":7502,"Ġreun":7503,"Ġpreserved":7504,"urg":7505,"Ġlegacy":7506,"Ġvariant":7507,"Ġcuba":7508,"Ġprove":7509,"rac":7510,"Ġresigned":7511,"Ġviii":7512,"Ġdallas":7513,"Ġpromote":7514,"Ġengineers":7515,"point":7516,"Ġaviation":7517,"Ġpalm":7518,"Ġinstrumental":7519,"Ġbone":7520,"Ġintegrated":7521,"Ġceltic":7522,"Ġphill":7523,"Ġpurchase":7524,"Ġspectrum":7525,"pool":7526,"Ġheights":7527,"Ġreligions":7528,"Ġnovelist":7529,"Ġiniti":7530,"Ġadvis":7531,"Ġcasual":7532,"Ġjoan":7533,"Ġdisambiguation":7534,"avery":7535,"Ġcyl":7536,"ulu":7537,"Ġharrison":7538,"Ġtemperatures":7539,"Ġlod":7540,"Ġchildhood":7541,"Ġregularly":7542,"ships":7543,"Ġmrs":7544,"Ġcrimes":7545,"Ġphilosophers":7546,"Ġfisher":7547,"Ġinvestigation":7548,"Ġburg":7549,"Ġmarks":7550,"Ġloop":7551,"Ġkiss":7552,"gomery":7553,"ipher":7554,"Ġdelaware":7555,"Ġmond":7556,"Ġadmitted":7557,"aza":7558,"Ġtale":7559,"Ġein":7560,"Ġdean":7561,"Ġbav":7562,"Ġgary":7563,"Ġdogs":7564,"Ġobsc":7565,"Ġpresc":7566,"Ġturning":7567,"Ġlane":7568,"Ġabraham":7569,"Ġlesser":7570,"Ġmontgomery":7571,"Ġhawaii":7572,"Ġsurrounded":7573,"Ġdialects":7574,"imore":7575,"Ġarchive":7576,"Ġcondem":7577,"ometers":7578,"Ġnickname":7579,"Ġsale":7580,"Ġnatives":7581,"Ġrobinson":7582,"Ġexclud":7583,"eper":7584,"oric":7585,"Ġneo":7586,"Ġalumni":7587,"Ġtomb":7588,"Ġyu":7589,"Ġyan":7590,"Ġoriginated":7591,"Ġconcentration":7592,"boy":7593,"Ġlegit":7594,"Ġpatient":7595,"Ġdiseases":7596,"Ġcaribbean":7597,"Ġhack":7598,"Ġelectoral":7599,"Ġpredomin":7600,"Ġpref":7601,"Ġdil":7602,"Ġaggress":7603,"Ġbibliography":7604,"Ġhier":7605,"Ġkam":7606,"Ġaffair":7607,"rates":7608,"sky":7609,"Ġhet":7610,"Ġdecisions":7611,"Ġprofession":7612,"Ġsacred":7613,"feld":7614,"Ġbund":7615,"Ġmoz":7616,"Ġaka":7617,"Ġprovision":7618,"pie":7619,"urt":7620,"aneously":7621,"sm":7622,"Ġcited":7623,"Ġconven":7624,"Ġdecor":7625,"Ġlarry":7626,"Ġduties":7627,"Ġcrossing":7628,"Ġfoss":7629,"Ġbiograph":7630,"itt":7631,"Ġmanual":7632,"Ġster":7633,"Ġsket":7634,"Ġdimensional":7635,"Ġdeputy":7636,"Ġemerged":7637,"Ġopponent":7638,"Ġlap":7639,"Ġprayer":7640,"Ġmounted":7641,"Ġproven":7642,"berry":7643,"di":7644,"Ġabuse":7645,"Ġbits":7646,"Ġranked":7647,"Ġmh":7648,"Ġpries":7649,"Ġretained":7650,"Ġfriedrich":7651,"Ġcorp":7652,"Ġmorph":7653,"Ġsure":7654,"Ġconfig":7655,"Ġgospel":7656,"Ġsymmet":7657,"Ġdenomin":7658,"Ġcheap":7659,"Ġadjust":7660,"Ġmack":7661,"Ġmarqu":7662,"Ġyards":7663,"Ġhurrican":7664,"Ġweekly":7665,"Ġnam":7666,"Ġshif":7667,"Ġmixt":7668,"Ġdistinctive":7669,"Ġconcern":7670,"Ġpitts":7671,"Ġwilhelm":7672,"Ġpreferred":7673,"Ġkon":7674,"Ġmatthew":7675,"asm":7676,"bar":7677,"Ġfocused":7678,"Ġaffil":7679,"load":7680,"Ġneighbour":7681,"Ġwet":7682,"eman":7683,"Ġarmies":7684,"Ġmontana":7685,"iga":7686,"Ġarranged":7687,"Ġprisoners":7688,"lington":7689,"Ġsquadron":7690,"Ġhunt":7691,"Ġpatriarch":7692,"Ġreich":7693,"aceae":7694,"Ġbiblical":7695,"Ġseventh":7696,"Ġpopulations":7697,"Ġjacques":7698,"Ġattor":7699,"ucks":7700,"Ġstruck":7701,"Ġdevoted":7702,"anian":7703,"Ġbears":7704,"pson":7705,"itis":7706,"Ġimplementation":7707,"Ġbog":7708,"Ġhug":7709,"Ġkan":7710,"Ġcivilian":7711,"lock":7712,"Ġcock":7713,"Ġtip":7714,"Ġlose":7715,"Ġguitarist":7716,"Ġburning":7717,"Ġconsisted":7718,"Ġmystery":7719,"illery":7720,"Ġpill":7721,"Ġremote":7722,"Ġlibert":7723,"Ġwag":7724,"Ġcrystal":7725,"Ġfi":7726,"Ġnint":7727,"Ġalive":7728,"Ġruling":7729,"Ġsoundtr":7730,"ourse":7731,"iration":7732,"Ġwaste":7733,"Ġnash":7734,"Ġseal":7735,"Ġevening":7736,"uable":7737,"Ġmeanwhile":7738,"Ġwiki":7739,"Ġnag":7740,"night":7741,"itarian":7742,"Ġlicens":7743,"illing":7744,"Ġlisting":7745,"Ġpassengers":7746,"fs":7747,"Ġsurviving":7748,"Ġcharts":7749,"Ġmig":7750,"Ġbringing":7751,"Ġmontreal":7752,"Ġkw":7753,"Ġrulers":7754,"Ġairline":7755,"Ġsingers":7756,"Ġpetro":7757,"Ġantonio":7758,"Ġexile":7759,"Ġreturns":7760,"Ġstatements":7761,"Ġstopped":7762,"Ġdollar":7763,"acles":7764,"Ġjudicial":7765,"Ġbuddhist":7766,"Ġchron":7767,"Ġbusinesses":7768,"Ġplastic":7769,"Ġholland":7770,"Ġencouraged":7771,"Ġgardens":7772,"unciation":7773,"aro":7774,"ido":7775,"ribed":7776,"Ġparticle":7777,"Ġmartial":7778,"mel":7779,"Ġmissions":7780,"uration":7781,"Ġprompt":7782,"Ġdebt":7783,"Ġlegislature":7784,"pes":7785,"Ġinfluences":7786,"Ġsituations":7787,"Ġdeliber":7788,"Ġemployees":7789,"Ġsaturday":7790,"Ġtournament":7791,"kt":7792,"Ġceremony":7793,"Ġstead":7794,"Ġog":7795,"Ġcler":7796,"Ġconspir":7797,"pass":7798,"iti":7799,"Ġsurpr":7800,"Ġdeclined":7801,"eastern":7802,"using":7803,"Ġworst":7804,"Ġbelgian":7805,"Ġmotiv":7806,"Ġjerry":7807,"Ġruth":7808,"Ġrenew":7809,"Ġexceed":7810,"Ġtap":7811,"Ġoptical":7812,"Ġpossession":7813,"aho":7814,"Ġmercury":7815,"ridge":7816,"Ġhanded":7817,"Ġtechnologies":7818,"Ġrocks":7819,"lan":7820,"Ġutil":7821,"Ġdum":7822,"Ġfunctional":7823,"Ġian":7824,"Ġcharacterized":7825,"Ġfunds":7826,"Ġiceland":7827,"abul":7828,"irect":7829,"Ġreplacement":7830,"Ġhudson":7831,"Ġhut":7832,"arus":7833,"Ġsemit":7834,"Ġtimeline":7835,"Ġbinary":7836,"Ġepic":7837,"Ġcia":7838,"Ġpump":7839,"Ġvig":7840,"abilities":7841,"Ġbenefits":7842,"Ġbronze":7843,"Ġconsec":7844,"Ġoperates":7845,"Ġgeometry":7846,"Ġtoler":7847,"Ġspelling":7848,"Ġconsciousness":7849,"Ġforg":7850,"Ġchlor":7851,"Ġreleases":7852,"Ġstarred":7853,"Ġpainted":7854,"Ġreforms":7855,"fri":7856,"Ġstudios":7857,"Ġfollowers":7858,"ixon":7859,"Ġexercise":7860,"aco":7861,"Ġgrah":7862,"Ġpioneer":7863,"Ġcbs":7864,"Ġbuddhism":7865,"Ġwearing":7866,"Ġpearl":7867,"Ġillness":7868,"Ġnord":7869,"Ġhosted":7870,"Ġbanned":7871,"Ġrecru":7872,"Ġconson":7873,"Ġbaltimore":7874,"Ġnintendo":7875,"Ġdevil":7876,"Ġidentify":7877,"Ġunic":7878,"Ġdisaster":7879,"Ġunsuccess":7880,"Ġinterse":7881,"Ġrevers":7882,"chem":7883,"Ġbutter":7884,"Ġcriticized":7885,"Ġsession":7886,"Ġprosec":7887,"Ġportrayed":7888,"Ġspan":7889,"Ġyugosl":7890,"Ġcompact":7891,"Ġjohan":7892,"etics":7893,"Ġthompson":7894,"Ġmonarchy":7895,"Ġgamb":7896,"Ġthanks":7897,"Ġaccord":7898,"Ġliv":7899,"ieth":7900,"Ġavo":7901,"Ġarguments":7902,"Ġsurvive":7903,"Ġunix":7904,"Ġwright":7905,"Ġviolin":7906,"Ġoverview":7907,"Ġcreator":7908,"Ġanimation":7909,"Ġsult":7910,"Ġtoy":7911,"Ġleaf":7912,"Ġamph":7913,"ographic":7914,"Ġsecular":7915,"alia":7916,"Ġautobi":7917,"uz":7918,"Ġcitizen":7919,"Ġamate":7920,"Ġlunar":7921,"Ġlooks":7922,"Ġleonard":7923,"issions":7924,"Ġprocedure":7925,"Ġtemplate":7926,"Ġcanton":7927,"Ġisaac":7928,"Ġsyll":7929,"Ġconstantin":7930,"Ġbasil":7931,"Ġclaiming":7932,"Ġjohann":7933,"essed":7934,"athers":7935,"Ġdirectors":7936,"Ġconnections":7937,"Ġlowest":7938,"Ġseattle":7939,"Ġov":7940,"Ġnotion":7941,"roe":7942,"Ġnomine":7943,"iev":7944,"Ġtelecommun":7945,"Ġranks":7946,"Ġguinea":7947,"Ġstu":7948,"Ġmanufacturers":7949,"ener":7950,"Ġzo":7951,"Ġalongside":7952,"Ġmitch":7953,"Ġscheduled":7954,"Ġedin":7955,"Ġgates":7956,"Ġacres":7957,"Ġpor":7958,"Ġtract":7959,"Ġcovering":7960,"Ġtempor":7961,"Ġvoltage":7962,"Ġstick":7963,"Ġfalling":7964,"Ġeasier":7965,"cel":7966,"abil":7967,"Ġseed":7968,"Ġabsence":7969,"Ġgravity":7970,"Ġuncertain":7971,"Ġaired":7972,"with":7973,"izer":7974,"Ġflowers":7975,"Ġdifficulty":7976,"Ġatlanta":7977,"oria":7978,"Ġmissing":7979,"Ġvertical":7980,"Ġflows":7981,"Ġterrorist":7982,"Ġconservation":7983,"Ġattracted":7984,"Ġbehaviour":7985,"Ġconvinc":7986,"Ġrhine":7987,"Ġmarry":7988,"sters":7989,"Ġgalaxy":7990,"Ġrecall":7991,"Ġtemporary":7992,"Ġearthqu":7993,"Ġexposure":7994,"Ġintention":7995,"Ġseeing":7996,"erals":7997,"Ġnevada":7998,"Ġmanip":7999,"Ġpublicly":8000,"Ġverse":8001,"Ġmurray":8002,"Ġfet":8003,"Ġleo":8004,"Ġdepict":8005,"unes":8006,"Ġhoney":8007,"Ġparam":8008,"Ġcrowd":8009,"equ":8010,"oni":8011,"Ġperspective":8012,"Ġtribute":8013,"Ġreduction":8014,"Ġrobin":8015,"Ġsloven":8016,"Ġnicholas":8017,"idents":8018,"Ġbombing":8019,"Ġreaders":8020,"Ġcn":8021,"Ġpregn":8022,"Ġincl":8023,"Ġcharlie":8024,"Ġcoordin":8025,"Ġroberts":8026,"Ġartillery":8027,"Ġlamp":8028,"Ġpreserv":8029,"Ġmathbf":8030,"Ġenjoyed":8031,"wing":8032,"Ġmills":8033,"Ġdependent":8034,"Ġbeatles":8035,"Ġphysicist":8036,"ctors":8037,"Ġsubt":8038,"Ġdefensive":8039,"Ġcollapse":8040,"Ġspider":8041,"Ġmg":8042,"Ġrolling":8043,"Ġinterm":8044,"Ġmarvel":8045,"Ġflights":8046,"icop":8047,"Ġpole":8048,"Ġphoenix":8049,"Ġrobot":8050,"Ġlicence":8051,"Ġtrick":8052,"Ġsignif":8053,"Ġlights":8054,"Ġvessels":8055,"Ġcousin":8056,"Ġbil":8057,"Ġcavalry":8058,"Ġromanian":8059,"Ġnotation":8060,"ige":8061,"Ġtriple":8062,"Ġlag":8063,"Ġkos":8064,"Ġsoccer":8065,"bird":8066,"Ġcongreg":8067,"Ġmonitor":8068,"mi":8069,"arians":8070,"Ġambass":8071,"Ġdiameter":8072,"Ġtelesc":8073,"Ġproducers":8074,"Ġemphasis":8075,"olph":8076,"mud":8077,"Ġeditions":8078,"ynam":8079,"Ġrestoration":8080,"Ġinnoc":8081,"Ġcoron":8082,"iveness":8083,"Ġunity":8084,"Ġannivers":8085,"Ġsyria":8086,"names":8087,"alf":8088,"Ġparent":8089,"ilst":8090,"Ġrestricted":8091,"Ġiraqi":8092,"Ġwake":8093,"ructure":8094,"orious":8095,"Ġgrove":8096,"Ġflex":8097,"Ġenthus":8098,"Ġou":8099,"Ġniger":8100,"omon":8101,"Ġautomatic":8102,"Ġherbert":8103,"Ġretail":8104,"Ġstood":8105,"Ġairways":8106,"encing":8107,"Ġlasted":8108,"Ġwounded":8109,"father":8110,"Ġresort":8111,"ingham":8112,"Ġsonic":8113,"Ġmirror":8114,"hu":8115,"Ġwis":8116,"Ġlamb":8117,"Ġmini":8118,"Ġnaturally":8119,"Ġattempting":8120,"Ġferdin":8121,"Ġclothing":8122,"Ġpredec":8123,"Ġkinds":8124,"Ġcompound":8125,"Ġappearing":8126,"ativity":8127,"Ġindicates":8128,"Ġgraham":8129,"Ġferdinand":8130,"Ġdepends":8131,"Ġconfusion":8132,"Ġberke":8133,"Ġsuitable":8134,"Ġgross":8135,"Ġraise":8136,"Ġunoff":8137,"Ġspar":8138,"agnet":8139,"Ġjunction":8140,"Ġmolecular":8141,"Ġwhilst":8142,"Ġmud":8143,"Ġcloud":8144,"Ġmouse":8145,"Ġmelbourne":8146,"Ġseeking":8147,"Ġintr":8148,"sburg":8149,"Ġdust":8150,"Ġwan":8151,"Ġreader":8152,"Ġpredecess":8153,"Ġenab":8154,"Ġhes":8155,"Ġlogical":8156,"idal":8157,"agues":8158,"Ġbert":8159,"Ġpsychological":8160,"Ġbesides":8161,"arin":8162,"Ġedinburgh":8163,"Ġperm":8164,"Ġcs":8165,"Ġdamaged":8166,"Ġtight":8167,"Ġtanks":8168,"Ġhypothesis":8169,"born":8170,"udi":8171,"Ġconfederate":8172,"Ġcoc":8173,"Ġmetres":8174,"Ġeve":8175,"Ġadminister":8176,"Ġkeyboard":8177,"Ġguil":8178,"Ġkevin":8179,"igo":8180,"Ġgren":8181,"Ġexperiences":8182,"Ġfitz":8183,"Ġpermission":8184,"Ġslaves":8185,"Ġpeas":8186,"Ġglas":8187,"Ġvaluable":8188,"Ġguardian":8189,"Ġshopping":8190,"Ġbuffalo":8191,"Ġtaxes":8192,"Ġenorm":8193,"asia":8194,"Ġtransmit":8195,"Ġtherapy":8196,"Ġcolomb":8197,"Ġphotographed":8198,"Ġlip":8199,"Ġvelocity":8200,"opp":8201,"Ġsingular":8202,"Ġcomedian":8203,"Ġbaptist":8204,"Ġceremon":8205,"ulating":8206,"Ġstones":8207,"Ġjobs":8208,"Ġtradem":8209,"Ġdenied":8210,"Ġterry":8211,"Ġslavery":8212,"Ġpub":8213,"arest":8214,"Ġgi":8215,"Ġborrow":8216,"Ġhomepage":8217,"Ġsuffering":8218,"Ġinstructions":8219,"Ġfeud":8220,"Ġstored":8221,"Ġanna":8222,"asa":8223,"Ġpresidents":8224,"Ġja":8225,"Ġcliff":8226,"Ġlik":8227,"Ġfriendly":8228,"Ġcriter":8229,"bow":8230,"Ġindicated":8231,"Ġfurn":8232,"Ġcommem":8233,"Ġadvice":8234,"Ġtrinity":8235,"Ġintense":8236,"Ġpatron":8237,"hn":8238,"rett":8239,"Ġlegs":8240,"Ġberkeley":8241,"Ġprest":8242,"Ġownership":8243,"Ġmul":8244,"Ġshah":8245,"Ġharold":8246,"Ġtheoretical":8247,"rogen":8248,"Ġsubstance":8249,"Ġsah":8250,"Ġblocks":8251,"Ġartistic":8252,"ilic":8253,"Ġvat":8254,"Ġcum":8255,"Ġride":8256,"Ġgoog":8257,"ulus":8258,"Ġkle":8259,"Ġcargo":8260,"Ġwestminster":8261,"Ġretirement":8262,"Ġrevival":8263,"Ġchi":8264,"Ġentrance":8265,"Ġbaker":8266,"Ġspell":8267,"Ġinspect":8268,"Ġclient":8269,"Ġgw":8270,"Ġimmigrants":8271,"fast":8272,"eda":8273,"Ġcomprehensive":8274,"Ġsull":8275,"Ġannounc":8276,"Ġplayoff":8277,"Ġoffering":8278,"dish":8279,"Ġbeth":8280,"Ġbreed":8281,"Ġrescue":8282,"Ġfinish":8283,"Ġschem":8284,"Ġboss":8285,"Ġmasters":8286,"Ġbattleship":8287,"ested":8288,"Ġhaven":8289,"Ġmanga":8290,"Ġaccl":8291,"Ġseparation":8292,"Ġmadison":8293,"Ġconsumption":8294,"Ġtibet":8295,"Ġbishops":8296,"Ġscat":8297,"Ġchampionships":8298,"Ġkelly":8299,"Ġfold":8300,"Ġexclusively":8301,"Ġgig":8302,"Ġlor":8303,"Ġecl":8304,"Ġfranchise":8305,"Ġboats":8306,"Ġgovernors":8307,"Ġliberation":8308,"Ġbread":8309,"Ġexposed":8310,"Ġdescendants":8311,"Ġti":8312,"Ġfate":8313,"Ġoliver":8314,"Ġcathol":8315,"Ġunfortunately":8316,"Ġelectronics":8317,"Ġaber":8318,"Ġwarner":8319,"Ġdeck":8320,"rene":8321,"Ġhog":8322,"Ġconstantinople":8323,"found":8324,"Ġflower":8325,"Ġorth":8326,"Ġmatt":8327,"edding":8328,"Ġgriff":8329,"Ġlosses":8330,"Ġextinct":8331,"yll":8332,"Ġmason":8333,"agger":8334,"Ġlebanon":8335,"icity":8336,"osing":8337,"Ġbelt":8338,"Ġferry":8339,"Ġdiscussed":8340,"Ġarnold":8341,"yon":8342,"group":8343,"iden":8344,"Ġuncom":8345,"Ġserge":8346,"ando":8347,"Ġshan":8348,"Ġupgr":8349,"rh":8350,"itable":8351,"Ġcompounds":8352,"ressive":8353,"Ġpersu":8354,"Ġfarmers":8355,"Ġsegment":8356,"Ġpup":8357,"Ġvaries":8358,"Ġnbc":8359,"Ġsupplies":8360,"Ġbare":8361,"Ġcollins":8362,"Ġprussia":8363,"Ġshares":8364,"Ġpublisher":8365,"Ġpyth":8366,"owed":8367,"Ġpharm":8368,"Ġcamps":8369,"Ġidaho":8370,"Ġproperly":8371,"Ġchapel":8372,"Ġdollars":8373,"Ġcotton":8374,"Ġdwar":8375,"Ġsmooth":8376,"Ġpointed":8377,"Ġboxing":8378,"Ġbridges":8379,"Ġadvertising":8380,"Ġinvolvement":8381,"Ġsilent":8382,"Ġantiqu":8383,"Ġwool":8384,"Ġlex":8385,"oku":8386,"Ġpunishment":8387,"Ġhierarch":8388,"Ġgov":8389,"stad":8390,"Ġdanger":8391,"Ġcontrad":8392,"Ġgdp":8393,"osition":8394,"Ġfavorite":8395,"itudes":8396,"izz":8397,"Ġdisag":8398,"Ġsubstit":8399,"Ġanniversary":8400,"gie":8401,"rons":8402,"Ġfeeling":8403,"Ġlaser":8404,"Ġtheolog":8405,"Ġflour":8406,"othy":8407,"Ġprosper":8408,"Ġeating":8409,"Ġpresidency":8410,"Ġnato":8411,"Ġmerchant":8412,"Ġsolutions":8413,"Ġsoundtrack":8414,"icing":8415,"Ġmarit":8416,"Ġbullet":8417,"Ġbrigade":8418,"Ġjudges":8419,"Ġethiop":8420,"Ġreviews":8421,"Ġhorizontal":8422,"Ġvariants":8423,"Ġbeings":8424,"Ġcrush":8425,"Ġsep":8426,"Ġwilling":8427,"Ġmainten":8428,"Ġregardless":8429,"Ġarrangement":8430,"coming":8431,"Ġdiverse":8432,"Ġaids":8433,"Ġcurt":8434,"Ġmichel":8435,"Ġreinfor":8436,"Ġreducing":8437,"Ġgam":8438,"Ġreagan":8439,"Ġrugby":8440,"ele":8441,"Ġvisc":8442,"ashi":8443,"Ġvirus":8444,"Ġhosts":8445,"bourg":8446,"Ġheroes":8447,"Ġthreatened":8448,"lie":8449,"agers":8450,"Ġconsiderably":8451,"Ġcoun":8452,"riet":8453,"ailand":8454,"Ġattorney":8455,"Ġinvention":8456,"Ġmixture":8457,"Ġjurisdiction":8458,"Ġmanh":8459,"Ġretros":8460,"Ġethics":8461,"Ġentering":8462,"Ġmemor":8463,"Ġequally":8464,"Ġflorence":8465,"Ġgnu":8466,"Ġassassination":8467,"Ġreed":8468,"Ġwhate":8469,"Ġexplorer":8470,"Ġralph":8471,"body":8472,"sch":8473,"Ġthailand":8474,"Ġost":8475,"Ġhomer":8476,"Ġinfrast":8477,"Ġfunding":8478,"Ġcatholics":8479,"Ġhipp":8480,"Ġhighlighting":8481,"Ġpercentage":8482,"Ġresol":8483,"Ġjonathan":8484,"Ġnegotiations":8485,"Ġpredict":8486,"Ġgregory":8487,"ouver":8488,"ellation":8489,"Ġimplemented":8490,"Ġinstalled":8491,"Ġcarlos":8492,"Ġtens":8493,"Ġrevel":8494,"Ġplains":8495,"Ġdiscography":8496,"Ġwhatever":8497,"ede":8498,"Ġwalker":8499,"Ġranges":8500,"oles":8501,"essions":8502,"Ġbug":8503,"Ġplanes":8504,"Ġoverseas":8505,"Ġdemocrats":8506,"Ġsans":8507,"Ġshorter":8508,"Ġmessages":8509,"Ġcuis":8510,"Ġsongwriter":8511,"Ġfern":8512,"Ġsick":8513,"Ġinches":8514,"Ġemployment":8515,"Ġcommentary":8516,"xide":8517,"Ġlob":8518,"Ġsupports":8519,"yard":8520,"Ġencl":8521,"Ġsheet":8522,"Ġluke":8523,"Ġpom":8524,"Ġbeam":8525,"Ġdw":8526,"Ġload":8527,"Ġunre":8528,"Ġnewfound":8529,"Ġpotter":8530,"ulsion":8531,"Ġbrazilian":8532,"Ġlifetime":8533,"Ġhybr":8534,"Ġamateur":8535,"Ġdiplomatic":8536,"Ġgauge":8537,"Ġbreast":8538,"Ġotto":8539,"Ġtril":8540,"Ġterritorial":8541,"Ġintegral":8542,"Ġsurgery":8543,"Ġinventor":8544,"Ġmaintenance":8545,"Ġmant":8546,"Ġbruns":8547,"Ġedu":8548,"Ġdio":8549,"Ġinjury":8550,"Ġnc":8551,"Ġnig":8552,"Ġmolecules":8553,"Ġsummary":8554,"uch":8555,"rect":8556,"iii":8557,"Ġbarbara":8558,"Ġgeographic":8559,"Ġtrouble":8560,"Ġreportedly":8561,"ais":8562,"ensively":8563,"Ġvern":8564,"attan":8565,"Ġmold":8566,"Ġresearchers":8567,"Ġmck":8568,"tha":8569,"Ġcoinc":8570,"Ġadaptation":8571,"haust":8572,"Ġlandscape":8573,"arr":8574,"ching":8575,"Ġromance":8576,"Ġharbour":8577,"dl":8578,"Ġmanufacturer":8579,"Ġpronunciation":8580,"Ġprinting":8581,"Ġgym":8582,"Ġneil":8583,"Ġbeck":8584,"Ġmuhammad":8585,"Ġslovak":8586,"Ġgem":8587,"eston":8588,"Ġtri":8589,"Ġgenesis":8590,"Ġkeys":8591,"Ġprocessor":8592,"Ġbrah":8593,"Ġstalin":8594,"Ġalter":8595,"after":8596,"Ġfacing":8597,"Ġsultan":8598,"Ġcatherine":8599,"Ġterr":8600,"Ġgoogle":8601,"Ġbulgar":8602,"Ġinfo":8603,"Ġdarwin":8604,"Ġbutler":8605,"Ġbritann":8606,"Ġdesigner":8607,"cement":8608,"Ġfinger":8609,"Ġovert":8610,"Ġinterpreted":8611,"Ġassign":8612,"Ġradar":8613,"Ġgreeks":8614,"Ġneighboring":8615,"ills":8616,"Ġphenomena":8617,"Ġsau":8618,"Ġgand":8619,"Ġpaintings":8620,"Ġgear":8621,"Ġshooting":8622,"Ġcoverage":8623,"Ġfarming":8624,"Ġhelicop":8625,"Ġauto":8626,"illo":8627,"Ġtwentieth":8628,"Ġwealthy":8629,"Ġbones":8630,"Ġoutl":8631,"Ġmillennium":8632,"Ġhi":8633,"Ġspart":8634,"Ġobst":8635,"Ġstructural":8636,"Ġhearing":8637,"wald":8638,"Ġsri":8639,"Ġquot":8640,"away":8641,"Ġrichmond":8642,"aws":8643,"Ġconvert":8644,"Ġvariables":8645,"Ġgilbert":8646,"gow":8647,"Ġoccasions":8648,"Ġbrows":8649,"Ġhurricane":8650,"Ġproposal":8651,"olo":8652,"Ġegg":8653,"Ġted":8654,"rod":8655,"Ġrip":8656,"Ġatoms":8657,"Ġproductions":8658,"Ġalto":8659,"Ġmassacre":8660,"lev":8661,"Ġrect":8662,"Ġclimb":8663,"Ġmhz":8664,"Ġequations":8665,"Ġprivile":8666,"Ġkirk":8667,"Ġraymond":8668,"Ġessays":8669,"Ġautomobile":8670,"aca":8671,"Ġsurviv":8672,"Ġrestaurants":8673,"Ġobservations":8674,"Ġintermedi":8675,"Ġclan":8676,"Ġelabor":8677,"Ġwoods":8678,"pert":8679,"okes":8680,"Ġhumanity":8681,"Ġcf":8682,"Ġvamp":8683,"Ġvanc":8684,"Ġcattle":8685,"Ġtaste":8686,"Ġsut":8687,"Ġexhaust":8688,"Ġmuscle":8689,"Ġbrunswick":8690,"Ġhorror":8691,"Ġkilometers":8692,"Ġrevised":8693,"Ġpenet":8694,"Ġrestrictions":8695,"Ġangels":8696,"Ġconsistent":8697,"Ġvenez":8698,"amma":8699,"Ġparticipate":8700,"Ġsang":8701,"itary":8702,"Ġjpeg":8703,"Ġronald":8704,"Ġcort":8705,"Ġplut":8706,"Ġsummit":8707,"Ġexpert":8708,"Ġwooden":8709,"Ġparker":8710,"Ġyam":8711,"via":8712,"Ġstrings":8713,"ithms":8714,"break":8715,"sis":8716,"Ġaugustus":8717,"Ġmagnitude":8718,"Ġmb":8719,"Ġjung":8720,"Ġbirthday":8721,"Ġae":8722,"Ġwer":8723,"Ġincor":8724,"Ġobjective":8725,"Ġpound":8726,"Ġcompens":8727,"Ġsaxon":8728,"Ġindonesia":8729,"Ġcollections":8730,"Ġbub":8731,"Ġhandle":8732,"Ġlooked":8733,"graph":8734,"Ġdescribing":8735,"Ġvarying":8736,"Ġisle":8737,"avian":8738,"Ġboom":8739,"Ġundert":8740,"Ġbristol":8741,"Ġturner":8742,"Ġautonomous":8743,"Ġhitch":8744,"Ġtrigger":8745,"ilian":8746,"Ġbever":8747,"station":8748,"Ġburns":8749,"Ġpittsburgh":8750,"Ġbeta":8751,"Ġisolated":8752,"Ġtiger":8753,"Ġgrammy":8754,"Ġscandal":8755,"Ġtie":8756,"Ġroof":8757,"Ġconquered":8758,"Ġyah":8759,"boro":8760,"Ġillustrated":8761,"Ġlp":8762,"icance":8763,"Ġmonte":8764,"Ġdealing":8765,"Ġeggs":8766,"Ġquiet":8767,"Ġswing":8768,"Ġfighters":8769,"Ġmarshal":8770,"Ġfusion":8771,"Ġcraw":8772,"Ġwildlife":8773,"enberg":8774,"Ġdictator":8775,"bles":8776,"Ġtum":8777,"ifies":8778,"Ġmonster":8779,"Ġmurdered":8780,"Ġconsequently":8781,"Ġperry":8782,"Ġwo":8783,"Ġporn":8784,"Ġplanets":8785,"Ġgap":8786,"Ġmineral":8787,"Ġsimultaneously":8788,"anium":8789,"Ġhex":8790,"Ġrag":8791,"Ġties":8792,"uri":8793,"Ġdisputed":8794,"holm":8795,"Ġinflation":8796,"Ġmillions":8797,"Ġinsurance":8798,"Ġtoll":8799,"Ġclaud":8800,"Ġintervent":8801,"Ġglac":8802,"Ġvoters":8803,"Ġwu":8804,"Ġelevation":8805,"ube":8806,"ails":8807,"Ġranging":8808,"aa":8809,"ystem":8810,"Ġbases":8811,"Ġpalestine":8812,"Ġvand":8813,"Ġagencies":8814,"Ġairports":8815,"Ġcorruption":8816,"Ġcoffee":8817,"Ġnba":8818,"Ġsubsc":8819,"Ġextend":8820,"Ġbasin":8821,"Ġltd":8822,"Ġfulf":8823,"emen":8824,"Ġrender":8825,"Ġassess":8826,"mingham":8827,"Ġcomprom":8828,"aton":8829,"ampton":8830,"Ġburned":8831,"Ġtoxic":8832,"Ġforever":8833,"Ġtrials":8834,"Ġchest":8835,"Ġportland":8836,"Ġgabri":8837,"Ġaes":8838,"thal":8839,"Ġrocky":8840,"pro":8841,"imal":8842,"Ġunem":8843,"duces":8844,"Ġretrieved":8845,"isk":8846,"Ġxi":8847,"Ġcurve":8848,"Ġpolitically":8849,"Ġaxi":8850,"Ġworlds":8851,"Ġvlad":8852,"bel":8853,"illed":8854,"Ġtries":8855,"Ġhighways":8856,"Ġcolumbus":8857,"Ġworn":8858,"Ġgermanic":8859,"Ġperc":8860,"Ġherald":8861,"Ġequipped":8862,"Ġinspiration":8863,"Ġgrades":8864,"Ġlb":8865,"Ġbirmingham":8866,"Ġlind":8867,"Ġcrack":8868,"Ġpool":8869,"Ġbened":8870,"Ġspecified":8871,"Ġfewer":8872,"Ġimmigration":8873,"Ġtons":8874,"Ġmask":8875,"Ġspy":8876,"Ġvert":8877,"Ġcutting":8878,"Ġqueensland":8879,"Ġconcluded":8880,"emed":8881,"Ġcontrols":8882,"Ġencod":8883,"Ġwalking":8884,"Ġnominee":8885,"Ġsignificance":8886,"Ġlatest":8887,"Ġconcrete":8888,"nas":8889,"Ġhappen":8890,"Ġshaw":8891,"Ġfallen":8892,"Ġpsychiat":8893,"Ġconclusion":8894,"Ġunemploy":8895,"Ġalger":8896,"donald":8897,"Ġandy":8898,"Ġwyoming":8899,"Ġnewfoundland":8900,"Ġgraduated":8901,"Ġcommemor":8902,"master":8903,"rin":8904,"Ġmagazines":8905,"Ġgentle":8906,"vet":8907,"pled":8908,"Ġfilmed":8909,"Ġinfrastructure":8910,"Ġtheor":8911,"Ġug":8912,"Ġmilan":8913,"oba":8914,"Ġspecialized":8915,"nik":8916,"Ġcharlotte":8917,"Ġsisters":8918,"Ġclergy":8919,"Ġukraine":8920,"Ġernest":8921,"strong":8922,"Ġdated":8923,"Ġmissiles":8924,"Ġremainder":8925,"Ġbillboard":8926,"Ġcinema":8927,"Ġalexandria":8928,"Ġvancouver":8929,"Ġforty":8930,"Ġnationalist":8931,"Ġeis":8932,"Ġric":8933,"Ġpam":8934,"ilia":8935,"Ġoral":8936,"Ġtranslations":8937,"Ġvacu":8938,"Ġgothic":8939,"Ġmanufactured":8940,"Ġpix":8941,"Ġmalaysia":8942,"Ġtrium":8943,"Ġix":8944,"Ġsier":8945,"ibilities":8946,"Ġpermitted":8947,"Ġmeets":8948,"Ġtactics":8949,"Ġcontinent":8950,"Ġdemonstrated":8951,"Ġstem":8952,"Ġexclusive":8953,"Ġoverl":8954,"Ġreplacing":8955,"enz":8956,"Ġremoval":8957,"Ġunofficial":8958,"ml":8959,"geon":8960,"Ġdevelopments":8961,"Ġaur":8962,"orf":8963,"Ġarena":8964,"Ġjama":8965,"Ġcompare":8966,"Ġcalc":8967,"nat":8968,"acht":8969,"Ġarray":8970,"Ġgiants":8971,"Ġfortune":8972,"Ġprinceton":8973,"Ġpassion":8974,"Ġvowel":8975,"Ġcuisine":8976,"Ġestablishing":8977,"nings":8978,"Ġcollective":8979,"Ġfed":8980,"Ġphosph":8981,"Ġsung":8982,"Ġreactions":8983,"imir":8984,"Ġcourses":8985,"Ġterrorism":8986,"Ġmonroe":8987,"Ġphysician":8988,"Ġbitter":8989,"Ġtin":8990,"leton":8991,"etary":8992,"Ġinterc":8993,"Ġlanded":8994,"Ġwider":8995,"ailed":8996,"Ġstrictly":8997,"Ġresidential":8998,"Ġmoderate":8999,"Ġconsequence":9000,"Ġwrestling":9001,"Ġpist":9002,"oka":9003,"Ġsulf":9004,"Ġaccommod":9005,"Ġchester":9006,"ivan":9007,"Ġglen":9008,"Ġtrademark":9009,"Ġtiny":9010,"Ġphotographs":9011,"Ġgift":9012,"agh":9013,"pping":9014,"Ġoutstanding":9015,"cat":9016,"Ġpock":9017,"Ġinject":9018,"Ġherb":9019,"Ġlawyer":9020,"Ġremembered":9021,"Ġvarieties":9022,"Ġsettlements":9023,"Ġpod":9024,"thor":9025,"Ġmemoir":9026,"boards":9027,"active":9028,"Ġrecept":9029,"Ġportions":9030,"Ġsaved":9031,"Ġhood":9032,"Ġmete":9033,"Ġcontrary":9034,"Ġshoot":9035,"Ġbce":9036,"Ġdiagram":9037,"Ġediting":9038,"Ġedmund":9039,"otle":9040,"Ġdefinitions":9041,"usions":9042,"ules":9043,"Ġattitude":9044,"Ġcraft":9045,"Ġthereby":9046,"tym":9047,"iov":9048,"Ġoperators":9049,"Ġteachers":9050,"Ġrabbi":9051,"icas":9052,"izard":9053,"Ġcooperation":9054,"umberland":9055,"Ġthread":9056,"actic":9057,"Ġscored":9058,"Ġproclaimed":9059,"omagnet":9060,"Ġspo":9061,"Ġenormous":9062,"vo":9063,"Ġsz":9064,"Ġdynamic":9065,"Ġdeleg":9066,"Ġserbia":9067,"Ġtorn":9068,"aman":9069,"Ġnomination":9070,"alism":9071,"Ġsees":9072,"Ġmaritime":9073,"Ġmonastery":9074,"pling":9075,"Ġoblig":9076,"Ġwarning":9077,"Ġtransformation":9078,"Ġthorough":9079,"Ġfortress":9080,"Ġconsens":9081,"Ġbarn":9082,"Ġranch":9083,"Ġspark":9084,"Ġperu":9085,"rys":9086,"Ġattractions":9087,"ahn":9088,"Ġrecovered":9089,"Ġeru":9090,"Ġparticipated":9091,"Ġmanhattan":9092,"Ġinvited":9093,"Ġintelligent":9094,"Ġdisorders":9095,"Ġarmstrong":9096,"Ġjulius":9097,"Ġeug":9098,"Ġrotation":9099,"Ġtriangle":9100,"Ġtends":9101,"Ġpowell":9102,"Ġneighb":9103,"Ġeleven":9104,"Ġinteraction":9105,"Ġglobe":9106,"Ġetym":9107,"estone":9108,"Ġfrontier":9109,"Ġtied":9110,"Ġarbitr":9111,"Ġcyr":9112,"Ġns":9113,"Ġgrain":9114,"Ġmoroc":9115,"aughters":9116,"Ġfranz":9117,"inter":9118,"Ġrevenue":9119,"Ġhide":9120,"ifice":9121,"Ġstrat":9122,"Ġcere":9123,"Ġmild":9124,"Ġnorse":9125,"Ġtransp":9126,"Ġkingdoms":9127,"Ġprisoner":9128,"Ġdisplayed":9129,"Ġhardc":9130,"Ġrestaurant":9131,"Ġquoted":9132,"icon":9133,"Ġcros":9134,"Ġpurple":9135,"borne":9136,"Ġmeetings":9137,"agne":9138,"Ġud":9139,"Ġahead":9140,"Ġefficiency":9141,"Ġwait":9142,"Ġaltitude":9143,"Ġhir":9144,"Ġexport":9145,"Ġsynthes":9146,"pat":9147,"Ġeddie":9148,"Ġreferend":9149,"Ġfract":9150,"engu":9151,"Ġconsequences":9152,"Ġconsolid":9153,"Ġfaces":9154,"Ġpupp":9155,"oro":9156,"Ġdense":9157,"owned":9158,"Ġdesired":9159,"Ġvictorian":9160,"Ġmeasurement":9161,"Ġvincent":9162,"Ġaar":9163,"Ġchat":9164,"Ġlav":9165,"Ġsphere":9166,"Ġinterrupt":9167,"opl":9168,"Ġrogers":9169,"Ġthereafter":9170,"cca":9171,"Ġwallace":9172,"Ġdot":9173,"Ġreceives":9174,"Ġpairs":9175,"Ġentity":9176,"Ġlloyd":9177,"Ġrecommended":9178,"Ġhey":9179,"Ġscots":9180,"Ġblog":9181,"Ġbattal":9182,"Ġpostal":9183,"Ġcypr":9184,"Ġfifty":9185,"Ġconspiracy":9186,"Ġwells":9187,"Ġarchives":9188,"Ġdifficulties":9189,"Ġvenice":9190,"fire":9191,"rat":9192,"Ġhired":9193,"Ġmadrid":9194,"Ġattribution":9195,"Ġestimates":9196,"Ġsvg":9197,"Ġrevolt":9198,"Ġtargets":9199,"Ġaside":9200,"Ġcricket":9201,"Ġgoverning":9202,"anni":9203,"Ġstrikes":9204,"omes":9205,"Ġcarriers":9206,"Ġapproaches":9207,"Ġtruly":9208,"Ġacknowled":9209,"Ġconductor":9210,"Ġframework":9211,"Ġcreatures":9212,"Ġalgorithms":9213,"Ġeccles":9214,"Ġincorrect":9215,"Ġdiscrim":9216,"iary":9217,"Ġprost":9218,"Ġbrut":9219,"Ġgenerations":9220,"rium":9221,"Ġaimed":9222,"omed":9223,"Ġstuart":9224,"Ġpagan":9225,"Ġconce":9226,"Ġantio":9227,"Ġlocom":9228,"Ġfault":9229,"Ġvenezuel":9230,"Ġbail":9231,"onne":9232,"dal":9233,"Ġcheese":9234,"Ġheath":9235,"Ġsuburb":9236,"Ġcompletion":9237,"Ġdestro":9238,"Ġsaturn":9239,"Ġliverpool":9240,"alt":9241,"Ġpray":9242,"Ġhawk":9243,"chron":9244,"Ġleop":9245,"Ġinjured":9246,"Ġcustomers":9247,"Ġcomparative":9248,"Ġreflected":9249,"eness":9250,"Ġdemands":9251,"intosh":9252,"Ġnamespace":9253,"Ġlenn":9254,"Ġrelevant":9255,"Ġactivist":9256,"Ġallegedly":9257,"isition":9258,"stan":9259,"Ġobservation":9260,"Ġrecognize":9261,"pin":9262,"Ġcoca":9263,"Ġya":9264,"Ġscout":9265,"Ġhann":9266,"Ġamster":9267,"Ġcompression":9268,"Ġscre":9269,"Ġwaiting":9270,"Ġdrinking":9271,"Ġcommanded":9272,"Ġsatan":9273,"Ġcontribution":9274,"Ġcats":9275,"Ġbars":9276,"Ġome":9277,"Ġabilities":9278,"Ġescaped":9279,"Ġanthem":9280,"umps":9281,"Ġglad":9282,"Ġsap":9283,"ocation":9284,"Ġyale":9285,"Ġcream":9286,"Ġadults":9287,"Ġcounterpart":9288,"anto":9289,"Ġbohem":9290,"Ġpolyn":9291,"Ġcomplexity":9292,"Ġyorks":9293,"Ġhull":9294,"Ġsheep":9295,"Ġbatman":9296,"Ġbrooklyn":9297,"Ġbacteria":9298,"Ġemer":9299,"Ġsupers":9300,"Ġdigit":9301,"Ġscan":9302,"Ġcompete":9303,"Ġzion":9304,"Ġdys":9305,"Ġsyl":9306,"Ġdaughters":9307,"acular":9308,"Ġpersec":9309,"Ġtopic":9310,"Ġamsterdam":9311,"Ġstronger":9312,"Ġcustoms":9313,"Ġdawn":9314,"Ġriding":9315,"Ġtak":9316,"Ġmaver":9317,"Ġdrummer":9318,"Ġunlikely":9319,"Ġexplosion":9320,"Ġeleph":9321,"Ġgamma":9322,"Ġpapal":9323,"Ġrifle":9324,"Ġunw":9325,"Ġmembr":9326,"haw":9327,"Ġdefect":9328,"Ġquantity":9329,"Ġambassador":9330,"Ġois":9331,"Ġrecur":9332,"Ġinfection":9333,"Ġsul":9334,"Ġdreams":9335,"Ġshops":9336,"Ġunderlying":9337,"Ġflags":9338,"Ġparody":9339,"ahl":9340,"Ġstayed":9341,"Ġvacuum":9342,"Ġfoster":9343,"enne":9344,"Ġandr":9345,"Ġnose":9346,"Ġnavig":9347,"Ġpromotion":9348,"Ġcannon":9349,"Ġastronomy":9350,"Ġrecovery":9351,"Ġmatches":9352,"Ġrepeatedly":9353,"Ġdepartments":9354,"borg":9355,"Ġvoiced":9356,"rm":9357,"Ġnurs":9358,"Ġvas":9359,"Ġquotes":9360,"Ġconflicts":9361,"Ġyorkshire":9362,"opy":9363,"Ġmetall":9364,"Ġdestination":9365,"Ġteachings":9366,"Ġsurrender":9367,"Ġaux":9368,"Ġwedding":9369,"Ġauthent":9370,"Ġivan":9371,"duct":9372,"Ġemotional":9373,"name":9374,"Ġcomments":9375,"Ġlaureate":9376,"Ġhp":9377,"Ġenforcement":9378,"Ġremarkable":9379,"iast":9380,"Ġjenn":9381,"Ġlung":9382,"acher":9383,"Ġinstant":9384,"teries":9385,"estyle":9386,"Ġextensively":9387,"Ġcompetitive":9388,"Ġnerv":9389,"Ġelectrons":9390,"Ġsensitive":9391,"Ġcomplicated":9392,"Ġsupposedly":9393,"Ġretrospect":9394,"Ġfool":9395,"Ġtissue":9396,"enders":9397,"elin":9398,"Ġperception":9399,"Ġantar":9400,"Ġbotan":9401,"Ġassoci":9402,"Ġspeeds":9403,"ophone":9404,"Ġcampaigns":9405,"Ġparadox":9406,"Ġassume":9407,"Ġrt":9408,"Ġsharing":9409,"Ġfuneral":9410,"Ġtalking":9411,"Ġjulian":9412,"Ġseriously":9413,"Ġregistered":9414,"Ġwrites":9415,"Ġglasgow":9416,"Ġhumor":9417,"Ġlucas":9418,"Ġmitchell":9419,"van":9420,"Ġtok":9421,"Ġwasn":9422,"Ġpartnership":9423,"power":9424,"inum":9425,"Ġoperational":9426,"ci":9427,"landers":9428,"Ġcalvin":9429,"Ġlegion":9430,"Ġnerve":9431,"icism":9432,"Ġapproval":9433,"Ġastero":9434,"Ġnort":9435,"Ġlegends":9436,"fts":9437,"Ġnice":9438,"Ġabund":9439,"Ġcongo":9440,"aboration":9441,"Ġresur":9442,"Ġmetric":9443,"Ġgeneva":9444,"gart":9445,"Ġmonopol":9446,"encer":9447,"Ġsarah":9448,"Ġinduc":9449,"adesh":9450,"oulder":9451,"Ġstudying":9452,"Ġstanford":9453,"Ġconfidence":9454,"Ġpollution":9455,"Ġdistant":9456,"Ġmutual":9457,"Ġterminology":9458,"Ġdancing":9459,"Ġcontroll":9460,"Ġsusan":9461,"Ġserbian":9462,"Ġshuttle":9463,"Ġaged":9464,"Ġaus":9465,"Ġzen":9466,"Ġvital":9467,"Ġhenri":9468,"Ġdale":9469,"Ġproteins":9470,"Ġreconstruction":9471,"Ġerrors":9472,"Ġposter":9473,"Ġjudg":9474,"iture":9475,"Ġacou":9476,"Ġtrend":9477,"Ġproportion":9478,"lon":9479,"wright":9480,"Ġabroad":9481,"Ġcreates":9482,"Ġcentered":9483,"Ġhelen":9484,"owski":9485,"Ġrounds":9486,"Ġmaurice":9487,"Ġgest":9488,"Ġdimension":9489,"erb":9490,"Ġovers":9491,"rosc":9492,"Ġplas":9493,"Ġintegration":9494,"cano":9495,"Ġtac":9496,"Ġcomfort":9497,"kien":9498,"Ġwants":9499,"Ġjoining":9500,"Ġdesignation":9501,"Ġferr":9502,"Ġeb":9503,"Ġnaming":9504,"Ġlocally":9505,"Ġmonarchs":9506,"Ġunsuccessful":9507,"Ġstability":9508,"Ġwhig":9509,"Ġvin":9510,"Ġpresents":9511,"Ġparticipation":9512,"Ġoverth":9513,"Ġinterf":9514,"Ġbacked":9515,"Ġimmort":9516,"Ġparticipants":9517,"Ġexplicitly":9518,"Ġspoke":9519,"otto":9520,"Ġrevenge":9521,"Ġguilty":9522,"aders":9523,"ounce":9524,"Ġbra":9525,"Ġreaches":9526,"Ġalp":9527,"enson":9528,"Ġtech":9529,"Ġconstantly":9530,"Ġdialogue":9531,"Ġdiscipline":9532,"Ġcpu":9533,"Ġvoyage":9534,"Ġanchor":9535,"Ġassociate":9536,"flow":9537,"zi":9538,"Ġongoing":9539,"Ġjedi":9540,"Ġunified":9541,"otten":9542,"Ġdecide":9543,"grim":9544,"Ġprefix":9545,"ju":9546,"Ġchin":9547,"Ġcauc":9548,"Ġunex":9549,"Ġabolished":9550,"Ġgenerate":9551,"Ġelite":9552,"Ġrecipient":9553,"plane":9554,"Ġattach":9555,"Ġvaried":9556,"Ġvenus":9557,"mill":9558,"isations":9559,"ario":9560,"Ġslang":9561,"Ġsamples":9562,"Ġbearing":9563,"Ġperpet":9564,"sels":9565,"Ġautomatically":9566,"Ġbonds":9567,"cd":9568,"Ġtrace":9569,"Ġbavaria":9570,"Ġconvinced":9571,"Ġvietnames":9572,"Ġtechnically":9573,"Ġemperors":9574,"aire":9575,"ologically":9576,"Ġdeli":9577,"Ġraven":9578,"Ġlauren":9579,"Ġsaudi":9580,"ovo":9581,"Ġpolynomial":9582,"Ġvietnamese":9583,"Ġassert":9584,"Ġnt":9585,"Ġnotorious":9586,"Ġautobiography":9587,"Ġtowers":9588,"usive":9589,"Ġsurvival":9590,"Ġwalt":9591,"Ġapoc":9592,"Ġconcentrated":9593,"Ġelectromagnet":9594,"Ġlinguistic":9595,"Ġbulgaria":9596,"bes":9597,"idays":9598,"Ġsurve":9599,"Ġalbania":9600,"erd":9601,"nee":9602,"Ġraid":9603,"Ġanglican":9604,"Ġapprec":9605,"Ġopens":9606,"Ġsomer":9607,"appe":9608,"Ġpublishers":9609,"Ġane":9610,"andy":9611,"Ġtig":9612,"Ġdh":9613,"Ġguards":9614,"Ġrim":9615,"Ġfoods":9616,"Ġconstantine":9617,"Ġiranian":9618,"lain":9619,"Ġstatesman":9620,"Ġorganisms":9621,"Ġprefecture":9622,"Ġtables":9623,"ifier":9624,"Ġboroughs":9625,"Ġpropaganda":9626,"Ġreferendum":9627,"oan":9628,"Ġdow":9629,"Ġryan":9630,"Ġconfer":9631,"Ġconsidering":9632,"Ġpriests":9633,"aks":9634,"Ġcircles":9635,"Ġsequel":9636,"Ġtrilogy":9637,"Ġhast":9638,"Ġibn":9639,"Ġdifferential":9640,"Ġscandin":9641,"Ġnixon":9642,"Ġanten":9643,"rah":9644,"Ġopinions":9645,"auc":9646,"ui":9647,"Ġrealm":9648,"Ġexceptions":9649,"Ġdivorce":9650,"Ġhetero":9651,"Ġaccum":9652,"whel":9653,"Ġpuzz":9654,"Ġimplies":9655,"Ġludwig":9656,"Ġguerr":9657,"Ġcanter":9658,"Ġluis":9659,"Ġboxer":9660,"Ġsierra":9661,"Ġdrivers":9662,"Ġhms":9663,"Ġhammer":9664,"Ġdennis":9665,"Ġnewer":9666,"Ġintervention":9667,"Ġmead":9668,"Ġinaug":9669,"Ġjup":9670,"Ġgoverned":9671,"acts":9672,"utor":9673,"Ġatari":9674,"Ġspending":9675,"Ġfriendship":9676,"Ġconnecting":9677,"Ġfont":9678,"Ġwheat":9679,"Ġdeparture":9680,"Ġweigh":9681,"ocaust":9682,"Ġbicy":9683,"Ġpon":9684,"Ġmast":9685,"Ġproc":9686,"Ġgrid":9687,"Ġevans":9688,"Ġrailways":9689,"Ġpilgrim":9690,"Ġrecommend":9691,"Ġwise":9692,"Ġchal":9693,"Ġcompilation":9694,"istle":9695,"Ġrooms":9696,"Ġdimensions":9697,"Ġkids":9698,"Ġfrances":9699,"Ġglory":9700,"Ġrequiring":9701,"Ġsmallest":9702,"Ġunions":9703,"Ġsupplement":9704,"Ġintermediate":9705,"Ġbattery":9706,"Ġbachel":9707,"Ġextends":9708,"Ġcircular":9709,"Ġnab":9710,"Ġstir":9711,"iments":9712,"Ġcontents":9713,"Ġwarrior":9714,"otive":9715,"Ġtyr":9716,"odies":9717,"Ġsoap":9718,"Ġsullivan":9719,"Ġpride":9720,"Ġmammals":9721,"mons":9722,"Ġeighth":9723,"ometer":9724,"Ġmyst":9725,"Ġicon":9726,"Ġdisagree":9727,"Ġannually":9728,"Ġtorped":9729,"Ġtheological":9730,"Ġwald":9731,"Ġconsort":9732,"Ġsmart":9733,"Ġimprovement":9734,"Ġholocaust":9735,"Ġmarcus":9736,"Ġsurprise":9737,"hill":9738,"Ġcinc":9739,"Ġmotors":9740,"Ġbobby":9741,"Ġkiller":9742,"lett":9743,"esty":9744,"Ġoverwhel":9745,"Ġtermed":9746,"Ġsympath":9747,"Ġhav":9748,"Ġyosh":9749,"Ġdecay":9750,"Ġcompanion":9751,"Ġvegas":9752,"Ġpanel":9753,"Ġmanuscript":9754,"Ġconsensus":9755,"Ġadher":9756,"Ġblank":9757,"Ġgeoff":9758,"Ġbold":9759,"Ġloan":9760,"Ġlisten":9761,"Ġpreserve":9762,"Ġquint":9763,"Ġburial":9764,"Ġbaltic":9765,"Ġtasks":9766,"sea":9767,"Ġirr":9768,"Ġsaxony":9769,"Ġmoreover":9770,"Ġmerger":9771,"Ġchromos":9772,"Ġbend":9773,"Ġregulations":9774,"graduate":9775,"math":9776,"Ġsolomon":9777,"Ġsequences":9778,"Ġchicken":9779,"Ġpackage":9780,"Ġwang":9781,"Ġcrossed":9782,"Ġsynthesis":9783,"Ġfier":9784,"Ġhil":9785,"Ġpedro":9786,"Ġomega":9787,"Ġnineteenth":9788,"Ġbrill":9789,"Ġtorpedo":9790,"Ġmilton":9791,"Ġmaintaining":9792,"Ġtraged":9793,"Ġscotia":9794,"Ġpilots":9795,"Ġathletic":9796,"sted":9797,"Ġembr":9798,"Ġexports":9799,"Ġfranco":9800,"Ġero":9801,"Ġarabia":9802,"Ġappointment":9803,"quin":9804,"oda":9805,"Ġcomplement":9806,"Ġtendency":9807,"Ġexhibition":9808,"Ġsuburbs":9809,"Ġsacrifice":9810,"Ġia":9811,"Ġtes":9812,"iously":9813,"Ġsynt":9814,"Ġknows":9815,"Ġputting":9816,"aic":9817,"sts":9818,"Ġderives":9819,"friend":9820,"ulum":9821,"Ġsignature":9822,"Ġslavic":9823,"Ġlens":9824,"ieu":9825,"Ġsovereignty":9826,"Ġmeteor":9827,"Ġdelivery":9828,"bul":9829,"Ġcarries":9830,"Ġinterviews":9831,"Ġacted":9832,"Ġacceptance":9833,"Ġexamination":9834,"mn":9835,"Ġbeng":9836,"itative":9837,"Ġblade":9838,"Ġengage":9839,"Ġdefinite":9840,"Ġnobility":9841,"Ġmigration":9842,"Ġcommissioner":9843,"Ġfifteen":9844,"leum":9845,"Ġoptions":9846,"hd":9847,"Ġkay":9848,"Ġshi":9849,"Ġapplies":9850,"Ġgaul":9851,"Ġkidn":9852,"Ġgeographical":9853,"Ġjupiter":9854,"Ġbelieves":9855,"Ġcongressional":9856,"Ġspringfield":9857,"Ġchaos":9858,"Ġreservoir":9859,"Ġgabriel":9860,"Ġzip":9861,"Ġedit":9862,"Ġtalent":9863,"Ġsized":9864,"Ġtolkien":9865,"olar":9866,"Ġcounts":9867,"Ġrelating":9868,"Ġevident":9869,"Ġstein":9870,"irm":9871,"Ġsuspended":9872,"Ġsicily":9873,"Ġpt":9874,"Ġextr":9875,"Ġconventions":9876,"Ġadministered":9877,"Ġharsh":9878,"Ġaccuracy":9879,"Ġarchaeological":9880,"Ġadject":9881,"Ġfabric":9882,"Ġrhodes":9883,"Ġtelecommunications":9884,"isph":9885,"Ġstyl":9886,"Ġdrives":9887,"Ġexploration":9888,"Ġhereby":9889,"Ġrubber":9890,"Ġsadd":9891,"Ġdock":9892,"Ġtruck":9893,"Ġpromised":9894,"Ġdenver":9895,"Ġrenowned":9896,"Ġmoses":9897,"Ġpok":9898,"Ġraising":9899,"Ġattraction":9900,"Ġscoring":9901,"Ġfiring":9902,"Ġsecre":9903,"Ġply":9904,"Ġnephe":9905,"Ġfacilit":9906,"aser":9907,"Ġcoined":9908,"Ġcrops":9909,"Ġcancelled":9910,"Ġeaster":9911,"Ġcollaps":9912,"Ġmaintains":9913,"Ġchurchill":9914,"Ġessex":9915,"Ġcompatible":9916,"Ġseeds":9917,"enda":9918,"Ġkeith":9919,"iji":9920,"Ġfatal":9921,"Ġdemanded":9922,"Ġrefugees":9923,"Ġstol":9924,"Ġdioc":9925,"Ġtravels":9926,"Ġdevast":9927,"Ġidentification":9928,"Ġcollaboration":9929,"Ġdramat":9930,"Ġinherited":9931,"Ġstamps":9932,"Ġsustain":9933,"Ġhybrid":9934,"Ġspend":9935,"rt":9936,"Ġshipping":9937,"Ġcolum":9938,"Ġdoctors":9939,"Ġvisiting":9940,"Ġdeer":9941,"Ġindependently":9942,"Ġskept":9943,"Ġbombs":9944,"Ġlaugh":9945,"Ġgly":9946,"Ġgill":9947,"Ġgradu":9948,"Ġoutbreak":9949,"atern":9950,"Ġpars":9951,"Ġvatican":9952,"Ġpunch":9953,"Ġlikewise":9954,"Ġconvicted":9955,"Ġcuban":9956,"Ġsuddenly":9957,"Ġhag":9958,"Ġchord":9959,"Ġimprisoned":9960,"Ġki":9961,"Ġgrandson":9962,"Ġgrandfather":9963,"Ġextraord":9964,"Ġedwards":9965,"Ġrevision":9966,"Ġminimal":9967,"Ġearthquake":9968,"Ġarose":9969,"Ġdisputes":9970,"Ġwelfare":9971,"Ġyugoslavia":9972,"Ġcoordinates":9973,"Ġperformers":9974,"Ġprinces":9975,"Ġmend":9976,"Ġherm":9977,"Ġpetroleum":9978,"gg":9979,"Ġalumin":9980,"amous":9981,"Ġarguably":9982,"eu":9983,"Ġrecognised":9984,"Ġsemin":9985,"Ġconfederation":9986,"Ġjason":9987,"quer":9988,"Ġautumn":9989,"Ġrn":9990,"stown":9991,"Ġafford":9992,"Ġastronaut":9993,"Ġdissolved":9994,"Ġpenalty":9995,"opic":9996,"Ġshin":9997,"Ġspur":9998,"ancing":9999,"Ġbreeding":10000,"Ġmunich":10001,"Ġnarrative":10002,"Ġthy":10003,"Ġussr":10004,"Ġstriking":10005,"nan":10006,"Ġdemol":10007,"Ġvalle":10008,"Ġrebel":10009,"ashed":10010,"Ġdevelopers":10011,"Ġcirca":10012,"Ġinteger":10013,"Ġpalat":10014,"Ġkenne":10015,"Ġadoption":10016,"Ġcelebration":10017,"Ġswimming":10018,"iko":10019,"Ġwilder":10020,"Ġpopulated":10021,"Ġcarroll":10022,"Ġseverely":10023,"Ġsending":10024,"Ġukrain":10025,"Ġdying":10026,"irical":10027,"Ġenlight":10028,"Ġclosest":10029,"Ġachievement":10030,"Ġbinding":10031,"Ġtrump":10032,"Ġnonetheless":10033,"Ġwisdom":10034,"Ġbenedict":10035,"Ġsomerset":10036,"eded":10037,"Ġphi":10038,"Ġeldest":10039,"Ġcyprus":10040,"Ġaccus":10041,"Ġsanct":10042,"Ġprophet":10043,"Ġsony":10044,"Ġcluster":10045,"Ġdoors":10046,"utt":10047,"Ġprose":10048,"Ġdimin":10049,"Ġcrowned":10050,"Ġbelonging":10051,"Ġschedule":10052,"appeared":10053,"Ġai":10054,"Ġlank":10055,"Ġbee":10056,"Ġstack":10057,"Ġkills":10058,"Ġgel":10059,"Ġthermal":10060,"Ġupdated":10061,"wen":10062,"Ġlift":10063,"Ġdirections":10064,"Ġpermit":10065,"Ġexplains":10066,"Ġthorn":10067,"asters":10068,"Ġrede":10069,"Ġkor":10070,"Ġdeals":10071,"Ġdeuts":10072,"Ġestimate":10073,"Ġceased":10074,"Ġlancaster":10075,"Ġbeij":10076,"Ġsuperman":10077,"Ġlaz":10078,"Ġfay":10079,"Ġbros":10080,"Ġyoungest":10081,"Ġphotography":10082,"Ġpanama":10083,"Ġvowels":10084,"eta":10085,"Ġholes":10086,"Ġtransmitted":10087,"Ġinvaded":10088,"Ġcolored":10089,"Ġsimpson":10090,"Ġcanterbury":10091,"Ġfron":10092,"Ġjosh":10093,"Ġdeemed":10094,"Ġbw":10095,"Ġvest":10096,"iano":10097,"Ġnumbered":10098,"Ġquantities":10099,"rist":10100,"Ġfing":10101,"atra":10102,"Ġimpression":10103,"Ġaristocr":10104,"word":10105,"Ġinver":10106,"idad":10107,"Ġitem":10108,"Ġduchy":10109,"Ġstroke":10110,"Ġlabels":10111,"Ġsynd":10112,"Ġdeeply":10113,"Ġimprovements":10114,"ocated":10115,"Ġteeth":10116,"Ġsubset":10117,"istent":10118,"Ġencomp":10119,"Ġempress":10120,"Ġopposing":10121,"Ġclinical":10122,"Ġretrospectively":10123,"rating":10124,"Ġisot":10125,"cal":10126,"yo":10127,"Ġisab":10128,"rous":10129,"amer":10130,"Ġretreat":10131,"Ġeuph":10132,"Ġhughes":10133,"Ġbloom":10134,"olly":10135,"Ġfriday":10136,"Ġsitting":10137,"Ġaccessible":10138,"Ġmate":10139,"Ġhugo":10140,"ardo":10141,"ennial":10142,"letion":10143,"Ġtongue":10144,"eter":10145,"asian":10146,"Ġpromise":10147,"Ġcruise":10148,"Ġadvocate":10149,"Ġcomput":10150,"Ġconcord":10151,"Ġuploads":10152,"Ġsurprising":10153,"urer":10154,"iper":10155,"Ġadolf":10156,"Ġblacks":10157,"Ġlightning":10158,"Ġtourists":10159,"Ġbankrupt":10160,"Ġeuc":10161,"Ġprototype":10162,"Ġdubbed":10163,"Ġencompass":10164,"Ġeur":10165,"Ġharmony":10166,"Ġgael":10167,"Ġnavigation":10168,"Ġmd":10169,"Ġfilter":10170,"Ġdefunct":10171,"Ġspons":10172,"Ġbills":10173,"Ġmcg":10174,"Ġkilomet":10175,"Ġira":10176,"ye":10177,"Ġgott":10178,"Ġdischar":10179,"Ġlayers":10180,"Ġcorners":10181,"Ġprocedures":10182,"restr":10183,"Ġbrick":10184,"Ġhandling":10185,"Ġrendered":10186,"Ġwireless":10187,"Ġpengu":10188,"Ġnumer":10189,"ymph":10190,"Ġbaldwin":10191,"eries":10192,"Ġjury":10193,"Ġpreparation":10194,"Ġinterch":10195,"Ġprussian":10196,"Ġwitnesses":10197,"Ġeinstein":10198,"Ġfrequencies":10199,"Ġsophistic":10200,"Ġtheodore":10201,"Ġsuspected":10202,"Ġstern":10203,"Ġottawa":10204,"acco":10205,"Ġexit":10206,"Ġenact":10207,"Ġforcing":10208,"Ġket":10209,"Ġdisrupt":10210,"Ġversa":10211,"Ġantioch":10212,"Ġsack":10213,"Ġsenators":10214,"Ġtorah":10215,"Ġaddressed":10216,"Ġcriteria":10217,"Ġrunner":10218,"Ġcredits":10219,"Ġpushed":10220,"Ġcolombia":10221,"Ġswift":10222,"Ġpercuss":10223,"Ġconsent":10224,"Ġsubc":10225,"asi":10226,"Ġpatrol":10227,"works":10228,"Ġrequirement":10229,"Ġreliable":10230,"Ġtours":10231,"Ġveterans":10232,"Ġgustav":10233,"omo":10234,"Ġstockholm":10235,"Ġved":10236,"Ġoccasional":10237,"Ġobserver":10238,"Ġbeijing":10239,"ayan":10240,"Ġsmoke":10241,"Ġinhabited":10242,"Ġevolutionary":10243,"erts":10244,"Ġlying":10245,"Ġregent":10246,"Ġprimitive":10247,"Ġcasualties":10248,"sl":10249,"orig":10250,"Ġgeneric":10251,"Ġtommy":10252,"Ġmtv":10253,"onsored":10254,"Ġplug":10255,"aha":10256,"Ġlegally":10257,"Ġreceiver":10258,"Ġsessions":10259,"Ġpounds":10260,"Ġindirect":10261,"Ġhollow":10262,"Ġethical":10263,"Ġhemisph":10264,"Ġruf":10265,"Ġinteractive":10266,"Ġwagner":10267,"Ġbast":10268,"Ġluck":10269,"quet":10270,"Ġvolcano":10271,"Ġfires":10272,"Ġjel":10273,"Ġpartement":10274,"Ġnamely":10275,"Ġclement":10276,"Ġprevented":10277,"Ġorientation":10278,"Ġflew":10279,"ateral":10280,"Ġdiversity":10281,"Ġhth":10282,"Ġspite":10283,"Ġinhib":10284,"arks":10285,"Ġseas":10286,"Ġlicensed":10287,"leng":10288,"Ġmak":10289,"Ġpurely":10290,"Ġoakland":10291,"Ġsag":10292,"Ġvoices":10293,"Ġconfiguration":10294,"furt":10295,"Ġgenerals":10296,"Ġmultilic":10297,"Ġbj":10298,"Ġsponsored":10299,"Ġradi":10300,"ensewith":10301,"Ġbulk":10302,"Ġmultilicensewith":10303,"Ġmultilicensewithcc":10304,"Ġisn":10305,"Ġinnocent":10306,"Ġfond":10307,"oning":10308,"Ġeditors":10309,"Ġattacking":10310,"Ġerected":10311,"gent":10312,"iry":10313,"Ġsnake":10314,"ascar":10315,"Ġbosnia":10316,"Ġmao":10317,"Ġwindsor":10318,"restrial":10319,"Ġmarion":10320,"ylum":10321,"Ġsard":10322,"Ġdaw":10323,"Ġranking":10324,"Ġstrait":10325,"Ġreconc":10326,"Ġtelescope":10327,"rus":10328,"Ġaven":10329,"Ġgol":10330,"Ġtravelled":10331,"Ġpete":10332,"Ġhm":10333,"Ġleap":10334,"Ġgenes":10335,"Ġgast":10336,"Ġrealized":10337,"Ġparadise":10338,"Ġsink":10339,"Ġincomp":10340,"Ġabortion":10341,"Ġminerals":10342,"Ġholidays":10343,"Ġinland":10344,"Ġvh":10345,"Ġtriumph":10346,"Ġformats":10347,"Ġhelping":10348,"Ġcapitalism":10349,"Ġroutine":10350,"Ġtransformed":10351,"Ġmonetary":10352,"Ġlandmark":10353,"Ġern":10354,"sd":10355,"Ġkitch":10356,"Ġacr":10357,"Ġelaborate":10358,"Ġwre":10359,"oux":10360,"Ġgenres":10361,"ylan":10362,"Ġmacintosh":10363,"Ġwarriors":10364,"Ġinterval":10365,"Ġentities":10366,"Ġbachelor":10367,"Ġdisl":10368,"Ġpotentially":10369,"Ġsuspic":10370,"Ġml":10371,"Ġimposed":10372,"Ġsketch":10373,"pal":10374,"Ġbutt":10375,"Ġmagical":10376,"Ġproto":10377,"Ġcircuits":10378,"Ġaccomplished":10379,"walk":10380,"Ġalg":10381,"Ġequil":10382,"Ġsuperh":10383,"Ġhappens":10384,"Ġgiov":10385,"Ġdece":10386,"Ġoutdo":10387,"Ġvolcan":10388,"Ġhospit":10389,"Ġtobacco":10390,"Ġpredecessor":10391,"isch":10392,"aters":10393,"Ġchand":10394,"Ġextending":10395,"Ġcylinder":10396,"Ġeternal":10397,"achi":10398,"Ġomn":10399,"Ġculmin":10400,"Ġconform":10401,"fly":10402,"arre":10403,"Ġharvey":10404,"Ġvideos":10405,"Ġaudiences":10406,"Ġunemployment":10407,"kk":10408,"Ġcompeting":10409,"Ġluxem":10410,"Ġbren":10411,"Ġfraud":10412,"Ġloved":10413,"Ġcartoons":10414,"ront":10415,"Ġnm":10416,"Ġcentres":10417,"Ġregulation":10418,"Ġcaf":10419,"terior":10420,"Ġbrus":10421,"Ġscores":10422,"Ġphrases":10423,"Ġposth":10424,"Ġbreaks":10425,"Ġpicked":10426,"Ġdismissed":10427,"Ġvolunt":10428,"Ġfloating":10429,"Ġnass":10430,"Ġnhl":10431,"Ġterrain":10432,"Ġsailed":10433,"rage":10434,"Ġanger":10435,"Ġwatson":10436,"rection":10437,"Ġreward":10438,"auer":10439,"Ġdivide":10440,"Ġbelongs":10441,"itus":10442,"ogne":10443,"Ġbelarus":10444,"Ġnaples":10445,"Ġinsects":10446,"Ġabbreviation":10447,"Ġdb":10448,"Ġrican":10449,"Ġasp":10450,"Ġmartyr":10451,"Ġprecip":10452,"Ġkath":10453,"Ġtitan":10454,"Ġdefeats":10455,"Ġist":10456,"Ġlesb":10457,"Ġbak":10458,"Ġpresby":10459,"Ġevac":10460,"Ġjohannes":10461,"Ġstating":10462,"Ġarsen":10463,"Ġharper":10464,"Ġphysically":10465,"Ġadvocates":10466,"vs":10467,"opal":10468,"Ġfee":10469,"Ġpersonally":10470,"sole":10471,"Ġphant":10472,"Ġworker":10473,"ormal":10474,"Ġinherit":10475,"Ġholmes":10476,"Ġcirculation":10477,"Ġreporting":10478,"Ġvend":10479,"Ġtension":10480,"Ġexplosive":10481,"Ġpresumably":10482,"imp":10483,"ellar":10484,"Ġoccurring":10485,"Ġecho":10486,"ulk":10487,"Ġblake":10488,"Ġbehalf":10489,"isons":10490,"emia":10491,"Ġupr":10492,"Ġruins":10493,"Ġtravelling":10494,"Ġaerial":10495,"Ġmarath":10496,"Ġaborig":10497,"Ġhelps":10498,"Ġbeneath":10499,"Ġanatomy":10500,"Ġforbidden":10501,"Ġrepair":10502,"Ġdefines":10503,"Ġnationalism":10504,"Ġadopt":10505,"Ġrebuilt":10506,"Ġlone":10507,"Ġpersia":10508,"asha":10509,"Ġsuburban":10510,"Ġfles":10511,"Ġmeter":10512,"Ġlegitimate":10513,"Ġchains":10514,"Ġvalent":10515,"Ġfestivals":10516,"Ġrally":10517,"Ġconcerts":10518,"oard":10519,"Ġkernel":10520,"isive":10521,"apor":10522,"Ġworse":10523,"Ġcapitol":10524,"Ġchel":10525,"Ġintercept":10526,"eping":10527,"Ġestates":10528,"Ġbulg":10529,"Ġrestrict":10530,"Ġcustomer":10531,"Ġpractition":10532,"Ġoxid":10533,"Ġmanufacture":10534,"Ġsubstances":10535,"Ġfeelings":10536,"Ġich":10537,"Ġchase":10538,"Ġgregor":10539,"Ġtrem":10540,"Ġaccounting":10541,"Ġtalks":10542,"Ġconsecutive":10543,"uki":10544,"Ġrhet":10545,"Ġwidow":10546,"Ġresponded":10547,"Ġarctic":10548,"Ġabel":10549,"Ġargues":10550,"Ġastrol":10551,"Ġplacing":10552,"Ġspeculation":10553,"Ġwarsaw":10554,"green":10555,"rough":10556,"tor":10557,"Ġarmor":10558,"Ġinitiated":10559,"Ġtimber":10560,"Ġlon":10561,"umed":10562,"ocy":10563,"Ġsizes":10564,"matic":10565,"igu":10566,"Ġrays":10567,"Ġtrio":10568,"Ġmysterious":10569,"Ġstall":10570,"Ġadrian":10571,"uine":10572,"Ġmaz":10573,"Ġantib":10574,"Ġtested":10575,"uth":10576,"ourt":10577,"Ġmonk":10578,"Ġdocumented":10579,"Ġpredominantly":10580,"Ġmanch":10581,"Ġmuseums":10582,"eses":10583,"Ġjoke":10584,"Ġlasting":10585,"Ġboards":10586,"Ġcanyon":10587,"Ġacceptable":10588,"Ġfbi":10589,"Ġbalk":10590,"Ġmanaging":10591,"Ġrelativity":10592,"Ġsak":10593,"Ġnode":10594,"Ġsentenced":10595,"Ġming":10596,"Ġmph":10597,"Ġgaining":10598,"Ġspencer":10599,"Ġbomber":10600,"Ġlutheran":10601,"Ġhare":10602,"Ġactively":10603,"Ġirreg":10604,"Ġastronomical":10605,"Ġpreservation":10606,"inery":10607,"Ġeph":10608,"Ġbrooks":10609,"Ġdiesel":10610,"Ġdownload":10611,"Ġsop":10612,"Ġapplic":10613,"Ġbb":10614,"Ġreserves":10615,"Ġamericas":10616,"Ġcyber":10617,"Ġdefining":10618,"yers":10619,"Ġviewers":10620,"Ġfinals":10621,"cock":10622,"Ġdwell":10623,"text":10624,"Ġsolve":10625,"Ġclaude":10626,"isible":10627,"orp":10628,"Ġmush":10629,"Ġenters":10630,"Ġtroy":10631,"Ġfiber":10632,"Ġfever":10633,"Ġvulner":10634,"Ġexpelled":10635,"Ġtelegraph":10636,"Ġrespective":10637,"Ġthrown":10638,"Ġbrew":10639,"Ġpocket":10640,"Ġirregular":10641,"krit":10642,"Ġdylan":10643,"Ġkas":10644,"Ġbattalion":10645,"Ġplasma":10646,"Ġnh":10647,"Ġgathering":10648,"Ġdent":10649,"Ġturks":10650,"Ġeman":10651,"Ġposts":10652,"Ġaddresses":10653,"suing":10654,"Ġapartment":10655,"king":10656,"Ġproportional":10657,"Ġalk":10658,"Ġkra":10659,"Ġdarkness":10660,"iller":10661,"izers":10662,"Ġtelling":10663,"space":10664,"Ġsupplied":10665,"Ġrevelation":10666,"Ġhorm":10667,"Ġacids":10668,"Ġbarcel":10669,"Ġodys":10670,"Ġsculpture":10671,"Ġmim":10672,"Ġez":10673,"Ġcommunism":10674,"gio":10675,"Ġlig":10676,"Ġmock":10677,"Ġorganisations":10678,"Ġmiscell":10679,"Ġwed":10680,"Ġhond":10681,"ugu":10682,"Ġsocialism":10683,"Ġtouring":10684,"Ġencountered":10685,"Ġtotally":10686,"Ġagreements":10687,"Ġcec":10688,"Ġguild":10689,"Ġmasses":10690,"Ġaccessed":10691,"Ġinex":10692,"osphere":10693,"Ġgravit":10694,"Ġsailing":10695,"Ġjudgment":10696,"Ġling":10697,"uba":10698,"Ġpoorly":10699,"Ġkai":10700,"Ġmanuel":10701,"Ġideology":10702,"Ġpav":10703,"Ġdame":10704,"Ġseized":10705,"Ġsymbolic":10706,"Ġcincinn":10707,"Ġbrass":10708,"oz":10709,"Ġsoy":10710,"Ġcuts":10711,"Ġclosing":10712,"Ġprospect":10713,"Ġwick":10714,"aba":10715,"Ġanywhere":10716,"Ġsacrific":10717,"Ġchocol":10718,"Ġfreely":10719,"Ġduration":10720,"Ġcolours":10721,"Ġaftermath":10722,"Ġatmospheric":10723,"fight":10724,"isers":10725,"anus":10726,"Ġninth":10727,"Ġmann":10728,"Ġcao":10729,"Ġpianist":10730,"Ġinitiative":10731,"Ġeugene":10732,"Ġaccent":10733,"Ġmaveric":10734,"Ġkre":10735,"Ġplatinum":10736,"Ġlisa":10737,"Ġrestore":10738,"Ġcroatia":10739,"Ġsanskrit":10740,"Ġseb":10741,"thetic":10742,"Ġincom":10743,"Ġhered":10744,"Ġprotests":10745,"Ġcomprised":10746,"Ġcondemned":10747,"Ġcivilians":10748,"Ġnights":10749,"Ġlectures":10750,"piece":10751,"Ġbiz":10752,"Ġwhenever":10753,"Ġanticip":10754,"mation":10755,"vised":10756,"Ġverte":10757,"Ġorgans":10758,"hed":10759,"Ġff":10760,"olith":10761,"Ġchorus":10762,"Ġskull":10763,"Ġcroatian":10764,"Ġbeau":10765,"Ġdisappeared":10766,"Ġgrim":10767,"Ġmidnight":10768,"Ġgrande":10769,"Ġthames":10770,"oned":10771,"Ġproxim":10772,"Ġsoci":10773,"Ġchemicals":10774,"iley":10775,"Ġdistances":10776,"Ġpresentation":10777,"Ġsandy":10778,"Ġmorocco":10779,"uy":10780,"amine":10781,"Ġnephew":10782,"Ġhiv":10783,"Ġgm":10784,"Ġoverlo":10785,"Ġutility":10786,"Ġcommodore":10787,"Ġingred":10788,"oint":10789,"Ġtow":10790,"ums":10791,"Ġmetals":10792,"Ġpreval":10793,"Ġmickey":10794,"Ġwheels":10795,"Ġcooking":10796,"Ġsigning":10797,"Ġassets":10798,"Ġpleasant":10799,"zig":10800,"ovich":10801,"Ġexcav":10802,"Ġgathered":10803,"Ġkenneth":10804,"Ġconsul":10805,"Ġalgebraic":10806,"Ġposthum":10807,"Ġkb":10808,"Ġbrun":10809,"Ġmerit":10810,"Ġphillips":10811,"Ġlil":10812,"star":10813,"Ġconsole":10814,"she":10815,"Ġassumption":10816,"Ġguided":10817,"Ġoath":10818,"asse":10819,"Ġguid":10820,"Ġsurfaces":10821,"Ġpall":10822,"Ġnad":10823,"acon":10824,"oge":10825,"Ġparade":10826,"Ġconstellation":10827,"Ġfarms":10828,"Ġchambers":10829,"Ġfossil":10830,"Ġrating":10831,"Ġabsorbed":10832,"Ġsubdiv":10833,"case":10834,"Ġcarefully":10835,"Ġsolely":10836,"ogical":10837,"Ġmetab":10838,"Ġimmun":10839,"Ġalberta":10840,"Ġunclear":10841,"Ġduc":10842,"Ġtechnological":10843,"Ġpotato":10844,"Ġflanders":10845,"Ġeuropeans":10846,"Ġcrop":10847,"Ġowen":10848,"holder":10849,"Ġtil":10850,"Ġstops":10851,"Ġdukes":10852,"Ġrebels":10853,"Ġcrusade":10854,"Ġpercussion":10855,"Ġraj":10856,"Ġcorrel":10857,"Ġalbanian":10858,"Ġfarmer":10859,"castle":10860,"Ġhearts":10861,"Ġinjuries":10862,"Ġnutr":10863,"Ġvladimir":10864,"Ġboost":10865,"Ġcreature":10866,"Ġthrust":10867,"Ġpracticed":10868,"Ġches":10869,"Ġchuck":10870,"Ġprey":10871,"ilding":10872,"Ġcalculus":10873,"Ġadvantages":10874,"Ġnicknamed":10875,"Ġdisplays":10876,"Ġnur":10877,"Ġsuite":10878,"Ġconservatives":10879,"Ġclarke":10880,"Ġgains":10881,"itted":10882,"Ġinstances":10883,"Ġreformed":10884,"Ġpend":10885,"Ġzoo":10886,"Ġencourage":10887,"Ġplatforms":10888,"Ġcognitive":10889,"Ġrex":10890,"Ġspelled":10891,"omi":10892,"Ġconquer":10893,"Ġtick":10894,"Ġsynchron":10895,"Ġlinguistics":10896,"Ġderivative":10897,"Ġenhanced":10898,"db":10899,"isse":10900,"Ġvine":10901,"Ġwesley":10902,"Ġmonthly":10903,"Ġremoving":10904,"gam":10905,"Ġbust":10906,"Ġori":10907,"Ġrelatives":10908,"Ġcamb":10909,"Ġspirits":10910,"Ġkurt":10911,"Ġtwins":10912,"ameters":10913,"Ġgerald":10914,"Ġbombard":10915,"Ġindicating":10916,"Ġoriental":10917,"yd":10918,"iri":10919,"Ġburton":10920,"Ġpromoting":10921,"Ġdetective":10922,"Ġtent":10923,"Ġlayout":10924,"Ġaaron":10925,"kees":10926,"Ġpoles":10927,"Ġreasonable":10928,"Ġreserved":10929,"Ġscope":10930,"Ġdiscontin":10931,"Ġexperts":10932,"Ġquartet":10933,"Ġacoustic":10934,"Ġequilib":10935,"zan":10936,"Ġtrin":10937,"Ġglou":10938,"Ġcircus":10939,"urai":10940,"Ġilleg":10941,"isy":10942,"Ġprix":10943,"Ġmargin":10944,"Ġcontribute":10945,"abad":10946,"Ġclause":10947,"Ġtribal":10948,"Ġaggressive":10949,"nut":10950,"Ġmasc":10951,"obe":10952,"Ġhoped":10953,"Ġmood":10954,"Ġpla":10955,"Ġpond":10956,"orship":10957,"Ġevol":10958,"Ġpalmer":10959,"Ġphilippine":10960,"orum":10961,"Ġchapters":10962,"hist":10963,"Ġpirates":10964,"Ġpartition":10965,"Ġopportunities":10966,"Ġgiovanni":10967,"Ġdas":10968,"Ġignored":10969,"Ġepisc":10970,"psons":10971,"Ġcruiser":10972,"bard":10973,"list":10974,"esia":10975,"Ġblast":10976,"Ġfamously":10977,"Ġtao":10978,"Ġcharity":10979,"Ġconfront":10980,"Ġcouncils":10981,"Ġmechanisms":10982,"Ġratings":10983,"Ġembass":10984,"Ġspecification":10985,"Ġarchitectural":10986,"Ġexpanding":10987,"Ġenabled":10988,"wr":10989,"Ġxv":10990,"Ġstevens":10991,"Ġmature":10992,"Ġethiopia":10993,"igible":10994,"Ġbeast":10995,"marks":10996,"Ġswitched":10997,"Ġobviously":10998,"Ġhomosexuality":10999,"Ġvenezuela":11000,"Ġelectromagnetic":11001,"Ġsco":11002,"Ġatlas":11003,"Ġbuddha":11004,"Ġmonday":11005,"Ġbarcelona":11006,"Ġpleasure":11007,"Ġinferior":11008,"Ġcompromise":11009,"Ġcincinnati":11010,"ben":11011,"Ġfug":11012,"Ġregist":11013,"Ġhonorary":11014,"Ġgibson":11015,"Ġheinrich":11016,"Ġhierarchy":11017,"Ġhend":11018,"Ġfiled":11019,"Ġmodes":11020,"Ġportal":11021,"Ġcorporations":11022,"Ġpyram":11023,"Ġbabylon":11024,"Ġmanage":11025,"Ġknot":11026,"Ġsurname":11027,"Ġmilitia":11028,"Ġintersection":11029,"Ġplayoffs":11030,"Ġchemist":11031,"Ġcontracts":11032,"Ġcomparable":11033,"Ġastronomer":11034,"Ġcameras":11035,"Ġgloucester":11036,"fan":11037,"Ġthirteen":11038,"Ġaccomplish":11039,"Ġkun":11040,"Ġcoven":11041,"Ġcelest":11042,"Ġleather":11043,"Ġtune":11044,"Ġrut":11045,"Ġramp":11046,"ulations":11047,"Ġwebsites":11048,"Ġplateau":11049,"Ġclif":11050,"Ġdemons":11051,"tec":11052,"Ġses":11053,"Ġdup":11054,"Ġadequ":11055,"Ġfunk":11056,"Ġcraig":11057,"Ġeul":11058,"Ġkash":11059,"Ġobso":11060,"Ġmurphy":11061,"Ġenlar":11062,"Ġeclip":11063,"Ġtough":11064,"Ġnull":11065,"Ġincarn":11066,"Ġplates":11067,"Ġprair":11068,"Ġoutcome":11069,"Ġedgar":11070,"Ġinformal":11071,"Ġdioxide":11072,"Ġhij":11073,"Ġwhale":11074,"Ġnearest":11075,"Ġphysiology":11076,"Ġorbital":11077,"Ġnervous":11078,"uda":11079,"Ġdart":11080,"Ġhampton":11081,"Ġapproximate":11082,"Ġoc":11083,"Ġrav":11084,"Ġmodu":11085,"Ġcapabilities":11086,"Ġdoom":11087,"Ġironically":11088,"Ġlighting":11089,"Ġcay":11090,"Ġshog":11091,"Ġmonks":11092,"sson":11093,"Ġliberals":11094,"Ġpaperback":11095,"Ġvirtue":11096,"Ġtemporarily":11097,"Ġore":11098,"Ġcommunists":11099,"Ġcornwall":11100,"Ġresignation":11101,"Ġbrussels":11102,"tv":11103,"Ġsimpsons":11104,"Ġdescended":11105,"Ġweekend":11106,"Ġhanover":11107,"eenth":11108,"Ġthai":11109,"Ġestablishments":11110,"Ġwaveleng":11111,"Ġtragedy":11112,"zon":11113,"Ġcig":11114,"amo":11115,"Ġcommercially":11116,"Ġcorrespondence":11117,"Ġevangelical":11118,"Ġcolumns":11119,"Ġmk":11120,"Ġcarth":11121,"Ġbarrier":11122,"kind":11123,"Ġkap":11124,"Ġglenn":11125,"nesian":11126,"Ġfunded":11127,"Ġdolph":11128,"fa":11129,"Ġprecisely":11130,"onna":11131,"Ġinverse":11132,"Ġbore":11133,"Ġdefended":11134,"Ġsudan":11135,"isa":11136,"Ġdion":11137,"umi":11138,"Ġreson":11139,"Ġcob":11140,"Ġassyr":11141,"airo":11142,"Ġsitcom":11143,"Ġulster":11144,"lass":11145,"imony":11146,"Ġmeasuring":11147,"Ġathe":11148,"Ġukrainian":11149,"Ġuprising":11150,"Ġstraw":11151,"Ġcarb":11152,"Ġundergraduate":11153,"Ġsilk":11154,"Ġsaddam":11155,"Ġdigest":11156,"Ġdoctr":11157,"Ġmembrane":11158,"pers":11159,"anges":11160,"Ġgalile":11161,"Ġtreasury":11162,"Ġeliminated":11163,"Ġclothes":11164,"hop":11165,"Ġswamp":11166,"Ġarabs":11167,"Ġclick":11168,"elli":11169,"Ġabu":11170,"Ġassisted":11171,"hall":11172,"uania":11173,"emann":11174,"Ġsubm":11175,"Ġvolunteers":11176,"Ġhighland":11177,"Ġcran":11178,"aan":11179,"Ġpetersburg":11180,"recht":11181,"Ġtopology":11182,"Ġconception":11183,"Ġasking":11184,"Ġuncon":11185,"organized":11186,"Ġarbitrary":11187,"Ġmoor":11188,"Ġmormon":11189,"Ġballs":11190,"Ġcruz":11191,"Ġineff":11192,"eli":11193,"ppe":11194,"Ġrespected":11195,"enstein":11196,"Ġlithuania":11197,"erog":11198,"oly":11199,"Ġbirthplace":11200,"Ġceo":11201,"Ġordin":11202,"Ġmathematicians":11203,"Ġpresbyter":11204,"anca":11205,"Ġalbany":11206,"edded":11207,"mus":11208,"Ġlau":11209,"Ġharvest":11210,"Ġviking":11211,"Ġnaked":11212,"Ġgaz":11213,"Ġmomentum":11214,"Ġacclaimed":11215,"Ġquote":11216,"Ġvalve":11217,"Ġmodule":11218,"Ġaj":11219,"Ġdx":11220,"Ġecology":11221,"Ġdurham":11222,"Ġcompiled":11223,"gue":11224,"Ġsaga":11225,"order":11226,"Ġhate":11227,"Ġchen":11228,"essa":11229,"Ġartif":11230,"Ġnucleus":11231,"Ġbritannica":11232,"Ġplymouth":11233,"oter":11234,"Ġunde":11235,"Ġcease":11236,"Ġvacc":11237,"Ġinterchange":11238,"ogan":11239,"Ġservers":11240,"abulary":11241,"reats":11242,"Ġbennett":11243,"Ġfount":11244,"Ġnun":11245,"Ġminne":11246,"Ġloren":11247,"Ġhopkins":11248,"Ġmeasurements":11249,"Ġcruel":11250,"Ġdome":11251,"arte":11252,"Ġpepper":11253,"Ġloud":11254,"Ġrecreation":11255,"Ġtemples":11256,"Ġnazis":11257,"Ġpreceded":11258,"inas":11259,"urst":11260,"Ġense":11261,"Ġdealt":11262,"Ġdivorced":11263,"yg":11264,"Ġscales":11265,"Ġdisturb":11266,"Ġvols":11267,"Ġsaving":11268,"Ġcapability":11269,"Ġcompositions":11270,"Ġpython":11271,"Ġdeposits":11272,"Ġetymology":11273,"Ġobsolete":11274,"Ġscal":11275,"Ġexpense":11276,"Ġdiagnosis":11277,"Ġfare":11278,"Ġinev":11279,"erome":11280,"Ġtubes":11281,"Ġmanuscripts":11282,"Ġincomple":11283,"itic":11284,"Ġgenuine":11285,"Ġimpressive":11286,"Ġtribut":11287,"Ġattributes":11288,"Ġpulled":11289,"Ġcorrectly":11290,"Ġrequested":11291,"Ġawareness":11292,"Ġtorture":11293,"Ġgenius":11294,"Ġswan":11295,"Ġjail":11296,"Ġchips":11297,"Ġproponents":11298,"Ġcalculated":11299,"Ġancestry":11300,"Ġlodge":11301,"Ġbm":11302,"Ġana":11303,"affe":11304,"Ġseparately":11305,"Ġassassinated":11306,"Ġpursue":11307,"Ġlenin":11308,"Ġsemitic":11309,"natural":11310,"Ġspear":11311,"Ġreluct":11312,"Ġgovernmental":11313,"Ġtemp":11314,"Ġuranium":11315,"Ġprogrammes":11316,"Ġernst":11317,"Ġchocolate":11318,"abe":11319,"Ġcommands":11320,"maker":11321,"edes":11322,"Ġyuan":11323,"phis":11324,"Ġprovisions":11325,"Ġmentions":11326,"Ġhazard":11327,"Ġsophisticated":11328,"bie":11329,"Ġknowing":11330,"Ġsodium":11331,"Ġcrucial":11332,"Ġvampire":11333,"ouses":11334,"Ġmalay":11335,"Ġreactor":11336,"Ġdynamics":11337,"Ġtodd":11338,"ulates":11339,"Ġeveryday":11340,"Ġhr":11341,"ichi":11342,"Ġxen":11343,"Ġarrive":11344,"Ġviolation":11345,"Ġticket":11346,"Ġsask":11347,"Ġmanit":11348,"Ġexhibit":11349,"lide":11350,"Ġspa":11351,"Ġirving":11352,"Ġhemisphere":11353,"oque":11354,"alous":11355,"Ġstabil":11356,"Ġsinc":11357,"Ġvil":11358,"Ġplum":11359,"Ġcollo":11360,"Ġmidd":11361,"Ġoph":11362,"Ġnp":11363,"icular":11364,"Ġrider":11365,"Ġextraordinary":11366,"Ġfres":11367,"Ġrs":11368,"Ġcompetitors":11369,"Ġdisappear":11370,"Ġlub":11371,"Ġresolved":11372,"Ġvilla":11373,"Ġhelicopter":11374,"Ġfon":11375,"ulture":11376,"Ġinternationally":11377,"Ġquadr":11378,"Ġloosely":11379,"Ġsg":11380,"oline":11381,"unning":11382,"adic":11383,"Ġfrust":11384,"Ġhelm":11385,"Ġhamburg":11386,"Ġconnects":11387,"Ġnitrogen":11388,"Ġbyr":11389,"Ġinformed":11390,"Ġathlete":11391,"Ġenvironments":11392,"Ġscholarship":11393,"Ġprophec":11394,"Ġkilometres":11395,"Ġspher":11396,"Ġrelax":11397,"Ġmixing":11398,"Ġpasc":11399,"Ġraz":11400,"colm":11401,"Ġcounsel":11402,"Ġyang":11403,"Ġmissionary":11404,"Ġdramatically":11405,"Ġaragon":11406,"Ġabolition":11407,"Ġdeliberately":11408,"Ġrust":11409,"Ġqing":11410,"Ġwwii":11411,"Ġpainters":11412,"bing":11413,"ilation":11414,"Ġgreene":11415,"Ġfacto":11416,"Ġdominican":11417,"Ġconsistently":11418,"Ġobservatory":11419,"wait":11420,"Ġvolcanic":11421,"Ġtot":11422,"Ġflame":11423,"Ġtamil":11424,"Ġfragment":11425,"Ġmam":11426,"lance":11427,"asis":11428,"Ġirre":11429,"Ġcategor":11430,"Ġcomprises":11431,"iza":11432,"Ġfeast":11433,"Ġangles":11434,"Ġrepublicans":11435,"Ġexcessive":11436,"Ġannexed":11437,"Ġnancy":11438,"Ġsixteen":11439,"Ġthoughts":11440,"Ġcelebrity":11441,"Ġsalem":11442,"Ġsalvador":11443,"Ġdeployed":11444,"Ġguarante":11445,"Ġpto":11446,"Ġgund":11447,"Ġsta":11448,"Ġinfamous":11449,"Ġsemic":11450,"Ġwart":11451,"Ġrp":11452,"irable":11453,"Ġweaken":11454,"Ġcornel":11455,"Ġtreaties":11456,"Ġpossessed":11457,"Ġantenna":11458,"Ġunst":11459,"Ġgra":11460,"iker":11461,"Ġpawn":11462,"Ġconjunction":11463,"Ġbrilliant":11464,"neys":11465,"Ġzones":11466,"ema":11467,"Ġard":11468,"ishn":11469,"Ġfreight":11470,"Ġeconomist":11471,"books":11472,"Ġsquares":11473,"Ġattractive":11474,"how":11475,"Ġges":11476,"advant":11477,"Ġdefault":11478,"front":11479,"Ġtouchdown":11480,"Ġcertific":11481,"Ġrely":11482,"iae":11483,"Ġarithm":11484,"Ġremix":11485,"Ġderby":11486,"Ġlifestyle":11487,"Ġduchess":11488,"Ġtended":11489,"Ġhod":11490,"rington":11491,"Ġaristotle":11492,"Ġacknowledged":11493,"oi":11494,"igious":11495,"ulator":11496,"Ġmicrosc":11497,"Ġplato":11498,"inating":11499,"Ġkau":11500,"Ġvag":11501,"Ġbwv":11502,"Ġcosta":11503,"worthy":11504,"Ġancestors":11505,"Ġaffiliated":11506,"Ġequilibrium":11507,"base":11508,"cia":11509,"Ġanonymous":11510,"igg":11511,"Ġprecision":11512,"Ġmotorcy":11513,"Ġsubmarines":11514,"Ġmcl":11515,"entric":11516,"Ġimports":11517,"Ġqur":11518,"Ġbanking":11519,"Ġmistaken":11520,"Ġmalcolm":11521,"Ġtraveling":11522,"Ġembedded":11523,"hold":11524,"Ġrape":11525,"Ġathen":11526,"Ġoscill":11527,"Ġwithdrew":11528,"Ġdecrease":11529,"Ġsiber":11530,"Ġviv":11531,"Ġprotagon":11532,"Ġtalmud":11533,"Ġtram":11534,"Ġhash":11535,"Ġturbo":11536,"Ġsuspension":11537,"Ġwishes":11538,"Ġdiscrimination":11539,"Ġexpressions":11540,"jor":11541,"Ġek":11542,"Ġdisadvant":11543,"Ġavailability":11544,"Ġasks":11545,"urus":11546,"Ġemigr":11547,"Ġretro":11548,"imer":11549,"Ġgreens":11550,"Ġacute":11551,"Ġreadily":11552,"Ġtraveled":11553,"Ġfaithful":11554,"Ġscreens":11555,"rels":11556,"Ġping":11557,"Ġblair":11558,"Ġinterference":11559,"eon":11560,"Ġkeyboards":11561,"Ġwithdrawal":11562,"Ġstatic":11563,"Ġdeity":11564,"ivism":11565,"Ġbeaches":11566,"Ġobservers":11567,"Ġsyntax":11568,"Ġsabb":11569,"Ġentrep":11570,"Ġtheatrical":11571,"Ġmonopoly":11572,"Ġfoundations":11573,"Ġdiscussions":11574,"sein":11575,"Ġdozen":11576,"Ġdescriptions":11577,"Ġequator":11578,"Ġproceedings":11579,"atical":11580,"anga":11581,"Ġdiscrete":11582,"Ġbacking":11583,"Ġhopes":11584,"Ġgore":11585,"Ġstuff":11586,"Ġjin":11587,"Ġaboard":11588,"Ġentries":11589,"Ġende":11590,"oire":11591,"Ġmou":11592,"Ġrevived":11593,"Ġpayment":11594,"Ġmemories":11595,"Ġgloss":11596,"Ġfathers":11597,"Ġjen":11598,"Ġmodification":11599,"Ġbuses":11600,"Ġjournalists":11601,"Ġnin":11602,"Ġeditorial":11603,"Ġsporting":11604,"Ġsaskat":11605,"Ġwax":11606,"Ġmarines":11607,"ucker":11608,"ski":11609,"ikes":11610,"ried":11611,"Ġcyn":11612,"Ġwhis":11613,"Ġcatholicism":11614,"Ġtactical":11615,"Ġreyn":11616,"Ġtrends":11617,"Ġecclesiast":11618,"Ġgarrison":11619,"Ġseemingly":11620,"Ġfaction":11621,"Ġradius":11622,"Ġbias":11623,"Ġpeaceful":11624,"Ġdocumentation":11625,"Ġforgotten":11626,"Ġish":11627,"rible":11628,"Ġinducted":11629,"Ġmiscellaneous":11630,"Ġain":11631,"Ġproud":11632,"Ġconsiders":11633,"Ġcombust":11634,"Ġuncommon":11635,"Ġshangh":11636,"vas":11637,"Ġdrain":11638,"ropy":11639,"Ġpaying":11640,"Ġwelcome":11641,"Ġathletics":11642,"Ġinduced":11643,"Ġarithmetic":11644,"Ġprague":11645,"Ġreli":11646,"Ġober":11647,"esa":11648,"Ġprc":11649,"Ġdisgu":11650,"Ġsacrament":11651,"Ġelephant":11652,"gun":11653,"Ġbing":11654,"Ġalc":11655,"Ġfloyd":11656,"Ġperiodic":11657,"Ġstreams":11658,"Ġtamp":11659,"onsc":11660,"undy":11661,"Ġfragments":11662,"rams":11663,"anton":11664,"haus":11665,"Ġmonten":11666,"Ġsimilarities":11667,"ymes":11668,"Ġcitizenship":11669,"Ġworm":11670,"Ġchronicle":11671,"Ġink":11672,"Ġbutton":11673,"Ġcontrolling":11674,"Ġencry":11675,"bek":11676,"Ġactivists":11677,"Ġdestroying":11678,"Ġwizard":11679,"lee":11680,"Ġportable":11681,"Ġprivy":11682,"lore":11683,"odia":11684,"Ġcontinuity":11685,"Ġchronicles":11686,"Ġdwarf":11687,"ischer":11688,"irl":11689,"Ġlighter":11690,"hart":11691,"itated":11692,"Ġgan":11693,"rocess":11694,"Ġsheph":11695,"Ġposit":11696,"Ġpropriet":11697,"olia":11698,"istence":11699,"Ġnes":11700,"Ġexpend":11701,"Ġelector":11702,"Ġnowad":11703,"Ġerie":11704,"zhou":11705,"Ġware":11706,"Ġmull":11707,"Ġappar":11708,"Ġprocessors":11709,"Ġpredicted":11710,"Ġpretty":11711,"card":11712,"Ġcrom":11713,"Ġunicode":11714,"Ġluxembourg":11715,"Ġnowadays":11716,"bage":11717,"des":11718,"Ġaa":11719,"iban":11720,"Ġouts":11721,"Ġcox":11722,"Ġdrove":11723,"Ġsean":11724,"Ġmaneu":11725,"Ġrelie":11726,"Ġacre":11727,"Ġhellen":11728,"Ġsalvation":11729,"Ġneur":11730,"Ġconcerto":11731,"Ġgravitational":11732,"eb":11733,"Ġtz":11734,"Ġmoist":11735,"Ġvisits":11736,"Ġfitted":11737,"utors":11738,"Ġcellular":11739,"Ġwebster":11740,"Ġspeaks":11741,"Ġsega":11742,"Ġinterpretations":11743,"Ġfus":11744,"urd":11745,"Ġmarble":11746,"Ġsoutheastern":11747,"Ġreveal":11748,"Ġtc":11749,"Ġanx":11750,"Ġally":11751,"Ġfraction":11752,"Ġintroduce":11753,"Ġdefeating":11754,"Ġabbreviated":11755,"Ġbicycle":11756,"Ġhereditary":11757,"Ġmotto":11758,"Ġshots":11759,"Ġattending":11760,"Ġtrophy":11761,"Ġhostile":11762,"Ġfrankfurt":11763,"Ġhealthy":11764,"hand":11765,"mail":11766,"Ġintensity":11767,"appa":11768,"imon":11769,"Ġincred":11770,"Ġwellington":11771,"Ġpublicity":11772,"Ġeventual":11773,"Ġreformation":11774,"rius":11775,"roject":11776,"Ġagr":11777,"rup":11778,"Ġfastest":11779,"Ġchallenged":11780,"Ġconsonant":11781,"Ġlennon":11782,"Ġbulgarian":11783,"Ġmare":11784,"Ġshapes":11785,"aches":11786,"Ġparameters":11787,"Ġmystic":11788,"Ġmorrison":11789,"Ġberry":11790,"Ġdiffers":11791,"Ġmagnus":11792,"iere":11793,"Ġremn":11794,"Ġmodest":11795,"Ġprovisional":11796,"plus":11797,"Ġzeus":11798,"Ġpowder":11799,"aru":11800,"Ġreporter":11801,"Ġyahoo":11802,"Ġoverwhelming":11803,"bane":11804,"Ġpose":11805,"icia":11806,"Ġmanor":11807,"Ġolive":11808,"Ġplaywright":11809,"Ġfen":11810,"Ġdupl":11811,"rians":11812,"Ġsuffix":11813,"Ġpipe":11814,"igue":11815,"ptions":11816,"Ġlouise":11817,"Ġconsumers":11818,"Ġshallow":11819,"Ġbip":11820,"Ġassociations":11821,"Ġimmense":11822,"related":11823,"Ġdenominations":11824,"Ġdesper":11825,"Ġbounded":11826,"Ġneighbouring":11827,"Ġbelle":11828,"Ġlaf":11829,"Ġarrangements":11830,"Ġentreprene":11831,"xy":11832,"Ġelevated":11833,"Ġprohibition":11834,"Ġassociates":11835,"atur":11836,"Ġboot":11837,"Ġassembled":11838,"Ġneuro":11839,"Ġbrowser":11840,"hal":11841,"usa":11842,"rock":11843,"Ġwore":11844,"Ġds":11845,"sett":11846,"ells":11847,"Ġflem":11848,"Ġjurisdictions":11849,"Ġmau":11850,"Ġconve":11851,"Ġmarl":11852,"Ġloaded":11853,"Ġarriving":11854,"Ġrhode":11855,"Ġconversation":11856,"Ġweakness":11857,"Ġrecreational":11858,"Ġrabbit":11859,"Ġenlighten":11860,"zing":11861,"Ġperformer":11862,"sexual":11863,"child":11864,"Ġnewark":11865,"Ġdanny":11866,"thood":11867,"aping":11868,"Ġcrater":11869,"ostic":11870,"Ġautonomy":11871,"Ġtenth":11872,"Ġarise":11873,"Ġgraves":11874,"Ġrussians":11875,"Ġlanka":11876,"Ġmemphis":11877,"annon":11878,"Ġpraise":11879,"Ġphantom":11880,"Ġflesh":11881,"notes":11882,"Ġepid":11883,"enhagen":11884,"ynamics":11885,"Ġnia":11886,"boat":11887,"Ġmaple":11888,"Ġcv":11889,"isan":11890,"Ġsteep":11891,"Ġequality":11892,"pected":11893,"Ġchoir":11894,"Ġwikiproject":11895,"Ġwatching":11896,"Ġrated":11897,"Ġrach":11898,"Ġwhites":11899,"Ġconrad":11900,"Ġpursued":11901,"bound":11902,"atl":11903,"Ġfork":11904,"Ġrises":11905,"Ġkol":11906,"Ġjess":11907,"Ġbarrel":11908,"Ġcorresponds":11909,"Ġcosmic":11910,"Ġquit":11911,"Ġpatric":11912,"Ġarcade":11913,"Ġdetermining":11914,"Ġclash":11915,"Ġsidney":11916,"Ġptole":11917,"arded":11918,"Ġspee":11919,"Ġsomewhere":11920,"Ġviscount":11921,"Ġaub":11922,"Ġnortheastern":11923,"Ġprotoc":11924,"Ġchiefly":11925,"Ġqualities":11926,"Ġlithuan":11927,"Ġschemes":11928,"ahu":11929,"Ġanto":11930,"Ġeros":11931,"Ġporter":11932,"Ġjak":11933,"Ġclassics":11934,"Ġcin":11935,"Ġpg":11936,"roid":11937,"Ġbrings":11938,"Ġtsar":11939,"kir":11940,"lies":11941,"Ġtir":11942,"Ġuz":11943,"Ġaftern":11944,"Ġnorthwestern":11945,"Ġsecured":11946,"Ġcriticisms":11947,"Ġpand":11948,"stock":11949,"Ġwinston":11950,"Ġmathrm":11951,"Ġsentences":11952,"Ġrainbow":11953,"Ġproposals":11954,"Ġstrategies":11955,"atics":11956,"Ġprivat":11957,"Ġsebast":11958,"orms":11959,"Ġlomb":11960,"Ġunderw":11961,"Ġcompetitions":11962,"Ġpreventing":11963,"Ġprepare":11964,"Ġandrews":11965,"Ġventure":11966,"Ġrochester":11967,"Ġvillain":11968,"ugg":11969,"Ġprofound":11970,"Ġabsent":11971,"Ġsettings":11972,"Ġcontempor":11973,"Ġsf":11974,"Ġchad":11975,"Ġdecomp":11976,"Ġpatch":11977,"Ġappeals":11978,"Ġellip":11979,"Ġcres":11980,"Ġras":11981,"Ġkeen":11982,"umen":11983,"enter":11984,"Ġovercome":11985,"Ġedges":11986,"Ġimmune":11987,"Ġsymmetry":11988,"Ġscattered":11989,"Ġrfc":11990,"Ġbaroque":11991,"Ġfolklore":11992,"Ġbedford":11993,"Ġmolecule":11994,"Ġaccordance":11995,"Ġzu":11996,"ulin":11997,"Ġunification":11998,"Ġyuk":11999,"elles":12000,"Ġpiz":12001,"Ġconceived":12002,"Ġmonkey":12003,"Ġbrow":12004,"Ġbroadc":12005,"Ġbinomial":12006,"Ġprairie":12007,"rand":12008,"Ġspont":12009,"Ġfeeding":12010,"Ġsavage":12011,"Ġfounders":12012,"Ġcherry":12013,"neum":12014,"orse":12015,"issa":12016,"Ġfuller":12017,"Ġsuggesting":12018,"atem":12019,"amoto":12020,"Ġleagues":12021,"Ġmaya":12022,"Ġfilming":12023,"Ġsilicon":12024,"Ġcatalan":12025,"Ġfavourite":12026,"Ġtheologian":12027,"oko":12028,"Ġcoeff":12029,"Ġlesbian":12030,"Ġci":12031,"icke":12032,"Ġdiving":12033,"Ġdeletion":12034,"Ġcolin":12035,"Ġdecimal":12036,"Ġgymn":12037,"cos":12038,"ean":12039,"Ġthreats":12040,"Ġbattlefield":12041,"Ġenthusi":12042,"Ġenlightenment":12043,"pit":12044,"Ġmuscles":12045,"Ġsubmitted":12046,"Ġlaura":12047,"Ġidol":12048,"Ġtherm":12049,"Ġprohibited":12050,"kel":12051,"Ġcumberland":12052,"Ġwend":12053,"Ġbrack":12054,"Ġeds":12055,"atories":12056,"lining":12057,"Ġadvocated":12058,"Ġproximity":12059,"ulous":12060,"insky":12061,"Ġopenly":12062,"Ġlynch":12063,"Ġtreasure":12064,"Ġresembles":12065,"Ġyo":12066,"Ġnewcastle":12067,"Ġscro":12068,"Ġadvances":12069,"Ġhook":12070,"Ġflowing":12071,"Ġmacedonia":12072,"Ġgeoffrey":12073,"Ġpius":12074,"Ġdeskt":12075,"Ġbaptism":12076,"uka":12077,"Ġcly":12078,"Ġhale":12079,"ishi":12080,"Ġemerging":12081,"Ġtt":12082,"Ġbeating":12083,"Ġfruits":12084,"Ġconsideration":12085,"adi":12086,"Ġeaten":12087,"Ġplaystation":12088,"Ġgluc":12089,"Ġsilence":12090,"Ġsamurai":12091,"Ġprotector":12092,"Ġdeparted":12093,"Ġgases":12094,"Ġxiv":12095,"Ġbadly":12096,"Ġdetermination":12097,"Ġvolunteer":12098,"Ġcrawford":12099,"Ġmaker":12100,"avel":12101,"Ġcopenhagen":12102,"Ġdemonstrate":12103,"Ġnl":12104,"usters":12105,"Ġhussein":12106,"Ġbetray":12107,"Ġbloody":12108,"Ġlucy":12109,"Ġlots":12110,"Ġchim":12111,"Ġsuperf":12112,"Ġreflects":12113,"Ġbuckingham":12114,"anim":12115,"ouds":12116,"Ġjets":12117,"aukee":12118,"Ġsouthwestern":12119,"Ġshanghai":12120,"Ġdign":12121,"idian":12122,"Ġbypass":12123,"Ġhighlands":12124,"Ġsubtle":12125,"Ġairplane":12126,"Ġelvis":12127,"Ġsubsidiary":12128,"etically":12129,"Ġcontinuously":12130,"Ġgoddesses":12131,"Ġhabitat":12132,"Ġminneapolis":12133,"Ġcompass":12134,"inos":12135,"empl":12136,"Ġpursuit":12137,"Ġhed":12138,"Ġji":12139,"Ġparas":12140,"Ġesper":12141,"Ġsuperhero":12142,"Ġonwards":12143,"Ġtrag":12144,"Ġreleasing":12145,"Ġpadd":12146,"illon":12147,"Ġxml":12148,"Ġincomplete":12149,"atar":12150,"Ġrah":12151,"Ġconcur":12152,"Ġcatalog":12153,"amation":12154,"Ġjewel":12155,"Ġarmenian":12156,"Ġaboriginal":12157,"fted":12158,"Ġech":12159,"Ġkem":12160,"Ġpetition":12161,"ao":12162,"Ġmachinery":12163,"Ġguitars":12164,"Ġnashville":12165,"Ġcolloqu":12166,"Ġpour":12167,"Ġhort":12168,"Ġfaq":12169,"Ġlimitations":12170,"oslovak":12171,"Ġsas":12172,"Ġbeef":12173,"ibal":12174,"loo":12175,"iliary":12176,"py":12177,"Ġbris":12178,"Ġvisitor":12179,"Ġjulia":12180,"Ġquarters":12181,"Ġsegments":12182,"Ġarmour":12183,"Ġapproached":12184,"Ġmistake":12185,"Ġconvenient":12186,"Ġaxiom":12187,"dan":12188,"Ġcomet":12189,"Ġbless":12190,"Ġdeveloper":12191,"writers":12192,"Ġsherman":12193,"Ġczechoslovak":12194,"Ġsufficiently":12195,"Ġbasilica":12196,"Ġunexpected":12197,"Ġgraf":12198,"onde":12199,"Ġlateral":12200,"Ġhabsburg":12201,"Ġcoordinate":12202,"Ġbea":12203,"Ġdevon":12204,"Ġdiary":12205,"riage":12206,"Ġscreenplay":12207,"Ġbelonged":12208,"Ġhinduism":12209,"Ġjamaica":12210,"esian":12211,"Ġrook":12212,"Ġrigid":12213,"Ġnj":12214,"Ġnim":12215,"Ġdepr":12216,"Ġtraded":12217,"Ġchamberlain":12218,"mate":12219,"Ġcdot":12220,"Ġrockets":12221,"Ġfelix":12222,"Ġmaxwell":12223,"enet":12224,"Ġlean":12225,"Ġinterv":12226,"auss":12227,"Ġasteroid":12228,"Ġsper":12229,"Ġincidents":12230,"Ġpassages":12231,"Ġstolen":12232,"ados":12233,"Ġgeorges":12234,"Ġcameo":12235,"Ġmemoirs":12236,"Ġcombinations":12237,"Ġsubstantially":12238,"Ġjungle":12239,"Ġoutdoor":12240,"arms":12241,"iguous":12242,"Ġfilmography":12243,"Ġcourage":12244,"Ġreasoning":12245,"Ġevaluation":12246,"inia":12247,"agi":12248,"eca":12249,"uria":12250,"Ġnets":12251,"Ġcounting":12252,"Ġgeology":12253,"Ġachievements":12254,"Ġinvisible":12255,"Ġorganised":12256,"Ġcareful":12257,"Ġintroducing":12258,"Ġbombers":12259,"Ġnorton":12260,"si":12261,"utz":12262,"Ġsociology":12263,"Ġfights":12264,"Ġprofessionals":12265,"Ġstub":12266,"anche":12267,"Ġinscription":12268,"Ġprotocols":12269,"Ġtiber":12270,"Ġnewport":12271,"aching":12272,"Ġimported":12273,"Ġcollecting":12274,"Ġdm":12275,"Ġsmoking":12276,"Ġlak":12277,"acies":12278,"pted":12279,"Ġsox":12280,"Ġtraits":12281,"grave":12282,"Ġcycles":12283,"Ġkrist":12284,"Ġbacon":12285,"Ġadvertis":12286,"Ġreflection":12287,"elt":12288,"Ġpriority":12289,"Ġloyalty":12290,"Ġavoided":12291,"Ġadds":12292,"Ġbanner":12293,"eit":12294,"Ġtrench":12295,"eny":12296,"Ġpace":12297,"shev":12298,"Ġliu":12299,"isi":12300,"Ġessence":12301,"Ġowing":12302,"kov":12303,"Ġtroop":12304,"oshi":12305,"Ġslower":12306,"Ġkaren":12307,"Ġpenguin":12308,"Ġacronym":12309,"etus":12310,"Ġmanagers":12311,"Ġduncan":12312,"Ġvegetables":12313,"backs":12314,"gence":12315,"Ġrey":12316,"Ġherman":12317,"Ġnobles":12318,"Ġacquisition":12319,"Ġanswers":12320,"Ġcataly":12321,"Ġguidance":12322,"Ġcure":12323,"xts":12324,"Ġresemble":12325,"Ġcyp":12326,"Ġfocuses":12327,"Ġsigma":12328,"Ġcameron":12329,"Ġleopold":12330,"Ġrecurring":12331,"aby":12332,"Ġcrazy":12333,"Ġunpop":12334,"Ġepiscopal":12335,"inians":12336,"Ġchop":12337,"Ġallan":12338,"Ġfeared":12339,"Ġinterven":12340,"Ġedwin":12341,"Ġshifted":12342,"xi":12343,"yp":12344,"inte":12345,"Ġconverse":12346,"ete":12347,"Ġfinest":12348,"Ġultra":12349,"cott":12350,"Ġtier":12351,"Ġangry":12352,"Ġmelan":12353,"Ġassuming":12354,"Ġdd":12355,"Ġworcester":12356,"mania":12357,"alid":12358,"Ġtrap":12359,"Ġcounted":12360,"Ġhermann":12361,"Ġmonuments":12362,"Ġbasque":12363,"Ġaided":12364,"Ġlia":12365,"Ġclients":12366,"Ġslip":12367,"Ġowns":12368,"Ġsummon":12369,"Ġsynthetic":12370,"Ġsteady":12371,"Ġgandhi":12372,"Ġrepeat":12373,"Ġchallenges":12374,"Ġendeav":12375,"Ġease":12376,"Ġgut":12377,"Ġenable":12378,"Ġstrips":12379,"Ġcombine":12380,"Ġdominion":12381,"Ġvocabulary":12382,"Ġdemonstration":12383,"Ġallegations":12384,"Ġmetaphys":12385,"olin":12386,"Ġammun":12387,"Ġsyrian":12388,"Ġdefending":12389,"Ġstatute":12390,"Ġfierce":12391,"twork":12392,"Ġsuccessive":12393,"Ġraids":12394,"Ġhardy":12395,"Ġbigger":12396,"Ġsatellites":12397,"Ġfog":12398,"Ġhanc":12399,"Ġborne":12400,"Ġbenz":12401,"onium":12402,"Ġweld":12403,"Ġsect":12404,"Ġorland":12405,"Ġlep":12406,"Ġstrand":12407,"Ġdestiny":12408,"Ġmelody":12409,"Ġconstitute":12410,"Ġamphib":12411,"wid":12412,"Ġzepp":12413,"Ġfootballer":12414,"Ġthesis":12415,"Ġadmit":12416,"Ġknife":12417,"Ġtransm":12418,"Ġlawyers":12419,"lectric":12420,"Ġkenya":12421,"Ġsucceeds":12422,"uana":12423,"tera":12424,"Ġmanila":12425,"Ġcombining":12426,"Ġgarner":12427,"Ġexercises":12428,"Ġfirms":12429,"Ġrenewed":12430,"Ġlambda":12431,"Ġhail":12432,"Ġdop":12433,"omach":12434,"Ġgt":12435,"Ġreduces":12436,"Ġbry":12437,"Ġapplying":12438,"Ġinsert":12439,"Ġbord":12440,"Ġcoch":12441,"iolet":12442,"Ġhandbook":12443,"Ġfootage":12444,"sette":12445,"Ġalternatively":12446,"lich":12447,"lean":12448,"derson":12449,"Ġusd":12450,"Ġservant":12451,"obia":12452,"Ġhurt":12453,"Ġdetection":12454,"Ġmell":12455,"Ġhatch":12456,"Ġinsult":12457,"Ġreveals":12458,"Ġtunis":12459,"brook":12460,"mia":12461,"opus":12462,"Ġmyths":12463,"Ġauthorized":12464,"Ġcastro":12465,"Ġborrowed":12466,"Ġct":12467,"Ġalps":12468,"elia":12469,"Ġkosovo":12470,"Ġclimbing":12471,"gb":12472,"Ġstrang":12473,"Ġsystematic":12474,"Ġbuil":12475,"Ġyourself":12476,"hov":12477,"arrow":12478,"Ġln":12479,"Ġlessons":12480,"Ġfailing":12481,"Ġguests":12482,"Ġdesktop":12483,"Ġcic":12484,"alon":12485,"Ġbangl":12486,"Ġlecture":12487,"Ġknockout":12488,"Ġfourteen":12489,"ango":12490,"Ġsubord":12491,"Ġsearching":12492,"Ġsculptor":12493,"Ġinquiry":12494,"Ġpregnant":12495,"jet":12496,"rics":12497,"ische":12498,"Ġdere":12499,"Ġnationality":12500,"Ġinsisted":12501,"Ġbasically":12502,"Ġtenure":12503,"Ġcube":12504,"Ġargentine":12505,"Ġcollapsed":12506,"rano":12507,"Ġpes":12508,"Ġsto":12509,"Ġimproving":12510,"Ġpatriot":12511,"Ġunch":12512,"quest":12513,"Ġcarne":12514,"Ġgrows":12515,"Ġsailor":12516,"Ġcompiler":12517,"Ġmarxist":12518,"Ġplague":12519,"Ġdisband":12520,"Ġgenerating":12521,"Ġhumph":12522,"Ġfavored":12523,"Ġalgeria":12524,"mid":12525,"Ġtooth":12526,"Ġclouds":12527,"Ġexecut":12528,"Ġdraws":12529,"Ġhello":12530,"Ġdelayed":12531,"Ġammunition":12532,"fi":12533,"Ġpneum":12534,"Ġxii":12535,"Ġremin":12536,"Ġrainfall":12537,"Ġsits":12538,"Ġcommunicate":12539,"Ġfalcon":12540,"Ġancestor":12541,"Ġpreceding":12542,"Ġheated":12543,"Ġaccurately":12544,"Ġhancock":12545,"Ġeleg":12546,"Ġrelay":12547,"Ġreads":12548,"rill":12549,"uh":12550,"Ġdear":12551,"agn":12552,"Ġminds":12553,"tta":12554,"Ġvictories":12555,"Ġbroadcasts":12556,"Ġrangers":12557,"rik":12558,"ianism":12559,"Ġfilip":12560,"Ġpronoun":12561,"Ġnouns":12562,"Ġcone":12563,"Ġroth":12564,"Ġsubway":12565,"Ġphysi":12566,"Ġpolymer":12567,"egro":12568,"Ġshat":12569,"Ġeconomies":12570,"Ġsharon":12571,"Ġarguing":12572,"Ġpike":12573,"Ġearn":12574,"Ġsalam":12575,"Ġfails":12576,"Ġheavyweight":12577,"Ġsimplified":12578,"Ġframes":12579,"Ġsubgroup":12580,"Ġvalued":12581,"Ġfairy":12582,"Ġaims":12583,"Ġswitching":12584,"Ġreconstruct":12585,"oqu":12586,"Ġorph":12587,"Ġamid":12588,"Ġslot":12589,"Ġskilled":12590,"omorphism":12591,"Ġobscure":12592,"Ġparamount":12593,"Ġmontenegro":12594,"gger":12595,"Ġaccordingly":12596,"Ġenterpr":12597,"Ġneighbors":12598,"Ġhardcore":12599,"Ġafternoon":12600,"onal":12601,"Ġpard":12602,"Ġnie":12603,"agua":12604,"Ġabn":12605,"Ġestonia":12606,"Ġmalta":12607,"Ġbaden":12608,"Ġcedar":12609,"Ġconsonants":12610,"bal":12611,"Ġjav":12612,"Ġweir":12613,"Ġmusc":12614,"Ġfactories":12615,"Ġcanadians":12616,"Ġduo":12617,"Ġpierce":12618,"Ġaph":12619,"Ġbam":12620,"Ġmbox":12621,"Ġhomeland":12622,"Ġdigits":12623,"Ġpeerage":12624,"Ġkang":12625,"Ġjab":12626,"Ġmacro":12627,"Ġproceeded":12628,"idelines":12629,"Ġmetaphor":12630,"Ġcontroller":12631,"Ġnaut":12632,"Ġtraced":12633,"Ġalbeit":12634,"iad":12635,"Ġreef":12636,"Ġrodr":12637,"Ġlinking":12638,"Ġorganism":12639,"Ġbelieving":12640,"Ġmicrop":12641,"Ġmiguel":12642,"fax":12643,"rap":12644,"Ġwives":12645,"Ġld":12646,"Ġgregorian":12647,"Ġgum":12648,"rooms":12649,"Ġmoss":12650,"Ġguatem":12651,"Ġinteractions":12652,"Ġassessment":12653,"uro":12654,"Ġreception":12655,"sets":12656,"Ġguidelines":12657,"Ġspectacular":12658,"Ġamazon":12659,"Ġbrush":12660,"Ġsuppose":12661,"chewan":12662,"Ġprecurs":12663,"Ġshoes":12664,"Ġdancer":12665,"Ġmansion":12666,"Ġnigeria":12667,"Ġunpopular":12668,"Ġexplored":12669,"Ġdetected":12670,"Ġpractically":12671,"Ġfederalist":12672,"Ġvitamin":12673,"Ġsterling":12674,"Ġembassy":12675,"Ġfalk":12676,"Ġstap":12677,"Ġheating":12678,"Ġbusinessman":12679,"Ġsussex":12680,"Ġjunk":12681,"omorphic":12682,"Ġantiquity":12683,"Ġmemorable":12684,"Ġdeposed":12685,"lia":12686,"Ġunrelated":12687,"Ġdiscl":12688,"Ġillustration":12689,"imar":12690,"Ġmcm":12691,"Ġencoding":12692,"Ġapocaly":12693,"eus":12694,"Ġrams":12695,"Ġscrew":12696,"Ġdoz":12697,"Ġfreeway":12698,"Ġklein":12699,"Ġsaskatchewan":12700,"Ġrc":12701,"Ġjerome":12702,"Ġsham":12703,"Ġupdate":12704,"Ġgonz":12705,"gia":12706,"Ġkate":12707,"Ġtrav":12708,"akin":12709,"Ġsouls":12710,"Ġeps":12711,"writing":12712,"lights":12713,"Ġdiana":12714,"Ġoracle":12715,"Ġrendering":12716,"Ġkant":12717,"Ġvie":12718,"Ġscripts":12719,"Ġputs":12720,"Ġrivalry":12721,"Ġars":12722,"Ġsurreal":12723,"stadt":12724,"Ġfingers":12725,"anas":12726,"Ġterrestrial":12727,"redited":12728,"Ġwillie":12729,"Ġgenerator":12730,"Ġsupporter":12731,"boys":12732,"Ġcivic":12733,"Ġbonus":12734,"Ġknox":12735,"Ġcurse":12736,"Ġtroll":12737,"Ġneighborhoods":12738,"jar":12739,"rators":12740,"alis":12741,"Ġshoulder":12742,"Ġemin":12743,"Ġviewing":12744,"Ġdinner":12745,"Ġprehist":12746,"Ġsupernatural":12747,"Ġintegers":12748,"Ġdestroyer":12749,"Ġcardinals":12750,"Ġdirty":12751,"Ġpersecution":12752,"Ġcombustion":12753,"Ġbryan":12754,"Ġdecisive":12755,"Ġeugen":12756,"Ġslide":12757,"ght":12758,"Ġdestinations":12759,"Ġlawsuit":12760,"otypes":12761,"Ġcipher":12762,"itting":12763,"Ġindies":12764,"Ġwarrant":12765,"Ġspecially":12766,"Ġslash":12767,"Ġcommitment":12768,"iformes":12769,"Ġdodge":12770,"Ġceremonial":12771,"inks":12772,"Ġlatitude":12773,"Ġattendance":12774,"Ġsleeping":12775,"Ġnumerical":12776,"iliation":12777,"then":12778,"Ġstur":12779,"Ġspots":12780,"Ġhoff":12781,"Ġdominance":12782,"Ġceleb":12783,"Ġsuffolk":12784,"Ġalcoh":12785,"Ġreproduction":12786,"Ġreservation":12787,"Ġpregnancy":12788,"Ġgaelic":12789,"held":12790,"Ġers":12791,"iago":12792,"Ġrhy":12793,"Ġnickel":12794,"Ġinheritance":12795,"Ġpact":12796,"Ġperfectly":12797,"Ġinnovation":12798,"Ġceremonies":12799,"Ġhak":12800,"Ġtestimony":12801,"Ġmoments":12802,"Ġstretch":12803,"Ġalpine":12804,"osaur":12805,"Ġammon":12806,"Ġapprent":12807,"Ġkazakh":12808,"Ġcompensation":12809,"Ġfrig":12810,"Ġsue":12811,"Ġparen":12812,"gener":12813,"Ġclosure":12814,"Ġpractitioners":12815,"log":12816,"Ġcott":12817,"abi":12818,"Ġswords":12819,"Ġinsign":12820,"Ġmultiplication":12821,"Ġether":12822,"Ġsib":12823,"ods":12824,"Ġchiefs":12825,"Ġreversed":12826,"Ġtack":12827,"Ġwished":12828,"Ġgenetics":12829,"Ġbusy":12830,"Ġkuwait":12831,"Ġorlando":12832,"Ġnodes":12833,"Ġbeeth":12834,"gerald":12835,"Ġkeeps":12836,"Ġgirlfriend":12837,"Ġprestigious":12838,"fth":12839,"Ġhotels":12840,"Ġyankees":12841,"Ġundergo":12842,"Ġcomposite":12843,"Ġfitzgerald":12844,"len":12845,"pic":12846,"Ġpoker":12847,"imo":12848,"Ġsunset":12849,"ei":12850,"rolled":12851,"Ġpeg":12852,"Ġtusc":12853,"eri":12854,"Ġthrew":12855,"Ġdressed":12856,"Ġguang":12857,"Ġhumorous":12858,"Ġverbs":12859,"Ġtender":12860,"Ġriots":12861,"Ġsurvivors":12862,"ouch":12863,"Ġemir":12864,"Ġmonsters":12865,"Ġcastile":12866,"Ġhonourable":12867,"Ġdud":12868,"Ġriv":12869,"Ġrivals":12870,"Ġregistry":12871,"Ġstrongest":12872,"Ġfascist":12873,"Ġumb":12874,"Ġcache":12875,"Ġhiro":12876,"antes":12877,"grade":12878,"dez":12879,"Ġnicar":12880,"Ġlynn":12881,"Ġeliminate":12882,"anor":12883,"Ġlions":12884,"Ġstance":12885,"Ġmikh":12886,"Ġoperas":12887,"Ġdesigners":12888,"Ġdispers":12889,"Ġlyon":12890,"Ġfertile":12891,"Ġprompted":12892,"Ġturing":12893,"ulative":12894,"Ġlithuanian":12895,"Ġplaza":12896,"Ġpenny":12897,"iffe":12898,"Ġsided":12899,"Ġcomprising":12900,"Ġmarginal":12901,"Ġinclusion":12902,"Ġcomputational":12903,"Ġnutrition":12904,"Ġmanitoba":12905,"Ġpeers":12906,"Ġserp":12907,"Ġcarlo":12908,"Ġcommanders":12909,"Ġskiing":12910,"Ġbeethoven":12911,"Ġthur":12912,"Ġyak":12913,"Ġclown":12914,"usted":12915,"tsky":12916,"Ġconstr":12917,"Ġposted":12918,"Ġleslie":12919,"Ġdorothy":12920,"Ġfertil":12921,"Ġhealing":12922,"Ġambit":12923,"Ġmik":12924,"Ġverses":12925,"Ġlighthouse":12926,"Ġqualified":12927,"Ġinnovative":12928,"Ġveteran":12929,"Ġiz":12930,"inct":12931,"Ġdiscour":12932,"Ġsometime":12933,"Ġlacking":12934,"Ġpulitzer":12935,"Ġimplied":12936,"Ġflexible":12937,"Ġintervals":12938,"Ġbean":12939,"Ġalm":12940,"Ġtraces":12941,"Ġmaf":12942,"Ġbench":12943,"Ġprevention":12944,"Ġpitt":12945,"Ġcooling":12946,"Ġimprisonment":12947,"Ġcairo":12948,"atin":12949,"Ġamiga":12950,"Ġpreference":12951,"Ġbuzz":12952,"Ġjourn":12953,"Ġhitting":12954,"Ġadministrator":12955,"Ġsantiago":12956,"Ġisolation":12957,"Ġsyllable":12958,"Ġtul":12959,"Ġaltar":12960,"Ġclare":12961,"Ġschwar":12962,"Ġoptional":12963,"Ġcelebrate":12964,"Ġmerchants":12965,"Ġbohemia":12966,"Ġsank":12967,"oves":12968,"Ġconfined":12969,"Ġpointing":12970,"Ġpsi":12971,"Ġindianapolis":12972,"Ġbradley":12973,"Ġbrisbane":12974,"Ġhik":12975,"lements":12976,"Ġjub":12977,"Ġlogan":12978,"sten":12979,"bercul":12980,"Ġgrants":12981,"pler":12982,"Ġrecurs":12983,"Ġtroubles":12984,"Ġanarchist":12985,"Ġslovenia":12986,"Ġpeasants":12987,"Ġsecrets":12988,"olithic":12989,"Ġbout":12990,"Ġgond":12991,"stead":12992,"Ġsqrt":12993,"Ġvernon":12994,"Ġions":12995,"Ġtah":12996,"orth":12997,"acs":12998,"Ġclaus":12999,"Ġemotion":13000,"Ġdayton":13001,"Ġburke":13002,"Ġflee":13003,"Ġphilippe":13004,"Ġneutron":13005,"Ġshells":13006,"Ġharder":13007,"Ġfinishing":13008,"Ġmicrow":13009,"Ġoverthrow":13010,"Ġecclesiastical":13011,"Ġbride":13012,"Ġparach":13013,"Ġarrives":13014,"Ġdispos":13015,"Ġspecifications":13016,"Ġphotographer":13017,"Ġlyric":13018,"Ġipa":13019,"Ġnassau":13020,"Ġreynolds":13021,"Ġshores":13022,"Ġendang":13023,"Ġfreud":13024,"Ġthirds":13025,"Ġcollectively":13026,"Ġaltogether":13027,"Ġwage":13028,"Ġnih":13029,"Ġlatvia":13030,"Ġemployee":13031,"Ġcromwell":13032,"Ġmeal":13033,"Ġqa":13034,"arthy":13035,"Ġlance":13036,"Ġnecessity":13037,"Ġthrowing":13038,"Ġfertility":13039,"Ġwreck":13040,"lio":13041,"Ġmour":13042,"Ġmps":13043,"Ġemble":13044,"Ġrunway":13045,"Ġprivacy":13046,"Ġobserve":13047,"Ġinstallation":13048,"Ġhospitals":13049,"Ġpere":13050,"Ġnile":13051,"Ġincons":13052,"Ġplac":13053,"phone":13054,"Ġrobots":13055,"Ġvulnerable":13056,"Ġspeeches":13057,"iol":13058,"Ġdian":13059,"Ġlimestone":13060,"alus":13061,"Ġchrys":13062,"Ġeden":13063,"Ġflint":13064,"Ġspecialist":13065,"Ġnominal":13066,"Ġcorinth":13067,"Ġprivately":13068,"Ġballet":13069,"Ġdeadly":13070,"Ġrotating":13071,"Ġfellowship":13072,"vern":13073,"Ġbeaver":13074,"Ġstup":13075,"Ġalike":13076,"Ġmankind":13077,"Ġcarson":13078,"Ġcrist":13079,"Ġprojection":13080,"Ġchev":13081,"Ġprominence":13082,"Ġbassist":13083,"Ġtonight":13084,"mith":13085,"Ġdeton":13086,"ocene":13087,"rawn":13088,"Ġmaiden":13089,"Ġdestruct":13090,"Ġtariff":13091,"Ġsustained":13092,"Ġpompe":13093,"Ġdru":13094,"Ġbeet":13095,"Ġshrine":13096,"Ġcrosses":13097,"Ġfears":13098,"rov":13099,"Ġhenderson":13100,"Ġpaths":13101,"Ġellis":13102,"Ġieee":13103,"Ġmongolia":13104,"Ġvalleys":13105,"Ġmarathon":13106,"Ġcater":13107,"Ġjaw":13108,"Ġbureauc":13109,"Ġmurders":13110,"Ġinvestigations":13111,"Ġpag":13112,"Ġsuited":13113,"Ġextensions":13114,"Ġholder":13115,"lected":13116,"ardi":13117,"Ġperce":13118,"Ġdecides":13119,"Ġideals":13120,"Ġriot":13121,"Ġbottle":13122,"Ġextinction":13123,"Ġrope":13124,"Ġlinda":13125,"Ġmorality":13126,"Ġrealism":13127,"Ġmagnific":13128,"Ġhawaiian":13129,"Ġtud":13130,"isp":13131,"Ġnir":13132,"Ġfactions":13133,"Ġcontributing":13134,"Ġpulse":13135,"Ġsemicond":13136,"onscious":13137,"Ġmv":13138,"Ġdeaf":13139,"ledon":13140,"Ġtimothy":13141,"Ġsexuality":13142,"Ġboulev":13143,"Ġtn":13144,"Ġdee":13145,"Ġcompressed":13146,"uku":13147,"Ġtaliban":13148,"Ġpitcher":13149,"Ġdag":13150,"Ġtwist":13151,"Ġdelhi":13152,"raction":13153,"Ġmethodist":13154,"ienne":13155,"Ġdiplomat":13156,"Ġrifles":13157,"Ġsergeant":13158,"Ġpropulsion":13159,"Ġathletes":13160,"Ġsheff":13161,"Ġmosque":13162,"Ġlotus":13163,"Ġforums":13164,"Ġlibertarian":13165,"Ġslovakia":13166,"Ġsends":13167,"orrow":13168,"arity":13169,"Ġrows":13170,"Ġparking":13171,"Ġinert":13172,"ilus":13173,"Ġamino":13174,"overed":13175,"Ġtransact":13176,"Ġfrost":13177,"Ġhers":13178,"Ġmakers":13179,"Ġkane":13180,"Ġharb":13181,"Ġecu":13182,"Ġnormandy":13183,"Ġtravell":13184,"Ġkerry":13185,"Ġcelestial":13186,"ldom":13187,"Ġperipher":13188,"Ġantip":13189,"Ġmarketed":13190,"Ġmadag":13191,"Ġoccupy":13192,"Ġtibetan":13193,"Ġdeceased":13194,"Ġdances":13195,"idity":13196,"Ġelves":13197,"Ġradioactive":13198,"Ġmccarthy":13199,"Ġauxiliary":13200,"Ġprobe":13201,"Ġskating":13202,"Ġdavies":13203,"Ġadmission":13204,"Ġmandarin":13205,"Ġdoubled":13206,"fried":13207,"Ġgateway":13208,"Ġsurrendered":13209,"Ġlovers":13210,"Ġsauce":13211,"Ġtornado":13212,"Ġbangladesh":13213,"Ġzar":13214,"Ġspat":13215,"Ġwilderness":13216,"ipel":13217,"odied":13218,"oken":13219,"Ġears":13220,"Ġcritique":13221,"Ġstoryline":13222,"Ġdeclare":13223,"Ġnons":13224,"Ġsci":13225,"force":13226,"Ġperforms":13227,"Ġplanetary":13228,"Ġsheriff":13229,"Ġpreparing":13230,"Ġexcluded":13231,"Ġlegitim":13232,"Ġcelebrit":13233,"Ġshark":13234,"Ġnotting":13235,"atha":13236,"Ġsyrac":13237,"Ġstrain":13238,"oys":13239,"Ġanders":13240,"Ġgaming":13241,"ablo":13242,"agell":13243,"Ġuniversally":13244,"Ġladies":13245,"Ġthreatening":13246,"Ġteenage":13247,"dot":13248,"Ġroland":13249,"Ġgenoc":13250,"Ġengr":13251,"Ġsmash":13252,"Ġoxide":13253,"Ġaztec":13254,"Ġcoronation":13255,"Ġphases":13256,"ovsky":13257,"Ġhels":13258,"Ġprofits":13259,"Ġsalmon":13260,"Ġscientology":13261,"Ġcontainer":13262,"waukee":13263,"Ġcir":13264,"unal":13265,"Ġsolved":13266,"Ġfindings":13267,"Ġsoviets":13268,"Ġjournalism":13269,"Ġpremiers":13270,"Ġrisks":13271,"gard":13272,"gara":13273,"Ġjokes":13274,"Ġvall":13275,"Ġmccart":13276,"Ġrequests":13277,"Ġweber":13278,"ographical":13279,"Ġreprinted":13280,"Ġvoluntary":13281,"Ġregistration":13282,"enos":13283,"Ġepist":13284,"Ġclerk":13285,"Ġcurtis":13286,"ente":13287,"lli":13288,"Ġtrails":13289,"Ġguarant":13290,"Ġclone":13291,"Ġconnor":13292,"Ġambitious":13293,"Ġfc":13294,"Ġassim":13295,"Ġcrust":13296,"Ġvenet":13297,"Ġcatalogue":13298,"Ġcelebrities":13299,"Ġperl":13300,"Ġseeks":13301,"Ġboris":13302,"Ġoslo":13303,"Ġtomorrow":13304,"Ġadjective":13305,"wind":13306,"Ġdecree":13307,"Ġedison":13308,"Ġcrest":13309,"Ġspecim":13310,"Ġmacdonald":13311,"Ġdebates":13312,"Ġchoosing":13313,"Ġmythological":13314,"Ġbaghd":13315,"Ġaccidentally":13316,"Ġarchaeology":13317,"Ġfisc":13318,"odus":13319,"Ġtriv":13320,"Ġkingston":13321,"Ġcrafts":13322,"Ġgriffith":13323,"Ġresurrection":13324,"Ġaure":13325,"edel":13326,"Ġamy":13327,"Ġresumed":13328,"Ġtransf":13329,"Ġdevised":13330,"Ġconsumed":13331,"Ġenterprises":13332,"Ġtrent":13333,"Ġfraser":13334,"Ġbreeds":13335,"Ġpied":13336,"Ġriders":13337,"Ġjoel":13338,"Ġmetre":13339,"onyms":13340,"Ġflagship":13341,"Ġfocusing":13342,"gang":13343,"Ġeverywhere":13344,"Ġembark":13345,"icester":13346,"Ġfrog":13347,"Ġfurniture":13348,"Ġpiny":13349,"Ġmapping":13350,"Ġdeities":13351,"Ġintim":13352,"actyl":13353,"Ġsubsp":13354,"Ġliteral":13355,"Ġxxx":13356,"Ġcorpus":13357,"Ġcontradict":13358,"Ġadela":13359,"Ġrepet":13360,"Ġdash":13361,"Ġpassive":13362,"Ġutter":13363,"Ġspokes":13364,"Ġarmenia":13365,"Ġclaudius":13366,"Ġjoshua":13367,"Ġfountain":13368,"Ġsectors":13369,"cephal":13370,"Ġperth":13371,"Ġtreason":13372,"ullah":13373,"Ġhandful":13374,"Ġazerb":13375,"Ġstark":13376,"Ġpatents":13377,"Ġeconomists":13378,"Ġprosperity":13379,"Ġconvey":13380,"Ġgras":13381,"Ġwarl":13382,"Ġpanic":13383,"zyme":13384,"Ġcongregation":13385,"iks":13386,"ianus":13387,"oded":13388,"mented":13389,"Ġmarking":13390,"Ġrenov":13391,"Ġmarquess":13392,"Ġbarely":13393,"Ġrectang":13394,"Ġjournals":13395,"uli":13396,"Ġadul":13397,"ilda":13398,"Ġflux":13399,"Ġopus":13400,"Ġhandled":13401,"Ġhardly":13402,"Ġeclipse":13403,"Ġflemish":13404,"Ġcompuls":13405,"Ġintensive":13406,"oki":13407,"Ġproposition":13408,"Ġnikol":13409,"Ġthou":13410,"Ġgb":13411,"Ġroses":13412,"Ġmum":13413,"Ġaspir":13414,"ounces":13415,"Ġiber":13416,"Ġcasino":13417,"Ġcharleston":13418,"Ġbergen":13419,"Ġdozens":13420,"Ġtart":13421,"odic":13422,"Ġplag":13423,"Ġgerm":13424,"Ġcorrid":13425,"Ġeste":13426,"Ġwinn":13427,"Ġacadem":13428,"Ġtargeted":13429,"Ġsheffield":13430,"Ġcement":13431,"Ġarb":13432,"bery":13433,"Ġcommunion":13434,"Ġoccult":13435,"Ġmidway":13436,"Ġsuperc":13437,"Ġbilled":13438,"Ġheavier":13439,"Ġvenues":13440,"Ġazerbai":13441,"Ġoss":13442,"icz":13443,"Ġoffsh":13444,"Ġattitudes":13445,"Ġtransist":13446,"Ġxp":13447,"Ġshogun":13448,"Ġwhereby":13449,"iens":13450,"rina":13451,"chet":13452,"Ġconject":13453,"Ġspike":13454,"Ġfeminist":13455,"Ġferg":13456,"Ġleeds":13457,"Ġnewman":13458,"Ġintu":13459,"Ġcoloured":13460,"Ġcontexts":13461,"Ġdescendant":13462,"Ġaliens":13463,"Ġbankruptcy":13464,"nar":13465,"Ġkabul":13466,"Ġracism":13467,"Ġflies":13468,"Ġcollector":13469,"Ġsavoy":13470,"fu":13471,"eno":13472,"Ġcompleting":13473,"Ġvectors":13474,"Ġignor":13475,"Ġcrashed":13476,"Ġconjug":13477,"iler":13478,"Ġkab":13479,"Ġdifferently":13480,"Ġmadonna":13481,"market":13482,"Ġhubbard":13483,"foot":13484,"Ġcalcium":13485,"Ġpascal":13486,"Ġals":13487,"Ġexagger":13488,"Ġconfuc":13489,"Ġeffectiveness":13490,"Ġsampling":13491,"Ġdover":13492,"Ġrw":13493,"Ġleicester":13494,"Ġinfected":13495,"Ġhyde":13496,"Ġballot":13497,"Ġdissolution":13498,"Ġsimpler":13499,"Ġbubble":13500,"Ġstake":13501,"geons":13502,"Ġpreston":13503,"Ġjustified":13504,"Ġpurport":13505,"Ġmighty":13506,"heads":13507,"Ġreflecting":13508,"uing":13509,"Ġlore":13510,"Ġcoupled":13511,"Ġzeppelin":13512,"Ġlent":13513,"Ġjas":13514,"Ġcoh":13515,"Ġinvas":13516,"Ġcoding":13517,"Ġrecipients":13518,"Ġfeudal":13519,"aired":13520,"Ġappend":13521,"Ġcritically":13522,"Ġchoices":13523,"Ġrosa":13524,"Ġbolshev":13525,"Ġdanube":13526,"according":13527,"Ġbreathing":13528,"Ġisles":13529,"osity":13530,"Ġgeological":13531,"inge":13532,"version":13533,"Ġinserted":13534,"Ġsecretly":13535,"Ġspiral":13536,"Ġdefinitive":13537,"Ġrumors":13538,"Ġaffection":13539,"Ġacceleration":13540,"bone":13541,"Ġpaved":13542,"Ġgram":13543,"Ġdrawings":13544,"igi":13545,"stant":13546,"Ġcong":13547,"Ġexempt":13548,"Ġshu":13549,"ishna":13550,"atham":13551,"Ġmilwaukee":13552,"Ġextrem":13553,"Ġdeny":13554,"Ġtreatise":13555,"Ġcostume":13556,"Ġmozart":13557,"Ġantarctic":13558,"termin":13559,"Ġdemo":13560,"Ġgoose":13561,"Ġslaughter":13562,"Ġecological":13563,"Ġodds":13564,"Ġembry":13565,"Ġrolls":13566,"Ġcovenant":13567,"bot":13568,"gov":13569,"Ġzimb":13570,"Ġshoo":13571,"Ġservants":13572,"Ġcountryside":13573,"Ġtemperate":13574,"Ġbreakdown":13575,"Ġplantation":13576,"Ġbaghdad":13577,"Ġtheft":13578,"Ġverd":13579,"Ġgraphical":13580,"Ġgeometric":13581,"Ġvoyager":13582,"Ġprivileges":13583,"Ġtiming":13584,"Ġcaroline":13585,"Ġpraised":13586,"Ġmascot":13587,"width":13588,"Ġbis":13589,"Ġsuccesses":13590,"Ġvirg":13591,"ijuana":13592,"Ġfuj":13593,"Ġups":13594,"Ġpolk":13595,"Ġmandate":13596,"Ġtailed":13597,"Ġmikhail":13598,"Ġendangered":13599,"bold":13600,"erable":13601,"itate":13602,"ifax":13603,"Ġdiscoveries":13604,"Ġarchitects":13605,"Ġwisconsinaccording":13606,"etti":13607,"Ġhanging":13608,"kill":13609,"Ġmund":13610,"Ġdaim":13611,"Ġamal":13612,"Ġmuss":13613,"Ġrobertson":13614,"Ġblessed":13615,"Ġbuying":13616,"Ġescal":13617,"Ġmetabol":13618,"Ġreminisc":13619,"Ġfees":13620,"Ġarmored":13621,"Ġdenote":13622,"Ġtigers":13623,"Ġchiang":13624,"Ġprotecting":13625,"Ġcriticised":13626,"Ġstomach":13627,"ifiers":13628,"Ġtoured":13629,"Ġartifacts":13630,"mother":13631,"Ġpecul":13632,"Ġsolving":13633,"Ġburlington":13634,"Ġimplications":13635,"Ġrouge":13636,"Ġloves":13637,"Ġpeaks":13638,"Ġinsect":13639,"Ġbiochem":13640,"Ġhijack":13641,"Ġshepherd":13642,"Ġpinyin":13643,"Ġcb":13644,"Ġtruman":13645,"Ġmercen":13646,"omal":13647,"Ġchero":13648,"Ġartwork":13649,"twer":13650,"Ġinterim":13651,"Ġnarc":13652,"Ġriemann":13653,"Ġphotographic":13654,"Ġanthropology":13655,"Ġcaves":13656,"Ġgag":13657,"amic":13658,"Ġduel":13659,"Ġnobody":13660,"Ġthermod":13661,"spring":13662,"Ġprotagonist":13663,"far":13664,"Ġbrab":13665,"Ġfamine":13666,"Ġdisse":13667,"onomy":13668,"Ġminorities":13669,"Ġconducting":13670,"Ġbred":13671,"Ġdix":13672,"idd":13673,"Ġcologne":13674,"Ġwaterloo":13675,"Ġbark":13676,"Ġshortened":13677,"Ġtaj":13678,"Ġsyracuse":13679,"Ġcasc":13680,"Ġexplore":13681,"Ġpersonalities":13682,"Ġhydra":13683,"Ġcontacts":13684,"pc":13685,"rag":13686,"rens":13687,"Ġcentr":13688,"Ġcarved":13689,"Ġattain":13690,"Ġsuprem":13691,"Ġladen":13692,"Ġgeneal":13693,"Ġkitchen":13694,"Ġpbs":13695,"Ġxiii":13696,"Ġcopied":13697,"Ġcrystall":13698,"Ġindoor":13699,"Ġfou":13700,"Ġknots":13701,"Ġschles":13702,"Ġbalanced":13703,"Ġblocked":13704,"Ġfernando":13705,"jord":13706,"mers":13707,"Ġtensions":13708,"urities":13709,"Ġsuppress":13710,"Ġdonated":13711,"Ġcondens":13712,"Ġtrotsky":13713,"Ġacquire":13714,"Ġturbine":13715,"mir":13716,"Ġley":13717,"ographer":13718,"Ġhalifax":13719,"Ġlucius":13720,"iott":13721,"Ġnac":13722,"Ġrealistic":13723,"Ġpoetic":13724,"Ġtranscend":13725,"Ġpeculiar":13726,"Ġpanc":13727,"Ġbetty":13728,"Ġwitt":13729,"Ġdecreased":13730,"arius":13731,"Ġamazing":13732,"Ġadelaide":13733,"Ġlucky":13734,"Ġnem":13735,"Ġmedals":13736,"Ġswall":13737,"Ġkyoto":13738,"Ġrudolf":13739,"Ġdepicting":13740,"Ġjor":13741,"Ġtrapped":13742,"Ġemail":13743,"Ġcornell":13744,"Ġbroader":13745,"Ġpseudonym":13746,"Ġunh":13747,"Ġjohnston":13748,"Ġhoused":13749,"Ġpressed":13750,"Ġsexually":13751,"Ġingredients":13752,"Ġesperanto":13753,"Ġcork":13754,"Ġdair":13755,"Ġwholly":13756,"dern":13757,"Ġtrim":13758,"Ġenz":13759,"Ġhalls":13760,"Ġfutur":13761,"Ġstafford":13762,"Ġjumping":13763,"Ġcultivation":13764,"Ġshen":13765,"Ġarchipel":13766,"Ġemergence":13767,"ynamic":13768,"reated":13769,"Ġvor":13770,"Ġcouldn":13771,"Ġdiabet":13772,"Ġpromot":13773,"Ġarabian":13774,"Ġjules":13775,"ogenic":13776,"mates":13777,"Ġsara":13778,"Ġchir":13779,"Ġbloc":13780,"Ġanthology":13781,"Ġboulevard":13782,"jud":13783,"Ġsins":13784,"erol":13785,"ilon":13786,"ulent":13787,"Ġperse":13788,"Ġengagement":13789,"Ġexplaining":13790,"Ġburden":13791,"Ġresistant":13792,"Ġsailors":13793,"Ġanalogous":13794,"Ġensemble":13795,"amas":13796,"opot":13797,"Ġscream":13798,"Ġmissed":13799,"Ġdecorated":13800,"ystems":13801,"bat":13802,"Ġkum":13803,"Ġparag":13804,"Ġlibya":13805,"Ġprogrammers":13806,"Ġmotivated":13807,"occ":13808,"Ġiw":13809,
[...]
